{"version":"1.0","truncation":null,"padding":null,"added_tokens":[{"id":0,"special":true,"content":"<s>","single_word":false,"lstrip":false,"rstrip":false,"normalized":false},{"id":1,"special":true,"content":"<pad>","single_word":false,"lstrip":false,"rstrip":false,"normalized":false},{"id":2,"special":true,"content":"</s>","single_word":false,"lstrip":false,"rstrip":false,"normalized":false},{"id":3,"special":true,"content":"<unk>","single_word":false,"lstrip":false,"rstrip":false,"normalized":false},{"id":4,"special":true,"content":"<mask>","single_word":false,"lstrip":false,"rstrip":false,"normalized":false},{"id":5,"special":true,"content":"[UNK0]","single_word":false,"lstrip":false,"rstrip":false,"normalized":false},{"id":6,"special":true,"content":"[UNK1]","single_word":false,"lstrip":false,"rstrip":false,"normalized":false},{"id":7,"special":true,"content":"[UNK2]","single_word":false,"lstrip":false,"rstrip":false,"normalized":false},{"id":8,"special":true,"content":"[UNK3]","single_word":false,"lstrip":false,"rstrip":false,"normalized":false},{"id":9,"special":true,"content":"[UNK4]","single_word":false,"lstrip":false,"rstrip":false,"normalized":false},{"id":10,"special":true,"content":"[UNK5]","single_word":false,"lstrip":false,"rstrip":false,"normalized":false},{"id":11,"special":true,"content":"[UNK6]","single_word":false,"lstrip":false,"rstrip":false,"normalized":false},{"id":12,"special":true,"content":"[UNK7]","single_word":false,"lstrip":false,"rstrip":false,"normalized":false},{"id":13,"special":true,"content":"[UNK8]","single_word":false,"lstrip":false,"rstrip":false,"normalized":false},{"id":14,"special":true,"content":"[UNK9]","single_word":false,"lstrip":false,"rstrip":false,"normalized":false},{"id":15,"special":true,"content":"[unused0]","single_word":false,"lstrip":false,"rstrip":false,"normalized":false},{"id":16,"special":true,"content":"[unused1]","single_word":false,"lstrip":false,"rstrip":false,"normalized":false},{"id":17,"special":true,"content":"[unused2]","single_word":false,"lstrip":false,"rstrip":false,"normalized":false},{"id":18,"special":true,"content":"[unused3]","single_word":false,"lstrip":false,"rstrip":false,"normalized":false},{"id":19,"special":true,"content":"[unused4]","single_word":false,"lstrip":false,"rstrip":false,"normalized":false},{"id":20,"special":true,"content":"[unused5]","single_word":false,"lstrip":false,"rstrip":false,"normalized":false},{"id":21,"special":true,"content":"[unused6]","single_word":false,"lstrip":false,"rstrip":false,"normalized":false},{"id":22,"special":true,"content":"[unused7]","single_word":false,"lstrip":false,"rstrip":false,"normalized":false},{"id":23,"special":true,"content":"[unused8]","single_word":false,"lstrip":false,"rstrip":false,"normalized":false},{"id":24,"special":true,"content":"[unused9]","single_word":false,"lstrip":false,"rstrip":false,"normalized":false},{"id":25,"special":true,"content":"[unused10]","single_word":false,"lstrip":false,"rstrip":false,"normalized":false},{"id":26,"special":true,"content":"[unused11]","single_word":false,"lstrip":false,"rstrip":false,"normalized":false},{"id":27,"special":true,"content":"[unused12]","single_word":false,"lstrip":false,"rstrip":false,"normalized":false},{"id":28,"special":true,"content":"[unused13]","single_word":false,"lstrip":false,"rstrip":false,"normalized":false},{"id":29,"special":true,"content":"[unused14]","single_word":false,"lstrip":false,"rstrip":false,"normalized":false},{"id":30,"special":true,"content":"[unused15]","single_word":false,"lstrip":false,"rstrip":false,"normalized":false},{"id":31,"special":true,"content":"[unused16]","single_word":false,"lstrip":false,"rstrip":false,"normalized":false},{"id":32,"special":true,"content":"[unused17]","single_word":false,"lstrip":false,"rstrip":false,"normalized":false},{"id":33,"special":true,"content":"[unused18]","single_word":false,"lstrip":false,"rstrip":false,"normalized":false},{"id":34,"special":true,"content":"[unused19]","single_word":false,"lstrip":false,"rstrip":false,"normalized":false},{"id":35,"special":true,"content":"[unused20]","single_word":false,"lstrip":false,"rstrip":false,"normalized":false},{"id":36,"special":true,"content":"[unused21]","single_word":false,"lstrip":false,"rstrip":false,"normalized":false},{"id":37,"special":true,"content":"[unused22]","single_word":false,"lstrip":false,"rstrip":false,"normalized":false},{"id":38,"special":true,"content":"[unused23]","single_word":false,"lstrip":false,"rstrip":false,"normalized":false},{"id":39,"special":true,"content":"[unused24]","single_word":false,"lstrip":false,"rstrip":false,"normalized":false},{"id":40,"special":true,"content":"[unused25]","single_word":false,"lstrip":false,"rstrip":false,"normalized":false},{"id":41,"special":true,"content":"[unused26]","single_word":false,"lstrip":false,"rstrip":false,"normalized":false},{"id":42,"special":true,"content":"[unused27]","single_word":false,"lstrip":false,"rstrip":false,"normalized":false},{"id":43,"special":true,"content":"[unused28]","single_word":false,"lstrip":false,"rstrip":false,"normalized":false},{"id":44,"special":true,"content":"[unused29]","single_word":false,"lstrip":false,"rstrip":false,"normalized":false},{"id":45,"special":true,"content":"[unused30]","single_word":false,"lstrip":false,"rstrip":false,"normalized":false},{"id":46,"special":true,"content":"[unused31]","single_word":false,"lstrip":false,"rstrip":false,"normalized":false},{"id":47,"special":true,"content":"[unused32]","single_word":false,"lstrip":false,"rstrip":false,"normalized":false},{"id":48,"special":true,"content":"[unused33]","single_word":false,"lstrip":false,"rstrip":false,"normalized":false},{"id":49,"special":true,"content":"[unused34]","single_word":false,"lstrip":false,"rstrip":false,"normalized":false},{"id":50,"special":true,"content":"[unused35]","single_word":false,"lstrip":false,"rstrip":false,"normalized":false},{"id":51,"special":true,"content":"[unused36]","single_word":false,"lstrip":false,"rstrip":false,"normalized":false},{"id":52,"special":true,"content":"[unused37]","single_word":false,"lstrip":false,"rstrip":false,"normalized":false},{"id":53,"special":true,"content":"[unused38]","single_word":false,"lstrip":false,"rstrip":false,"normalized":false},{"id":54,"special":true,"content":"[unused39]","single_word":false,"lstrip":false,"rstrip":false,"normalized":false},{"id":55,"special":true,"content":"[unused40]","single_word":false,"lstrip":false,"rstrip":false,"normalized":false},{"id":56,"special":true,"content":"[unused41]","single_word":false,"lstrip":false,"rstrip":false,"normalized":false},{"id":57,"special":true,"content":"[unused42]","single_word":false,"lstrip":false,"rstrip":false,"normalized":false},{"id":58,"special":true,"content":"[unused43]","single_word":false,"lstrip":false,"rstrip":false,"normalized":false},{"id":59,"special":true,"content":"[unused44]","single_word":false,"lstrip":false,"rstrip":false,"normalized":false},{"id":60,"special":true,"content":"[unused45]","single_word":false,"lstrip":false,"rstrip":false,"normalized":false},{"id":61,"special":true,"content":"[unused46]","single_word":false,"lstrip":false,"rstrip":false,"normalized":false},{"id":62,"special":true,"content":"[unused47]","single_word":false,"lstrip":false,"rstrip":false,"normalized":false},{"id":63,"special":true,"content":"[unused48]","single_word":false,"lstrip":false,"rstrip":false,"normalized":false},{"id":64,"special":true,"content":"[unused49]","single_word":false,"lstrip":false,"rstrip":false,"normalized":false},{"id":65,"special":true,"content":"[unused50]","single_word":false,"lstrip":false,"rstrip":false,"normalized":false},{"id":66,"special":true,"content":"[unused51]","single_word":false,"lstrip":false,"rstrip":false,"normalized":false},{"id":67,"special":true,"content":"[unused52]","single_word":false,"lstrip":false,"rstrip":false,"normalized":false},{"id":68,"special":true,"content":"[unused53]","single_word":false,"lstrip":false,"rstrip":false,"normalized":false},{"id":69,"special":true,"content":"[unused54]","single_word":false,"lstrip":false,"rstrip":false,"normalized":false},{"id":70,"special":true,"content":"[unused55]","single_word":false,"lstrip":false,"rstrip":false,"normalized":false},{"id":71,"special":true,"content":"[unused56]","single_word":false,"lstrip":false,"rstrip":false,"normalized":false},{"id":72,"special":true,"content":"[unused57]","single_word":false,"lstrip":false,"rstrip":false,"normalized":false},{"id":73,"special":true,"content":"[unused58]","single_word":false,"lstrip":false,"rstrip":false,"normalized":false},{"id":74,"special":true,"content":"[unused59]","single_word":false,"lstrip":false,"rstrip":false,"normalized":false},{"id":75,"special":true,"content":"[unused60]","single_word":false,"lstrip":false,"rstrip":false,"normalized":false},{"id":76,"special":true,"content":"[unused61]","single_word":false,"lstrip":false,"rstrip":false,"normalized":false},{"id":77,"special":true,"content":"[unused62]","single_word":false,"lstrip":false,"rstrip":false,"normalized":false},{"id":78,"special":true,"content":"[unused63]","single_word":false,"lstrip":false,"rstrip":false,"normalized":false},{"id":79,"special":true,"content":"[unused64]","single_word":false,"lstrip":false,"rstrip":false,"normalized":false},{"id":80,"special":true,"content":"[unused65]","single_word":false,"lstrip":false,"rstrip":false,"normalized":false},{"id":81,"special":true,"content":"[unused66]","single_word":false,"lstrip":false,"rstrip":false,"normalized":false},{"id":82,"special":true,"content":"[unused67]","single_word":false,"lstrip":false,"rstrip":false,"normalized":false},{"id":83,"special":true,"content":"[unused68]","single_word":false,"lstrip":false,"rstrip":false,"normalized":false},{"id":84,"special":true,"content":"[unused69]","single_word":false,"lstrip":false,"rstrip":false,"normalized":false},{"id":85,"special":true,"content":"[unused70]","single_word":false,"lstrip":false,"rstrip":false,"normalized":false},{"id":86,"special":true,"content":"[unused71]","single_word":false,"lstrip":false,"rstrip":false,"normalized":false},{"id":87,"special":true,"content":"[unused72]","single_word":false,"lstrip":false,"rstrip":false,"normalized":false},{"id":88,"special":true,"content":"[unused73]","single_word":false,"lstrip":false,"rstrip":false,"normalized":false},{"id":89,"special":true,"content":"[unused74]","single_word":false,"lstrip":false,"rstrip":false,"normalized":false},{"id":90,"special":true,"content":"[unused75]","single_word":false,"lstrip":false,"rstrip":false,"normalized":false},{"id":91,"special":true,"content":"[unused76]","single_word":false,"lstrip":false,"rstrip":false,"normalized":false},{"id":92,"special":true,"content":"[unused77]","single_word":false,"lstrip":false,"rstrip":false,"normalized":false},{"id":93,"special":true,"content":"[unused78]","single_word":false,"lstrip":false,"rstrip":false,"normalized":false},{"id":94,"special":true,"content":"[unused79]","single_word":false,"lstrip":false,"rstrip":false,"normalized":false},{"id":95,"special":true,"content":"[unused80]","single_word":false,"lstrip":false,"rstrip":false,"normalized":false},{"id":96,"special":true,"content":"[unused81]","single_word":false,"lstrip":false,"rstrip":false,"normalized":false},{"id":97,"special":true,"content":"[unused82]","single_word":false,"lstrip":false,"rstrip":false,"normalized":false},{"id":98,"special":true,"content":"[unused83]","single_word":false,"lstrip":false,"rstrip":false,"normalized":false},{"id":99,"special":true,"content":"[unused84]","single_word":false,"lstrip":false,"rstrip":false,"normalized":false},{"id":100,"special":true,"content":"[unused85]","single_word":false,"lstrip":false,"rstrip":false,"normalized":false},{"id":101,"special":true,"content":"[unused86]","single_word":false,"lstrip":false,"rstrip":false,"normalized":false},{"id":102,"special":true,"content":"[unused87]","single_word":false,"lstrip":false,"rstrip":false,"normalized":false},{"id":103,"special":true,"content":"[unused88]","single_word":false,"lstrip":false,"rstrip":false,"normalized":false},{"id":104,"special":true,"content":"[unused89]","single_word":false,"lstrip":false,"rstrip":false,"normalized":false},{"id":105,"special":true,"content":"[unused90]","single_word":false,"lstrip":false,"rstrip":false,"normalized":false},{"id":106,"special":true,"content":"[unused91]","single_word":false,"lstrip":false,"rstrip":false,"normalized":false},{"id":107,"special":true,"content":"[unused92]","single_word":false,"lstrip":false,"rstrip":false,"normalized":false},{"id":108,"special":true,"content":"[unused93]","single_word":false,"lstrip":false,"rstrip":false,"normalized":false},{"id":109,"special":true,"content":"[unused94]","single_word":false,"lstrip":false,"rstrip":false,"normalized":false},{"id":110,"special":true,"content":"[unused95]","single_word":false,"lstrip":false,"rstrip":false,"normalized":false},{"id":111,"special":true,"content":"[unused96]","single_word":false,"lstrip":false,"rstrip":false,"normalized":false},{"id":112,"special":true,"content":"[unused97]","single_word":false,"lstrip":false,"rstrip":false,"normalized":false},{"id":113,"special":true,"content":"[unused98]","single_word":false,"lstrip":false,"rstrip":false,"normalized":false},{"id":114,"special":true,"content":"[unused99]","single_word":false,"lstrip":false,"rstrip":false,"normalized":false},{"id":115,"special":true,"content":"[unused100]","single_word":false,"lstrip":false,"rstrip":false,"normalized":false},{"id":116,"special":true,"content":"[unused101]","single_word":false,"lstrip":false,"rstrip":false,"normalized":false},{"id":117,"special":true,"content":"[unused102]","single_word":false,"lstrip":false,"rstrip":false,"normalized":false},{"id":118,"special":true,"content":"[unused103]","single_word":false,"lstrip":false,"rstrip":false,"normalized":false},{"id":119,"special":true,"content":"[unused104]","single_word":false,"lstrip":false,"rstrip":false,"normalized":false},{"id":120,"special":true,"content":"[unused105]","single_word":false,"lstrip":false,"rstrip":false,"normalized":false},{"id":121,"special":true,"content":"[unused106]","single_word":false,"lstrip":false,"rstrip":false,"normalized":false},{"id":122,"special":true,"content":"[unused107]","single_word":false,"lstrip":false,"rstrip":false,"normalized":false},{"id":123,"special":true,"content":"[unused108]","single_word":false,"lstrip":false,"rstrip":false,"normalized":false},{"id":124,"special":true,"content":"[unused109]","single_word":false,"lstrip":false,"rstrip":false,"normalized":false},{"id":125,"special":true,"content":"[unused110]","single_word":false,"lstrip":false,"rstrip":false,"normalized":false},{"id":126,"special":true,"content":"[unused111]","single_word":false,"lstrip":false,"rstrip":false,"normalized":false},{"id":127,"special":true,"content":"[unused112]","single_word":false,"lstrip":false,"rstrip":false,"normalized":false},{"id":128,"special":true,"content":"[unused113]","single_word":false,"lstrip":false,"rstrip":false,"normalized":false},{"id":129,"special":true,"content":"[unused114]","single_word":false,"lstrip":false,"rstrip":false,"normalized":false},{"id":130,"special":true,"content":"[unused115]","single_word":false,"lstrip":false,"rstrip":false,"normalized":false},{"id":131,"special":true,"content":"[unused116]","single_word":false,"lstrip":false,"rstrip":false,"normalized":false},{"id":132,"special":true,"content":"[unused117]","single_word":false,"lstrip":false,"rstrip":false,"normalized":false},{"id":133,"special":true,"content":"[unused118]","single_word":false,"lstrip":false,"rstrip":false,"normalized":false},{"id":134,"special":true,"content":"[unused119]","single_word":false,"lstrip":false,"rstrip":false,"normalized":false},{"id":135,"special":true,"content":"[unused120]","single_word":false,"lstrip":false,"rstrip":false,"normalized":false},{"id":136,"special":true,"content":"[unused121]","single_word":false,"lstrip":false,"rstrip":false,"normalized":false},{"id":137,"special":true,"content":"[unused122]","single_word":false,"lstrip":false,"rstrip":false,"normalized":false},{"id":138,"special":true,"content":"[unused123]","single_word":false,"lstrip":false,"rstrip":false,"normalized":false},{"id":139,"special":true,"content":"[unused124]","single_word":false,"lstrip":false,"rstrip":false,"normalized":false},{"id":140,"special":true,"content":"[unused125]","single_word":false,"lstrip":false,"rstrip":false,"normalized":false},{"id":141,"special":true,"content":"[unused126]","single_word":false,"lstrip":false,"rstrip":false,"normalized":false},{"id":142,"special":true,"content":"[unused127]","single_word":false,"lstrip":false,"rstrip":false,"normalized":false},{"id":143,"special":true,"content":"[unused128]","single_word":false,"lstrip":false,"rstrip":false,"normalized":false},{"id":144,"special":true,"content":"[unused129]","single_word":false,"lstrip":false,"rstrip":false,"normalized":false},{"id":145,"special":true,"content":"[unused130]","single_word":false,"lstrip":false,"rstrip":false,"normalized":false},{"id":146,"special":true,"content":"[unused131]","single_word":false,"lstrip":false,"rstrip":false,"normalized":false},{"id":147,"special":true,"content":"[unused132]","single_word":false,"lstrip":false,"rstrip":false,"normalized":false},{"id":148,"special":true,"content":"[unused133]","single_word":false,"lstrip":false,"rstrip":false,"normalized":false},{"id":149,"special":true,"content":"[unused134]","single_word":false,"lstrip":false,"rstrip":false,"normalized":false},{"id":150,"special":true,"content":"[unused135]","single_word":false,"lstrip":false,"rstrip":false,"normalized":false},{"id":151,"special":true,"content":"[unused136]","single_word":false,"lstrip":false,"rstrip":false,"normalized":false},{"id":152,"special":true,"content":"[unused137]","single_word":false,"lstrip":false,"rstrip":false,"normalized":false},{"id":153,"special":true,"content":"[unused138]","single_word":false,"lstrip":false,"rstrip":false,"normalized":false},{"id":154,"special":true,"content":"[unused139]","single_word":false,"lstrip":false,"rstrip":false,"normalized":false},{"id":155,"special":true,"content":"[unused140]","single_word":false,"lstrip":false,"rstrip":false,"normalized":false},{"id":156,"special":true,"content":"[unused141]","single_word":false,"lstrip":false,"rstrip":false,"normalized":false},{"id":157,"special":true,"content":"[unused142]","single_word":false,"lstrip":false,"rstrip":false,"normalized":false},{"id":158,"special":true,"content":"[unused143]","single_word":false,"lstrip":false,"rstrip":false,"normalized":false},{"id":159,"special":true,"content":"[unused144]","single_word":false,"lstrip":false,"rstrip":false,"normalized":false},{"id":160,"special":true,"content":"[unused145]","single_word":false,"lstrip":false,"rstrip":false,"normalized":false},{"id":161,"special":true,"content":"[unused146]","single_word":false,"lstrip":false,"rstrip":false,"normalized":false},{"id":162,"special":true,"content":"[unused147]","single_word":false,"lstrip":false,"rstrip":false,"normalized":false},{"id":163,"special":true,"content":"[unused148]","single_word":false,"lstrip":false,"rstrip":false,"normalized":false},{"id":164,"special":true,"content":"[unused149]","single_word":false,"lstrip":false,"rstrip":false,"normalized":false},{"id":165,"special":true,"content":"[unused150]","single_word":false,"lstrip":false,"rstrip":false,"normalized":false},{"id":166,"special":true,"content":"[unused151]","single_word":false,"lstrip":false,"rstrip":false,"normalized":false},{"id":167,"special":true,"content":"[unused152]","single_word":false,"lstrip":false,"rstrip":false,"normalized":false},{"id":168,"special":true,"content":"[unused153]","single_word":false,"lstrip":false,"rstrip":false,"normalized":false},{"id":169,"special":true,"content":"[unused154]","single_word":false,"lstrip":false,"rstrip":false,"normalized":false},{"id":170,"special":true,"content":"[unused155]","single_word":false,"lstrip":false,"rstrip":false,"normalized":false},{"id":171,"special":true,"content":"[unused156]","single_word":false,"lstrip":false,"rstrip":false,"normalized":false},{"id":172,"special":true,"content":"[unused157]","single_word":false,"lstrip":false,"rstrip":false,"normalized":false},{"id":173,"special":true,"content":"[unused158]","single_word":false,"lstrip":false,"rstrip":false,"normalized":false},{"id":174,"special":true,"content":"[unused159]","single_word":false,"lstrip":false,"rstrip":false,"normalized":false},{"id":175,"special":true,"content":"[unused160]","single_word":false,"lstrip":false,"rstrip":false,"normalized":false},{"id":176,"special":true,"content":"[unused161]","single_word":false,"lstrip":false,"rstrip":false,"normalized":false},{"id":177,"special":true,"content":"[unused162]","single_word":false,"lstrip":false,"rstrip":false,"normalized":false},{"id":178,"special":true,"content":"[unused163]","single_word":false,"lstrip":false,"rstrip":false,"normalized":false},{"id":179,"special":true,"content":"[unused164]","single_word":false,"lstrip":false,"rstrip":false,"normalized":false},{"id":180,"special":true,"content":"[unused165]","single_word":false,"lstrip":false,"rstrip":false,"normalized":false},{"id":181,"special":true,"content":"[unused166]","single_word":false,"lstrip":false,"rstrip":false,"normalized":false},{"id":182,"special":true,"content":"[unused167]","single_word":false,"lstrip":false,"rstrip":false,"normalized":false},{"id":183,"special":true,"content":"[unused168]","single_word":false,"lstrip":false,"rstrip":false,"normalized":false},{"id":184,"special":true,"content":"[unused169]","single_word":false,"lstrip":false,"rstrip":false,"normalized":false},{"id":185,"special":true,"content":"[unused170]","single_word":false,"lstrip":false,"rstrip":false,"normalized":false},{"id":186,"special":true,"content":"[unused171]","single_word":false,"lstrip":false,"rstrip":false,"normalized":false},{"id":187,"special":true,"content":"[unused172]","single_word":false,"lstrip":false,"rstrip":false,"normalized":false},{"id":188,"special":true,"content":"[unused173]","single_word":false,"lstrip":false,"rstrip":false,"normalized":false},{"id":189,"special":true,"content":"[unused174]","single_word":false,"lstrip":false,"rstrip":false,"normalized":false},{"id":190,"special":true,"content":"[unused175]","single_word":false,"lstrip":false,"rstrip":false,"normalized":false},{"id":191,"special":true,"content":"[unused176]","single_word":false,"lstrip":false,"rstrip":false,"normalized":false},{"id":192,"special":true,"content":"[unused177]","single_word":false,"lstrip":false,"rstrip":false,"normalized":false},{"id":193,"special":true,"content":"[unused178]","single_word":false,"lstrip":false,"rstrip":false,"normalized":false},{"id":194,"special":true,"content":"[unused179]","single_word":false,"lstrip":false,"rstrip":false,"normalized":false},{"id":195,"special":true,"content":"[unused180]","single_word":false,"lstrip":false,"rstrip":false,"normalized":false},{"id":196,"special":true,"content":"[unused181]","single_word":false,"lstrip":false,"rstrip":false,"normalized":false},{"id":197,"special":true,"content":"[unused182]","single_word":false,"lstrip":false,"rstrip":false,"normalized":false},{"id":198,"special":true,"content":"[unused183]","single_word":false,"lstrip":false,"rstrip":false,"normalized":false},{"id":199,"special":true,"content":"[unused184]","single_word":false,"lstrip":false,"rstrip":false,"normalized":false},{"id":200,"special":true,"content":"[unused185]","single_word":false,"lstrip":false,"rstrip":false,"normalized":false},{"id":201,"special":true,"content":"[unused186]","single_word":false,"lstrip":false,"rstrip":false,"normalized":false},{"id":202,"special":true,"content":"[unused187]","single_word":false,"lstrip":false,"rstrip":false,"normalized":false},{"id":203,"special":true,"content":"[unused188]","single_word":false,"lstrip":false,"rstrip":false,"normalized":false},{"id":204,"special":true,"content":"[unused189]","single_word":false,"lstrip":false,"rstrip":false,"normalized":false},{"id":205,"special":true,"content":"[unused190]","single_word":false,"lstrip":false,"rstrip":false,"normalized":false},{"id":206,"special":true,"content":"[unused191]","single_word":false,"lstrip":false,"rstrip":false,"normalized":false},{"id":207,"special":true,"content":"[unused192]","single_word":false,"lstrip":false,"rstrip":false,"normalized":false},{"id":208,"special":true,"content":"[unused193]","single_word":false,"lstrip":false,"rstrip":false,"normalized":false},{"id":209,"special":true,"content":"[unused194]","single_word":false,"lstrip":false,"rstrip":false,"normalized":false},{"id":210,"special":true,"content":"[unused195]","single_word":false,"lstrip":false,"rstrip":false,"normalized":false},{"id":211,"special":true,"content":"[unused196]","single_word":false,"lstrip":false,"rstrip":false,"normalized":false},{"id":212,"special":true,"content":"[unused197]","single_word":false,"lstrip":false,"rstrip":false,"normalized":false},{"id":213,"special":true,"content":"[unused198]","single_word":false,"lstrip":false,"rstrip":false,"normalized":false},{"id":214,"special":true,"content":"[unused199]","single_word":false,"lstrip":false,"rstrip":false,"normalized":false}],"normalizer":{"type":"BertNormalizer","clean_text":true,"handle_chinese_chars":true,"strip_accents":false,"lowercase":false},"pre_tokenizer":{"type":"BertPreTokenizer"},"post_processor":null,"decoder":{"type":"WordPiece","prefix":"##","cleanup":true},"model":{"type":"WordPiece","unk_token":"[UNK]","continuing_subword_prefix":"##","max_input_chars_per_word":100,"vocab":{"<s>":0,"<pad>":1,"</s>":2,"<unk>":3,"<mask>":4,"[UNK0]":5,"[UNK1]":6,"[UNK2]":7,"[UNK3]":8,"[UNK4]":9,"[UNK5]":10,"[UNK6]":11,"[UNK7]":12,"[UNK8]":13,"[UNK9]":14,"[unused0]":15,"[unused1]":16,"[unused2]":17,"[unused3]":18,"[unused4]":19,"[unused5]":20,"[unused6]":21,"[unused7]":22,"[unused8]":23,"[unused9]":24,"[unused10]":25,"[unused11]":26,"[unused12]":27,"[unused13]":28,"[unused14]":29,"[unused15]":30,"[unused16]":31,"[unused17]":32,"[unused18]":33,"[unused19]":34,"[unused20]":35,"[unused21]":36,"[unused22]":37,"[unused23]":38,"[unused24]":39,"[unused25]":40,"[unused26]":41,"[unused27]":42,"[unused28]":43,"[unused29]":44,"[unused30]":45,"[unused31]":46,"[unused32]":47,"[unused33]":48,"[unused34]":49,"[unused35]":50,"[unused36]":51,"[unused37]":52,"[unused38]":53,"[unused39]":54,"[unused40]":55,"[unused41]":56,"[unused42]":57,"[unused43]":58,"[unused44]":59,"[unused45]":60,"[unused46]":61,"[unused47]":62,"[unused48]":63,"[unused49]":64,"[unused50]":65,"[unused51]":66,"[unused52]":67,"[unused53]":68,"[unused54]":69,"[unused55]":70,"[unused56]":71,"[unused57]":72,"[unused58]":73,"[unused59]":74,"[unused60]":75,"[unused61]":76,"[unused62]":77,"[unused63]":78,"[unused64]":79,"[unused65]":80,"[unused66]":81,"[unused67]":82,"[unused68]":83,"[unused69]":84,"[unused70]":85,"[unused71]":86,"[unused72]":87,"[unused73]":88,"[unused74]":89,"[unused75]":90,"[unused76]":91,"[unused77]":92,"[unused78]":93,"[unused79]":94,"[unused80]":95,"[unused81]":96,"[unused82]":97,"[unused83]":98,"[unused84]":99,"[unused85]":100,"[unused86]":101,"[unused87]":102,"[unused88]":103,"[unused89]":104,"[unused90]":105,"[unused91]":106,"[unused92]":107,"[unused93]":108,"[unused94]":109,"[unused95]":110,"[unused96]":111,"[unused97]":112,"[unused98]":113,"[unused99]":114,"[unused100]":115,"[unused101]":116,"[unused102]":117,"[unused103]":118,"[unused104]":119,"[unused105]":120,"[unused106]":121,"[unused107]":122,"[unused108]":123,"[unused109]":124,"[unused110]":125,"[unused111]":126,"[unused112]":127,"[unused113]":128,"[unused114]":129,"[unused115]":130,"[unused116]":131,"[unused117]":132,"[unused118]":133,"[unused119]":134,"[unused120]":135,"[unused121]":136,"[unused122]":137,"[unused123]":138,"[unused124]":139,"[unused125]":140,"[unused126]":141,"[unused127]":142,"[unused128]":143,"[unused129]":144,"[unused130]":145,"[unused131]":146,"[unused132]":147,"[unused133]":148,"[unused134]":149,"[unused135]":150,"[unused136]":151,"[unused137]":152,"[unused138]":153,"[unused139]":154,"[unused140]":155,"[unused141]":156,"[unused142]":157,"[unused143]":158,"[unused144]":159,"[unused145]":160,"[unused146]":161,"[unused147]":162,"[unused148]":163,"[unused149]":164,"[unused150]":165,"[unused151]":166,"[unused152]":167,"[unused153]":168,"[unused154]":169,"[unused155]":170,"[unused156]":171,"[unused157]":172,"[unused158]":173,"[unused159]":174,"[unused160]":175,"[unused161]":176,"[unused162]":177,"[unused163]":178,"[unused164]":179,"[unused165]":180,"[unused166]":181,"[unused167]":182,"[unused168]":183,"[unused169]":184,"[unused170]":185,"[unused171]":186,"[unused172]":187,"[unused173]":188,"[unused174]":189,"[unused175]":190,"[unused176]":191,"[unused177]":192,"[unused178]":193,"[unused179]":194,"[unused180]":195,"[unused181]":196,"[unused182]":197,"[unused183]":198,"[unused184]":199,"[unused185]":200,"[unused186]":201,"[unused187]":202,"[unused188]":203,"[unused189]":204,"[unused190]":205,"[unused191]":206,"[unused192]":207,"[unused193]":208,"[unused194]":209,"[unused195]":210,"[unused196]":211,"[unused197]":212,"[unused198]":213,"[unused199]":214,"!":215,"$":216,"%":217,",":218,"-":219,".":220,"/":221,"0":222,"1":223,"2":224,"3":225,"4":226,"5":227,"6":228,"7":229,"8":230,"9":231,":":232,"?":233,"@":234,"A":235,"B":236,"C":237,"D":238,"E":239,"F":240,"G":241,"H":242,"I":243,"J":244,"K":245,"L":246,"M":247,"N":248,"O":249,"P":250,"Q":251,"R":252,"S":253,"T":254,"U":255,"V":256,"W":257,"X":258,"Y":259,"Z":260,"a":261,"b":262,"c":263,"d":264,"e":265,"f":266,"g":267,"h":268,"i":269,"j":270,"k":271,"l":272,"m":273,"n":274,"o":275,"p":276,"q":277,"r":278,"s":279,"t":280,"u":281,"v":282,"w":283,"x":284,"y":285,"z":286,"~":287,"·":288,"가":289,"각":290,"갂":291,"갃":292,"간":293,"갅":294,"갆":295,"갇":296,"갈":297,"갉":298,"갊":299,"갋":300,"갌":301,"갍":302,"갎":303,"갏":304,"감":305,"갑":306,"값":307,"갓":308,"갔":309,"강":310,"갖":311,"갗":312,"갘":313,"같":314,"갚":315,"갛":316,"개":317,"객":318,"갞":319,"갟":320,"갠":321,"갢":322,"갣":323,"갤":324,"갥":325,"갧":326,"갩":327,"갫":328,"갬":329,"갭":330,"갮":331,"갯":332,"갰":333,"갱":334,"갲":335,"갳":336,"갴":337,"갵":338,"갶":339,"갷":340,"갸":341,"갹":342,"갺":343,"갼":344,"갿":345,"걀":346,"걇":347,"걈":348,"걉":349,"걊":350,"걋":351,"걌":352,"걍":353,"걎":354,"걐":355,"걑":356,"걒":357,"걔":358,"걕":359,"걖":360,"걘":361,"걜":362,"걤":363,"걥":364,"걧":365,"걨":366,"걩":367,"거":368,"걱":369,"걲":370,"걳":371,"건":372,"걵":373,"걶":374,"걷":375,"걸":376,"걹":377,"걺":378,"걻":379,"걼":380,"걽":381,"걾":382,"걿":383,"검":384,"겁":385,"겂":386,"것":387,"겄":388,"겅":389,"겆":390,"겇":391,"겈":392,"겉":393,"겊":394,"겋":395,"게":396,"겍":397,"겎":398,"겏":399,"겐":400,"겒":401,"겓":402,"겔":403,"겖":404,"겙":405,"겚":406,"겛":407,"겜":408,"겝":409,"겞":410,"겟":411,"겠":412,"겡":413,"겢":414,"겣":415,"겤":416,"겥":417,"겦":418,"겧":419,"겨":420,"격":421,"겪":422,"겫":423,"견":424,"겭":425,"겮":426,"겯":427,"결":428,"겱":429,"겲":430,"겳":431,"겴":432,"겵":433,"겷":434,"겸":435,"겹":436,"겺":437,"겻":438,"겼":439,"경":440,"겾":441,"겿":442,"곀":443,"곁":444,"곂":445,"곃":446,"계":447,"곅":448,"곆":449,"곈":450,"곋":451,"곌":452,"곔":453,"곕":454,"곖":455,"곗":456,"곘":457,"곙":458,"곚":459,"곛":460,"곜":461,"곝":462,"곟":463,"고":464,"곡":465,"곢":466,"곣":467,"곤":468,"곧":469,"골":470,"곩":471,"곪":472,"곫":473,"곬":474,"곭":475,"곮":476,"곯":477,"곰":478,"곱":479,"곲":480,"곳":481,"곴":482,"공":483,"곶":484,"곷":485,"곸":486,"곹":487,"곺":488,"곻":489,"과":490,"곽":491,"곾":492,"관":493,"괁":494,"괂":495,"괃":496,"괄":497,"괆":498,"괋":499,"괌":500,"괍":501,"괏":502,"괐":503,"광":504,"괒":505,"괓":506,"괔":507,"괕":508,"괖":509,"괗":510,"괘":511,"괙":512,"괜":513,"괝":514,"괞":515,"괠":516,"괨":517,"괫":518,"괬":519,"괭":520,"괴":521,"괵":522,"괸":523,"괺":524,"괼":525,"굄":526,"굅":527,"굇":528,"굈":529,"굉":530,"굌":531,"교":532,"굑":533,"굔":534,"굗":535,"굘":536,"굚":537,"굠":538,"굡":539,"굣":540,"굤":541,"굥":542,"굦":543,"굧":544,"굨":545,"굩":546,"굪":547,"굫":548,"구":549,"국":550,"굮":551,"굯":552,"군":553,"굱":554,"굲":555,"굳":556,"굴":557,"굵":558,"굶":559,"굷":560,"굸":561,"굹":562,"굺":563,"굻":564,"굼":565,"굽":566,"굾":567,"굿":568,"궀":569,"궁":570,"궂":571,"궃":572,"궄":573,"궅":574,"궆":575,"궇":576,"궈":577,"궉":578,"권":579,"궍":580,"궎":581,"궏":582,"궐":583,"궘":584,"궙":585,"궛":586,"궜":587,"궝":588,"궞":589,"궠":590,"궤":591,"궥":592,"궨":593,"궬":594,"궯":595,"궵":596,"궷":597,"궸":598,"궹":599,"귀":600,"귁":601,"귄":602,"귈":603,"귐":604,"귑":605,"귓":606,"귔":607,"귕":608,"귖":609,"귘":610,"규":611,"귝":612,"균":613,"귣":614,"귤":615,"귦":616,"귬":617,"귭":618,"귯":619,"귱":620,"귲":621,"귴":622,"그":623,"극":624,"귺":625,"귻":626,"근":627,"귽":628,"귾":629,"귿":630,"글":631,"긁":632,"긂":633,"긃":634,"긄":635,"긆":636,"긇":637,"금":638,"급":639,"긊":640,"긋":641,"긌":642,"긍":643,"긎":644,"긏":645,"긐":646,"긑":647,"긒":648,"긓":649,"긔":650,"긕":651,"긘":652,"긛":653,"긜":654,"긤":655,"긥":656,"긧":657,"긨":658,"긩":659,"긬":660,"기":661,"긱":662,"긲":663,"긴":664,"긵":665,"긶":666,"긷":667,"길":668,"긹":669,"긺":670,"긻":671,"긼":672,"긽":673,"긾":674,"긿":675,"김":676,"깁":677,"깂":678,"깃":679,"깄":680,"깅":681,"깆":682,"깇":683,"깈":684,"깉":685,"깊":686,"깋":687,"까":688,"깍":689,"깎":690,"깐":691,"깒":692,"깓":693,"깔":694,"깕":695,"깖":696,"깛":697,"깜":698,"깝":699,"깞":700,"깟":701,"깠":702,"깡":703,"깢":704,"깣":705,"깤":706,"깥":707,"깦":708,"깧":709,"깨":710,"깩":711,"깪":712,"깬":713,"깯":714,"깰":715,"깵":716,"깸":717,"깹":718,"깺":719,"깻":720,"깼":721,"깽":722,"깾":723,"꺀":724,"꺄":725,"꺅":726,"꺆":727,"꺈":728,"꺊":729,"꺌":730,"꺏":731,"꺔":732,"꺕":733,"꺗":734,"꺘":735,"꺙":736,"꺚":737,"꺜":738,"꺠":739,"꺡":740,"꺢":741,"꺤":742,"꺨":743,"꺳":744,"꺴":745,"꺵":746,"꺼":747,"꺽":748,"꺾":749,"껀":750,"껃":751,"껄":752,"껅":753,"껌":754,"껍":755,"껏":756,"껐":757,"껑":758,"껒":759,"껓":760,"껔":761,"껕":762,"껗":763,"께":764,"껙":765,"껚":766,"껜":767,"껠":768,"껨":769,"껩":770,"껫":771,"껬":772,"껭":773,"껮":774,"껰":775,"껳":776,"껴":777,"껵":778,"껶":779,"껸":780,"껼":781,"꼄":782,"꼅":783,"꼇":784,"꼈":785,"꼉":786,"꼊":787,"꼌":788,"꼍":789,"꼏":790,"꼐":791,"꼔":792,"꼣":793,"꼤":794,"꼥":795,"꼨":796,"꼬":797,"꼭":798,"꼮":799,"꼰":800,"꼲":801,"꼳":802,"꼴":803,"꼵":804,"꼶":805,"꼷":806,"꼹":807,"꼻":808,"꼼":809,"꼽":810,"꼿":811,"꽁":812,"꽂":813,"꽃":814,"꽄":815,"꽅":816,"꽆":817,"꽇":818,"꽈":819,"꽉":820,"꽊":821,"꽌":822,"꽐":823,"꽘":824,"꽙":825,"꽛":826,"꽜":827,"꽝":828,"꽠":829,"꽤":830,"꽥":831,"꽦":832,"꽨":833,"꽬":834,"꽴":835,"꽷":836,"꽹":837,"꽼":838,"꾀":839,"꾁":840,"꾄":841,"꾈":842,"꾐":843,"꾕":844,"꾜":845,"꾝":846,"꾠":847,"꾤":848,"꾬":849,"꾭":850,"꾱":851,"꾳":852,"꾸":853,"꾹":854,"꾺":855,"꾼":856,"꾽":857,"꾾":858,"꾿":859,"꿀":860,"꿁":861,"꿂":862,"꿃":863,"꿄":864,"꿆":865,"꿇":866,"꿈":867,"꿉":868,"꿋":869,"꿌":870,"꿍":871,"꿎":872,"꿏":873,"꿐":874,"꿑":875,"꿓":876,"꿔":877,"꿕":878,"꿘":879,"꿜":880,"꿤":881,"꿥":882,"꿧":883,"꿨":884,"꿩":885,"꿬":886,"꿯":887,"꿰":888,"꿱":889,"꿲":890,"꿴":891,"꿸":892,"뀀":893,"뀁":894,"뀃":895,"뀄":896,"뀅":897,"뀈":898,"뀌":899,"뀍":900,"뀐":901,"뀔":902,"뀜":903,"뀝":904,"뀟":905,"뀠":906,"뀡":907,"뀢":908,"뀨":909,"뀩":910,"뀪":911,"뀬":912,"뀰":913,"뀵":914,"뀷":915,"뀸":916,"뀹":917,"뀻":918,"뀽":919,"끄":920,"끅":921,"끆":922,"끈":923,"끉":924,"끊":925,"끋":926,"끌":927,"끍":928,"끎":929,"끏":930,"끐":931,"끓":932,"끔":933,"끕":934,"끗":935,"끘":936,"끙":937,"끚":938,"끛":939,"끜":940,"끝":941,"끞":942,"끟":943,"끠":944,"끡":945,"끤":946,"끨":947,"끰":948,"끱":949,"끵":950,"끼":951,"끽":952,"끾":953,"끿":954,"낀":955,"낂":956,"낃":957,"낄":958,"낅":959,"낇":960,"낋":961,"낌":962,"낍":963,"낎":964,"낏":965,"낐":966,"낑":967,"낒":968,"낓":969,"낔":970,"낕":971,"낖":972,"낗":973,"나":974,"낙":975,"낚":976,"낛":977,"난":978,"낝":979,"낞":980,"낟":981,"날":982,"낡":983,"낢":984,"낣":985,"낤":986,"낥":987,"낦":988,"낧":989,"남":990,"납":991,"낪":992,"낫":993,"났":994,"낭":995,"낮":996,"낯":997,"낰":998,"낱":999,"낲":1000,"낳":1001,"내":1002,"낵":1003,"낶":1004,"낸":1005,"낹":1006,"낺":1007,"낻":1008,"낼":1009,"낽":1010,"냀":1011,"냃":1012,"냄":1013,"냅":1014,"냇":1015,"냈":1016,"냉":1017,"냊":1018,"냋":1019,"냌":1020,"냍":1021,"냎":1022,"냏":1023,"냐":1024,"냑":1025,"냒":1026,"냔":1027,"냗":1028,"냘":1029,"냠":1030,"냡":1031,"냣":1032,"냤":1033,"냥":1034,"냦":1035,"냧":1036,"냨":1037,"냩":1038,"냪":1039,"냫":1040,"냬":1041,"냰":1042,"냴":1043,"냼":1044,"냽":1045,"냿":1046,"넀":1047,"넁":1048,"넄":1049,"너":1050,"넉":1051,"넊":1052,"넋":1053,"넌":1054,"넍":1055,"넎":1056,"넏":1057,"널":1058,"넑":1059,"넒":1060,"넓":1061,"넔":1062,"넖":1063,"넗":1064,"넘":1065,"넙":1066,"넚":1067,"넛":1068,"넜":1069,"넝":1070,"넞":1071,"넟":1072,"넠":1073,"넡":1074,"넢":1075,"넣":1076,"네":1077,"넥":1078,"넦":1079,"넨":1080,"넫":1081,"넬":1082,"넴":1083,"넵":1084,"넷":1085,"넸":1086,"넹":1087,"넺":1088,"넻":1089,"넼":1090,"넽":1091,"넾":1092,"넿":1093,"녀":1094,"녁":1095,"녂":1096,"녃":1097,"년":1098,"녅":1099,"녆":1100,"녇":1101,"녈":1102,"녉":1103,"녊":1104,"녋":1105,"녏":1106,"념":1107,"녑":1108,"녓":1109,"녔":1110,"녕":1111,"녖":1112,"녗":1113,"녘":1114,"녙":1115,"녚":1116,"녛":1117,"녜":1118,"녝":1119,"녠":1120,"녤":1121,"녬":1122,"녭":1123,"녯":1124,"녰":1125,"녱":1126,"녴":1127,"노":1128,"녹":1129,"녺":1130,"녻":1131,"논":1132,"녽":1133,"녾":1134,"녿":1135,"놀":1136,"놁":1137,"놂":1138,"놃":1139,"놄":1140,"놇":1141,"놈":1142,"놉":1143,"놊":1144,"놋":1145,"놌":1146,"농":1147,"놎":1148,"놏":1149,"놐":1150,"놑":1151,"높":1152,"놓":1153,"놔":1154,"놕":1155,"놘":1156,"놛":1157,"놜":1158,"놤":1159,"놥":1160,"놧":1161,"놨":1162,"놩":1163,"놪":1164,"놬":1165,"놯":1166,"놰":1167,"놱":1168,"놴":1169,"뇀":1170,"뇁":1171,"뇄":1172,"뇅":1173,"뇌":1174,"뇍":1175,"뇐":1176,"뇓":1177,"뇔":1178,"뇜":1179,"뇝":1180,"뇟":1181,"뇠":1182,"뇡":1183,"뇤":1184,"뇨":1185,"뇩":1186,"뇬":1187,"뇭":1188,"뇮":1189,"뇯":1190,"뇰":1191,"뇸":1192,"뇹":1193,"뇻":1194,"뇽":1195,"뇾":1196,"눀":1197,"눂":1198,"눃":1199,"누":1200,"눅":1201,"눈":1202,"눉":1203,"눋":1204,"눌":1205,"눍":1206,"눔":1207,"눕":1208,"눗":1209,"눘":1210,"눙":1211,"눚":1212,"눜":1213,"눝":1214,"눞":1215,"눟":1216,"눠":1217,"눤":1218,"눨":1219,"눰":1220,"눱":1221,"눳":1222,"눴":1223,"눵":1224,"눻":1225,"눼":1226,"눽":1227,"뉀":1228,"뉄":1229,"뉌":1230,"뉍":1231,"뉑":1232,"뉘":1233,"뉙":1234,"뉜":1235,"뉠":1236,"뉨":1237,"뉩":1238,"뉫":1239,"뉬":1240,"뉭":1241,"뉴":1242,"뉵":1243,"뉸":1244,"뉼":1245,"늄":1246,"늅":1247,"늇":1248,"늉":1249,"늌":1250,"늏":1251,"느":1252,"늑":1253,"늒":1254,"늓":1255,"는":1256,"늕":1257,"늖":1258,"늗":1259,"늘":1260,"늙":1261,"늚":1262,"늛":1263,"늜":1264,"늟":1265,"늠":1266,"늡":1267,"늣":1268,"늤":1269,"능":1270,"늦":1271,"늧":1272,"늨":1273,"늩":1274,"늪":1275,"늫":1276,"늬":1277,"늭":1278,"늰":1279,"늴":1280,"늼":1281,"늽":1282,"늿":1283,"닁":1284,"닄":1285,"닇":1286,"니":1287,"닉":1288,"닊":1289,"닌":1290,"닍":1291,"닏":1292,"닐":1293,"닑":1294,"닒":1295,"닗":1296,"님":1297,"닙":1298,"닚":1299,"닛":1300,"닜":1301,"닝":1302,"닞":1303,"닟":1304,"닠":1305,"닡":1306,"닢":1307,"닣":1308,"다":1309,"닥":1310,"닦":1311,"닧":1312,"단":1313,"닩":1314,"닪":1315,"닫":1316,"달":1317,"닭":1318,"닮":1319,"닯":1320,"닰":1321,"닱":1322,"닲":1323,"닳":1324,"담":1325,"답":1326,"닶":1327,"닷":1328,"닸":1329,"당":1330,"닺":1331,"닻":1332,"닼":1333,"닽":1334,"닾":1335,"닿":1336,"대":1337,"댁":1338,"댂":1339,"댃":1340,"댄":1341,"댇":1342,"댈":1343,"댉":1344,"댏":1345,"댐":1346,"댑":1347,"댒":1348,"댓":1349,"댔":1350,"댕":1351,"댖":1352,"댗":1353,"댘":1354,"댙":1355,"댚":1356,"댛":1357,"댜":1358,"댝":1359,"댠":1360,"댣":1361,"댤":1362,"댥":1363,"댬":1364,"댭":1365,"댯":1366,"댱":1367,"댴":1368,"댸":1369,"댹":1370,"댼":1371,"덀":1372,"덋":1373,"덌":1374,"덍":1375,"더":1376,"덕":1377,"덖":1378,"덗":1379,"던":1380,"덙":1381,"덚":1382,"덛":1383,"덜":1384,"덝":1385,"덞":1386,"덟":1387,"덢":1388,"덣":1389,"덤":1390,"덥":1391,"덦":1392,"덧":1393,"덨":1394,"덩":1395,"덪":1396,"덫":1397,"덬":1398,"덭":1399,"덮":1400,"덯":1401,"데":1402,"덱":1403,"덲":1404,"덴":1405,"덷":1406,"델":1407,"뎀":1408,"뎁":1409,"뎃":1410,"뎄":1411,"뎅":1412,"뎆":1413,"뎇":1414,"뎈":1415,"뎉":1416,"뎊":1417,"뎋":1418,"뎌":1419,"뎍":1420,"뎐":1421,"뎓":1422,"뎔":1423,"뎜":1424,"뎝":1425,"뎟":1426,"뎠":1427,"뎡":1428,"뎦":1429,"뎧":1430,"뎨":1431,"뎬":1432,"뎰":1433,"뎽":1434,"도":1435,"독":1436,"돆":1437,"돇":1438,"돈":1439,"돉":1440,"돋":1441,"돌":1442,"돍":1443,"돎":1444,"돏":1445,"돐":1446,"돑":1447,"돒":1448,"돓":1449,"돔":1450,"돕":1451,"돖":1452,"돗":1453,"돘":1454,"동":1455,"돚":1456,"돛":1457,"돜":1458,"돝":1459,"돞":1460,"돟":1461,"돠":1462,"돡":1463,"돤":1464,"돨":1465,"돩":1466,"돰":1467,"돱":1468,"돳":1469,"돴":1470,"돵":1471,"돶":1472,"돸":1473,"돼":1474,"돽":1475,"돾":1476,"됀":1477,"됃":1478,"됄":1479,"됋":1480,"됌":1481,"됍":1482,"됏":1483,"됐":1484,"됑":1485,"됒":1486,"됔":1487,"됗":1488,"되":1489,"됙":1490,"된":1491,"됝":1492,"됟":1493,"될":1494,"됡":1495,"됢":1496,"됣":1497,"됤":1498,"됥":1499,"됦":1500,"됨":1501,"됩":1502,"됫":1503,"됬":1504,"됭":1505,"됮":1506,"됯":1507,"됰":1508,"됱":1509,"됲":1510,"됳":1511,"됴":1512,"됵":1513,"됸":1514,"됻":1515,"됼":1516,"둄":1517,"둅":1518,"둇":1519,"둉":1520,"둊":1521,"둋":1522,"둍":1523,"둏":1524,"두":1525,"둑":1526,"둔":1527,"둗":1528,"둘":1529,"둙":1530,"둚":1531,"둞":1532,"둟":1533,"둠":1534,"둡":1535,"둣":1536,"둤":1537,"둥":1538,"둦":1539,"둧":1540,"둨":1541,"둩":1542,"둪":1543,"둫":1544,"둬":1545,"둭":1546,"둯":1547,"둰":1548,"둴":1549,"둼":1550,"둽":1551,"둿":1552,"뒀":1553,"뒁":1554,"뒄":1555,"뒇":1556,"뒈":1557,"뒉":1558,"뒌":1559,"뒐":1560,"뒘":1561,"뒙":1562,"뒛":1563,"뒜":1564,"뒝":1565,"뒞":1566,"뒤":1567,"뒥":1568,"뒨":1569,"뒫":1570,"뒬":1571,"뒴":1572,"뒵":1573,"뒷":1574,"뒸":1575,"뒹":1576,"뒺":1577,"뒽":1578,"뒿":1579,"듀":1580,"듁":1581,"듄":1582,"듈":1583,"듐":1584,"듑":1585,"듓":1586,"듕":1587,"드":1588,"득":1589,"듞":1590,"듟":1591,"든":1592,"듡":1593,"듢":1594,"듣":1595,"들":1596,"듥":1597,"듦":1598,"듧":1599,"듨":1600,"듩":1601,"듪":1602,"듫":1603,"듬":1604,"듭":1605,"듯":1606,"듰":1607,"등":1608,"듲":1609,"듳":1610,"듴":1611,"듵":1612,"듶":1613,"듷":1614,"듸":1615,"듹":1616,"듼":1617,"딀":1618,"딈":1619,"딉":1620,"딋":1621,"딍":1622,"딒":1623,"디":1624,"딕":1625,"딖":1626,"딘":1627,"딛":1628,"딜":1629,"딝":1630,"딞":1631,"딤":1632,"딥":1633,"딦":1634,"딧":1635,"딨":1636,"딩":1637,"딪":1638,"딫":1639,"딬":1640,"딭":1641,"딮":1642,"딯":1643,"따":1644,"딱":1645,"딲":1646,"딳":1647,"딴":1648,"딵":1649,"딷":1650,"딸":1651,"딹":1652,"딺":1653,"딻":1654,"딽":1655,"딿":1656,"땀":1657,"땁":1658,"땃":1659,"땄":1660,"땅":1661,"땆":1662,"땈":1663,"땉":1664,"땋":1665,"때":1666,"땍":1667,"땎":1668,"땐":1669,"땓":1670,"땔":1671,"땜":1672,"땝":1673,"땟":1674,"땠":1675,"땡":1676,"땢":1677,"땣":1678,"땤":1679,"땦":1680,"땧":1681,"땨":1682,"땩":1683,"땬":1684,"땰":1685,"땸":1686,"땽":1687,"떄":1688,"떅":1689,"떈":1690,"떌":1691,"떔":1692,"떗":1693,"떘":1694,"떙":1695,"떠":1696,"떡":1697,"떢":1698,"떣":1699,"떤":1700,"떥":1701,"떦":1702,"떧":1703,"떨":1704,"떩":1705,"떪":1706,"떫":1707,"떯":1708,"떰":1709,"떱":1710,"떳":1711,"떴":1712,"떵":1713,"떶":1714,"떷":1715,"떸":1716,"떹":1717,"떺":1718,"떻":1719,"떼":1720,"떽":1721,"떾":1722,"뗀":1723,"뗄":1724,"뗌":1725,"뗍":1726,"뗏":1727,"뗐":1728,"뗑":1729,"뗔":1730,"뗗":1731,"뗘":1732,"뗙":1733,"뗜":1734,"뗠":1735,"뗨":1736,"뗩":1737,"뗫":1738,"뗬":1739,"뗭":1740,"뗳":1741,"뗴":1742,"뗵":1743,"뗸":1744,"뗼":1745,"똇":1746,"똉":1747,"똏":1748,"또":1749,"똑":1750,"똒":1751,"똔":1752,"똗":1753,"똘":1754,"똙":1755,"똚":1756,"똝":1757,"똟":1758,"똠":1759,"똡":1760,"똣":1761,"똥":1762,"똦":1763,"똧":1764,"똨":1765,"똩":1766,"똫":1767,"똬":1768,"똭":1769,"똮":1770,"똰":1771,"똴":1772,"똵":1773,"똿":1774,"뙁":1775,"뙇":1776,"뙈":1777,"뙌":1778,"뙛":1779,"뙜":1780,"뙝":1781,"뙡":1782,"뙤":1783,"뙥":1784,"뙨":1785,"뙬":1786,"뙴":1787,"뙷":1788,"뙸":1789,"뙹":1790,"뙿":1791,"뚀":1792,"뚁":1793,"뚈":1794,"뚕":1795,"뚜":1796,"뚝":1797,"뚞":1798,"뚠":1799,"뚢":1800,"뚣":1801,"뚤":1802,"뚥":1803,"뚦":1804,"뚧":1805,"뚨":1806,"뚫":1807,"뚬":1808,"뚭":1809,"뚯":1810,"뚱":1811,"뚴":1812,"뚵":1813,"뚷":1814,"뚸":1815,"뚹":1816,"뚼":1817,"뛀":1818,"뛋":1819,"뛌":1820,"뛍":1821,"뛔":1822,"뛕":1823,"뛥":1824,"뛧":1825,"뛨":1826,"뛬":1827,"뛰":1828,"뛱":1829,"뛴":1830,"뛸":1831,"뜀":1832,"뜁":1833,"뜃":1834,"뜄":1835,"뜅":1836,"뜌":1837,"뜍":1838,"뜐":1839,"뜔":1840,"뜛":1841,"뜝":1842,"뜡":1843,"뜨":1844,"뜩":1845,"뜪":1846,"뜬":1847,"뜮":1848,"뜯":1849,"뜰":1850,"뜱":1851,"뜳":1852,"뜷":1853,"뜸":1854,"뜹":1855,"뜻":1856,"뜼":1857,"뜽":1858,"뜾":1859,"뜿":1860,"띀":1861,"띁":1862,"띃":1863,"띄":1864,"띅":1865,"띈":1866,"띌":1867,"띔":1868,"띕":1869,"띗":1870,"띙":1871,"띟":1872,"띠":1873,"띡":1874,"띤":1875,"띧":1876,"띨":1877,"띰":1878,"띱":1879,"띳":1880,"띴":1881,"띵":1882,"띶":1883,"띸":1884,"띻":1885,"라":1886,"락":1887,"띾":1888,"띿":1889,"란":1890,"랁":1891,"랂":1892,"랃":1893,"랄":1894,"랅":1895,"랆":1896,"랇":1897,"랈":1898,"랉":1899,"랊":1900,"랋":1901,"람":1902,"랍":1903,"랎":1904,"랏":1905,"랐":1906,"랑":1907,"랒":1908,"랓":1909,"랔":1910,"랕":1911,"랖":1912,"랗":1913,"래":1914,"랙":1915,"랚":1916,"랜":1917,"랟":1918,"랠":1919,"램":1920,"랩":1921,"랫":1922,"랬":1923,"랭":1924,"랮":1925,"랯":1926,"랰":1927,"랱":1928,"랲":1929,"랳":1930,"랴":1931,"략":1932,"랸":1933,"랺":1934,"랻":1935,"랼":1936,"럄":1937,"럅":1938,"럆":1939,"럇":1940,"럈":1941,"량":1942,"럊":1943,"럌":1944,"럎":1945,"럏":1946,"럐":1947,"럑":1948,"럔":1949,"럕":1950,"럖":1951,"럗":1952,"럘":1953,"럠":1954,"럣":1955,"럤":1956,"럥":1957,"러":1958,"럭":1959,"럮":1960,"럯":1961,"런":1962,"럱":1963,"럲":1964,"럳":1965,"럴":1966,"럵":1967,"럶":1968,"럷":1969,"럸":1970,"럹":1971,"럻":1972,"럼":1973,"럽":1974,"럾":1975,"럿":1976,"렀":1977,"렁":1978,"렂":1979,"렃":1980,"렄":1981,"렅":1982,"렆":1983,"렇":1984,"레":1985,"렉":1986,"렊":1987,"렋":1988,"렌":1989,"렏":1990,"렐":1991,"렑":1992,"렘":1993,"렙":1994,"렛":1995,"렜":1996,"렝":1997,"렞":1998,"렠":1999,"렡":2000,"렢":2001,"렣":2002,"려":2003,"력":2004,"렦":2005,"렧":2006,"련":2007,"렩":2008,"렪":2009,"렫":2010,"렬":2011,"렭":2012,"렳":2013,"렴":2014,"렵":2015,"렶":2016,"렷":2017,"렸":2018,"령":2019,"렺":2020,"렻":2021,"렼":2022,"렽":2023,"렾":2024,"렿":2025,"례":2026,"롁":2027,"롄":2028,"롇":2029,"롈":2030,"롐":2031,"롑":2032,"롓":2033,"롔":2034,"롕":2035,"롘":2036,"로":2037,"록":2038,"롞":2039,"롟":2040,"론":2041,"롡":2042,"롢":2043,"롣":2044,"롤":2045,"롥":2046,"롦":2047,"롧":2048,"롫":2049,"롬":2050,"롭":2051,"롮":2052,"롯":2053,"롰":2054,"롱":2055,"롲":2056,"롳":2057,"롴":2058,"롵":2059,"롶":2060,"롷":2061,"롸":2062,"롹":2063,"롼":2064,"뢀":2065,"뢈":2066,"뢉":2067,"뢋":2068,"뢌":2069,"뢍":2070,"뢐":2071,"뢓":2072,"뢔":2073,"뢕":2074,"뢘":2075,"뢜":2076,"뢧":2077,"뢨":2078,"뢩":2079,"뢰":2080,"뢱":2081,"뢴":2082,"뢸":2083,"룀":2084,"룁":2085,"룃":2086,"룄":2087,"룅":2088,"료":2089,"룍":2090,"룐":2091,"룓":2092,"룔":2093,"룜":2094,"룝":2095,"룟":2096,"룠":2097,"룡":2098,"룢":2099,"룤":2100,"루":2101,"룩":2102,"룬":2103,"룯":2104,"룰":2105,"룸":2106,"룹":2107,"룻":2108,"룽":2109,"룾":2110,"룿":2111,"뤀":2112,"뤁":2113,"뤂":2114,"뤃":2115,"뤄":2116,"뤅":2117,"뤈":2118,"뤌":2119,"뤔":2120,"뤕":2121,"뤗":2122,"뤘":2123,"뤙":2124,"뤟":2125,"뤠":2126,"뤡":2127,"뤤":2128,"뤨":2129,"뤰":2130,"뤱":2131,"뤳":2132,"뤴":2133,"뤵":2134,"뤸":2135,"뤼":2136,"뤽":2137,"륀":2138,"륄":2139,"륌":2140,"륍":2141,"륏":2142,"륐":2143,"륑":2144,"류":2145,"륙":2146,"륜":2147,"륝":2148,"륟":2149,"률":2150,"륧":2151,"륨":2152,"륩":2153,"륫":2154,"륭":2155,"륮":2156,"륰":2157,"륲":2158,"륳":2159,"르":2160,"륵":2161,"륶":2162,"른":2163,"륹":2164,"륻":2165,"를":2166,"륽":2167,"륾":2168,"륿":2169,"릀":2170,"릁":2171,"릂":2172,"릃":2173,"름":2174,"릅":2175,"릆":2176,"릇":2177,"릈":2178,"릉":2179,"릊":2180,"릋":2181,"릌":2182,"릍":2183,"릎":2184,"릏":2185,"릐":2186,"릑":2187,"릔":2188,"릘":2189,"릠":2190,"릡":2191,"릣":2192,"릥":2193,"릫":2194,"리":2195,"릭":2196,"릮":2197,"린":2198,"릱":2199,"릳":2200,"릴":2201,"릵":2202,"릶":2203,"릷":2204,"릸":2205,"릹":2206,"릺":2207,"릻":2208,"림":2209,"립":2210,"릾":2211,"릿":2212,"맀":2213,"링":2214,"맂":2215,"맃":2216,"맄":2217,"맅":2218,"맆":2219,"맇":2220,"마":2221,"막":2222,"맊":2223,"맋":2224,"만":2225,"맍":2226,"많":2227,"맏":2228,"말":2229,"맑":2230,"맒":2231,"맓":2232,"맔":2233,"맕":2234,"맖":2235,"맗":2236,"맘":2237,"맙":2238,"맚":2239,"맛":2240,"맜":2241,"망":2242,"맞":2243,"맟":2244,"맠":2245,"맡":2246,"맢":2247,"맣":2248,"매":2249,"맥":2250,"맨":2251,"맩":2252,"맪":2253,"맫":2254,"맬":2255,"맴":2256,"맵":2257,"맷":2258,"맸":2259,"맹":2260,"맺":2261,"맻":2262,"맼":2263,"맽":2264,"맾":2265,"맿":2266,"먀":2267,"먁":2268,"먄":2269,"먆":2270,"먇":2271,"먈":2272,"먐":2273,"먑":2274,"먓":2275,"먕":2276,"먖":2277,"먗":2278,"먙":2279,"먛":2280,"먜":2281,"먝":2282,"먠":2283,"먤":2284,"먬":2285,"먱":2286,"머":2287,"먹":2288,"먺":2289,"먻":2290,"먼":2291,"먽":2292,"먾":2293,"먿":2294,"멀":2295,"멁":2296,"멂":2297,"멄":2298,"멈":2299,"멉":2300,"멊":2301,"멋":2302,"멌":2303,"멍":2304,"멎":2305,"멏":2306,"멐":2307,"멑":2308,"멒":2309,"멓":2310,"메":2311,"멕":2312,"멘":2313,"멛":2314,"멜":2315,"멤":2316,"멥":2317,"멧":2318,"멨":2319,"멩":2320,"멪":2321,"멫":2322,"멬":2323,"멭":2324,"멮":2325,"며":2326,"멱":2327,"멲":2328,"면":2329,"멵":2330,"멶":2331,"멷":2332,"멸":2333,"멺":2334,"멼":2335,"멿":2336,"몀":2337,"몁":2338,"몃":2339,"몄":2340,"명":2341,"몆":2342,"몇":2343,"몈":2344,"몉":2345,"몊":2346,"몋":2347,"몌":2348,"몍":2349,"몐":2350,"몔":2351,"몜":2352,"몟":2353,"몡":2354,"몢":2355,"몣":2356,"모":2357,"목":2358,"몪":2359,"몫":2360,"몬":2361,"몭":2362,"몮":2363,"몯":2364,"몰":2365,"몱":2366,"몲":2367,"몳":2368,"몴":2369,"몶":2370,"몷":2371,"몸":2372,"몹":2373,"몺":2374,"못":2375,"몼":2376,"몽":2377,"몾":2378,"몿":2379,"뫀":2380,"뫁":2381,"뫂":2382,"뫃":2383,"뫄":2384,"뫅":2385,"뫈":2386,"뫌":2387,"뫔":2388,"뫕":2389,"뫗":2390,"뫘":2391,"뫙":2392,"뫚":2393,"뫠":2394,"뫤":2395,"뫴":2396,"뫵":2397,"뫼":2398,"뫽":2399,"묀":2400,"묄":2401,"묍":2402,"묏":2403,"묑":2404,"묘":2405,"묙":2406,"묜":2407,"묠":2408,"묨":2409,"묫":2410,"묭":2411,"묯":2412,"무":2413,"묵":2414,"묶":2415,"묷":2416,"문":2417,"묹":2418,"묺":2419,"묻":2420,"물":2421,"묽":2422,"묾":2423,"묿":2424,"뭀":2425,"뭁":2426,"뭂":2427,"뭃":2428,"뭄":2429,"뭅":2430,"뭇":2431,"뭈":2432,"뭉":2433,"뭊":2434,"뭋":2435,"뭌":2436,"뭍":2437,"뭎":2438,"뭏":2439,"뭐":2440,"뭑":2441,"뭔":2442,"뭕":2443,"뭗":2444,"뭘":2445,"뭙":2446,"뭚":2447,"뭛":2448,"뭟":2449,"뭠":2450,"뭡":2451,"뭣":2452,"뭤":2453,"뭥":2454,"뭦":2455,"뭧":2456,"뭨":2457,"뭩":2458,"뭪":2459,"뭫":2460,"뭬":2461,"뭭":2462,"뭰":2463,"뭴":2464,"뭽":2465,"뭿":2466,"뮁":2467,"뮈":2468,"뮉":2469,"뮌":2470,"뮏":2471,"뮐":2472,"뮘":2473,"뮙":2474,"뮛":2475,"뮜":2476,"뮝":2477,"뮤":2478,"뮥":2479,"뮦":2480,"뮨":2481,"뮫":2482,"뮬":2483,"뮴":2484,"뮷":2485,"뮹":2486,"뮻":2487,"뮼":2488,"므":2489,"믁":2490,"믂":2491,"믄":2492,"믅":2493,"믆":2494,"믇":2495,"믈":2496,"믉":2497,"믌":2498,"믏":2499,"믐":2500,"믑":2501,"믓":2502,"믕":2503,"믖":2504,"믘":2505,"믙":2506,"믛":2507,"믜":2508,"믝":2509,"믠":2510,"믣":2511,"믤":2512,"믬":2513,"믯":2514,"믱":2515,"미":2516,"믹":2517,"믺":2518,"민":2519,"믽":2520,"믾":2521,"믿":2522,"밀":2523,"밁":2524,"밂":2525,"밄":2526,"밇":2527,"밈":2528,"밉":2529,"밊":2530,"밋":2531,"밌":2532,"밍":2533,"밎":2534,"및":2535,"밐":2536,"밑":2537,"밒":2538,"밓":2539,"바":2540,"박":2541,"밖":2542,"밗":2543,"반":2544,"밙":2545,"밚":2546,"받":2547,"발":2548,"밝":2549,"밞":2550,"밟":2551,"밠":2552,"밡":2553,"밢":2554,"밣":2555,"밤":2556,"밥":2557,"밦":2558,"밧":2559,"밨":2560,"방":2561,"밪":2562,"밫":2563,"밬":2564,"밭":2565,"밮":2566,"밯":2567,"배":2568,"백":2569,"밲":2570,"밳":2571,"밴":2572,"밷":2573,"밸":2574,"밹":2575,"뱀":2576,"뱁":2577,"뱃":2578,"뱄":2579,"뱅":2580,"뱆":2581,"뱇":2582,"뱈":2583,"뱉":2584,"뱊":2585,"뱋":2586,"뱌":2587,"뱍":2588,"뱎":2589,"뱐":2590,"뱓":2591,"뱔":2592,"뱕":2593,"뱗":2594,"뱛":2595,"뱜":2596,"뱝":2597,"뱟":2598,"뱡":2599,"뱤":2600,"뱥":2601,"뱨":2602,"뱩":2603,"뱬":2604,"뱰":2605,"뱸":2606,"뱻":2607,"뱽":2608,"벁":2609,"버":2610,"벅":2611,"벆":2612,"번":2613,"벉":2614,"벊":2615,"벋":2616,"벌":2617,"벍":2618,"벎":2619,"벏":2620,"벐":2621,"벑":2622,"벒":2623,"벓":2624,"범":2625,"법":2626,"벖":2627,"벗":2628,"벘":2629,"벙":2630,"벚":2631,"벛":2632,"벜":2633,"벝":2634,"벞":2635,"벟":2636,"베":2637,"벡":2638,"벤":2639,"벥":2640,"벧":2641,"벨":2642,"벩":2643,"벫":2644,"벬":2645,"벰":2646,"벱":2647,"벲":2648,"벳":2649,"벴":2650,"벵":2651,"벶":2652,"벷":2653,"벸":2654,"벹":2655,"벻":2656,"벼":2657,"벽":2658,"벾":2659,"변":2660,"볁":2661,"볂":2662,"볃":2663,"별":2664,"볅":2665,"볆":2666,"볇":2667,"볈":2668,"볊":2669,"볋":2670,"볌":2671,"볍":2672,"볎":2673,"볏":2674,"볐":2675,"병":2676,"볒":2677,"볓":2678,"볔":2679,"볕":2680,"볖":2681,"볗":2682,"볘":2683,"볙":2684,"볜":2685,"볠":2686,"볫":2687,"볭":2688,"볱":2689,"보":2690,"복":2691,"볶":2692,"볷":2693,"본":2694,"볹":2695,"볺":2696,"볻":2697,"볼":2698,"볽":2699,"볾":2700,"볿":2701,"봀":2702,"봁":2703,"봂":2704,"봃":2705,"봄":2706,"봅":2707,"봆":2708,"봇":2709,"봈":2710,"봉":2711,"봊":2712,"봋":2713,"봌":2714,"봍":2715,"봎":2716,"봏":2717,"봐":2718,"봑":2719,"봒":2720,"봔":2721,"봗":2722,"봘":2723,"봙":2724,"봟":2725,"봠":2726,"봡":2727,"봣":2728,"봤":2729,"봥":2730,"봦":2731,"봨":2732,"봩":2733,"봫":2734,"봬":2735,"봭":2736,"봰":2737,"봴":2738,"봵":2739,"봽":2740,"봿":2741,"뵀":2742,"뵁":2743,"뵈":2744,"뵉":2745,"뵌":2746,"뵏":2747,"뵐":2748,"뵑":2749,"뵘":2750,"뵙":2751,"뵛":2752,"뵜":2753,"뵝":2754,"뵞":2755,"뵤":2756,"뵥":2757,"뵨":2758,"뵬":2759,"뵴":2760,"뵵":2761,"뵷":2762,"뵹":2763,"뵺":2764,"뵽":2765,"부":2766,"북":2767,"붂":2768,"붃":2769,"분":2770,"붅":2771,"붆":2772,"붇":2773,"불":2774,"붉":2775,"붊":2776,"붋":2777,"붌":2778,"붍":2779,"붎":2780,"붏":2781,"붐":2782,"붑":2783,"붓":2784,"붔":2785,"붕":2786,"붖":2787,"붗":2788,"붘":2789,"붙":2790,"붚":2791,"붛":2792,"붜":2793,"붝":2794,"붠":2795,"붤":2796,"붥":2797,"붭":2798,"붯":2799,"붰":2800,"붱":2801,"붴":2802,"붸":2803,"붹":2804,"붼":2805,"뷀":2806,"뷁":2807,"뷃":2808,"뷉":2809,"뷋":2810,"뷍":2811,"뷔":2812,"뷕":2813,"뷘":2814,"뷜":2815,"뷤":2816,"뷥":2817,"뷧":2818,"뷩":2819,"뷰":2820,"뷱":2821,"뷴":2822,"뷶":2823,"뷷":2824,"뷸":2825,"뷹":2826,"븀":2827,"븁":2828,"븂":2829,"븃":2830,"븅":2831,"븇":2832,"븈":2833,"븉":2834,"븋":2835,"브":2836,"븍":2837,"븎":2838,"븐":2839,"븓":2840,"블":2841,"븕":2842,"븘":2843,"븜":2844,"븝":2845,"븞":2846,"븟":2847,"븡":2848,"븢":2849,"븣":2850,"븤":2851,"븥":2852,"븧":2853,"븨":2854,"븩":2855,"븬":2856,"븰":2857,"븸":2858,"븹":2859,"븻":2860,"븽":2861,"비":2862,"빅":2863,"빆":2864,"빈":2865,"빋":2866,"빌":2867,"빍":2868,"빎":2869,"빏":2870,"빓":2871,"빔":2872,"빕":2873,"빗":2874,"빘":2875,"빙":2876,"빚":2877,"빛":2878,"빜":2879,"빝":2880,"빞":2881,"빟":2882,"빠":2883,"빡":2884,"빢":2885,"빣":2886,"빤":2887,"빧":2888,"빨":2889,"빩":2890,"빪":2891,"빫":2892,"빬":2893,"빭":2894,"빮":2895,"빯":2896,"빰":2897,"빱":2898,"빳":2899,"빴":2900,"빵":2901,"빶":2902,"빷":2903,"빸":2904,"빹":2905,"빺":2906,"빻":2907,"빼":2908,"빽":2909,"빾":2910,"뺀":2911,"뺃":2912,"뺄":2913,"뺅":2914,"뺌":2915,"뺍":2916,"뺏":2917,"뺐":2918,"뺑":2919,"뺒":2920,"뺓":2921,"뺔":2922,"뺕":2923,"뺗":2924,"뺘":2925,"뺙":2926,"뺜":2927,"뺠":2928,"뺨":2929,"뺩":2930,"뺫":2931,"뺭":2932,"뺴":2933,"뺵":2934,"뺶":2935,"뺸":2936,"뺼":2937,"뻄":2938,"뻅":2939,"뻇":2940,"뻈":2941,"뻉":2942,"뻐":2943,"뻑":2944,"뻒":2945,"뻔":2946,"뻕":2947,"뻖":2948,"뻗":2949,"뻘":2950,"뻙":2951,"뻟":2952,"뻠":2953,"뻡":2954,"뻣":2955,"뻤":2956,"뻥":2957,"뻦":2958,"뻨":2959,"뻩":2960,"뻫":2961,"뻬":2962,"뻭":2963,"뻰":2964,"뻴":2965,"뻼":2966,"뻿":2967,"뼀":2968,"뼁":2969,"뼈":2970,"뼉":2971,"뼊":2972,"뼌":2973,"뼏":2974,"뼐":2975,"뼘":2976,"뼙":2977,"뼛":2978,"뼜":2979,"뼝":2980,"뼡":2981,"뼤":2982,"뼥":2983,"뼷":2984,"뽀":2985,"뽁":2986,"뽂":2987,"뽄":2988,"뽇":2989,"뽈":2990,"뽉":2991,"뽐":2992,"뽑":2993,"뽒":2994,"뽓":2995,"뽕":2996,"뽖":2997,"뽘":2998,"뽚":2999,"뽜":3000,"뽝":3001,"뽠":3002,"뽤":3003,"뽥":3004,"뽭":3005,"뽯":3006,"뽰":3007,"뽱":3008,"뽷":3009,"뽸":3010,"뽹":3011,"뾀":3012,"뾍":3013,"뾔":3014,"뾕":3015,"뾜":3016,"뾥":3017,"뾰":3018,"뾱":3019,"뾴":3020,"뾸":3021,"뿀":3022,"뿁":3023,"뿃":3024,"뿅":3025,"뿌":3026,"뿍":3027,"뿎":3028,"뿐":3029,"뿑":3030,"뿓":3031,"뿔":3032,"뿕":3033,"뿛":3034,"뿜":3035,"뿝":3036,"뿟":3037,"뿠":3038,"뿡":3039,"뿤":3040,"뿥":3041,"뿧":3042,"뿨":3043,"뿩":3044,"뿰":3045,"뿽":3046,"쀄":3047,"쀅":3048,"쀌":3049,"쀍":3050,"쀏":3051,"쀠":3052,"쀤":3053,"쀨":3054,"쀵":3055,"쀼":3056,"쀽":3057,"쀾":3058,"쁀":3059,"쁄":3060,"쁌":3061,"쁍":3062,"쁑":3063,"쁘":3064,"쁙":3065,"쁜":3066,"쁝":3067,"쁟":3068,"쁠":3069,"쁥":3070,"쁨":3071,"쁩":3072,"쁫":3073,"쁭":3074,"쁮":3075,"쁴":3076,"쁸":3077,"쁼":3078,"삉":3079,"삐":3080,"삑":3081,"삔":3082,"삗":3083,"삘":3084,"삠":3085,"삡":3086,"삣":3087,"삤":3088,"삥":3089,"삦":3090,"삧":3091,"삩":3092,"사":3093,"삭":3094,"삮":3095,"삯":3096,"산":3097,"삱":3098,"삲":3099,"삳":3100,"살":3101,"삵":3102,"삶":3103,"삷":3104,"삸":3105,"삹":3106,"삺":3107,"삻":3108,"삼":3109,"삽":3110,"삾":3111,"삿":3112,"샀":3113,"상":3114,"샂":3115,"샃":3116,"샄":3117,"샅":3118,"샆":3119,"샇":3120,"새":3121,"색":3122,"샊":3123,"샋":3124,"샌":3125,"샎":3126,"샏":3127,"샐":3128,"샑":3129,"샒":3130,"샓":3131,"샔":3132,"샕":3133,"샗":3134,"샘":3135,"샙":3136,"샚":3137,"샛":3138,"샜":3139,"생":3140,"샞":3141,"샟":3142,"샠":3143,"샡":3144,"샢":3145,"샣":3146,"샤":3147,"샥":3148,"샦":3149,"샨":3150,"샫":3151,"샬":3152,"샮":3153,"샴":3154,"샵":3155,"샷":3156,"샸":3157,"샹":3158,"샼":3159,"샽":3160,"샾":3161,"샿":3162,"섀":3163,"섁":3164,"섂":3165,"섃":3166,"섄":3167,"섈":3168,"섉":3169,"섊":3170,"섐":3171,"섑":3172,"섓":3173,"섔":3174,"섕":3175,"섘":3176,"서":3177,"석":3178,"섞":3179,"섟":3180,"선":3181,"섡":3182,"섢":3183,"섣":3184,"설":3185,"섥":3186,"섦":3187,"섧":3188,"섨":3189,"섩":3190,"섪":3191,"섫":3192,"섬":3193,"섭":3194,"섮":3195,"섯":3196,"섰":3197,"성":3198,"섲":3199,"섳":3200,"섴":3201,"섵":3202,"섶":3203,"섷":3204,"세":3205,"섹":3206,"섺":3207,"섻":3208,"센":3209,"섽":3210,"섿":3211,"셀":3212,"셁":3213,"셅":3214,"셇":3215,"셈":3216,"셉":3217,"셊":3218,"셋":3219,"셌":3220,"셍":3221,"셎":3222,"셏":3223,"셐":3224,"셑":3225,"셒":3226,"셓":3227,"셔":3228,"셕":3229,"셖":3230,"션":3231,"셛":3232,"셜":3233,"셟":3234,"셤":3235,"셥":3236,"셧":3237,"셨":3238,"셩":3239,"셫":3240,"셬":3241,"셭":3242,"셮":3243,"셯":3244,"셰":3245,"셱":3246,"셲":3247,"셴":3248,"셸":3249,"솀":3250,"솁":3251,"솃":3252,"솄":3253,"솅":3254,"솈":3255,"솉":3256,"솊":3257,"소":3258,"속":3259,"솎":3260,"솏":3261,"손":3262,"솑":3263,"솒":3264,"솓":3265,"솔":3266,"솕":3267,"솖":3268,"솘":3269,"솛":3270,"솜":3271,"솝":3272,"솟":3273,"솠":3274,"송":3275,"솢":3276,"솣":3277,"솤":3278,"솥":3279,"솦":3280,"솧":3281,"솨":3282,"솩":3283,"솬":3284,"솰":3285,"솸":3286,"솹":3287,"솻":3288,"솼":3289,"솽":3290,"쇄":3291,"쇅":3292,"쇆":3293,"쇇":3294,"쇈":3295,"쇌":3296,"쇔":3297,"쇕":3298,"쇗":3299,"쇘":3300,"쇙":3301,"쇜":3302,"쇝":3303,"쇟":3304,"쇠":3305,"쇡":3306,"쇢":3307,"쇣":3308,"쇤":3309,"쇨":3310,"쇰":3311,"쇱":3312,"쇳":3313,"쇴":3314,"쇵":3315,"쇸":3316,"쇼":3317,"쇽":3318,"숀":3319,"숄":3320,"숌":3321,"숍":3322,"숏":3323,"숐":3324,"숑":3325,"숒":3326,"숔":3327,"숕":3328,"숖":3329,"숗":3330,"수":3331,"숙":3332,"숚":3333,"숛":3334,"순":3335,"숝":3336,"숞":3337,"숟":3338,"술":3339,"숡":3340,"숢":3341,"숣":3342,"숤":3343,"숧":3344,"숨":3345,"숩":3346,"숫":3347,"숬":3348,"숭":3349,"숮":3350,"숯":3351,"숰":3352,"숱":3353,"숲":3354,"숳":3355,"숴":3356,"숵":3357,"숶":3358,"숸":3359,"숼":3360,"쉄":3361,"쉅":3362,"쉆":3363,"쉇":3364,"쉈":3365,"쉉":3366,"쉌":3367,"쉏":3368,"쉐":3369,"쉑":3370,"쉒":3371,"쉓":3372,"쉔":3373,"쉗":3374,"쉘":3375,"쉙":3376,"쉛":3377,"쉜":3378,"쉠":3379,"쉡":3380,"쉣":3381,"쉤":3382,"쉥":3383,"쉦":3384,"쉧":3385,"쉨":3386,"쉩":3387,"쉪":3388,"쉫":3389,"쉬":3390,"쉭":3391,"쉮":3392,"쉰":3393,"쉲":3394,"쉳":3395,"쉴":3396,"쉻":3397,"쉼":3398,"쉽":3399,"쉾":3400,"쉿":3401,"슀":3402,"슁":3403,"슂":3404,"슄":3405,"슅":3406,"슆":3407,"슇":3408,"슈":3409,"슉":3410,"슊":3411,"슌":3412,"슏":3413,"슐":3414,"슘":3415,"슙":3416,"슛":3417,"슝":3418,"슠":3419,"슢":3420,"스":3421,"슥":3422,"슦":3423,"슧":3424,"슨":3425,"슩":3426,"슫":3427,"슬":3428,"슭":3429,"슮":3430,"슯":3431,"슰":3432,"슲":3433,"슳":3434,"슴":3435,"습":3436,"슶":3437,"슷":3438,"슸":3439,"승":3440,"슺":3441,"슻":3442,"슼":3443,"슽":3444,"슾":3445,"슿":3446,"싀":3447,"싁":3448,"싂":3449,"싄":3450,"싅":3451,"싆":3452,"싇":3453,"싈":3454,"싐":3455,"싑":3456,"싓":3457,"싕":3458,"싘":3459,"싚":3460,"시":3461,"식":3462,"싞":3463,"싟":3464,"신":3465,"싡":3466,"싢":3467,"싣":3468,"실":3469,"싥":3470,"싦":3471,"싧":3472,"싨":3473,"싩":3474,"싪":3475,"싫":3476,"심":3477,"십":3478,"싮":3479,"싯":3480,"싰":3481,"싱":3482,"싲":3483,"싳":3484,"싴":3485,"싵":3486,"싶":3487,"싷":3488,"싸":3489,"싹":3490,"싺":3491,"싻":3492,"싼":3493,"싾":3494,"싿":3495,"쌀":3496,"쌂":3497,"쌃":3498,"쌇":3499,"쌈":3500,"쌉":3501,"쌋":3502,"쌌":3503,"쌍":3504,"쌎":3505,"쌐":3506,"쌑":3507,"쌒":3508,"쌓":3509,"쌔":3510,"쌕":3511,"쌖":3512,"쌗":3513,"쌘":3514,"쌛":3515,"쌜":3516,"쌝":3517,"쌤":3518,"쌥":3519,"쌧":3520,"쌨":3521,"쌩":3522,"쌬":3523,"쌭":3524,"쌯":3525,"쌰":3526,"쌱":3527,"쌲":3528,"쌴":3529,"쌸":3530,"썀":3531,"썁":3532,"썃":3533,"썄":3534,"썅":3535,"썋":3536,"썌":3537,"썍":3538,"썎":3539,"썐":3540,"썖":3541,"썜":3542,"썝":3543,"썟":3544,"썠":3545,"썡":3546,"썤":3547,"써":3548,"썩":3549,"썪":3550,"썫":3551,"썬":3552,"썯":3553,"썰":3554,"썱":3555,"썸":3556,"썹":3557,"썻":3558,"썼":3559,"썽":3560,"썾":3561,"쎀":3562,"쎁":3563,"쎃":3564,"쎄":3565,"쎅":3566,"쎆":3567,"쎇":3568,"쎈":3569,"쎌":3570,"쎍":3571,"쎐":3572,"쎓":3573,"쎔":3574,"쎕":3575,"쎗":3576,"쎘":3577,"쎙":3578,"쎜":3579,"쎝":3580,"쎟":3581,"쎠":3582,"쎡":3583,"쎢":3584,"쎤":3585,"쎨":3586,"쎰":3587,"쎱":3588,"쎳":3589,"쎴":3590,"쎵":3591,"쎼":3592,"쎽":3593,"쎾":3594,"쏀":3595,"쏃":3596,"쏍":3597,"쏏":3598,"쏐":3599,"쏔":3600,"쏕":3601,"쏖":3602,"쏗":3603,"쏘":3604,"쏙":3605,"쏚":3606,"쏜":3607,"쏟":3608,"쏠":3609,"쏨":3610,"쏩":3611,"쏫":3612,"쏬":3613,"쏭":3614,"쏮":3615,"쏱":3616,"쏳":3617,"쏴":3618,"쏵":3619,"쏸":3620,"쏻":3621,"쏼":3622,"쐄":3623,"쐅":3624,"쐇":3625,"쐈":3626,"쐉":3627,"쐏":3628,"쐐":3629,"쐑":3630,"쐒":3631,"쐔":3632,"쐡":3633,"쐣":3634,"쐤":3635,"쐥":3636,"쐨":3637,"쐬":3638,"쐭":3639,"쐰":3640,"쐴":3641,"쐼":3642,"쐽":3643,"쐿":3644,"쑀":3645,"쑈":3646,"쑉":3647,"쑌":3648,"쑏":3649,"쑐":3650,"쑙":3651,"쑛":3652,"쑜":3653,"쑝":3654,"쑤":3655,"쑥":3656,"쑦":3657,"쑨":3658,"쑫":3659,"쑬":3660,"쑴":3661,"쑵":3662,"쑷":3663,"쑹":3664,"쑻":3665,"쑽":3666,"쑿":3667,"쒀":3668,"쒁":3669,"쒂":3670,"쒄":3671,"쒈":3672,"쒐":3673,"쒑":3674,"쒓":3675,"쒔":3676,"쒕":3677,"쒘":3678,"쒜":3679,"쒝":3680,"쒞":3681,"쒠":3682,"쒤":3683,"쒭":3684,"쒯":3685,"쒰":3686,"쒱":3687,"쒴":3688,"쒸":3689,"쒹":3690,"쒼":3691,"쓀":3692,"쓃":3693,"쓈":3694,"쓉":3695,"쓊":3696,"쓋":3697,"쓌":3698,"쓍":3699,"쓏":3700,"쓐":3701,"쓑":3702,"쓒":3703,"쓔":3704,"쓕":3705,"쓘":3706,"쓜":3707,"쓤":3708,"쓥":3709,"쓩":3710,"쓰":3711,"쓱":3712,"쓲":3713,"쓴":3714,"쓷":3715,"쓸":3716,"쓹":3717,"쓺":3718,"쓽":3719,"쓿":3720,"씀":3721,"씁":3722,"씂":3723,"씃":3724,"씄":3725,"씅":3726,"씆":3727,"씇":3728,"씈":3729,"씉":3730,"씊":3731,"씋":3732,"씌":3733,"씍":3734,"씐":3735,"씔":3736,"씗":3737,"씜":3738,"씝":3739,"씞":3740,"씟":3741,"씡":3742,"씢":3743,"씥":3744,"씦":3745,"씧":3746,"씨":3747,"씩":3748,"씪":3749,"씬":3750,"씮":3751,"씯":3752,"씰":3753,"씱":3754,"씳":3755,"씶":3756,"씷":3757,"씸":3758,"씹":3759,"씺":3760,"씻":3761,"씼":3762,"씽":3763,"씾":3764,"씿":3765,"앀":3766,"앁":3767,"앂":3768,"앃":3769,"아":3770,"악":3771,"앆":3772,"앇":3773,"안":3774,"앉":3775,"않":3776,"앋":3777,"알":3778,"앍":3779,"앎":3780,"앏":3781,"앐":3782,"앑":3783,"앒":3784,"앓":3785,"암":3786,"압":3787,"앖":3788,"앗":3789,"았":3790,"앙":3791,"앚":3792,"앛":3793,"앜":3794,"앝":3795,"앞":3796,"앟":3797,"애":3798,"액":3799,"앢":3800,"앤":3801,"앦":3802,"앧":3803,"앨":3804,"앩":3805,"앰":3806,"앱":3807,"앲":3808,"앳":3809,"앴":3810,"앵":3811,"앶":3812,"앷":3813,"앸":3814,"앹":3815,"앺":3816,"앻":3817,"야":3818,"약":3819,"앾":3820,"앿":3821,"얀":3822,"얁":3823,"얂":3824,"얃":3825,"얄":3826,"얅":3827,"얆":3828,"얇":3829,"얉":3830,"얊":3831,"얋":3832,"얌":3833,"얍":3834,"얎":3835,"얏":3836,"얐":3837,"양":3838,"얒":3839,"얓":3840,"얔":3841,"얕":3842,"얖":3843,"얗":3844,"얘":3845,"얙":3846,"얚":3847,"얜":3848,"얠":3849,"얨":3850,"얩":3851,"얪":3852,"얫":3853,"얬":3854,"얭":3855,"얮":3856,"얰":3857,"얳":3858,"어":3859,"억":3860,"얶":3861,"얷":3862,"언":3863,"얹":3864,"얺":3865,"얻":3866,"얼":3867,"얽":3868,"얾":3869,"얿":3870,"엀":3871,"엁":3872,"엂":3873,"엃":3874,"엄":3875,"업":3876,"없":3877,"엇":3878,"었":3879,"엉":3880,"엊":3881,"엋":3882,"엌":3883,"엍":3884,"엎":3885,"엏":3886,"에":3887,"엑":3888,"엒":3889,"엓":3890,"엔":3891,"엕":3892,"엗":3893,"엘":3894,"엙":3895,"엠":3896,"엡":3897,"엢":3898,"엣":3899,"엤":3900,"엥":3901,"엦":3902,"엧":3903,"엨":3904,"엩":3905,"엪":3906,"엫":3907,"여":3908,"역":3909,"엮":3910,"엯":3911,"연":3912,"엱":3913,"엲":3914,"엳":3915,"열":3916,"엵":3917,"엶":3918,"엷":3919,"엸":3920,"엹":3921,"엺":3922,"엻":3923,"염":3924,"엽":3925,"엾":3926,"엿":3927,"였":3928,"영":3929,"옂":3930,"옃":3931,"옄":3932,"옅":3933,"옆":3934,"옇":3935,"예":3936,"옉":3937,"옊":3938,"옌":3939,"옐":3940,"옒":3941,"옘":3942,"옙":3943,"옛":3944,"옜":3945,"옝":3946,"옞":3947,"옟":3948,"옠":3949,"옢":3950,"옣":3951,"오":3952,"옥":3953,"옦":3954,"옧":3955,"온":3956,"옩":3957,"옪":3958,"옫":3959,"올":3960,"옭":3961,"옮":3962,"옯":3963,"옰":3964,"옱":3965,"옲":3966,"옳":3967,"옴":3968,"옵":3969,"옶":3970,"옷":3971,"옸":3972,"옹":3973,"옺":3974,"옻":3975,"옼":3976,"옽":3977,"옾":3978,"옿":3979,"와":3980,"왁":3981,"왂":3982,"완":3983,"왅":3984,"왆":3985,"왇":3986,"왈":3987,"왉":3988,"왐":3989,"왑":3990,"왓":3991,"왔":3992,"왕":3993,"왖":3994,"왗":3995,"왘":3996,"왙":3997,"왚":3998,"왛":3999,"왜":4000,"왝":4001,"왠":4002,"왢":4003,"왤":4004,"왬":4005,"왭":4006,"왯":4007,"왰":4008,"왱":4009,"왲":4010,"왳":4011,"왴":4012,"외":4013,"왹":4014,"왼":4015,"욀":4016,"욈":4017,"욉":4018,"욋":4019,"욌":4020,"욍":4021,"욎":4022,"욏":4023,"욐":4024,"욓":4025,"요":4026,"욕":4027,"욖":4028,"욗":4029,"욘":4030,"욛":4031,"욜":4032,"욤":4033,"욥":4034,"욧":4035,"욨":4036,"용":4037,"욪":4038,"욫":4039,"욬":4040,"욭":4041,"욮":4042,"욯":4043,"우":4044,"욱":4045,"욲":4046,"운":4047,"욵":4048,"욶":4049,"욷":4050,"울":4051,"욹":4052,"욺":4053,"욻":4054,"욼":4055,"욽":4056,"욾":4057,"욿":4058,"움":4059,"웁":4060,"웂":4061,"웃":4062,"웄":4063,"웅":4064,"웆":4065,"웇":4066,"웈":4067,"웉":4068,"웊":4069,"웋":4070,"워":4071,"웍":4072,"웎":4073,"원":4074,"웑":4075,"웒":4076,"웓":4077,"월":4078,"웕":4079,"웖":4080,"웗":4081,"웘":4082,"웙":4083,"웚":4084,"웛":4085,"웜":4086,"웝":4087,"웞":4088,"웟":4089,"웠":4090,"웡":4091,"웢":4092,"웤":4093,"웥":4094,"웦":4095,"웧":4096,"웨":4097,"웩":4098,"웪":4099,"웬":4100,"웰":4101,"웱":4102,"웸":4103,"웹":4104,"웻":4105,"웼":4106,"웽":4107,"윀":4108,"윁":4109,"윂":4110,"위":4111,"윅":4112,"윈":4113,"윋":4114,"윌":4115,"윔":4116,"윕":4117,"윖":4118,"윗":4119,"윘":4120,"윙":4121,"윚":4122,"윛":4123,"윜":4124,"윝":4125,"윟":4126,"유":4127,"육":4128,"윢":4129,"윣":4130,"윤":4131,"윥":4132,"윦":4133,"윧":4134,"율":4135,"윪":4136,"윯":4137,"윰":4138,"윱":4139,"윲":4140,"윳":4141,"윴":4142,"융":4143,"윶":4144,"윷":4145,"윸":4146,"윹":4147,"윺":4148,"윻":4149,"으":4150,"윽":4151,"윾":4152,"윿":4153,"은":4154,"읁":4155,"읂":4156,"읃":4157,"을":4158,"읅":4159,"읆":4160,"읇":4161,"읈":4162,"읉":4163,"읊":4164,"읋":4165,"음":4166,"읍":4167,"읎":4168,"읏":4169,"읐":4170,"응":4171,"읒":4172,"읓":4173,"읔":4174,"읕":4175,"읖":4176,"읗":4177,"의":4178,"읙":4179,"읜":4180,"읟":4181,"읠":4182,"읨":4183,"읩":4184,"읪":4185,"읫":4186,"읬":4187,"읭":4188,"읮":4189,"읯":4190,"읰":4191,"읱":4192,"읲":4193,"읳":4194,"이":4195,"익":4196,"읶":4197,"읷":4198,"인":4199,"읹":4200,"읺":4201,"읻":4202,"일":4203,"읽":4204,"읾":4205,"읿":4206,"잀":4207,"잁":4208,"잂":4209,"잃":4210,"임":4211,"입":4212,"잆":4213,"잇":4214,"있":4215,"잉":4216,"잊":4217,"잋":4218,"잌":4219,"잍":4220,"잎":4221,"잏":4222,"자":4223,"작":4224,"잒":4225,"잓":4226,"잔":4227,"잕":4228,"잖":4229,"잗":4230,"잘":4231,"잙":4232,"잚":4233,"잛":4234,"잜":4235,"잝":4236,"잞":4237,"잟":4238,"잠":4239,"잡":4240,"잢":4241,"잣":4242,"잤":4243,"장":4244,"잦":4245,"잧":4246,"잨":4247,"잩":4248,"잪":4249,"잫":4250,"재":4251,"잭":4252,"잮":4253,"잰":4254,"잲":4255,"잳":4256,"잴":4257,"잼":4258,"잽":4259,"잾":4260,"잿":4261,"쟀":4262,"쟁":4263,"쟂":4264,"쟃":4265,"쟄":4266,"쟅":4267,"쟆":4268,"쟇":4269,"쟈":4270,"쟉":4271,"쟊":4272,"쟌":4273,"쟎":4274,"쟏":4275,"쟐":4276,"쟗":4277,"쟘":4278,"쟙":4279,"쟛":4280,"쟜":4281,"쟝":4282,"쟞":4283,"쟟":4284,"쟠":4285,"쟡":4286,"쟢":4287,"쟣":4288,"쟤":4289,"쟥":4290,"쟨":4291,"쟬":4292,"쟴":4293,"쟵":4294,"쟸":4295,"쟹":4296,"쟼":4297,"저":4298,"적":4299,"젂":4300,"젃":4301,"전":4302,"젅":4303,"젆":4304,"젇":4305,"절":4306,"젉":4307,"젊":4308,"젋":4309,"젌":4310,"젍":4311,"젎":4312,"젏":4313,"점":4314,"접":4315,"젒":4316,"젓":4317,"젔":4318,"정":4319,"젖":4320,"젗":4321,"젘":4322,"젙":4323,"젚":4324,"젛":4325,"제":4326,"젝":4327,"젞":4328,"젠":4329,"젡":4330,"젣":4331,"젤":4332,"젫":4333,"젬":4334,"젭":4335,"젯":4336,"젰":4337,"젱":4338,"젲":4339,"젳":4340,"젴":4341,"젵":4342,"젶":4343,"젷":4344,"져":4345,"젹":4346,"젺":4347,"젼":4348,"젾":4349,"젿":4350,"졀":4351,"졁":4352,"졂":4353,"졈":4354,"졉":4355,"졋":4356,"졌":4357,"졍":4358,"졎":4359,"졏":4360,"졐":4361,"졑":4362,"졓":4363,"졔":4364,"졘":4365,"졜":4366,"졧":4367,"졨":4368,"졩":4369,"조":4370,"족":4371,"졲":4372,"졳":4373,"존":4374,"졵":4375,"졶":4376,"졷":4377,"졸":4378,"졹":4379,"졺":4380,"졻":4381,"졼":4382,"졽":4383,"졾":4384,"졿":4385,"좀":4386,"좁":4387,"좂":4388,"좃":4389,"좄":4390,"종":4391,"좆":4392,"좇":4393,"좈":4394,"좉":4395,"좊":4396,"좋":4397,"좌":4398,"좍":4399,"좎":4400,"좐":4401,"좒":4402,"좓":4403,"좔":4404,"좜":4405,"좝":4406,"좟":4407,"좠":4408,"좡":4409,"좢":4410,"좣":4411,"좤":4412,"좥":4413,"좦":4414,"좧":4415,"좨":4416,"좩":4417,"좪":4418,"좫":4419,"좬":4420,"좭":4421,"좮":4422,"좯":4423,"좰":4424,"좱":4425,"좸":4426,"좻":4427,"좼":4428,"좽":4429,"죂":4430,"죃":4431,"죄":4432,"죅":4433,"죈":4434,"죋":4435,"죌":4436,"죍":4437,"죔":4438,"죕":4439,"죗":4440,"죘":4441,"죙":4442,"죚":4443,"죜":4444,"죝":4445,"죟":4446,"죠":4447,"죡":4448,"죢":4449,"죣":4450,"죤":4451,"죥":4452,"죧":4453,"죨":4454,"죰":4455,"죱":4456,"죳":4457,"죴":4458,"죵":4459,"죶":4460,"죷":4461,"죸":4462,"죹":4463,"죺":4464,"죻":4465,"주":4466,"죽":4467,"죾":4468,"죿":4469,"준":4470,"줁":4471,"줂":4472,"줃":4473,"줄":4474,"줅":4475,"줆":4476,"줇":4477,"줈":4478,"줉":4479,"줊":4480,"줋":4481,"줌":4482,"줍":4483,"줎":4484,"줏":4485,"줐":4486,"중":4487,"줒":4488,"줓":4489,"줔":4490,"줕":4491,"줖":4492,"줗":4493,"줘":4494,"줙":4495,"줚":4496,"줜":4497,"줝":4498,"줟":4499,"줠":4500,"줨":4501,"줩":4502,"줫":4503,"줬":4504,"줭":4505,"줮":4506,"줯":4507,"줰":4508,"줱":4509,"줳":4510,"줴":4511,"줵":4512,"줸":4513,"줼":4514,"쥄":4515,"쥅":4516,"쥇":4517,"쥈":4518,"쥉":4519,"쥐":4520,"쥑":4521,"쥔":4522,"쥗":4523,"쥘":4524,"쥠":4525,"쥡":4526,"쥣":4527,"쥤":4528,"쥥":4529,"쥦":4530,"쥨":4531,"쥫":4532,"쥬":4533,"쥭":4534,"쥰":4535,"쥳":4536,"쥴":4537,"쥼":4538,"쥽":4539,"쥿":4540,"즀":4541,"즁":4542,"즂":4543,"즄":4544,"즇":4545,"즈":4546,"즉":4547,"즋":4548,"즌":4549,"즏":4550,"즐":4551,"즑":4552,"즘":4553,"즙":4554,"즛":4555,"즜":4556,"증":4557,"즞":4558,"즟":4559,"즠":4560,"즡":4561,"즣":4562,"즤":4563,"즥":4564,"즨":4565,"즬":4566,"즮":4567,"즴":4568,"즵":4569,"즶":4570,"즷":4571,"즹":4572,"즺":4573,"즼":4574,"지":4575,"직":4576,"짂":4577,"짃":4578,"진":4579,"짅":4580,"짆":4581,"짇":4582,"질":4583,"짉":4584,"짊":4585,"짋":4586,"짌":4587,"짍":4588,"짎":4589,"짏":4590,"짐":4591,"집":4592,"짒":4593,"짓":4594,"짔":4595,"징":4596,"짖":4597,"짗":4598,"짘":4599,"짙":4600,"짚":4601,"짛":4602,"짜":4603,"짝":4604,"짞":4605,"짟":4606,"짠":4607,"짢":4608,"짣":4609,"짤":4610,"짥":4611,"짦":4612,"짧":4613,"짪":4614,"짫":4615,"짬":4616,"짭":4617,"짮":4618,"짯":4619,"짰":4620,"짱":4621,"짲":4622,"짳":4623,"짴":4624,"짵":4625,"짶":4626,"짷":4627,"째":4628,"짹":4629,"짺":4630,"짼":4631,"짾":4632,"짿":4633,"쨀":4634,"쨈":4635,"쨉":4636,"쨋":4637,"쨌":4638,"쨍":4639,"쨎":4640,"쨐":4641,"쨒":4642,"쨓":4643,"쨔":4644,"쨕":4645,"쨘":4646,"쨚":4647,"쨜":4648,"쨟":4649,"쨤":4650,"쨥":4651,"쨧":4652,"쨨":4653,"쨩":4654,"쨰":4655,"쨱":4656,"쨴":4657,"쩁":4658,"쩃":4659,"쩄":4660,"쩅":4661,"쩌":4662,"쩍":4663,"쩎":4664,"쩐":4665,"쩓":4666,"쩔":4667,"쩖":4668,"쩗":4669,"쩘":4670,"쩜":4671,"쩝":4672,"쩞":4673,"쩟":4674,"쩠":4675,"쩡":4676,"쩢":4677,"쩣":4678,"쩤":4679,"쩥":4680,"쩦":4681,"쩧":4682,"쩨":4683,"쩩":4684,"쩬":4685,"쩰":4686,"쩸":4687,"쩹":4688,"쩻":4689,"쩼":4690,"쩽":4691,"쪄":4692,"쪅":4693,"쪈":4694,"쪌":4695,"쪔":4696,"쪕":4697,"쪗":4698,"쪘":4699,"쪙":4700,"쪚":4701,"쪠":4702,"쪰":4703,"쪱":4704,"쪵":4705,"쪹":4706,"쪻":4707,"쪼":4708,"쪽":4709,"쪾":4710,"쪿":4711,"쫀":4712,"쫃":4713,"쫄":4714,"쫅":4715,"쫇":4716,"쫌":4717,"쫍":4718,"쫏":4719,"쫐":4720,"쫑":4721,"쫒":4722,"쫓":4723,"쫔":4724,"쫕":4725,"쫖":4726,"쫗":4727,"쫘":4728,"쫙":4729,"쫚":4730,"쫛":4731,"쫜":4732,"쫟":4733,"쫠":4734,"쫤":4735,"쫩":4736,"쫫":4737,"쫬":4738,"쫭":4739,"쫮":4740,"쫴":4741,"쫵":4742,"쬈":4743,"쬎":4744,"쬐":4745,"쬑":4746,"쬔":4747,"쬘":4748,"쬠":4749,"쬡":4750,"쬤":4751,"쬥":4752,"쬧":4753,"쬬":4754,"쬭":4755,"쬮":4756,"쬰":4757,"쬳":4758,"쬴":4759,"쬼":4760,"쬽":4761,"쬿":4762,"쭀":4763,"쭁":4764,"쭂":4765,"쭃":4766,"쭄":4767,"쭅":4768,"쭈":4769,"쭉":4770,"쭊":4771,"쭌":4772,"쭏":4773,"쭐":4774,"쭕":4775,"쭘":4776,"쭙":4777,"쭛":4778,"쭜":4779,"쭝":4780,"쭞":4781,"쭟":4782,"쭠":4783,"쭤":4784,"쭥":4785,"쭨":4786,"쭫":4787,"쭬":4788,"쭭":4789,"쭵":4790,"쭷":4791,"쭸":4792,"쭹":4793,"쭻":4794,"쭿":4795,"쮀":4796,"쮁":4797,"쮑":4798,"쮓":4799,"쮜":4800,"쮝":4801,"쮠":4802,"쮡":4803,"쮤":4804,"쮭":4805,"쮱":4806,"쮸":4807,"쮹":4808,"쮼":4809,"쯀":4810,"쯈":4811,"쯉":4812,"쯋":4813,"쯍":4814,"쯔":4815,"쯕":4816,"쯘":4817,"쯛":4818,"쯜":4819,"쯤":4820,"쯥":4821,"쯧":4822,"쯨":4823,"쯩":4824,"쯪":4825,"쯫":4826,"쯭":4827,"쯮":4828,"쯯":4829,"쯰":4830,"쯱":4831,"쯴":4832,"찁":4833,"찅":4834,"찌":4835,"찍":4836,"찎":4837,"찏":4838,"찐":4839,"찓":4840,"찔":4841,"찗":4842,"찜":4843,"찝":4844,"찟":4845,"찠":4846,"찡":4847,"찢":4848,"찣":4849,"찤":4850,"찥":4851,"찦":4852,"찧":4853,"차":4854,"착":4855,"찪":4856,"찫":4857,"찬":4858,"찭":4859,"찮":4860,"찯":4861,"찰":4862,"찱":4863,"찲":4864,"찳":4865,"찴":4866,"찵":4867,"찶":4868,"찷":4869,"참":4870,"찹":4871,"찻":4872,"찼":4873,"창":4874,"찾":4875,"찿":4876,"챀":4877,"챁":4878,"챂":4879,"챃":4880,"채":4881,"책":4882,"챇":4883,"챈":4884,"챊":4885,"챋":4886,"챌":4887,"챔":4888,"챕":4889,"챗":4890,"챘":4891,"챙":4892,"챚":4893,"챜":4894,"챠":4895,"챡":4896,"챤":4897,"챦":4898,"챨":4899,"챯":4900,"챰":4901,"챱":4902,"챳":4903,"챴":4904,"챵":4905,"챶":4906,"챻":4907,"챼":4908,"챽":4909,"첐":4910,"첑":4911,"처":4912,"척":4913,"첛":4914,"천":4915,"첝":4916,"첞":4917,"첟":4918,"철":4919,"첡":4920,"첢":4921,"첣":4922,"첤":4923,"첥":4924,"첦":4925,"첧":4926,"첨":4927,"첩":4928,"첪":4929,"첫":4930,"첬":4931,"청":4932,"첮":4933,"첯":4934,"첰":4935,"첱":4936,"첲":4937,"첳":4938,"체":4939,"첵":4940,"첸":4941,"첻":4942,"첼":4943,"쳄":4944,"쳅":4945,"쳇":4946,"쳈":4947,"쳉":4948,"쳊":4949,"쳋":4950,"쳌":4951,"쳏":4952,"쳐":4953,"쳑":4954,"쳒":4955,"쳔":4956,"쳖":4957,"쳗":4958,"쳘":4959,"쳠":4960,"쳡":4961,"쳣":4962,"쳤":4963,"쳥":4964,"쳦":4965,"쳧":4966,"쳨":4967,"쳫":4968,"쳬":4969,"쳰":4970,"쳴":4971,"쳿":4972,"촀":4973,"초":4974,"촉":4975,"촌":4976,"촏":4977,"촐":4978,"촘":4979,"촙":4980,"촛":4981,"촜":4982,"총":4983,"촞":4984,"촟":4985,"촠":4986,"촡":4987,"촣":4988,"촤":4989,"촥":4990,"촨":4991,"촪":4992,"촬":4993,"촮":4994,"촰":4995,"촴":4996,"촵":4997,"촷":4998,"촹":4999,"쵀":5000,"쵁":5001,"쵄":5002,"쵕":5003,"최":5004,"쵝":5005,"쵠":5006,"쵤":5007,"쵭":5008,"쵮":5009,"쵯":5010,"쵰":5011,"쵱":5012,"쵲":5013,"쵴":5014,"쵸":5015,"쵹":5016,"쵼":5017,"춀":5018,"춈":5019,"춉":5020,"춋":5021,"춌":5022,"춍":5023,"춎":5024,"춏":5025,"춑":5026,"추":5027,"축":5028,"춗":5029,"춘":5030,"춚":5031,"춛":5032,"출":5033,"춝":5034,"춞":5035,"춟":5036,"춠":5037,"춡":5038,"춢":5039,"춣":5040,"춤":5041,"춥":5042,"춧":5043,"춨":5044,"충":5045,"춪":5046,"춫":5047,"춬":5048,"춭":5049,"춮":5050,"춯":5051,"춰":5052,"춱":5053,"춴":5054,"춸":5055,"췁":5056,"췃":5057,"췄":5058,"췅":5059,"췆":5060,"췌":5061,"췍":5062,"췐":5063,"췝":5064,"췟":5065,"췠":5066,"췡":5067,"취":5068,"췩":5069,"췬":5070,"췰":5071,"췸":5072,"췹":5073,"췻":5074,"췼":5075,"췽":5076,"췾":5077,"츀":5078,"츃":5079,"츄":5080,"츅":5081,"츈":5082,"츌":5083,"츔":5084,"츕":5085,"츗":5086,"츙":5087,"츠":5088,"측":5089,"츤":5090,"츧":5091,"츨":5092,"츩":5093,"츰":5094,"츱":5095,"츳":5096,"층":5097,"츶":5098,"츷":5099,"츸":5100,"츼":5101,"츽":5102,"칀":5103,"칄":5104,"칌":5105,"칍":5106,"칏":5107,"칑":5108,"치":5109,"칙":5110,"칚":5111,"친":5112,"칝":5113,"칞":5114,"칟":5115,"칠":5116,"칡":5117,"칢":5118,"칤":5119,"칥":5120,"칧":5121,"침":5122,"칩":5123,"칫":5124,"칬":5125,"칭":5126,"칮":5127,"칯":5128,"칰":5129,"칱":5130,"칲":5131,"칳":5132,"카":5133,"칵":5134,"칶":5135,"칸":5136,"칻":5137,"칼":5138,"칽":5139,"캄":5140,"캅":5141,"캆":5142,"캇":5143,"캈":5144,"캉":5145,"캊":5146,"캋":5147,"캌":5148,"캍":5149,"캎":5150,"캏":5151,"캐":5152,"캑":5153,"캔":5154,"캘":5155,"캠":5156,"캡":5157,"캢":5158,"캣":5159,"캤":5160,"캥":5161,"캨":5162,"캩":5163,"캪":5164,"캬":5165,"캭":5166,"캮":5167,"캰":5168,"캴":5169,"캼":5170,"캽":5171,"캿":5172,"컀":5173,"컁":5174,"컄":5175,"컈":5176,"컜":5177,"커":5178,"컥":5179,"컨":5180,"컫":5181,"컬":5182,"컴":5183,"컵":5184,"컶":5185,"컷":5186,"컸":5187,"컹":5188,"컺":5189,"컼":5190,"컽":5191,"컾":5192,"컿":5193,"케":5194,"켁":5195,"켄":5196,"켇":5197,"켈":5198,"켐":5199,"켑":5200,"켓":5201,"켔":5202,"켕":5203,"켖":5204,"켘":5205,"켙":5206,"켚":5207,"켛":5208,"켜":5209,"켝":5210,"켞":5211,"켠":5212,"켣":5213,"켤":5214,"켥":5215,"켬":5216,"켭":5217,"켯":5218,"켰":5219,"켱":5220,"켲":5221,"켴":5222,"켵":5223,"켷":5224,"켸":5225,"콀":5226,"콋":5227,"콌":5228,"콍":5229,"코":5230,"콕":5231,"콖":5232,"콘":5233,"콛":5234,"콜":5235,"콢":5236,"콣":5237,"콤":5238,"콥":5239,"콦":5240,"콧":5241,"콩":5242,"콪":5243,"콫":5244,"콬":5245,"콭":5246,"콮":5247,"콯":5248,"콰":5249,"콱":5250,"콲":5251,"콴":5252,"콸":5253,"쾀":5254,"쾃":5255,"쾅":5256,"쾈":5257,"쾌":5258,"쾍":5259,"쾐":5260,"쾒":5261,"쾔":5262,"쾡":5263,"쾤":5264,"쾨":5265,"쾩":5266,"쾬":5267,"쾰":5268,"쾽":5269,"쿄":5270,"쿈":5271,"쿌":5272,"쿔":5273,"쿗":5274,"쿙":5275,"쿜":5276,"쿠":5277,"쿡":5278,"쿤":5279,"쿧":5280,"쿨":5281,"쿯":5282,"쿰":5283,"쿱":5284,"쿳":5285,"쿵":5286,"쿸":5287,"쿺":5288,"쿼":5289,"쿽":5290,"퀀":5291,"퀄":5292,"퀌":5293,"퀍":5294,"퀏":5295,"퀐":5296,"퀑":5297,"퀘":5298,"퀙":5299,"퀜":5300,"퀠":5301,"퀧":5302,"퀫":5303,"퀭":5304,"퀰":5305,"퀴":5306,"퀵":5307,"퀸":5308,"퀻":5309,"퀼":5310,"큄":5311,"큅":5312,"큇":5313,"큉":5314,"큌":5315,"큍":5316,"큐":5317,"큑":5318,"큔":5319,"큘":5320,"큠":5321,"큡":5322,"큣":5323,"큥":5324,"큨":5325,"크":5326,"큭":5327,"큮":5328,"큰":5329,"큱":5330,"큲":5331,"큳":5332,"클":5333,"큵":5334,"큻":5335,"큼":5336,"큽":5337,"큿":5338,"킀":5339,"킁":5340,"킂":5341,"킄":5342,"킅":5343,"킇":5344,"킈":5345,"킉":5346,"킌":5347,"킐":5348,"킘":5349,"킝":5350,"키":5351,"킥":5352,"킨":5353,"킫":5354,"킬":5355,"킴":5356,"킵":5357,"킷":5358,"킸":5359,"킹":5360,"킺":5361,"킼":5362,"킽":5363,"킾":5364,"킿":5365,"타":5366,"탁":5367,"탂":5368,"탃":5369,"탄":5370,"탅":5371,"탆":5372,"탇":5373,"탈":5374,"탉":5375,"탊":5376,"탋":5377,"탌":5378,"탍":5379,"탏":5380,"탐":5381,"탑":5382,"탒":5383,"탓":5384,"탔":5385,"탕":5386,"탖":5387,"탗":5388,"탘":5389,"탙":5390,"탚":5391,"탛":5392,"태":5393,"택":5394,"탟":5395,"탠":5396,"탣":5397,"탤":5398,"탬":5399,"탭":5400,"탯":5401,"탰":5402,"탱":5403,"탲":5404,"탴":5405,"탵":5406,"탶":5407,"탷":5408,"탸":5409,"탹":5410,"탼":5411,"턀":5412,"턈":5413,"턉":5414,"턋":5415,"턍":5416,"턔":5417,"턕":5418,"턘":5419,"턩":5420,"터":5421,"턱":5422,"턴":5423,"턷":5424,"털":5425,"턹":5426,"턺":5427,"텀":5428,"텁":5429,"텂":5430,"텃":5431,"텄":5432,"텅":5433,"텆":5434,"텇":5435,"텈":5436,"텉":5437,"텊":5438,"텋":5439,"테":5440,"텍":5441,"텐":5442,"텑":5443,"텓":5444,"텔":5445,"템":5446,"텝":5447,"텟":5448,"텠":5449,"텡":5450,"텢":5451,"텣":5452,"텤":5453,"텥":5454,"텦":5455,"텧":5456,"텨":5457,"텩":5458,"텬":5459,"텰":5460,"텸":5461,"텹":5462,"텻":5463,"텼":5464,"텽":5465,"톃":5466,"톄":5467,"톅":5468,"톈":5469,"톌":5470,"톔":5471,"토":5472,"톡":5473,"톤":5474,"톧":5475,"톨":5476,"톩":5477,"톰":5478,"톱":5479,"톲":5480,"톳":5481,"통":5482,"톶":5483,"톷":5484,"톸":5485,"톹":5486,"톺":5487,"톻":5488,"톼":5489,"톽":5490,"퇀":5491,"퇄":5492,"퇍":5493,"퇏":5494,"퇑":5495,"퇔":5496,"퇘":5497,"퇙":5498,"퇜":5499,"퇩":5500,"퇫":5501,"퇬":5502,"퇭":5503,"퇮":5504,"퇱":5505,"퇴":5506,"퇵":5507,"퇶":5508,"퇸":5509,"퇼":5510,"툄":5511,"툅":5512,"툇":5513,"툈":5514,"툉":5515,"툊":5516,"툌":5517,"툏":5518,"툐":5519,"툑":5520,"툠":5521,"툡":5522,"툥":5523,"투":5524,"툭":5525,"툰":5526,"툳":5527,"툴":5528,"툻":5529,"툼":5530,"툽":5531,"툿":5532,"퉁":5533,"퉂":5534,"퉄":5535,"퉅":5536,"퉆":5537,"퉈":5538,"퉉":5539,"퉌":5540,"퉐":5541,"퉛":5542,"퉜":5543,"퉝":5544,"퉤":5545,"퉥":5546,"퉨":5547,"퉬":5548,"퉯":5549,"퉵":5550,"퉷":5551,"퉸":5552,"퉹":5553,"퉺":5554,"퉼":5555,"퉽":5556,"퉾":5557,"퉿":5558,"튀":5559,"튁":5560,"튄":5561,"튈":5562,"튐":5563,"튑":5564,"튓":5565,"튔":5566,"튕":5567,"튘":5568,"튛":5569,"튜":5570,"튝":5571,"튠":5572,"튤":5573,"튬":5574,"튭":5575,"튱":5576,"튶":5577,"트":5578,"특":5579,"튺":5580,"튻":5581,"튼":5582,"튽":5583,"튾":5584,"튿":5585,"틀":5586,"틁":5587,"틂":5588,"틃":5589,"틅":5590,"틇":5591,"틈":5592,"틉":5593,"틊":5594,"틋":5595,"틍":5596,"틎":5597,"틏":5598,"틐":5599,"틑":5600,"틒":5601,"틓":5602,"틔":5603,"틕":5604,"틘":5605,"틜":5606,"틧":5607,"틩":5608,"티":5609,"틱":5610,"틴":5611,"틷":5612,"틸":5613,"팀":5614,"팁":5615,"팃":5616,"팄":5617,"팅":5618,"팆":5619,"팈":5620,"팉":5621,"팊":5622,"파":5623,"팍":5624,"팎":5625,"팏":5626,"판":5627,"팑":5628,"팒":5629,"팓":5630,"팔":5631,"팕":5632,"팖":5633,"팗":5634,"팘":5635,"팙":5636,"팚":5637,"팛":5638,"팜":5639,"팝":5640,"팟":5641,"팠":5642,"팡":5643,"팢":5644,"팣":5645,"팤":5646,"팥":5647,"팦":5648,"팧":5649,"패":5650,"팩":5651,"팬":5652,"팯":5653,"팰":5654,"팸":5655,"팹":5656,"팻":5657,"팼":5658,"팽":5659,"퍀":5660,"퍁":5661,"퍃":5662,"퍄":5663,"퍅":5664,"퍈":5665,"퍌":5666,"퍔":5667,"퍗":5668,"퍙":5669,"퍛":5670,"퍝":5671,"퍠":5672,"퍡":5673,"퍤":5674,"퍵":5675,"퍼":5676,"퍽":5677,"펀":5678,"펃":5679,"펄":5680,"펅":5681,"펌":5682,"펍":5683,"펏":5684,"펐":5685,"펑":5686,"펒":5687,"펔":5688,"펕":5689,"펖":5690,"펗":5691,"페":5692,"펙":5693,"펜":5694,"펟":5695,"펠":5696,"펨":5697,"펩":5698,"펫":5699,"펬":5700,"펭":5701,"펰":5702,"펲":5703,"펴":5704,"펵":5705,"편":5706,"펹":5707,"펺":5708,"펻":5709,"펼":5710,"폄":5711,"폅":5712,"폇":5713,"폈":5714,"평":5715,"폊":5716,"폌":5717,"폍":5718,"폏":5719,"폐":5720,"폑":5721,"폔":5722,"폗":5723,"폘":5724,"폠":5725,"폡":5726,"폣":5727,"폥":5728,"폦":5729,"폨":5730,"포":5731,"폭":5732,"폮":5733,"폯":5734,"폰":5735,"폳":5736,"폴":5737,"폼":5738,"폽":5739,"폿":5740,"퐁":5741,"퐂":5742,"퐄":5743,"퐅":5744,"퐆":5745,"퐇":5746,"퐈":5747,"퐉":5748,"퐌":5749,"퐐":5750,"퐑":5751,"퐘":5752,"퐙":5753,"퐛":5754,"퐜":5755,"퐝":5756,"퐞":5757,"퐠":5758,"퐤":5759,"퐥":5760,"푀":5761,"푁":5762,"푄":5763,"푈":5764,"푕":5765,"표":5766,"푝":5767,"푠":5768,"푣":5769,"푤":5770,"푬":5771,"푭":5772,"푯":5773,"푱":5774,"푲":5775,"푴":5776,"푶":5777,"푷":5778,"푸":5779,"푹":5780,"푼":5781,"푿":5782,"풀":5783,"풁":5784,"풂":5785,"풅":5786,"풇":5787,"품":5788,"풉":5789,"풋":5790,"풍":5791,"풎":5792,"풐":5793,"풑":5794,"풒":5795,"풓":5796,"풔":5797,"풕":5798,"풘":5799,"풜":5800,"풩":5801,"풰":5802,"풱":5803,"풴":5804,"풸":5805,"풿":5806,"퓅":5807,"퓌":5808,"퓍":5809,"퓐":5810,"퓔":5811,"퓜":5812,"퓟":5813,"퓡":5814,"퓨":5815,"퓩":5816,"퓬":5817,"퓰":5818,"퓸":5819,"퓹":5820,"퓻":5821,"퓽":5822,"픂":5823,"프":5824,"픅":5825,"픈":5826,"픋":5827,"플":5828,"픎":5829,"픔":5830,"픕":5831,"픗":5832,"픙":5833,"픚":5834,"픜":5835,"픝":5836,"픞":5837,"픟":5838,"픠":5839,"픤":5840,"픨":5841,"픵":5842,"피":5843,"픽":5844,"핀":5845,"핃":5846,"필":5847,"핅":5848,"핆":5849,"핈":5850,"핋":5851,"핌":5852,"핍":5853,"핏":5854,"핐":5855,"핑":5856,"핒":5857,"핓":5858,"핔":5859,"핕":5860,"핖":5861,"핗":5862,"하":5863,"학":5864,"핚":5865,"핛":5866,"한":5867,"핝":5868,"핞":5869,"핟":5870,"할":5871,"핡":5872,"핢":5873,"핣":5874,"핤":5875,"핥":5876,"핦":5877,"핧":5878,"함":5879,"합":5880,"핪":5881,"핫":5882,"핬":5883,"항":5884,"핮":5885,"핯":5886,"핰":5887,"핱":5888,"핲":5889,"핳":5890,"해":5891,"핵":5892,"핶":5893,"핷":5894,"핸":5895,"핺":5896,"핻":5897,"핼":5898,"핽":5899,"햄":5900,"햅":5901,"햇":5902,"했":5903,"행":5904,"햊":5905,"햋":5906,"햌":5907,"햍":5908,"햎":5909,"햏":5910,"햐":5911,"햑":5912,"햔":5913,"햗":5914,"햘":5915,"햙":5916,"햚":5917,"햛":5918,"햝":5919,"햞":5920,"햟":5921,"햠":5922,"햡":5923,"햣":5924,"햤":5925,"향":5926,"햦":5927,"햨":5928,"햩":5929,"햫":5930,"햬":5931,"햭":5932,"햰":5933,"햽":5934,"햿":5935,"헀":5936,"헁":5937,"허":5938,"헉":5939,"헌":5940,"헍":5941,"헏":5942,"헐":5943,"헑":5944,"헒":5945,"헓":5946,"헔":5947,"헕":5948,"헗":5949,"험":5950,"헙":5951,"헚":5952,"헛":5953,"헜":5954,"헝":5955,"헞":5956,"헠":5957,"헡":5958,"헢":5959,"헣":5960,"헤":5961,"헥":5962,"헦":5963,"헨":5964,"헬":5965,"헭":5966,"헴":5967,"헵":5968,"헷":5969,"헸":5970,"헹":5971,"헼":5972,"헽":5973,"헾":5974,"헿":5975,"혀":5976,"혁":5977,"혂":5978,"혃":5979,"현":5980,"혅":5981,"혆":5982,"혇":5983,"혈":5984,"혉":5985,"혌":5986,"혍":5987,"혐":5988,"협":5989,"혒":5990,"혓":5991,"혔":5992,"형":5993,"혖":5994,"혗":5995,"혘":5996,"혙":5997,"혚":5998,"혛":5999,"혜":6000,"혝":6001,"혠":6002,"혣":6003,"혤":6004,"혬":6005,"혭":6006,"혯":6007,"혰":6008,"혱":6009,"혲":6010,"혴":6011,"혵":6012,"호":6013,"혹":6014,"혺":6015,"혻":6016,"혼":6017,"혽":6018,"혾":6019,"혿":6020,"홀":6021,"홁":6022,"홅":6023,"홇":6024,"홈":6025,"홉":6026,"홋":6027,"홍":6028,"홎":6029,"홏":6030,"홐":6031,"홑":6032,"홒":6033,"홓":6034,"화":6035,"확":6036,"홖":6037,"홗":6038,"환":6039,"홙":6040,"홛":6041,"활":6042,"홝":6043,"홞":6044,"홟":6045,"홠":6046,"홡":6047,"홣":6048,"홤":6049,"홥":6050,"홧":6051,"홨":6052,"황":6053,"홪":6054,"홬":6055,"홭":6056,"홮":6057,"홯":6058,"홰":6059,"홱":6060,"홴":6061,"홸":6062,"횃":6063,"횄":6064,"횅":6065,"회":6066,"획":6067,"횐":6068,"횓":6069,"횔":6070,"횜":6071,"횝":6072,"횞":6073,"횟":6074,"횠":6075,"횡":6076,"횢":6077,"횤":6078,"횦":6079,"횧":6080,"효":6081,"횩":6082,"횬":6083,"횰":6084,"횸":6085,"횹":6086,"횻":6087,"횽":6088,"훀":6089,"훃":6090,"후":6091,"훅":6092,"훈":6093,"훉":6094,"훊":6095,"훋":6096,"훌":6097,"훍":6098,"훎":6099,"훏":6100,"훑":6101,"훒":6102,"훓":6103,"훔":6104,"훕":6105,"훗":6106,"훙":6107,"훚":6108,"훛":6109,"훜":6110,"훝":6111,"훞":6112,"훟":6113,"훠":6114,"훡":6115,"훣":6116,"훤":6117,"훨":6118,"훪":6119,"훬":6120,"훯":6121,"훰":6122,"훱":6123,"훳":6124,"훵":6125,"훸":6126,"훻":6127,"훼":6128,"훽":6129,"휀":6130,"휄":6131,"휌":6132,"휏":6133,"휐":6134,"휑":6135,"휔":6136,"휘":6137,"휙":6138,"휜":6139,"휟":6140,"휠":6141,"휧":6142,"휨":6143,"휩":6144,"휫":6145,"휭":6146,"휰":6147,"휲":6148,"휳":6149,"휴":6150,"휵":6151,"휸":6152,"휼":6153,"흄":6154,"흅":6155,"흇":6156,"흉":6157,"흊":6158,"흌":6159,"흏":6160,"흐":6161,"흑":6162,"흒":6163,"흓":6164,"흔":6165,"흖":6166,"흗":6167,"흘":6168,"흙":6169,"흜":6170,"흝":6171,"흟":6172,"흠":6173,"흡":6174,"흣":6175,"흥":6176,"흦":6177,"흨":6178,"흩":6179,"흪":6180,"흫":6181,"희":6182,"흭":6183,"흰":6184,"흳":6185,"흴":6186,"흼":6187,"흽":6188,"흿":6189,"힁":6190,"힂":6191,"힄":6192,"히":6193,"힉":6194,"힌":6195,"힍":6196,"힏":6197,"힐":6198,"힑":6199,"힒":6200,"힕":6201,"힗":6202,"힘":6203,"힙":6204,"힛":6205,"힜":6206,"힝":6207,"힞":6208,"힟":6209,"힠":6210,"힡":6211,"힢":6212,"힣":6213,"％":6214,"##e":6215,"##d":6216,"##u":6217,"##x":6218,"##c":6219,"##s":6220,"##t":6221,"##a":6222,"##y":6223,"##i":6224,"##r":6225,"##n":6226,"##g":6227,"##h":6228,"##B":6229,"##1":6230,"##3":6231,"##9":6232,"##2":6233,"##션":6234,"##쇼":6235,"##가":6236,"##0":6237,"##7":6238,"##6":6239,"##래":6240,"##소":6241,"##법":6242,"##o":6243,"##l":6244,"##5":6245,"##8":6246,"##발":6247,"##광":6248,"##떠":6249,"##는":6250,"##m":6251,"##창":6252,"##들":6253,"##다":6254,"##하":6255,"##니":6256,"##팍":6257,"##도":6258,"##사":6259,"##서":6260,"##4":6261,"##룩":6262,"##이":6263,"##자":6264,"##리":6265,"##추":6266,"##H":6267,"##O":6268,"##X":6269,"##q":6270,"##며":6271,"##져":6272,"##b":6273,"##T":6274,"##k":6275,"##z":6276,"##w":6277,"##레":6278,"##오":6279,"##스":6280,"##트":6281,"##에":6282,"##U":6283,"##I":6284,"##S":6285,"##M":6286,"##마":6287,"##치":6288,"##매":6289,"##걸":6290,"##린":6291,"##게":6292,"##p":6293,"##쌍":6294,"##불":6295,"##지":6296,"##겠":6297,"##단":6298,"##약":6299,"##느":6300,"##므":6301,"##새":6302,"##키":6303,"##언":6304,"##체":6305,"##전":6306,"##연":6307,"##대":6308,"##R":6309,"##귀":6310,"##네":6311,"##비":6312,"##츠":6313,"##어":6314,"##라":6315,"##물":6316,"##종":6317,"##안":6318,"##D":6319,"##J":6320,"##한":6321,"##놈":6322,"##중":6323,"##운":6324,"##동":6325,"##실":6326,"##까":6327,"##요":6328,"##타":6329,"##깝":6330,"##A":6331,"##P":6332,"##E":6333,"##L":6334,"##디":6335,"##주":6336,"##태":6337,"##의":6338,"##효":6339,"##희":6340,"##신":6341,"##아":6342,"##진":6343,"##v":6344,"##만":6345,"##싸":6346,"##부":6347,"##N":6348,"##쇠":6349,"##겨":6350,"##날":6351,"##헤":6352,"##헿":6353,"##기":6354,"##준":6355,"##멘":6356,"##나":6357,"##F":6358,"##껑":6359,"##뭉":6360,"##쿠":6361,"##엔":6362,"##환":6363,"##호":6364,"##무":6365,"##젖":6366,"##꼭":6367,"##르":6368,"##난":6369,"##데":6370,"##조":6371,"##선":6372,"##족":6373,"##은":6374,"##응":6375,"##거":6376,"##W":6377,"##G":6378,"##씨":6379,"##j":6380,"##크":6381,"##먼":6382,"##애":6383,"##경":6384,"##외":6385,"##과":6386,"##베":6387,"##f":6388,"##메":6389,"##영":6390,"##농":6391,"##관":6392,"##죵":6393,"##망":6394,"##유":6395,"##Y":6396,"##꾹":6397,"##얘":6398,"##시":6399,"##밀":6400,"##질":6401,"##냐":6402,"##인":6403,"##토":6404,"##덕":6405,"##상":6406,"##균":6407,"##류":6408,"##석":6409,"##쥔":6410,"##와":6411,"##찰":6412,"##음":6413,"##따":6414,"##을":6415,"##러":6416,"##천":6417,"##원":6418,"##문":6419,"##성":6420,"##배":6421,"##듣":6422,"##맨":6423,"##칠":6424,"##미":6425,"##국":6426,"##것":6427,"##송":6428,"##드":6429,"##쉐":6430,"##버":6431,"##렸":6432,"##왕":6433,"##산":6434,"##노":6435,"##꺄":6436,"##고":6437,"##있":6438,"##케":6439,"##웃":6440,"##놐":6441,"##히":6442,"##순":6443,"##샛":6444,"##끼":6445,"##야":6446,"##화":6447,"##개":6448,"##폐":6449,"##졌":6450,"##곤":6451,"##해":6452,"##머":6453,"##듭":6454,"##홍":6455,"##컷":6456,"##빨":6457,"##봉":6458,"##C":6459,"##손":6460,"##바":6461,"##퍼":6462,"##내":6463,"##완":6464,"##용":6465,"##파":6466,"##악":6467,"##우":6468,"##목":6469,"##냈":6470,"##으":6471,"##면":6472,"##너":6473,"##갈":6474,"##길":6475,"##빕":6476,"##봐":6477,"##른":6478,"##욕":6479,"##삼":6480,"##쟁":6481,"##돼":6482,"##민":6483,"##덩":6484,"##졀":6485,"##습":6486,"##숙":6487,"##생":6488,"##혜":6489,"##때":6490,"##티":6491,"##폴":6492,"##얼":6493,"##싶":6494,"##샕":6495,"##V":6496,"##코":6497,"##프":6498,"##를":6499,"##징":6500,"##여":6501,"##범":6502,"##학":6503,"##찬":6504,"##항":6505,"##남":6506,"##K":6507,"##꿔":6508,"##려":6509,"##Q":6510,"##찍":6511,"##끠":6512,"##방":6513,"##던":6514,"##잖":6515,"##쓰":6516,"##깍":6517,"##북":6518,"##령":6519,"##찮":6520,"##듯":6521,"##구":6522,"##현":6523,"##장":6524,"##랑":6525,"##재":6526,"##강":6527,"##녀":6528,"##그":6529,"##덴":6530,"##검":6531,"##열":6532,"##터":6533,"##초":6534,"##능":6535,"##굴":6536,"##링":6537,"##달":6538,"##로":6539,"##술":6540,"##푼":6541,"##슨":6542,"##모":6543,"##놓":6544,"##았":6545,"##쓔":6546,"##넘":6547,"##앙":6548,"##일":6549,"##벸":6550,"##청":6551,"##턴":6552,"##식":6553,"##뀌":6554,"##차":6555,"##잔":6556,"##슈":6557,"##돜":6558,"##늬":6559,"##올":6560,"##보":6561,"##명":6562,"##절":6563,"##당":6564,"##톤":6565,"##퀴":6566,"##찼":6567,"##짜":6568,"##쓸":6569,"##염":6570,"##낯":6571,"##줘":6572,"##택":6573,"##뭐":6574,"##깨":6575,"##먹":6576,"##읍":6577,"##났":6578,"##란":6579,"##빵":6580,"##브":6581,"##홀":6582,"##좌":6583,"##충":6584,"##정":6585,"##낼":6586,"##늣":6587,"##합":6588,"##켜":6589,"##묘":6590,"##왈":6591,"##딲":6592,"##께":6593,"##커":6594,"##십":6595,"##년":6596,"##간":6597,"##찐":6598,"##색":6599,"##병":6600,"##뿌":6601,"##탁":6602,"##제":6603,"##돈":6604,"##수":6605,"##속":6606,"##쭤":6607,"##월":6608,"##론":6609,"##알":6610,"##탈":6611,"##없":6612,"##건":6613,"##글":6614,"##감":6615,"##럼":6616,"##엘":6617,"##녆":6618,"##향":6619,"##뎅":6620,"##벙":6621,"##례":6622,"##뿎":6623,"##붂":6624,"##함":6625,"##릴":6626,"##같":6627,"##곡":6628,"##통":6629,"##쳐":6630,"##세":6631,"##온":6632,"##쯔":6633,"##회":6634,"##력":6635,"##폰":6636,"##금":6637,"##록":6638,"##놀":6639,"##슬":6640,"##저":6641,"##낭":6642,"##못":6643,"##점":6644,"##뿟":6645,"##킨":6646,"##깔":6647,"##처":6648,"##두":6649,"##끗":6650,"##뽕":6651,"##돌":6652,"##넷":6653,"##포":6654,"##카":6655,"##뺏":6656,"##밉":6657,"##Z":6658,"##딜":6659,"##든":6660,"##듫":6661,"##총":6662,"##님":6663,"##듬":6664,"##규":6665,"##릉":6666,"##박":6667,"##근":6668,"##냥":6669,"##참":6670,"##켈":6671,"##복":6672,"##누":6673,"##루":6674,"##쇜":6675,"##쩌":6676,"##줄":6677,"##맹":6678,"##번":6679,"##된":6680,"##형":6681,"##행":6682,"##혀":6683,"##웅":6684,"##똥":6685,"##콜":6686,"##큼":6687,"##끔":6688,"##깅":6689,"##갑":6690,"##셔":6691,"##귝":6692,"##랜":6693,"##렋":6694,"##집":6695,"##튀":6696,"##극":6697,"##텐":6698,"##핑":6699,"##계":6700,"##돠":6701,"##듸":6702,"##댓":6703,"##램":6704,"##뮨":6705,"##페":6706,"##뽄":6707,"##쟝":6708,"##군":6709,"##심":6710,"##겟":6711,"##썰":6712,"##꺼":6713,"##업":6714,"##권":6715,"##렴":6716,"##섭":6717,"##률":6718,"##덜":6719,"##쪾":6720,"##작":6721,"##할":6722,"##겔":6723,"##투":6724,"##웠":6725,"##럽":6726,"##쇙":6727,"##쥬":6728,"##입":6729,"##쌔":6730,"##풍":6731,"##젠":6732,"##널":6733,"##황":6734,"##혔":6735,"##벳":6736,"##샀":6737,"##쥐":6738,"##또":6739,"##컨":6740,"##람":6741,"##앉":6742,"##뱅":6743,"##꼬":6744,"##랬":6745,"##졐":6746,"##뒤":6747,"##델":6748,"##닌":6749,"##촹":6750,"##털":6751,"##컴":6752,"##팩":6753,"##욱":6754,"##위":6755,"##좀":6756,"##닮":6757,"##림":6758,"##담":6759,"##말":6760,"##즘":6761,"##씩":6762,"##겼":6763,"##되":6764,"##뉘":6765,"##증":6766,"##짓":6767,"##넹":6768,"##썌":6769,"##쟤":6770,"##먤":6771,"##럐":6772,"##혈":6773,"##푸":6774,"##섬":6775,"##축":6776,"##꼽":6777,"##허":6778,"##옙":6779,"##등":6780,"##육":6781,"##롤":6782,"##억":6783,"##납":6784,"##득":6785,"##층":6786,"##교":6787,"##견":6788,"##설":6789,"##몽":6790,"##료":6791,"##롬":6792,"##밴":6793,"##긴":6794,"##얀":6795,"##죠":6796,"##랄":6797,"##겹":6798,"##탐":6799,"##블":6800,"##쭉":6801,"##받":6802,"##긋":6803,"##둘":6804,"##빠":6805,"##독":6806,"##뢀":6807,"##떨":6808,"##적":6809,"##별":6810,"##편":6811,"##헌":6812,"##찿":6813,"##뽑":6814,"##즈":6815,"##답":6816,"##벌":6817,"##냔":6818,"##셈":6819,"##궈":6820,"##앞":6821,"##옐":6822,"##역":6823,"##더":6824,"##김":6825,"##삹":6826,"##품":6827,"##쭬":6828,"##패":6829,"##피":6830,"##쌓":6831,"##꼴":6832,"##틀":6833,"##딱":6834,"##테":6835,"##깃":6836,"##넼":6837,"##쨰":6838,"##본":6839,"##밥":6840,"##롷":6841,"##셰":6842,"##런":6843,"##뉴":6844,"##울":6845,"##었":6846,"##뚱":6847,"##뚜":6848,"##둥":6849,"##뚠":6850,"##띙":6851,"##골":6852,"##짱":6853,"##필":6854,"##립":6855,"##넨":6856,"##싱":6857,"##씁":6858,"##융":6859,"##출":6860,"##공":6861,"##임":6862,"##꽃":6863,"##옻":6864,"##얌":6865,"##꽈":6866,"##숸":6867,"##잡":6868,"##줴":6869,"##쩔":6870,"##눈":6871,"##룸":6872,"##윤":6873,"##갓":6874,"##킹":6875,"##엄":6876,"##갱":6877,"##꾸":6878,"##멍":6879,"##핏":6880,"##츤":6881,"##침":6882,"##껌":6883,"##뻒":6884,"##킄":6885,"##최":6886,"##했":6887,"##곰":6888,"##팡":6889,"##뭇":6890,"##끝":6891,"##굿":6892,"##씪":6893,"##잇":6894,"##녔":6895,"##퇘":6896,"##윈":6897,"##쫄":6898,"##짐":6899,"##춘":6900,"##막":6901,"##싕":6902,"##갹":6903,"##흟":6904,"##휘":6905,"##접":6906,"##살":6907,"##궞":6908,"##락":6909,"##꺠":6910,"##결":6911,"##략":6912,"##워":6913,"##튼":6914,"##뇬":6915,"##꽁":6916,"##릅":6917,"##랏":6918,"##켰":6919,"##럴":6920,"##꽂":6921,"##믿":6922,"##뱨":6923,"##걔":6924,"##봤":6925,"##엿":6926,"##쿤":6927,"##련":6928,"##급":6929,"##겸":6930,"##판":6931,"##벽":6932,"##빚":6933,"##챵":6934,"##쩝":6935,"##후":6936,"##겐":6937,"##슥":6938,"##됬":6939,"##겅":6940,"##궁":6941,"##굼":6942,"##훈":6943,"##껴":6944,"##익":6945,"##직":6946,"##윗":6947,"##쪽":6948,"##백":6949,"##옥":6950,"##양":6951,"##표":6952,"##분":6953,"##젤":6954,"##암":6955,"##뜩":6956,"##걑":6957,"##됴":6958,"##둔":6959,"##캇":6960,"##닭":6961,"##훟":6962,"##채":6963,"##륀":6964,"##뿐":6965,"##츈":6966,"##착":6967,"##왜":6968,"##롱":6969,"##팅":6970,"##롯":6971,"##흥":6972,"##겡":6973,"##펴":6974,"##쟹":6975,"##햬":6976,"##냰":6977,"##걩":6978,"##휴":6979,"##갤":6980,"##댈":6981,"##갆":6982,"##읂":6983,"##붉":6984,"##측":6985,"##풀":6986,"##킥":6987,"##취":6988,"##풉":6989,"##껄":6990,"##렁":6991,"##밑":6992,"##팔":6993,"##룡":6994,"##웟":6995,"##플":6996,"##밒":6997,"##셨":6998,"##존":6999,"##콰":7000,"##솔":7001,"##댕":7002,"##몬":7003,"##쉰":7004,"##밤":7005,"##액":7006,"##챦":7007,"##였":7008,"##넬":7009,"##끄":7010,"##힘":7011,"##듦":7012,"##깁":7013,"##율":7014,"##늘":7015,"##숴":7016,"##벼":7017,"##끈":7018,"##륵":7019,"##댄":7020,"##센":7021,"##슷":7022,"##냉":7023,"##슝":7024,"##친":7025,"##랴":7026,"##씌":7027,"##볶":7028,"##젊":7029,"##췄":7030,"##칼":7031,"##톨":7032,"##팬":7033,"##겁":7034,"##싄":7035,"##맞":7036,"##숩":7037,"##삭":7038,"##탄":7039,"##엽":7040,"##짭":7041,"##틸":7042,"##혹":7043,"##뇨":7044,"##각":7045,"##죽":7046,"##졸":7047,"##먁":7048,"##뻐":7049,"##믄":7050,"##쇄":7051,"##흉":7052,"##쉬":7053,"##곳":7054,"##뤌":7055,"##앗":7056,"##찌":7057,"##큰":7058,"##쎄":7059,"##평":7060,"##뇽":7061,"##겧":7062,"##떡":7063,"##죄":7064,"##춰":7065,"##논":7066,"##켄":7067,"##숨":7068,"##륜":7069,"##볼":7070,"##빛":7071,"##혐":7072,"##혼":7073,"##승":7074,"##짝":7075,"##햄":7076,"##츙":7077,"##격":7078,"##좋":7079,"##젓":7080,"##량":7081,"##냨":7082,"##섹":7083,"##룽":7084,"##닥":7085,"##젼":7086,"##휏":7087,"##섀":7088,"##릿":7089,"##예":7090,"##뺑":7091,"##큐":7092,"##닦":7093,"##탱":7094,"##캉":7095,"##꾾":7096,"##칫":7097,"##첩":7098,"##댔":7099,"##닐":7100,"##왔":7101,"##삐":7102,"##철":7103,"##낀":7104,"##숫":7105,"##뇌":7106,"##렘":7107,"##뜻":7108,"##몰":7109,"##롸":7110,"##뽤":7111,"##늠":7112,"##움":7113,"##콘":7114,"##닙":7115,"##깡":7116,"##클":7117,"##써":7118,"##괘":7119,"##셴":7120,"##챤":7121,"##꿍":7122,"##띠":7123,"##늫":7124,"##흐":7125,"##흘":7126,"##럿":7127,"##릇":7128,"##꼉":7129,"##왓":7130,"##뚕":7131,"##띁":7132,"##빈":7133,"##뱉":7134,"##릭":7135,"##놨":7136,"##촬":7137,"##뀽":7138,"##넙":7139,"##둡":7140,"##슐":7141,"##괭":7142,"##굚":7143,"##롭":7144,"##씹":7145,"##반":7146,"##킬":7147,"##녋":7148,"##앍":7149,"##봄":7150,"##죳":7151,"##숭":7152,"##섰":7153,"##특":7154,"##삽":7155,"##캐":7156,"##턱":7157,"##빌":7158,"##댐":7159,"##름":7160,"##칭":7161,"##많":7162,"##닝":7163,"##좃":7164,"##튜":7165,"##뛰":7166,"##볘":7167,"##녁":7168,"##녘":7169,"##압":7170,"##횐":7171,"##핥":7172,"##땜":7173,"##웜":7174,"##쯪":7175,"##즞":7176,"##샾":7177,"##솟":7178,"##잎":7179,"##됨":7180,"##째":7181,"##늄":7182,"##맷":7183,"##닏":7184,"##낸":7185,"##놔":7186,"##혁":7187,"##꿘":7188,"##잘":7189,"##썩":7190,"##훼":7191,"##꾼":7192,"##및":7193,"##봬":7194,"##렌":7195,"##랸":7196,"##윌":7197,"##찾":7198,"##빗":7199,"##될":7200,"##솨":7201,"##녕":7202,"##뜨":7203,"##벡":7204,"##슙":7205,"##촨":7206,"##뮌":7207,"##렬":7208,"##맥":7209,"##쵸":7210,"##뢔":7211,"##책":7212,"##걱":7213,"##맘":7214,"##뭔":7215,"##딸":7216,"##썹":7217,"##곶":7218,"##깐":7219,"##힐":7220,"##끌":7221,"##섯":7222,"##쏠":7223,"##땋":7224,"##궉":7225,"##밟":7226,"##옷":7227,"##갔":7228,"##붓":7229,"##씺":7230,"##밦":7231,"##뽁":7232,"##맛":7233,"##협":7234,"##됏":7235,"##빼":7236,"##엌":7237,"##쑤":7238,"##읭":7239,"##렐":7240,"##쇅":7241,"##쓴":7242,"##쑈":7243,"##벤":7244,"##괴":7245,"##뵹":7246,"##궜":7247,"##웨":7248,"##랙":7249,"##쳣":7250,"##낫":7251,"##곘":7252,"##켯":7253,"##윽":7254,"##셧":7255,"##츄":7256,"##샹":7257,"##썽":7258,"##겜":7259,"##낮":7260,"##뻔":7261,"##쁘":7262,"##퓡":7263,"##뷔":7264,"##됩":7265,"##눔":7266,"##뀩":7267,"##뜰":7268,"##쾅":7269,"##렷":7270,"##칵":7271,"##벨":7272,"##똑":7273,"##쎤":7274,"##봣":7275,"##빅":7276,"##튕":7277,"##낙":7278,"##떵":7279,"##욘":7280,"##쿯":7281,"##룬":7282,"##웰":7283,"##캬":7284,"##폭":7285,"##쟈":7286,"##옵":7287,"##쌕":7288,"##맵":7289,"##셱":7290,"##쮹":7291,"##쇆":7292,"##럭":7293,"##듀":7294,"##킈":7295,"##뉸":7296,"##냄":7297,"##촌":7298,"##닷":7299,"##짤":7300,"##솥":7301,"##윘":7302,"##쪼":7303,"##뱌":7304,"##늑":7305,"##흠":7306,"##챡":7307,"##홰":7308,"##샠":7309,"##숲":7310,"##땅":7311,"##밭":7312,"##씡":7313,"##낂":7314,"##눌":7315,"##멧":7316,"##븅":7317,"##쉼":7318,"##둑":7319,"##객":7320,"##냑":7321,"##츨":7322,"##쿨":7323,"##즤":7324,"##앤":7325,"##확":7326,"##툽":7327,"##윱":7328,"##변":7329,"##읔":7330,"##쪕":7331,"##셸":7332,"##렉":7333,"##떤":7334,"##싀":7335,"##꼰":7336,"##젔":7337,"##팥":7338,"##쌉":7339,"##딩":7340,"##싰":7341,"##쫩":7342,"##쩍":7343,"##긍":7344,"##꿇":7345,"##딘":7346,"##띤":7347,"##렝":7348,"##첼":7349,"##갗":7350,"##땡":7351,"##즐":7352,"##핵":7353,"##컵":7354,"##샤":7355,"##탕":7356,"##뎨":7357,"##쒝":7358,"##밍":7359,"##볕":7360,"##쩡":7361,"##덥":7362,"##띰":7363,"##룝":7364,"##슴":7365,"##엇":7366,"##팽":7367,"##샄":7368,"##셐":7369,"##탑":7370,"##붙":7371,"##쳤":7372,"##맙":7373,"##쭛":7374,"##뤼":7375,"##잠":7376,"##쀼":7377,"##첨":7378,"##댑":7379,"##틴":7380,"##떻":7381,"##꾀":7382,"##챈":7383,"##씬":7384,"##촤":7385,"##엉":7386,"##얶":7387,"##쬡":7388,"##돱":7389,"##씝":7390,"##퉁":7391,"##퉷":7392,"##퉤":7393,"##컬":7394,"##쿄":7395,"##궤":7396,"##쌖":7397,"##험":7398,"##척":7399,"##햇":7400,"##뻣":7401,"##쭈":7402,"##끞":7403,"##헐":7404,"##쫌":7405,"##렀":7406,"##릐":7407,"##쁠":7408,"##걍":7409,"##뻘":7410,"##껰":7411,"##줬":7412,"##빽":7413,"##뛴":7414,"##활":7415,"##엮":7416,"##옇":7417,"##앜":7418,"##볽":7419,"##샵":7420,"##쏃":7421,"##밣":7422,"##쥑":7423,"##긔":7424,"##얻":7425,"##묻":7426,"##잼":7427,"##탓":7428,"##헥":7429,"##묭":7430,"##땐":7431,"##캣":7432,"##믐":7433,"##샗":7434,"##힌":7435,"##쭵":7436,"##값":7437,"##쬐":7438,"##씸":7439,"##뽀":7440,"##씅":7441,"##뉜":7442,"##텔":7443,"##얕":7444,"##싹":7445,"##졏":7446,"##덤":7447,"##썁":7448,"##흔":7449,"##씐":7450,"##펠":7451,"##멀":7452,"##꿀":7453,"##읏":7454,"##칸":7455,"##퐁":7456,"##뻑":7457,"##눼":7458,"##뷍":7459,"##떼":7460,"##뢰":7461,"##섵":7462,"##쌈":7463,"##쥼":7464,"##밝":7465,"##텡":7466,"##춤":7467,"##뎐":7468,"##뀨":7469,"##닉":7470,"##쾨":7471,"##퀘":7472,"##삶":7473,"##쾌":7474,"##젴":7475,"##묵":7476,"##댜":7477,"##슘":7478,"##낚":7479,"##댠":7480,"##삤":7481,"##텀":7482,"##셓":7483,"##랐":7484,"##빤":7485,"##곸":7486,"##둬":7487,"##듧":7488,"##똘":7489,"##졍":7490,"##늕":7491,"##핸":7492,"##뷁":7493,"##뫈":7494,"##쫘":7495,"##쿵":7496,"##녹":7497,"##칙":7498,"##섞":7499,"##걷":7500,"##륭":7501,"##뺘":7502,"##껏":7503,"##쟌":7504,"##썬":7505,"##앛":7506,"##벗":7507,"##왐":7508,"##딴":7509,"##깜":7510,"##잉":7511,"##좦":7512,"##쌘":7513,"##괄":7514,"##쪘":7515,"##퀰":7516,"##둞":7517,"##렣":7518,"##븝":7519,"##뜯":7520,"##않":7521,"##뤄":7522,"##뭘":7523,"##긕":7524,"##컥":7525,"##됐":7526,"##놜":7527,"##옹":7528,"##잊":7529,"##쨩":7530,"##갇":7531,"##퐉":7532,"##뇀":7533,"##붤":7534,"##퓨":7535,"##싴":7536,"##퍽":7537,"##쐐":7538,"##톡":7539,"##뀐":7540,"##템":7541,"##몇":7542,"##톈":7543,"##궝":7544,"##멜":7545,"##쫀":7546,"##삿":7547,"##싼":7548,"##뎃":7549,"##뭄":7550,"##쭐":7551,"##끊":7552,"##궐":7553,"##쳇":7554,"##좩":7555,"##틱":7556,"##겄":7557,"##랍":7558,"##겻":7559,"##녜":7560,"##뮴":7561,"##뱃":7562,"##됫":7563,"##괵":7564,"##멩":7565,"##툭":7566,"##븐":7567,"##뜸":7568,"##셋":7569,"##갸":7570,"##쭙":7571,"##뫄":7572,"##뭭":7573,"##뛔":7574,"##퇀":7575,"##랭":7576,"##딕":7577,"##흡":7578,"##홯":7579,"##깠":7580,"##펙":7581,"##좉":7582,"##펑":7583,"##닫":7584,"##깥":7585,"##햣":7586,"##앵":7587,"##즬":7588,"##넣":7589,"##헙":7590,"##빡":7591,"##셕":7592,"##슢":7593,"##몐":7594,"##귁":7595,"##읋":7596,"##뮤":7597,"##촘":7598,"##핀":7599,"##엎":7600,"##붏":7601,"##짬":7602,"##덮":7603,"##쨔":7604,"##껭":7605,"##줜":7606,"##쿼":7607,"##꺽":7608,"##갰":7609,"##쒹":7610,"##탤":7611,"##뎄":7612,"##쪄":7613,"##괜":7614,"##훗":7615,"##꽊":7616,"##뒈":7617,"##냅":7618,"##쉒":7619,"##뫌":7620,"##삥":7621,"##햐":7622,"##뗌":7623,"##뼈":7624,"##늉":7625,"##뇐":7626,"##쉅":7627,"##킼":7628,"##렠":7629,"##슌":7630,"##념":7631,"##룹":7632,"##쳅":7633,"##룻":7634,"##솝":7635,"##킵":7636,"##헨":7637,"##닠":7638,"##뿅":7639,"##쒸":7640,"##륨":7641,"##꿑":7642,"##빸":7643,"##햔":7644,"##랗":7645,"##똭":7646,"##몆":7647,"##톱":7648,"##켔":7649,"##쿡":7650,"##즉":7651,"##핫":7652,"##퀼":7653,"##좨":7654,"##얜":7655,"##돔":7656,"##퓟":7657,"##낕":7658,"##쏘":7659,"##엠":7660,"##뻬":7661,"##쭝":7662,"##쎅":7663,"##칩":7664,"##빝":7665,"##퐝":7666,"##탯":7667,"##쉽":7668,"##콧":7669,"##촉":7670,"##퉛":7671,"##얹":7672,"##뽜":7673,"##귱":7674,"##눕":7675,"##샌":7676,"##뉨":7677,"##끾":7678,"##빧":7679,"##켓":7680,"##쁜":7681,"##붜":7682,"##숰":7683,"##믈":7684,"##닼":7685,"##겆":7686,"##캡":7687,"##엑":7688,"##옳":7689,"##몄":7690,"##곧":7691,"##좈":7692,"##챙":7693,"##셩":7694,"##꺅":7695,"##굘":7696,"##줌":7697,"##셀":7698,"##얔":7699,"##밷":7700,"##꿰":7701,"##볓":7702,"##봅":7703,"##갖":7704,"##촵":7705,"##굉":7706,"##딤":7707,"##껼":7708,"##펀":7709,"##닧":7710,"##믠":7711,"##빙":7712,"##썼":7713,"##껀":7714,"##핬":7715,"##짖":7716,"##웁":7717,"##벅":7718,"##좁":7719,"##뽹":7720,"##읺":7721,"##돋":7722,"##뀰":7723,"##휐":7724,"##쨘":7725,"##펜":7726,"##띱":7727,"##헝":7728,"##됗":7729,"##밖":7730,"##딷":7731,"##밎":7732,"##퇴":7733,"##랫":7734,"##짴":7735,"##쌰":7736,"##깽":7737,"##쌀":7738,"##멎":7739,"##멸":7740,"##캔":7741,"##밸":7742,"##쫑":7743,"##멕":7744,"##춍":7745,"##떄":7746,"##텍":7747,"##즙":7748,"##찹":7749,"##렵":7750,"##빯":7751,"##홥":7752,"##읰":7753,"##쳔":7754,"##픽":7755,"##윅":7756,"##쨕":7757,"##넌":7758,"##콩":7759,"##숑":7760,"##쾍":7761,"##뚤":7762,"##쉭":7763,"##쉔":7764,"##묠":7765,"##앳":7766,"##몸":7767,"##갂":7768,"##싫":7769,"##룰":7770,"##픈":7771,"##쐬":7772,"##횽":7773,"##뇸":7774,"##뚝":7775,"##꽤":7776,"##쮜":7777,"##쉥":7778,"##풩":7779,"##귈":7780,"##힙":7781,"##엏":7782,"##뎈":7783,"##젹":7784,"##짚":7785,"##랃":7786,"##놋":7787,"##싁":7788,"##듷":7789,"##펄":7790,"##쓍":7791,"##얬":7792,"##댸":7793,"##됱":7794,"##짛":7795,"##즌":7796,"##끓":7797,"##땄":7798,"##졷":7799,"##쮸":7800,"##쉑":7801,"##쯤":7802,"##컼":7803,"##궄":7804,"##붕":7805,"##웬":7806,"##갅":7807,"##얏":7808,"##쒜":7809,"##촪":7810,"##셍":7811,"##슊":7812,"##땁":7813,"##쉉":7814,"##쌧":7815,"##갴":7816,"##낔":7817,"##엥":7818,"##놧":7819,"##짫":7820,"##맠":7821,"##쀏":7822,"##곲":7823,"##뿔":7824,"##덯":7825,"##딛":7826,"##뇰":7827,"##붗":7828,"##콕":7829,"##햌":7830,"##뻥":7831,"##엗":7832,"##쯍":7833,"##샷":7834,"##펫":7835,"##팀":7836,"##먜":7837,"##콴":7838,"##흣":7839,"##눅":7840,"##윕":7841,"##젬":7842,"##켘":7843,"##꽐":7844,"##텽":7845,"##듕":7846,"##읐":7847,"##쓱":7848,"##탠":7849,"##봘":7850,"##뙛":7851,"##삘":7852,"##챃":7853,"##렇":7854,"##킷":7855,"##죡":7856,"##쥥":7857,"##쨋":7858,"##읬":7859,"##낗":7860,"##쑴":7861,"##뙈":7862,"##쎴":7863,"##쎠":7864,"##녠":7865,"##혓":7866,"##컄":7867,"##숀":7868,"##솉":7869,"##헠":7870,"##벰":7871,"##즴":7872,"##죾":7873,"##짘":7874,"##샘":7875,"##낌":7876,"##쒞":7877,"##몀":7878,"##엃":7879,"##헣":7880,"##헗":7881,"##굇":7882,"##뱕":7883,"##껍":7884,"##썅":7885,"##쌌":7886,"##킴":7887,"##뭍":7888,"##룀":7889,"##딹":7890,"##뻗":7891,"##죋":7892,"##홤":7893,"##꺵":7894,"##꿈":7895,"##쑨":7896,"##낳":7897,"##깎":7898,"##쥉":7899,"##쉨":7900,"##퇫":7901,"##벝":7902,"##퐈":7903,"##뻤":7904,"##줫":7905,"##꺆":7906,"##쨥":7907,"##셜":7908,"##뷰":7909,"##켁":7910,"##쥴":7911,"##뛸":7912,"##훱":7913,"##꾤":7914,"##쪗":7915,"##횸":7916,"##띄":7917,"##먀":7918,"##슭":7919,"##뿜":7920,"##뎡":7921,"##볏":7922,"##솹":7923,"##쩦":7924,"##꺾":7925,"##쳘":7926,"##캠":7927,"##낄":7928,"##덱":7929,"##뱀":7930,"##렛":7931,"##즹":7932,"##닛":7933,"##꾜":7934,"##휼":7935,"##홧":7936,"##럈":7937,"##핲":7938,"##샊":7939,"##늅":7940,"##켴":7941,"##돍":7942,"##죤":7943,"##높":7944,"##홈":7945,"##펼":7946,"##둣":7947,"##쩨":7948,"##썎":7949,"##컹":7950,"##췁":7951,"##훠":7952,"##챠":7953,"##킁":7954,"##퉈":7955,"##쩜":7956,"##획":7957,"##씽":7958,"##궸":7959,"##폿":7960,"##훤":7961,"##텟":7962,"##밚":7963,"##잃":7964,"##쳬":7965,"##뱽":7966,"##뼜":7967,"##횡":7968,"##칀":7969,"##냬":7970,"##숍":7971,"##삔":7972,"##샨":7973,"##곽":7974,"##잭":7975,"##멱":7976,"##쟙":7977,"##빋":7978,"##퀌":7979,"##찻":7980,"##삯":7981,"##옌":7982,"##좐":7983,"##쎀":7984,"##쫓":7985,"##꿩":7986,"##댖":7987,"##샢":7988,"##뽈":7989,"##쯧":7990,"##엨":7991,"##놂":7992,"##뼝":7993,"##넉":7994,"##륙":7995,"##싯":7996,"##혖":7997,"##샬":7998,"##틈":7999,"##떅":8000,"##뺩":8001,"##땠":8002,"##쏴":8003,"##뎀":8004,"##잏":8005,"##팁":8006,"##뮬":8007,"##옜":8008,"##쁨":8009,"##씀":8010,"##솜":8011,"##좆":8012,"##좭":8013,"##쎗":8014,"##꿁":8015,"##똬":8016,"##싣":8017,"##캅":8018,"##맆":8019,"##쌤":8020,"##겢":8021,"##핰":8022,"##낰":8023,"##꿃":8024,"##겦":8025,"##긒":8026,"##랩":8027,"##큭":8028,"##퀸":8029,"##뭣":8030,"##웩":8031,"##뚀":8032,"##묜":8033,"##쬬":8034,"##큥":8035,"##렙":8036,"##잽":8037,"##쫛":8038,"##꼈":8039,"##꿉":8040,"##뺄":8041,"##줔":8042,"##헬":8043,"##롹":8044,"##풋":8045,"##캍":8046,"##텨":8047,"##앓":8048,"##샑":8049,"##튭":8050,"##첬":8051,"##툼":8052,"##옴":8053,"##앰":8054,"##쉠":8055,"##뻡":8056,"##꽌":8057,"##흰":8058,"##눙":8059,"##볗":8060,"##먄":8061,"##곀":8062,"##맀":8063,"##굵":8064,"##췌":8065,"##멈":8066,"##봥":8067,"##쒄":8068,"##췃":8069,"##붇":8070,"##괙":8071,"##핧":8072,"##햟":8073,"##얐":8074,"##콤":8075,"##츶":8076,"##봍":8077,"##졔":8078,"##싷":8079,"##뫼":8080,"##뷸":8081,"##턍":8082,"##텝":8083,"##흑":8084,"##슁":8085,"##뚫":8086,"##싢":8087,"##샎":8088,"##꺊":8089,"##꿋":8090,"##쟎":8091,"##췐":8092,"##찔":8093,"##똒":8094,"##랰":8095,"##넁":8096,"##훻":8097,"##쟉":8098,"##읽":8099,"##뎬":8100,"##뢍":8101,"##맚":8102,"##잆":8103,"##슶":8104,"##씍":8105,"##썪":8106,"##똗":8107,"##뿡":8108,"##껸":8109,"##볂":8110,"##텅":8111,"##혉":8112,"##켥":8113,"##앋":8114,"##앨":8115,"##뻴":8116,"##냇":8117,"##앱":8118,"##엣":8119,"##땍":8120,"##캭":8121,"##굽":8122,"##뭨":8123,"##욜":8124,"##삑":8125,"##쒀":8126,"##걀":8127,"##댁":8128,"##넴":8129,"##쐰":8130,"##찡":8131,"##퍄":8132,"##꿐":8133,"##샆":8134,"##굶":8135,"##듈":8136,"##튿":8137,"##췡":8138,"##놰":8139,"##즟":8140,"##꽝":8141,"##졨":8142,"##벵":8143,"##섶":8144,"##넿":8145,"##숯":8146,"##캄":8147,"##폼":8148,"##푀":8149,"##쐤":8150,"##싆":8151,"##펩":8152,"##즁":8153,"##첫":8154,"##뎌":8155,"##갠":8156,"##뱔":8157,"##꼼":8158,"##콥":8159,"##귤":8160,"##젱":8161,"##갚":8162,"##휜":8163,"##젝":8164,"##볌":8165,"##겋":8166,"##괕":8167,"##뜬":8168,"##욬":8169,"##닪":8170,"##빔":8171,"##죴":8172,"##뵈":8173,"##슿":8174,"##옼":8175,"##쮤":8176,"##봊":8177,"##퀵":8178,"##쳖":8179,"##펐":8180,"##샣":8181,"##얄":8182,"##벓":8183,"##렪":8184,"##덧":8185,"##땩":8186,"##뺜":8187,"##넛":8188,"##뺭":8189,"##쌩":8190,"##캌":8191,"##됙":8192,"##쌸":8193,"##썡":8194,"##쏙":8195,"##옘":8196,"##밋":8197,"##겉":8198,"##딪":8199,"##쒼":8200,"##갯":8201,"##줼":8202,"##헛":8203,"##윳":8204,"##좱":8205,"##뀔":8206,"##풐":8207,"##팎":8208,"##엊":8209,"##늩":8210,"##밨":8211,"##뒀":8212,"##쳑":8213,"##귄":8214,"##띵":8215,"##쌂":8216,"##곱":8217,"##벞":8218,"##닚":8219,"##쑥":8220,"##툰":8221,"##윾":8222,"##낲":8223,"##쏟":8224,"##잟":8225,"##몫":8226,"##밪":8227,"##긛":8228,"##읮":8229,"##샙":8230,"##먕":8231,"##댉":8232,"##핡":8233,"##읅":8234,"##쌬":8235,"##찜":8236,"##훔":8237,"##넺":8238,"##펭":8239,"##좇":8240,"##웍":8241,"##엙":8242,"##췬":8243,"##섂":8244,"##쌥":8245,"##퉹":8246,"##긁":8247,"##섲":8248,"##짆":8249,"##긷":8250,"##쨉":8251,"##푹":8252,"##녓":8253,"##챗":8254,"##맄":8255,"##뜽":8256,"##뮈":8257,"##멐":8258,"##켐":8259,"##쥰":8260,"##듐":8261,"##앚":8262,"##촛":8263,"##헜":8264,"##쎜":8265,"##뛕":8266,"##걋":8267,"##쀄":8268,"##쥿":8269,"##싥":8270,"##샐":8271,"##힠":8272,"##밈":8273,"##몃":8274,"##랔":8275,"##훕":8276,"##훅":8277,"##훳":8278,"##띡":8279,"##븨":8280,"##뒷":8281,"##튓":8282,"##좝":8283,"##툇":8284,"##듳":8285,"##찲":8286,"##춯":8287,"##빻":8288,"##쓉":8289,"##돗":8290,"##셉":8291,"##섕":8292,"##봇":8293,"##덣":8294,"##뒨":8295,"##텃":8296,"##밧":8297,"##칞":8298,"##쭘":8299,"##듵":8300,"##튺":8301,"##츳":8302,"##렊":8303,"##쳰":8304,"##퀀":8305,"##붖":8306,"##첞":8307,"##쿸":8308,"##궅":8309,"##좢":8310,"##넑":8311,"##쭌":8312,"##흭":8313,"##윰":8314,"##쉿":8315,"##걥":8316,"##톳":8317,"##쑝":8318,"##늡":8319,"##뀻":8320,"##늴":8321,"##끕":8322,"##섣":8323,"##슉":8324,"##놉":8325,"##쉙":8326,"##넝":8327,"##쩽":8328,"##뮥":8329,"##찢":8330,"##픔":8331,"##괸":8332,"##쎔":8333,"##캥":8334,"##툥":8335,"##낱":8336,"##꾬":8337,"##꿏":8338,"##얇":8339,"##둰":8340,"##핞":8341,"##떈":8342,"##훌":8343,"##쭥":8344,"##딧":8345,"##궙":8346,"##븡":8347,"##뽠":8348,"##샏":8349,"##륍":8350,"##툴":8351,"##굻":8352,"##믹":8353,"##됄":8354,"##됀":8355,"##쳗":8356,"##즨":8357,"##닞":8358,"##롄":8359,"##챕":8360,"##뺔":8361,"##쬎":8362,"##앸":8363,"##꽹":8364,"##굔":8365,"##슼":8366,"##빫":8367,"##꼥":8368,"##펍":8369,"##놎":8370,"##췅":8371,"##촐":8372,"##퐐":8373,"##맑":8374,"##잦":8375,"##짏":8376,"##쉧":8377,"##냌":8378,"##꾝":8379,"##븹":8380,"##땀":8381,"##뽭":8382,"##닳":8383,"##쇗":8384,"##몌":8385,"##릘":8386,"##펌":8387,"##큻":8388,"##핳":8389,"##샴":8390,"##갼":8391,"##갘":8392,"##칳":8393,"##좡":8394,"##넥":8395,"##쉘":8396,"##얗":8397,"##훨":8398,"##궂":8399,"##륽":8400,"##뤠":8401,"##잰":8402,"##튱":8403,"##맡":8404,"##듁":8405,"##틍":8406,"##돤":8407,"##뙇":8408,"##붐":8409,"##냠":8410,"##읫":8411,"##릥":8412,"##졋":8413,"##뀍":8414,"##뺠":8415,"##삣":8416,"##둿":8417,"##돵":8418,"##옾":8419,"##눠":8420,"##셁":8421,"##슫":8422,"##욧":8423,"##뭥":8424,"##훓":8425,"##쌴":8426,"##꽦":8427,"##캴":8428,"##씰":8429,"##쎈":8430,"##퀄":8431,"##깈":8432,"##죸":8433,"##낟":8434,"##폈":8435,"##풔":8436,"##젯":8437,"##퉅":8438,"##왁":8439,"##갛":8440,"##샋":8441,"##엳":8442,"##냼":8443,"##놘":8444,"##맏":8445,"##얒":8446,"##쉴":8447,"##밮":8448,"##먠":8449,"##뷥":8450,"##쫭":8451,"##뭙":8452,"##롳":8453,"##멋":8454,"##빱":8455,"##찝":8456,"##밬":8457,"##햅":8458,"##깟":8459,"##쾡":8460,"##횃":8461,"##멊":8462,"##댤":8463,"##힉":8464,"##챘":8465,"##늙":8466,"##끿":8467,"##텼":8468,"##깻":8469,"##옮":8470,"##텋":8471,"##즛":8472,"##둠":8473,"##챻":8474,"##몋":8475,"##큇":8476,"##뷴":8477,"##릡":8478,"##뱝":8479,"##맇":8480,"##릏":8481,"##꽥":8482,"##휄":8483,"##옽":8484,"##쌜":8485,"##븞":8486,"##랋":8487,"##됵":8488,"##녅":8489,"##픠":8490,"##럔":8491,"##맬":8492,"##쎼":8493,"##흙":8494,"##꼐":8495,"##빾":8496,"##냩":8497,"##틁":8498,"##잌":8499,"##콱":8500,"##핣":8501,"##앟":8502,"##흫":8503,"##잣":8504,"##팝":8505,"##벧":8506,"##팛":8507,"##묄":8508,"##퓰":8509,"##꺕":8510,"##밞":8511,"##뵥":8512,"##샅":8513,"##팸":8514,"##뿍":8515,"##쪙":8516,"##쫏":8517,"##섳":8518,"##팼":8519,"##맴":8520,"##댹":8521,"##쟥":8522,"##솰":8523,"##왑":8524,"##챨":8525,"##랇":8526,"##뽱":8527,"##궨":8528,"##꽜":8529,"##짲":8530,"##춮":8531,"##쩠":8532,"##맸":8533,"##눤":8534,"##댘":8535,"##첵":8536,"##줳":8537,"##멤":8538,"##쓩":8539,"##섿":8540,"##쮭":8541,"##뵤":8542,"##횬":8543,"##챱":8544,"##쭭":8545,"##옆":8546,"##줍":8547,"##톸":8548,"##옛":8549,"##끽":8550,"##뺨":8551,"##뗳":8552,"##샜":8553,"##칯":8554,"##씮":8555,"##벊":8556,"##깂":8557,"##띿":8558,"##닺":8559,"##붸":8560,"##갮":8561,"##빰":8562,"##꿄":8563,"##윙":8564,"##첸":8565,"##릠":8566,"##틋":8567,"##뿝":8568,"##옺":8569,"##궥":8570,"##빹":8571,"##꽙":8572,"##룜":8573,"##쿧":8574,"##짢":8575,"##늗":8576,"##덟":8577,"##팘":8578,"##먈":8579,"##캨":8580,"##낵":8581,"##혝":8582,"##줏":8583,"##켕":8584,"##녇":8585,"##냘":8586,"##뼐":8587,"##뗀":8588,"##깒":8589,"##뀈":8590,"##쎙":8591,"##룐":8592,"##뤔":8593,"##섴":8594,"##죌":8595,"##좔":8596,"##꿲":8597,"##꿱":8598,"##궹":8599,"##낑":8600,"##슏":8601,"##굾":8602,"##뇻":8603,"##뇾":8604,"##힝":8605,"##왘":8606,"##읳":8607,"##뾰":8608,"##뻰":8609,"##힛":8610,"##샟":8611,"##쉣":8612,"##숌":8613,"##엡":8614,"##깰":8615,"##샥":8616,"##뷀":8617,"##읁":8618,"##퍝":8619,"##햡":8620,"##삾":8621,"##싑":8622,"##숟":8623,"##짞":8624,"##끡":8625,"##쩐":8626,"##껠":8627,"##찴":8628,"##샂":8629,"##뼁":8630,"##셤":8631,"##낏":8632,"##쯜":8633,"##튬":8634,"##쥽":8635,"##긱":8636,"##홉":8637,"##픅":8638,"##찁":8639,"##쬽":8640,"##핍":8641,"##퍙":8642,"##줮":8643,"##넓":8644,"##딥":8645,"##뎠":8646,"##굳":8647,"##쇟":8648,"##뛋":8649,"##팠":8650,"##뺙":8651,"##썠":8652,"##췩":8653,"##챊":8654,"##칍":8655,"##볐":8656,"##헕":8657,"##렿":8658,"##댝":8659,"##굮":8660,"##팜":8661,"##큘":8662,"##뚯":8663,"##탔":8664,"##좟":8665,"##펨":8666,"##췸":8667,"##롦":8668,"##쇵":8669,"##멬":8670,"##젘":8671,"##긤":8672,"##렼":8673,"##햤":8674,"##슛":8675,"##쎾":8676,"##끙":8677,"##텁":8678,"##찷":8679,"##볋":8680,"##촞":8681,"##씻":8682,"##싩":8683,"##젛":8684,"##눗":8685,"##퍅":8686,"##쐑":8687,"##짠":8688,"##믜":8689,"##휀":8690,"##욤":8691,"##럄":8692,"##뺵":8693,"##꺘":8694,"##봨":8695,"##떽":8696,"##뢈":8697,"##긧":8698,"##띨":8699,"##퍌":8700,"##쏍":8701,"##븰":8702,"##늦":8703,"##릎":8704,"##뼌":8705,"##챔":8706,"##콸":8707,"##쌑":8708,"##붱":8709,"##왼":8710,"##붑":8711,"##츌":8712,"##덞":8713,"##놬":8714,"##훙":8715,"##겂":8716,"##힣":8717,"##똔":8718,"##햏":8719,"##틧":8720,"##씱":8721,"##쫒":8722,"##훜":8723,"##켤":8724,"##핮":8725,"##잩":8726,"##좒":8727,"##슧":8728,"##벩":8729,"##챌":8730,"##홛":8731,"##쑬":8732,"##뎁":8733,"##쨌":8734,"##뢱":8735,"##찟":8736,"##겈":8737,"##띈":8738,"##싮":8739,"##칰":8740,"##쟄":8741,"##맺":8742,"##탉":8743,"##즥":8744,"##빓":8745,"##켠":8746,"##떙":8747,"##뗴":8748,"##핻":8749,"##웹":8750,"##뼘":8751,"##앆":8752,"##낤":8753,"##틔":8754,"##뎍":8755,"##켸":8756,"##앏":8757,"##꿂":8758,"##떱":8759,"##읠":8760,"##섘":8761,"##꾱":8762,"##땈":8763,"##볍":8764,"##꿕":8765,"##팒":8766,"##뻭":8767,"##혘":8768,"##톄":8769,"##쨍":8770,"##맟":8771,"##슾":8772,"##쿙":8773,"##얖":8774,"##웝":8775,"##샡":8776,"##랼":8777,"##껫":8778,"##뜍":8779,"##챯":8780,"##깢":8781,"##썍":8782,"##긐":8783,"##앖":8784,"##랖":8785,"##츰":8786,"##녏":8787,"##춥":8788,"##맜":8789,"##봙":8790,"##흌":8791,"##밌":8792,"##쌨":8793,"##뒬":8794,"##몾":8795,"##혛":8796,"##꼇":8797,"##눞":8798,"##솦":8799,"##퇙":8800,"##룔":8801,"##욪":8802,"##똣":8803,"##킝":8804,"##붹":8805,"##셑":8806,"##갢":8807,"##씜":8808,"##푷":8809,"##릾":8810,"##깺":8811,"##샚":8812,"##낎":8813,"##퇏":8814,"##꾿":8815,"##뼛":8816,"##쇽":8817,"##읶":8818,"##쭹":8819,"##힄":8820,"##얂":8821,"##빳":8822,"##챼":8823,"##뱰":8824,"##펔":8825,"##욌":8826,"##뙹":8827,"##슆":8828,"##흽":8829,"##딫":8830,"##떰":8831,"##쁀":8832,"##랳":8833,"##헹":8834,"##녂":8835,"##겤":8836,"##닢":8837,"##몈":8838,"##텬":8839,"##쩬":8840,"##쌋":8841,"##탸":8842,"##륄":8843,"##읗":8844,"##쑹":8845,"##돚":8846,"##맼":8847,"##춧":8848,"##컸":8849,"##깸":8850,"##웡":8851,"##넠":8852,"##븥":8853,"##쌱":8854,"##믓":8855,"##훋":8856,"##뼏":8857,"##왠":8858,"##꺙":8859,"##듞":8860,"##겪":8861,"##덦":8862,"##탭":8863,"##졓":8864,"##렜":8865,"##뱸":8866,"##욷":8867,"##헼":8868,"##옂":8869,"##흄":8870,"##뙷":8871,"##띾":8872,"##낪":8873,"##겞":8874,"##틊":8875,"##앂":8876,"##좍":8877,"##낇":8878,"##앴":8879,"##낃":8880,"##븀":8881,"##빩":8882,"##튄":8883,"##늪":8884,"##돕":8885,"##뗔":8886,"##뤽":8887,"##궠":8888,"##귬":8889,"##떴":8890,"##뮛":8891,"##튠":8892,"##잫":8893,"##킫":8894,"##얍":8895,"##팟":8896,"##풒":8897,"##돎":8898,"##쉡":8899,"##됌":8900,"##쥘":8901,"##겾":8902,"##븟":8903,"##큑":8904,"##햊":8905,"##짼":8906,"##냡":8907,"##둴":8908,"##롴":8909,"##헀":8910,"##붘":8911,"##륶":8912,"##빆":8913,"##싡":8914,"##멵":8915,"##캏":8916,"##툉":8917,"##벟":8918,"##헴":8919,"##욨":8920,"##쿜":8921,"##훛":8922,"##팕":8923,"##돟":8924,"##촟":8925,"##뼉":8926,"##꽉":8927,"##뱍":8928,"##찤":8929,"##뢨":8930,"##쉈":8931,"##뾱":8932,"##뤡":8933,"##겣":8934,"##헉":8935,"##옄":8936,"##쫅":8937,"##봌":8938,"##밢":8939,"##믖":8940,"##쳌":8941,"##슅":8942,"##랠":8943,"##홋":8944,"##퀑":8945,"##췝":8946,"##뻉":8947,"##몼":8948,"##쎆":8949,"##빟":8950,"##쯱":8951,"##뷃":8952,"##볈":8953,"##썻":8954,"##딬":8955,"##뮐":8956,"##왖":8957,"##땨":8958,"##쿰":8959,"##쭁":8960,"##섺":8961,"##쏜":8962,"##팰":8963,"##쇣":8964,"##훽":8965,"##칽":8966,"##힟":8967,"##걘":8968,"##횟":8969,"##쏕":8970,"##큉":8971,"##솩":8972,"##볭":8973,"##줭":8974,"##룅":8975,"##묶":8976,"##잧":8977,"##곬":8978,"##톰":8979,"##읎":8980,"##땣":8981,"##쳡":8982,"##잋":8983,"##핈":8984,"##녈":8985,"##냊":8986,"##썸":8987,"##틇":8988,"##뺌":8989,"##꼮":8990,"##좽":8991,"##혠":8992,"##쫚":8993,"##땟":8994,"##쵮":8995,"##씂":8996,"##챀":8997,"##뜀":8998,"##롐":8999,"##핟":9000,"##닻":9001,"##곗":9002,"##왤":9003,"##깤":9004,"##붠":9005,"##햛":9006,"##맫":9007,"##뗘":9008,"##쀍":9009,"##놴":9010,"##앀":9011,"##줟":9012,"##끅":9013,"##늨":9014,"##둉":9015,"##잨":9016,"##굫":9017,"##틉":9018,"##뵁":9019,"##섻":9020,"##똵":9021,"##폄":9022,"##셥":9023,"##읜":9024,"##큿":9025,"##퉸":9026,"##렄":9027,"##븍":9028,"##뵙":9029,"##겍":9030,"##솑":9031,"##뢜":9032,"##앾":9033,"##칟":9034,"##닊":9035,"##낋":9036,"##뱬":9037,"##맣":9038,"##셲":9039,"##빴":9040,"##솽":9041,"##섁":9042,"##덫":9043,"##댱":9044,"##꼿":9045,"##뀠":9046,"##뒺":9047,"##팧":9048,"##닾":9049,"##쳥":9050,"##뺀":9051,"##뚨":9052,"##쉛":9053,"##웧":9054,"##뜌":9055,"##싳":9056,"##꼳":9057,"##땔":9058,"##큍":9059,"##윀":9060,"##녽":9061,"##뱎":9062,"##밊":9063,"##햽":9064,"##텹":9065,"##웸":9066,"##츼":9067,"##믁":9068,"##앢":9069,"##꿜":9070,"##멌":9071,"##툈":9072,"##쎌":9073,"##뻨":9074,"##쉩":9075,"##떳":9076,"##닿":9077,"##똮":9078,"##긎":9079,"##욯":9080,"##뜅":9081,"##햰":9082,"##괼":9083,"##츃":9084,"##슺":9085,"##퀙":9086,"##뵨":9087,"##쓥":9088,"##딍":9089,"##솄":9090,"##솁":9091,"##됍":9092,"##듪":9093,"##돡":9094,"##쒴":9095,"##줠":9096,"##졑":9097,"##돛":9098,"##풕":9099,"##흨":9100,"##넜":9101,"##풰":9102,"##쉲":9103,"##긊":9104,"##핝":9105,"##댬":9106,"##틑":9107,"##끨":9108,"##곙":9109,"##쎝":9110,"##쪌":9111,"##쐥":9112,"##뗍":9113,"##뗄":9114,"##눟":9115,"##켱":9116,"##늓":9117,"##꾺":9118,"##꿧":9119,"##뗑":9120,"##뷘":9121,"##섦":9122,"##쫜":9123,"##돨":9124,"##볜":9125,"##퇵":9126,"##엯":9127,"##쯩":9128,"##펵":9129,"##긑":9130,"##뜾":9131,"##쏭":9132,"##뻠":9133,"##쁑":9134,"##얨":9135,"##옶":9136,"##멉":9137,"##귐":9138,"##쐈":9139,"##촡":9140,"##힞":9141,"##푱":9142,"##깉":9143,"##탣":9144,"##뒹":9145,"##싵":9146,"##뷱":9147,"##뺐":9148,"##땬":9149,"##좄":9150,"##볔":9151,"##빍":9152,"##햘":9153,"##줆":9154,"##뽝":9155,"##뒝":9156,"##핱":9157,"##뚹":9158,"##룍":9159,"##싞":9160,"##닸":9161,"##뇩":9162,"##듼":9163,"##떩":9164,"##힜":9165,"##밯":9166,"##풜":9167,"##넵":9168,"##쳄":9169,"##궘":9170,"##숏":9171,"##쭜":9172,"##챰":9173,"##럇":9174,"##솼":9175,"##봡":9176,"##듨":9177,"##샇":9178,"##쁩":9179,"##졻":9180,"##쪠":9181,"##댣":9182,"##쑵":9183,"##탹":9184,"##얙":9185,"##촥":9186,"##땃":9187,"##쩟":9188,"##뉌":9189,"##쉌":9190,"##붭":9191,"##솤":9192,"##럏":9193,"##샦":9194,"##웄":9195,"##삲":9196,"##곢":9197,"##쩢":9198,"##뢸":9199,"##퉾":9200,"##츅":9201,"##곹":9202,"##죕":9203,"##홓":9204,"##뻦":9205,"##뾜":9206,"##뢴":9207,"##웆":9208,"##퓌":9209,"##콬":9210,"##쪹":9211,"##갭":9212,"##폇":9213,"##뽯":9214,"##훍":9215,"##쩞":9216,"##뚸":9217,"##쬭":9218,"##뀡":9219,"##슇":9220,"##읕":9221,"##믆":9222,"##믾":9223,"##췼":9224,"##룁":9225,"##잤":9226,"##쯀":9227,"##딨":9228,"##뱁":9229,"##쾤":9230,"##턘":9231,"##끵":9232,"##쮝":9233,"##깼":9234,"##햙":9235,"##릊":9236,"##뗏":9237,"##흗":9238,"##귿":9239,"##꺌":9240,"##삉":9241,"##눀":9242,"##쟜":9243,"##뎇":9244,"##컈":9245,"##긶":9246,"##뷜":9247,"##깊":9248,"##뭡":9249,"##쮑":9250,"##쎇":9251,"##쌭":9252,"##춴":9253,"##좎":9254,"##핼":9255,"##쀠":9256,"##펟":9257,"##뚬":9258,"##똫":9259,"##먖":9260,"##풂":9261,"##찎":9262,"##큠":9263,"##넎":9264,"##뱐":9265,"##쇇":9266,"##붰":9267,"##솬":9268,"##깬":9269,"##듢":9270,"##썜":9271,"##짇":9272,"##횔":9273,"##숱":9274,"##갷":9275,"##겎":9276,"##핌":9277,"##뚥":9278,"##뻕":9279,"##붝":9280,"##쩩":9281,"##뗭":9282,"##푠":9283,"##샞":9284,"##뫙":9285,"##볫":9286,"##쯘":9287,"##웽":9288,"##갬":9289,"##줱":9290,"##짒":9291,"##왙":9292,"##읈":9293,"##뺫":9294,"##둅":9295,"##멨":9296,"##뤈":9297,"##쩧":9298,"##쪵":9299,"##씆":9300,"##믕":9301,"##칮":9302,"##롼":9303,"##씋":9304,"##걊":9305,"##쫙":9306,"##짧":9307,"##귕":9308,"##쯰":9309,"##갫":9310,"##깆":9311,"##탶":9312,"##쪅":9313,"##숵":9314,"##듲":9315,"##헸":9316,"##킽":9317,"##읒":9318,"##갵":9319,"##뙬":9320,"##얎":9321,"##닽":9322,"##촴":9323,"##낝":9324,"##짹":9325,"##껕":9326,"##탙":9327,"##쥤":9328,"##팤":9329,"##탼":9330,"##뒁":9331,"##몹":9332,"##줙":9333,"##좫":9334,"##먐":9335,"##벫":9336,"##찭":9337,"##껨":9338,"##괞":9339,"##븽":9340,"##눰":9341,"##뺴":9342,"##넡":9343,"##벖":9344,"##렂":9345,"##퉵":9346,"##겊":9347,"##씼":9348,"##얚":9349,"##꺢":9350,"##깩":9351,"##턀":9352,"##즼":9353,"##웂":9354,"##뎔":9355,"##휸":9356,"##벍":9357,"##쳉":9358,"##냫":9359,"##뿥":9360,"##똴":9361,"##밐":9362,"##픜":9363,"##쁄":9364,"##홬":9365,"##쥭":9366,"##잁":9367,"##낥":9368,"##곆":9369,"##좸":9370,"##냣":9371,"##쭻":9372,"##콪":9373,"##헵":9374,"##픕":9375,"##욋":9376,"##톼":9377,"##퉝":9378,"##웻":9379,"##쨈":9380,"##옝":9381,"##얽":9382,"##섐":9383,"##긘":9384,"##겓":9385,"##엒":9386,"##됳":9387,"##죜":9388,"##얅":9389,"##햦":9390,"##솧":9391,"##곻":9392,"##혴":9393,"##뻄":9394,"##쪔":9395,"##힢":9396,"##훑":9397,"##뭰":9398,"##읉":9399,"##셎":9400,"##뗐":9401,"##팃":9402,"##퀐":9403,"##쳧":9404,"##쫟":9405,"##휔":9406,"##첮":9407,"##눜":9408,"##듄":9409,"##뜹":9410,"##쪈":9411,"##탵":9412,"##맂":9413,"##됑":9414,"##퍠":9415,"##쵝":9416,"##뎟":9417,"##롁":9418,"##춚":9419,"##쎽":9420,"##줋":9421,"##꿎":9422,"##돸":9423,"##캎":9424,"##탒":9425,"##롮":9426,"##읖":9427,"##삠":9428,"##뤘":9429,"##줗":9430,"##쟢":9431,"##뽐":9432,"##첰":9433,"##춪":9434,"##뚁":9435,"##횅":9436,"##믱":9437,"##쨱":9438,"##롣":9439,"##쑐":9440,"##펏":9441,"##숄":9442,"##뙥":9443,"##텻":9444,"##뜿":9445,"##겥":9446,"##캑":9447,"##쉤":9448,"##벱":9449,"##벹":9450,"##껜":9451,"##켑":9452,"##뀅":9453,"##댼":9454,"##닯":9455,"##끚":9456,"##볅":9457,"##묫":9458,"##쥨":9459,"##깄":9460,"##곯":9461,"##휙":9462,"##켝":9463,"##띔":9464,"##켬":9465,"##셯":9466,"##싧":9467,"##걜":9468,"##툿":9469,"##곈":9470,"##툌":9471,"##쩖":9472,"##곷":9473,"##삱":9474,"##껬":9475,"##쯥":9476,"##눴":9477,"##탆":9478,"##졉":9479,"##챜":9480,"##롫":9481,"##챴":9482,"##봑":9483,"##몉":9484,"##녴":9485,"##뱡":9486,"##쏀":9487,"##뤂":9488,"##툐":9489,"##꿨":9490,"##댇":9491,"##퉼":9492,"##귯":9493,"##뿨":9494,"##곾":9495,"##굡":9496,"##싅":9497,"##픵":9498,"##뙤":9499,"##뵜":9500,"##뎋":9501,"##늰":9502,"##쳠":9503,"##얺":9504,"##죈":9505,"##쯈":9506,"##햩":9507,"##뵬":9508,"##샔":9509,"##럤":9510,"##뤀":9511,"##긿":9512,"##윔":9513,"##쭊":9514,"##퓻":9515,"##캘":9516,"##힏":9517,"##섓":9518,"##혙":9519,"##륻":9520,"##뜛":9521,"##쟴":9522,"##짊":9523,"##칧":9524,"##쯕":9525,"##졳":9526,"##깖":9527,"##쳫":9528,"##뽓":9529,"##뜡":9530,"##콦":9531,"##욥":9532,"##튽":9533,"##넖":9534,"##곖":9535,"##돖":9536,"##잢":9537,"##푴":9538,"##놤":9539,"##긂":9540,"##튘":9541,"##젆":9542,"##폘":9543,"##뱩":9544,"##섈":9545,"##끐":9546,"##짺":9547,"##턹":9548,"##텈":9549,"##컽":9550,"##뻩":9551,"##쇤":9552,"##뤗":9553,"##톽":9554,"##웈":9555,"##쯫":9556,"##쀅":9557,"##갉":9558,"##쩰":9559,"##셒":9560,"##곃":9561,"##짯":9562,"##덍":9563,"##쏫":9564,"##팻":9565,"##넸":9566,"##믑":9567,"##틒":9568,"##됭":9569,"##씟":9570,"##럱":9571,"##얪":9572,"##됼":9573,"##탷":9574,"##탬":9575,"##쏵":9576,"##뉼":9577,"##쐉":9578,"##퍗":9579,"##읻":9580,"##졶":9581,"##밠":9582,"##됃":9583,"##퇄":9584,"##찠":9585,"##끛":9586,"##슄":9587,"##돽":9588,"##죷":9589,"##몪":9590,"##븜":9591,"##셬":9592,"##넗":9593,"##돝":9594,"##쯨":9595,"##곺":9596,"##뎉":9597,"##덀":9598,"##줅":9599,"##펬":9600,"##끍":9601,"##됰":9602,"##텓":9603,"##낻":9604,"##앻":9605,"##뗨":9606,"##봔":9607,"##볺":9608,"##녱":9609,"##렡":9610,"##삡":9611,"##뗵":9612,"##뎝":9613,"##푝":9614,"##뿰":9615,"##횄":9616,"##읓":9617,"##젭":9618,"##볇":9619,"##뚞":9620,"##츔":9621,"##눵":9622,"##잪":9623,"##쯋":9624,"##홝":9625,"##큮":9626,"##빢":9627,"##녿":9628,"##퉥":9629,"##녑":9630,"##롶":9631,"##쭟":9632,"##얭":9633,"##굥":9634,"##륏":9635,"##엤":9636,"##쫔":9637,"##죙":9638,"##짗":9639,"##됻":9640,"##굑":9641,"##떫":9642,"##튁":9643,"##욲":9644,"##뭏":9645,"##끆":9646,"##끜":9647,"##탘":9648,"##쑌":9649,"##삳":9650,"##킸":9651,"##얠":9652,"##씦":9653,"##챽":9654,"##듥":9655,"##윷":9656,"##쨜":9657,"##햝":9658,"##뉵":9659,"##혯":9660,"##줂":9661,"##쯉":9662,"##릃":9663,"##굈":9664,"##꼅":9665,"##븃":9666,"##츕":9667,"##땰":9668,"##잿":9669,"##갍":9670,"##놌":9671,"##멏":9672,"##녭":9673,"##왱":9674,"##릮":9675,"##앝":9676,"##쵁":9677,"##뀟":9678,"##굄":9679,"##깪":9680,"##줩":9681,"##챁":9682,"##퇬":9683,"##짉":9684,"##쎍":9685,"##뛌":9686,"##뇭":9687,"##끰":9688,"##뗠":9689,"##첯":9690,"##짣":9691,"##쫍":9692,"##볻":9693,"##륑":9694,"##햎":9695,"##퀜":9696,"##쵀":9697,"##꿥":9698,"##잴":9699,"##뭈":9700,"##솓":9701,"##삸":9702,"##놛":9703,"##쌗":9704,"##휵":9705,"##릆":9706,"##빮":9707,"##갥":9708,"##헷":9709,"##짰":9710,"##뗜":9711,"##햭":9712,"##봏":9713,"##랒":9714,"##궛":9715,"##멓":9716,"##뭌":9717,"##괌":9718,"##넽":9719,"##릳":9720,"##튤":9721,"##퉯":9722,"##흩":9723,"##돐":9724,"##뤕":9725,"##녤":9726,"##닶":9727,"##휑":9728,"##슽":9729,"##욫":9730,"##씃":9731,"##캰":9732,"##뉠":9733,"##쥡":9734,"##괍":9735,"##읃":9736,"##킾":9737,"##럾":9738,"##캆":9739,"##읪":9740,"##좂":9741,"##퓹":9742,"##봆":9743,"##껅":9744,"##륩":9745,"##믽":9746,"##춭":9747,"##엾":9748,"##킅":9749,"##붔":9750,"##횻":9751,"##맢":9752,"##윖":9753,"##늚":9754,"##끋":9755,"##냒":9756,"##솅":9757,"##랎":9758,"##퇱":9759,"##혬":9760,"##떯":9761,"##틘":9762,"##줕":9763,"##켭":9764,"##럳":9765,"##휩":9766,"##븎":9767,"##띃":9768,"##뱋":9769,"##탰":9770,"##탂":9771,"##돳":9772,"##옠":9773,"##섧":9774,"##좊":9775,"##잕":9776,"##큨":9777,"##넾":9778,"##녛":9779,"##쭞":9780,"##먺":9781,"##쒂":9782,"##줈":9783,"##섊":9784,"##퀭":9785,"##꼣":9786,"##홱":9787,"##퉜":9788,"##휠":9789,"##읯":9790,"##췍":9791,"##쨧":9792,"##섢":9793,"##몣":9794,"##꾁":9795,"##켖":9796,"##떢":9797,"##쳈":9798,"##딳":9799,"##쐨":9800,"##쇡":9801,"##똰":9802,"##잗":9803,"##벚":9804,"##홑":9805,"##쒯":9806,"##췹":9807,"##춱":9808,"##쵼":9809,"##핪":9810,"##굲":9811,"##퍈":9812,"##섟":9813,"##똨":9814,"##쓒":9815,"##죅":9816,"##옫":9817,"##뜃":9818,"##궍":9819,"##웞":9820,"##쓘":9821,"##뽸":9822,"##댭":9823,"##렺":9824,"##롲":9825,"##봈":9826,"##썤":9827,"##놑":9828,"##찧":9829,"##랂":9830,"##쨤":9831,"##홇":9832,"##푲":9833,"##셌":9834,"##뛀":9835,"##끎":9836,"##쫵":9837,"##냤":9838,"##웑":9839,"##흦":9840,"##섡":9841,"##몿":9842,"##묙":9843,"##톶":9844,"##퓐":9845,"##댙":9846,"##횦":9847,"##얋":9848,"##륧":9849,"##뀵":9850,"##풿":9851,"##긜":9852,"##뺸":9853,"##줎":9854,"##섑":9855,"##쯴":9856,"##빘":9857,"##좯":9858,"##햠":9859,"##앎":9860,"##뉍":9861,"##츀":9862,"##쉜":9863,"##턔":9864,"##뮹":9865,"##낹":9866,"##랅":9867,"##붛":9868,"##힁":9869,"##닜":9870,"##듶":9871,"##걤":9872,"##쾰":9873,"##쳦":9874,"##뉀":9875,"##뭅":9876,"##쥠":9877,"##뗙":9878,"##굧":9879,"##뫅":9880,"##솈":9881,"##뻟":9882,"##뀷":9883,"##쓲":9884,"##쟛":9885,"##섄":9886,"##첳":9887,"##긵":9888,"##츷":9889,"##쵭":9890,"##멥":9891,"##곁":9892,"##쓋":9893,"##뎊":9894,"##퓜":9895,"##댏":9896,"##퉌":9897,"##괬":9898,"##젗":9899,"##듴":9900,"##퍤":9901,"##픙":9902,"##췽":9903,"##엦":9904,"##싘":9905,"##쒓":9906,"##뉩":9907,"##혾":9908,"##롢":9909,"##햿":9910,"##뤨":9911,"##뢐":9912,"##궏":9913,"##쟨":9914,"##꼤":9915,"##썀":9916,"##쏼":9917,"##잾":9918,"##쒑":9919,"##훵":9920,"##셫":9921,"##낞":9922,"##끤":9923,"##뾥":9924,"##왝":9925,"##뒥":9926,"##앩":9927,"##맗":9928,"##떶":9929,"##넒":9930,"##엍":9931,"##릌":9932,"##깞":9933,"##쨚":9934,"##쬘":9935,"##붚":9936,"##볠":9937,"##쁌":9938,"##댥":9939,"##뇁":9940,"##똚":9941,"##쵤":9942,"##밡":9943,"##횞":9944,"##젾":9945,"##긲":9946,"##풸":9947,"##껔":9948,"##뭬":9949,"##젎":9950,"##뒿":9951,"##쒭":9952,"##껐":9953,"##턩":9954,"##셏":9955,"##훯":9956,"##퐄":9957,"##쁫":9958,"##렩":9959,"##뇍":9960,"##덲":9961,"##힡":9962,"##쓿":9963,"##쥇":9964,"##홪":9965,"##얫":9966,"##귾":9967,"##댯":9968,"##뿓":9969,"##뵐":9970,"##퓽":9971,"##튻":9972,"##졿":9973,"##낍":9974,"##쐒":9975,"##퉐":9976,"##괐":9977,"##떾":9978,"##믂":9979,"##귑":9980,"##쒁":9981,"##넞":9982,"##퉨":9983,"##휰":9984,"##뾀":9985,"##팦":9986,"##뤸":9987,"##죗":9988,"##둼":9989,"##쏸":9990,"##뤰":9991,"##귴":9992,"##뇓":9993,"##갲":9994,"##렭":9995,"##팢":9996,"##큔":9997,"##넄":9998,"##룢":9999,"##눝":10000,"##옸":10001,"##쎡":10002,"##뀪":10003,"##펅":10004,"##뤁":10005,"##긇":10006,"##웛":10007,"##숔":10008,"##죰":10009,"##뷉":10010,"##벴":10011,"##쬰":10012,"##갊":10013,"##낛":10014,"##읷":10015,"##덗":10016,"##갃":10017,"##잀":10018,"##뇮":10019,"##렧":10020,"##쎘":10021,"##쟘":10022,"##뢘":10023,"##땤":10024,"##젏":10025,"##퀠":10026,"##쿳":10027,"##쏗":10028,"##뽇":10029,"##껙":10030,"##텤":10031,"##죔":10032,"##씿":10033,"##왚":10034,"##뷩":10035,"##쐭":10036,"##낅":10037,"##텄":10038,"##핶":10039,"##쵱":10040,"##흪":10041,"##혣":10042,"##얓":10043,"##엵":10044,"##읹":10045,"##끟":10046,"##괔":10047,"##졎":10048,"##넫":10049,"##횝":10050,"##켛":10051,"##춛":10052,"##묹":10053,"##넚":10054,"##팓":10055,"##횢":10056,"##뾸":10057,"##씄":10058,"##뒛":10059,"##힍":10060,"##퐑":10061,"##즷":10062,"##벬":10063,"##졈":10064,"##왉":10065,"##릔":10066,"##똏":10067,"##싿":10068,"##읙":10069,"##뺃":10070,"##왂":10071,"##씯":10072,"##퀫":10073,"##칲":10074,"##뷧":10075,"##춈":10076,"##꺜":10077,"##펲":10078,"##밁":10079,"##댛":10080,"##쩹":10081,"##꼌":10082,"##넻":10083,"##끘":10084,"##뵷":10085,"##땎":10086,"##깓":10087,"##촮":10088,"##싐":10089,"##샓":10090,"##냪":10091,"##헡":10092,"##꾈":10093,"##쥅":10094,"##벻":10095,"##꼍":10096,"##빺":10097,"##빬":10098,"##깋":10099,"##렞":10100,"##굷":10101,"##퉄":10102,"##쑉":10103,"##튑":10104,"##덛":10105,"##뜱":10106,"##껵":10107,"##닄":10108,"##뛨":10109,"##췻":10110,"##녯":10111,"##늼":10112,"##촙":10113,"##칡":10114,"##댗":10115,"##랈":10116,"##놯":10117,"##틩":10118,"##읊":10119,"##큌":10120,"##텇":10121,"##됋":10122,"##꺨":10123,"##얰":10124,"##햑":10125,"##몊":10126,"##뿠":10127,"##썝":10128,"##첑":10129,"##땽":10130,"##셭":10131,"##괠":10132,"##짙":10133,"##썃":10134,"##뤵":10135,"##꽘":10136,"##쥣":10137,"##걧":10138,"##엧":10139,"##녉":10140,"##쒱":10141,"##뀜":10142,"##낒":10143,"##컿":10144,"##툑":10145,"##냦":10146,"##쭕":10147,"##봒":10148,"##샃":10149,"##앲":10150,"##쑙":10151,"##똩":10152,"##뗩":10153,"##퇑":10154,"##횤":10155,"##쇈":10156,"##덪":10157,"##덝":10158,"##쒕":10159,"##갞":10160,"##챳":10161,"##큽":10162,"##쭫":10163,"##궷":10164,"##쁍":10165,"##뛧":10166,"##풑":10167,"##쁟":10168,"##냧":10169,"##럠":10170,"##쨀":10171,"##쾃":10172,"##뒫":10173,"##퉿":10174,"##쒰":10175,"##혰":10176,"##퓸":10177,"##싺":10178,"##짥":10179,"##윹":10180,"##폯":10181,"##쭠":10182,"##밗":10183,"##퇭":10184,"##겛":10185,"##뼥":10186,"##죹":10187,"##걖":10188,"##돆":10189,"##팈":10190,"##짔":10191,"##탴":10192,"##팯":10193,"##푯":10194,"##삻":10195,"##솸":10196,"##뽉":10197,"##닡":10198,"##쿱":10199,"##뽂":10200,"##밓":10201,"##쟞":10202,"##밫":10203,"##쓊":10204,"##텂":10205,"##좣":10206,"##첲":10207,"##붌":10208,"##줸":10209,"##덋":10210,"##닩":10211,"##옅":10212,"##쯮":10213,"##섮":10214,"##엫":10215,"##엷":10216,"##쎳":10217,"##샽":10218,"##걈":10219,"##쀌":10220,"##롔":10221,"##핔":10222,"##썋":10223,"##걉":10224,"##긹":10225,"##귓":10226,"##맓":10227,"##삷":10228,"##줊":10229,"##셟":10230,"##풴":10231,"##킌":10232,"##팄":10233,"##퉽":10234,"##엩":10235,"##틷":10236,"##뮜":10237,"##쿺":10238,"##웤":10239,"##릈":10240,"##얿":10241,"##먾":10242,"##쌝":10243,"##칢":10244,"##왲":10245,"##뤤":10246,"##닑":10247,"##웪":10248,"##볒":10249,"##듩":10250,"##쓜":10251,"##먗":10252,"##떔":10253,"##촷":10254,"##롑":10255,"##뫃":10256,"##놥":10257,"##뺅":10258,"##캤":10259,"##싟":10260,"##앿":10261,"##쫠":10262,"##댚":10263,"##졽":10264,"##싨":10265,"##덷":10266,"##퓩":10267,"##뇜":10268,"##괏":10269,"##뙝":10270,"##뺼":10271,"##춉":10272,"##젚":10273,"##퍵":10274,"##쵹":10275,"##놕":10276,"##뿛":10277,"##쩗":10278,"##죧":10279,"##혇":10280,"##흴":10281,"##겝":10282,"##귖":10283,"##깛":10284,"##삵":10285,"##덖":10286,"##냏":10287,"##벜":10288,"##괆":10289,"##놁":10290,"##쬔":10291,"##껚":10292,"##릷":10293,"##갋":10294,"##쾈":10295,"##휫":10296,"##죿":10297,"##썄":10298,"##쳨":10299,"##봟":10300,"##뜳":10301,"##즄":10302,"##갿":10303,"##묾":10304,"##븤":10305,"##뱥":10306,"##뼙":10307,"##읲":10308,"##펕":10309,"##쉓":10310,"##쉫":10311,"##곂":10312,"##쮠":10313,"##띅":10314,"##쟣":10315,"##궬":10316,"##겒":10317,"##닰":10318,"##럅":10319,"##잍":10320,"##퓍":10321,"##헑":10322,"##헔":10323,"##읨":10324,"##랺":10325,"##욺":10326,"##샼":10327,"##젒":10328,"##숳":10329,"##뙁":10330,"##횰":10331,"##웉":10332,"##룟":10333,"##푈":10334,"##뗸":10335,"##픗":10336,"##듑":10337,"##곴":10338,"##륲":10339,"##뵀":10340,"##꽷":10341,"##솒":10342,"##텢":10343,"##뀃":10344,"##쫗":10345,"##칬":10346,"##춠":10347,"##몢":10348,"##욀":10349,"##쭏":10350,"##닣":10351,"##쉏":10352,"##윜":10353,"##킉":10354,"##옧":10355,"##걶":10356,"##돞":10357,"##쁮":10358,"##뵌":10359,"##걕":10360,"##횩":10361,"##낓":10362,"##뤳":10363,"##쿽":10364,"##봠":10365,"##뛥":10366,"##셇":10367,"##뤱":10368,"##흿":10369,"##뷋":10370,"##켷":10371,"##맊":10372,"##툻":10373,"##킺":10374,"##콲":10375,"##띗":10376,"##찦":10377,"##쇱":10378,"##핖":10379,"##굱":10380,"##뜼":10381,"##쟐":10382,"##젙":10383,"##싲":10384,"##괫":10385,"##헁":10386,"##훡":10387,"##탇":10388,"##붃":10389,"##괒":10390,"##캢":10391,"##뢋":10392,"##뫤":10393,"##췠":10394,"##쎁":10395,"##헓":10396,"##헢":10397,"##퍡":10398,"##꼻":10399,"##롧":10400,"##퐌":10401,"##윸":10402,"##헚":10403,"##꽼":10404,"##뺶":10405,"##쀵":10406,"##삮":10407,"##겚":10408,"##좰":10409,"##껓":10410,"##뭽":10411,"##꿓":10412,"##씉":10413,"##햫":10414,"##랕":10415,"##벏":10416,"##줓":10417,"##왴":10418,"##깦":10419,"##닒":10420,"##킐":10421,"##묽":10422,"##쓀":10423,"##뇹":10424,"##돩":10425,"##푤":10426,"##웋":10427,"##귻":10428,"##븬":10429,"##먬":10430,"##뱗":10431,"##퐤":10432,"##봗":10433,"##궃":10434,"##걨":10435,"##슂":10436,"##촀":10437,"##롥":10438,"##숮":10439,"##빶":10440,"##켚":10441,"##땸":10442,"##돘":10443,"##곪":10444,"##뺍":10445,"##묀":10446,"##춸":10447,"##맍":10448,"##쩅":10449,"##욐":10450,"##퍁":10451,"##넏":10452,"##쟠":10453,"##봴":10454,"##둇":10455,"##핺":10456,"##줒":10457,"##녙":10458,"##톻":10459,"##젇":10460,"##둍":10461,"##쎰":10462,"##싦":10463,"##딀":10464,"##쩘":10465,"##왰":10466,"##찓":10467,"##핚":10468,"##렑":10469,"##뾴":10470,"##됸":10471,"##딈":10472,"##몡":10473,"##큄":10474,"##큳":10475,"##껗":10476,"##쎕":10477,"##싓":10478,"##왛":10479,"##꺗":10480,"##뀄":10481,"##죣":10482,"##윿":10483,"##풱":10484,"##릸":10485,"##씾":10486,"##뫠":10487,"##얃":10488,"##읿":10489,"##춣":10490,"##튐":10491,"##퍀":10492,"##딮":10493,"##롰":10494,"##뮙":10495,"##풓":10496,"##죱":10497,"##콋":10498,"##뎆":10499,"##찣":10500,"##쐇":10501,"##픞":10502,"##뜐":10503,"##즑":10504,"##혭":10505,"##풎":10506,"##맔":10507,"##쩓":10508,"##섩":10509,"##쁸":10510,"##퇼":10511,"##둄":10512,"##몴":10513,"##짋":10514,"##퐛":10515,"##떧":10516,"##뇄":10517,"##쬑":10518,"##뒐":10519,"##튝":10520,"##븻":10521,"##븓":10522,"##맿":10523,"##폽":10524,"##녗":10525,"##뫁":10526,"##뫀":10527,"##폑":10528,"##쒤":10529,"##볱":10530,"##텠":10531,"##쐅":10532,"##얷":10533,"##꿯":10534,"##쉦":10535,"##믅":10536,"##꾕":10537,"##쫴":10538,"##긩":10539,"##줨":10540,"##짂":10541,"##핤":10542,"##윢":10543,"##굣":10544,"##죻":10545,"##끏":10546,"##팑":10547,"##뭑":10548,"##곟":10549,"##렫":10550,"##꾭":10551,"##꼹":10552,"##쁴":10553,"##듹":10554,"##젺":10555,"##묺":10556,"##갏":10557,"##잒":10558,"##흅":10559,"##섷":10560,"##짷":10561,"##춌":10562,"##걐":10563,"##쎱":10564,"##똠":10565,"##긌":10566,"##릂":10567,"##렆":10568,"##긬":10569,"##녃":10570,"##롓":10571,"##촣":10572,"##죨":10573,"##럻":10574,"##띧":10575,"##뎜":10576,"##흳":10577,"##괃":10578,"##퓔":10579,"##뛬":10580,"##굨":10581,"##씊":10582,"##퇜":10583,"##뮝":10584,"##늿":10585,"##븩":10586,"##쌯":10587,"##핋":10588,"##딝":10589,"##앑":10590,"##욼":10591,"##딻":10592,"##뚣":10593,"##쓃":10594,"##믛":10595,"##쏨":10596,"##뉑":10597,"##딋":10598,"##릋":10599,"##쿌":10600,"##뭫":10601,"##꽠":10602,"##넔":10603,"##홴":10604,"##젋":10605,"##졁":10606,"##돰":10607,"##뮏":10608,"##쮱":10609,"##걵":10610,"##튾":10611,"##눃":10612,"##걲":10613,"##쥳":10614,"##쇳":10615,"##뒸":10616,"##숬":10617,"##싈":10618,"##쏖":10619,"##잝":10620,"##흇":10621,"##싂":10622,"##큱":10623,"##컫":10624,"##굤":10625,"##뱈":10626,"##쨓":10627,"##햍":10628,"##혤":10629,"##렦":10630,"##윶":10631,"##턕":10632,"##뿽":10633,"##튔":10634,"##흓":10635,"##쪻":10636,"##솎":10637,"##븕":10638,"##벋":10639,"##봫":10640,"##쥈":10641,"##혱":10642,"##룿":10643,"##뷷":10644,"##뉄":10645,"##떪":10646,"##먿":10647,"##갧":10648,"##잂":10649,"##뒌":10650,"##뽘":10651,"##떗":10652,"##힗":10653,"##듰":10654,"##퍛":10655,"##딦":10656,"##폳":10657,"##빏":10658,"##뽚":10659,"##짅":10660,"##뺒":10661,"##꺡":10662,"##탛":10663,"##뱄":10664,"##썟":10665,"##겴":10666,"##흒":10667,"##돴":10668,"##욍":10669,"##즜":10670,"##쑛":10671,"##쉄":10672,"##덌":10673,"##뤙":10674,"##쟂":10675,"##낐":10676,"##럑":10677,"##폔":10678,"##킘":10679,"##죚":10680,"##뀬":10681,"##앁":10682,"##꿬":10683,"##롕":10684,"##즵":10685,"##샒":10686,"##괗":10687,"##둗":10688,"##졹":10689,"##휭":10690,"##쏱":10691,"##뵘":10692,"##헭":10693,"##쒈":10694,"##빷":10695,"##챂":10696,"##붋":10697,"##텆":10698,"##웇":10699,"##쬥":10700,"##긏":10701,"##뙨":10702,"##꿌":10703,"##홟":10704,"##꾠":10705,"##깧":10706,"##춫":10707,"##곌":10708,"##웼":10709,"##쨨":10710,"##햨":10711,"##홗":10712,"##큲":10713,"##팏":10714,"##톧":10715,"##눉":10716,"##뮉":10717,"##팆":10718,"##엲":10719,"##췰":10720,"##뀝":10721,"##륌":10722,"##늖":10723,"##옃":10724,"##낖":10725,"##팗":10726,"##젷":10727,"##꺀":10728,"##랚":10729,"##웒":10730,"##믤":10731,"##쁭":10732,"##쉗":10733,"##벛":10734,"##낧":10735,"##돓":10736,"##쁙":10737,"##릍":10738,"##뤅":10739,"##핐":10740,"##맻":10741,"##뮻":10742,"##뭋":10743,"##좥":10744,"##킇":10745,"##셅":10746,"##놊":10747,"##돶":10748,"##뾕":10749,"##꽆":10750,"##묑":10751,"##씳":10752,"##깯":10753,"##줃":10754,"##엢":10755,"##캈":10756,"##냋":10757,"##믘":10758,"##옞":10759,"##즣":10760,"##걳":10761,"##붆":10762,"##뇔":10763,"##헽":10764,"##벆":10765,"##뇝":10766,"##돇":10767,"##럥":10768,"##쮀":10769,"##낣":10770,"##괋":10771,"##몯":10772,"##푶":10773,"##긥":10774,"##듡":10775,"##쫖":10776,"##퉺":10777,"##덙":10778,"##붯":10779,"##낡":10780,"##엋":10781,"##씇":10782,"##롡":10783,"##헾":10784,"##퇮":10785,"##쟬":10786,"##펗":10787,"##곩":10788,"##뿁":10789,"##옿":10790,"##쯛":10791,"##팣":10792,"##젅":10793,"##캮":10794,"##찱":10795,"##겿":10796,"##먝":10797,"##뚼":10798,"##츱":10799,"##뿀":10800,"##숚":10801,"##탍":10802,"##꿴":10803,"##늟":10804,"##첟":10805,"##쎃":10806,"##뀸":10807,"##틓":10808,"##뵏":10809,"##읩":10810,"##숖":10811,"##샫":10812,"##뱜":10813,"##엪":10814,"##훰":10815,"##퐆":10816,"##춑":10817,"##겯":10818,"##긃":10819,"##뗬":10820,"##캩":10821,"##벐":10822,"##쟆":10823,"##췟":10824,"##럕":10825,"##볹":10826,"##됒":10827,"##쟀":10828,"##굗":10829,"##젞":10830,"##꽛":10831,"##굩":10832,"##냗":10833,"##꽅":10834,"##긓":10835,"##룄":10836,"##턋":10837,"##씥":10838,"##쟡":10839,"##뙜":10840,"##폮":10841,"##뿃":10842,"##눻":10843,"##쑜":10844,"##똿":10845,"##졲":10846,"##줐":10847,"##걹":10848,"##럵":10849,"##둩":10850,"##둊":10851,"##싚":10852,"##됡":10853,"##댒":10854,"##틐":10855,"##귣":10856,"##땝":10857,"##횹":10858,"##깇":10859,"##쒘":10860,"##렏":10861,"##쫮":10862,"##핢":10863,"##쐴":10864,"##뼤":10865,"##몔":10866,"##븂":10867,"##쬴":10868,"##컁":10869,"##걎":10870,"##셊":10871,"##쓈":10872,"##햋":10873,"##넦":10874,"##춋":10875,"##갣":10876,"##뱓":10877,"##웊":10878,"##됔":10879,"##겙":10880,"##쫃":10881,"##쭀":10882,"##흏":10883,"##큅":10884,"##윚":10885,"##됟":10886,"##봽":10887,"##봭":10888,"##궇":10889,"##걾":10890,"##넀":10891,"##껒":10892,"##퀻":10893,"##홐":10894,"##혻":10895,"##잙":10896,"##툠":10897,"##폅":10898,"##엓":10899,"##볖":10900,"##럘":10901,"##늭":10902,"##렳":10903,"##댂":10904,"##렅":10905,"##뎰":10906,"##벲":10907,"##윝":10908,"##춟":10909,"##쯭":10910,"##쫐":10911,"##냎":10912,"##쩃":10913,"으로":10914,"에서":10915,"##니다":10916,"한다":10917,"사람":10918,"아니":10919,"는데":10920,"라고":10921,"에게":10922,"나라":10923,"지만":10924,"국민":10925,"우리":10926,"다고":10927,"까지":10928,"생각":10929,"라는":10930,"면서":10931,"다는":10932,"20":10933,"대한":10934,"때문":10935,"일본":10936,"이나":10937,"해서":10938,"으면":10939,"그러":10940,"이런":10941,"습니다":10942,"된다":10943,"그리":10944,"해야":10945,"한국":10946,"보다":10947,"지금":10948,"하나":10949,"문제":10950,"중국":10951,"##렇게":10952,"부터":10953,"그런":10954,"대통":10955,"자신":10956,"정부":10957,"인간":10958,"그리고":10959,"대통령":10960,"다른":10961,"10":10962,"처럼":10963,"문재":10964,"진짜":10965,"위해":10966,"만들":10967,"정치":10968,"정도":10969,"인데":10970,"그래":10971,"는지":10972,"어서":10973,"19":10974,"가지":10975,"아닌":10976,"아이":10977,"이상":10978,"미국":10979,"민주":10980,"합니다":10981,"는다":10982,"그냥":10983,"입니다":10984,"경제":10985,"##대로":10986,"북한":10987,"국가":10988,"경우":10989,"이제":10990,"조국":10991,"사회":10992,"모르":10993,"다가":10994,"정권":10995,"들어":10996,"한테":10997,"문재인":10998,"사실":10999,"자기":11000,"시간":11001,"##주의":11002,"해라":11003,"아무":11004,"다시":11005,"201":11006,"나오":11007,"소리":11008,"정신":11009,"너무":11010,"시키":11011,"##민국":11012,"기사":11013,"대한민국":11014,"세요":11015,"모든":11016,"##00":11017,"라도":11018,"따라":11019,"필요":11020,"세계":11021,"가능":11022,"정말":11023,"사용":11024,"##니까":11025,"많이":11026,"네요":11027,"시작":11028,"어야":11029,"해도":11030,"모두":11031,"무슨":11032,"어떻":11033,"인지":11034,"여자":11035,"재앙":11036,"얼마":11037,"같이":11038,"못하":11039,"당신":11040,"으며":11041,"그러나":11042,"보이":11043,"사이":11044,"그것":11045,"이렇게":11046,"가장":11047,"거나":11048,"인가":11049,"검찰":11050,"상황":11051,"아서":11052,"다면":11053,"지지":11054,"돌아":11055,"기업":11056,"여기":11057,"그렇게":11058,"댓글":11059,"이미":11060,"없이":11061,"이후":11062,"자유":11063,"아직":11064,"민주당":11065,"다음":11066,"##지만":11067,"대해":11068,"이유":11069,"니까":11070,"세금":11071,"려고":11072,"어떻게":11073,"마음":11074,"바로":11075,"##라도":11076,"어떤":11077,"어디":11078,"조선":11079,"수준":11080,"그렇":11081,"으니":11082,"이러":11083,"잘못":11084,"이야":11085,"지역":11086,"함께":11087,"저런":11088,"모습":11089,"다니":11090,"##거리":11091,"계속":11092,"도록":11093,"조사":11094,"하지만":11095,"세상":11096,"결국":11097,"##스트":11098,"이해":11099,"200":11100,"언론":11101,"시켜":11102,"아야":11103,"피해":11104,"좌파":11105,"프로":11106,"라면":11107,"어요":11108,"사건":11109,"남자":11110,"쓰레":11111,"##다고":11112,"보여":11113,"관계":11114,"이용":11115,"쓰레기":11116,"##소리":11117,"이름":11118,"어느":11119,"한다고":11120,"##어나":11121,"이번":11122,"이야기":11123,"얼마나":11124,"여러":11125,"이것":11126,"새끼":11127,"능력":11128,"선거":11129,"상대":11130,"또한":11131,"공격":11132,"그래서":11133,"역시":11134,"중요":11135,"제대로":11136,"국회":11137,"##레이":11138,"교육":11139,"그만":11140,"운동":11141,"대로":11142,"떨어":11143,"##갱이":11144,"서울":11145,"그럼":11146,"존재":11147,"자리":11148,"나가":11149,"이게":11150,"수사":11151,"동안":11152,"빨갱이":11153,"대학":11154,"역사":11155,"머리":11156,"한다는":11157,"위한":11158,"시대":11159,"가족":11160,"더니":11161,"누구":11162,"버리":11163,"누가":11164,"##머니":11165,"제발":11166,"방송":11167,"그녀":11168,"##스크":11169,"자체":11170,"을까":11171,"##OO":11172,"대표":11173,"통해":11174,"아주":11175,"학교":11176,"OOO":11177,"보수":11178,"시장":11179,"##다는":11180,"당시":11181,"얼굴":11182,"구나":11183,"처음":11184,"방법":11185,"장관":11186,"결과":11187,"현재":11188,"공산":11189,"의미":11190,"조작":11191,"책임":11192,"정책":11193,"지원":11194,"나온":11195,"12":11196,"정의":11197,"일반":11198,"본인":11199,"보내":11200,"경기":11201,"전쟁":11202,"부모":11203,"는가":11204,"뉴스":11205,"행동":11206,"관련":11207,"상태":11208,"내용":11209,"기술":11210,"회사":11211,"그런데":11212,"반대":11213,"게임":11214,"경찰":11215,"30":11216,"어도":11217,"지나":11218,"여성":11219,"은데":11220,"박근":11221,"아닌가":11222,"현실":11223,"완전":11224,"사랑":11225,"##가리":11226,"먼저":11227,"18":11228,"개인":11229,"물론":11230,"언제":11231,"박근혜":11232,"거짓":11233,"만큼":11234,"내려":11235,"당연":11236,"얘기":11237,"인정":11238,"자식":11239,"##버지":11240,"마스크":11241,"연구":11242,"##러운":11243,"##천지":11244,"새로":11245,"아들":11246,"못한":11247,"##부터":11248,"100":11249,"개혁":11250,"선동":11251,"기자":11252,"나타":11253,"활동":11254,"11":11255,"마다":11256,"등장":11257,"특히":11258,"신천지":11259,"거의":11260,"힘들":11261,"##부분":11262,"똑같":11263,"생활":11264,"친구":11265,"당하":11266,"려는":11267,"정보":11268,"영화":11269,"봐라":11270,"범죄":11271,"무엇":11272,"들어가":11273,"문화":11274,"사고":11275,"위해서":11276,"집단":11277,"오늘":11278,"시민":11279,"거리":11280,"서로":11281,"15":11282,"올라":11283,"근데":11284,"나이":11285,"잖아":11286,"밖에":11287,"절대":11288,"대부분":11289,"주장":11290,"##구나":11291,"학생":11292,"이랑":11293,"이건":11294,"청와":11295,"의원":11296,"나요":11297,"청와대":11298,"조금":11299,"부분":11300,"권력":11301,"실제":11302,"만든":11303,"거기":11304,"하루":11305,"##로나":11306,"로서":11307,"관심":11308,"바라":11309,"그래도":11310,"관리":11311,"결정":11312,"해결":11313,"기본":11314,"전부":11315,"##인다":11316,"과정":11317,"어려":11318,"코로나":11319,"##스로":11320,"일부":11321,"##시아":11322,"엄청":11323,"김정":11324,"이루":11325,"매우":11326,"##시다":11327,"직접":11328,"사업":11329,"지요":11330,"아버지":11331,"정상":11332,"##가지":11333,"투자":11334,"검사":11335,"##라이":11336,"스스로":11337,"최고":11338,"탄핵":11339,"나와":11340,"##없이":11341,"과거":11342,"##으며":11343,"빨리":11344,"으나":11345,"그게":11346,"대상":11347,"걱정":11348,"스럽":11349,"미친":11350,"##돼지":11351,"공개":11352,"개발":11353,"##린다":11354,"##의원":11355,"친일":11356,"50":11357,"##진다":11358,"외국":11359,"효과":11360,"개돼지":11361,"주인":11362,"단체":11363,"대구":11364,"새로운":11365,"의해":11366,"아라":11367,"##아가":11368,"는구나":11369,"사라":11370,"기록":11371,"요즘":11372,"199":11373,"미래":11374,"텐데":11375,"발전":11376,"선택":11377,"##려고":11378,"성공":11379,"그대로":11380,"다만":11381,"국회의원":11382,"독재":11383,"아베":11384,"어린":11385,"다르":11386,"차이":11387,"교회":11388,"총선":11389,"더라":11390,"부정":11391,"그때":11392,"만나":11393,"자한":11394,"세력":11395,"교수":11396,"전체":11397,"##리아":11398,"선수":11399,"민족":11400,"오히":11401,"아무리":11402,"##무원":11403,"오히려":11404,"건데":11405,"해야지":11406,"표현":11407,"여론":11408,"금지":11409,"##어지":11410,"공부":11411,"인물":11412,"종교":11413,"입장":11414,"세월":11415,"처벌":11416,"진행":11417,"도시":11418,"유지":11419,"확인":11420,"또는":11421,"결혼":11422,"설명":11423,"비교":11424,"인터":11425,"전문":11426,"어라":11427,"듯이":11428,"만드":11429,"평가":11430,"감정":11431,"발생":11432,"시절":11433,"대신":11434,"건지":11435,"드러":11436,"##이트":11437,"기준":11438,"삼성":11439,"##지막":11440,"가치":11441,"확실":11442,"조직":11443,"해당":11444,"작품":11445,"이거":11446,"나왔":11447,"영향":11448,"노력":11449,"기억":11450,"너희":11451,"건가":11452,"더라도":11453,"준비":11454,"어찌":11455,"상당":11456,"공무원":11457,"가짜":11458,"생산":11459,"따라서":11460,"순간":11461,"전혀":11462,"한심":11463,"혼자":11464,"기회":11465,"원래":11466,"분명":11467,"가진":11468,"##다가":11469,"의사":11470,"국내":11471,"대가리":11472,"올리":11473,"판단":11474,"무기":11475,"사진":11476,"더불":11477,"도대":11478,"노동":11479,"자연":11480,"##으나":11481,"도움":11482,"기관":11483,"도대체":11484,"무능":11485,"인생":11486,"경험":11487,"알려":11488,"비판":11489,"마지막":11490,"으면서":11491,"부르":11492,"에선":11493,"어쩌":11494,"무시":11495,"논리":11496,"진정":11497,"으로서":11498,"모양":11499,"구속":11500,"외교":11501,"더욱":11502,"돌아가":11503,"사기":11504,"정당":11505,"이전":11506,"가격":11507,"의식":11508,"##스터":11509,"엄마":11510,"국제":11511,"바람":11512,"그걸":11513,"구조":11514,"대해서":11515,"달리":11516,"여행":11517,"요구":11518,"행위":11519,"지켜":11520,"보인다":11521,"거짓말":11522,"보호":11523,"인해":11524,"적폐":11525,"토착":11526,"아요":11527,"죽이":11528,"넘어":11529,"추가":11530,"사과":11531,"입국":11532,"봐야":11533,"주변":11534,"증거":11535,"지도":11536,"출신":11537,"방식":11538,"와서":11539,"위험":11540,"김정은":11541,"한당":11542,"가져":11543,"운영":11544,"떠나":11545,"아님":11546,"병원":11547,"변화":11548,"평화":11549,"대체":11550,"목적":11551,"군대":11552,"포함":11553,"바이":11554,"비슷":11555,"##조건":11556,"처리":11557,"스타":11558,"기다":11559,"돼지":11560,"##어난":11561,"16":11562,"##나라":11563,"환경":11564,"25":11565,"무조건":11566,"##드시":11567,"못했":11568,"반드시":11569,"찾아":11570,"겁니다":11571,"대단":11572,"시킨":11573,"플레이":11574,"왜구":11575,"지방":11576,"지키":11577,"됩니다":11578,"중심":11579,"밝혀":11580,"##른다":11581,"시기":11582,"구만":11583,"위치":11584,"제도":11585,"이젠":11586,"치료":11587,"전투":11588,"역할":11589,"##한다":11590,"40":11591,"기대":11592,"투표":11593,"부족":11594,"아마":11595,"##자리":11596,"선생":11597,"던데":11598,"으로써":11599,"아파":11600,"배우":11601,"일단":11602,"비리":11603,"계획":11604,"인사":11605,"##려서":11606,"제일":11607,"##심히":11608,"##아먹":11609,"구성":11610,"위원":11611,"캐릭":11612,"항상":11613,"바뀌":11614,"승리":11615,"시즌":11616,"라이":11617,"개념":11618,"하고":11619,"나쁜":11620,"살인":11621,"하늘":11622,"신경":11623,"이래":11624,"성장":11625,"어머니":11626,"전화":11627,"카드":11628,"지난":11629,"사망":11630,"독립":11631,"사태":11632,"한데":11633,"해외":11634,"캐릭터":11635,"진실":11636,"난리":11637,"열심히":11638,"아래":11639,"가까":11640,"13":11641,"17":11642,"려면":11643,"진보":11644,"생명":11645,"움직":11646,"한다면":11647,"오래":11648,"##동안":11649,"끼리":11650,"##세요":11651,"봐도":11652,"부대":11653,"가리":11654,"정확":11655,"##er":11656,"설치":11657,"##리스":11658,"14":11659,"일어나":11660,"냐고":11661,"버렸":11662,"황교":11663,"나중":11664,"므로":11665,"달창":11666,"소설":11667,"동시":11668,"본다":11669,"로부터":11670,"아도":11671,"공산당":11672,"##으니":11673,"당연히":11674,"우선":11675,"도와":11676,"실제로":11677,"##이스":11678,"인권":11679,"이익":11680,"최대":11681,"경쟁":11682,"충분":11683,"전라도":11684,"정치인":11685,"남편":11686,"발견":11687,"마시":11688,"피해자":11689,"불법":11690,"당장":11691,"##므로":11692,"제품":11693,"마찬":11694,"조차":11695,"다양":11696,"서민":11697,"재산":11698,"산업":11699,"건강":11700,"마찬가지":11701,"강력":11702,"직원":11703,"민주주의":11704,"떨어지":11705,"후보":11706,"##자기":11707,"부동":11708,"가정":11709,"사상":11710,"신문":11711,"참여":11712,"발표":11713,"조용":11714,"어렵":11715,"마치":11716,"자동":11717,"인식":11718,"##아들":11719,"나온다":11720,"자주":11721,"이기":11722,"던지":11723,"##수록":11724,"훨씬":11725,"살아":11726,"중국인":11727,"의료":11728,"고통":11729,"현대":11730,"준다":11731,"##운데":11732,"망하":11733,"나경":11734,"가만":11735,"##러스":11736,"느끼":11737,"과학":11738,"상관":11739,"프랑":11740,"부동산":11741,"형태":11742,"감사":11743,"하나님":11744,"증가":11745,"통일":11746,"지지율":11747,"의견":11748,"시스":11749,"중앙":11750,"법무":11751,"고려":11752,"독일":11753,"가르":11754,"일으":11755,"그림":11756,"따르":11757,"촛불":11758,"##랜드":11759,"나올":11760,"단순":11761,"##일보":11762,"영국":11763,"나경원":11764,"목소리":11765,"##라고":11766,"기능":11767,"##럼프":11768,"실패":11769,"##라지":11770,"기간":11771,"통합":11772,"임명":11773,"줘야":11774,"총장":11775,"언급":11776,"노래":11777,"만약":11778,"안타":11779,"자고":11780,"최소":11781,"양심":11782,"가슴":11783,"아파트":11784,"시리":11785,"소비":11786,"한국인":11787,"198":11788,"매국":11789,"트럼프":11790,"지구":11791,"생기":11792,"세기":11793,"지식":11794,"갑자기":11795,"제작":11796,"무서":11797,"그럴":11798,"세대":11799,"라니":11800,"행복":11801,"제외":11802,"올려":11803,"##비스":11804,"군사":11805,"말씀":11806,"고자":11807,"야당":11808,"감독":11809,"죽음":11810,"부끄":11811,"유명":11812,"아예":11813,"빠져":11814,"위기":11815,"으니까":11816,"##으면":11817,"대응":11818,"특별":11819,"유럽":11820,"느낌":11821,"심각":11822,"자격":11823,"바꾸":11824,"보도":11825,"혹은":11826,"솔직":11827,"대화":11828,"##해서":11829,"완전히":11830,"미사":11831,"##워서":11832,"제공":11833,"포기":11834,"오르":11835,"보통":11836,"레이":11837,"적용":11838,"던가":11839,"노인":11840,"된다는":11841,"광고":11842,"시스템":11843,"환자":11844,"##이버":11845,"레기":11846,"성격":11847,"누군":11848,"공정":11849,"집회":11850,"노무":11851,"할까":11852,"동물":11853,"할머니":11854,"윤석":11855,"눈치":11856,"그나":11857,"사회주의":11858,"조건":11859,"평생":11860,"주제":11861,"미세":11862,"친일파":11863,"없애":11864,"자는":11865,"내리":11866,"어차":11867,"청원":11868,"감염":11869,"의심":11870,"어차피":11871,"라서":11872,"##라리":11873,"이때":11874,"아닐":11875,"그저":11876,"영상":11877,"싸움":11878,"불러":11879,"보험":11880,"된다고":11881,"##학교":11882,"느냐":11883,"차리":11884,"##디어":11885,"자꾸":11886,"월급":11887,"강제":11888,"아프":11889,"자세":11890,"목표":11891,"건물":11892,"목숨":11893,"습니까":11894,"인터넷":11895,"자국":11896,"거든":11897,"임금":11898,"##너지":11899,"##간다":11900,"가운데":11901,"변호":11902,"인구":11903,"프랑스":11904,"21":11905,"황교안":11906,"무식":11907,"##이지":11908,"싸우":11909,"마리":11910,"##어진":11911,"간다":11912,"주식":11913,"전략":11914,"소득":11915,"시켰":11916,"프로그":11917,"비용":11918,"##레스":11919,"##정부":11920,"판매":11921,"이리":11922,"바보":11923,"이미지":11924,"##어들":11925,"뭔가":11926,"자본":11927,"으려":11928,"취급":11929,"##in":11930,"판사":11931,"응원":11932,"##on":11933,"불쌍":11934,"작가":11935,"동네":11936,"서비스":11937,"경영":11938,"노조":11939,"원인":11940,"관한":11941,"##전히":11942,"참고":11943,"이명":11944,"알아":11945,"속도":11946,"기존":11947,"시리즈":11948,"강화":11949,"방향":11950,"든지":11951,"전국":11952,"께서":11953,"음식":11954,"지랄":11955,"나타나":11956,"나무":11957,"단계":11958,"러시아":11959,"자살":11960,"마법":11961,"반성":11962,"현상":11963,"이동":11964,"예전":11965,"차라리":11966,"궁금":11967,"바리":11968,"기분":11969,"계약":11970,"우한":11971,"드라":11972,"쳐먹":11973,"음악":11974,"수처":11975,"공동":11976,"미사일":11977,"질문":11978,"자료":11979,"아냐":11980,"마이":11981,"불리":11982,"문학":11983,"자랑":11984,"부탁":11985,"그나마":11986,"철저":11987,"시험":11988,"마을":11989,"주로":11990,"달려":11991,"네이버":11992,"그랬":11993,"타이":11994,"간첩":11995,"비난":11996,"더러운":11997,"주인공":11998,"파악":11999,"분석":12000,"프로그램":12001,"멍청":12002,"상당히":12003,"반일":12004,"##려야":12005,"재판":12006,"보였":12007,"60":12008,"아침":12009,"그건":12010,"생긴":12011,"운전":12012,"##먼지":12013,"아내":12014,"힘든":12015,"광주":12016,"##마디":12017,"##지어":12018,"문서":12019,"바이러스":12020,"대변":12021,"보고":12022,"공산주의":12023,"일자리":12024,"발언":12025,"라며":12026,"해요":12027,"작업":12028,"유일":12029,"방어":12030,"분노":12031,"받아들":12032,"개소리":12033,"미세먼지":12034,"남성":12035,"거부":12036,"아닙":12037,"분위":12038,"무리":12039,"괜찮":12040,"눈물":12041,"안정":12042,"##려라":12043,"리그":12044,"반응":12045,"노무현":12046,"주민":12047,"파괴":12048,"걸리":12049,"여당":12050,"걸로":12051,"유시":12052,"점점":12053,"보상":12054,"개월":12055,"모자":12056,"집안":12057,"불안":12058,"행사":12059,"언어":12060,"일제":12061,"심지어":12062,"공장":12063,"장난":12064,"차지":12065,"부산":12066,"한마디":12067,"인기":12068,"최저":12069,"이르":12070,"동일":12071,"초기":12072,"온갖":12073,"사형":12074,"생겼":12075,"##an":12076,"최근":12077,"고생":12078,"분위기":12079,"불매":12080,"거래":12081,"부인":12082,"상식":12083,"이어":12084,"대책":12085,"저지":12086,"소속":12087,"공식":12088,"심판":12089,"사법":12090,"공간":12091,"당한":12092,"솔직히":12093,"연기":12094,"규모":12095,"안전":12096,"청년":12097,"매일":12098,"70":12099,"주의":12100,"스트":12101,"불구":12102,"사장":12103,"비해":12104,"물건":12105,"유시민":12106,"인도":12107,"##다니":12108,"문죄":12109,"특징":12110,"내부":12111,"유리":12112,"##랍니다":12113,"버린":12114,"활용":12115,"스킬":12116,"설정":12117,"고등":12118,"어려운":12119,"한편":12120,"게다가":12121,"다며":12122,"범죄자":12123,"이걸":12124,"시위":12125,"근거":12126,"수출":12127,"연금":12128,"규정":12129,"애초":12130,"확진":12131,"일어":12132,"대중":12133,"사퇴":12134,"인상":12135,"단어":12136,"바랍니다":12137,"난다":12138,"박정":12139,"의혹":12140,"어쩔":12141,"장면":12142,"지속":12143,"수입":12144,"이론":12145,"이란":12146,"행정":12147,"체제":12148,"나머":12149,"지배":12150,"스러운":12151,"직업":12152,"마련":12153,"진심":12154,"희생":12155,"희망":12156,"시킬":12157,"##이션":12158,"그거":12159,"으로부터":12160,"아무것":12161,"뻔뻔":12162,"차별":12163,"기독":12164,"몰라":12165,"정리":12166,"일까":12167,"정은":12168,"구분":12169,"여전히":12170,"바라보":12171,"과연":12172,"시설":12173,"버스":12174,"프레":12175,"##가락":12176,"인민":12177,"권리":12178,"들어오":12179,"최초":12180,"판결":12181,"80":12182,"감옥":12183,"대사":12184,"제한":12185,"고객":12186,"깨문":12187,"비롯":12188,"지적":12189,"업체":12190,"하여":12191,"뿌리":12192,"담당":12193,"종북":12194,"여러분":12195,"24":12196,"차원":12197,"연결":12198,"업무":12199,"시도":12200,"제목":12201,"상품":12202,"미군":12203,"대답":12204,"저렇게":12205,"그동안":12206,"위하":12207,"대하":12208,"덕분":12209,"합시다":12210,"나머지":12211,"의도":12212,"제시":12213,"특정":12214,"도망":12215,"따로":12216,"최악":12217,"짱깨":12218,"국정":12219,"관광":12220,"건설":12221,"분야":12222,"##이터":12223,"나서":12224,"아름":12225,"해석":12226,"엄청난":12227,"유공":12228,"상승":12229,"어야지":12230,"신고":12231,"적극":12232,"했었":12233,"특성":12234,"돌려":12235,"조치":12236,"연예":12237,"태도":12238,"훈련":12239,"기독교":12240,"제국":12241,"짓거리":12242,"##난다":12243,"2018":12244,"역대":12245,"애국":12246,"22":12247,"##어도":12248,"요소":12249,"택시":12250,"당했":12251,"처먹":12252,"신뢰":12253,"법무부":12254,"윤석열":12255,"집권":12256,"이재":12257,"바꿔":12258,"남불":12259,"유공자":12260,"수행":12261,"주택":12262,"악마":12263,"TV":12264,"예수":12265,"느라":12266,"유치":12267,"주사":12268,"시점":12269,"기부":12270,"부자":12271,"예상":12272,"다리":12273,"흔들":12274,"집값":12275,"197":12276,"교사":12277,"외국인":12278,"우주":12279,"별로":12280,"영원":12281,"고개":12282,"잠시":12283,"규제":12284,"박정희":12285,"회복":12286,"표정":12287,"장애":12288,"지하":12289,"가만히":12290,"청소":12291,"내년":12292,"는다는":12293,"은행":12294,"모델":12295,"실력":12296,"전기":12297,"영어":12298,"을지":12299,"강남":12300,"집중":12301,"전통":12302,"대회":12303,"맨날":12304,"우파":12305,"통제":12306,"##바로":12307,"분열":12308,"요청":12309,"##토리":12310,"군인":12311,"도로":12312,"등등":12313,"##ar":12314,"자동차":12315,"장사":12316,"외치":12317,"키우":12318,"는다고":12319,"돌리":12320,"##란다":12321,"직장":12322,"아닌데":12323,"에요":12324,"장기":12325,"시청":12326,"주도":12327,"중간":12328,"태극":12329,"로운":12330,"웃기":12331,"기다리":12332,"이성":12333,"사무":12334,"페미":12335,"영웅":12336,"대전":12337,"수많":12338,"할지":12339,"일정":12340,"모아":12341,"드라마":12342,"기생":12343,"현장":12344,"변호사":12345,"##우스":12346,"##학생":12347,"형성":12348,"오른":12349,"투기":12350,"혁명":12351,"수도":12352,"2017":12353,"500":12354,"느껴":12355,"상상":12356,"마저":12357,"똑같이":12358,"조선족":12359,"누리":12360,"##아치":12361,"변경":12362,"회의":12363,"매국노":12364,"레벨":12365,"위안":12366,"23":12367,"출연":12368,"꼬라지":12369,"조선일보":12370,"벌써":12371,"충분히":12372,"복지":12373,"단지":12374,"나누":12375,"헌법":12376,"냄새":12377,"저러":12378,"고민":12379,"차량":12380,"자금":12381,"##말로":12382,"다행":12383,"공감":12384,"깨끗":12385,"했으나":12386,"시켜야":12387,"달라":12388,"조심":12389,"000":12390,"강한":12391,"특수":12392,"자녀":12393,"몰랐":12394,"2019":12395,"평등":12396,"원전":12397,"##BS":12398,"미리":12399,"목사":12400,"원칙":12401,"각종":12402,"도덕":12403,"의지":12404,"그리스":12405,"조용히":12406,"바닥":12407,"조정":12408,"소유":12409,"무섭":12410,"이끌":12411,"실수":12412,"##미지":12413,"부담":12414,"##or":12415,"물러":12416,"올라가":12417,"넘어가":12418,"##다보":12419,"달러":12420,"정작":12421,"지지자":12422,"비행":12423,"2016":12424,"전문가":12425,"정체":12426,"재미":12427,"갈등":12428,"연합":12429,"여야":12430,"##디오":12431,"가득":12432,"부부":12433,"불과":12434,"##이드":12435,"억울":12436,"예술":12437,"미치":12438,"사례":12439,"아빠":12440,"동맹":12441,"드립":12442,"의무":12443,"폭력":12444,"대선":12445,"이곳":12446,"##여서":12447,"명령":12448,"근무":12449,"안보":12450,"이놈":12451,"자면":12452,"부리":12453,"전자":12454,"300":12455,"프리":12456,"누군가":12457,"폐렴":12458,"##져서":12459,"당해":12460,"체계":12461,"개선":12462,"주둥":12463,"모른다":12464,"##라인":12465,"옛날":12466,"폐지":12467,"바다":12468,"노예":12469,"의한":12470,"고서":12471,"초등":12472,"주요":12473,"최순":12474,"공기":12475,"나간":12476,"이사":12477,"타령":12478,"약속":12479,"방문":12480,"두려":12481,"올림":12482,"통과":12483,"90":12484,"대학교":12485,"국방":12486,"그룹":12487,"기에":12488,"##리카":12489,"굳이":12490,"성적":12491,"수십":12492,"짜리":12493,"보유":12494,"##진국":12495,"했으며":12496,"합의":12497,"거지":12498,"으려고":12499,"격리":12500,"반면":12501,"혜택":12502,"내놓":12503,"개판":12504,"핵심":12505,"태극기":12506,"철학":12507,"밝히":12508,"위원회":12509,"2015":12510,"최종":12511,"구하":12512,"죄인":12513,"위협":12514,"수익":12515,"문통":12516,"의하":12517,"으므로":12518,"강조":12519,"교통":12520,"대비":12521,"이탈":12522,"보스":12523,"실험":12524,"##다면":12525,"지급":12526,"사항":12527,"이럴":12528,"다이":12529,"당선":12530,"민국":12531,"베트":12532,"다녀":12533,"자빠":12534,"빠지":12535,"아닙니다":12536,"뒤집":12537,"드리":12538,"동원":12539,"회장":12540,"마세요":12541,"초반":12542,"196":12543,"이명박":12544,"축구":12545,"빠르":12546,"살펴":12547,"고소":12548,"보장":12549,"놀라":12550,"수단":12551,"헛소리":12552,"국당":12553,"기도":12554,"옹호":12555,"각각":12556,"약간":12557,"##화문":12558,"혹시":12559,"주위":12560,"박사":12561,"떠들":12562,"답답":12563,"동생":12564,"합리":12565,"공급":12566,"양아치":12567,"후반":12568,"나와서":12569,"죽여":12570,"지도자":12571,"천만":12572,"챙기":12573,"확실히":12574,"졸업":12575,"라인":12576,"실시":12577,"그러면":12578,"멤버":12579,"장소":12580,"더럽":12581,"니깐":12582,"정신병":12583,"대출":12584,"##en":12585,"청문":12586,"광화문":12587,"대놓":12588,"남북":12589,"##어내":12590,"통하":12591,"접근":12592,"움직이":12593,"꼴통":12594,"위선":12595,"예산":12596,"##at":12597,"강하":12598,"반복":12599,"하이":12600,"적당":12601,"데리":12602,"작용":12603,"지내":12604,"토론":12605,"물리":12606,"프레임":12607,"거대":12608,"유저":12609,"금융":12610,"따지":12611,"향해":12612,"구체":12613,"51":12614,"사라지":12615,"계산":12616,"터지":12617,"##뜨리":12618,"##머리":12619,"대처":12620,"평소":12621,"자영":12622,"노동자":12623,"어른":12624,"비하":12625,"증명":12626,"그곳":12627,"방해":12628,"일상":12629,"봅니다":12630,"유니":12631,"애니":12632,"동의":12633,"끝나":12634,"더만":12635,"연예인":12636,"전두":12637,"가해":12638,"청산":12639,"##20":12640,"사정":12641,"세우":12642,"심리":12643,"너무나":12644,"이하":12645,"제정":12646,"그러니까":12647,"##al":12648,"때려":12649,"##아내":12650,"추진":12651,"디자":12652,"스러":12653,"법원":12654,"예요":12655,"컴퓨":12656,"감소":12657,"겨우":12658,"에너지":12659,"소개":12660,"##어리":12661,"장비":12662,"체력":12663,"어떠":12664,"##으로":12665,"##프트":12666,"십시":12667,"상처":12668,"성과":12669,"이념":12670,"항공":12671,"베트남":12672,"자원":12673,"철수":12674,"올림픽":12675,"##반도":12676,"안타깝":12677,"아무런":12678,"천지":12679,"구매":12680,"손해":12681,"위안부":12682,"센터":12683,"참가":12684,"26":12685,"도둑":12686,"##운드":12687,"숫자":12688,"높이":12689,"자영업":12690,"지경":12691,"컴퓨터":12692,"청문회":12693,"지시":12694,"2014":12695,"스포":12696,"대변인":12697,"아름다":12698,"최소한":12699,"고용":12700,"개정":12701,"뭔지":12702,"전두환":12703,"심하":12704,"확률":12705,"시국":12706,"31":12707,"기초":12708,"통신":12709,"형식":12710,"충격":12711,"야지":12712,"차례":12713,"바란다":12714,"경상":12715,"살리":12716,"우승":12717,"아니면":12718,"기계":12719,"2000":12720,"서울대":12721,"좋아":12722,"도입":12723,"황제":12724,"취업":12725,"만족":12726,"다운":12727,"결코":12728,"논문":12729,"코스":12730,"결론":12731,"제기":12732,"확보":12733,"비례":12734,"사전":12735,"때리":12736,"지나가":12737,"훌륭":12738,"차단":12739,"개입":12740,"비밀":12741,"전환":12742,"벗어나":12743,"동료":12744,"##은이":12745,"28":12746,"보복":12747,"##져야":12748,"막말":12749,"에게서":12750,"줘라":12751,"평균":12752,"군요":12753,"데려":12754,"작전":12755,"따위":12756,"사이트":12757,"무너":12758,"스토리":12759,"학원":12760,"27":12761,"협력":12762,"불편":12763,"생겨":12764,"저기":12765,"봉사":12766,"리더":12767,"논란":12768,"영역":12769,"어리":12770,"그네":12771,"슈퍼":12772,"신청":12773,"미안":12774,"화장":12775,"느그":12776,"한반도":12777,"한계":12778,"협박":12779,"시행":12780,"독자":12781,"수치":12782,"자국민":12783,"선언":12784,"부여":12785,"걸려":12786,"##숭이":12787,"죄다":12788,"무장":12789,"들여":12790,"방사":12791,"에겐":12792,"무역":12793,"다수":12794,"인류":12795,"기반":12796,"아야지":12797,"간단":12798,"노선":12799,"감성":12800,"지정":12801,"상대방":12802,"대놓고":12803,"들이":12804,"공화":12805,"194":12806,"수용":12807,"식민":12808,"총리":12809,"장군":12810,"학년":12811,"공공":12812,"##es":12813,"한번":12814,"적어도":12815,"찬성":12816,"협상":12817,"망치":12818,"극우":12819,"가끔":12820,"녀석":12821,"가까운":12822,"클럽":12823,"그래야":12824,"월드":12825,"을까요":12826,"언제나":12827,"유학":12828,"본질":12829,"교활":12830,"저녁":12831,"맞추":12832,"어제":12833,"영업":12834,"물질":12835,"통계":12836,"이중":12837,"담배":12838,"##아리":12839,"와중":12840,"##와서":12841,"다를":12842,"##니아":12843,"2010":12844,"말아먹":12845,"태양":12846,"우려":12847,"고발":12848,"그만큼":12849,"앞서":12850,"묘사":12851,"인터뷰":12852,"##라스":12853,"##BC":12854,"제거":12855,"종류":12856,"주체":12857,"시켜라":12858,"나쁘":12859,"양반":12860,"웃음":12861,"보낸":12862,"용서":12863,"투쟁":12864,"제주":12865,"다루":12866,"공포":12867,"나름":12868,"창조":12869,"근본":12870,"##리어":12871,"영혼":12872,"살아가":12873,"##로지":12874,"쓰러":12875,"##다수":12876,"도착":12877,"아닐까":12878,"수정":12879,"플레이어":12880,"유사":12881,"소환":12882,"고대":12883,"짜증":12884,"소식":12885,"칭찬":12886,"어린이":12887,"수상":12888,"당당":12889,"전형":12890,"따른":12891,"진다":12892,"공사":12893,"2013":12894,"폭발":12895,"기생충":12896,"통해서":12897,"##이팅":12898,"모른":12899,"어울":12900,"불가":12901,"작성":12902,"청구":12903,"##바닥":12904,"고등학교":12905,"저질":12906,"가입":12907,"예정":12908,"명단":12909,"세워":12910,"디자인":12911,"확대":12912,"어이":12913,"소비자":12914,"무서운":12915,"임대":12916,"##하면":12917,"진출":12918,"##아지":12919,"교체":12920,"##마자":12921,"사냥":12922,"인한":12923,"착각":12924,"둘러":12925,"##준다":12926,"오지":12927,"혼란":12928,"지옥":12929,"한지":12930,"굉장":12931,"원숭이":12932,"장악":12933,"2012":12934,"상징":12935,"적절":12936,"민간":12937,"##벤트":12938,"비율":12939,"등록":12940,"오랜":12941,"멀리":12942,"순위":12943,"취소":12944,"한가":12945,"근처":12946,"전달":12947,"범위":12948,"오직":12949,"##쳐서":12950,"버전":12951,"배치":12952,"##튜브":12953,"이벤트":12954,"수업":12955,"완성":12956,"대다수":12957,"기타":12958,"성인":12959,"유튜브":12960,"경향":12961,"철저히":12962,"저것":12963,"소재":12964,"져야":12965,"자라":12966,"보단":12967,"유닛":12968,"흘러":12969,"패배":12970,"명예":12971,"시각":12972,"망해":12973,"추구":12974,"분리":12975,"에다":12976,"추천":12977,"구역":12978,"입학":12979,"걸린":12980,"시원":12981,"존경":12982,"측면":12983,"나갔":12984,"##아버지":12985,"표시":12986,"성능":12987,"아닌가요":12988,"시선":12989,"소수":12990,"저리":12991,"들어갔":12992,"마침":12993,"29":12994,"가난":12995,"##노총":12996,"정의당":12997,"브랜드":12998,"로마":12999,"설립":13000,"195":13001,"선물":13002,"똑바로":13003,"스테":13004,"집행":13005,"시진":13006,"건너":13007,"구라":13008,"저항":13009,"바른":13010,"줄이":13011,"##조리":13012,"빠른":13013,"아이템":13014,"돌아오":13015,"비싸":13016,"민노총":13017,"##인트":13018,"검색":13019,"메이":13020,"자마자":13021,"활약":13022,"민심":13023,"스포츠":13024,"몰려":13025,"인가요":13026,"버티":13027,"순수":13028,"호구":13029,"저거":13030,"해방":13031,"모드":13032,"발사":13033,"스페":13034,"사유":13035,"성향":13036,"소년":13037,"백성":13038,"고향":13039,"효율":13040,"의문":13041,"못할":13042,"정확히":13043,"생존":13044,"손가락":13045,"연속":13046,"배신":13047,"발매":13048,"배경":13049,"참으로":13050,"번역":13051,"무대":13052,"김대":13053,"지휘":13054,"수록":13055,"못해":13056,"홍콩":13057,"이외":13058,"니다":13059,"편지":13060,"소녀":13061,"사실상":13062,"끝내":13063,"오리":13064,"아가리":13065,"아르":13066,"일본인":13067,"단다":13068,"제안":13069,"만화":13070,"형제":13071,"떨어진":13072,"강간":13073,"다름":13074,"근대":13075,"전하":13076,"모를":13077,"여름":13078,"이딴":13079,"마르":13080,"입니까":13081,"##요일":13082,"요리":13083,"주일":13084,"연장":13085,"분류":13086,"저렇":13087,"챙겨":13088,"아기":13089,"부활":13090,"조중":13091,"##리오":13092,"운운":13093,"상호":13094,"방역":13095,"감싸":13096,"외부":13097,"모여":13098,"이자":13099,"오로지":13100,"가까이":13101,"이래서":13102,"였으며":13103,"공연":13104,"##줌마":13105,"인성":13106,"##he":13107,"##드리":13108,"분명히":13109,"이혼":13110,"데미지":13111,"달성":13112,"테러":13113,"유치원":13114,"고요":13115,"드러나":13116,"마약":13117,"시진핑":13118,"근로":13119,"마냥":13120,"왜곡":13121,"##사자":13122,"아줌마":13123,"중대":13124,"용기":13125,"부끄럽":13126,"대형":13127,"나베":13128,"에휴":13129,"꺼내":13130,"괴롭":13131,"더러":13132,"선진국":13133,"35":13134,"시급":13135,"수술":13136,"##철수":13137,"편집":13138,"##어났":13139,"기획":13140,"2011":13141,"올랐":13142,"로써":13143,"실망":13144,"우린":13145,"제조":13146,"블랙":13147,"해체":13148,"욕심":13149,"전개":13150,"이탈리아":13151,"엘리":13152,"일어난":13153,"완벽":13154,"문자":13155,"기득":13156,"빼앗":13157,"문정":13158,"추정":13159,"무지":13160,"일부러":13161,"조합":13162,"나눠":13163,"남녀":13164,"될까":13165,"성폭":13166,"내일":13167,"임기":13168,"후손":13169,"##저리":13170,"먼지":13171,"사이비":13172,"카페":13173,"주문":13174,"자존":13175,"논의":13176,"번호":13177,"홍보":13178,"이민":13179,"왜냐":13180,"편하":13181,"성우":13182,"보냈":13183,"드래":13184,"위대":13185,"디지":13186,"비록":13187,"참석":13188,"삭제":13189,"에이":13190,"공작":13191,"일으키":13192,"드루":13193,"실업":13194,"언젠":13195,"압수":13196,"브라":13197,"타격":13198,"기념":13199,"수석":13200,"##나무":13201,"진중":13202,"자빠졌":13203,"아시아":13204,"실천":13205,"그날":13206,"걸어":13207,"징역":13208,"##거운":13209,"으시":13210,"##더니":13211,"피하":13212,"변하":13213,"위반":13214,"절대로":13215,"병사":13216,"자극":13217,"오늘날":13218,"전원":13219,"자본주의":13220,"란다":13221,"진영":13222,"수백":13223,"펀드":13224,"우리나라":13225,"조중동":13226,"몬스터":13227,"늘어나":13228,"겨울":13229,"스타일":13230,"고정":13231,"안철수":13232,"거라":13233,"산다":13234,"단식":13235,"이만":13236,"직전":13237,"가수":13238,"그려":13239,"아웃":13240,"극복":13241,"문가":13242,"불만":13243,"굉장히":13244,"구입":13245,"알리":13246,"는군":13247,"쩝쩝":13248,"기울":13249,"도전":13250,"윤미":13251,"벌레":13252,"맞춰":13253,"떨어져":13254,"여부":13255,"귀족":13256,"탈출":13257,"##민주":13258,"금액":13259,"가해자":13260,"정신병자":13261,"나아가":13262,"##ic":13263,"든다":13264,"공중":13265,"이득":13266,"무죄":13267,"혐오":13268,"억지":13269,"전염":13270,"그러므로":13271,"충성":13272,"관점":13273,"폭행":13274,"새기":13275,"태어나":13276,"파이":13277,"마디":13278,"전해":13279,"계기":13280,"스런":13281,"속성":13282,"리얼":13283,"경계":13284,"함부":13285,"신분":13286,"구요":13287,"나갈":13288,"변명":13289,"버린다":13290,"질서":13291,"둘째":13292,"출발":13293,"종합":13294,"케이":13295,"허용":13296,"영원히":13297,"야구":13298,"팔아먹":13299,"공항":13300,"식사":13301,"식민지":13302,"치매":13303,"지니":13304,"혈세":13305,"김일":13306,"예배":13307,"더군":13308,"##트리":13309,"똑똑":13310,"중단":13311,"신체":13312,"지상":13313,"스트레스":13314,"고마":13315,"애비":13316,"##긴다":13317,"일당":13318,"화이팅":13319,"출시":13320,"고양":13321,"해봐":13322,"##로스":13323,"학습":13324,"선정":13325,"빠진":13326,"정해":13327,"연락":13328,"살펴보":13329,"미개":13330,"크기":13331,"식당":13332,"해졌":13333,"인원":13334,"어째":13335,"대우":13336,"운명":13337,"노릇":13338,"힘내":13339,"꺼져":13340,"원하":13341,"중소":13342,"핑계":13343,"이승":13344,"등급":13345,"자산":13346,"윤미향":13347,"계시":13348,"먹이":13349,"설득":13350,"온라인":13351,"##고기":13352,"욕먹":13353,"문정부":13354,"평범":13355,"존나":13356,"부패":13357,"대장":13358,"바탕":13359,"학자":13360,"전반":13361,"폭탄":13362,"건가요":13363,"몇몇":13364,"했으니":13365,"잖아요":13366,"지껄":13367,"##구석":13368,"법률":13369,"시체":13370,"대기":13371,"저게":13372,"당할":13373,"##it":13374,"유전":13375,"##연히":13376,"크리스":13377,"가로":13378,"절차":13379,"붙이":13380,"보조":13381,"##이도":13382,"위키":13383,"한참":13384,"이웃":13385,"소송":13386,"특검":13387,"함부로":13388,"518":13389,"확정":13390,"기소":13391,"기원":13392,"소중":13393,"저희":13394,"반영":13395,"김대중":13396,"##잡이":13397,"였으나":13398,"##타기":13399,"선전":13400,"인천":13401,"놀이":13402,"청소년":13403,"소문":13404,"박원":13405,"종이":13406,"단순히":13407,"마누":13408,"내세":13409,"어휴":13410,"2008":13411,"드러내":13412,"실현":13413,"가게":13414,"지켜보":13415,"고맙":13416,"소련":13417,"표창":13418,"일반인":13419,"부상":13420,"방사능":13421,"한정":13422,"##니스":13423,"흐름":13424,"아저":13425,"살려":13426,"남한":13427,"계급":13428,"##is":13429,"북괴":13430,"##레이드":13431,"떠올":13432,"미소":13433,"긍정":13434,"##버스":13435,"김일성":13436,"어깨":13437,"몰라도":13438,"앨범":13439,"##무리":13440,"물어":13441,"지능":13442,"계열":13443,"감시":13444,"재난":13445,"폐기":13446,"km":13447,"아저씨":13448,"자네":13449,"강의":13450,"종자":13451,"미쳤":13452,"투입":13453,"아깝":13454,"새벽":13455,"아까":13456,"한두":13457,"절반":13458,"##le":13459,"적당히":13460,"확산":13461,"복잡":13462,"젊은이":13463,"단위":13464,"권한":13465,"으라고":13466,"주목":13467,"짐승":13468,"아닌지":13469,"공격력":13470,"##혜원":13471,"비행기":13472,"이스":13473,"2009":13474,"##어버":13475,"할아버지":13476,"배운":13477,"못한다":13478,"줘서":13479,"좌우":13480,"그대":13481,"##친다":13482,"장치":13483,"미쳐":13484,"일행":13485,"물가":13486,"아름다운":13487,"##너스":13488,"이슈":13489,"이루어지":13490,"##란드":13491,"연관":13492,"취하":13493,"바르":13494,"애니메":13495,"부하":13496,"패턴":13497,"철도":13498,"대안":13499,"진중권":13500,"각자":13501,"괜히":13502,"KBS":13503,"확장":13504,"193":13505,"배상":13506,"갖추":13507,"##오르":13508,"텔레":13509,"고위":13510,"정경":13511,"공동체":13512,"인증":13513,"선발":13514,"##워하":13515,"##구요":13516,"채널":13517,"즐기":13518,"흘리":13519,"찬양":13520,"된다면":13521,"인재":13522,"추종":13523,"연대":13524,"받아들이":13525,"죽인":13526,"반도":13527,"역겹":13528,"손혜원":13529,"기여":13530,"쓰이":13531,"구리":13532,"무한":13533,"아마도":13534,"압박":13535,"요인":13536,"신앙":13537,"강요":13538,"대만":13539,"지닌":13540,"실행":13541,"물타기":13542,"공유":13543,"수요":13544,"올바":13545,"은가":13546,"획득":13547,"표기":13548,"통한":13549,"수호":13550,"재정":13551,"제재":13552,"고기":13553,"버려":13554,"심한":13555,"실질":13556,"데이터":13557,"제정신":13558,"길래":13559,"모조리":13560,"의료진":13561,"공통":13562,"혐의":13563,"버릴":13564,"대리":13565,"##저기":13566,"카메":13567,"매달":13568,"여기저기":13569,"낭비":13570,"명칭":13571,"살아남":13572,"회담":13573,"1000":13574,"일종":13575,"이겨":13576,"일찍":13577,"감방":13578,"후회":13579,"십시오":13580,"며칠":13581,"자존심":13582,"어쨌":13583,"##기업":13584,"마땅":13585,"데뷔":13586,"내게":13587,"원리":13588,"원작":13589,"용어":13590,"들리":13591,"다섯":13592,"준다고":13593,"올해":13594,"적자":13595,"무릎":13596,"포장":13597,"비상":13598,"들려":13599,"##젝트":13600,"세트":13601,"내내":13602,"들어간":13603,"현금":13604,"애니메이션":13605,"객관":13606,"파티":13607,"뛰어":13608,"우습":13609,"끌려":13610,"작중":13611,"##직자":13612,"점수":13613,"##마트":13614,"본래":13615,"정규":13616,"패스":13617,"꼬리":13618,"발악":13619,"뇌물":13620,"자유민주":13621,"발달":13622,"키워":13623,"미디어":13624,"구축":13625,"옮겨":13626,"되돌":13627,"보일":13628,"드립니다":13629,"수학":13630,"거두":13631,"돌아다니":13632,"구간":13633,"쉬운":13634,"마누라":13635,"배달":13636,"##시마":13637,"연습":13638,"여유":13639,"운행":13640,"윤리":13641,"공주":13642,"거주":13643,"설계":13644,"도중":13645,"촬영":13646,"혁신":13647,"이렇":13648,"##어져":13649,"박살":13650,"맘대로":13651,"검토":13652,"투명":13653,"연봉":13654,"통화":13655,"커피":13656,"##준표":13657,"노리":13658,"뛰어난":13659,"탄생":13660,"의존":13661,"재벌":13662,"항목":13663,"비싼":13664,"균형":13665,"한쪽":13666,"전용":13667,"는다면":13668,"성폭행":13669,"날아":13670,"홍준표":13671,"##야지":13672,"최선":13673,"올린":13674,"무사":13675,"고집":13676,"작년":13677,"수구":13678,"##파이":13679,"공화국":13680,"실체":13681,"깊이":13682,"45":13683,"임무":13684,"##다란":13685,"벌금":13686,"채용":13687,"김경":13688,"조각":13689,"상위":13690,"어려움":13691,"저자":13692,"동양":13693,"##ou":13694,"숨기":13695,"할려고":13696,"자유민주주의":13697,"독재자":13698,"메인":13699,"자유당":13700,"어이없":13701,"멀쩡":13702,"##센트":13703,"검증":13704,"신기":13705,"내보":13706,"깨달":13707,"필수":13708,"이라도":13709,"점령":13710,"유도":13711,"아동":13712,"죽일":13713,"남기":13714,"시켜서":13715,"경고":13716,"전사":13717,"잠깐":13718,"몰아":13719,"생물":13720,"인하":13721,"2020":13722,"어지":13723,"부러":13724,"존중":13725,"명분":13726,"건축":13727,"날리":13728,"왜냐하면":13729,"주가":13730,"최대한":13731,"포인트":13732,"복수":13733,"아가":13734,"그놈":13735,"##래도":13736,"발휘":13737,"종료":13738,"매출":13739,"진단":13740,"마주":13741,"누굴":13742,"도구":13743,"알바":13744,"본격":13745,"비중":13746,"36":13747,"호텔":13748,"인력":13749,"##저히":13750,"경기도":13751,"만일":13752,"전세":13753,"농단":13754,"정식":13755,"허가":13756,"고작":13757,"다소":13758,"타인":13759,"거품":13760,"##아나":13761,"시인":13762,"출산":13763,"좋아하":13764,"셔서":13765,"에피":13766,"언젠가":13767,"어둠":13768,"커뮤":13769,"마무리":13770,"공짜":13771,"해봐라":13772,"커뮤니":13773,"통치":13774,"##구리":13775,"시계":13776,"늘리":13777,"휴가":13778,"##om":13779,"흔히":13780,"일어났":13781,"고유":13782,"발동":13783,"중도":13784,"##소드":13785,"이재명":13786,"시킨다":13787,"동기":13788,"덩어리":13789,"위조":13790,"마케":13791,"으라":13792,"인격":13793,"지하철":13794,"전력":13795,"감히":13796,"홍어":13797,"물러나":13798,"벌이":13799,"구멍":13800,"해명":13801,"합니까":13802,"리라":13803,"거쳐":13804,"메르":13805,"압도":13806,"##조선":13807,"즉시":13808,"명확":13809,"느낀":13810,"깨닫":13811,"아프리카":13812,"걸까":13813,"큰일":13814,"2007":13815,"여인":13816,"오염":13817,"화면":13818,"문장":13819,"카메라":13820,"##거지":13821,"고속":13822,"유형":13823,"미터":13824,"하락":13825,"줄어들":13826,"붕괴":13827,"감각":13828,"사법부":13829,"서양":13830,"지나치":13831,"냐는":13832,"휴대":13833,"흐르":13834,"마인":13835,"채우":13836,"가르치":13837,"치우":13838,"파일":13839,"협회":13840,"조장":13841,"상관없":13842,"엄청나":13843,"차려라":13844,"편의":13845,"제출":13846,"병력":13847,"전파":13848,"파워":13849,"오빠":13850,"긴장":13851,"알아보":13852,"문명":13853,"그리스도":13854,"은지":13855,"워낙":13856,"정말로":13857,"빨간":13858,"배려":13859,"법안":13860,"프로젝트":13861,"##티브":13862,"##로운":13863,"모임":13864,"견제":13865,"여서":13866,"드디어":13867,"왕국":13868,"아군":13869,"조상":13870,"허위":13871,"고문":13872,"허리":13873,"대립":13874,"##시지":13875,"출판":13876,"첫째":13877,"음주":13878,"국적":13879,"느꼈":13880,"갈수록":13881,"거절":13882,"연방":13883,"심장":13884,"해진":13885,"매체":13886,"규칙":13887,"재료":13888,"당사자":13889,"다스":13890,"트리":13891,"가문":13892,"형사":13893,"##re":13894,"나타났":13895,"장점":13896,"진리":13897,"##온다":13898,"우수":13899,"##구려":13900,"베이":13901,"대국":13902,"그야":13903,"##둥이":13904,"##ol":13905,"특이":13906,"오후":13907,"대충":13908,"폐쇄":13909,"지위":13910,"대가":13911,"만난":13912,"신라":13913,"공약":13914,"##비아":13915,"파리":13916,"드래곤":13917,"수비":13918,"사내":13919,"괴물":13920,"회원":13921,"전라":13922,"써서":13923,"##르트":13924,"예측":13925,"멈추":13926,"에라이":13927,"##미터":13928,"오브":13929,"엔진":13930,"확신":13931,"수수":13932,"연출":13933,"추미":13934,"도쿄":13935,"몰래":13936,"##as":13937,"불교":13938,"재인":13939,"아우":13940,"조지":13941,"일관":13942,"사단":13943,"무력":13944,"중소기업":13945,"토지":13946,"무너지":13947,"저지르":13948,"올렸":13949,"##다리":13950,"마구":13951,"찾아가":13952,"이슬":13953,"##id":13954,"중공":13955,"백만":13956,"마당":13957,"열린":13958,"조성":13959,"종종":13960,"신화":13961,"유통":13962,"이분":13963,"질병":13964,"##어졌":13965,"침략":13966,"답변":13967,"가졌":13968,"피부":13969,"99":13970,"지원금":13971,"추측":13972,"걸렸":13973,"망신":13974,"난이도":13975,"이른":13976,"구경":13977,"일치":13978,"에피소드":13979,"##수색":13980,"진화":13981,"그린":13982,"요금":13983,"쳐다보":13984,"##000":13985,"00":13986,"데모":13987,"2006":13988,"그지":13989,"##이크":13990,"고양이":13991,"자위":13992,"지대":13993,"되게":13994,"밝혔":13995,"정서":13996,"교도":13997,"고급":13998,"커다란":13999,"종족":14000,"압수수색":14001,"##덩이":14002,"아픈":14003,"배워":14004,"으론":14005,"다면서":14006,"경상도":14007,"비서":14008,"내렸":14009,"아쉬":14010,"세뇌":14011,"위원장":14012,"넘기":14013,"복귀":14014,"전설":14015,"구해":14016,"개그":14017,"개최":14018,"가시":14019,"학문":14020,"하긴":14021,"마침내":14022,"어쩌면":14023,"불렀":14024,"경비":14025,"마케팅":14026,"스피":14027,"수장":14028,"씨부":14029,"초대":14030,"이쪽":14031,"##에도":14032,"죽창":14033,"시나":14034,"처분":14035,"##el":14036,"히로":14037,"학부":14038,"유대":14039,"상실":14040,"출전":14041,"해산":14042,"지네":14043,"이낙":14044,"동질":14045,"2004":14046,"스카":14047,"매년":14048,"원자":14049,"다는데":14050,"가스":14051,"그분":14052,"52":14053,"이라":14054,"여지":14055,"고인":14056,"만났":14057,"##학자":14058,"겁나":14059,"중반":14060,"지향":14061,"붙여":14062,"사망자":14063,"불행":14064,"사리":14065,"봐서":14066,"기어":14067,"재수":14068,"책임지":14069,"바퀴":14070,"모이":14071,"패거리":14072,"##따위":14073,"애기":14074,"신호":14075,"박수":14076,"반도체":14077,"행태":14078,"부서":14079,"밀어":14080,"노트":14081,"##웨이":14082,"기름":14083,"체험":14084,"끝난":14085,"41":14086,"기지":14087,"안타까":14088,"반박":14089,"쓴다":14090,"은퇴":14091,"해군":14092,"##생활":14093,"추방":14094,"그야말로":14095,"파탄":14096,"구원":14097,"기구":14098,"매장":14099,"도저히":14100,"동성":14101,"마스터":14102,"선배":14103,"##클로":14104,"여겨":14105,"2005":14106,"걸레":14107,"내려오":14108,"요새":14109,"이어지":14110,"운용":14111,"하여간":14112,"금방":14113,"##am":14114,"써라":14115,"던져":14116,"어울리":14117,"부문":14118,"체포":14119,"학살":14120,"신상":14121,"으신":14122,"잠재":14123,"따뜻":14124,"명백":14125,"오랫":14126,"수천":14127,"2002":14128,"LG":14129,"32":14130,"소름":14131,"서류":14132,"38":14133,"공천":14134,"꾸준":14135,"틀린":14136,"누르":14137,"특혜":14138,"민생":14139,"외모":14140,"과제":14141,"떨어졌":14142,"끊임":14143,"믿음":14144,"살해":14145,"일가":14146,"중학교":14147,"내려가":14148,"부품":14149,"뒤지":14150,"퍼센트":14151,"신도":14152,"색히":14153,"천안":14154,"늘어":14155,"베네":14156,"동아":14157,"조종":14158,"넘겨":14159,"든가":14160,"감당":14161,"극단":14162,"공원":14163,"한글":14164,"상자":14165,"개성":14166,"탄압":14167,"어리석":14168,"노출":14169,"롯데":14170,"침묵":14171,"위장":14172,"조롱":14173,"출마":14174,"모으":14175,"소모":14176,"예의":14177,"설마":14178,"무료":14179,"자치":14180,"협조":14181,"유니클로":14182,"이낙연":14183,"등신":14184,"전교":14185,"시끄":14186,"무언":14187,"닥치":14188,"꼼수":14189,"바위":14190,"의학":14191,"수당":14192,"소용":14193,"붙잡":14194,"전시":14195,"사령":14196,"극장":14197,"오해":14198,"추미애":14199,"서술":14200,"문제점":14201,"최후":14202,"결합":14203,"법인":14204,"판정":14205,"33":14206,"순서":14207,"일보":14208,"타임":14209,"구별":14210,"간신":14211,"역겨":14212,"발행":14213,"##스타":14214,"전제":14215,"MBC":14216,"나불":14217,"동남":14218,"방지":14219,"연주":14220,"진지":14221,"데이":14222,"는구":14223,"만만":14224,"망할":14225,"증상":14226,"그릇":14227,"의회":14228,"##영상":14229,"안다":14230,"##임금":14231,"무려":14232,"아무래도":14233,"제자":14234,"보여준다":14235,"걸음":14236,"려나":14237,"축제":14238,"개방":14239,"날려":14240,"습관":14241,"신용":14242,"될지":14243,"조만":14244,"개학":14245,"관찰":14246,"양성":14247,"공인":14248,"점차":14249,"접촉":14250,"교환":14251,"화력":14252,"이길":14253,"들어왔":14254,"전면":14255,"의해서":14256,"공평":14257,"마사":14258,"일방":14259,"착한":14260,"나타내":14261,"오만":14262,"허락":14263,"##어먹":14264,"과장":14265,"교과":14266,"직후":14267,"봐요":14268,"감동":14269,"##벌이":14270,"잘라":14271,"언니":14272,"모자라":14273,"위주":14274,"으러":14275,"이만희":14276,"민중":14277,"소통":14278,"##터리":14279,"벌어지":14280,"쓸데":14281,"끔찍":14282,"게이":14283,"장학":14284,"체육":14285,"음성":14286,"유승":14287,"2003":14288,"후쿠":14289,"지점":14290,"##범죄":14291,"후원":14292,"##힌다":14293,"파트":14294,"부추":14295,"도서":14296,"지껄이":14297,"##빨리":14298,"권위":14299,"욕망":14300,"여담":14301,"로봇":14302,"합격":14303,"주말":14304,"이뤄":14305,"##운동":14306,"박원순":14307,"##잖아":14308,"가깝":14309,"191":14310,"동영상":14311,"골라":14312,"끌어":14313,"육체":14314,"연애":14315,"대접":14316,"폭동":14317,"감추":14318,"방영":14319,"그렇지만":14320,"태어난":14321,"##인지":14322,"경력":14323,"틀림":14324,"라면서":14325,"움직임":14326,"갈라":14327,"부끄러":14328,"참조":14329,"유가":14330,"의외":14331,"오랫동안":14332,"남겨":14333,"바뀐":14334,"영향력":14335,"수령":14336,"올바른":14337,"주차":14338,"핸드":14339,"훼손":14340,"입시":14341,"그럼에도":14342,"##쟁이":14343,"국산":14344,"티비":14345,"창피":14346,"이해찬":14347,"바치":14348,"유기":14349,"가려":14350,"우기":14351,"쪽팔":14352,"창출":14353,"이승만":14354,"##ion":14355,"보편":14356,"사죄":14357,"한방":14358,"방위":14359,"부끄러운":14360,"약한":14361,"잡혀":14362,"천하":14363,"한때":14364,"멸망":14365,"하수":14366,"체크":14367,"써야":14368,"패치":14369,"이치":14370,"중독":14371,"일지":14372,"##비전":14373,"흥미":14374,"뉴욕":14375,"지혜":14376,"심정":14377,"무렵":14378,"흡수":14379,"유행":14380,"부처":14381,"대결":14382,"알려져":14383,"축하":14384,"##ing":14385,"이스라":14386,"이순":14387,"감수":14388,"다닌":14389,"김영":14390,"울산":14391,"저주":14392,"마녀":14393,"사격":14394,"조절":14395,"어쨌든":14396,"집어":14397,"무덤":14398,"계층":14399,"느낄":14400,"주둥이":14401,"회피":14402,"졸라":14403,"진입":14404,"인종":14405,"합법":14406,"약점":14407,"단점":14408,"##느님":14409,"김경수":14410,"들어갈":14411,"##et":14412,"글로":14413,"스페인":14414,"어두":14415,"지겹":14416,"셔야":14417,"저지른":14418,"뭔데":14419,"최강":14420,"손실":14421,"밀리":14422,"정하":14423,"하느님":14424,"물려":14425,"엉망":14426,"이내":14427,"머물":14428,"주먹":14429,"끌어내":14430,"해제":14431,"숨겨":14432,"챔피":14433,"조만간":14434,"들어서":14435,"범인":14436,"##지르":14437,"정수":14438,"양식":14439,"최저임금":14440,"미아":14441,"보건":14442,"중립":14443,"독도":14444,"으려는":14445,"활성":14446,"게시":14447,"보안":14448,"봉쇄":14449,"언론사":14450,"바쁘":14451,"부채":14452,"아나":14453,"간호":14454,"당황":14455,"협의":14456,"향상":14457,"단속":14458,"코드":14459,"간부":14460,"와이":14461,"화장실":14462,"##텐츠":14463,"로스":14464,"대대":14465,"사라졌":14466,"장식":14467,"모순":14468,"시나리오":14469,"안내":14470,"48":14471,"가라":14472,"매력":14473,"이스라엘":14474,"표준":14475,"경북":14476,"천국":14477,"라운드":14478,"변신":14479,"북쪽":14480,"게이트":14481,"##프레":14482,"걸쳐":14483,"고쳐":14484,"엔딩":14485,"재미있":14486,"가사":14487,"강원":14488,"넘치":14489,"지진":14490,"왼쪽":14491,"협정":14492,"자제":14493,"정지":14494,"환영":14495,"라디오":14496,"모시":14497,"소위":14498,"다녔":14499,"아이돌":14500,"할려":14501,"싸워":14502,"급여":14503,"신세":14504,"천천":14505,"남쪽":14506,"반미":14507,"신학":14508,"방안":14509,"밀려":14510,"영토":14511,"링크":14512,"수시":14513,"천천히":14514,"열리":14515,"옮기":14516,"죽였":14517,"출입":14518,"자아":14519,"자발":14520,"항의":14521,"이슬람":14522,"장수":14523,"지명":14524,"테이":14525,"마인드":14526,"매번":14527,"널리":14528,"쟁이":14529,"##시고":14530,"들어온":14531,"대박":14532,"환상":14533,"가르쳐":14534,"속이":14535,"관계자":14536,"찌질":14537,"인수":14538,"외면":14539,"견해":14540,"또라이":14541,"가요":14542,"대륙":14543,"진상":14544,"경쟁력":14545,"스마트":14546,"대학생":14547,"전술":14548,"펼쳐":14549,"초딩":14550,"작정":14551,"마트":14552,"##그리":14553,"다물":14554,"온다":14555,"임시":14556,"장학금":14557,"편성":14558,"소프트":14559,"업적":14560,"보인":14561,"앞장":14562,"미술":14563,"연구소":14564,"으리":14565,"음모":14566,"사무실":14567,"##ac":14568,"거든요":14569,"오버":14570,"##그릇":14571,"성립":14572,"##거나":14573,"1990":14574,"##il":14575,"나타난":14576,"표창장":14577,"진작":14578,"대법":14579,"각성":14580,"본부":14581,"하드":14582,"시청자":14583,"##르크":14584,"채워":14585,"추적":14586,"세이":14587,"##벌레":14588,"180":14589,"열받":14590,"어릴":14591,"에서부터":14592,"그쪽":14593,"나대":14594,"는데요":14595,"가볍":14596,"하여튼":14597,"미션":14598,"하위":14599,"보급":14600,"새롭":14601,"발광":14602,"시내":14603,"입맛":14604,"반란":14605,"부장":14606,"전염병":14607,"국익":14608,"##리스트":14609,"근로자":14610,"##나다":14611,"아이디어":14612,"150":14613,"성경":14614,"어마":14615,"##나가":14616,"소방":14617,"서서":14618,"열차":14619,"회수":14620,"전차":14621,"카이":14622,"강도":14623,"암살":14624,"서구":14625,"##리즘":14626,"심사":14627,"##대가리":14628,"신념":14629,"김성":14630,"SK":14631,"떳떳":14632,"구석":14633,"비디오":14634,"주머니":14635,"아카":14636,"스펙":14637,"만세":14638,"때로":14639,"##석희":14640,"겁니까":14641,"사자":14642,"예방":14643,"수리":14644,"꼰대":14645,"보소":14646,"##치기":14647,"원수":14648,"메시지":14649,"메르스":14650,"사라져":14651,"도발":14652,"충돌":14653,"익숙":14654,"##구니":14655,"이적":14656,"192":14657,"진술":14658,"시골":14659,"교류":14660,"##낸다":14661,"운전자":14662,"약하":14663,"줄여":14664,"지령":14665,"임신":14666,"62":14667,"추락":14668,"인용":14669,"농민":14670,"침해":14671,"월드컵":14672,"버려야":14673,"디지털":14674,"##그러":14675,"따라가":14676,"오류":14677,"황금":14678,"배웠":14679,"지소":14680,"망가":14681,"법칙":14682,"아스":14683,"기운":14684,"오른쪽":14685,"연설":14686,"허구":14687,"정유":14688,"왕따":14689,"을려고":14690,"전작":14691,"##권자":14692,"먹여":14693,"취재":14694,"잔인":14695,"감안":14696,"타입":14697,"저딴":14698,"##해야":14699,"예외":14700,"##토록":14701,"성범죄":14702,"싱글":14703,"동남아":14704,"텔레비전":14705,"가져가":14706,"맡기":14707,"버프":14708,"에스":14709,"이순신":14710,"현명":14711,"2001":14712,"한자":14713,"측정":14714,"욕구":14715,"논쟁":14716,"부지":14717,"진정한":14718,"글자":14719,"약자":14720,"무언가":14721,"투수":14722,"지사":14723,"너거":14724,"가질":14725,"자세히":14726,"01":14727,"재단":14728,"대개":14729,"영입":14730,"알려진":14731,"호주":14732,"통수":14733,"다던":14734,"제압":14735,"##아이":14736,"##들이":14737,"클래":14738,"34":14739,"치명":14740,"다닐":14741,"지인":14742,"애플":14743,"파업":14744,"현지":14745,"재능":14746,"식물":14747,"사드":14748,"악질":14749,"파견":14750,"차기":14751,"마라":14752,"##매매":14753,"지불":14754,"살짝":14755,"##핵화":14756,"비핵화":14757,"내면":14758,"색깔":14759,"압력":14760,"터진":14761,"쇼핑":14762,"밥그릇":14763,"##로그":14764,"오죽":14765,"선호":14766,"대량":14767,"아닙니까":14768,"커녕":14769,"세운":14770,"타자":14771,"사안":14772,"내지":14773,"끊임없이":14774,"한숨":14775,"광장":14776,"맛있":14777,"위로":14778,"전공":14779,"충실":14780,"작곡":14781,"김치":14782,"마음대로":14783,"400":14784,"귀신":14785,"으세요":14786,"무척":14787,"사원":14788,"니들":14789,"상인":14790,"멋진":14791,"단기":14792,"속하":14793,"트랙":14794,"증언":14795,"양쪽":14796,"##bs":14797,"그라":14798,"매수":14799,"차려":14800,"초월":14801,"장착":14802,"법정":14803,"##의자":14804,"상담":14805,"앞뒤":14806,"특권":14807,"지리":14808,"글로벌":14809,"져서":14810,"소멸":14811,"빌려":14812,"##리트":14813,"화려":14814,"동참":14815,"가구":14816,"절망":14817,"꾸준히":14818,"맞이":14819,"누나":14820,"모욕":14821,"##동생":14822,"호소":14823,"생성":14824,"눈앞":14825,"세포":14826,"고구려":14827,"구먼":14828,"##랑이":14829,"##us":14830,"퀘스트":14831,"원장":14832,"리스트":14833,"오프":14834,"근접":14835,"사물":14836,"어떨":14837,"천재":14838,"네트":14839,"저놈":14840,"망한":14841,"예비":14842,"1980":14843,"포르":14844,"면허":14845,"반발":14846,"성추":14847,"단독":14848,"서버":14849,"맥주":14850,"한국어":14851,"##러리":14852,"교주":14853,"고치":14854,"형편":14855,"이야말로":14856,"편안":14857,"자율":14858,"관념":14859,"날뛰":14860,"필리":14861,"왕조":14862,"내린":14863,"김종":14864,"면상":14865,"시비":14866,"기쁨":14867,"특유":14868,"거듭":14869,"우스":14870,"여태":14871,"욕하":14872,"소신":14873,"은근":14874,"잡지":14875,"성실":14876,"스님":14877,"흑인":14878,"##다른":14879,"타이틀":14880,"출근":14881,"회계":14882,"##50":14883,"##운전":14884,"망했":14885,"화학":14886,"육군":14887,"양보":14888,"부드":14889,"##걸이":14890,"준다는":14891,"일시":14892,"인공":14893,"##나이":14894,"들어와":14895,"만날":14896,"대북":14897,"방치":14898,"자르":14899,"화폐":14900,"얼른":14901,"우울":14902,"적응":14903,"심해":14904,"디스":14905,"씨부리":14906,"취임":14907,"그만두":14908,"##워크":14909,"넘쳐":14910,"발목":14911,"보존":14912,"고시":14913,"엄격":14914,"태어났":14915,"곳곳":14916,"유발":14917,"개별":14918,"IM":14919,"도달":14920,"개국":14921,"맞서":14922,"고백":14923,"가방":14924,"깡패":14925,"침대":14926,"분양":14927,"전광":14928,"일어날":14929,"매도":14930,"방탄":14931,"인형":14932,"##시스":14933,"억지로":14934,"성추행":14935,"세끼":14936,"전교조":14937,"챔피언":14938,"다가오":14939,"선거법":14940,"박탈":14941,"관료":14942,"간섭":14943,"동성애":14944,"대항":14945,"스테이지":14946,"수집":14947,"악화":14948,"의자":14949,"고전":14950,"여경":14951,"찾아보":14952,"##다지":14953,"추경":14954,"부딪":14955,"상하":14956,"PC":14957,"영감":14958,"조약":14959,"투자자":14960,"위력":14961,"끼치":14962,"서서히":14963,"단단":14964,"계정":14965,"열정":14966,"##주의자":14967,"지르":14968,"시전":14969,"유출":14970,"식구":14971,"조카":14972,"손석희":14973,"더냐":14974,"좌익":14975,"흔적":14976,"윤석렬":14977,"공지":14978,"결승":14979,"##거렸":14980,"각오":14981,"흥분":14982,"사악":14983,"퇴출":14984,"##같이":14985,"부른다":14986,"궁극":14987,"저작":14988,"보관":14989,"김학":14990,"주관":14991,"##어준":14992,"나아":14993,"기체":14994,"나빠":14995,"독립운동":14996,"어려워":14997,"왕자":14998,"져라":14999,"김어준":15000,"아부":15001,"선고":15002,"##ot":15003,"배제":15004,"페이":15005,"평양":15006,"올라오":15007,"더군요":15008,"교도소":15009,"대원":15010,"##식간":15011,"내밀":15012,"소원":15013,"저건":15014,"오토":15015,"식이":15016,"당원":15017,"김제":15018,"쯧쯧":15019,"코미":15020,"##하여":15021,"스위":15022,"더블":15023,"vs":15024,"가을":15025,"아쉽":15026,"하도":15027,"##립니다":15028,"장갑":15029,"이루어":15030,"대갈":15031,"민폐":15032,"신부":15033,"증권":15034,"영장":15035,"구성원":15036,"유전자":15037,"날개":15038,"이재용":15039,"무게":15040,"##ed":15041,"거울":15042,"작자":15043,"전후":15044,"생각나":15045,"는구만":15046,"강경":15047,"부당":15048,"호남":15049,"일으킨":15050,"##피아":15051,"포지":15052,"##ow":15053,"오픈":15054,"심상":15055,"웃긴":15056,"답니다":15057,"국립":15058,"캐나다":15059,"전역":15060,"##지사":15061,"모지":15062,"##바이":15063,"크로":15064,"수립":15065,"향하":15066,"공단":15067,"케이스":15068,"이틀":15069,"##크스":15070,"수고":15071,"순식간":15072,"길거리":15073,"분쟁":15074,"카운":15075,"인정받":15076,"가벼":15077,"한남":15078,"해진다":15079,"이루어진":15080,"짐작":15081,"성매매":15082,"자전":15083,"옵션":15084,"줄어":15085,"##데이트":15086,"승인":15087,"부들":15088,"법대":15089,"신성":15090,"죄송":15091,"처지":15092,"유용":15093,"마이크":15094,"업데이트":15095,"계신":15096,"신중":15097,"잣대":15098,"소장":15099,"##업자":15100,"성질":15101,"레드":15102,"공직자":15103,"##란히":15104,"구청":15105,"식품":15106,"지수":15107,"입법":15108,"##합니다":15109,"##구멍":15110,"엉뚱":15111,"종일":15112,"족속":15113,"별도":15114,"합류":15115,"비유":15116,"승부":15117,"하여금":15118,"그런지":15119,"더듬":15120,"국군":15121,"생길":15122,"개조":15123,"적합":15124,"느니":15125,"밴드":15126,"날씨":15127,"배틀":15128,"별명":15129,"강아지":15130,"경호":15131,"독점":15132,"정답":15133,"##루스":15134,"대미지":15135,"상업":15136,"부디":15137,"매매":15138,"가상":15139,"막대":15140,"양산":15141,"입원":15142,"시달":15143,"포켓":15144,"단일":15145,"입증":15146,"대지":15147,"십니다":15148,"처형":15149,"돌아왔":15150,"패러":15151,"깜짝":15152,"발음":15153,"감염자":15154,"삼국":15155,"달린":15156,"이단":15157,"치르":15158,"앙이":15159,"학대":15160,"홈런":15161,"대체로":15162,"간주":15163,"##케이션":15164,"버려라":15165,"서초":15166,"원정":15167,"내보내":15168,"일러":15169,"비로":15170,"그림자":15171,"선교":15172,"고스":15173,"##트롤":15174,"페르":15175,"주한":15176,"정착":15177,"고는":15178,"놀랍":15179,"집착":15180,"줘도":15181,"연계":15182,"휴대폰":15183,"##ig":15184,"나이트":15185,"루트":15186,"민정":15187,"비트":15188,"축소":15189,"보낼":15190,"##웨어":15191,"더구나":15192,"약국":15193,"돼서":15194,"식량":15195,"아메":15196,"히트":15197,"앞잡이":15198,"꿈꾸":15199,"대학원":15200,"##풀이":15201,"갑니다":15202,"##혀서":15203,"동작":15204,"마크":15205,"교과서":15206,"미국인":15207,"스크":15208,"피아":15209,"주기":15210,"그다지":15211,"1999":15212,"해소":15213,"푸른":15214,"탈락":15215,"야마":15216,"막히":15217,"도리":15218,"억압":15219,"어딘":15220,"즐거":15221,"난민":15222,"착용":15223,"터져":15224,"두려움":15225,"종목":15226,"골프":15227,"징징":15228,"일기":15229,"강행":15230,"점심":15231,"그치":15232,"회견":15233,"코미디":15234,"긴급":15235,"돌아온":15236,"안중":15237,"##os":15238,"중재":15239,"부도":15240,"교인":15241,"몰락":15242,"상속":15243,"##남도":15244,"비웃":15245,"요원":15246,"과도":15247,"1998":15248,"비극":15249,"기적":15250,"상사":15251,"기차":15252,"구현":15253,"마나":15254,"놔두":15255,"군주":15256,"미스":15257,"온통":15258,"코스프레":15259,"제주도":15260,"결심":15261,"고도":15262,"아픔":15263,"국토":15264,"이대로":15265,"품질":15266,"전망":15267,"괴롭히":15268,"##ct":15269,"박스":15270,"에다가":15271,"내주":15272,"관광객":15273,"##리티":15274,"모인":15275,"잔뜩":15276,"떠드":15277,"척하":15278,"돌파":15279,"다시피":15280,"미니":15281,"국무":15282,"휘둘":15283,"올릴":15284,"소나":15285,"일세":15286,"충이":15287,"취득":15288,"였을":15289,"마법사":15290,"태풍":15291,"쳐서":15292,"창작":15293,"안달":15294,"해질":15295,"장자":15296,"어려울":15297,"개편":15298,"김제동":15299,"꺼져라":15300,"##레이션":15301,"##백과":15302,"노란":15303,"190":15304,"관리자":15305,"몰아내":15306,"조폭":15307,"어르":15308,"근육":15309,"환장":15310,"씌우":15311,"전선":15312,"머릿":15313,"삭발":15314,"떠났":15315,"스러워":15316,"54":15317,"##교육":15318,"직무":15319,"튀어나":15320,"##un":15321,"남용":15322,"작동":15323,"형상":15324,"손님":15325,"연상":15326,"다크":15327,"목록":15328,"돌아보":15329,"##두르":15330,"딱히":15331,"발상":15332,"남부":15333,"사업자":15334,"간접":15335,"적대":15336,"1997":15337,"기동":15338,"에어":15339,"화살":15340,"사로":15341,"일으켜":15342,"독특":15343,"호기":15344,"낸다":15345,"군데":15346,"of":15347,"충청":15348,"신속":15349,"잡히":15350,"바깥":15351,"아키":15352,"아끼":15353,"##는데":15354,"농업":15355,"추악":15356,"내려와":15357,"학부모":15358,"##마스":15359,"네트워크":15360,"신비":15361,"비평":15362,"퍼지":15363,"##일러":15364,"라이트":15365,"주력":15366,"바지":15367,"##ad":15368,"십시요":15369,"장교":15370,"비로소":15371,"##마니":15372,"37":15373,"인디":15374,"시티":15375,"도서관":15376,"IMF":15377,"전적":15378,"관여":15379,"역적":15380,"박지":15381,"염병":15382,"로드":15383,"연령":15384,"피우":15385,"애매":15386,"위키백과":15387,"실장":15388,"정직":15389,"더더":15390,"대강":15391,"안심":15392,"일자":15393,"손잡":15394,"받아들여":15395,"##보이":15396,"두드":15397,"완료":15398,"가져다":15399,"곧바로":15400,"연극":15401,"지자":15402,"광역":15403,"사모":15404,"음주운전":15405,"회전":15406,"핸드폰":15407,"간절":15408,"영양":15409,"정원":15410,"홀로":15411,"꺼리":15412,"정비":15413,"##렴치":15414,"추세":15415,"세종":15416,"파렴치":15417,"나타난다":15418,"데스":15419,"소릴":15420,"##페이지":15421,"만남":15422,"놀리":15423,"합쳐":15424,"태평":15425,"병역":15426,"와라":15427,"보고서":15428,"##bc":15429,"##엘라":15430,"도박":15431,"포스":15432,"지우":15433,"국경":15434,"모험":15435,"알렉":15436,"제로":15437,"##통일":15438,"부작":15439,"라던":15440,"컨트롤":15441,"싸이":15442,"떠오르":15443,"가면":15444,"선조":15445,"어벙":15446,"명성":15447,"색기":15448,"곤란":15449,"쓸모":15450,"나섰":15451,"페이지":15452,"홈페이지":15453,"중계":15454,"막상":15455,"방송국":15456,"증오":15457,"즉각":15458,"55":15459,"응답":15460,"비전":15461,"스승":15462,"아리":15463,"바람직":15464,"예언":15465,"##어마":15466,"행성":15467,"셋째":15468,"찍소리":15469,"동조":15470,"호흡":15471,"수소":15472,"페미니":15473,"스코":15474,"소화":15475,"사로잡":15476,"유승민":15477,"유래":15478,"선출":15479,"강사":15480,"주자":15481,"인건":15482,"지역구":15483,"습격":15484,"창문":15485,"빠졌":15486,"의장":15487,"되찾":15488,"모여서":15489,"금리":15490,"중화":15491,"입구":15492,"The":15493,"근원":15494,"납치":15495,"슬픔":15496,"피곤":15497,"카르":15498,"75":15499,"저렴":15500,"##느리":15501,"살림":15502,"##태우":15503,"계단":15504,"별개":15505,"업계":15506,"그리하여":15507,"지식인":15508,"팔리":15509,"mm":15510,"경유":15511,"잘난":15512,"눌러":15513,"지성":15514,"과목":15515,"다행히":15516,"라이브":15517,"##하나":15518,"으셨":15519,"화재":15520,"막장":15521,"말투":15522,"원조":15523,"베르":15524,"당국":15525,"무상":15526,"이주":15527,"##통수":15528,"관심없":15529,"함정":15530,"자칭":15531,"길이":15532,"흔들리":15533,"어르신":15534,"석방":15535,"뛰어나":15536,"레오":15537,"채택":15538,"저능":15539,"전광훈":15540,"인과":15541,"틀리":15542,"필드":15543,"조센":15544,"테크":15545,"스케":15546,"책상":15547,"스파이":15548,"화이트":15549,"부적":15550,"줄줄":15551,"잠수":15552,"격차":15553,"하얀":15554,"더더욱":15555,"빠리":15556,"세웠":15557,"김진":15558,"면제":15559,"아사":15560,"전직":15561,"눈빛":15562,"내려놓":15563,"펼치":15564,"어마어마":15565,"실정":15566,"체결":15567,"39":15568,"조화":15569,"정기":15570,"후배":15571,"귀찮":15572,"개무":15573,"보여준":15574,"급격":15575,"득점":15576,"신발":15577,"##대표":15578,"출장":15579,"떨어질":15580,"##야마":15581,"42":15582,"포켓몬":15583,"무관":15584,"주둔":15585,"교황":15586,"한겨":15587,"강점":15588,"계승":15589,"고의":15590,"친절":15591,"보임":15592,"백인":15593,"구도":15594,"머저리":15595,"입술":15596,"수영":15597,"들으면":15598,"공산주의자":15599,"포지션":15600,"용도":15601,"제약":15602,"스마트폰":15603,"가즈":15604,"비자":15605,"파란":15606,"자화":15607,"이른바":15608,"중앙일보":15609,"##수엘라":15610,"반역":15611,"유죄":15612,"##타인":15613,"베네수엘라":15614,"바꿀":15615,"인척":15616,"자질":15617,"정황":15618,"동쪽":15619,"장르":15620,"컨셉":15621,"전수":15622,"훗날":15623,"사도":15624,"후진국":15625,"왜놈":15626,"신나":15627,"65":15628,"도망가":15629,"##30":15630,"점프":15631,"##본다":15632,"불량":15633,"아오":15634,"##ch":15635,"두려워":15636,"사거리":15637,"타이밍":15638,"걸려서":15639,"기기":15640,"고사":15641,"공략":15642,"리얼미터":15643,"자전거":15644,"활발":15645,"달라지":15646,"위선자":15647,"##무기":15648,"간다고":15649,"하수인":15650,"멋지":15651,"앞세":15652,"무효":15653,"할래":15654,"왠지":15655,"가관":15656,"게시판":15657,"방패":15658,"아무튼":15659,"손바닥":15660,"장제":15661,"천사":15662,"잡아먹":15663,"대폭":15664,"조언":15665,"다름없":15666,"라구":15667,"지표":15668,"강해":15669,"코치":15670,"싸울":15671,"##릅니다":15672,"국어":15673,"복무":15674,"한동안":15675,"봅시다":15676,"##여행":15677,"여왕":15678,"집구석":15679,"##장난":15680,"쉴드":15681,"미성":15682,"광신":15683,"마비":15684,"필자":15685,"연재":15686,"이언":15687,"생일":15688,"보증":15689,"한단":15690,"하필":15691,"군부":15692,"찾아내":15693,"퇴직":15694,"그런가":15695,"뒤통수":15696,"사지":15697,"간호사":15698,"할인":15699,"노벨":15700,"실상":15701,"누군지":15702,"역전":15703,"갈아":15704,"소주":15705,"제사":15706,"원망":15707,"종식":15708,"신규":15709,"소대":15710,"유엔":15711,"주소":15712,"cm":15713,"출생":15714,"써먹":15715,"모래":15716,"쓸데없":15717,"서쪽":15718,"십자":15719,"출현":15720,"##ay":15721,"미루":15722,"버릇":15723,"소지":15724,"실적":15725,"진압":15726,"라곤":15727,"초래":15728,"계좌":15729,"는겨":15730,"정복":15731,"##끼리":15732,"나치":15733,"집합":15734,"##고생":15735,"수습":15736,"초점":15737,"태국":15738,"침몰":15739,"그딴":15740,"징용":15741,"지켜야":15742,"고수":15743,"##로드":15744,"구상":15745,"영구":15746,"수능":15747,"특별히":15748,"생계":15749,"##북도":15750,"600":15751,"북미":15752,"손자":15753,"참모":15754,"까진":15755,"으려면":15756,"SBS":15757,"걸릴":15758,"동정":15759,"니까요":15760,"메모":15761,"머릿속":15762,"트위":15763,"밝혀졌":15764,"할꺼":15765,"군단":15766,"냉정":15767,"스티":15768,"##무지":15769,"국방부":15770,"배급":15771,"수작":15772,"지킬":15773,"도우":15774,"농담":15775,"녹음":15776,"망한다":15777,"오스":15778,"치킨":15779,"살인마":15780,"요시":15781,"우익":15782,"노후":15783,"브리":15784,"앞두":15785,"##톨릭":15786,"오전":15787,"풍부":15788,"대단히":15789,"년놈":15790,"일삼":15791,"돌아간다":15792,"싫어":15793,"건담":15794,"농사":15795,"수수료":15796,"거치":15797,"공익":15798,"박영":15799,"개뿔":15800,"맥락":15801,"이룬":15802,"쏟아":15803,"갖춘":15804,"떠난":15805,"보석":15806,"수원":15807,"진료":15808,"무서워":15809,"대법원":15810,"끄덕":15811,"라기":15812,"##그레이드":15813,"업그레이드":15814,"##NA":15815,"드물":15816,"구단":15817,"##ir":15818,"대왕":15819,"인근":15820,"##더라":15821,"보병":15822,"누워":15823,"유투":15824,"성별":15825,"부수":15826,"버그":15827,"당한다":15828,"적화":15829,"풀리":15830,"저장":15831,"쪽발":15832,"말리":15833,"접속":15834,"44":15835,"처단":15836,"##이치":15837,"##im":15838,"본능":15839,"토대":15840,"##오스":15841,"저래":15842,"테스트":15843,"콜라":15844,"지출":15845,"##어야":15846,"아름답":15847,"법치":15848,"부류":15849,"건드리":15850,"사령관":15851,"이행":15852,"1996":15853,"진동":15854,"58":15855,"커뮤니케이션":15856,"기각":15857,"강원도":15858,"기만":15859,"함대":15860,"솔로":15861,"최상":15862,"강연":15863,"타워":15864,"기재":15865,"조그":15866,"120":15867,"##가르":15868,"기다려":15869,"가량":15870,"황당":15871,"좌표":15872,"드라이":15873,"얼음":15874,"아녀":15875,"관객":15876,"특기":15877,"변형":15878,"구린":15879,"1970":15880,"수지":15881,"인연":15882,"##ns":15883,"향한":15884,"##모토":15885,"동화":15886,"동지":15887,"전락":15888,"부위":15889,"FC":15890,"원내":15891,"어딜":15892,"세계관":15893,"나간다":15894,"위성":15895,"##빠진":15896,"##트라":15897,"열등":15898,"이마":15899,"목포":15900,"망언":15901,"찌르":15902,"##ve":15903,"##od":15904,"강대":15905,"질질":15906,"타당":15907,"은혜":15908,"모범":15909,"##부인":15910,"한나라":15911,"후기":15912,"02":15913,"놀아나":15914,"한나라당":15915,"저걸":15916,"후쿠시마":15917,"레인":15918,"잃어버":15919,"텍스트":15920,"기뻐":15921,"철거":15922,"리스":15923,"클리어":15924,"백수":15925,"저격":15926,"고르":15927,"본사":15928,"##라우":15929,"##러지":15930,"골드":15931,"##권력":15932,"부를":15933,"쳐도":15934,"인건비":15935,"1995":15936,"바쁜":15937,"조조":15938,"놓여":15939,"##드로":15940,"오스트":15941,"십니까":15942,"건국":15943,"덧붙":15944,"명복":15945,"참전":15946,"기세":15947,"플라":15948,"중시":15949,"쳐들":15950,"여섯":15951,"주둥아리":15952,"##화점":15953,"플래":15954,"백제":15955,"패스트":15956,"취지":15957,"몰아가":15958,"##성이":15959,"교실":15960,"##인물":15961,"##지않":15962,"편향":15963,"유입":15964,"월세":15965,"날아가":15966,"교장":15967,"해골":15968,"탈탈":15969,"보완":15970,"바꾼":15971,"모리":15972,"통상":15973,"목격":15974,"지극":15975,"까닭":15976,"지냈":15977,"서명":15978,"시끄럽":15979,"의뢰":15980,"려다":15981,"재밌":15982,"필리핀":15983,"47":15984,"줘야지":15985,"시야":15986,"몰라서":15987,"채권":15988,"김현":15989,"폭격":15990,"던전":15991,"충족":15992,"영광":15993,"애국자":15994,"하나하나":15995,"해고":15996,"유독":15997,"##어날":15998,"트위터":15999,"##총리":16000,"어지간":16001,"공군":16002,"버튼":16003,"문구":16004,"틀림없":16005,"역량":16006,"코너":16007,"망국":16008,"구름":16009,"무고":16010,"측근":16011,"박물":16012,"정면":16013,"급하":16014,"이래도":16015,"철회":16016,"43":16017,"이닝":16018,"봉인":16019,"##nd":16020,"슬프":16021,"사라진":16022,"피의자":16023,"##번에":16024,"사면":16025,"##어로":16026,"새끼야":16027,"비열":16028,"아랫":16029,"음반":16030,"변동":16031,"브레이":16032,"장례":16033,"주주":16034,"##텐데":16035,"신사":16036,"##소년":16037,"히어로":16038,"된장":16039,"석탄":16040,"으리라":16041,"조민":16042,"유가족":16043,"스탠":16044,"앞장서":16045,"뜨거운":16046,"조기":16047,"개봉":16048,"뻔하":16049,"빌리":16050,"대략":16051,"엑스":16052,"03":16053,"납득":16054,"주범":16055,"##스탄":16056,"##회사":16057,"##ur":16058,"할까요":16059,"클라스":16060,"놓치":16061,"육성":16062,"사명":16063,"우위":16064,"부실":16065,"##자찬":16066,"규명":16067,"자화자찬":16068,"담보":16069,"엘지":16070,"46":16071,"##컨대":16072,"무서워서":16073,"정유라":16074,"분배":16075,"사이버":16076,"순환":16077,"위상":16078,"뚜렷":16079,"질환":16080,"양자":16081,"이정":16082,"분기":16083,"##까봐":16084,"거론":16085,"배출":16086,"##ter":16087,"시집":16088,"깔끔":16089,"##카오":16090,"출처":16091,"화나":16092,"비즈":16093,"호감":16094,"온몸":16095,"모지리":16096,"경로":16097,"신자":16098,"떨어진다":16099,"키스":16100,"##니어":16101,"구제":16102,"고리":16103,"중동":16104,"반사":16105,"##피스":16106,"동반":16107,"드러났":16108,"나마":16109,"주저":16110,"술집":16111,"나선":16112,"경남":16113,"##투리":16114,"청장":16115,"이정부":16116,"학위":16117,"가져오":16118,"런던":16119,"##집니다":16120,"모독":16121,"따져":16122,"정통":16123,"이언주":16124,"이데":16125,"거꾸":16126,"베스트":16127,"견디":16128,"명심":16129,"800":16130,"총기":16131,"사립":16132,"요약":16133,"커지":16134,"가리키":16135,"비추":16136,"망쳐":16137,"추억":16138,"합병":16139,"우연히":16140,"매입":16141,"##새끼":16142,"선포":16143,"이여":16144,"호의":16145,"추잡":16146,"차릴":16147,"개신":16148,"부과":16149,"역겨운":16150,"교육부":16151,"##보드":16152,"지났":16153,"##스레":16154,"향후":16155,"여신":16156,"방어력":16157,"부각":16158,"페이스":16159,"학과":16160,"몽골":16161,"피할":16162,"끌어들":16163,"그간":16164,"본성":16165,"정성":16166,"범법":16167,"내버":16168,"표면":16169,"마이너스":16170,"부른":16171,"귀국":16172,"대국민":16173,"부작용":16174,"자진":16175,"일본어":16176,"St":16177,"편의점":16178,"집사":16179,"물품":16180,"개미":16181,"만주":16182,"##문학":16183,"제법":16184,"수급":16185,"용병":16186,"내수":16187,"성숙":16188,"헤드":16189,"드릴":16190,"오마":16191,"웬만":16192,"##op":16193,"시사":16194,"가드":16195,"태양광":16196,"아이고":16197,"성취":16198,"편법":16199,"유비":16200,"빛나":16201,"##든가":16202,"골목":16203,"원가":16204,"기호":16205,"사방":16206,"생태":16207,"들어와서":16208,"##스럽":16209,"나옴":16210,"완화":16211,"아무렇":16212,"소서":16213,"커뮤니티":16214,"낙태":16215,"집어넣":16216,"박물관":16217,"어쩌다":16218,"물량":16219,"행하":16220,"스키":16221,"##ut":16222,"미성년":16223,"어떡":16224,"모아서":16225,"전범":16226,"구걸":16227,"공안":16228,"발전소":16229,"치밀":16230,"당은":16231,"면역":16232,"이끄":16233,"이집":16234,"해안":16235,"화염":16236,"인턴":16237,"이집트":16238,"편들":16239,"애정":16240,"##전자":16241,"새겨":16242,"증인":16243,"xx":16244,"주간":16245,"기다렸":16246,"밝혀라":16247,"##메달":16248,"유아":16249,"스웨":16250,"항복":16251,"메뉴":16252,"치워":16253,"국왕":16254,"유족":16255,"##NS":16256,"노총":16257,"벌리":16258,"몹시":16259,"날카":16260,"멀티":16261,"슬슬":16262,"들먹":16263,"공학":16264,"일원":16265,"학기":16266,"중고":16267,"석유":16268,"핵무기":16269,"산불":16270,"힘드":16271,"##하루":16272,"재수없":16273,"중세":16274,"쳐라":16275,"터미":16276,"성서":16277,"부추기":16278,"가하":16279,"세습":16280,"내뱉":16281,"아이폰":16282,"##틀러":16283,"섹스":16284,"아울":16285,"때려잡":16286,"양상":16287,"날라":16288,"편입":16289,"미만":16290,"전신":16291,"써도":16292,"가동":16293,"배울":16294,"거꾸로":16295,"친척":16296,"소음":16297,"입력":16298,"서울시":16299,"망상":16300,"이날":16301,"백화점":16302,"내릴":16303,"문화재":16304,"수법":16305,"고지":16306,"언덕":16307,"유혹":16308,"은폐":16309,"후속":16310,"비참":16311,"들어올":16312,"잔치":16313,"비정":16314,"나뉘":16315,"그토록":16316,"헌신":16317,"아가씨":16318,"유포":16319,"이완":16320,"치열":16321,"전방":16322,"보너스":16323,"국격":16324,"애쓰":16325,"북부":16326,"09":16327,"여도":16328,"주년":16329,"실업자":16330,"통장":16331,"주권":16332,"안타까운":16333,"돌렸":16334,"트럭":16335,"려니":16336,"##방식":16337,"커버":16338,"개수":16339,"the":16340,"우월":16341,"어두운":16342,"벌어진":16343,"49":16344,"주의자":16345,"암튼":16346,"돌아갈":16347,"비즈니스":16348,"어처":16349,"최우":16350,"어린아이":16351,"##시코":16352,"게끔":16353,"우유":16354,"달려들":16355,"유산":16356,"보좌":16357,"부럽":16358,"##ag":16359,"뻔한":16360,"##은행":16361,"내세우":16362,"##바지":16363,"맡겨":16364,"보물":16365,"오리지":16366,"상관없이":16367,"늑대":16368,"##로우":16369,"납니다":16370,"버림":16371,"연수":16372,"굴리":16373,"##무라":16374,"파라":16375,"경주":16376,"창의":16377,"한미":16378,"자비":16379,"과학자":16380,"수신":16381,"남아":16382,"광우":16383,"사고방식":16384,"낮추":16385,"우연":16386,"개신교":16387,"물고기":16388,"헬기":16389,"선진":16390,"액션":16391,"구할":16392,"저번":16393,"갔다":16394,"이따위":16395,"##산물":16396,"이제야":16397,"두렵":16398,"먹히":16399,"한결":16400,"1994":16401,"저능아":16402,"놀라운":16403,"침입":16404,"1960":16405,"우물":16406,"창업":16407,"개시":16408,"한겨레":16409,"##세이":16410,"질투":16411,"등장인물":16412,"##고리":16413,"임영":16414,"동급":16415,"기법":16416,"살아온":16417,"스토":16418,"몰리":16419,"국정원":16420,"임종":16421,"##질러":16422,"순진":16423,"장자연":16424,"어쩜":16425,"우방":16426,"수련":16427,"##스티":16428,"돌보":16429,"감기":16430,"소금":16431,"초등학생":16432,"##눈물":16433,"탱크":16434,"광신도":16435,"말기":16436,"사시":16437,"피눈물":16438,"엘리트":16439,"##ER":16440,"부진":16441,"파헤":16442,"똘마니":16443,"타카":16444,"인듯":16445,"정치판":16446,"일체":16447,"##대기":16448,"저축":16449,"줄기":16450,"독서":16451,"어딨":16452,"##봐야":16453,"재생":16454,"장제원":16455,"토막":16456,"방면":16457,"신설":16458,"테마":16459,"가라앉":16460,"주연":16461,"복합":16462,"클래스":16463,"똥개":16464,"경찰서":16465,"##스키":16466,"우롱":16467,"전남":16468,"사마":16469,"꺼지":16470,"퇴근":16471,"후퇴":16472,"동사":16473,"풍경":16474,"95":16475,"##어질":16476,"##까요":16477,"연인":16478,"할배":16479,"##로기":16480,"##런스":16481,"편가르":16482,"참사":16483,"살피":16484,"두둔":16485,"5000":16486,"오를":16487,"동부":16488,"쿠데":16489,"영주":16490,"원주":16491,"학력":16492,"박멸":16493,"새삼":16494,"결단":16495,"##크로":16496,"##도로":16497,"고장":16498,"타락":16499,"66":16500,"북조선":16501,"격려":16502,"지침":16503,"휘두르":16504,"입사":16505,"억제":16506,"김재":16507,"한다며":16508,"심심":16509,"모였":16510,"점유":16511,"수명":16512,"좌절":16513,"들어간다":16514,"택배":16515,"지분":16516,"시신":16517,"##주교":16518,"시발":16519,"했어도":16520,"공업":16521,"취미":16522,"여동생":16523,"돌아와":16524,"추모":16525,"면접":16526,"모른다는":16527,"##의식":16528,"하루빨리":16529,"굴러":16530,"숭배":16531,"동포":16532,"날짜":16533,"정세":16534,"만지":16535,"불꽃":16536,"더라면":16537,"##이즈":16538,"189":16539,"가치관":16540,"민경":16541,"구글":16542,"돌아다":16543,"약해":16544,"복음":16545,"어처구니":16546,"##동자":16547,"명목":16548,"다네":16549,"건드":16550,"충전":16551,"잡아":16552,"취직":16553,"##오리":16554,"엉덩이":16555,"면적":16556,"즐겁":16557,"민감":16558,"창고":16559,"공소":16560,"원천":16561,"사신":16562,"비틀":16563,"매니":16564,"##덜란드":16565,"네덜란드":16566,"대구경":16567,"바퀴벌레":16568,"상가":16569,"변태":16570,"정교":16571,"소유자":16572,"민원":16573,"무인":16574,"##서트":16575,"상당수":16576,"점검":16577,"여사":16578,"서기":16579,"방송사":16580,"브라질":16581,"분단":16582,"패널":16583,"사후":16584,"합성":16585,"오가":16586,"폭락":16587,"미드":16588,"빼돌":16589,"선관":16590,"실은":16591,"호수":16592,"보험료":16593,"화웨이":16594,"정화":16595,"가벼운":16596,"서부":16597,"도배":16598,"취향":16599,"치유":16600,"전투기":16601,"정수기":16602,"불명":16603,"사생활":16604,"호기심":16605,"해외여행":16606,"가톨릭":16607,"업자":16608,"##부들":16609,"오랜만":16610,"승진":16611,"착취":16612,"책임자":16613,"언행":16614,"##ent":16615,"트레이":16616,"금강":16617,"쿠데타":16618,"##뜨린":16619,"부들부들":16620,"오사":16621,"휴식":16622,
[...]
