<s>
<pad>
</s>
<unk>
<mask>
[UNK0]
[UNK1]
[UNK2]
[UNK3]
[UNK4]
[UNK5]
[UNK6]
[UNK7]
[UNK8]
[UNK9]
(
)
[unused2]
[unused3]
[unused4]
[unused5]
[unused6]
[unused7]
[unused8]
[unused9]
[unused10]
[unused11]
[unused12]
[unused13]
[unused14]
[unused15]
[unused16]
[unused17]
[unused18]
[unused19]
[unused20]
[unused21]
[unused22]
[unused23]
[unused24]
[unused25]
[unused26]
[unused27]
[unused28]
[unused29]
[unused30]
[unused31]
[unused32]
[unused33]
[unused34]
[unused35]
[unused36]
[unused37]
[unused38]
[unused39]
[unused40]
[unused41]
[unused42]
[unused43]
[unused44]
[unused45]
[unused46]
[unused47]
[unused48]
[unused49]
[unused50]
[unused51]
[unused52]
[unused53]
[unused54]
[unused55]
[unused56]
[unused57]
[unused58]
[unused59]
[unused60]
[unused61]
[unused62]
[unused63]
[unused64]
[unused65]
[unused66]
[unused67]
[unused68]
[unused69]
[unused70]
[unused71]
[unused72]
[unused73]
[unused74]
[unused75]
[unused76]
[unused77]
[unused78]
[unused79]
[unused80]
[unused81]
[unused82]
[unused83]
[unused84]
[unused85]
[unused86]
[unused87]
[unused88]
[unused89]
[unused90]
[unused91]
[unused92]
[unused93]
[unused94]
[unused95]
[unused96]
[unused97]
[unused98]
[unused99]
[unused100]
[unused101]
[unused102]
[unused103]
[unused104]
[unused105]
[unused106]
[unused107]
[unused108]
[unused109]
[unused110]
[unused111]
[unused112]
[unused113]
[unused114]
[unused115]
[unused116]
[unused117]
[unused118]
[unused119]
[unused120]
[unused121]
[unused122]
[unused123]
[unused124]
[unused125]
[unused126]
[unused127]
[unused128]
[unused129]
[unused130]
[unused131]
[unused132]
[unused133]
[unused134]
[unused135]
[unused136]
[unused137]
[unused138]
[unused139]
[unused140]
[unused141]
[unused142]
[unused143]
[unused144]
[unused145]
[unused146]
[unused147]
[unused148]
[unused149]
[unused150]
[unused151]
[unused152]
[unused153]
[unused154]
[unused155]
[unused156]
[unused157]
[unused158]
[unused159]
[unused160]
[unused161]
[unused162]
[unused163]
[unused164]
[unused165]
[unused166]
[unused167]
[unused168]
[unused169]
[unused170]
[unused171]
[unused172]
[unused173]
[unused174]
[unused175]
[unused176]
[unused177]
[unused178]
[unused179]
[unused180]
[unused181]
[unused182]
[unused183]
[unused184]
[unused185]
[unused186]
[unused187]
[unused188]
[unused189]
[unused190]
[unused191]
[unused192]
[unused193]
[unused194]
[unused195]
[unused196]
[unused197]
[unused198]
[unused199]
!
$
%
,
-
.
/
0
1
2
3
4
5
6
7
8
9
:
?
@
A
B
C
D
E
F
G
H
I
J
K
L
M
N
O
P
Q
R
S
T
U
V
W
X
Y
Z
a
b
c
d
e
f
g
h
i
j
k
l
m
n
o
p
q
r
s
t
u
v
w
x
y
z
~
·
가
각
갂
갃
간
갅
갆
갇
갈
갉
갊
갋
갌
갍
갎
갏
감
갑
값
갓
갔
강
갖
갗
갘
같
갚
갛
개
객
갞
갟
갠
갢
갣
갤
갥
갧
갩
갫
갬
갭
갮
갯
갰
갱
갲
갳
갴
갵
갶
갷
갸
갹
갺
갼
갿
걀
걇
걈
걉
걊
걋
걌
걍
걎
걐
걑
걒
걔
걕
걖
걘
걜
걤
걥
걧
걨
걩
거
걱
걲
걳
건
걵
걶
걷
걸
걹
걺
걻
걼
걽
걾
걿
검
겁
겂
것
겄
겅
겆
겇
겈
겉
겊
겋
게
겍
겎
겏
겐
겒
겓
겔
겖
겙
겚
겛
겜
겝
겞
겟
겠
겡
겢
겣
겤
겥
겦
겧
겨
격
겪
겫
견
겭
겮
겯
결
겱
겲
겳
겴
겵
겷
겸
겹
겺
겻
겼
경
겾
겿
곀
곁
곂
곃
계
곅
곆
곈
곋
곌
곔
곕
곖
곗
곘
곙
곚
곛
곜
곝
곟
고
곡
곢
곣
곤
곧
골
곩
곪
곫
곬
곭
곮
곯
곰
곱
곲
곳
곴
공
곶
곷
곸
곹
곺
곻
과
곽
곾
관
괁
괂
괃
괄
괆
괋
괌
괍
괏
괐
광
괒
괓
괔
괕
괖
괗
괘
괙
괜
괝
괞
괠
괨
괫
괬
괭
괴
괵
괸
괺
괼
굄
굅
굇
굈
굉
굌
교
굑
굔
굗
굘
굚
굠
굡
굣
굤
굥
굦
굧
굨
굩
굪
굫
구
국
굮
굯
군
굱
굲
굳
굴
굵
굶
굷
굸
굹
굺
굻
굼
굽
굾
굿
궀
궁
궂
궃
궄
궅
궆
궇
궈
궉
권
궍
궎
궏
궐
궘
궙
궛
궜
궝
궞
궠
궤
궥
궨
궬
궯
궵
궷
궸
궹
귀
귁
귄
귈
귐
귑
귓
귔
귕
귖
귘
규
귝
균
귣
귤
귦
귬
귭
귯
귱
귲
귴
그
극
귺
귻
근
귽
귾
귿
글
긁
긂
긃
긄
긆
긇
금
급
긊
긋
긌
긍
긎
긏
긐
긑
긒
긓
긔
긕
긘
긛
긜
긤
긥
긧
긨
긩
긬
기
긱
긲
긴
긵
긶
긷
길
긹
긺
긻
긼
긽
긾
긿
김
깁
깂
깃
깄
깅
깆
깇
깈
깉
깊
깋
까
깍
깎
깐
깒
깓
깔
깕
깖
깛
깜
깝
깞
깟
깠
깡
깢
깣
깤
깥
깦
깧
깨
깩
깪
깬
깯
깰
깵
깸
깹
깺
깻
깼
깽
깾
꺀
꺄
꺅
꺆
꺈
꺊
꺌
꺏
꺔
꺕
꺗
꺘
꺙
꺚
꺜
꺠
꺡
꺢
꺤
꺨
꺳
꺴
꺵
꺼
꺽
꺾
껀
껃
껄
껅
껌
껍
껏
껐
껑
껒
껓
껔
껕
껗
께
껙
껚
껜
껠
껨
껩
껫
껬
껭
껮
껰
껳
껴
껵
껶
껸
껼
꼄
꼅
꼇
꼈
꼉
꼊
꼌
꼍
꼏
꼐
꼔
꼣
꼤
꼥
꼨
꼬
꼭
꼮
꼰
꼲
꼳
꼴
꼵
꼶
꼷
꼹
꼻
꼼
꼽
꼿
꽁
꽂
꽃
꽄
꽅
꽆
꽇
꽈
꽉
꽊
꽌
꽐
꽘
꽙
꽛
꽜
꽝
꽠
꽤
꽥
꽦
꽨
꽬
꽴
꽷
꽹
꽼
꾀
꾁
꾄
꾈
꾐
꾕
꾜
꾝
꾠
꾤
꾬
꾭
꾱
꾳
꾸
꾹
꾺
꾼
꾽
꾾
꾿
꿀
꿁
꿂
꿃
꿄
꿆
꿇
꿈
꿉
꿋
꿌
꿍
꿎
꿏
꿐
꿑
꿓
꿔
꿕
꿘
꿜
꿤
꿥
꿧
꿨
꿩
꿬
꿯
꿰
꿱
꿲
꿴
꿸
뀀
뀁
뀃
뀄
뀅
뀈
뀌
뀍
뀐
뀔
뀜
뀝
뀟
뀠
뀡
뀢
뀨
뀩
뀪
뀬
뀰
뀵
뀷
뀸
뀹
뀻
뀽
끄
끅
끆
끈
끉
끊
끋
끌
끍
끎
끏
끐
끓
끔
끕
끗
끘
끙
끚
끛
끜
끝
끞
끟
끠
끡
끤
끨
끰
끱
끵
끼
끽
끾
끿
낀
낂
낃
낄
낅
낇
낋
낌
낍
낎
낏
낐
낑
낒
낓
낔
낕
낖
낗
나
낙
낚
낛
난
낝
낞
낟
날
낡
낢
낣
낤
낥
낦
낧
남
납
낪
낫
났
낭
낮
낯
낰
낱
낲
낳
내
낵
낶
낸
낹
낺
낻
낼
낽
냀
냃
냄
냅
냇
냈
냉
냊
냋
냌
냍
냎
냏
냐
냑
냒
냔
냗
냘
냠
냡
냣
냤
냥
냦
냧
냨
냩
냪
냫
냬
냰
냴
냼
냽
냿
넀
넁
넄
너
넉
넊
넋
넌
넍
넎
넏
널
넑
넒
넓
넔
넖
넗
넘
넙
넚
넛
넜
넝
넞
넟
넠
넡
넢
넣
네
넥
넦
넨
넫
넬
넴
넵
넷
넸
넹
넺
넻
넼
넽
넾
넿
녀
녁
녂
녃
년
녅
녆
녇
녈
녉
녊
녋
녏
념
녑
녓
녔
녕
녖
녗
녘
녙
녚
녛
녜
녝
녠
녤
녬
녭
녯
녰
녱
녴
노
녹
녺
녻
논
녽
녾
녿
놀
놁
놂
놃
놄
놇
놈
놉
놊
놋
놌
농
놎
놏
놐
놑
높
놓
놔
놕
놘
놛
놜
놤
놥
놧
놨
놩
놪
놬
놯
놰
놱
놴
뇀
뇁
뇄
뇅
뇌
뇍
뇐
뇓
뇔
뇜
뇝
뇟
뇠
뇡
뇤
뇨
뇩
뇬
뇭
뇮
뇯
뇰
뇸
뇹
뇻
뇽
뇾
눀
눂
눃
누
눅
눈
눉
눋
눌
눍
눔
눕
눗
눘
눙
눚
눜
눝
눞
눟
눠
눤
눨
눰
눱
눳
눴
눵
눻
눼
눽
뉀
뉄
뉌
뉍
뉑
뉘
뉙
뉜
뉠
뉨
뉩
뉫
뉬
뉭
뉴
뉵
뉸
뉼
늄
늅
늇
늉
늌
늏
느
늑
늒
늓
는
늕
늖
늗
늘
늙
늚
늛
늜
늟
늠
늡
늣
늤
능
늦
늧
늨
늩
늪
늫
늬
늭
늰
늴
늼
늽
늿
닁
닄
닇
니
닉
닊
닌
닍
닏
닐
닑
닒
닗
님
닙
닚
닛
닜
닝
닞
닟
닠
닡
닢
닣
다
닥
닦
닧
단
닩
닪
닫
달
닭
닮
닯
닰
닱
닲
닳
담
답
닶
닷
닸
당
닺
닻
닼
닽
닾
닿
대
댁
댂
댃
댄
댇
댈
댉
댏
댐
댑
댒
댓
댔
댕
댖
댗
댘
댙
댚
댛
댜
댝
댠
댣
댤
댥
댬
댭
댯
댱
댴
댸
댹
댼
덀
덋
덌
덍
더
덕
덖
덗
던
덙
덚
덛
덜
덝
덞
덟
덢
덣
덤
덥
덦
덧
덨
덩
덪
덫
덬
덭
덮
덯
데
덱
덲
덴
덷
델
뎀
뎁
뎃
뎄
뎅
뎆
뎇
뎈
뎉
뎊
뎋
뎌
뎍
뎐
뎓
뎔
뎜
뎝
뎟
뎠
뎡
뎦
뎧
뎨
뎬
뎰
뎽
도
독
돆
돇
돈
돉
돋
돌
돍
돎
돏
돐
돑
돒
돓
돔
돕
돖
돗
돘
동
돚
돛
돜
돝
돞
돟
돠
돡
돤
돨
돩
돰
돱
돳
돴
돵
돶
돸
돼
돽
돾
됀
됃
됄
됋
됌
됍
됏
됐
됑
됒
됔
됗
되
됙
된
됝
됟
될
됡
됢
됣
됤
됥
됦
됨
됩
됫
됬
됭
됮
됯
됰
됱
됲
됳
됴
됵
됸
됻
됼
둄
둅
둇
둉
둊
둋
둍
둏
두
둑
둔
둗
둘
둙
둚
둞
둟
둠
둡
둣
둤
둥
둦
둧
둨
둩
둪
둫
둬
둭
둯
둰
둴
둼
둽
둿
뒀
뒁
뒄
뒇
뒈
뒉
뒌
뒐
뒘
뒙
뒛
뒜
뒝
뒞
뒤
뒥
뒨
뒫
뒬
뒴
뒵
뒷
뒸
뒹
뒺
뒽
뒿
듀
듁
듄
듈
듐
듑
듓
듕
드
득
듞
듟
든
듡
듢
듣
들
듥
듦
듧
듨
듩
듪
듫
듬
듭
듯
듰
등
듲
듳
듴
듵
듶
듷
듸
듹
듼
딀
딈
딉
딋
딍
딒
디
딕
딖
딘
딛
딜
딝
딞
딤
딥
딦
딧
딨
딩
딪
딫
딬
딭
딮
딯
따
딱
딲
딳
딴
딵
딷
딸
딹
딺
딻
딽
딿
땀
땁
땃
땄
땅
땆
땈
땉
땋
때
땍
땎
땐
땓
땔
땜
땝
땟
땠
땡
땢
땣
땤
땦
땧
땨
땩
땬
땰
땸
땽
떄
떅
떈
떌
떔
떗
떘
떙
떠
떡
떢
떣
떤
떥
떦
떧
떨
떩
떪
떫
떯
떰
떱
떳
떴
떵
떶
떷
떸
떹
떺
떻
떼
떽
떾
뗀
뗄
뗌
뗍
뗏
뗐
뗑
뗔
뗗
뗘
뗙
뗜
뗠
뗨
뗩
뗫
뗬
뗭
뗳
뗴
뗵
뗸
뗼
똇
똉
똏
또
똑
똒
똔
똗
똘
똙
똚
똝
똟
똠
똡
똣
똥
똦
똧
똨
똩
똫
똬
똭
똮
똰
똴
똵
똿
뙁
뙇
뙈
뙌
뙛
뙜
뙝
뙡
뙤
뙥
뙨
뙬
뙴
뙷
뙸
뙹
뙿
뚀
뚁
뚈
뚕
뚜
뚝
뚞
뚠
뚢
뚣
뚤
뚥
뚦
뚧
뚨
뚫
뚬
뚭
뚯
뚱
뚴
뚵
뚷
뚸
뚹
뚼
뛀
뛋
뛌
뛍
뛔
뛕
뛥
뛧
뛨
뛬
뛰
뛱
뛴
뛸
뜀
뜁
뜃
뜄
뜅
뜌
뜍
뜐
뜔
뜛
뜝
뜡
뜨
뜩
뜪
뜬
뜮
뜯
뜰
뜱
뜳
뜷
뜸
뜹
뜻
뜼
뜽
뜾
뜿
띀
띁
띃
띄
띅
띈
띌
띔
띕
띗
띙
띟
띠
띡
띤
띧
띨
띰
띱
띳
띴
띵
띶
띸
띻
라
락
띾
띿
란
랁
랂
랃
랄
랅
랆
랇
랈
랉
랊
랋
람
랍
랎
랏
랐
랑
랒
랓
랔
랕
랖
랗
래
랙
랚
랜
랟
랠
램
랩
랫
랬
랭
랮
랯
랰
랱
랲
랳
랴
략
랸
랺
랻
랼
럄
럅
럆
럇
럈
량
럊
럌
럎
럏
럐
럑
럔
럕
럖
럗
럘
럠
럣
럤
럥
러
럭
럮
럯
런
럱
럲
럳
럴
럵
럶
럷
럸
럹
럻
럼
럽
럾
럿
렀
렁
렂
렃
렄
렅
렆
렇
레
렉
렊
렋
렌
렏
렐
렑
렘
렙
렛
렜
렝
렞
렠
렡
렢
렣
려
력
렦
렧
련
렩
렪
렫
렬
렭
렳
렴
렵
렶
렷
렸
령
렺
렻
렼
렽
렾
렿
례
롁
롄
롇
롈
롐
롑
롓
롔
롕
롘
로
록
롞
롟
론
롡
롢
롣
롤
롥
롦
롧
롫
롬
롭
롮
롯
롰
롱
롲
롳
롴
롵
롶
롷
롸
롹
롼
뢀
뢈
뢉
뢋
뢌
뢍
뢐
뢓
뢔
뢕
뢘
뢜
뢧
뢨
뢩
뢰
뢱
뢴
뢸
룀
룁
룃
룄
룅
료
룍
룐
룓
룔
룜
룝
룟
룠
룡
룢
룤
루
룩
룬
룯
룰
룸
룹
룻
룽
룾
룿
뤀
뤁
뤂
뤃
뤄
뤅
뤈
뤌
뤔
뤕
뤗
뤘
뤙
뤟
뤠
뤡
뤤
뤨
뤰
뤱
뤳
뤴
뤵
뤸
뤼
뤽
륀
륄
륌
륍
륏
륐
륑
류
륙
륜
륝
륟
률
륧
륨
륩
륫
륭
륮
륰
륲
륳
르
륵
륶
른
륹
륻
를
륽
륾
륿
릀
릁
릂
릃
름
릅
릆
릇
릈
릉
릊
릋
릌
릍
릎
릏
릐
릑
릔
릘
릠
릡
릣
릥
릫
리
릭
릮
린
릱
릳
릴
릵
릶
릷
릸
릹
릺
릻
림
립
릾
릿
맀
링
맂
맃
맄
맅
맆
맇
마
막
맊
맋
만
맍
많
맏
말
맑
맒
맓
맔
맕
맖
맗
맘
맙
맚
맛
맜
망
맞
맟
맠
맡
맢
맣
매
맥
맨
맩
맪
맫
맬
맴
맵
맷
맸
맹
맺
맻
맼
맽
맾
맿
먀
먁
먄
먆
먇
먈
먐
먑
먓
먕
먖
먗
먙
먛
먜
먝
먠
먤
먬
먱
머
먹
먺
먻
먼
먽
먾
먿
멀
멁
멂
멄
멈
멉
멊
멋
멌
멍
멎
멏
멐
멑
멒
멓
메
멕
멘
멛
멜
멤
멥
멧
멨
멩
멪
멫
멬
멭
멮
며
멱
멲
면
멵
멶
멷
멸
멺
멼
멿
몀
몁
몃
몄
명
몆
몇
몈
몉
몊
몋
몌
몍
몐
몔
몜
몟
몡
몢
몣
모
목
몪
몫
몬
몭
몮
몯
몰
몱
몲
몳
몴
몶
몷
몸
몹
몺
못
몼
몽
몾
몿
뫀
뫁
뫂
뫃
뫄
뫅
뫈
뫌
뫔
뫕
뫗
뫘
뫙
뫚
뫠
뫤
뫴
뫵
뫼
뫽
묀
묄
묍
묏
묑
묘
묙
묜
묠
묨
묫
묭
묯
무
묵
묶
묷
문
묹
묺
묻
물
묽
묾
묿
뭀
뭁
뭂
뭃
뭄
뭅
뭇
뭈
뭉
뭊
뭋
뭌
뭍
뭎
뭏
뭐
뭑
뭔
뭕
뭗
뭘
뭙
뭚
뭛
뭟
뭠
뭡
뭣
뭤
뭥
뭦
뭧
뭨
뭩
뭪
뭫
뭬
뭭
뭰
뭴
뭽
뭿
뮁
뮈
뮉
뮌
뮏
뮐
뮘
뮙
뮛
뮜
뮝
뮤
뮥
뮦
뮨
뮫
뮬
뮴
뮷
뮹
뮻
뮼
므
믁
믂
믄
믅
믆
믇
믈
믉
믌
믏
믐
믑
믓
믕
믖
믘
믙
믛
믜
믝
믠
믣
믤
믬
믯
믱
미
믹
믺
민
믽
믾
믿
밀
밁
밂
밄
밇
밈
밉
밊
밋
밌
밍
밎
및
밐
밑
밒
밓
바
박
밖
밗
반
밙
밚
받
발
밝
밞
밟
밠
밡
밢
밣
밤
밥
밦
밧
밨
방
밪
밫
밬
밭
밮
밯
배
백
밲
밳
밴
밷
밸
밹
뱀
뱁
뱃
뱄
뱅
뱆
뱇
뱈
뱉
뱊
뱋
뱌
뱍
뱎
뱐
뱓
뱔
뱕
뱗
뱛
뱜
뱝
뱟
뱡
뱤
뱥
뱨
뱩
뱬
뱰
뱸
뱻
뱽
벁
버
벅
벆
번
벉
벊
벋
벌
벍
벎
벏
벐
벑
벒
벓
범
법
벖
벗
벘
벙
벚
벛
벜
벝
벞
벟
베
벡
벤
벥
벧
벨
벩
벫
벬
벰
벱
벲
벳
벴
벵
벶
벷
벸
벹
벻
벼
벽
벾
변
볁
볂
볃
별
볅
볆
볇
볈
볊
볋
볌
볍
볎
볏
볐
병
볒
볓
볔
볕
볖
볗
볘
볙
볜
볠
볫
볭
볱
보
복
볶
볷
본
볹
볺
볻
볼
볽
볾
볿
봀
봁
봂
봃
봄
봅
봆
봇
봈
봉
봊
봋
봌
봍
봎
봏
봐
봑
봒
봔
봗
봘
봙
봟
봠
봡
봣
봤
봥
봦
봨
봩
봫
봬
봭
봰
봴
봵
봽
봿
뵀
뵁
뵈
뵉
뵌
뵏
뵐
뵑
뵘
뵙
뵛
뵜
뵝
뵞
뵤
뵥
뵨
뵬
뵴
뵵
뵷
뵹
뵺
뵽
부
북
붂
붃
분
붅
붆
붇
불
붉
붊
붋
붌
붍
붎
붏
붐
붑
붓
붔
붕
붖
붗
붘
붙
붚
붛
붜
붝
붠
붤
붥
붭
붯
붰
붱
붴
붸
붹
붼
뷀
뷁
뷃
뷉
뷋
뷍
뷔
뷕
뷘
뷜
뷤
뷥
뷧
뷩
뷰
뷱
뷴
뷶
뷷
뷸
뷹
븀
븁
븂
븃
븅
븇
븈
븉
븋
브
븍
븎
븐
븓
블
븕
븘
븜
븝
븞
븟
븡
븢
븣
븤
븥
븧
븨
븩
븬
븰
븸
븹
븻
븽
비
빅
빆
빈
빋
빌
빍
빎
빏
빓
빔
빕
빗
빘
빙
빚
빛
빜
빝
빞
빟
빠
빡
빢
빣
빤
빧
빨
빩
빪
빫
빬
빭
빮
빯
빰
빱
빳
빴
빵
빶
빷
빸
빹
빺
빻
빼
빽
빾
뺀
뺃
뺄
뺅
뺌
뺍
뺏
뺐
뺑
뺒
뺓
뺔
뺕
뺗
뺘
뺙
뺜
뺠
뺨
뺩
뺫
뺭
뺴
뺵
뺶
뺸
뺼
뻄
뻅
뻇
뻈
뻉
뻐
뻑
뻒
뻔
뻕
뻖
뻗
뻘
뻙
뻟
뻠
뻡
뻣
뻤
뻥
뻦
뻨
뻩
뻫
뻬
뻭
뻰
뻴
뻼
뻿
뼀
뼁
뼈
뼉
뼊
뼌
뼏
뼐
뼘
뼙
뼛
뼜
뼝
뼡
뼤
뼥
뼷
뽀
뽁
뽂
뽄
뽇
뽈
뽉
뽐
뽑
뽒
뽓
뽕
뽖
뽘
뽚
뽜
뽝
뽠
뽤
뽥
뽭
뽯
뽰
뽱
뽷
뽸
뽹
뾀
뾍
뾔
뾕
뾜
뾥
뾰
뾱
뾴
뾸
뿀
뿁
뿃
뿅
뿌
뿍
뿎
뿐
뿑
뿓
뿔
뿕
뿛
뿜
뿝
뿟
뿠
뿡
뿤
뿥
뿧
뿨
뿩
뿰
뿽
쀄
쀅
쀌
쀍
쀏
쀠
쀤
쀨
쀵
쀼
쀽
쀾
쁀
쁄
쁌
쁍
쁑
쁘
쁙
쁜
쁝
쁟
쁠
쁥
쁨
쁩
쁫
쁭
쁮
쁴
쁸
쁼
삉
삐
삑
삔
삗
삘
삠
삡
삣
삤
삥
삦
삧
삩
사
삭
삮
삯
산
삱
삲
삳
살
삵
삶
삷
삸
삹
삺
삻
삼
삽
삾
삿
샀
상
샂
샃
샄
샅
샆
샇
새
색
샊
샋
샌
샎
샏
샐
샑
샒
샓
샔
샕
샗
샘
샙
샚
샛
샜
생
샞
샟
샠
샡
샢
샣
샤
샥
샦
샨
샫
샬
샮
샴
샵
샷
샸
샹
샼
샽
샾
샿
섀
섁
섂
섃
섄
섈
섉
섊
섐
섑
섓
섔
섕
섘
서
석
섞
섟
선
섡
섢
섣
설
섥
섦
섧
섨
섩
섪
섫
섬
섭
섮
섯
섰
성
섲
섳
섴
섵
섶
섷
세
섹
섺
섻
센
섽
섿
셀
셁
셅
셇
셈
셉
셊
셋
셌
셍
셎
셏
셐
셑
셒
셓
셔
셕
셖
션
셛
셜
셟
셤
셥
셧
셨
셩
셫
셬
셭
셮
셯
셰
셱
셲
셴
셸
솀
솁
솃
솄
솅
솈
솉
솊
소
속
솎
솏
손
솑
솒
솓
솔
솕
솖
솘
솛
솜
솝
솟
솠
송
솢
솣
솤
솥
솦
솧
솨
솩
솬
솰
솸
솹
솻
솼
솽
쇄
쇅
쇆
쇇
쇈
쇌
쇔
쇕
쇗
쇘
쇙
쇜
쇝
쇟
쇠
쇡
쇢
쇣
쇤
쇨
쇰
쇱
쇳
쇴
쇵
쇸
쇼
쇽
숀
숄
숌
숍
숏
숐
숑
숒
숔
숕
숖
숗
수
숙
숚
숛
순
숝
숞
숟
술
숡
숢
숣
숤
숧
숨
숩
숫
숬
숭
숮
숯
숰
숱
숲
숳
숴
숵
숶
숸
숼
쉄
쉅
쉆
쉇
쉈
쉉
쉌
쉏
쉐
쉑
쉒
쉓
쉔
쉗
쉘
쉙
쉛
쉜
쉠
쉡
쉣
쉤
쉥
쉦
쉧
쉨
쉩
쉪
쉫
쉬
쉭
쉮
쉰
쉲
쉳
쉴
쉻
쉼
쉽
쉾
쉿
슀
슁
슂
슄
슅
슆
슇
슈
슉
슊
슌
슏
슐
슘
슙
슛
슝
슠
슢
스
슥
슦
슧
슨
슩
슫
슬
슭
슮
슯
슰
슲
슳
슴
습
슶
슷
슸
승
슺
슻
슼
슽
슾
슿
싀
싁
싂
싄
싅
싆
싇
싈
싐
싑
싓
싕
싘
싚
시
식
싞
싟
신
싡
싢
싣
실
싥
싦
싧
싨
싩
싪
싫
심
십
싮
싯
싰
싱
싲
싳
싴
싵
싶
싷
싸
싹
싺
싻
싼
싾
싿
쌀
쌂
쌃
쌇
쌈
쌉
쌋
쌌
쌍
쌎
쌐
쌑
쌒
쌓
쌔
쌕
쌖
쌗
쌘
쌛
쌜
쌝
쌤
쌥
쌧
쌨
쌩
쌬
쌭
쌯
쌰
쌱
쌲
쌴
쌸
썀
썁
썃
썄
썅
썋
썌
썍
썎
썐
썖
썜
썝
썟
썠
썡
썤
써
썩
썪
썫
썬
썯
썰
썱
썸
썹
썻
썼
썽
썾
쎀
쎁
쎃
쎄
쎅
쎆
쎇
쎈
쎌
쎍
쎐
쎓
쎔
쎕
쎗
쎘
쎙
쎜
쎝
쎟
쎠
쎡
쎢
쎤
쎨
쎰
쎱
쎳
쎴
쎵
쎼
쎽
쎾
쏀
쏃
쏍
쏏
쏐
쏔
쏕
쏖
쏗
쏘
쏙
쏚
쏜
쏟
쏠
쏨
쏩
쏫
쏬
쏭
쏮
쏱
쏳
쏴
쏵
쏸
쏻
쏼
쐄
쐅
쐇
쐈
쐉
쐏
쐐
쐑
쐒
쐔
쐡
쐣
쐤
쐥
쐨
쐬
쐭
쐰
쐴
쐼
쐽
쐿
쑀
쑈
쑉
쑌
쑏
쑐
쑙
쑛
쑜
쑝
쑤
쑥
쑦
쑨
쑫
쑬
쑴
쑵
쑷
쑹
쑻
쑽
쑿
쒀
쒁
쒂
쒄
쒈
쒐
쒑
쒓
쒔
쒕
쒘
쒜
쒝
쒞
쒠
쒤
쒭
쒯
쒰
쒱
쒴
쒸
쒹
쒼
쓀
쓃
쓈
쓉
쓊
쓋
쓌
쓍
쓏
쓐
쓑
쓒
쓔
쓕
쓘
쓜
쓤
쓥
쓩
쓰
쓱
쓲
쓴
쓷
쓸
쓹
쓺
쓽
쓿
씀
씁
씂
씃
씄
씅
씆
씇
씈
씉
씊
씋
씌
씍
씐
씔
씗
씜
씝
씞
씟
씡
씢
씥
씦
씧
씨
씩
씪
씬
씮
씯
씰
씱
씳
씶
씷
씸
씹
씺
씻
씼
씽
씾
씿
앀
앁
앂
앃
아
악
앆
앇
안
앉
않
앋
알
앍
앎
앏
앐
앑
앒
앓
암
압
앖
앗
았
앙
앚
앛
앜
앝
앞
앟
애
액
앢
앤
앦
앧
앨
앩
앰
앱
앲
앳
앴
앵
앶
앷
앸
앹
앺
앻
야
약
앾
앿
얀
얁
얂
얃
얄
얅
얆
얇
얉
얊
얋
얌
얍
얎
얏
얐
양
얒
얓
얔
얕
얖
얗
얘
얙
얚
얜
얠
얨
얩
얪
얫
얬
얭
얮
얰
얳
어
억
얶
얷
언
얹
얺
얻
얼
얽
얾
얿
엀
엁
엂
엃
엄
업
없
엇
었
엉
엊
엋
엌
엍
엎
엏
에
엑
엒
엓
엔
엕
엗
엘
엙
엠
엡
엢
엣
엤
엥
엦
엧
엨
엩
엪
엫
여
역
엮
엯
연
엱
엲
엳
열
엵
엶
엷
엸
엹
엺
엻
염
엽
엾
엿
였
영
옂
옃
옄
옅
옆
옇
예
옉
옊
옌
옐
옒
옘
옙
옛
옜
옝
옞
옟
옠
옢
옣
오
옥
옦
옧
온
옩
옪
옫
올
옭
옮
옯
옰
옱
옲
옳
옴
옵
옶
옷
옸
옹
옺
옻
옼
옽
옾
옿
와
왁
왂
완
왅
왆
왇
왈
왉
왐
왑
왓
왔
왕
왖
왗
왘
왙
왚
왛
왜
왝
왠
왢
왤
왬
왭
왯
왰
왱
왲
왳
왴
외
왹
왼
욀
욈
욉
욋
욌
욍
욎
욏
욐
욓
요
욕
욖
욗
욘
욛
욜
욤
욥
욧
욨
용
욪
욫
욬
욭
욮
욯
우
욱
욲
운
욵
욶
욷
울
욹
욺
욻
욼
욽
욾
욿
움
웁
웂
웃
웄
웅
웆
웇
웈
웉
웊
웋
워
웍
웎
원
웑
웒
웓
월
웕
웖
웗
웘
웙
웚
웛
웜
웝
웞
웟
웠
웡
웢
웤
웥
웦
웧
웨
웩
웪
웬
웰
웱
웸
웹
웻
웼
웽
윀
윁
윂
위
윅
윈
윋
윌
윔
윕
윖
윗
윘
윙
윚
윛
윜
윝
윟
유
육
윢
윣
윤
윥
윦
윧
율
윪
윯
윰
윱
윲
윳
윴
융
윶
윷
윸
윹
윺
윻
으
윽
윾
윿
은
읁
읂
읃
을
읅
읆
읇
읈
읉
읊
읋
음
읍
읎
읏
읐
응
읒
읓
읔
읕
읖
읗
의
읙
읜
읟
읠
읨
읩
읪
읫
읬
읭
읮
읯
읰
읱
읲
읳
이
익
읶
읷
인
읹
읺
읻
일
읽
읾
읿
잀
잁
잂
잃
임
입
잆
잇
있
잉
잊
잋
잌
잍
잎
잏
자
작
잒
잓
잔
잕
잖
잗
잘
잙
잚
잛
잜
잝
잞
잟
잠
잡
잢
잣
잤
장
잦
잧
잨
잩
잪
잫
재
잭
잮
잰
잲
잳
잴
잼
잽
잾
잿
쟀
쟁
쟂
쟃
쟄
쟅
쟆
쟇
쟈
쟉
쟊
쟌
쟎
쟏
쟐
쟗
쟘
쟙
쟛
쟜
쟝
쟞
쟟
쟠
쟡
쟢
쟣
쟤
쟥
쟨
쟬
쟴
쟵
쟸
쟹
쟼
저
적
젂
젃
전
젅
젆
젇
절
젉
젊
젋
젌
젍
젎
젏
점
접
젒
젓
젔
정
젖
젗
젘
젙
젚
젛
제
젝
젞
젠
젡
젣
젤
젫
젬
젭
젯
젰
젱
젲
젳
젴
젵
젶
젷
져
젹
젺
젼
젾
젿
졀
졁
졂
졈
졉
졋
졌
졍
졎
졏
졐
졑
졓
졔
졘
졜
졧
졨
졩
조
족
졲
졳
존
졵
졶
졷
졸
졹
졺
졻
졼
졽
졾
졿
좀
좁
좂
좃
좄
종
좆
좇
좈
좉
좊
좋
좌
좍
좎
좐
좒
좓
좔
좜
좝
좟
좠
좡
좢
좣
좤
좥
좦
좧
좨
좩
좪
좫
좬
좭
좮
좯
좰
좱
좸
좻
좼
좽
죂
죃
죄
죅
죈
죋
죌
죍
죔
죕
죗
죘
죙
죚
죜
죝
죟
죠
죡
죢
죣
죤
죥
죧
죨
죰
죱
죳
죴
죵
죶
죷
죸
죹
죺
죻
주
죽
죾
죿
준
줁
줂
줃
줄
줅
줆
줇
줈
줉
줊
줋
줌
줍
줎
줏
줐
중
줒
줓
줔
줕
줖
줗
줘
줙
줚
줜
줝
줟
줠
줨
줩
줫
줬
줭
줮
줯
줰
줱
줳
줴
줵
줸
줼
쥄
쥅
쥇
쥈
쥉
쥐
쥑
쥔
쥗
쥘
쥠
쥡
쥣
쥤
쥥
쥦
쥨
쥫
쥬
쥭
쥰
쥳
쥴
쥼
쥽
쥿
즀
즁
즂
즄
즇
즈
즉
즋
즌
즏
즐
즑
즘
즙
즛
즜
증
즞
즟
즠
즡
즣
즤
즥
즨
즬
즮
즴
즵
즶
즷
즹
즺
즼
지
직
짂
짃
진
짅
짆
짇
질
짉
짊
짋
짌
짍
짎
짏
짐
집
짒
짓
짔
징
짖
짗
짘
짙
짚
짛
짜
짝
짞
짟
짠
짢
짣
짤
짥
짦
짧
짪
짫
짬
짭
짮
짯
짰
짱
짲
짳
짴
짵
짶
짷
째
짹
짺
짼
짾
짿
쨀
쨈
쨉
쨋
쨌
쨍
쨎
쨐
쨒
쨓
쨔
쨕
쨘
쨚
쨜
쨟
쨤
쨥
쨧
쨨
쨩
쨰
쨱
쨴
쩁
쩃
쩄
쩅
쩌
쩍
쩎
쩐
쩓
쩔
쩖
쩗
쩘
쩜
쩝
쩞
쩟
쩠
쩡
쩢
쩣
쩤
쩥
쩦
쩧
쩨
쩩
쩬
쩰
쩸
쩹
쩻
쩼
쩽
쪄
쪅
쪈
쪌
쪔
쪕
쪗
쪘
쪙
쪚
쪠
쪰
쪱
쪵
쪹
쪻
쪼
쪽
쪾
쪿
쫀
쫃
쫄
쫅
쫇
쫌
쫍
쫏
쫐
쫑
쫒
쫓
쫔
쫕
쫖
쫗
쫘
쫙
쫚
쫛
쫜
쫟
쫠
쫤
쫩
쫫
쫬
쫭
쫮
쫴
쫵
쬈
쬎
쬐
쬑
쬔
쬘
쬠
쬡
쬤
쬥
쬧
쬬
쬭
쬮
쬰
쬳
쬴
쬼
쬽
쬿
쭀
쭁
쭂
쭃
쭄
쭅
쭈
쭉
쭊
쭌
쭏
쭐
쭕
쭘
쭙
쭛
쭜
쭝
쭞
쭟
쭠
쭤
쭥
쭨
쭫
쭬
쭭
쭵
쭷
쭸
쭹
쭻
쭿
쮀
쮁
쮑
쮓
쮜
쮝
쮠
쮡
쮤
쮭
쮱
쮸
쮹
쮼
쯀
쯈
쯉
쯋
쯍
쯔
쯕
쯘
쯛
쯜
쯤
쯥
쯧
쯨
쯩
쯪
쯫
쯭
쯮
쯯
쯰
쯱
쯴
찁
찅
찌
찍
찎
찏
찐
찓
찔
찗
찜
찝
찟
찠
찡
찢
찣
찤
찥
찦
찧
차
착
찪
찫
찬
찭
찮
찯
찰
찱
찲
찳
찴
찵
찶
찷
참
찹
찻
찼
창
찾
찿
챀
챁
챂
챃
채
책
챇
챈
챊
챋
챌
챔
챕
챗
챘
챙
챚
챜
챠
챡
챤
챦
챨
챯
챰
챱
챳
챴
챵
챶
챻
챼
챽
첐
첑
처
척
첛
천
첝
첞
첟
철
첡
첢
첣
첤
첥
첦
첧
첨
첩
첪
첫
첬
청
첮
첯
첰
첱
첲
첳
체
첵
첸
첻
첼
쳄
쳅
쳇
쳈
쳉
쳊
쳋
쳌
쳏
쳐
쳑
쳒
쳔
쳖
쳗
쳘
쳠
쳡
쳣
쳤
쳥
쳦
쳧
쳨
쳫
쳬
쳰
쳴
쳿
촀
초
촉
촌
촏
촐
촘
촙
촛
촜
총
촞
촟
촠
촡
촣
촤
촥
촨
촪
촬
촮
촰
촴
촵
촷
촹
쵀
쵁
쵄
쵕
최
쵝
쵠
쵤
쵭
쵮
쵯
쵰
쵱
쵲
쵴
쵸
쵹
쵼
춀
춈
춉
춋
춌
춍
춎
춏
춑
추
축
춗
춘
춚
춛
출
춝
춞
춟
춠
춡
춢
춣
춤
춥
춧
춨
충
춪
춫
춬
춭
춮
춯
춰
춱
춴
춸
췁
췃
췄
췅
췆
췌
췍
췐
췝
췟
췠
췡
취
췩
췬
췰
췸
췹
췻
췼
췽
췾
츀
츃
츄
츅
츈
츌
츔
츕
츗
츙
츠
측
츤
츧
츨
츩
츰
츱
츳
층
츶
츷
츸
츼
츽
칀
칄
칌
칍
칏
칑
치
칙
칚
친
칝
칞
칟
칠
칡
칢
칤
칥
칧
침
칩
칫
칬
칭
칮
칯
칰
칱
칲
칳
카
칵
칶
칸
칻
칼
칽
캄
캅
캆
캇
캈
캉
캊
캋
캌
캍
캎
캏
캐
캑
캔
캘
캠
캡
캢
캣
캤
캥
캨
캩
캪
캬
캭
캮
캰
캴
캼
캽
캿
컀
컁
컄
컈
컜
커
컥
컨
컫
컬
컴
컵
컶
컷
컸
컹
컺
컼
컽
컾
컿
케
켁
켄
켇
켈
켐
켑
켓
켔
켕
켖
켘
켙
켚
켛
켜
켝
켞
켠
켣
켤
켥
켬
켭
켯
켰
켱
켲
켴
켵
켷
켸
콀
콋
콌
콍
코
콕
콖
콘
콛
콜
콢
콣
콤
콥
콦
콧
콩
콪
콫
콬
콭
콮
콯
콰
콱
콲
콴
콸
쾀
쾃
쾅
쾈
쾌
쾍
쾐
쾒
쾔
쾡
쾤
쾨
쾩
쾬
쾰
쾽
쿄
쿈
쿌
쿔
쿗
쿙
쿜
쿠
쿡
쿤
쿧
쿨
쿯
쿰
쿱
쿳
쿵
쿸
쿺
쿼
쿽
퀀
퀄
퀌
퀍
퀏
퀐
퀑
퀘
퀙
퀜
퀠
퀧
퀫
퀭
퀰
퀴
퀵
퀸
퀻
퀼
큄
큅
큇
큉
큌
큍
큐
큑
큔
큘
큠
큡
큣
큥
큨
크
큭
큮
큰
큱
큲
큳
클
큵
큻
큼
큽
큿
킀
킁
킂
킄
킅
킇
킈
킉
킌
킐
킘
킝
키
킥
킨
킫
킬
킴
킵
킷
킸
킹
킺
킼
킽
킾
킿
타
탁
탂
탃
탄
탅
탆
탇
탈
탉
탊
탋
탌
탍
탏
탐
탑
탒
탓
탔
탕
탖
탗
탘
탙
탚
탛
태
택
탟
탠
탣
탤
탬
탭
탯
탰
탱
탲
탴
탵
탶
탷
탸
탹
탼
턀
턈
턉
턋
턍
턔
턕
턘
턩
터
턱
턴
턷
털
턹
턺
텀
텁
텂
텃
텄
텅
텆
텇
텈
텉
텊
텋
테
텍
텐
텑
텓
텔
템
텝
텟
텠
텡
텢
텣
텤
텥
텦
텧
텨
텩
텬
텰
텸
텹
텻
텼
텽
톃
톄
톅
톈
톌
톔
토
톡
톤
톧
톨
톩
톰
톱
톲
톳
통
톶
톷
톸
톹
톺
톻
톼
톽
퇀
퇄
퇍
퇏
퇑
퇔
퇘
퇙
퇜
퇩
퇫
퇬
퇭
퇮
퇱
퇴
퇵
퇶
퇸
퇼
툄
툅
툇
툈
툉
툊
툌
툏
툐
툑
툠
툡
툥
투
툭
툰
툳
툴
툻
툼
툽
툿
퉁
퉂
퉄
퉅
퉆
퉈
퉉
퉌
퉐
퉛
퉜
퉝
퉤
퉥
퉨
퉬
퉯
퉵
퉷
퉸
퉹
퉺
퉼
퉽
퉾
퉿
튀
튁
튄
튈
튐
튑
튓
튔
튕
튘
튛
튜
튝
튠
튤
튬
튭
튱
튶
트
특
튺
튻
튼
튽
튾
튿
틀
틁
틂
틃
틅
틇
틈
틉
틊
틋
틍
틎
틏
틐
틑
틒
틓
틔
틕
틘
틜
틧
틩
티
틱
틴
틷
틸
팀
팁
팃
팄
팅
팆
팈
팉
팊
파
팍
팎
팏
판
팑
팒
팓
팔
팕
팖
팗
팘
팙
팚
팛
팜
팝
팟
팠
팡
팢
팣
팤
팥
팦
팧
패
팩
팬
팯
팰
팸
팹
팻
팼
팽
퍀
퍁
퍃
퍄
퍅
퍈
퍌
퍔
퍗
퍙
퍛
퍝
퍠
퍡
퍤
퍵
퍼
퍽
펀
펃
펄
펅
펌
펍
펏
펐
펑
펒
펔
펕
펖
펗
페
펙
펜
펟
펠
펨
펩
펫
펬
펭
펰
펲
펴
펵
편
펹
펺
펻
펼
폄
폅
폇
폈
평
폊
폌
폍
폏
폐
폑
폔
폗
폘
폠
폡
폣
폥
폦
폨
포
폭
폮
폯
폰
폳
폴
폼
폽
폿
퐁
퐂
퐄
퐅
퐆
퐇
퐈
퐉
퐌
퐐
퐑
퐘
퐙
퐛
퐜
퐝
퐞
퐠
퐤
퐥
푀
푁
푄
푈
푕
표
푝
푠
푣
푤
푬
푭
푯
푱
푲
푴
푶
푷
푸
푹
푼
푿
풀
풁
풂
풅
풇
품
풉
풋
풍
풎
풐
풑
풒
풓
풔
풕
풘
풜
풩
풰
풱
풴
풸
풿
퓅
퓌
퓍
퓐
퓔
퓜
퓟
퓡
퓨
퓩
퓬
퓰
퓸
퓹
퓻
퓽
픂
프
픅
픈
픋
플
픎
픔
픕
픗
픙
픚
픜
픝
픞
픟
픠
픤
픨
픵
피
픽
핀
핃
필
핅
핆
핈
핋
핌
핍
핏
핐
핑
핒
핓
핔
핕
핖
핗
하
학
핚
핛
한
핝
핞
핟
할
핡
핢
핣
핤
핥
핦
핧
함
합
핪
핫
핬
항
핮
핯
핰
핱
핲
핳
해
핵
핶
핷
핸
핺
핻
핼
핽
햄
햅
햇
했
행
햊
햋
햌
햍
햎
햏
햐
햑
햔
햗
햘
햙
햚
햛
햝
햞
햟
햠
햡
햣
햤
향
햦
햨
햩
햫
햬
햭
햰
햽
햿
헀
헁
허
헉
헌
헍
헏
헐
헑
헒
헓
헔
헕
헗
험
헙
헚
헛
헜
헝
헞
헠
헡
헢
헣
헤
헥
헦
헨
헬
헭
헴
헵
헷
헸
헹
헼
헽
헾
헿
혀
혁
혂
혃
현
혅
혆
혇
혈
혉
혌
혍
혐
협
혒
혓
혔
형
혖
혗
혘
혙
혚
혛
혜
혝
혠
혣
혤
혬
혭
혯
혰
혱
혲
혴
혵
호
혹
혺
혻
혼
혽
혾
혿
홀
홁
홅
홇
홈
홉
홋
홍
홎
홏
홐
홑
홒
홓
화
확
홖
홗
환
홙
홛
활
홝
홞
홟
홠
홡
홣
홤
홥
홧
홨
황
홪
홬
홭
홮
홯
홰
홱
홴
홸
횃
횄
횅
회
획
횐
횓
횔
횜
횝
횞
횟
횠
횡
횢
횤
횦
횧
효
횩
횬
횰
횸
횹
횻
횽
훀
훃
후
훅
훈
훉
훊
훋
훌
훍
훎
훏
훑
훒
훓
훔
훕
훗
훙
훚
훛
훜
훝
훞
훟
훠
훡
훣
훤
훨
훪
훬
훯
훰
훱
훳
훵
훸
훻
훼
훽
휀
휄
휌
휏
휐
휑
휔
휘
휙
휜
휟
휠
휧
휨
휩
휫
휭
휰
휲
휳
휴
휵
휸
휼
흄
흅
흇
흉
흊
흌
흏
흐
흑
흒
흓
흔
흖
흗
흘
흙
흜
흝
흟
흠
흡
흣
흥
흦
흨
흩
흪
흫
희
흭
흰
흳
흴
흼
흽
흿
힁
힂
힄
히
힉
힌
힍
힏
힐
힑
힒
힕
힗
힘
힙
힛
힜
힝
힞
힟
힠
힡
힢
힣
％
##e
##d
##u
##x
##c
##s
##t
##a
##y
##i
##r
##n
##g
##h
##B
##1
##3
##9
##2
##션
##쇼
##가
##0
##7
##6
##래
##소
##법
##o
##l
##5
##8
##발
##광
##떠
##는
##m
##창
##들
##다
##하
##니
##팍
##도
##사
##서
##4
##룩
##이
##자
##리
##추
##H
##O
##X
##q
##며
##져
##b
##T
##k
##z
##w
##레
##오
##스
##트
##에
##U
##I
##S
##M
##마
##치
##매
##걸
##린
##게
##p
##쌍
##불
##지
##겠
##단
##약
##느
##므
##새
##키
##언
##체
##전
##연
##대
##R
##귀
##네
##비
##츠
##어
##라
##물
##종
##안
##D
##J
##한
##놈
##중
##운
##동
##실
##까
##요
##타
##깝
##A
##P
##E
##L
##디
##주
##태
##의
##효
##희
##신
##아
##진
##v
##만
##싸
##부
##N
##쇠
##겨
##날
##헤
##헿
##기
##준
##멘
##나
##F
##껑
##뭉
##쿠
##엔
##환
##호
##무
##젖
##꼭
##르
##난
##데
##조
##선
##족
##은
##응
##거
##W
##G
##씨
##j
##크
##먼
##애
##경
##외
##과
##베
##f
##메
##영
##농
##관
##죵
##망
##유
##Y
##꾹
##얘
##시
##밀
##질
##냐
##인
##토
##덕
##상
##균
##류
##석
##쥔
##와
##찰
##음
##따
##을
##러
##천
##원
##문
##성
##배
##듣
##맨
##칠
##미
##국
##것
##송
##드
##쉐
##버
##렸
##왕
##산
##노
##꺄
##고
##있
##케
##웃
##놐
##히
##순
##샛
##끼
##야
##화
##개
##폐
##졌
##곤
##해
##머
##듭
##홍
##컷
##빨
##봉
##C
##손
##바
##퍼
##내
##완
##용
##파
##악
##우
##목
##냈
##으
##면
##너
##갈
##길
##빕
##봐
##른
##욕
##삼
##쟁
##돼
##민
##덩
##졀
##습
##숙
##생
##혜
##때
##티
##폴
##얼
##싶
##샕
##V
##코
##프
##를
##징
##여
##범
##학
##찬
##항
##남
##K
##꿔
##려
##Q
##찍
##끠
##방
##던
##잖
##쓰
##깍
##북
##령
##찮
##듯
##구
##현
##장
##랑
##재
##강
##녀
##그
##덴
##검
##열
##터
##초
##능
##굴
##링
##달
##로
##술
##푼
##슨
##모
##놓
##았
##쓔
##넘
##앙
##일
##벸
##청
##턴
##식
##뀌
##차
##잔
##슈
##돜
##늬
##올
##보
##명
##절
##당
##톤
##퀴
##찼
##짜
##쓸
##염
##낯
##줘
##택
##뭐
##깨
##먹
##읍
##났
##란
##빵
##브
##홀
##좌
##충
##정
##낼
##늣
##합
##켜
##묘
##왈
##딲
##께
##커
##십
##년
##간
##찐
##색
##병
##뿌
##탁
##제
##돈
##수
##속
##쭤
##월
##론
##알
##탈
##없
##건
##글
##감
##럼
##엘
##녆
##향
##뎅
##벙
##례
##뿎
##붂
##함
##릴
##같
##곡
##통
##쳐
##세
##온
##쯔
##회
##력
##폰
##금
##록
##놀
##슬
##저
##낭
##못
##점
##뿟
##킨
##깔
##처
##두
##끗
##뽕
##돌
##넷
##포
##카
##뺏
##밉
##Z
##딜
##든
##듫
##총
##님
##듬
##규
##릉
##박
##근
##냥
##참
##켈
##복
##누
##루
##쇜
##쩌
##줄
##맹
##번
##된
##형
##행
##혀
##웅
##똥
##콜
##큼
##끔
##깅
##갑
##셔
##귝
##랜
##렋
##집
##튀
##극
##텐
##핑
##계
##돠
##듸
##댓
##램
##뮨
##페
##뽄
##쟝
##군
##심
##겟
##썰
##꺼
##업
##권
##렴
##섭
##률
##덜
##쪾
##작
##할
##겔
##투
##웠
##럽
##쇙
##쥬
##입
##쌔
##풍
##젠
##널
##황
##혔
##벳
##샀
##쥐
##또
##컨
##람
##앉
##뱅
##꼬
##랬
##졐
##뒤
##델
##닌
##촹
##털
##컴
##팩
##욱
##위
##좀
##닮
##림
##담
##말
##즘
##씩
##겼
##되
##뉘
##증
##짓
##넹
##썌
##쟤
##먤
##럐
##혈
##푸
##섬
##축
##꼽
##허
##옙
##등
##육
##롤
##억
##납
##득
##층
##교
##견
##설
##몽
##료
##롬
##밴
##긴
##얀
##죠
##랄
##겹
##탐
##블
##쭉
##받
##긋
##둘
##빠
##독
##뢀
##떨
##적
##별
##편
##헌
##찿
##뽑
##즈
##답
##벌
##냔
##셈
##궈
##앞
##옐
##역
##더
##김
##삹
##품
##쭬
##패
##피
##쌓
##꼴
##틀
##딱
##테
##깃
##넼
##쨰
##본
##밥
##롷
##셰
##런
##뉴
##울
##었
##뚱
##뚜
##둥
##뚠
##띙
##골
##짱
##필
##립
##넨
##싱
##씁
##융
##출
##공
##임
##꽃
##옻
##얌
##꽈
##숸
##잡
##줴
##쩔
##눈
##룸
##윤
##갓
##킹
##엄
##갱
##꾸
##멍
##핏
##츤
##침
##껌
##뻒
##킄
##최
##했
##곰
##팡
##뭇
##끝
##굿
##씪
##잇
##녔
##퇘
##윈
##쫄
##짐
##춘
##막
##싕
##갹
##흟
##휘
##접
##살
##궞
##락
##꺠
##결
##략
##워
##튼
##뇬
##꽁
##릅
##랏
##켰
##럴
##꽂
##믿
##뱨
##걔
##봤
##엿
##쿤
##련
##급
##겸
##판
##벽
##빚
##챵
##쩝
##후
##겐
##슥
##됬
##겅
##궁
##굼
##훈
##껴
##익
##직
##윗
##쪽
##백
##옥
##양
##표
##분
##젤
##암
##뜩
##걑
##됴
##둔
##캇
##닭
##훟
##채
##륀
##뿐
##츈
##착
##왜
##롱
##팅
##롯
##흥
##겡
##펴
##쟹
##햬
##냰
##걩
##휴
##갤
##댈
##갆
##읂
##붉
##측
##풀
##킥
##취
##풉
##껄
##렁
##밑
##팔
##룡
##웟
##플
##밒
##셨
##존
##콰
##솔
##댕
##몬
##쉰
##밤
##액
##챦
##였
##넬
##끄
##힘
##듦
##깁
##율
##늘
##숴
##벼
##끈
##륵
##댄
##센
##슷
##냉
##슝
##친
##랴
##씌
##볶
##젊
##췄
##칼
##톨
##팬
##겁
##싄
##맞
##숩
##삭
##탄
##엽
##짭
##틸
##혹
##뇨
##각
##죽
##졸
##먁
##뻐
##믄
##쇄
##흉
##쉬
##곳
##뤌
##앗
##찌
##큰
##쎄
##평
##뇽
##겧
##떡
##죄
##춰
##논
##켄
##숨
##륜
##볼
##빛
##혐
##혼
##승
##짝
##햄
##츙
##격
##좋
##젓
##량
##냨
##섹
##룽
##닥
##젼
##휏
##섀
##릿
##예
##뺑
##큐
##닦
##탱
##캉
##꾾
##칫
##첩
##댔
##닐
##왔
##삐
##철
##낀
##숫
##뇌
##렘
##뜻
##몰
##롸
##뽤
##늠
##움
##콘
##닙
##깡
##클
##써
##괘
##셴
##챤
##꿍
##띠
##늫
##흐
##흘
##럿
##릇
##꼉
##왓
##뚕
##띁
##빈
##뱉
##릭
##놨
##촬
##뀽
##넙
##둡
##슐
##괭
##굚
##롭
##씹
##반
##킬
##녋
##앍
##봄
##죳
##숭
##섰
##특
##삽
##캐
##턱
##빌
##댐
##름
##칭
##많
##닝
##좃
##튜
##뛰
##볘
##녁
##녘
##압
##횐
##핥
##땜
##웜
##쯪
##즞
##샾
##솟
##잎
##됨
##째
##늄
##맷
##닏
##낸
##놔
##혁
##꿘
##잘
##썩
##훼
##꾼
##및
##봬
##렌
##랸
##윌
##찾
##빗
##될
##솨
##녕
##뜨
##벡
##슙
##촨
##뮌
##렬
##맥
##쵸
##뢔
##책
##걱
##맘
##뭔
##딸
##썹
##곶
##깐
##힐
##끌
##섯
##쏠
##땋
##궉
##밟
##옷
##갔
##붓
##씺
##밦
##뽁
##맛
##협
##됏
##빼
##엌
##쑤
##읭
##렐
##쇅
##쓴
##쑈
##벤
##괴
##뵹
##궜
##웨
##랙
##쳣
##낫
##곘
##켯
##윽
##셧
##츄
##샹
##썽
##겜
##낮
##뻔
##쁘
##퓡
##뷔
##됩
##눔
##뀩
##뜰
##쾅
##렷
##칵
##벨
##똑
##쎤
##봣
##빅
##튕
##낙
##떵
##욘
##쿯
##룬
##웰
##캬
##폭
##쟈
##옵
##쌕
##맵
##셱
##쮹
##쇆
##럭
##듀
##킈
##뉸
##냄
##촌
##닷
##짤
##솥
##윘
##쪼
##뱌
##늑
##흠
##챡
##홰
##샠
##숲
##땅
##밭
##씡
##낂
##눌
##멧
##븅
##쉼
##둑
##객
##냑
##츨
##쿨
##즤
##앤
##확
##툽
##윱
##변
##읔
##쪕
##셸
##렉
##떤
##싀
##꼰
##젔
##팥
##쌉
##딩
##싰
##쫩
##쩍
##긍
##꿇
##딘
##띤
##렝
##첼
##갗
##땡
##즐
##핵
##컵
##샤
##탕
##뎨
##쒝
##밍
##볕
##쩡
##덥
##띰
##룝
##슴
##엇
##팽
##샄
##셐
##탑
##붙
##쳤
##맙
##쭛
##뤼
##잠
##쀼
##첨
##댑
##틴
##떻
##꾀
##챈
##씬
##촤
##엉
##얶
##쬡
##돱
##씝
##퉁
##퉷
##퉤
##컬
##쿄
##궤
##쌖
##험
##척
##햇
##뻣
##쭈
##끞
##헐
##쫌
##렀
##릐
##쁠
##걍
##뻘
##껰
##줬
##빽
##뛴
##활
##엮
##옇
##앜
##볽
##샵
##쏃
##밣
##쥑
##긔
##얻
##묻
##잼
##탓
##헥
##묭
##땐
##캣
##믐
##샗
##힌
##쭵
##값
##쬐
##씸
##뽀
##씅
##뉜
##텔
##얕
##싹
##졏
##덤
##썁
##흔
##씐
##펠
##멀
##꿀
##읏
##칸
##퐁
##뻑
##눼
##뷍
##떼
##뢰
##섵
##쌈
##쥼
##밝
##텡
##춤
##뎐
##뀨
##닉
##쾨
##퀘
##삶
##쾌
##젴
##묵
##댜
##슘
##낚
##댠
##삤
##텀
##셓
##랐
##빤
##곸
##둬
##듧
##똘
##졍
##늕
##핸
##뷁
##뫈
##쫘
##쿵
##녹
##칙
##섞
##걷
##륭
##뺘
##껏
##쟌
##썬
##앛
##벗
##왐
##딴
##깜
##잉
##좦
##쌘
##괄
##쪘
##퀰
##둞
##렣
##븝
##뜯
##않
##뤄
##뭘
##긕
##컥
##됐
##놜
##옹
##잊
##쨩
##갇
##퐉
##뇀
##붤
##퓨
##싴
##퍽
##쐐
##톡
##뀐
##템
##몇
##톈
##궝
##멜
##쫀
##삿
##싼
##뎃
##뭄
##쭐
##끊
##궐
##쳇
##좩
##틱
##겄
##랍
##겻
##녜
##뮴
##뱃
##됫
##괵
##멩
##툭
##븐
##뜸
##셋
##갸
##쭙
##뫄
##뭭
##뛔
##퇀
##랭
##딕
##흡
##홯
##깠
##펙
##좉
##펑
##닫
##깥
##햣
##앵
##즬
##넣
##헙
##빡
##셕
##슢
##몐
##귁
##읋
##뮤
##촘
##핀
##엎
##붏
##짬
##덮
##쨔
##껭
##줜
##쿼
##꺽
##갰
##쒹
##탤
##뎄
##쪄
##괜
##훗
##꽊
##뒈
##냅
##쉒
##뫌
##삥
##햐
##뗌
##뼈
##늉
##뇐
##쉅
##킼
##렠
##슌
##념
##룹
##쳅
##룻
##솝
##킵
##헨
##닠
##뿅
##쒸
##륨
##꿑
##빸
##햔
##랗
##똭
##몆
##톱
##켔
##쿡
##즉
##핫
##퀼
##좨
##얜
##돔
##퓟
##낕
##쏘
##엠
##뻬
##쭝
##쎅
##칩
##빝
##퐝
##탯
##쉽
##콧
##촉
##퉛
##얹
##뽜
##귱
##눕
##샌
##뉨
##끾
##빧
##켓
##쁜
##붜
##숰
##믈
##닼
##겆
##캡
##엑
##옳
##몄
##곧
##좈
##챙
##셩
##꺅
##굘
##줌
##셀
##얔
##밷
##꿰
##볓
##봅
##갖
##촵
##굉
##딤
##껼
##펀
##닧
##믠
##빙
##썼
##껀
##핬
##짖
##웁
##벅
##좁
##뽹
##읺
##돋
##뀰
##휐
##쨘
##펜
##띱
##헝
##됗
##밖
##딷
##밎
##퇴
##랫
##짴
##쌰
##깽
##쌀
##멎
##멸
##캔
##밸
##쫑
##멕
##춍
##떄
##텍
##즙
##찹
##렵
##빯
##홥
##읰
##쳔
##픽
##윅
##쨕
##넌
##콩
##숑
##쾍
##뚤
##쉭
##쉔
##묠
##앳
##몸
##갂
##싫
##룰
##픈
##쐬
##횽
##뇸
##뚝
##꽤
##쮜
##쉥
##풩
##귈
##힙
##엏
##뎈
##젹
##짚
##랃
##놋
##싁
##듷
##펄
##쓍
##얬
##댸
##됱
##짛
##즌
##끓
##땄
##졷
##쮸
##쉑
##쯤
##컼
##궄
##붕
##웬
##갅
##얏
##쒜
##촪
##셍
##슊
##땁
##쉉
##쌧
##갴
##낔
##엥
##놧
##짫
##맠
##쀏
##곲
##뿔
##덯
##딛
##뇰
##붗
##콕
##햌
##뻥
##엗
##쯍
##샷
##펫
##팀
##먜
##콴
##흣
##눅
##윕
##젬
##켘
##꽐
##텽
##듕
##읐
##쓱
##탠
##봘
##뙛
##삘
##챃
##렇
##킷
##죡
##쥥
##쨋
##읬
##낗
##쑴
##뙈
##쎴
##쎠
##녠
##혓
##컄
##숀
##솉
##헠
##벰
##즴
##죾
##짘
##샘
##낌
##쒞
##몀
##엃
##헣
##헗
##굇
##뱕
##껍
##썅
##쌌
##킴
##뭍
##룀
##딹
##뻗
##죋
##홤
##꺵
##꿈
##쑨
##낳
##깎
##쥉
##쉨
##퇫
##벝
##퐈
##뻤
##줫
##꺆
##쨥
##셜
##뷰
##켁
##쥴
##뛸
##훱
##꾤
##쪗
##횸
##띄
##먀
##슭
##뿜
##뎡
##볏
##솹
##쩦
##꺾
##쳘
##캠
##낄
##덱
##뱀
##렛
##즹
##닛
##꾜
##휼
##홧
##럈
##핲
##샊
##늅
##켴
##돍
##죤
##높
##홈
##펼
##둣
##쩨
##썎
##컹
##췁
##훠
##챠
##킁
##퉈
##쩜
##획
##씽
##궸
##폿
##훤
##텟
##밚
##잃
##쳬
##뱽
##뼜
##횡
##칀
##냬
##숍
##삔
##샨
##곽
##잭
##멱
##쟙
##빋
##퀌
##찻
##삯
##옌
##좐
##쎀
##쫓
##꿩
##댖
##샢
##뽈
##쯧
##엨
##놂
##뼝
##넉
##륙
##싯
##혖
##샬
##틈
##떅
##뺩
##땠
##쏴
##뎀
##잏
##팁
##뮬
##옜
##쁨
##씀
##솜
##좆
##좭
##쎗
##꿁
##똬
##싣
##캅
##맆
##쌤
##겢
##핰
##낰
##꿃
##겦
##긒
##랩
##큭
##퀸
##뭣
##웩
##뚀
##묜
##쬬
##큥
##렙
##잽
##쫛
##꼈
##꿉
##뺄
##줔
##헬
##롹
##풋
##캍
##텨
##앓
##샑
##튭
##첬
##툼
##옴
##앰
##쉠
##뻡
##꽌
##흰
##눙
##볗
##먄
##곀
##맀
##굵
##췌
##멈
##봥
##쒄
##췃
##붇
##괙
##핧
##햟
##얐
##콤
##츶
##봍
##졔
##싷
##뫼
##뷸
##턍
##텝
##흑
##슁
##뚫
##싢
##샎
##꺊
##꿋
##쟎
##췐
##찔
##똒
##랰
##넁
##훻
##쟉
##읽
##뎬
##뢍
##맚
##잆
##슶
##씍
##썪
##똗
##뿡
##껸
##볂
##텅
##혉
##켥
##앋
##앨
##뻴
##냇
##앱
##엣
##땍
##캭
##굽
##뭨
##욜
##삑
##쒀
##걀
##댁
##넴
##쐰
##찡
##퍄
##꿐
##샆
##굶
##듈
##튿
##췡
##놰
##즟
##꽝
##졨
##벵
##섶
##넿
##숯
##캄
##폼
##푀
##쐤
##싆
##펩
##즁
##첫
##뎌
##갠
##뱔
##꼼
##콥
##귤
##젱
##갚
##휜
##젝
##볌
##겋
##괕
##뜬
##욬
##닪
##빔
##죴
##뵈
##슿
##옼
##쮤
##봊
##퀵
##쳖
##펐
##샣
##얄
##벓
##렪
##덧
##땩
##뺜
##넛
##뺭
##쌩
##캌
##됙
##쌸
##썡
##쏙
##옘
##밋
##겉
##딪
##쒼
##갯
##줼
##헛
##윳
##좱
##뀔
##풐
##팎
##엊
##늩
##밨
##뒀
##쳑
##귄
##띵
##쌂
##곱
##벞
##닚
##쑥
##툰
##윾
##낲
##쏟
##잟
##몫
##밪
##긛
##읮
##샙
##먕
##댉
##핡
##읅
##쌬
##찜
##훔
##넺
##펭
##좇
##웍
##엙
##췬
##섂
##쌥
##퉹
##긁
##섲
##짆
##긷
##쨉
##푹
##녓
##챗
##맄
##뜽
##뮈
##멐
##켐
##쥰
##듐
##앚
##촛
##헜
##쎜
##뛕
##걋
##쀄
##쥿
##싥
##샐
##힠
##밈
##몃
##랔
##훕
##훅
##훳
##띡
##븨
##뒷
##튓
##좝
##툇
##듳
##찲
##춯
##빻
##쓉
##돗
##셉
##섕
##봇
##덣
##뒨
##텃
##밧
##칞
##쭘
##듵
##튺
##츳
##렊
##쳰
##퀀
##붖
##첞
##쿸
##궅
##좢
##넑
##쭌
##흭
##윰
##쉿
##걥
##톳
##쑝
##늡
##뀻
##늴
##끕
##섣
##슉
##놉
##쉙
##넝
##쩽
##뮥
##찢
##픔
##괸
##쎔
##캥
##툥
##낱
##꾬
##꿏
##얇
##둰
##핞
##떈
##훌
##쭥
##딧
##궙
##븡
##뽠
##샏
##륍
##툴
##굻
##믹
##됄
##됀
##쳗
##즨
##닞
##롄
##챕
##뺔
##쬎
##앸
##꽹
##굔
##슼
##빫
##꼥
##펍
##놎
##췅
##촐
##퐐
##맑
##잦
##짏
##쉧
##냌
##꾝
##븹
##땀
##뽭
##닳
##쇗
##몌
##릘
##펌
##큻
##핳
##샴
##갼
##갘
##칳
##좡
##넥
##쉘
##얗
##훨
##궂
##륽
##뤠
##잰
##튱
##맡
##듁
##틍
##돤
##뙇
##붐
##냠
##읫
##릥
##졋
##뀍
##뺠
##삣
##둿
##돵
##옾
##눠
##셁
##슫
##욧
##뭥
##훓
##쌴
##꽦
##캴
##씰
##쎈
##퀄
##깈
##죸
##낟
##폈
##풔
##젯
##퉅
##왁
##갛
##샋
##엳
##냼
##놘
##맏
##얒
##쉴
##밮
##먠
##뷥
##쫭
##뭙
##롳
##멋
##빱
##찝
##밬
##햅
##깟
##쾡
##횃
##멊
##댤
##힉
##챘
##늙
##끿
##텼
##깻
##옮
##텋
##즛
##둠
##챻
##몋
##큇
##뷴
##릡
##뱝
##맇
##릏
##꽥
##휄
##옽
##쌜
##븞
##랋
##됵
##녅
##픠
##럔
##맬
##쎼
##흙
##꼐
##빾
##냩
##틁
##잌
##콱
##핣
##앟
##흫
##잣
##팝
##벧
##팛
##묄
##퓰
##꺕
##밞
##뵥
##샅
##팸
##뿍
##쪙
##쫏
##섳
##팼
##맴
##댹
##쟥
##솰
##왑
##챨
##랇
##뽱
##궨
##꽜
##짲
##춮
##쩠
##맸
##눤
##댘
##첵
##줳
##멤
##쓩
##섿
##쮭
##뵤
##횬
##챱
##쭭
##옆
##줍
##톸
##옛
##끽
##뺨
##뗳
##샜
##칯
##씮
##벊
##깂
##띿
##닺
##붸
##갮
##빰
##꿄
##윙
##첸
##릠
##틋
##뿝
##옺
##궥
##빹
##꽙
##룜
##쿧
##짢
##늗
##덟
##팘
##먈
##캨
##낵
##혝
##줏
##켕
##녇
##냘
##뼐
##뗀
##깒
##뀈
##쎙
##룐
##뤔
##섴
##죌
##좔
##꿲
##꿱
##궹
##낑
##슏
##굾
##뇻
##뇾
##힝
##왘
##읳
##뾰
##뻰
##힛
##샟
##쉣
##숌
##엡
##깰
##샥
##뷀
##읁
##퍝
##햡
##삾
##싑
##숟
##짞
##끡
##쩐
##껠
##찴
##샂
##뼁
##셤
##낏
##쯜
##튬
##쥽
##긱
##홉
##픅
##찁
##쬽
##핍
##퍙
##줮
##넓
##딥
##뎠
##굳
##쇟
##뛋
##팠
##뺙
##썠
##췩
##챊
##칍
##볐
##헕
##렿
##댝
##굮
##팜
##큘
##뚯
##탔
##좟
##펨
##췸
##롦
##쇵
##멬
##젘
##긤
##렼
##햤
##슛
##쎾
##끙
##텁
##찷
##볋
##촞
##씻
##싩
##젛
##눗
##퍅
##쐑
##짠
##믜
##휀
##욤
##럄
##뺵
##꺘
##봨
##떽
##뢈
##긧
##띨
##퍌
##쏍
##븰
##늦
##릎
##뼌
##챔
##콸
##쌑
##붱
##왼
##붑
##츌
##덞
##놬
##훙
##겂
##힣
##똔
##햏
##틧
##씱
##쫒
##훜
##켤
##핮
##잩
##좒
##슧
##벩
##챌
##홛
##쑬
##뎁
##쨌
##뢱
##찟
##겈
##띈
##싮
##칰
##쟄
##맺
##탉
##즥
##빓
##켠
##떙
##뗴
##핻
##웹
##뼘
##앆
##낤
##틔
##뎍
##켸
##앏
##꿂
##떱
##읠
##섘
##꾱
##땈
##볍
##꿕
##팒
##뻭
##혘
##톄
##쨍
##맟
##슾
##쿙
##얖
##웝
##샡
##랼
##껫
##뜍
##챯
##깢
##썍
##긐
##앖
##랖
##츰
##녏
##춥
##맜
##봙
##흌
##밌
##쌨
##뒬
##몾
##혛
##꼇
##눞
##솦
##퇙
##룔
##욪
##똣
##킝
##붹
##셑
##갢
##씜
##푷
##릾
##깺
##샚
##낎
##퇏
##꾿
##뼛
##쇽
##읶
##쭹
##힄
##얂
##빳
##챼
##뱰
##펔
##욌
##뙹
##슆
##흽
##딫
##떰
##쁀
##랳
##헹
##녂
##겤
##닢
##몈
##텬
##쩬
##쌋
##탸
##륄
##읗
##쑹
##돚
##맼
##춧
##컸
##깸
##웡
##넠
##븥
##쌱
##믓
##훋
##뼏
##왠
##꺙
##듞
##겪
##덦
##탭
##졓
##렜
##뱸
##욷
##헼
##옂
##흄
##뙷
##띾
##낪
##겞
##틊
##앂
##좍
##낇
##앴
##낃
##븀
##빩
##튄
##늪
##돕
##뗔
##뤽
##궠
##귬
##떴
##뮛
##튠
##잫
##킫
##얍
##팟
##풒
##돎
##쉡
##됌
##쥘
##겾
##븟
##큑
##햊
##짼
##냡
##둴
##롴
##헀
##붘
##륶
##빆
##싡
##멵
##캏
##툉
##벟
##헴
##욨
##쿜
##훛
##팕
##돟
##촟
##뼉
##꽉
##뱍
##찤
##뢨
##쉈
##뾱
##뤡
##겣
##헉
##옄
##쫅
##봌
##밢
##믖
##쳌
##슅
##랠
##홋
##퀑
##췝
##뻉
##몼
##쎆
##빟
##쯱
##뷃
##볈
##썻
##딬
##뮐
##왖
##땨
##쿰
##쭁
##섺
##쏜
##팰
##쇣
##훽
##칽
##힟
##걘
##횟
##쏕
##큉
##솩
##볭
##줭
##룅
##묶
##잧
##곬
##톰
##읎
##땣
##쳡
##잋
##핈
##녈
##냊
##썸
##틇
##뺌
##꼮
##좽
##혠
##쫚
##땟
##쵮
##씂
##챀
##뜀
##롐
##핟
##닻
##곗
##왤
##깤
##붠
##햛
##맫
##뗘
##쀍
##놴
##앀
##줟
##끅
##늨
##둉
##잨
##굫
##틉
##뵁
##섻
##똵
##폄
##셥
##읜
##큿
##퉸
##렄
##븍
##뵙
##겍
##솑
##뢜
##앾
##칟
##닊
##낋
##뱬
##맣
##셲
##빴
##솽
##섁
##덫
##댱
##꼿
##뀠
##뒺
##팧
##닾
##쳥
##뺀
##뚨
##쉛
##웧
##뜌
##싳
##꼳
##땔
##큍
##윀
##녽
##뱎
##밊
##햽
##텹
##웸
##츼
##믁
##앢
##꿜
##멌
##툈
##쎌
##뻨
##쉩
##떳
##닿
##똮
##긎
##욯
##뜅
##햰
##괼
##츃
##슺
##퀙
##뵨
##쓥
##딍
##솄
##솁
##됍
##듪
##돡
##쒴
##줠
##졑
##돛
##풕
##흨
##넜
##풰
##쉲
##긊
##핝
##댬
##틑
##끨
##곙
##쎝
##쪌
##쐥
##뗍
##뗄
##눟
##켱
##늓
##꾺
##꿧
##뗑
##뷘
##섦
##쫜
##돨
##볜
##퇵
##엯
##쯩
##펵
##긑
##뜾
##쏭
##뻠
##쁑
##얨
##옶
##멉
##귐
##쐈
##촡
##힞
##푱
##깉
##탣
##뒹
##싵
##뷱
##뺐
##땬
##좄
##볔
##빍
##햘
##줆
##뽝
##뒝
##핱
##뚹
##룍
##싞
##닸
##뇩
##듼
##떩
##힜
##밯
##풜
##넵
##쳄
##궘
##숏
##쭜
##챰
##럇
##솼
##봡
##듨
##샇
##쁩
##졻
##쪠
##댣
##쑵
##탹
##얙
##촥
##땃
##쩟
##뉌
##쉌
##붭
##솤
##럏
##샦
##웄
##삲
##곢
##쩢
##뢸
##퉾
##츅
##곹
##죕
##홓
##뻦
##뾜
##뢴
##웆
##퓌
##콬
##쪹
##갭
##폇
##뽯
##훍
##쩞
##뚸
##쬭
##뀡
##슇
##읕
##믆
##믾
##췼
##룁
##잤
##쯀
##딨
##뱁
##쾤
##턘
##끵
##쮝
##깼
##햙
##릊
##뗏
##흗
##귿
##꺌
##삉
##눀
##쟜
##뎇
##컈
##긶
##뷜
##깊
##뭡
##쮑
##쎇
##쌭
##춴
##좎
##핼
##쀠
##펟
##뚬
##똫
##먖
##풂
##찎
##큠
##넎
##뱐
##쇇
##붰
##솬
##깬
##듢
##썜
##짇
##횔
##숱
##갷
##겎
##핌
##뚥
##뻕
##붝
##쩩
##뗭
##푠
##샞
##뫙
##볫
##쯘
##웽
##갬
##줱
##짒
##왙
##읈
##뺫
##둅
##멨
##뤈
##쩧
##쪵
##씆
##믕
##칮
##롼
##씋
##걊
##쫙
##짧
##귕
##쯰
##갫
##깆
##탶
##쪅
##숵
##듲
##헸
##킽
##읒
##갵
##뙬
##얎
##닽
##촴
##낝
##짹
##껕
##탙
##쥤
##팤
##탼
##뒁
##몹
##줙
##좫
##먐
##벫
##찭
##껨
##괞
##븽
##눰
##뺴
##넡
##벖
##렂
##퉵
##겊
##씼
##얚
##꺢
##깩
##턀
##즼
##웂
##뎔
##휸
##벍
##쳉
##냫
##뿥
##똴
##밐
##픜
##쁄
##홬
##쥭
##잁
##낥
##곆
##좸
##냣
##쭻
##콪
##헵
##픕
##욋
##톼
##퉝
##웻
##쨈
##옝
##얽
##섐
##긘
##겓
##엒
##됳
##죜
##얅
##햦
##솧
##곻
##혴
##뻄
##쪔
##힢
##훑
##뭰
##읉
##셎
##뗐
##팃
##퀐
##쳧
##쫟
##휔
##첮
##눜
##듄
##뜹
##쪈
##탵
##맂
##됑
##퍠
##쵝
##뎟
##롁
##춚
##쎽
##줋
##꿎
##돸
##캎
##탒
##롮
##읖
##삠
##뤘
##줗
##쟢
##뽐
##첰
##춪
##뚁
##횅
##믱
##쨱
##롣
##쑐
##펏
##숄
##뙥
##텻
##뜿
##겥
##캑
##쉤
##벱
##벹
##껜
##켑
##뀅
##댼
##닯
##끚
##볅
##묫
##쥨
##깄
##곯
##휙
##켝
##띔
##켬
##셯
##싧
##걜
##툿
##곈
##툌
##쩖
##곷
##삱
##껬
##쯥
##눴
##탆
##졉
##챜
##롫
##챴
##봑
##몉
##녴
##뱡
##쏀
##뤂
##툐
##꿨
##댇
##퉼
##귯
##뿨
##곾
##굡
##싅
##픵
##뙤
##뵜
##뎋
##늰
##쳠
##얺
##죈
##쯈
##햩
##뵬
##샔
##럤
##뤀
##긿
##윔
##쭊
##퓻
##캘
##힏
##섓
##혙
##륻
##뜛
##쟴
##짊
##칧
##쯕
##졳
##깖
##쳫
##뽓
##뜡
##콦
##욥
##튽
##넖
##곖
##돖
##잢
##푴
##놤
##긂
##튘
##젆
##폘
##뱩
##섈
##끐
##짺
##턹
##텈
##컽
##뻩
##쇤
##뤗
##톽
##웈
##쯫
##쀅
##갉
##쩰
##셒
##곃
##짯
##덍
##쏫
##팻
##넸
##믑
##틒
##됭
##씟
##럱
##얪
##됼
##탷
##탬
##쏵
##뉼
##쐉
##퍗
##읻
##졶
##밠
##됃
##퇄
##찠
##끛
##슄
##돽
##죷
##몪
##븜
##셬
##넗
##돝
##쯨
##곺
##뎉
##덀
##줅
##펬
##끍
##됰
##텓
##낻
##앻
##뗨
##봔
##볺
##녱
##렡
##삡
##뗵
##뎝
##푝
##뿰
##횄
##읓
##젭
##볇
##뚞
##츔
##눵
##잪
##쯋
##홝
##큮
##빢
##녿
##퉥
##녑
##롶
##쭟
##얭
##굥
##륏
##엤
##쫔
##죙
##짗
##됻
##굑
##떫
##튁
##욲
##뭏
##끆
##끜
##탘
##쑌
##삳
##킸
##얠
##씦
##챽
##듥
##윷
##쨜
##햝
##뉵
##혯
##줂
##쯉
##릃
##굈
##꼅
##븃
##츕
##땰
##잿
##갍
##놌
##멏
##녭
##왱
##릮
##앝
##쵁
##뀟
##굄
##깪
##줩
##챁
##퇬
##짉
##쎍
##뛌
##뇭
##끰
##뗠
##첯
##짣
##쫍
##볻
##륑
##햎
##퀜
##쵀
##꿥
##잴
##뭈
##솓
##삸
##놛
##쌗
##휵
##릆
##빮
##갥
##헷
##짰
##뗜
##햭
##봏
##랒
##궛
##멓
##뭌
##괌
##넽
##릳
##튤
##퉯
##흩
##돐
##뤕
##녤
##닶
##휑
##슽
##욫
##씃
##캰
##뉠
##쥡
##괍
##읃
##킾
##럾
##캆
##읪
##좂
##퓹
##봆
##껅
##륩
##믽
##춭
##엾
##킅
##붔
##횻
##맢
##윖
##늚
##끋
##냒
##솅
##랎
##퇱
##혬
##떯
##틘
##줕
##켭
##럳
##휩
##븎
##띃
##뱋
##탰
##탂
##돳
##옠
##섧
##좊
##잕
##큨
##넾
##녛
##쭞
##먺
##쒂
##줈
##섊
##퀭
##꼣
##홱
##퉜
##휠
##읯
##췍
##쨧
##섢
##몣
##꾁
##켖
##떢
##쳈
##딳
##쐨
##쇡
##똰
##잗
##벚
##홑
##쒯
##췹
##춱
##쵼
##핪
##굲
##퍈
##섟
##똨
##쓒
##죅
##옫
##뜃
##궍
##웞
##쓘
##뽸
##댭
##렺
##롲
##봈
##썤
##놑
##찧
##랂
##쨤
##홇
##푲
##셌
##뛀
##끎
##쫵
##냤
##웑
##흦
##섡
##몿
##묙
##톶
##퓐
##댙
##횦
##얋
##륧
##뀵
##풿
##긜
##뺸
##줎
##섑
##쯴
##빘
##좯
##햠
##앎
##뉍
##츀
##쉜
##턔
##뮹
##낹
##랅
##붛
##힁
##닜
##듶
##걤
##쾰
##쳦
##뉀
##뭅
##쥠
##뗙
##굧
##뫅
##솈
##뻟
##뀷
##쓲
##쟛
##섄
##첳
##긵
##츷
##쵭
##멥
##곁
##쓋
##뎊
##퓜
##댏
##퉌
##괬
##젗
##듴
##퍤
##픙
##췽
##엦
##싘
##쒓
##뉩
##혾
##롢
##햿
##뤨
##뢐
##궏
##쟨
##꼤
##썀
##쏼
##잾
##쒑
##훵
##셫
##낞
##끤
##뾥
##왝
##뒥
##앩
##맗
##떶
##넒
##엍
##릌
##깞
##쨚
##쬘
##붚
##볠
##쁌
##댥
##뇁
##똚
##쵤
##밡
##횞
##젾
##긲
##풸
##껔
##뭬
##젎
##뒿
##쒭
##껐
##턩
##셏
##훯
##퐄
##쁫
##렩
##뇍
##덲
##힡
##쓿
##쥇
##홪
##얫
##귾
##댯
##뿓
##뵐
##퓽
##튻
##졿
##낍
##쐒
##퉐
##괐
##떾
##믂
##귑
##쒁
##넞
##퉨
##휰
##뾀
##팦
##뤸
##죗
##둼
##쏸
##뤰
##귴
##뇓
##갲
##렭
##팢
##큔
##넄
##룢
##눝
##옸
##쎡
##뀪
##펅
##뤁
##긇
##웛
##숔
##죰
##뷉
##벴
##쬰
##갊
##낛
##읷
##덗
##갃
##잀
##뇮
##렧
##쎘
##쟘
##뢘
##땤
##젏
##퀠
##쿳
##쏗
##뽇
##껙
##텤
##죔
##씿
##왚
##뷩
##쐭
##낅
##텄
##핶
##쵱
##흪
##혣
##얓
##엵
##읹
##끟
##괔
##졎
##넫
##횝
##켛
##춛
##묹
##넚
##팓
##횢
##뾸
##씄
##뒛
##힍
##퐑
##즷
##벬
##졈
##왉
##릔
##똏
##싿
##읙
##뺃
##왂
##씯
##퀫
##칲
##뷧
##춈
##꺜
##펲
##밁
##댛
##쩹
##꼌
##넻
##끘
##뵷
##땎
##깓
##촮
##싐
##샓
##냪
##헡
##꾈
##쥅
##벻
##꼍
##빺
##빬
##깋
##렞
##굷
##퉄
##쑉
##튑
##덛
##뜱
##껵
##닄
##뛨
##췻
##녯
##늼
##촙
##칡
##댗
##랈
##놯
##틩
##읊
##큌
##텇
##됋
##꺨
##얰
##햑
##몊
##뿠
##썝
##첑
##땽
##셭
##괠
##짙
##썃
##뤵
##꽘
##쥣
##걧
##엧
##녉
##쒱
##뀜
##낒
##컿
##툑
##냦
##쭕
##봒
##샃
##앲
##쑙
##똩
##뗩
##퇑
##횤
##쇈
##덪
##덝
##쒕
##갞
##챳
##큽
##쭫
##궷
##쁍
##뛧
##풑
##쁟
##냧
##럠
##쨀
##쾃
##뒫
##퉿
##쒰
##혰
##퓸
##싺
##짥
##윹
##폯
##쭠
##밗
##퇭
##겛
##뼥
##죹
##걖
##돆
##팈
##짔
##탴
##팯
##푯
##삻
##솸
##뽉
##닡
##쿱
##뽂
##밓
##쟞
##밫
##쓊
##텂
##좣
##첲
##붌
##줸
##덋
##닩
##옅
##쯮
##섮
##엫
##엷
##쎳
##샽
##걈
##쀌
##롔
##핔
##썋
##걉
##긹
##귓
##맓
##삷
##줊
##셟
##풴
##킌
##팄
##퉽
##엩
##틷
##뮜
##쿺
##웤
##릈
##얿
##먾
##쌝
##칢
##왲
##뤤
##닑
##웪
##볒
##듩
##쓜
##먗
##떔
##촷
##롑
##뫃
##놥
##뺅
##캤
##싟
##앿
##쫠
##댚
##졽
##싨
##덷
##퓩
##뇜
##괏
##뙝
##뺼
##춉
##젚
##퍵
##쵹
##놕
##뿛
##쩗
##죧
##혇
##흴
##겝
##귖
##깛
##삵
##덖
##냏
##벜
##괆
##놁
##쬔
##껚
##릷
##갋
##쾈
##휫
##죿
##썄
##쳨
##봟
##뜳
##즄
##갿
##묾
##븤
##뱥
##뼙
##읲
##펕
##쉓
##쉫
##곂
##쮠
##띅
##쟣
##궬
##겒
##닰
##럅
##잍
##퓍
##헑
##헔
##읨
##랺
##욺
##샼
##젒
##숳
##뙁
##횰
##웉
##룟
##푈
##뗸
##픗
##듑
##곴
##륲
##뵀
##꽷
##솒
##텢
##뀃
##쫗
##칬
##춠
##몢
##욀
##쭏
##닣
##쉏
##윜
##킉
##옧
##걶
##돞
##쁮
##뵌
##걕
##횩
##낓
##뤳
##쿽
##봠
##뛥
##셇
##뤱
##흿
##뷋
##켷
##맊
##툻
##킺
##콲
##띗
##찦
##쇱
##핖
##굱
##뜼
##쟐
##젙
##싲
##괫
##헁
##훡
##탇
##붃
##괒
##캢
##뢋
##뫤
##췠
##쎁
##헓
##헢
##퍡
##꼻
##롧
##퐌
##윸
##헚
##꽼
##뺶
##쀵
##삮
##겚
##좰
##껓
##뭽
##꿓
##씉
##햫
##랕
##벏
##줓
##왴
##깦
##닒
##킐
##묽
##쓀
##뇹
##돩
##푤
##웋
##귻
##븬
##먬
##뱗
##퐤
##봗
##궃
##걨
##슂
##촀
##롥
##숮
##빶
##켚
##땸
##돘
##곪
##뺍
##묀
##춸
##맍
##쩅
##욐
##퍁
##넏
##쟠
##봴
##둇
##핺
##줒
##녙
##톻
##젇
##둍
##쎰
##싦
##딀
##쩘
##왰
##찓
##핚
##렑
##뾴
##됸
##딈
##몡
##큄
##큳
##껗
##쎕
##싓
##왛
##꺗
##뀄
##죣
##윿
##풱
##릸
##씾
##뫠
##얃
##읿
##춣
##튐
##퍀
##딮
##롰
##뮙
##풓
##죱
##콋
##뎆
##찣
##쐇
##픞
##뜐
##즑
##혭
##풎
##맔
##쩓
##섩
##쁸
##퇼
##둄
##몴
##짋
##퐛
##떧
##뇄
##쬑
##뒐
##튝
##븻
##븓
##맿
##폽
##녗
##뫁
##뫀
##폑
##쒤
##볱
##텠
##쐅
##얷
##꿯
##쉦
##믅
##꾕
##쫴
##긩
##줨
##짂
##핤
##윢
##굣
##죻
##끏
##팑
##뭑
##곟
##렫
##꾭
##꼹
##쁴
##듹
##젺
##묺
##갏
##잒
##흅
##섷
##짷
##춌
##걐
##쎱
##똠
##긌
##릂
##렆
##긬
##녃
##롓
##촣
##죨
##럻
##띧
##뎜
##흳
##괃
##퓔
##뛬
##굨
##씊
##퇜
##뮝
##늿
##븩
##쌯
##핋
##딝
##앑
##욼
##딻
##뚣
##쓃
##믛
##쏨
##뉑
##딋
##릋
##쿌
##뭫
##꽠
##넔
##홴
##젋
##졁
##돰
##뮏
##쮱
##걵
##튾
##눃
##걲
##쥳
##쇳
##뒸
##숬
##싈
##쏖
##잝
##흇
##싂
##큱
##컫
##굤
##뱈
##쨓
##햍
##혤
##렦
##윶
##턕
##뿽
##튔
##흓
##쪻
##솎
##븕
##벋
##봫
##쥈
##혱
##룿
##뷷
##뉄
##떪
##먿
##갧
##잂
##뒌
##뽘
##떗
##힗
##듰
##퍛
##딦
##폳
##빏
##뽚
##짅
##뺒
##꺡
##탛
##뱄
##썟
##겴
##흒
##돴
##욍
##즜
##쑛
##쉄
##덌
##뤙
##쟂
##낐
##럑
##폔
##킘
##죚
##뀬
##앁
##꿬
##롕
##즵
##샒
##괗
##둗
##졹
##휭
##쏱
##뵘
##헭
##쒈
##빷
##챂
##붋
##텆
##웇
##쬥
##긏
##뙨
##꿌
##홟
##꾠
##깧
##춫
##곌
##웼
##쨨
##햨
##홗
##큲
##팏
##톧
##눉
##뮉
##팆
##엲
##췰
##뀝
##륌
##늖
##옃
##낖
##팗
##젷
##꺀
##랚
##웒
##믤
##쁭
##쉗
##벛
##낧
##돓
##쁙
##릍
##뤅
##핐
##맻
##뮻
##뭋
##좥
##킇
##셅
##놊
##돶
##뾕
##꽆
##묑
##씳
##깯
##줃
##엢
##캈
##냋
##믘
##옞
##즣
##걳
##붆
##뇔
##헽
##벆
##뇝
##돇
##럥
##쮀
##낣
##괋
##몯
##푶
##긥
##듡
##쫖
##퉺
##덙
##붯
##낡
##엋
##씇
##롡
##헾
##퇮
##쟬
##펗
##곩
##뿁
##옿
##쯛
##팣
##젅
##캮
##찱
##겿
##먝
##뚼
##츱
##뿀
##숚
##탍
##꿴
##늟
##첟
##쎃
##뀸
##틓
##뵏
##읩
##숖
##샫
##뱜
##엪
##훰
##퐆
##춑
##겯
##긃
##뗬
##캩
##벐
##쟆
##췟
##럕
##볹
##됒
##쟀
##굗
##젞
##꽛
##굩
##냗
##꽅
##긓
##룄
##턋
##씥
##쟡
##뙜
##폮
##뿃
##눻
##쑜
##똿
##졲
##줐
##걹
##럵
##둩
##둊
##싚
##됡
##댒
##틐
##귣
##땝
##횹
##깇
##쒘
##렏
##쫮
##핢
##쐴
##뼤
##몔
##븂
##쬴
##컁
##걎
##셊
##쓈
##햋
##넦
##춋
##갣
##뱓
##웊
##됔
##겙
##쫃
##쭀
##흏
##큅
##윚
##됟
##봽
##봭
##궇
##걾
##넀
##껒
##퀻
##홐
##혻
##잙
##툠
##폅
##엓
##볖
##럘
##늭
##렳
##댂
##렅
##뎰
##벲
##윝
##춟
##쯭
##쫐
##냎
##쩃
으로
에서
##니다
한다
사람
아니
는데
라고
에게
나라
지만
국민
우리
다고
까지
생각
라는
면서
다는
20
대한
때문
일본
이나
해서
으면
그러
이런
습니다
된다
그리
해야
한국
보다
지금
하나
문제
중국
##렇게
부터
그런
대통
자신
정부
인간
그리고
대통령
다른
10
처럼
문재
진짜
위해
만들
정치
정도
인데
그래
는지
어서
19
가지
아닌
아이
이상
미국
민주
합니다
는다
그냥
입니다
경제
##대로
북한
국가
경우
이제
조국
사회
모르
다가
정권
들어
한테
문재인
사실
자기
시간
##주의
해라
아무
다시
201
나오
소리
정신
너무
시키
##민국
기사
대한민국
세요
모든
##00
라도
따라
필요
세계
가능
정말
사용
##니까
많이
네요
시작
어야
해도
모두
무슨
어떻
인지
여자
재앙
얼마
같이
못하
당신
으며
그러나
보이
사이
그것
이렇게
가장
거나
인가
검찰
상황
아서
다면
지지
돌아
기업
여기
그렇게
댓글
이미
없이
이후
자유
아직
민주당
다음
##지만
대해
이유
니까
세금
려고
어떻게
마음
바로
##라도
어떤
어디
조선
수준
그렇
으니
이러
잘못
이야
지역
함께
저런
모습
다니
##거리
계속
도록
조사
하지만
세상
결국
##스트
이해
200
언론
시켜
아야
피해
좌파
프로
라면
어요
사건
남자
쓰레
##다고
보여
관계
이용
쓰레기
##소리
이름
어느
한다고
##어나
이번
이야기
얼마나
여러
이것
새끼
능력
선거
상대
또한
공격
그래서
역시
중요
제대로
국회
##레이
교육
그만
운동
대로
떨어
##갱이
서울
그럼
존재
자리
나가
이게
수사
동안
빨갱이
대학
역사
머리
한다는
위한
시대
가족
더니
누구
버리
누가
##머니
제발
방송
그녀
##스크
자체
을까
##OO
대표
통해
아주
학교
OOO
보수
시장
##다는
당시
얼굴
구나
처음
방법
장관
결과
현재
공산
의미
조작
책임
정책
지원
나온
12
정의
일반
본인
보내
경기
전쟁
부모
는가
뉴스
행동
관련
상태
내용
기술
회사
그런데
반대
게임
경찰
30
어도
지나
여성
은데
박근
아닌가
현실
완전
사랑
##가리
먼저
18
개인
물론
언제
박근혜
거짓
만큼
내려
당연
얘기
인정
자식
##버지
마스크
연구
##러운
##천지
새로
아들
못한
##부터
100
개혁
선동
기자
나타
활동
11
마다
등장
특히
신천지
거의
힘들
##부분
똑같
생활
친구
당하
려는
정보
영화
봐라
범죄
무엇
들어가
문화
사고
위해서
집단
오늘
시민
거리
서로
15
올라
근데
나이
잖아
밖에
절대
대부분
주장
##구나
학생
이랑
이건
청와
의원
나요
청와대
조금
부분
권력
실제
만든
거기
하루
##로나
로서
관심
바라
그래도
관리
결정
해결
기본
전부
##인다
과정
어려
코로나
##스로
일부
##시아
엄청
김정
이루
매우
##시다
직접
사업
지요
아버지
정상
##가지
투자
검사
##라이
스스로
최고
탄핵
나와
##없이
과거
##으며
빨리
으나
그게
대상
걱정
스럽
미친
##돼지
공개
개발
##린다
##의원
친일
50
##진다
외국
효과
개돼지
주인
단체
대구
새로운
의해
아라
##아가
는구나
사라
기록
요즘
199
미래
텐데
발전
선택
##려고
성공
그대로
다만
국회의원
독재
아베
어린
다르
차이
교회
총선
더라
부정
그때
만나
자한
세력
교수
전체
##리아
선수
민족
오히
아무리
##무원
오히려
건데
해야지
표현
여론
금지
##어지
공부
인물
종교
입장
세월
처벌
진행
도시
유지
확인
또는
결혼
설명
비교
인터
전문
어라
듯이
만드
평가
감정
발생
시절
대신
건지
드러
##이트
기준
삼성
##지막
가치
확실
조직
해당
작품
이거
나왔
영향
노력
기억
너희
건가
더라도
준비
어찌
상당
공무원
가짜
생산
따라서
순간
전혀
한심
혼자
기회
원래
분명
가진
##다가
의사
국내
대가리
올리
판단
무기
사진
더불
도대
노동
자연
##으나
도움
기관
도대체
무능
인생
경험
알려
비판
마지막
으면서
부르
에선
어쩌
무시
논리
진정
으로서
모양
구속
외교
더욱
돌아가
사기
정당
이전
가격
의식
##스터
엄마
국제
바람
그걸
구조
대해서
달리
여행
요구
행위
지켜
보인다
거짓말
보호
인해
적폐
토착
아요
죽이
넘어
추가
사과
입국
봐야
주변
증거
지도
출신
방식
와서
위험
김정은
한당
가져
운영
떠나
아님
병원
변화
평화
대체
목적
군대
포함
바이
비슷
##조건
처리
스타
기다
돼지
##어난
16
##나라
환경
25
무조건
##드시
못했
반드시
찾아
겁니다
대단
시킨
플레이
왜구
지방
지키
됩니다
중심
밝혀
##른다
시기
구만
위치
제도
이젠
치료
전투
역할
##한다
40
기대
투표
부족
아마
##자리
선생
던데
으로써
아파
배우
일단
비리
계획
인사
##려서
제일
##심히
##아먹
구성
위원
캐릭
항상
바뀌
승리
시즌
라이
개념
하고
나쁜
살인
하늘
신경
이래
성장
어머니
전화
카드
지난
사망
독립
사태
한데
해외
캐릭터
진실
난리
열심히
아래
가까
13
17
려면
진보
생명
움직
한다면
오래
##동안
끼리
##세요
봐도
부대
가리
정확
##er
설치
##리스
14
일어나
냐고
버렸
황교
나중
므로
달창
소설
동시
본다
로부터
아도
공산당
##으니
당연히
우선
도와
실제로
##이스
인권
이익
최대
경쟁
충분
전라도
정치인
남편
발견
마시
피해자
불법
당장
##므로
제품
마찬
조차
다양
서민
재산
산업
건강
마찬가지
강력
직원
민주주의
떨어지
후보
##자기
부동
가정
사상
신문
참여
발표
조용
어렵
마치
자동
인식
##아들
나온다
자주
이기
던지
##수록
훨씬
살아
중국인
의료
고통
현대
준다
##운데
망하
나경
가만
##러스
느끼
과학
상관
프랑
부동산
형태
감사
하나님
증가
통일
지지율
의견
시스
중앙
법무
고려
독일
가르
일으
그림
따르
촛불
##랜드
나올
단순
##일보
영국
나경원
목소리
##라고
기능
##럼프
실패
##라지
기간
통합
임명
줘야
총장
언급
노래
만약
안타
자고
최소
양심
가슴
아파트
시리
소비
한국인
198
매국
트럼프
지구
생기
세기
지식
갑자기
제작
무서
그럴
세대
라니
행복
제외
올려
##비스
군사
말씀
고자
야당
감독
죽음
부끄
유명
아예
빠져
위기
으니까
##으면
대응
특별
유럽
느낌
심각
자격
바꾸
보도
혹은
솔직
대화
##해서
완전히
미사
##워서
제공
포기
오르
보통
레이
적용
던가
노인
된다는
광고
시스템
환자
##이버
레기
성격
누군
공정
집회
노무
할까
동물
할머니
윤석
눈치
그나
사회주의
조건
평생
주제
미세
친일파
없애
자는
내리
어차
청원
감염
의심
어차피
라서
##라리
이때
아닐
그저
영상
싸움
불러
보험
된다고
##학교
느냐
차리
##디어
자꾸
월급
강제
아프
자세
목표
건물
목숨
습니까
인터넷
자국
거든
임금
##너지
##간다
가운데
변호
인구
프랑스
21
황교안
무식
##이지
싸우
마리
##어진
간다
주식
전략
소득
시켰
프로그
비용
##레스
##정부
판매
이리
바보
이미지
##어들
뭔가
자본
으려
취급
##in
판사
응원
##on
불쌍
작가
동네
서비스
경영
노조
원인
관한
##전히
참고
이명
알아
속도
기존
시리즈
강화
방향
든지
전국
께서
음식
지랄
나타나
나무
단계
러시아
자살
마법
반성
현상
이동
예전
차라리
궁금
바리
기분
계약
우한
드라
쳐먹
음악
수처
공동
미사일
질문
자료
아냐
마이
불리
문학
자랑
부탁
그나마
철저
시험
마을
주로
달려
네이버
그랬
타이
간첩
비난
더러운
주인공
파악
분석
프로그램
멍청
상당히
반일
##려야
재판
보였
60
아침
그건
생긴
운전
##먼지
아내
힘든
광주
##마디
##지어
문서
바이러스
대변
보고
공산주의
일자리
발언
라며
해요
작업
유일
방어
분노
받아들
개소리
미세먼지
남성
거부
아닙
분위
무리
괜찮
눈물
안정
##려라
리그
반응
노무현
주민
파괴
걸리
여당
걸로
유시
점점
보상
개월
모자
집안
불안
행사
언어
일제
심지어
공장
장난
차지
부산
한마디
인기
최저
이르
동일
초기
온갖
사형
생겼
##an
최근
고생
분위기
불매
거래
부인
상식
이어
대책
저지
소속
공식
심판
사법
공간
당한
솔직히
연기
규모
안전
청년
매일
70
주의
스트
불구
사장
비해
물건
유시민
인도
##다니
문죄
특징
내부
유리
##랍니다
버린
활용
스킬
설정
고등
어려운
한편
게다가
다며
범죄자
이걸
시위
근거
수출
연금
규정
애초
확진
일어
대중
사퇴
인상
단어
바랍니다
난다
박정
의혹
어쩔
장면
지속
수입
이론
이란
행정
체제
나머
지배
스러운
직업
마련
진심
희생
희망
시킬
##이션
그거
으로부터
아무것
뻔뻔
차별
기독
몰라
정리
일까
정은
구분
여전히
바라보
과연
시설
버스
프레
##가락
인민
권리
들어오
최초
판결
80
감옥
대사
제한
고객
깨문
비롯
지적
업체
하여
뿌리
담당
종북
여러분
24
차원
연결
업무
시도
제목
상품
미군
대답
저렇게
그동안
위하
대하
덕분
합시다
나머지
의도
제시
특정
도망
따로
최악
짱깨
국정
관광
건설
분야
##이터
나서
아름
해석
엄청난
유공
상승
어야지
신고
적극
했었
특성
돌려
조치
연예
태도
훈련
기독교
제국
짓거리
##난다
2018
역대
애국
22
##어도
요소
택시
당했
처먹
신뢰
법무부
윤석열
집권
이재
바꿔
남불
유공자
수행
주택
악마
TV
예수
느라
유치
주사
시점
기부
부자
예상
다리
흔들
집값
197
교사
외국인
우주
별로
영원
고개
잠시
규제
박정희
회복
표정
장애
지하
가만히
청소
내년
는다는
은행
모델
실력
전기
영어
을지
강남
집중
전통
대회
맨날
우파
통제
##바로
분열
요청
##토리
군인
도로
등등
##ar
자동차
장사
외치
키우
는다고
돌리
##란다
직장
아닌데
에요
장기
시청
주도
중간
태극
로운
웃기
기다리
이성
사무
페미
영웅
대전
수많
할지
일정
모아
드라마
기생
현장
변호사
##우스
##학생
형성
오른
투기
혁명
수도
2017
500
느껴
상상
마저
똑같이
조선족
누리
##아치
변경
회의
매국노
레벨
위안
23
출연
꼬라지
조선일보
벌써
충분히
복지
단지
나누
헌법
냄새
저러
고민
차량
자금
##말로
다행
공감
깨끗
했으나
시켜야
달라
조심
000
강한
특수
자녀
몰랐
2019
평등
원전
##BS
미리
목사
원칙
각종
도덕
의지
그리스
조용히
바닥
조정
소유
무섭
이끌
실수
##미지
부담
##or
물러
올라가
넘어가
##다보
달러
정작
지지자
비행
2016
전문가
정체
재미
갈등
연합
여야
##디오
가득
부부
불과
##이드
억울
예술
미치
사례
아빠
동맹
드립
의무
폭력
대선
이곳
##여서
명령
근무
안보
이놈
자면
부리
전자
300
프리
누군가
폐렴
##져서
당해
체계
개선
주둥
모른다
##라인
옛날
폐지
바다
노예
의한
고서
초등
주요
최순
공기
나간
이사
타령
약속
방문
두려
올림
통과
90
대학교
국방
그룹
기에
##리카
굳이
성적
수십
짜리
보유
##진국
했으며
합의
거지
으려고
격리
반면
혜택
내놓
개판
핵심
태극기
철학
밝히
위원회
2015
최종
구하
죄인
위협
수익
문통
의하
으므로
강조
교통
대비
이탈
보스
실험
##다면
지급
사항
이럴
다이
당선
민국
베트
다녀
자빠
빠지
아닙니다
뒤집
드리
동원
회장
마세요
초반
196
이명박
축구
빠르
살펴
고소
보장
놀라
수단
헛소리
국당
기도
옹호
각각
약간
##화문
혹시
주위
박사
떠들
답답
동생
합리
공급
양아치
후반
나와서
죽여
지도자
천만
챙기
확실히
졸업
라인
실시
그러면
멤버
장소
더럽
니깐
정신병
대출
##en
청문
광화문
대놓
남북
##어내
통하
접근
움직이
꼴통
위선
예산
##at
강하
반복
하이
적당
데리
작용
지내
토론
물리
프레임
거대
유저
금융
따지
향해
구체
51
사라지
계산
터지
##뜨리
##머리
대처
평소
자영
노동자
어른
비하
증명
그곳
방해
일상
봅니다
유니
애니
동의
끝나
더만
연예인
전두
가해
청산
##20
사정
세우
심리
너무나
이하
제정
그러니까
##al
때려
##아내
추진
디자
스러
법원
예요
컴퓨
감소
겨우
에너지
소개
##어리
장비
체력
어떠
##으로
##프트
십시
상처
성과
이념
항공
베트남
자원
철수
올림픽
##반도
안타깝
아무런
천지
구매
손해
위안부
센터
참가
26
도둑
##운드
숫자
높이
자영업
지경
컴퓨터
청문회
지시
2014
스포
대변인
아름다
최소한
고용
개정
뭔지
전두환
심하
확률
시국
31
기초
통신
형식
충격
야지
차례
바란다
경상
살리
우승
아니면
기계
2000
서울대
좋아
도입
황제
취업
만족
다운
결코
논문
코스
결론
제기
확보
비례
사전
때리
지나가
훌륭
차단
개입
비밀
전환
벗어나
동료
##은이
28
보복
##져야
막말
에게서
줘라
평균
군요
데려
작전
따위
사이트
무너
스토리
학원
27
협력
불편
생겨
저기
봉사
리더
논란
영역
어리
그네
슈퍼
신청
미안
화장
느그
한반도
한계
협박
시행
독자
수치
자국민
선언
부여
걸려
##숭이
죄다
무장
들여
방사
에겐
무역
다수
인류
기반
아야지
간단
노선
감성
지정
상대방
대놓고
들이
공화
194
수용
식민
총리
장군
학년
공공
##es
한번
적어도
찬성
협상
망치
극우
가끔
녀석
가까운
클럽
그래야
월드
을까요
언제나
유학
본질
교활
저녁
맞추
어제
영업
물질
통계
이중
담배
##아리
와중
##와서
다를
##니아
2010
말아먹
태양
우려
고발
그만큼
앞서
묘사
인터뷰
##라스
##BC
제거
종류
주체
시켜라
나쁘
양반
웃음
보낸
용서
투쟁
제주
다루
공포
나름
창조
근본
##리어
영혼
살아가
##로지
쓰러
##다수
도착
아닐까
수정
플레이어
유사
소환
고대
짜증
소식
칭찬
어린이
수상
당당
전형
따른
진다
공사
2013
폭발
기생충
통해서
##이팅
모른
어울
불가
작성
청구
##바닥
고등학교
저질
가입
예정
명단
세워
디자인
확대
어이
소비자
무서운
임대
##하면
진출
##아지
교체
##마자
사냥
인한
착각
둘러
##준다
오지
혼란
지옥
한지
굉장
원숭이
장악
2012
상징
적절
민간
##벤트
비율
등록
오랜
멀리
순위
취소
한가
근처
전달
범위
오직
##쳐서
버전
배치
##튜브
이벤트
수업
완성
대다수
기타
성인
유튜브
경향
철저히
저것
소재
져야
자라
보단
유닛
흘러
패배
명예
시각
망해
추구
분리
에다
추천
구역
입학
걸린
시원
존경
측면
나갔
##아버지
표시
성능
아닌가요
시선
소수
저리
들어갔
마침
29
가난
##노총
정의당
브랜드
로마
설립
195
선물
똑바로
스테
집행
시진
건너
구라
저항
바른
줄이
##조리
빠른
아이템
돌아오
비싸
민노총
##인트
검색
메이
자마자
활약
민심
스포츠
몰려
인가요
버티
순수
호구
저거
해방
모드
발사
스페
사유
성향
소년
백성
고향
효율
의문
못할
정확히
생존
손가락
연속
배신
발매
배경
참으로
번역
무대
김대
지휘
수록
못해
홍콩
이외
니다
편지
소녀
사실상
끝내
오리
아가리
아르
일본인
단다
제안
만화
형제
떨어진
강간
다름
근대
전하
모를
여름
이딴
마르
입니까
##요일
요리
주일
연장
분류
저렇
챙겨
아기
부활
조중
##리오
운운
상호
방역
감싸
외부
모여
이자
오로지
가까이
이래서
였으며
공연
##줌마
인성
##he
##드리
분명히
이혼
데미지
달성
테러
유치원
고요
드러나
마약
시진핑
근로
마냥
왜곡
##사자
아줌마
중대
용기
부끄럽
대형
나베
에휴
꺼내
괴롭
더러
선진국
35
시급
수술
##철수
편집
##어났
기획
2011
올랐
로써
실망
우린
제조
블랙
해체
욕심
전개
이탈리아
엘리
일어난
완벽
문자
기득
빼앗
문정
추정
무지
일부러
조합
나눠
남녀
될까
성폭
내일
임기
후손
##저리
먼지
사이비
카페
주문
자존
논의
번호
홍보
이민
왜냐
편하
성우
보냈
드래
위대
디지
비록
참석
삭제
에이
공작
일으키
드루
실업
언젠
압수
브라
타격
기념
수석
##나무
진중
자빠졌
아시아
실천
그날
걸어
징역
##거운
으시
##더니
피하
변하
위반
절대로
병사
자극
오늘날
전원
자본주의
란다
진영
수백
펀드
우리나라
조중동
몬스터
늘어나
겨울
스타일
고정
안철수
거라
산다
단식
이만
직전
가수
그려
아웃
극복
문가
불만
굉장히
구입
알리
는군
쩝쩝
기울
도전
윤미
벌레
맞춰
떨어져
여부
귀족
탈출
##민주
금액
가해자
정신병자
나아가
##ic
든다
공중
이득
무죄
혐오
억지
전염
그러므로
충성
관점
폭행
새기
태어나
파이
마디
전해
계기
스런
속성
리얼
경계
함부
신분
구요
나갈
변명
버린다
질서
둘째
출발
종합
케이
허용
영원히
야구
팔아먹
공항
식사
식민지
치매
지니
혈세
김일
예배
더군
##트리
똑똑
중단
신체
지상
스트레스
고마
애비
##긴다
일당
화이팅
출시
고양
해봐
##로스
학습
선정
빠진
정해
연락
살펴보
미개
크기
식당
해졌
인원
어째
대우
운명
노릇
힘내
꺼져
원하
중소
핑계
이승
등급
자산
윤미향
계시
먹이
설득
온라인
##고기
욕먹
문정부
평범
존나
부패
대장
바탕
학자
전반
폭탄
건가요
몇몇
했으니
잖아요
지껄
##구석
법률
시체
대기
저게
당할
##it
유전
##연히
크리스
가로
절차
붙이
보조
##이도
위키
한참
이웃
소송
특검
함부로
518
확정
기소
기원
소중
저희
반영
김대중
##잡이
였으나
##타기
선전
인천
놀이
청소년
소문
박원
종이
단순히
마누
내세
어휴
2008
드러내
실현
가게
지켜보
고맙
소련
표창
일반인
부상
방사능
한정
##니스
흐름
아저
살려
남한
계급
##is
북괴
##레이드
떠올
미소
긍정
##버스
김일성
어깨
몰라도
앨범
##무리
물어
지능
계열
감시
재난
폐기
km
아저씨
자네
강의
종자
미쳤
투입
아깝
새벽
아까
한두
절반
##le
적당히
확산
복잡
젊은이
단위
권한
으라고
주목
짐승
아닌지
공격력
##혜원
비행기
이스
2009
##어버
할아버지
배운
못한다
줘서
좌우
그대
##친다
장치
미쳐
일행
물가
아름다운
##너스
이슈
이루어지
##란드
연관
취하
바르
애니메
부하
패턴
철도
대안
진중권
각자
괜히
KBS
확장
193
배상
갖추
##오르
텔레
고위
정경
공동체
인증
선발
##워하
##구요
채널
즐기
흘리
찬양
된다면
인재
추종
연대
받아들이
죽인
반도
역겹
손혜원
기여
쓰이
구리
무한
아마도
압박
요인
신앙
강요
대만
지닌
실행
물타기
공유
수요
올바
은가
획득
표기
통한
수호
재정
제재
고기
버려
심한
실질
데이터
제정신
길래
모조리
의료진
공통
혐의
버릴
대리
##저기
카메
매달
여기저기
낭비
명칭
살아남
회담
1000
일종
이겨
일찍
감방
후회
십시오
며칠
자존심
어쨌
##기업
마땅
데뷔
내게
원리
원작
용어
들리
다섯
준다고
올해
적자
무릎
포장
비상
들려
##젝트
세트
내내
들어간
현금
애니메이션
객관
파티
뛰어
우습
끌려
작중
##직자
점수
##마트
본래
정규
패스
꼬리
발악
뇌물
자유민주
발달
키워
미디어
구축
옮겨
되돌
보일
드립니다
수학
거두
돌아다니
구간
쉬운
마누라
배달
##시마
연습
여유
운행
윤리
공주
거주
설계
도중
촬영
혁신
이렇
##어져
박살
맘대로
검토
투명
연봉
통화
커피
##준표
노리
뛰어난
탄생
의존
재벌
항목
비싼
균형
한쪽
전용
는다면
성폭행
날아
홍준표
##야지
최선
올린
무사
고집
작년
수구
##파이
공화국
실체
깊이
45
임무
##다란
벌금
채용
김경
조각
상위
어려움
저자
동양
##ou
숨기
할려고
자유민주주의
독재자
메인
자유당
어이없
멀쩡
##센트
검증
신기
내보
깨달
필수
이라도
점령
유도
아동
죽일
남기
시켜서
경고
전사
잠깐
몰아
생물
인하
2020
어지
부러
존중
명분
건축
날리
왜냐하면
주가
최대한
포인트
복수
아가
그놈
##래도
발휘
종료
매출
진단
마주
누굴
도구
알바
본격
비중
36
호텔
인력
##저히
경기도
만일
전세
농단
정식
허가
고작
다소
타인
거품
##아나
시인
출산
좋아하
셔서
에피
언젠가
어둠
커뮤
마무리
공짜
해봐라
커뮤니
통치
##구리
시계
늘리
휴가
##om
흔히
일어났
고유
발동
중도
##소드
이재명
시킨다
동기
덩어리
위조
마케
으라
인격
지하철
전력
감히
홍어
물러나
벌이
구멍
해명
합니까
리라
거쳐
메르
압도
##조선
즉시
명확
느낀
깨닫
아프리카
걸까
큰일
2007
여인
오염
화면
문장
카메라
##거지
고속
유형
미터
하락
줄어들
붕괴
감각
사법부
서양
지나치
냐는
휴대
흐르
마인
채우
가르치
치우
파일
협회
조장
상관없
엄청나
차려라
편의
제출
병력
전파
파워
오빠
긴장
알아보
문명
그리스도
은지
워낙
정말로
빨간
배려
법안
프로젝트
##티브
##로운
모임
견제
여서
드디어
왕국
아군
조상
허위
고문
허리
대립
##시지
출판
첫째
음주
국적
느꼈
갈수록
거절
연방
심장
해진
매체
규칙
재료
당사자
다스
트리
가문
형사
##re
나타났
장점
진리
##온다
우수
##구려
베이
대국
그야
##둥이
##ol
특이
오후
대충
폐쇄
지위
대가
만난
신라
공약
##비아
파리
드래곤
수비
사내
괴물
회원
전라
써서
##르트
예측
멈추
에라이
##미터
오브
엔진
확신
수수
연출
추미
도쿄
몰래
##as
불교
재인
아우
조지
일관
사단
무력
중소기업
토지
무너지
저지르
올렸
##다리
마구
찾아가
이슬
##id
중공
백만
마당
열린
조성
종종
신화
유통
이분
질병
##어졌
침략
답변
가졌
피부
99
지원금
추측
걸렸
망신
난이도
이른
구경
일치
에피소드
##수색
진화
그린
요금
쳐다보
##000
00
데모
2006
그지
##이크
고양이
자위
지대
되게
밝혔
정서
교도
고급
커다란
종족
압수수색
##덩이
아픈
배워
으론
다면서
경상도
비서
내렸
아쉬
세뇌
위원장
넘기
복귀
전설
구해
개그
개최
가시
학문
하긴
마침내
어쩌면
불렀
경비
마케팅
스피
수장
씨부
초대
이쪽
##에도
죽창
시나
처분
##el
히로
학부
유대
상실
출전
해산
지네
이낙
동질
2004
스카
매년
원자
다는데
가스
그분
52
이라
여지
고인
만났
##학자
겁나
중반
지향
붙여
사망자
불행
사리
봐서
기어
재수
책임지
바퀴
모이
패거리
##따위
애기
신호
박수
반도체
행태
부서
밀어
노트
##웨이
기름
체험
끝난
41
기지
안타까
반박
쓴다
은퇴
해군
##생활
추방
그야말로
파탄
구원
기구
매장
도저히
동성
마스터
선배
##클로
여겨
2005
걸레
내려오
요새
이어지
운용
하여간
금방
##am
써라
던져
어울리
부문
체포
학살
신상
으신
잠재
따뜻
명백
오랫
수천
2002
LG
32
소름
서류
38
공천
꾸준
틀린
누르
특혜
민생
외모
과제
떨어졌
끊임
믿음
살해
일가
중학교
내려가
부품
뒤지
퍼센트
신도
색히
천안
늘어
베네
동아
조종
넘겨
든가
감당
극단
공원
한글
상자
개성
탄압
어리석
노출
롯데
침묵
위장
조롱
출마
모으
소모
예의
설마
무료
자치
협조
유니클로
이낙연
등신
전교
시끄
무언
닥치
꼼수
바위
의학
수당
소용
붙잡
전시
사령
극장
오해
추미애
서술
문제점
최후
결합
법인
판정
33
순서
일보
타임
구별
간신
역겨
발행
##스타
전제
MBC
나불
동남
방지
연주
진지
데이
는구
만만
망할
증상
그릇
의회
##영상
안다
##임금
무려
아무래도
제자
보여준다
걸음
려나
축제
개방
날려
습관
신용
될지
조만
개학
관찰
양성
공인
점차
접촉
교환
화력
이길
들어왔
전면
의해서
공평
마사
일방
착한
나타내
오만
허락
##어먹
과장
교과
직후
봐요
감동
##벌이
잘라
언니
모자라
위주
으러
이만희
민중
소통
##터리
벌어지
쓸데
끔찍
게이
장학
체육
음성
유승
2003
후쿠
지점
##범죄
후원
##힌다
파트
부추
도서
지껄이
##빨리
권위
욕망
여담
로봇
합격
주말
이뤄
##운동
박원순
##잖아
가깝
191
동영상
골라
끌어
육체
연애
대접
폭동
감추
방영
그렇지만
태어난
##인지
경력
틀림
라면서
움직임
갈라
부끄러
참조
유가
의외
오랫동안
남겨
바뀐
영향력
수령
올바른
주차
핸드
훼손
입시
그럼에도
##쟁이
국산
티비
창피
이해찬
바치
유기
가려
우기
쪽팔
창출
이승만
##ion
보편
사죄
한방
방위
부끄러운
약한
잡혀
천하
한때
멸망
하수
체크
써야
패치
이치
중독
일지
##비전
흥미
뉴욕
지혜
심정
무렵
흡수
유행
부처
대결
알려져
축하
##ing
이스라
이순
감수
다닌
김영
울산
저주
마녀
사격
조절
어쨌든
집어
무덤
계층
느낄
주둥이
회피
졸라
진입
인종
합법
약점
단점
##느님
김경수
들어갈
##et
글로
스페인
어두
지겹
셔야
저지른
뭔데
최강
손실
밀리
정하
하느님
물려
엉망
이내
머물
주먹
끌어내
해제
숨겨
챔피
조만간
들어서
범인
##지르
정수
양식
최저임금
미아
보건
중립
독도
으려는
활성
게시
보안
봉쇄
언론사
바쁘
부채
아나
간호
당황
협의
향상
단속
코드
간부
와이
화장실
##텐츠
로스
대대
사라졌
장식
모순
시나리오
안내
48
가라
매력
이스라엘
표준
경북
천국
라운드
변신
북쪽
게이트
##프레
걸쳐
고쳐
엔딩
재미있
가사
강원
넘치
지진
왼쪽
협정
자제
정지
환영
라디오
모시
소위
다녔
아이돌
할려
싸워
급여
신세
천천
남쪽
반미
신학
방안
밀려
영토
링크
수시
천천히
열리
옮기
죽였
출입
자아
자발
항의
이슬람
장수
지명
테이
마인드
매번
널리
쟁이
##시고
들어온
대박
환상
가르쳐
속이
관계자
찌질
인수
외면
견해
또라이
가요
대륙
진상
경쟁력
스마트
대학생
전술
펼쳐
초딩
작정
마트
##그리
다물
온다
임시
장학금
편성
소프트
업적
보인
앞장
미술
연구소
으리
음모
사무실
##ac
거든요
오버
##그릇
성립
##거나
1990
##il
나타난
표창장
진작
대법
각성
본부
하드
시청자
##르크
채워
추적
세이
##벌레
180
열받
어릴
에서부터
그쪽
나대
는데요
가볍
하여튼
미션
하위
보급
새롭
발광
시내
입맛
반란
부장
전염병
국익
##리스트
근로자
##나다
아이디어
150
성경
어마
##나가
소방
서서
열차
회수
전차
카이
강도
암살
서구
##리즘
심사
##대가리
신념
김성
SK
떳떳
구석
비디오
주머니
아카
스펙
만세
때로
##석희
겁니까
사자
예방
수리
꼰대
보소
##치기
원수
메시지
메르스
사라져
도발
충돌
익숙
##구니
이적
192
진술
시골
교류
##낸다
운전자
약하
줄여
지령
임신
62
추락
인용
농민
침해
월드컵
버려야
디지털
##그러
따라가
오류
황금
배웠
지소
망가
법칙
아스
기운
오른쪽
연설
허구
정유
왕따
을려고
전작
##권자
먹여
취재
잔인
감안
타입
저딴
##해야
예외
##토록
성범죄
싱글
동남아
텔레비전
가져가
맡기
버프
에스
이순신
현명
2001
한자
측정
욕구
논쟁
부지
진정한
글자
약자
무언가
투수
지사
너거
가질
자세히
01
재단
대개
영입
알려진
호주
통수
다던
제압
##아이
##들이
클래
34
치명
다닐
지인
애플
파업
현지
재능
식물
사드
악질
파견
차기
마라
##매매
지불
살짝
##핵화
비핵화
내면
색깔
압력
터진
쇼핑
밥그릇
##로그
오죽
선호
대량
아닙니까
커녕
세운
타자
사안
내지
끊임없이
한숨
광장
맛있
위로
전공
충실
작곡
김치
마음대로
400
귀신
으세요
무척
사원
니들
상인
멋진
단기
속하
트랙
증언
양쪽
##bs
그라
매수
차려
초월
장착
법정
##의자
상담
앞뒤
특권
지리
글로벌
져서
소멸
빌려
##리트
화려
동참
가구
절망
꾸준히
맞이
누나
모욕
##동생
호소
생성
눈앞
세포
고구려
구먼
##랑이
##us
퀘스트
원장
리스트
오프
근접
사물
어떨
천재
네트
저놈
망한
예비
1980
포르
면허
반발
성추
단독
서버
맥주
한국어
##러리
교주
고치
형편
이야말로
편안
자율
관념
날뛰
필리
왕조
내린
김종
면상
시비
기쁨
특유
거듭
우스
여태
욕하
소신
은근
잡지
성실
스님
흑인
##다른
타이틀
출근
회계
##50
##운전
망했
화학
육군
양보
부드
##걸이
준다는
일시
인공
##나이
들어와
만날
대북
방치
자르
화폐
얼른
우울
적응
심해
디스
씨부리
취임
그만두
##워크
넘쳐
발목
보존
고시
엄격
태어났
곳곳
유발
개별
IM
도달
개국
맞서
고백
가방
깡패
침대
분양
전광
일어날
매도
방탄
인형
##시스
억지로
성추행
세끼
전교조
챔피언
다가오
선거법
박탈
관료
간섭
동성애
대항
스테이지
수집
악화
의자
고전
여경
찾아보
##다지
추경
부딪
상하
PC
영감
조약
투자자
위력
끼치
서서히
단단
계정
열정
##주의자
지르
시전
유출
식구
조카
손석희
더냐
좌익
흔적
윤석렬
공지
결승
##거렸
각오
흥분
사악
퇴출
##같이
부른다
궁극
저작
보관
김학
주관
##어준
나아
기체
나빠
독립운동
어려워
왕자
져라
김어준
아부
선고
##ot
배제
페이
평양
올라오
더군요
교도소
대원
##식간
내밀
소원
저건
오토
식이
당원
김제
쯧쯧
코미
##하여
스위
더블
vs
가을
아쉽
하도
##립니다
장갑
이루어
대갈
민폐
신부
증권
영장
구성원
유전자
날개
이재용
무게
##ed
거울
작자
전후
생각나
는구만
강경
부당
호남
일으킨
##피아
포지
##ow
오픈
심상
웃긴
답니다
국립
캐나다
전역
##지사
모지
##바이
크로
수립
향하
공단
케이스
이틀
##크스
수고
순식간
길거리
분쟁
카운
인정받
가벼
한남
해진다
이루어진
짐작
성매매
자전
옵션
줄어
##데이트
승인
부들
법대
신성
죄송
처지
유용
마이크
업데이트
계신
신중
잣대
소장
##업자
성질
레드
공직자
##란히
구청
식품
지수
입법
##합니다
##구멍
엉뚱
종일
족속
별도
합류
비유
승부
하여금
그런지
더듬
국군
생길
개조
적합
느니
밴드
날씨
배틀
별명
강아지
경호
독점
정답
##루스
대미지
상업
부디
매매
가상
막대
양산
입원
시달
포켓
단일
입증
대지
십니다
처형
돌아왔
패러
깜짝
발음
감염자
삼국
달린
이단
치르
앙이
학대
홈런
대체로
간주
##케이션
버려라
서초
원정
내보내
일러
비로
그림자
선교
고스
##트롤
페르
주한
정착
고는
놀랍
집착
줘도
연계
휴대폰
##ig
나이트
루트
민정
비트
축소
보낼
##웨어
더구나
약국
돼서
식량
아메
히트
앞잡이
꿈꾸
대학원
##풀이
갑니다
##혀서
동작
마크
교과서
미국인
스크
피아
주기
그다지
1999
해소
푸른
탈락
야마
막히
도리
억압
어딘
즐거
난민
착용
터져
두려움
종목
골프
징징
일기
강행
점심
그치
회견
코미디
긴급
돌아온
안중
##os
중재
부도
교인
몰락
상속
##남도
비웃
요원
과도
1998
비극
기적
상사
기차
구현
마나
놔두
군주
미스
온통
코스프레
제주도
결심
고도
아픔
국토
이대로
품질
전망
괴롭히
##ct
박스
에다가
내주
관광객
##리티
모인
잔뜩
떠드
척하
돌파
다시피
미니
국무
휘둘
올릴
소나
일세
충이
취득
였을
마법사
태풍
쳐서
창작
안달
해질
장자
어려울
개편
김제동
꺼져라
##레이션
##백과
노란
190
관리자
몰아내
조폭
어르
근육
환장
씌우
전선
머릿
삭발
떠났
스러워
54
##교육
직무
튀어나
##un
남용
작동
형상
손님
연상
다크
목록
돌아보
##두르
딱히
발상
남부
사업자
간접
적대
1997
기동
에어
화살
사로
일으켜
독특
호기
낸다
군데
of
충청
신속
잡히
바깥
아키
아끼
##는데
농업
추악
내려와
학부모
##마스
네트워크
신비
비평
퍼지
##일러
라이트
주력
바지
##ad
십시요
장교
비로소
##마니
37
인디
시티
도서관
IMF
전적
관여
역적
박지
염병
로드
연령
피우
애매
위키백과
실장
정직
더더
대강
안심
일자
손잡
받아들여
##보이
두드
완료
가져다
곧바로
연극
지자
광역
사모
음주운전
회전
핸드폰
간절
영양
정원
홀로
꺼리
정비
##렴치
추세
세종
파렴치
나타난다
데스
소릴
##페이지
만남
놀리
합쳐
태평
병역
와라
보고서
##bc
##엘라
도박
포스
지우
국경
모험
알렉
제로
##통일
부작
라던
컨트롤
싸이
떠오르
가면
선조
어벙
명성
색기
곤란
쓸모
나섰
페이지
홈페이지
중계
막상
방송국
증오
즉각
55
응답
비전
스승
아리
바람직
예언
##어마
행성
셋째
찍소리
동조
호흡
수소
페미니
스코
소화
사로잡
유승민
유래
선출
강사
주자
인건
지역구
습격
창문
빠졌
의장
되찾
모여서
금리
중화
입구
The
근원
납치
슬픔
피곤
카르
75
저렴
##느리
살림
##태우
계단
별개
업계
그리하여
지식인
팔리
mm
경유
잘난
눌러
지성
과목
다행히
라이브
##하나
으셨
화재
막장
말투
원조
베르
당국
무상
이주
##통수
관심없
함정
자칭
길이
흔들리
어르신
석방
뛰어나
레오
채택
저능
전광훈
인과
틀리
필드
조센
테크
스케
책상
스파이
화이트
부적
줄줄
잠수
격차
하얀
더더욱
빠리
세웠
김진
면제
아사
전직
눈빛
내려놓
펼치
어마어마
실정
체결
39
조화
정기
후배
귀찮
개무
보여준
급격
득점
신발
##대표
출장
떨어질
##야마
42
포켓몬
무관
주둔
교황
한겨
강점
계승
고의
친절
보임
백인
구도
머저리
입술
수영
들으면
공산주의자
포지션
용도
제약
스마트폰
가즈
비자
파란
자화
이른바
중앙일보
##수엘라
반역
유죄
##타인
베네수엘라
바꿀
인척
자질
정황
동쪽
장르
컨셉
전수
훗날
사도
후진국
왜놈
신나
65
도망가
##30
점프
##본다
불량
아오
##ch
두려워
사거리
타이밍
걸려서
기기
고사
공략
리얼미터
자전거
활발
달라지
위선자
##무기
간다고
하수인
멋지
앞세
무효
할래
왠지
가관
게시판
방패
아무튼
손바닥
장제
천사
잡아먹
대폭
조언
다름없
라구
지표
강해
코치
싸울
##릅니다
국어
복무
한동안
봅시다
##여행
여왕
집구석
##장난
쉴드
미성
광신
마비
필자
연재
이언
생일
보증
한단
하필
군부
찾아내
퇴직
그런가
뒤통수
사지
간호사
할인
노벨
실상
누군지
역전
갈아
소주
제사
원망
종식
신규
소대
유엔
주소
cm
출생
써먹
모래
쓸데없
서쪽
십자
출현
##ay
미루
버릇
소지
실적
진압
라곤
초래
계좌
는겨
정복
##끼리
나치
집합
##고생
수습
초점
태국
침몰
그딴
징용
지켜야
고수
##로드
구상
영구
수능
특별히
생계
##북도
600
북미
손자
참모
까진
으려면
SBS
걸릴
동정
니까요
메모
머릿속
트위
밝혀졌
할꺼
군단
냉정
스티
##무지
국방부
배급
수작
지킬
도우
농담
녹음
망한다
오스
치킨
살인마
요시
우익
노후
브리
앞두
##톨릭
오전
풍부
대단히
년놈
일삼
돌아간다
싫어
건담
농사
수수료
거치
공익
박영
개뿔
맥락
이룬
쏟아
갖춘
떠난
보석
수원
진료
무서워
대법원
끄덕
라기
##그레이드
업그레이드
##NA
드물
구단
##ir
대왕
인근
##더라
보병
누워
유투
성별
부수
버그
당한다
적화
풀리
저장
쪽발
말리
접속
44
처단
##이치
##im
본능
토대
##오스
저래
테스트
콜라
지출
##어야
아름답
법치
부류
건드리
사령관
이행
1996
진동
58
커뮤니케이션
기각
강원도
기만
함대
솔로
최상
강연
타워
기재
조그
120
##가르
기다려
가량
황당
좌표
드라이
얼음
아녀
관객
특기
변형
구린
1970
수지
인연
##ns
향한
##모토
동화
동지
전락
부위
FC
원내
어딜
세계관
나간다
위성
##빠진
##트라
열등
이마
목포
망언
찌르
##ve
##od
강대
질질
타당
은혜
모범
##부인
한나라
후기
02
놀아나
한나라당
저걸
후쿠시마
레인
잃어버
텍스트
기뻐
철거
리스
클리어
백수
저격
고르
본사
##라우
##러지
골드
##권력
부를
쳐도
인건비
1995
바쁜
조조
놓여
##드로
오스트
십니까
건국
덧붙
명복
참전
기세
플라
중시
쳐들
여섯
주둥아리
##화점
플래
백제
패스트
취지
몰아가
##성이
교실
##인물
##지않
편향
유입
월세
날아가
교장
해골
탈탈
보완
바꾼
모리
통상
목격
지극
까닭
지냈
서명
시끄럽
의뢰
려다
재밌
필리핀
47
줘야지
시야
몰라서
채권
김현
폭격
던전
충족
영광
애국자
하나하나
해고
유독
##어날
트위터
##총리
어지간
공군
버튼
문구
틀림없
역량
코너
망국
구름
무고
측근
박물
정면
급하
이래도
철회
43
이닝
봉인
##nd
슬프
사라진
피의자
##번에
사면
##어로
새끼야
비열
아랫
음반
변동
브레이
장례
주주
##텐데
신사
##소년
히어로
된장
석탄
으리라
조민
유가족
스탠
앞장서
뜨거운
조기
개봉
뻔하
빌리
대략
엑스
03
납득
주범
##스탄
##회사
##ur
할까요
클라스
놓치
육성
사명
우위
부실
##자찬
규명
자화자찬
담보
엘지
46
##컨대
무서워서
정유라
분배
사이버
순환
위상
뚜렷
질환
양자
이정
분기
##까봐
거론
배출
##ter
시집
깔끔
##카오
출처
화나
비즈
호감
온몸
모지리
경로
신자
떨어진다
키스
##니어
구제
고리
중동
반사
##피스
동반
드러났
나마
주저
술집
나선
경남
##투리
청장
이정부
학위
가져오
런던
##집니다
모독
따져
정통
이언주
이데
거꾸
베스트
견디
명심
800
총기
사립
요약
커지
가리키
비추
망쳐
추억
합병
우연히
매입
##새끼
선포
이여
호의
추잡
차릴
개신
부과
역겨운
교육부
##보드
지났
##스레
향후
여신
방어력
부각
페이스
학과
몽골
피할
끌어들
그간
본성
정성
범법
내버
표면
마이너스
부른
귀국
대국민
부작용
자진
일본어
St
편의점
집사
물품
개미
만주
##문학
제법
수급
용병
내수
성숙
헤드
드릴
오마
웬만
##op
시사
가드
태양광
아이고
성취
편법
유비
빛나
##든가
골목
원가
기호
사방
생태
들어와서
##스럽
나옴
완화
아무렇
소서
커뮤니티
낙태
집어넣
박물관
어쩌다
물량
행하
스키
##ut
미성년
어떡
모아서
전범
구걸
공안
발전소
치밀
당은
면역
이끄
이집
해안
화염
인턴
이집트
편들
애정
##전자
새겨
증인
xx
주간
기다렸
밝혀라
##메달
유아
스웨
항복
메뉴
치워
국왕
유족
##NS
노총
벌리
몹시
날카
멀티
슬슬
들먹
공학
일원
학기
중고
석유
핵무기
산불
힘드
##하루
재수없
중세
쳐라
터미
성서
부추기
가하
세습
내뱉
아이폰
##틀러
섹스
아울
때려잡
양상
날라
편입
미만
전신
써도
가동
배울
거꾸로
친척
소음
입력
서울시
망상
이날
백화점
내릴
문화재
수법
고지
언덕
유혹
은폐
후속
비참
들어올
잔치
비정
나뉘
그토록
헌신
아가씨
유포
이완
치열
전방
보너스
국격
애쓰
북부
09
여도
주년
실업자
통장
주권
안타까운
돌렸
트럭
려니
##방식
커버
개수
the
우월
어두운
벌어진
49
주의자
암튼
돌아갈
비즈니스
어처
최우
어린아이
##시코
게끔
우유
달려들
유산
보좌
부럽
##ag
뻔한
##은행
내세우
##바지
맡겨
보물
오리지
상관없이
늑대
##로우
납니다
버림
연수
굴리
##무라
파라
경주
창의
한미
자비
과학자
수신
남아
광우
사고방식
낮추
우연
개신교
물고기
헬기
선진
액션
구할
저번
갔다
이따위
##산물
이제야
두렵
먹히
한결
1994
저능아
놀라운
침입
1960
우물
창업
개시
한겨레
##세이
질투
등장인물
##고리
임영
동급
기법
살아온
스토
몰리
국정원
임종
##질러
순진
장자연
어쩜
우방
수련
##스티
돌보
감기
소금
초등학생
##눈물
탱크
광신도
말기
사시
피눈물
엘리트
##ER
부진
파헤
똘마니
타카
인듯
정치판
일체
##대기
저축
줄기
독서
어딨
##봐야
재생
장제원
토막
방면
신설
테마
가라앉
주연
복합
클래스
똥개
경찰서
##스키
우롱
전남
사마
꺼지
퇴근
후퇴
동사
풍경
95
##어질
##까요
연인
할배
##로기
##런스
편가르
참사
살피
두둔
5000
오를
동부
쿠데
영주
원주
학력
박멸
새삼
결단
##크로
##도로
고장
타락
66
북조선
격려
지침
휘두르
입사
억제
김재
한다며
심심
모였
점유
수명
좌절
들어간다
택배
지분
시신
##주교
시발
했어도
공업
취미
여동생
돌아와
추모
면접
모른다는
##의식
하루빨리
굴러
숭배
동포
날짜
정세
만지
불꽃
더라면
##이즈
189
가치관
민경
구글
돌아다
약해
복음
어처구니
##동자
명목
다네
건드
충전
잡아
취직
##오리
엉덩이
면적
즐겁
민감
창고
공소
원천
사신
비틀
매니
##덜란드
네덜란드
대구경
바퀴벌레
상가
변태
정교
소유자
민원
무인
##서트
상당수
점검
여사
서기
방송사
브라질
분단
패널
사후
합성
오가
폭락
미드
빼돌
선관
실은
호수
보험료
화웨이
정화
가벼운
서부
도배
취향
치유
전투기
정수기
불명
사생활
호기심
해외여행
가톨릭
업자
##부들
오랜만
승진
착취
책임자
언행
##ent
트레이
금강
쿠데타
##뜨린
부들부들
오사
휴식
신선
네놈
전대
화해
암시
고립
변해
합당
파트너
개개
민낯
입대
고교
호랑이
공통점
재건
화제
는군요
##ST
가속
파도
국수
폭풍
##워드
줄서
취약
추하
화물
간다는
백신
종로
해결책
생긴다
행보
어째서
625
쓰여
레스
절실
나랏
##든지
##디아
중지
삼가
임대료
개구리
애쓴
상기
쳐넣
히틀러
아시
공기업
접수
분산
사대
일으켰
멋대로
위법
해져
총알
결성
복구
##르르
안경
##버트
##입니다
사제
열매
##카락
리어
남긴
머리카락
전도
배당
횟수
작작
터졌
멍멍
08
두들
##사고
행정부
관대
보살
신인
댕이
투성이
시세
태우
지워
봐야지
비명
자손
커서
바둑
인지라
베이스
조항
##가운
##세대
돌대가리
키트
일곱
56
모집
##유럽
조리
수면
구호
64
다룬
포도
종전
니놈
07
이데올
정규직
구청장
이태
촉진
소스
여권
블루
뿌려
05
희생자
기르
연맹
##붙이
할수록
코리아
약화
장모
심상정
사쿠
지극히
라니까
마리아
##운다
##옵니다
달하
설사
반납
개체
고등학생
어쩌구
건조
비아
복장
##um
어렸
생색
지연
예약
임영웅
편히
뭉가
건전
느낀다
##려면
교묘
말장난
이데올로기
명품
터미널
##레인
멕시코
결제
여긴
지형
뻔히
오바
임진
마력
자니
미투
두루
발급
마감
랍시고
공신
찾아볼
##드라
기상
지자체
개통
크리
마왕
발라
무작
사사
박지원
구당
놀랐
늘려
명문
##지오
조센징
일러스트
더라고
멍청이
즐겨
구사
아울러
출동
실명
빼먹
호도
안녕
공권력
우상
패션
탑승
어린애
동북
늘어난
민족주의
토끼
숟가락
상장
소프트웨어
친한
엄중
느냐고
흉내
주류
타협
서둘
둘러싸
크루
분별
일본군
극히
채무
달려가
열쇠
입주
으라는
예고
튼튼
닥터
등교
어떨까
숙이
침공
명시
대권
변수
세탁
이윤
어짜
사귀
사소
귀여
티어
싸그리
프라
스튜
자부
무거운
지긋
울리
유착
##더기
각국
##보기
참나
서브
야기
이인
선량
부역
지각
나팔
우덜
유권자
깨진
그레이
지킨
명박
관행
일일
포로
후예
##병대
##운서
아나운서
반지
박살내
돌이
뜬금
안락
유교
피로
갤럭
##FA
관할
국장
별다른
서방
오락
소형
경매
대조
##TA
##공화
태평양
데려가
##ec
쪽팔리
불평
원한
천황
쪼개
건들
모니
엄벌
뮤직
차트
콘서트
걸러
이니
퍼져
스파
PD
포스트
##까리
전복
벗겨
##바람
성당
예선
늙은이
갤럭시
당일
축적
슬픈
민경욱
사막
작살
스쿨
KT
성분
드럽
도둑놈
공영
##소년단
트집
하네
청탁
선관위
로켓
맙시다
대구경북
그제
속국
애미
달래
훈장
방탄소년단
터키
늘어놓
##쳐야
해상
대공
명의
Ch
자매
어딘가
염려
치사
과감
이모
선장
##노스
말라
용인
원고
외출
컨텐츠
HP
범주
저질러
투어
1992
처하
흘려
인자
행적
랄까
일수록
##처럼
기둥
바래
빨아먹
남겼
괴로
치고
탑재
대문
배후
손상
들여다보
단정
스웨덴
육아
주작
제보
정국
기밀
깨지
혈안
실리
윌리
이리저리
변했
비정규
수송
나발
운송
마루
논하
바뀔
처녀
호위
랜드
보컬
700
지저
##가루
스프
풀려
연평
여의
실시간
실점
종말
구한
##린다고
06
중산
문제지
내역
반격
비겁
##페인
##사리
고선
예쁘
토리
기습
나르
급속
도망치
올려서
떠올리
고만
사이코
방위비
비호
승객
입지
대수
낚시
플로
태워
경기장
##뜨렸
04
징계
포항
줄줄이
서해
장로
단편
98
확립
진주
체하
후자
소린
1993
업종
라네
거친
코믹
숙청
아이디
리더십
에드
대인
전장
아일
이지
##추어
전이
기부금
방학
오리지널
유물
간격
유언
언론인
관통
비정규직
밝혀진
강대국
재현
돌아갔
모바
##서야
간혹
장인
올라갔
##다나
금속
내란
##살이
기절
고무
간신히
법조
생리
극치
다니엘
높여
예능
랭크
감상
신문사
허허
김원
##밀리
폴란드
웨이
지라
온도
경영자
저질렀
##어놓
소상
모금
자란
##버리
어짜피
가공
##일리
수색
현역
도라
따구
김영삼
문득
예쁜
애쓴다
내버려
서초동
사찰
전철
원본
어린이집
동서
쫓겨
벌어졌
간단히
테이블
##소득
고민정
##ap
뛰어넘
마르크스
한창
##네스
##티나
거시
그걸로
빠져나가
농촌
편파
욕할
콘텐츠
오줌
바닷
사세요
동굴
찾아오
선행
##성기
헌금
교차
사우
고로
다구
려던
대행
실종
재무
다치
부유
이라크
##디션
제임
초과
죽여야
자유주의
부사
상세
했잖아
눈길
##스턴
가까워
해설
토스
낙하
##세스
박쥐
도적
원한다
SNS
발명
교훈
##그라
박영선
##브리
아랍
인질
어긋
차명
끝날
본다면
모름
실내
거슬
라스
공자
가루
개독
유령
##사람
세무
보조금
편리
가르침
##EC
드러난
모바일
탁월
방구석
선비
레이저
명절
sns
마셔
재고
욕설
탈북
대외
불신
모음
동해
거북
##머님
글러
판타
뒤늦
김정일
##지부
프라이
동방
신장
형량
관해
건네
##두리
갑작
##뜨려
53
만행
천박
소요
##기사
##이너
아비
증세
해줘
접대
공수
통령
궁리
빨라
는대
##꺼번에
한꺼번에
마신
부시
야말로
임원
클릭
은근히
야동
##IA
실무
시달리
울음
권고
제어
카운터
착하
부친
주어진
더라구요
연료
편견
규범
주거
공지영
친하
원자력
아마추어
충동
이빨
##래프트
##em
##공화국
들통
CD
꼬박
개검
웃긴다
거늘
잊어버
여건
성령
멋있
한전
##ew
찔러
발굴
조명
직장인
자신감
전진
적혀
실컷
빌딩
유효
그니까
김진태
어쩐
권총
모티브
늘어지
동경
미련
크로스
쓰러지
유신
과일
물어뜯
kg
인민공화국
제임스
차관
산하
담당자
거니
연구원
하루하루
필살
에이스
폭로
암흑
무용
##40
악용
싸이코
사양
88
##트로
나리
더욱이
고령
커플
내각
제조업
아지
대주
##기야
저쪽
침투
공매
등지
##관계
지금껏
삼성전자
불쾌
대목
개척
거르
취해
편한
##사상
너머
투기꾼
국고
냐며
소외
외계
흐리
구출
도장
취한
탈북자
감지
이어서
귀한
교통사고
카카오
후지
다스리
기껏
내려야
설레
득실
창원
환율
고종
어기
지붕
주차장
##하니
잘사
접하
서둘러
오세
불통
다가가
메이저
애써
허나
신입
입히
##가스
단절
마술
드만
못난
##하라
수시로
해치
들어도
##행위
의상
여럿
산소
##하하
상점
##부패
악수
부끄러움
부정부패
페미니즘
사라져야
당대
터질
상공
부풀
정준
이긴
며느리
불타
무방
미성년자
보충
담긴
블록
##싸움
기아
프리미
##재판
주고
250
더욱더
과세
느리
도데
용사
유능
바가지
화성
77
병기
초보
진학
이영
원소
악랄
일산
벼슬
지나친
##og
짓밟
몸통
일까요
신하
겸손
가증
검열
필연
안개
유감
양도
한강
##이나
살아갈
프린
별거
사라질
웃겨
계엄
더군다나
##이다
선박
##ver
혼인
본선
들어야
농장
목욕
##ul
요건
급한
호칭
도끼
##문서
tv
후반부
끌려가
김정숙
당분
나와야
대거
축복
임종석
건만
1950
도시락
1500
정해진
아메리카
튜버
수두
어설
변한
쓰래
신종
사인
간절히
청정
반짝
85
망설
##oc
통로
어미
멈춰
혈액
공세
변함
납부
처치
개개인
즐거움
이완용
##카드
IT
##시오
청주
애인
전주
유로
유연
하우스
노르
는디
자폭
어느새
시바
파산
외교부
트로
눈깔
다간
뛰어들
##ak
가죽
까다
버텨
기관총
번지
생선
약탈
##타임
앞날
원내대표
주전
초청
코어
1991
추격
한답
갤러리
57
설령
##느니
구두
부가
각지
바로잡
표본
농구
과잉
일대
급식
유정
이수
본토
3000
탈취
비스
분량
사탄
개설
았었
로고
할려면
도주
고난
도데체
허물
##을까
털리
딜러
질러
생명체
패러디
##퍼스
교리
간판
지칭
목숨걸
중얼
놀란
##크라
마귀
일요일
모은
도요
결말
캠프
금수
복사
전과
의대
싸가지
도무지
폐간
단단히
실드
##밀히
묘지
탈퇴
말려
배우자
헝가리
군림
정의연
정시
클로
유재
보이콧
차이점
강점기
정령
노골
노려
503
##광역
인내
##브라
대치
하인
김기
종사
속한
저하
DNA
일련
성전
증여
강자
모른다고
##라이더
알렉산
미달
지휘관
등판
##지컬
탐구
용돈
애국심
기질
경제학
당나라
비방
추상
전날
자수
부재
김상
여학생
##모습
94
##어가
밝힌
똘똘
시궁
들렸
설비
배포
허무
남조선
파이터
복제
아름다움
AI
가령
##광역시
잡힌
돌격
랍니다
리스크
안드로
아미
엄한
##PS
행세
안겨
기울이
안티
원시
59
아바
기인
내편
피고
비단
불륜
저서
트레
폐업
군수
유린
끝장
수두룩
소망
출세
첨단
JT
미칠
천주교
동상
가중
삽질
기원전
굴욕
짜장
두산
물체
권유
녹색
찌그러
##무성
현직
통째
악의
우호
다던데
예컨대
성명
모셔
댄스
몽둥이
해야죠
하트
이를
광복
대마
든든
정정
생활비
회상
희대
파기
알려졌
엘프
한화
통증
그러다가
처참
달인
여우
끼워
그래픽
쫓아
##포트
유세
포트
윌리엄
표지
따름
마이클
돌진
걸어가
꼼짝
보입니다
플랫
단축
CC
스피드
충고
사재
비해서
주역
거들
미나
사료
멘탈
엔터
가이
퍼트리
주적
선임
세균
살릴
치가
되돌아
배고
특허
미수
공범
배신자
방금
##지긋
양육
조공
지긋지긋
##싱턴
개한
담겨
지저분
잃어버린
치러
출석
인조
친문
##프라
그러니
친다
세비
종업
섭취
인쇄
반해
유키
잠수함
격투
폭주
기피
음료
미일
갇혀
골든
##왜란
돌아올
유력
한텐
어때
아쉬운
고래
유우
임진왜란
단호
피아노
라이프
소독
연간
라이벌
감자
약물
확고
지장
배부
일일이
볼까
눈감
항공기
국무총리
나카
##반대
열렸
모형
MA
마니
속보
관해서
아일랜드
기술력
알파
폭파
서리
성희
글쎄
내장
82
안다고
AP
이력
##TV
II
##모로
타고
조현
라는데
잉글
을수록
동등
국력
용감
팀장
키운
최신
십자가
매각
올라왔
스카이
합작
정계
떨거지
시궁창
1989
원거리
무소
러브
1988
할매
나물
갑옷
하나같이
당해서
차림
낙선
조선인
탐욕
종결
미야
자민
정한
부려
치부
할텐데
감탄
훔쳐
조그만
이쁘
종업원
##보내
##배우
통보
유동
형평
결혼식
은하
입수
횡령
려다가
##도우
했으면
##커녕
아닐까요
혐한
토요일
가계
제이
제갈
라더니
머무
국기
안쪽
귀걸이
읍니다
준용
천억
세일
유흥
되풀이
설교
본데
대사관
스위스
와이프
빌미
적화통일
이루어져
가두
깨어나
##러니
거칠
소울
대해선
해양
심화
당과
##아웃
캠페인
여러모로
시킴
깃발
썩어
카톡
##라기
핑크
미처
두꺼
초록
비치
교단
밀접
##창기
우라
유인
단장
줄어든
스미
한들
Lv
노비
##어진다
카즈
아트
공직
상향
양국
매치
in
##베르
복원
불로
연동
습득
고마워
사살
직권
저절
헤이
로비
가담
노라
인신
매니저
나불대
자이
슬퍼
시공
유적
선보
준수
승강
쓰인다
글씨
##일으
188
이겼
하야
코인
주석
설문
불러일으
물음
사표
불어
저승
격파
##ri
왕위
분할
여전
클라
관세
재주
우정
외쳤
조준
김동
시드
과실
코메
떠날
으니깐
##조합
나와도
매주
까발
저절로
광경
성역
어용
올라온
##ation
##세포
두들겨
넘어서
싫어하
주고받
##릭스
넘어갈
경악
광범
##스트라
전투력
천장
당분간
문단
오사카
##러기
외환
끼리끼리
박통
담론
드나
손목
번개
초창기
코스트
##스케
에라
데이트
라라
##팡이
금메달
뭉치
상한
레전
팍팍
##떨어진
협약
혈압
다지
체인
관하
백작
휩쓸
내놔
싸웠
부근
보태
망명
차선
이룩
##으므로
대동
총살
행운
증대
판타지
JTBC
##수아
전무
##들여
요정
뒤져
시어
실용
결의
감찰
범법자
침체
학회
융합
저럴
투사
썩어빠진
외신
고스란히
대세
모색
못함
잊혀
1987
루이
생생
어색
모를까
스러웠
항구
##받침
##책감
으이
향기
##무소
덩치
구절
포괄
사학
역설
관련자
응급
##검찰
펑펑
극도
신지
이종
kbs
사나
그레
동아시아
##베이
후계
상반
전멸
편드
떡밥
메타
무난
메가
아까운
몰이
와야
불러서
포위
떠올랐
막내
##걸음
따까리
분해
서사
다닌다
동맹국
아니하
독감
그래요
분포
정류
흡연
연말
권력자
더니만
불화
빨개
수다
움직일
파고
극장판
장본
띄우
나란히
달랐
##HO
72
틀렸
한다니
남발
야간
체감
각하
동력
생애
위생
들먹이
평상
신다
망친
와인
우두
성찰
처방
승격
공제
구독
91
불길
카라
케이블
도모
맹목
미스터
세부
냐면
NP
##art
흥행
##폭탄
다더니
심히
물자
각본
앉혀
돼요
을라고
성희롱
구미
기숙
궤변
관람
다이아
메리
치안
주워
무수
환수
살인자
경찰관
아이러니
내전
장담
블로그
개헌
리아
익히
##and
좌석
교민
어려웠
줍시다
임의
바꿔야
듀얼
출간
##가와
급히
촉구
클레
실려
차렸
떠돌
워싱턴
모션
분립
쌓여
기후
##ce
##내리
막강
리버
제국주의
97
창설
윤지오
지주
대상자
삭감
##ia
맹세
낯선
역임
득표
재빨리
다니까
으니까요
줄게
현혹
교역
밸런스
실존
냄비
영문
지난번
화합
차분
척결
강국
공헌
까먹
피터
거세
조달
생겨서
요양
방침
집니다
하향
관상
즐거운
노부
올라갈
사연
실세
생전
제작진
관습
교양
까불
해리
고추
학술
저소득
딱딱
은데요
늘어났
서열
국론
출국
우회
떠오
기하
##희정
허공
61
스킨
##더스
산책
##저것
초상
이것저것
필살기
아작
치료비
불당
시정
사치
계통
맞벌이
이어졌
연루
밝혀야
##닉스
응시
축내
도지사
철면
야생
과자
위태
사카
브레이크
야비
실전
근성
극대
무사히
벌였
끌어내리
둘러보
##동원
유머
시시
자처
적군
잉글랜드
김학의
코르
##불리
장례식
고고
산다는
계집
리듬
반감
재개
부드럽
생략
크리스마스
찬다
##당초
키보드
올라서
디스크
선두
안락사
즉위
잠들
묵묵
옮겼
개표
장본인
후안
우울증
110
이걸로
소총
다투
라시
계절
철학자
싸지르
횡단
아인
사관
킬로
가이드
브로
장난감
오토바이
아테
내외
공매도
당당히
오스트리아
엉터리
궤도
##멘트
장병
골라서
총수
71
##항공
쳐다
제명
이사장
걸맞
흔한
심의
최우선
이왕
요한
##베이터
벗어난
개망
풍기
선사
음식점
섬기
중년
저택
##데기
클리
출력
나폴
염두
가져야
##십니다
불능
방출
버틸
공고
마츠
합치
바랄
강렬
분신
빈곤
눈치보
김원봉
여객
63
공무
용납
존엄
여가
76
반전
장래
전함
레전드
현행
루시
가설
게이지
원형
스페셜
삼각
총회
장난치
##어트
사운드
응용
##무니
레어
신전
청춘
장려
단원
맞춤
드림
내라
후려
표출
기리
죄책감
몰두
김태
굴복
뭘까
##tbc
줄께
퍼트
선제
아티
체질
코메디
##위병
친정
이나마
구기
아주머니
괴뢰
지낸
여대
너그
걸친
입단
블랙리스트
부양
내기
군사력
관측
##생긴
껍질
김성태
지독
명명
헨리
##TO
주입
직면
설득력
##데미
참가자
무신
세르
제의
수염
듭니다
장미
불가피
세자
##박이
천연
씨앗
메일
##EO
총독
마른
방가
존재감
##갈이
가혹
청렴
##구장
넘어갔
바이오
철면피
##st
엄연히
사나이
주행
즈음
뒷받침
배송
누적
81
판국
쌍둥이
떨리
넘쳐나
떨어뜨리
골수
금강산
MB
광우병
들이대
##데스
##랭이
모니터
FI
각기
어지럽
개똥
서적
사이드
수동
평론
##크래프트
##데이
부임
도민
다카
내정
구실
##박혀
못된
##하고
바짝
완장
나부
절벽
토벌
연합군
수없이
메달
여겼
면모
##우치
반기
양념
몰수
안희정
##타리
68
광범위
##그마
96
일개
던졌
소각
무적
메탈
랜덤
관중
##tt
모방
두려워하
메모리
자격증
매개
해킹
소드
민간인
아카데미
계곡
휴전
붙인
캐스
김지
계란
부르짖
수백만
징글
##올리
이랬
##라이언
자문
네티
##상식
팀원
자각
##레나
기업인
키울
실재
결승전
##ra
표적
장전
는데도
불안감
김용
이준
##ED
글고
증거인
무단
날조
배터리
신재
##포르
노가
소방관
인데요
##igh
김무성
불사
보전
상급
기성
사용자
유의
심리학
오타
소득세
명중
분담
할지라도
받아들일
반동
상륙
느껴졌
진짜로
남매
감금
사탕
왕비
움직여
위해선
마셨
교육감
일어서
클린
돌려주
디아
##쓰기
##몬드
추한
아머
얻어
개도
복종
모기
칭송
유난
중개
오세훈
##타이
출판사
터널
되살
인맥
사촌
등기
엘리베이터
두뇌
퇴진
이국
기점
반려
지롤
베풀
모자란
잠잠
MS
못해서
예술가
이용자
함선
공존
틀어
플러스
사무소
총체
떨어져서
예시
백두
나비
흉악
EX
본문
지름
고아
토해
터치
상주
증명서
##AR
몽땅
흘러가
위함
찬스
파멸
수직
파동
XX
치마
##바다
##조사
사이즈
화가
해선
##성장
의석
알아듣
빨대
근간
환승
효력
나눈
흔드
의리
솜씨
나락
대포
네티즌
##게요
원했
박힌
분자
인제
색출
명사
반공
박혀
마스
그리도
##카와
불의
길드
일생
벤츠
##테르
방관
히데
밀어주
나팔수
됩니까
몰살
출범
살아나
똥물
영리
소매
무늬
칼날
라지만
발정
서식
##시브
혈통
방울
엎드
최적
중복
##OS
##우지
누릴
돌아서
##무시
원흉
했어야
스크린
불린다
깊숙
외쳐
인체
사라진다
##린다는
상상력
박이
폐하
못사
반하
기숙사
검정
##시대
바꿔라
생김
암호
잡아가
과시
인지도
그러다
무당
정준영
상해
환원
배정
행해
모가지
홍위병
응징
광기
##퓰리즘
포퓰리즘
자부심
인민재판
꼬마
단군
라틴
조원
니라
##우드
지부
무겁
는지요
##ro
호환
화장품
연쇄
이듬
머신
폭등
갑시다
##베스
스트라이
유총
##넘기
정치검찰
퍼뜨리
벌인
수감
정찰
칭하
운동장
위임
출구
불려
교전
개량
오프닝
연방제
비닐
급급
김구
마진
능가
염치
아홉
울트라
차가운
머니
나타날
시즈
일어난다
휘둘리
개막
예금
코트
##따라
댄다
우동
씁쓸
스탈
생물학
퍼부
74
막혀
마친
유대인
위인
분당
기금
잔당
지루
모릅니다
달렸
전승
길러
수위
스튜디오
줄어드
수만
부엉
합동
갈리
어다
쌓이
공산화
살아왔
화법
오오
손절
다시금
뭉쳐
드러난다
##PG
리치
67
찐따
호들
스톤
##라이트
쌍욕
도피
그립
허구헌
##츠키
밤새
활짝
##거래
잠자
쏟아지
보낸다
인프라
악기
퇴임
보정
갖춰
배트
파시
양파
물들
승차
오마이
끝판
어선
재판소
사위
항공사
항해
개고생
레이더
##네시아
심보
하청
이듬해
었었
제자리
낙인
나루
후계자
돼야
드문
##ip
동선
호평
찾아왔
힘든데
네임
하사
속한다
포격
정립
될까요
##플레이
정반대
한없이
연이
가로막
의의
기사단
안쓰
본국
우체
매크로
SP
강철
즐길
종교인
알아차
아껴
몰아넣
하차
재발
PS
보라
지면
딸년
쓸데없이
바꿨
호로
카스
생겨나
쏟아져
문법
유희
잡것
자위대
공시
특화
맞음
아이콘
거인
선별
성지
달콤
적국
여덟
고가
였으면
부합
특집
86
##즈키
찾아온
강성
결사
날카로운
빌붙
이룰
수년
낙하산
##AN
발병
석사
이시
공허
것다
##듀서
프로듀서
숨겨진
아크
눈동자
포르투
박사모
주부
트라우
##총장
냉전
##꼬리
와도
전지
지지층
난무
결과물
부드러운
구슬
개탄
실로
헤어
가져온
태영
일식
야스
병자
화자
모녀
소설가
드려
할께
선심
외형
앵커
포드
천막
##에르
태생
정류장
지갑
수저
렀다
소니
정적
주어지
낭만
자칫
컬러
달아
호들갑
주최
베이징
겠다
생명력
깔려
의아
단백
맞춘
캠퍼스
아다
전북
격렬
##대문
동전
##퇴근
고려대
극좌
상정
던진
트랜
끝났
##렁이
변질
우편
인명
단결
##테스
1945
후세
고독
슬쩍
말미
경제력
절감
둘러싼
##방울
줄일
왕실
장벽
저급
노하
복도
73
걸린다
회색
Re
바꿔서
현대차
과거사
보상금
##민석
기술자
직시
전향
시리아
애완
트라우마
퀴들
##서스
소굴
정년
소용없
군중
성도
##우리
춤추
풍요
원주민
플라스
흑자
그늘
모호
##파이어
우려먹
카나
오라
나뭇
폴리
금전
흡사
냉장
##파리
IS
무너뜨리
불상
유해
욕해
발매되
나눌
186
비타
어쩐지
파이어
꾸미
리드
몰카
지겨
페이스북
야만
무공
선의
예민
연고
이즈
호르
적정
스러움
##영화
로또
포착
가져왔
블리
처한
지민
매춘
정밀
노망
포털
행진
##오프
레알
마도
소홀
92
혼돈
명확히
청나라
틀니
갈기
환호
오크
헷갈
무너져
당첨
작곡가
장성
VS
노태우
양극
##타로
불문
소수자
잉여
못지않
지목
깨져
노숙
거점
설쳐
##누스
자사
##지기
로그
실감
기용
일거
##코드
줍니다
할땐
자행
중점
##지도
붕어
시합
마차
시중
동행
경지
시카
문헌
피자
1986
벗어날
여군
새해
MC
기쁘
교대
뜻대로
협동
급격히
꼬투리
요란
메카
피난
부스
사주
학급
오른다
꼭두
납품
에미
무산
##비드
무자
넉넉
들어라
##레이터
줄까
향했
전가
품격
항쟁
##요시
다지만
표명
로우
현관
올라간
안주
종속
랑께
##단다
##오카
##원지
싸운
미묘
공립
시아
입각
단합
압승
드렸
전성기
묻혀
파생
후진
졸개
78
티켓
후대
정숙
치루
로맨
리본
용이
이원
##ist
귀하
처해
멸종
대령
햇빛
중학생
순이
##갑니다
사쿠라
말살
디언
쾌락
부엌
간사
가진다
발자
계몽
남로
##TS
돌연
키웠
판치
130
몰라라
타국
온전
점포
뒤집어
우와
휘말
거미
폐기물
##다듬
FA
극심
한층
거둔
미지
옆집
단행
벤치
임상
독립운동가
다신
느껴진다
농부
요괴
중국어
꼼꼼
삽입
놔라
202
지도부
속아
혼합
촉새
인해서
수첩
뚜껑
특전
공모
##어스
CEO
모자랄
반항
물려받
No
산다고
다거나
로버트
잔재
격추
섞여
시트
가지가지
라우
이불
데려다
해준다
일조
kt
양키
통역
성폭력
이식
옥수
##키아
텐트
##구치
실검
무례
MP
내재
##나니
DJ
스캔
##저나
포용
망가지
돌아간
출퇴근
성조
단백질
UN
경사
초토
연구자
선명
쓰였
or
번영
공룡
닌자
진다고
쥐새끼
느냐는
빠질
서슴
쓰레기통
전전
##ong
그나저나
탈세
친해
유방
187
##용차
앞세워
어지간히
코믹스
직선
부흥
사령부
그러게
뜬금없이
아버
소극
레이스
브루
왕창
성형
선한
101
쳐들어
아재
번방
후방
신생
통찰
처넣
영부인
쓴다고
김종인
형벌
견딜
라이더
파면
해임
그램
보여서
자작
1985
준거
봉투
외계인
우두머리
지뢰
부탁드
필터
숙소
맞대
외노
들러
##ab
잡혔
##렉스
사직
지켰
볼일
싸구려
##버렸
무마
강력히
판단력
반환
기병
다짐
팬덤
가마
이윽
나랏돈
흰색
BG
사토
과반
세례
힘없
해적
떡검
흘러나
하마
동아일보
농락
공로
한잔
동무
스코어
지체
권장
죄지
까라
추리
굽신
퀄리티
통신사
##러드
차명진
치졸
이해관계
일안
성남
불빛
모았
일선
##하장
배민
아시안
이윽고
묵묵히
##가포르
##마크
싱가포르
SS
대도
노사
번쩍
프란
##먼트
놔야
평상시
빠져서
대대로
##세지
구려
군복
붙들
무선
매스
해금
막론
결함
##각시
차마
무작정
타도
##특별
정조
경전
타점
악한
현황
질렀
1984
옮긴
치료제
##LC
부끄러워
PR
##버그
87
노가다
체육관
추운
오너
설리
900
병들
고모
비비
진전
드라이브
악당
승자
장하
판매량
뭘로
주름
스티브
탐색
모스크
보육
공표
물결
보냅
툭하면
##공정
에이즈
쉬워
다중
담임
가식
160
변환
84
다툼
걸어서
물어야
는지라
다큐
##회장
귀환
##공격
삼국지
보좌관
강물
캐리
우세
상속세
함수
관직
짜르
미약
동인
영지
랭킹
준다면
##유키
맞춰서
혹시나
교정
둔다
어휘
귀엽
간직
관계없이
대꾸
두목
기미
버스터
삼촌
가산
왠만
기뻐하
##킨다
##est
신혼
돈벌이
##ard
후원금
돌릴
##고속
##뉴스
IC
더러워
앞선
까이
슬로
대금
화산
암울
직위
쓰러져
본명
신임
인들
업소
홍수
정점
볼트
조립
도심
빠져나
어우
남경
소집
NC
똥줄
구형
팬티
CP
지어
마음껏
유진
비위
게스트
조두
보리
적반
##꼬박
캐스팅
인도네시아
역학
필름
꼬박꼬박
마리오
임마
볼모
반장
기꺼
내세워
필사
전송
영세
침범
jtbc
무제
세수
자주국
섬나라
품위
오페
제작자
심했
가면라이더
이루어진다
상단
헤어지
외국어
오이
끝난다
땜시
망각
가부
국산화
고마운
##러워
US
꼴리
맛보
법관
영남
##멋대로
##th
제왕
내성
결여
희미
##머스
##AS
루스
추석
챙피
들린다
저널
노회
IP
밀도
1930
쓰리
소명
동창
올바르
귀여운
본보기
을려
강용
접어들
로즈
깽판
용량
냉장고
WHO
시녀
다녀오
부칸
몸매
##임자
벌벌
슈트
까마
설레발
제대
거시기
부지런
이어져
놓인
신음
이쁜
##교통
넘어지
##ess
어떤지
정중
마음속
칼리
달라진
##티아
공과
둬라
연세대
발리
큰소리
아르헨
##일드
라고요
김건
재배
콩밥
배워라
##돌이
현충
끼어들
NPC
다녀온
돌입
2030
화상
##지마
일족
##보잡
태그
꼭두각시
적반하장
적절히
외고
치욕
조져
입금
양승
##출산
테이프
용품
##슈타인
한답시고
##ON
##테크
날렸
만물
포르투갈
본체
조세
눈먼
국세
분수
파크
신가
스러울
아르헨티나
그름
절단
경원
발발
총질
플라스틱
모의
노동당
쿠키
##도리
일으킬
##유예
가축
원치
배분
허접
듣보잡
라지
애라
낯짝
문신
처절
센스
그런다고
넷째
소행
부천
직책
누이
내려갔
행방
##바라
관장
국면
어스
너거들
이브
해온
저분
##패스
속셈
악법
호응
반역자
어긋나
블레이드
나열
요코
무얼
띄워
자주국방
프랜
퍼붓
개망신
##ill
미미
재직
주방
내려온
벤처
##IN
우체국
상류
현존
문희
일찍이
난다고
설화
미라
패권
복용
여적
고찰
자루
트라
##부르크
연산
베를
##ang
쓸모없
89
파이널
나설
숙제
학점
이간
##산부
이기주의
케어
미필
플레
이따
조두순
짤라
김수
주재
반대편
임차
예견
성기
하버
드러운
침착
보드
여파
캘리
각도
그해
철판
헤쳐
풍자
리오
나옵니다
고조
매너
기꺼이
콜라보
감축
손녀
여주
접시
들으
타고난
프리미엄
평창
저쩌
오케
대위
찰스
트레이드
붙였
항일
지나간
독선
부제
로워
명나라
악역
김문
세입
##소통
자초
셔요
정글
이나라
세미
해야함
의사소통
배워야
기침
대명
털어놓
기웃
저출산
명제
사각
바울
구로
쓸어버
지으며
나미
파일럿
배척
왼손
광역시
##놀이
가릴
경직
댕기
블라
모토
##와이
기단
수필
거스
세속
##문화
고함
사설
리메
이방
섞인
com
바뀐다
대중교통
무심
정차
액수
회식
수반
하물
##베트
##바이트
실린
체중
달려드
정치가
우대
In
교복
키리
받들
AT
불렸
평안
마드
외로
한도
이산
유한
여의도
열기
인접
##저래
칭호
승강장
선도
카트
학사
재학
알아내
아이스
생각없이
거실
그로
무시무시
산맥
버려서
올려라
국수호
아휴
##부림
보네
대역
독립군
상의
꾸며
원활
##리그
우릴
크림
한인
열려
저년
걸림
일화
속내
에르
희한
몰라요
승무원
자랐
서장
국사
택하
글구
명백히
울려
스텔
보수당
데로
시가
머물러
공명
미워하
뿌린
노동력
##ate
일리
연사
비타민
미인
토모
제물
계약서
##ttp
악몽
하하
69
안일
참담
##먼스
지상파
산출
악행
우째
정자
루머
중기
휴지
바빠
##겨서
##립시다
을걸
공방
이세
동요
거둬
구녕
도태
취했
절친
목회
역풍
동북아
노스
그따위
버젓
북송
나기
무라
한몫
조아
절약
단서
말년
주저앉
GD
##뜨릴
죄수
밑바닥
산물
남북한
하물며
프랭
신봉
둔갑
창궐
안드로이드
강용석
품목
내려왔
대담
퍼졌
니미
##커스
##때로
뺏기
주교
중형
##서니
시마
자력
헌터
##불위
위축
##사랑
뱃속
느린
크레
내려와라
개수작
쓰인
##경기
당해도
선봉
클래식
건다
수용소
여라
##서리
타운
##VP
지나갔
인치
바쳐
나폴레
잠자리
결집
##RA
성욕
할거
1920
천문학
##ight
도미
본색
빨간색
##ok
포토
곡선
헤매
수월
앉히
터무니
워치
하찮
투구
외상
막힌
쿨타임
노래방
포스터
사범
극한
바늘
##라미
때렸
스터
지난해
속해
마주치
단가
폄하
신데
기득권
색상
익명
안습
추위
##수아비
친분
이병
허수아비
한다던
깡통
굶주
백날
동족
사회악
선원
##무치
커리어
미워
자중
맥스
##깨비
연예계
마실
온다고
때린
끌어들이
인플
올라간다
탈당
개그맨
자멸
기력
절로
크라
빼놓
미숙
기종
어버
##실히
원로
카오스
부역자
엔지
자막
##시간
이북
냅두
어려서
##if
적시
무슬
##바리
빈번
폭도
식탁
책임질
뒤질
뮤지컬
차린
성조기
##징글
스탈린
해져서
##ie
연도
세울
딴소리
나폴레옹
간지
웹툰
갈래
연일
한기
무슬림
플랜
범행
징글징글
플레이오프
##토스
가입자
한단다
생존자
병우
대성
무너진
과격
이노
총동원
충당
글쓰기
83
마산
교안
들키
진이
##러진
주유
미카
경상북도
진다는
가전
헤아
할당
탄소
이인영
93
병행
히스
심신
##ine
진격
유료
중력
아버님
피스
죽여도
st
##망이
지럴
##경영
휘하
발레
법령
아담
극소
저술
총경
장단
##다이
140
주체사상
마찰
나을
이별
견주
http
##라면
재판관
##듭니다
사업가
수여
발끈
드레
##준호
뒤쪽
##FC
디자이너
정사
마땅히
상술
장거리
급증
싸잡
달빛
##차례
전체주의
경쟁자
카더라
헤르
흔하
한탄
용산
갈색
봉건
체면
승려
탐험
끝없이
가뜩
병실
im
토르
미끄
수사관
비굴
의거
골치
호황
하태
채팅
일환
낮춰
후안무치
교섭
자이언
지팡이
오지랖
에어컨
매달리
최다
지녔
유무
내포
민망
##김없이
Al
잔혹
였음
기한
놀이터
컨설
호박
##릴라
빈도
아아
처신
##게이
비들
보람
호르몬
오페라
장난질
KB
선거구
퍼포
흡혈
부엉이
##적으로
외곽
리메이크
퍼포먼스
차장
할라고
당도
안위
실버
편협
유난히
##소연
이어받
당초
건립
선거철
증폭
손톱
주무
경인
발사체
알레
지기
태세
으냐
여타
치즈
불황
생산량
찔리
본받
숙련
재혼
시련
표창원
수십억
1982
이면
마일
책정
장부
물어봐
동아리
##ack
관제
따랐
패시브
##더미
내국
스리
유학생
좌지
덤벼
에디
##저스
니콜
궁전
입당
달라붙
이러다
속상
과하
우산
대갈통
후속작
and
무주
##AT
햇살
느라고
끌어안
얻어맞
카타
회로
성사
아르바이트
카피
구르
저소득층
표절
##ell
자가
용지
충청도
발작
였으니
문어
징징대
가둬
간질
로스쿨
얼만
입찰
살포
작사
무술
신랑
수평
주지
그랜드
아리스
안함
##키지
가뜩이나
각인
중상
어벙이
줄지
스틸
어려우
자백
공백
미학
##사이
외제
알코
니시
새우
남침
향수
삼청
벼락
고성
할망
청약
라던데
1983
광대
어둡
참수
수렴
##고루
유성
캘리포
누명
아사히
나날
아산
기강
펀치
##방송
실화
성금
세여
아랑
운반
괴수
유승준
탄약
##미야
고스톱
관절
열등감
물류
스티븐
종사자
음원
재선
들려왔
부턴
입자
빼앗기
들어섰
엘리자
파르
휩싸
소리쳤
인대
오랑
##셔서
일간
찾아와
검새
태클
겹치
미츠
캘리포니아
두드리
줘요
막판
자나
##꾸라지
건대
빙신
깨끗이
저그
즈그
오른손
박살나
79
##ath
창립
열악
사이다
주시
통곡
다이아몬드
지문
조이
따라잡
손발
싸워야
차익
패밀리
세로
보답
책임져야
평일
합체
움켜
SM
틀림없이
튀어나오
평타
분란
손수
팔린
도래
알라
복판
달라질
진급
예기
선교사
벌려
##의사
의병
음란
수갑
변이
징수
하반
귀중
아드
견뎌
베를린
화내
딱지
건방
무법
조연
쿠팡
사교육
과대
망조
지오
모양새
열광
묻히
흠집
섬유
전액
요지
물려주
나불거리
안민석
한통
넘겼
지쳐
한발
보이스
부탁드립니다
##어요
오프라인
숙주
이온
보훈
주식회사
전담
받아들였
왜냐면
스폰
##특별시
실험실
보안법
뭉개
재물
내몰
아우성
펼쳤
요법
이어진
의전
##겠다
우아
쇼핑몰
데려오
성직자
반듯
민사
잠복
##원수
때때로
##걸리
모함
집필
패키지
브레
동결
두려운
루타
중위
올라와
의인
미당
##히로
대한항공
##펙트
대입
루이스
장차
외우
착수
도약
기장
똑똑히
물리치
양손
할리
자책
서울특별시
스턴
울부
윈도우
아파서
세이브
어부
우매
거릴
기량
비서관
계셨
학업
입양
해병대
##ctv
##십니까
바나
스쳐
중심지
후유
터뜨리
FIFA
상권
간과
빈부
불공정
인민군
남미
절제
적성
부속
영수
페미니스트
1979
횡포
미용
##사키
기울여
문인
여하
대의
디즈
동성애자
다가왔
경과
흉기
뜻밖
장기간
마이너
리모
나아지
남이
완수
수레
그루
바그
선다
당파
와대
생색내
규탄
간간
치켜
신재민
네이
일컫
Sh
##무새
아티스트
알코올
세입자
비주
집권당
##페이
등산
부메
119
자립
절정
##업자득
상영
자업자득
레지
총사
탐사
꺼냈
##도르
고액
##IC
터트
고졸
부산대
들어선
직관
수십만
정해져
밥상
부착
교육청
아바타
달라졌
##셔널
th
상환
책임져
당기
부메랑
##테이션
이른다
무성
내려서
백배
희귀
미네
데이비드
거려
살아라
##돌아
모모
여호
타마
비상식
집행유예
안목
피고인
##석기
설탕
##가미
##비어
그렸
메세지
현기
대마도
한통속
탱커
수류
전당
머지않
뭡니까
##버린
공손
그지없
전라남도
Sp
프로세스
골고루
##ers
떠넘기
통틀
##제품
AC
다이어트
한대
엔지니어
어택
##가내
인아
또래
##세기
그럭
어필
김민
법위
배워서
강릉
소라
에고
놀러
토마
겨냥
밥통
옥수수
줄려고
토크
라구요
한다면서
해냈
분탕
멍멍이
좌지우지
통행
렌즈
역활
물갈이
기업가
뒤덮
비꼬
태종
위엄
모로
유익
유급
##환경
이터
발판
수량
양승태
정문
이준석
청아
무소불위
임산부
##자식
국채
법규
모자이크
이간질
살인범
공조
변호인
드레스
인문
스톰
두껍
주술
겁먹
경협
종양
내쉬
허술
##저럭
이토록
모터
기이
수확
타케
내려다보
책임감
놀음
제네
퇴직금
힘입
증진
시조
한테서
늘어날
생체
mbc
일진
망해야
대면
오키
통닭
##크리트
반론
차츰
채소
##평가
놔서
내다보
손쉽
사파
고위직
씌워
핵폭탄
여정
본다고
넘어간
##ee
베리
임하
이제서야
해피
장애물
조문
갱신
커맨
소닉
브라운
피트
리처
교육대
당근
오카
다기
계엄령
로움
##ore
훔치
1981
보름
막걸리
##니즘
광산
##납니다
##로디
노려보
빅토
유서
수류탄
디젤
트랜스
반찬
신축
동거
함락
죄악
사리사
공대
끄덕였
추후
회귀
최상위
가파
김여
##포터
발톱
무진
바친
찌푸
이루어질
염색
스위치
올려야
찌그러져
아따
국한
말레이
지치
어머님
##키스탄
쿠로
실책
청사
니스
임용
악명
콘크리트
정상인
건의
매진
레이드
세련
인방
마피아
하태경
김건모
일격
파장
힘써
경상남도
진도
카리스
쌓인
작금
로다
##all
져야지
##틀랜드
초인
대여
170
알렸
게으
옵니다
번식
##일기
휴일
##관리
입문
유체
전례
살인죄
개발자
니나
태반
당뇨
여관
그럭저럭
보료
기수
구했
습성
하단
회차
스물
무기고
동문
벨트
포르노
지날
황후
드러냈
CJ
##학규
덤비
유니폼
##직원
기회주의자
샌드
##단체
##고사
약사
노동조합
진흙
경호원
압축
헐뜯
본작
과언
고속도로
판례
적이
사라져라
반칙
뒷전
심부
당해야
해변
울부짖
꼭대기
달라진다
풍선
일회
초라
##ue
언더
물리학
뛰쳐
타이거
나부랭이
좀처럼
시너지
나와라
험한
이질
##프리카
제인
내린다
만든다고
풍년
손학규
해답
참패
백종
수하
걸까요
유망
청중
##부모
ch
기묘
노친
만기
하다
스트리
반증
한양
부릴
버젓이
##마리
수억
을래
강압
##용지
다급
내려라
해운
모르쇠
시종
힘쓰
##현진
cctv
떼쓰
허세
저랬
처장
##신문
기고
치솟
태아
착오
증시
유유
들여다
##버둥
경험치
스프링
상무
파편
남양
팔려
다정
월북
짝사랑
상부
##OR
법학
모스크바
##위대
김연
상종
신조
이메
네여
더라고요
동학
능동
밀집
무거
발간
마늘
코끼리
테일
나온다고
진로
못한다는
삼진
중권
공용
조수
쫓아내
사스
토록
##투스
김해
발버둥
체류
킬로미터
노회찬
앨리스
아쉬움
개명
##블릿
레닌
봉기
정형
도리어
경멸
지름길
다듬
열망
걸치
전생
번갈
의논
파운드
니코
첫날
서정
되돌려
중장
몰표
노트북
김포
라마
말없이
볼넷
까보
##지능
스미스
셀프
짤리
초조
카풀
환불
속옷
##ive
인공지능
문희상
개종
속삭
피땀
야외
키로
헤비
래도
불참
냐구
##프리
묵시
##our
AK
외양
선택지
활기
우르르
사리사욕
걷어
이이
##다물
군산
보호법
강탈
넘버
트루
는커녕
재건축
존속
보증금
샤워
딸리
발등
조회
포탑
압류
발걸음
김명
##무실
부적절
생사
이만큼
시라
완결
터진다
신탁
장남
페르시아
사임
개업
디스플레이
소인
숨쉬
##소문
성비
다녀라
매사
##테면
어그
중순
후일
연명
비대
커스
받아
빌드
망정
시범
본다는
태자
사이코패스
넘긴
혼동
세인트
뜯어
##래미
검경
돌린
사노
생각난다
의협
징병
##토랑
도깨비
매직
승용차
어여
레스토랑
##구름
회화
스페이스
해지
##웃음
토하
거룩
마음먹
위쪽
잡아내
만연
##자키
리온
인위
이상황
도청
추출
사재기
뜯어먹
뛰어내
유태
##덩어리
뒈지
치명타
베타
에로
위탁
표상
월등
소파
저따위
세워야
리뷰
이래저래
처맞
고속도
빚내
구민
##진우
요동
깝치
##짜기
두꺼운
##올라
내구
김문수
차려야
이토
하급
태블릿
인디언
강호
개박
공갈
변국
앵무새
원금
##수리
중부
##줄기
유촉
아테네
벌어질
추론
퇴장
학계
배반
암컷
마사오
취할
해서라도
Bl
신났
드론
시어머니
나온다는
문건
더미
휴게
잠입
봉급
이분법
성범죄자
제동
경성
가리킨다
로맨스
서른
쓴다는
넘길
스와
유격
여친
모친
혈관
##소니
##레일
싸질러
줄곧
보트
날린
종점
두리
곧장
개천
이뤄지
이를테면
국제법
그깟
운동가
보인다고
노란색
에리
관심사
수혜
칼럼
우러
흘렀
카를
던데요
김두
다룰
벌떡
##러미
일제히
쓸쓸
옥상
극소수
밀어붙이
1973
##장구
교토
하와이
잡종
##IP
##사기
평준
해줘도
다라
편찬
징그
발길
복권
직인
##질랜드
##손손
희생양
분간
거니와
쉬쉬
##바르
전념
루카
손길
뉴질랜드
마키
##러져
to
등록금
극악
어울려
챕터
깨우
메이커
##ne
##OC
강구
투표용지
홍영
방호
##공사
경위
비씨
백색
스무
스포일러
루터
##께끼
수수께끼
정무
재원
제트
다른가
탄도
역쉬
스모
동명
여포
사비
유이
집계
관용
뚫린
리가
권하
외침
알아주
난감
안방
창단
##AL
죗값
##AM
자취
GDP
DLC
무도
만점
독일군
마우스
르노
카미
깨달음
려구
##팩트
감행
입다물
방정
커졌
형편없
손꼽
미꾸라지
명상
용역
재테크
초콜
다케
아즈
청정기
겹쳐
벙어리
월남
파인
살살
전한
스타크래프트
무증
완공
티나
실효
논점
마오
실형
거느리
안동
정예
TK
잊어버리
태조
구치
아웅
리라는
숙박
호화
이소
##르타
망나니
딴지
한눈
허경영
고귀
중증
붙여서
레슬
상응
성벽
검찰청
마린
##IS
##이어
휴직
따윈
패전
별장
사수
대두
떠받
집요
수탈
기저
도마
익스
쪽발이
##티스
한복
고딩
메이드
패트
리처드
전단
실태
천문
호가
카리스마
앵벌이
두어
열폭
자연히
증말
##ub
전쟁터
반문
온전히
핀란드
디즈니
개이
불태
비춰
일전
만져
난장
소란
갈까
엎드려
막힌다
퇴사
사흘
GM
매달려
평론가
벌여
방심
흘렸
##ort
알아들
##메이
미혼
우주선
##타운
오리발
광명
제지
주접
잔머리
워크
##모리
사다리
도사
토니
작태
시내버스
쌍방
울타리
푸르
세리
금세
후임
배불리
장외
##BM
등재
키가
인양
페리
뒷돈
태권
이메일
##스카
EU
숙명
포수
나올까
야단
나타낸다
##천하
돌려보내
슈팅
대요
소아
속담
##다임
도요타
든데
음모론
패러다임
따라야
심재
연타
가져와
월요일
몸부림
창당
녹화
서점
전했
발자국
닥쳐
가르쳤
##리학
방한
거슬러
잠실
시카고
처사
##교도
최성
시킨다는
그제야
장하성
놀랄
최하
##연대
이어진다
외화
케인
지탱
따라오
날아오
백종원
역병
막아내
페북
미끼
대란
발기
방화
imf
김병
엄지
유병
쥐어
채찍
##리안
나노
달아나
상도
한태
교감
LC
##태섭
##ik
직종
##업소
반말
##렌드
인심
무명
서부터
웨스트
동사무소
##혁명
친밀
안도
능력자
##줘야
자의
내신
다분
단골
성품
특별법
사병
SC
대군
수주
탄탄
합쳐서
밀어내
집결
시킵
통산
쳐묵
상표
당부
##VE
목적지
드럼
서원
노년
타로
와우
개장
질려
기어들
탁자
##셔츠
물러서
AS
지그
이드
경기력
호시
##마음
##사전
대일
조종사
슬롯
가히
##ob
파이프
안하
지켜라
한게
##per
주축
분화
르네
어땠
세븐
활개
##ant
두세
문다
쟁점
크리티
연합뉴스
누드
난동
닭대가리
레인저
보냅니다
경부
정쟁
정신줄
마지
도출
박찬
파란색
OEC
##언정
파이팅
숙여
sk
수컷
##가시
두기
충만
나사
다친
##80
영화제
하룻
박해
한건
종신
곤충
하버드
Th
통일부
이스트
치뤄
무너졌
따질
비공
서너
전동
동향
외교관
제갈량
동구
BGM
회개
발암
학창
국물
로리
##치산
OECD
정산
천상
점거
수순
탄력
국외
계십니다
받쳐
근래
환기
부러워
유배
농산물
물러가
##TE
춘천
왕후
피격
수용자
나뉜
4000
왕족
사투리
대본
생겨났
##통령
쇠퇴
세라
양면
이국종
가맹
건너가
순종
##필드
버드
NO
냅둬
치아
해낼
자정
선가
발각
사채
자자
눈부
까마귀
중추
재판부
자궁
재해
찾아갔
해내
못지
철새
정우
열렬
형법
1948
태어날
울프
조원진
밤낮
기다릴
끊이
표방
박차
어음
금고
기어나
##나와
낱낱
돌려서
라든가
당께
벽돌
섬세
덴마크
아다가
##드레
지친
덧붙여
는구먼
에릭
완치
현수
기색
무림
타율
브리핑
쳐내
북방
##쿠스
수양
느려
상이
스며
출소
1972
한결같이
알맞
국내외
정전
WW
##플렉스
약혼
조르
수군
몰입
육지
드셨
속여
영사
따를
##av
방구
끈질
노벨상
변기
써야지
급진
꿰뚫
은밀
변할
##즈음
바글
들인
따라다니
껍데기
콜로
줄여서
##슬라
일부분
매트
액체
빨래
자분
##투사
손대
만인
진흥
할려는
구구
킹크
리라고
##불명
문주
##세우
##런트
##인격
반갑
##살렘
캐논
짜장면
쳐야
수도원
사이클
사회생활
수호자
화석
육상
문체
첨가
끄집
성급
국가원수
##벨트
##루살렘
묶여
##모니
그물
##화기
##기에
데드
##테리
온천
버섯
굳건
내심
의구
여적죄
가위
1965
퇴치
갔다온
선지
멀리서
금태섭
빨강
캡틴
서문
프로그래
상원
이의
놀려
불순
안쓰럽
파고들
올린다
읍시다
신원
본진
우루
껴안
보호자
##높이
신약
논평
단련
밤중
버거
손주
판도
##미사
수녀
아부지
라야
대명사
합법화
1975
##마다
트롯
##텐도
##통제
##ind
말미암
김유
베이비
치하
닌텐도
유선
암만
도우미
달걀
GP
얘긴
공론
북유럽
##숨에
단숨에
센트
1940
##따리
1978
대서
민변
삼키
동계
예루살렘
쇼크
직결
못한다면
금요일
이타
덮어
총재
로이
퍼진
##ain
드라이버
망설이
야합
##나미
행렬
일차
계수
진단서
얼룩
들여서
원료
움직였
Pr
노르웨이
믹스
##클럽
공황
퍼줄
경감
연패
원산
경영진
목구멍
아치
계략
풍속
나약
유쾌
김현미
아세요
대부
어딘지
MVP
난입
정은이
찍히
1974
궁지
쌍판
다나
신다면
소시
독단
올인
원화
곳간
##스토
##퍼드
미친개
노하우
대승
어면
##60
메이지
##너무
포크
가늠
처박
발탁
둬야
폭넓
##테일
무궁
이마트
왕복
과다
중원
CCTV
##못해
재촉
공소장
챙길
워커
배차
기다려야
교육자
시위대
처우
요직
일각
pc
망해도
강변
우짜
단죄
히메
빼내
질까
명함
AR
똥칠
오물
강인
누른
묘한
부회장
기조
하구
으실
##거품
센티
원합니다
수험
쿠바
##라노
바닷가
너무너무
두르
##에이
안하무
남짓
연안
알릴
찬사
줄여야
경선
게재
##박스
##OP
든다고
열사
네오
얻어먹
지껄여
해독
교포
##력자
쪼다
자석
##ity
셔야죠
로빈
##AC
무모
져도
중견
실물
기온
배열
오렌
가져올
우드
카르텔
이권
청하
소리치
챙겨라
##비치
안감
권영
##큐어
할라
뱅크
트윈
가급
따온
나스
보직
면은
마마
마틴
범하
리타
체코
쓰러진
경비원
보행
보따리
##규모
쿵쾅
##자드
프랜차
논다
사당
의구심
정동
적발
이점
예비군
훈훈
원동
어조
생겨난
국도
##사태
학벌
##VD
##ry
어뢰
350
목걸이
무지하
제제
평판
챌린
초콜릿
반쪽
거래소
##호식
드신
##올랐
딸래미
뱃지
결전
보여야
질주
하기야
잠재력
관광지
내걸
An
돌아와서
스코틀랜드
대피
배기
원문
냅시다
##ho
특급
소나무
지으
##그머니
동당
185
보험금
수긍
그래프
착륙
미술관
하노
지른
검색어
다고요
근심
순방
막무
질책
도울
돌려받
피드
막무가내
DM
신빙
프랜차이즈
밝혀내
개탄스럽
척도
까대
속지
야심
지낼
헤라
흑백
마켓
크리티컬
미시
탁상
찍힌
몸소
변한다
투스
빼돌리
분대
철없
독교
Le
오스만
죄질
가부장
카지
파시즘
항소
자빠져
겁박
반중
해줄
아이언
의정부
곽상
HD
##크라테스
몰랑
배설
이경
환경부
싱크
쿼터
호의호식
머무르
코코
기다려라
이룬다
패망
제작사
하얗
개교
샤오
소박
실증
연소
파스
이제껏
##스크림
오디션
할걸
가래
테라
팽창
겠지
##다운
##셔야
그래서인지
재화
돌아섰
아팠
한판
오피스
세일즈
상생
내쫓
건수
음식물
##시효
등쳐
따른다
여느
자회사
조서
말세
문예
야근
남학생
재끼
토마스
지크
프롤
애시
앤드
외압
준공
파병
작위
엄정
규율
연휴
헌데
온다는
그리워
교재
배수
보강
엮이
면죄
남동생
쑥대
홍영표
커맨드
초토화
강했
사돈
빠짐
비결
떠난다
재래
무주택
KO
활력
야채
인신공격
심문
일깨
햇볕
들으며
소규모
GS
바램
기라
##특기
먹거리
예감
승계
비우
##블린
소고기
매출액
오바마
라임
발현
주특기
대머리
사육
소년법
부관
이현
급기야
##회의
김태우
할까봐
자재
게르
키즈
수중
세이버
역행
트윗
플라톤
국유
알렉산드
분과
무전
걸려도
LA
충남
불허
##자루
##바탕
구타
그쳤
필립
고안
##벌리
잡아들
객관적으로
중생
가급적
속임
무분
킬러
공성
보유국
없앤
어중
##스런
##은색
대모
죽임
크루즈
업로드
경이
렉서스
송금
마쳤
선보였
이광
돌아온다
진핑
누워서
별반
다녀야
유재석
##누르
레코드
양복
탐정
어설픈
고구
코앞
소생
발령
간신배
##블로
이어질
짝퉁
쫒아
구태
무너질
로울
아케
맞물
로라
##퉁이
성씨
출혈
뭉쳐서
무분별
동일시
성문
사로잡혀
오로
답글
카운트
고갈
개차
루수
말레이시아
눈썹
라나
디오
사역
기쁜
내로
##루미
끌어올
고등어
염원
##10
포즈
농도
터트리
인멸
바디
##받이
양주
떠서
##철도
시동
어따
국교
플래시
능숙
갈비
손잡이
누군데
여지껏
##워야
하룻밤
우에
콘스탄
김호
역동
라가
아자
개꿀
백악
때릴
친근
발부
막연
방황
De
구더기
결핍
다다
직속
구상권
##틀리
외전
졌으며
OST
##BA
##어붙
복직
총괄
우측
다른데
감형
살길
고스트
신변
북경
존나게
성대
##잔치
학파
##초리
판명
서운
아쿠
태연
다느니
은신
저명
그닥
악취
고분
삽니다
혹독
간파
횃불
이루어져야
포상
요즈음
망해라
1971
##ID
외무
꼴찌
면담
부녀
퍼다
적힌
##코인
안기
피라미
후유증
케이크
받치
1200
본관
일류
특공
1968
방언
판다
야이
수차례
다뤄
을라
뭔가요
끊기
획기
밝힐
망해서
트라이
엄밀히
맞춤법
아플
연승
##구장창
주구장창
끄덕이
외세
러시
외롭
이중인격
아래쪽
부도덕
구워
우발
시커
차후
혓바닥
##ove
동호
##ud
외식
##ES
미키
포탄
에드워드
자명
미즈
오렌지
들판
적법
요금제
강기
마십
시킨다고
규격
애당초
경찰청
청화
음흉
제휴
참신
단기간
##속히
##카리
국보
AM
희안
통지
새로이
스태
충실히
집안일
무작위
업주
1976
휘청
대등
준우
그려진
사회학
##건건
부린
586
죽인다
사슴
사사건건
투신
##네임
##부치
1946
깨물
상성
넘어선
안하무인
셔도
가재
더위
사슬
발렌
신동
안산
애새끼
편해
사체
##고집
여배우
장편
트래
여성부
뚱뚱
빌어먹
결투
엘리자베스
평민
모질
문의
드러낸
시뮬
##코토
뱀파이어
##죽이
잔소리
감격
오영
SKT
회고
사기업
계약직
똥구멍
야쿠
우르
온상
##양함
밥맛
시네
가야
분비
부르주
슬라이
김형
트롤
몰려들
##12
##꿈치
가져갔
인텔
모세
위계
세계인
##는지
##인공
목줄
고칠
당명
챙겼
##기구
후반기
검술
문란
미제
##볶이
테러리스트
전화기
단말
종편
윗선
어야죠
들려오
단교
유언비어
비시
의외로
틀어막
스치
112
##하마
졌으면
제치
여행자
미화
들어온다
혼내
일말
눈치채
##구만
인구수
악어
##검사
려는데
노멀
여진
골짜기
철폐
스폰서
전임
정녕
##무사
가뭄
복선
##시장
대들
분홍
일식집
미움
질량
노린
시늉
전산
간행
전년
뜨거
##사르
발의
사무총장
벨기에
응하
변혁
영변
경각
여행사
중구
배짱
우왕
묘하
유부
평택
##se
예언자
문양
오랑캐
기승
저마다
건축물
구약
후작
우선시
날치기
할머님
스팀
##은혜
이법
타이어
얼어붙
여고
단종
깜빡
으이구
스텝
타다
금기
주파
쑤셔
간담
##ae
원상
학비
루나
파헤치
애용
의류
제독
거창
하소연
훌쩍
심부름
지평
부숴
정석
도려
떨린다
조류
수신료
내뿜
상습
순찰
가네
군기
새꺄
까요
밥값
모노
비트코인
거역
오니
안양
우즈
다녀왔
안식
갈아입
##아내리
폐허
부치
타수
꼴값
외래
중공업
한다더니
묵인
DS
돌봄
볼려고
셔츠
낙관
부조리
미모
정돈
핍박
진나라
##베이스
좌측
토너
냉철
신흥
##지처
민법
여혐
페널
##베리아
자연스레
구조물
아수
184
구마
블러드
선보이
시술
제끼
참으
유흥업소
쓰러뜨리
지배자
나랏일
빵빵
##부수
못생긴
여실히
바스
셔틀
색채
##카이도
법인세
투덜
산타
열중
뜨겁
후술
소변
상납
난사
끼친
속마음
둥지
따돌
진성
김준
##진창
##슬쩍
성실히
살상
도루
파츠
Se
반반
낄낄
휘발
양정
허다
이태원
Ar
미흡
홧팅
아폴
빨치산
흘린
무어
상용
방송인
중첩
눈알
선하
대지진
UE
경수
386
만성
관우
엉망진창
꾸짖
##ld
간곡
전파자
겨누
##그레
봉사자
작화
페이즈
육신
하이퍼
##사스
주군
교만
##치아
##ark
1969
못합니다
여단
비평가
타선
결재
자선
일괄
순례
초상화
언스
수괴
간당
##공항
대리인
SD
어니
해수
##감치
불나
실습
파헤쳐
주어
떡볶이
사교
고상
더운
서재
유라
농협
배트맨
허탈
행한
일탈
##씌우
부총리
프레이
한걸
동이
##찌감치
낙원
예리
빈민
경의
프랑스어
미녀
이문
분통
잠겨
##멘터리
스트라이크
시원찮
릴리
채울
연구실
부딪히
이민자
양도세
자숙
적립
조주
포도주
플래그
FM
시노
수인
아네
##튀기
파울
##던지
이래라
아마존
요령
##치우
실사
까발려
젠더
해부
후면
김부
슬그머니
광선
증식
통용
톡톡
수식
##마루
##부리
##순환
용접
주니어
손아
수뇌
##센스
산화
오메
속인
영생
망령
갈망
원만
소동
뻥튀기
증발
스캔들
센서
쌍용
##디스
극성
마블
개짓
쓰다듬
조율
협의회
무지막
마포
무지막지
선구
냄새나
가미
세치
순천
재회
포탈
라인업
1977
##징어
사기극
알아볼
기관지
다큐멘터리
간략
흩어져
##EM
널렸
진즉
화풀이
메커
도산
간다면
##크리
아이구
제니
얘길
갈려고
했을까
리니
산정
발뺌
황태
법사
플리
그려져
난다는
아이스크림
방자
어드
어두워
살려야
모텔
증후
한류
루비
##베리
바이올
상국
##앙스
##루션
와일드
아유
선상
호전
선례
세워진
박탈감
등극
맡겼
잔디
국공
비장
##맹이
경연
구치소
발효
빠진다
임차인
매월
점잖
핏줄
그제서야
##고래
아슬
마야
빌라
준하
뎅이
##OM
우겨
WTO
독일어
준표
뉘앙스
개차반
브래
만난다
평온
무자비
간식
재임
문대
화신
##구역
애꿎
치를
##iv
탄창
생김새
##들아
역겨워
플라이
##ast
바나나
트인
맞출
미쓰
자택
##지대
장가
식별
신민
추앙
독창
지중
내시
무안
놨다
드래프트
에구
아랑곳
야망
선천
당사
마드리
양측
유토
기갑
찢어지
대대손손
내요
집합소
으휴
래요
추월
뺑소니
##버거
만능
거긴
미팅
파묻
거액
테스
정제
항공모
조짐
메커니즘
폭스
논증
상임
원한다면
##내미
끓여
검거
순순
애원
멜로디
안성
##레일리아
일쑤
장신
왔다
상품권
가늘
이따금
빡빡
여수
수강
##배기
뒤졌
##OL
튕겨
이장
평정
선동이
구세
세분
안면
##광이
국민당
괜한
끊임없
즉사
벗기
정진
갔었
검진
산지
반가
의약
편곡
하원
##뚜기
존슨
블로
수천만
가나
오우
계열사
마드리드
야수
빈약
연못
평행
추궁
하드웨어
등쳐먹
참여연대
시끄러운
테니스
바란
로구나
난국
한다니까
KIA
이긴다
가성
섹시
수치심
보르
화끈
대법원장
샘플
텐데요
교제
구독자
꼽히
토사
##당기
자라나
고구마
1963
수표
경인선
낙동
맡긴
시그
괴리
패닉
돌봐
맡길
스노
어림
라이온
드려야
##게임
달했
절박
용의자
퇴보
침뱉
개소
제멋대로
충청남도
고뇌
남산
처묵
곤두
경관
DVD
신주
자급
지미
국제공항
속출
가출
불릴
개떡
비약
전과자
승률
사절
리카
균열
스케줄
다발
법제
##지리
소중히
프리큐어
##테리어
까다롭
사부
신세계
스케일
날까
시한
자괴
좌천
아집
양호
애도
차갑
가지가
무증상
냉동
그르
최태
밀수
전라북도
암기
##만장
넘어오
터져서
자구
박상
여행가
유보
구축함
그릴
pp
TH
조개
##테랑
원비
##시스트
미뤄
항공모함
박자
비관
망원
공상
제후
신뢰도
칸트
대남
오징어
석고
하반기
보스턴
관례
거처
##가짐
쓰러졌
오더
임팩트
단추
생식
선인
형국
상대편
기증
파격
중얼거렸
퍼즐
##해군
커넥
1967
세세
적나라
좋아한다
던가요
제각
드나들
제비
##천군
풀이
##둬라
백업
투척
면죄부
찬탈
안중근
주포
그리스도교
제고
1949
머슴
성주
속임수
더한
큐브
선대
방대
수조
싸워서
이은
농성
바라기
차체
##방위
항문
걸림돌
신격
시초
##자락
자판
프로토
대차
영수증
경희
무스
##르기
결탁
막막
왕성
강림
##오줌
멈춘
쿠폰
오스트레일리아
변모
팔자
UEFA
깃털
##age
재일
피임
##나갔
##EN
지만원
민속
낸다고
정벌
직행
탄환
흡혈귀
동양인
악순환
도다
본연
개인주의
참된
노통
미치광이
공적
NH
전격
중독자
술잔
서독
부렸
경질
아득
자본가
사회주의자
SF
뾰족
베인
재즈
기웃거리
타일
179
채취
경제성장
효용
눈높이
리프
교화
개기
문과
위배
팔레스
지겨워
딸랑
피라미드
갱이
하지
시상식
일국
민첩
영조
첨부
깊숙이
해경
수성
조별
개고기
장구
경각심
수분
다방
비켜
했다
보아
회유
클라우
환생
숨길
제스
쯔쯔
현대인
욱일기
견고
빠뜨리
남친
적중
열일
중성
간장
급등
허덕
명중률
근친
교원
긴장감
노고
난폭
총대
쪽팔려서
신한
관철
추대
방조
엔젤
민영화
고증
시들
불러야
사대주의
서포터
염소
소도
소소
이진
깽깽
정대
어찌하
졸업식
미르
빈틈
불쑥
보인다는
##모스
한다는데
병장
봉지
계발
반대파
안토
시댁
키는
반정부
상금
참견
코난
공소시효
캐스터
한기총
##시지가
심재철
##스러운
연구회
부호
선방
공시지가
히나
월간
씨부려
어이구
떠밀
몸뚱
재용
피드백
니체
자만
치워라
레일
포고
면회
수모
소진
순조
제게
프로필
비워
똥오줌
수건
스탠드
나뉜다
코우
성수
어설프
법치주의
리안
기형
꼬락
존스
애교
쿠르
##의정
##스티벌
느닷
틈새
가오
모종
##로이
모스
페스티벌
보호막
색이
##ly
정신없
궁궐
순순히
놀아
치과
##나르
쳐드
건너편
재활
여행객
후미
느긋
루크
덜떨어진
엑스트라
꺼려
힘듭니다
조교
회생
##레마
농가
소령
계실
##시스코
스타트
잡혀가
##적거리
열람
텍사스
쪽팔린다
호출
천도
##간첩
변장
순전히
##제국
시외
에도
어의
자며
흐려
쩔쩔
동점
어쩌다가
마는
다냐
늘어난다
바쳤
징그럽
하층
갖가지
북아
시요
행군
일지라도
##영향
관문
마요
친환경
거침
리즈
##그룹
조커
세팅
맥도
유영
##봐도
티베트
한족
황폐
감면
논술
모는
조합원
KBO
성모
수산물
유나이
박주
평화통일
헬스
##망상
거만
일파
오름
105
가신
공해
카테
초간
엄연
앞세우
카레
햄버거
들으면서
치중
찌질이
You
대타
행각
일수
지로
##하르트
등용
담화
매물
전기세
심성
일회용
현자
벌어들
배움
산악
항명
힙합
오산
리터
똥통
유나이티
##ff
메디
트레이닝
만한
##아래
놓아
때우
사업장
정주
팔레스타인
정관
안팎
로프
요컨대
고심
버블
돌이켜
토너먼트
감춰
군함
데기
진실로
낙마
고비
주정
들락
더럽히
지아
ww
트릭
없앨
동산
증여세
##MA
미친다
컨설팅
숨통
동물원
달려갔
CG
회관
구급
솔선
내통
삽시다
챙긴
##설수
끼친다
초심
도매
마그
6000
앞길
부딪치
폭격기
몸짓
어김없이
조우
편집자
울화
가차
##쓸이
궁민
하리
내고
시일
귀속
육박
CPU
쓰일
지울
충견
지도층
칼라
독려
##렁거리
구석구석
위시
타나
서인
공휴
프랑크
부름
구비
호주머니
의존도
배역
퇴각
되돌리
##나마
버금
신의
트리플
서글
병합
퇴원
애시당초
유미
두말
크리스탈
여태껏
##one
방과
재팬
##마당
가꾸
앞쪽
느껴질
을껄
현안
통치자
##대표제
견인
국방비
뒷모습
요번
무리수
속속
스피커
갈지
뜬다
뒤흔
##조심
연습생
얽매
로렌
울렸
세제
옮길
슬퍼하
고소득
뜯어내
절도
니아
123
항아리
가세
교차로
자괴감
포섭
줄래
교란
심층
아리스토
매몰
확충
가디
땅값
독수리
함유
##나리
이러면
JR
언뜻
##지부지
흐지부지
##박질
엘라
##ge
굴뚝
천체
만하
2500
개칭
길바닥
의결
꼬이
싹쓸이
난장판
##바글
최면
캡쳐
##생물
테두리
토론회
사춘
수개
BM
미쳐서
백두산
텅텅
몰상식
이라고
주된
얼핏
올드
진한
율법
인파
해버
현주
##키퍼
안다는
파키스탄
멍하니
테타
요미
채운
백악관
금발
추이
늦추
에반
바글바글
물러났
고마움
십자군
훈계
공휴일
집중력
낙제
달랑
유고
징징거리
증후군
훤히
해봐도
봉준호
외로움
모을
OS
채권자
우뚝
삐뚤
수박
전학
호프
출격
매운
욕했
##고속도로
위급
격하
곰곰
국밥
둥근
##가족
도살
마물
1962
모듈
우방국
##TN
##널드
곡식
조동
비례대표제
외관
원동력
YG
서영
어찌나
유치원생
경시
진수
데이터베이스
비주얼
성관
드린
앞둔
그땐
쟁취
##ber
175
##변이
분탕질
과부
기어나오
상냥
아리아
버려진
골키퍼
끼쳤
해법
##란트
외양간
한수
파손
증원
왜국
학생회
위헌
변증
##능력
밝혀진다
트렌드
도쿠
굽히
돌연변이
세미나
##런지
하부
동독
카자
미운
183
낱낱이
깨졌
찬란
백지
이부
힘껏
갈아타
일용
소크라테스
이회
##18
바랐
다가와
어려운데
충실하
내세운
낙찰
쫓겨나
낙동강
침실
강타
피워
se
양현
기왕
좋아할
차근
길가
열풍
괴롭힘
스파이더
운수
출제
참회
##클리
과오
간담회
여력
정신력
배부르
카마
넘어간다
##클린
발가락
3040
무릅
넥센
책임져라
시오
찰나
무의
배타
소양
날카롭
잭슨
한일
특위
광물
##페이스
나인
바라볼
웨이브
국방력
정했
영국인
배신감
의례
사명감
헷갈리
하프
카리
김여정
토로
덧붙였
저버리
탈환
당내
##시계
아수라
받아들인
캐시
##상스
쫓기
의료인
기막
##둘기
만장
스트리트
커질
디지몬
카츠
그럴듯
무색
파주
허벅
중재자
일컬
제때
여편
패자
죽여라
클랜
할애
반짝이
중량
사춘기
가가
까다로운
낱말
고운
여겨진다
이성계
고질
양말
1961
여편네
유모
맘껏
사야
헛발
하등
##사실
바칠
노자
항모
송이
인테리어
김밥
어긴
시멘트
열심
메리트
만든다
국세청
실례
관건
요하
놓이
##70
기울였
회원국
서클
홍대
창시
불출
강등
이글
##무장
##uc
근절
기억나
1964
탐지
대낮
속죄
다자
한시
석상
전업
나눠서
각별
PP
##두고
구동
세심
##니발
영성
양대
신분증
뒤섞
피카
아키라
리플
열거
불러일으키
순교
다구요
상시
널려
드러날
해본다
맞붙
베테랑
벼랑
효소
##IT
##보라
찾아다니
조그마
##들리
##ews
빼앗긴
속히
변론
상회
성과급
원판
권위주의
마가
승점
체자
풀린
나무라
유은혜
프로이트
CN
누렸
재기
버터
키워드
휘둘러
미역
사족
어당
단언
숭고
르네상스
진행자
분개
타르
페어
푸하하
잡힐
일면
다더라
##에나
중화민국
권영진
폭포
##부대
지선
하기사
다잖아
제우스
김세
속일
추태
큰소리치
나자
타가
스텔스
높일
코스피
떠도
과외
여보
일찌감치
여간
김승
솟아
대열
될까봐
##복지부
##둥절
치이
족보
일그러
맞먹
초록색
타석
##상가
견지
포교
어리둥절
보루
오거
바야
직감
혼혈
지나갈
히토
손익
약소
##바퀴
똥고집
고국
드세요
절규
독제
구린내
##하이
파문
내미
미덕
입성
벙커
잘생긴
갇힌
누스
로얄
본당
건설사
대니
강남구
매니아
하루카
##뱅이
요기
포터
개구
상전
111
##ame
이목
잘나
통할
낯설
##쿠라
짝짝
연금술
놨는데
윗대
흉악범
정장
나아갈
느니라
신년
저해
보건복지부
동감
희열
밀가루
적임자
노령
캐치
합창
##방망이
창가
은근슬쩍
입가
스태프
불우
엄두
장만
발해
폐해
막부
위정
충성심
먹칠
활보
사정거리
한다거나
두고
이케
월급쟁이
유목
알렉스
준우승
히어로즈
옆구리
다운로드
##ood
경제학자
왕래
들릴
라이플
몰려오
지중해
어원
물정
##텔레스
눌렀
연세
Be
지발
본심
소탕
줄어든다
한껏
달라서
시력
만찬
청동
충신
내놔라
김광
산림
부르주아
WWE
##리칸
##들인
두고두고
반부
돋보이
만진
장갑차
두부
퍼스트
도어
재미없
레즈
늘릴
멸시
가닥
다가올
아츠
마쓰
알렉산더
샤이
초원
암것
괴상
드로
서면
던질
취해서
360
##을지도
줄거리
강경화
지폐
덩달
아리스토텔레스
매기
##실록
##ass
갈아엎
이색
체온
루피
젊음
사무라이
암살자
게릴라
베스
이성윤
##자와
헌재
1966
소심
약정
힘겹
꾸려
보건소
왔었
돌이킬
지질
모던
종래
쟎아
화약
EBS
헤엄
##UT
모처럼
조로
##man
악영향
##말라
채무자
증권사
일기장
이양
루마
총력
##차기
문무
흐른
기업체
구질
머뭇
은유
통틀어
##덕지
Cl
지원자
미우
쫄리
분식
이끈
핸들
드니
로열
김의
불펜
딜링
흐트
송구
빙자
포럼
서신
악덕
단발
한중
의기
잖니
신아
입법부
자이언츠
EP
##end
##마르
징벌
허브
여길
특별시
125
필두
동강
이중성
개보
인피
간간히
이용수
데몬
홈즈
일절
장보
고야
그리스도인
제단
번거
그럴싸
전기차
철퇴
해전
절실히
명언
승승
살펴본
##차림
조직원
보라색
연연
유년
푸틴
배드
당함
거물
도왔
논할
호스
그럴수록
디시
베일
나뭇가지
여겨졌
됐으니
화기
출발점
여하튼
순공
외친
런지
대나무
백억
이오
머금
함성
##위치
강간범
열흘
토양
진열
만료
변절
잘려
태산
SE
레온
열도
야마토
워터
행실
송파
독립투사
차용
몸집
과감히
밝혀질
득세
기독교인
고하
붙일
빅뱅
성원
가산점
정치색
긴밀
##자재
FTA
He
섭외
확연히
추접
국영
문지
귀순
추해
염증
주휴
노바
그리움
오일
쫓아가
체인지
시크
이송
영화배우
##te
##ial
테레
프레스
뒤따라
##무늬
사무관
대검
어치
해머
원격
티스
터득
유추
통진
가만있
소국
전경
영탁
엿보
오지마
무혐
비지
경보
re
##국적
왕가
외할
기획사
그라운드
##DA
고의로
테르
가르친
##미사일
박용
체격
##체스터
펼쳐지
불어넣
강세
스가
기일
소이다
파출
러스
이화
저래도
108
능지처
손짓
토미
개원
로군
이롭
생산자
놀림
##창호
내비
##무게
멱살
##겨운
탄다
무더기
머물렀
극찬
수뇌부
부화
무서웠
꽁꽁
##ock
도망갈
막아
통찰력
세워서
증기
열강
을려면
허벅지
미러
##저우
아까워
원피스
안타까워
었잖
재상
몸무게
반란군
꼬락서니
##필더
미드필더
자가용
토요
날아다니
불복
시끄러
믿기
##승부
최전
Com
타파
법조인
라그
편승
소액
만천하
선처
연차
작별
십상
질리
일본식
김남
해병
##효과
이석기
##내기
황실
##카이
##갈기
원대
##달리
성태
마라톤
나츠
##불호
##외과
호불호
쏘아
좋아했
이대
아인슈타인
뿐이
라틴어
마구잡이
림종
무정부
티아
노이
꼬시
노아
##갔다
##리히
쭈욱
고이
머리통
능지처참
닉네임
장이
판문
수료
워리어
사상자
누님
구매자
부지런히
꿀꺽
비둘기
성리학
깨져도
과태
데카
오보
한성
CF
교부
소홀히
라이언
냐고요
기념관
##대사
가도
경청
뽑아내
풍습
으려나
마져
마계
신속히
뒤따
튀기
위증
소용돌이
갈려
자결
엔드
패악
##니티
들끓
명동
내륙
구한말
##oy
##ph
##막이
로크
코카
최강욱
프리미어
문맥
순리
창간
레임
##셀러
스테이션
초고
시온
카네
창구
입안
멀쩡히
망가뜨리
장판
치렀
결렬
1900
죄목
살라
유재수
대물
현미
내야
타지
빌빌
토의
오락가락
드롭
판서
##벼락
워드
102
프랭크
제소
중얼거리
어느덧
헬리
퍼트린
바우
원통
은총
먼가
응급실
왔다갔다
##OT
##프란
특권층
주파수
급속히
비고
마취
밥줄
분실
걸요
쓸어버리
요리사
고쳐야
재질
대패
습니
아닐지
멧돼지
Te
기동성
강령
결속
괴로움
영위
##에트
하하하
예뻐
기껏해야
된다며
무지개
아들딸
종부
##더니즘
반경
기다린다
강수
입체
상소
형수
포획
##강도
##다녔
##레타
마하
합계
단거리
여호와
갈취
후드
자생
갔다오
청취
언데
재대로
몽고
1910
www
CS
단연
빈다
의석수
관공
떵떵
연민
언젠데
연달
다스려야
탈피
뽑히
장애인
YTN
장대
##조각
떨쳐
우치
싸늘
1919
무릅쓰
무턱
운항
나주
상고
SU
사니
##미아
들려주
수비수
자구요
벚꽃
느슨
강서
도도
미동
도망간
과태료
##세서
화랑
구시대
저조
권세
가망
끝냈
근거리
파급
즐겼
갈릴
얽혀
##부동
면전
갈라지
몹쓸
스펠
뚫리
##체류
더러워서
방귀
캄보
잠식
혼수
내공
어머
개웃
변종
궤멸
모라
이뻐
합친
##니스탄
인내심
급행
구장
트릴
참혹
##티노
묵살
마르코
##차별
잠복기
스핀
억대
불법체류
백과
세연
브라이언
꼼꼼히
노마
적금
터뜨렸
##mer
레임덕
튀어나온
경심
순응
아이큐
신병
함박
듀오
난도
부원
주진우
조양
##iz
콤비
사우스
##레이크
조형
공교육
딜레이
결실
고블린
벅스
##oon
일장
천성
누설
부여받
풍토
SR
##체어
##블리
신물
제보자
재산세
구덩이
카지노
비나
스즈
블랙홀
##소스
프라임
시뮬레이션
레딧
국판
김선
내려앉
주당
특사
음향
바기
군자
##플러
올스타
욕한
주유소
1947
주변인
##타르
뒤쳐
오디오
페널티
투하
살아오
독보
따님
목욕탕
왤케
교향
눈뜨
건달
술수
어수
그러니깐
구애
티셔츠
팬텀
완벽히
##코트
##VA
통솔
깔깔
진천
나이다
##ont
분쇄
오른팔
호흡기
AD
단두
타이탄
##워프
##ith
유니크
꿈틀
단국
간디
지력
징조
욕보이
울분
흉노
Me
못살
엊그
되려
메시
무참
강박
국과
배구
골통
라즈
박종
수산
연회
끝낼
휠체어
서두르
굴러가
가락
아니한
선풍
두드러기
버럭
약품
##수범
국민학교
쫒겨
##하시
호적
##바른
주디
애착
옥순
천민
##렐라
십쇼
미주
시호
돈다
어울린다
##서도
##장수
괴로워
굴려
으란
이펙트
비밀리
손아귀
##지심
발원지
보위
파벌
시다
프론
필기
버들
수배
조아리
빅토리아
한문
가까웠
##분자
실지
양해
왕권
으르
간통
허영
평면
에티
조제
암것도
415
애썼
기어이
Tr
240
무실
키를
##나도
철강
음악가
상류층
ST
인문학
##폭력
노랑
사려
찍혀
모국
심기
Gr
은커녕
구국
독한
얼빠진
영공
택했
비상사태
리틀
멈출
##전쟁
헤겔
피신
노역
농지
풀렸
치닫
노파
조례
제리
초미
두께
178
홍익
피닉스
별것
서경
콩고
암묵
대적
알려야
무임
면도
금지법
수락
추산
유병언
Pl
단도
무제한
면역력
무수히
못한다고
했으므로
너도
##실험
이례
##르노
가르칠
동대문
작단
상세히
판문점
공교
전시회
급속도
가까스로
강북
##픕니다
풀려나
##대고
청계
어버이
양분
##거진
게을
자지
동년
에버
중전
강가
융통
다원
둥글
커져
##날드
빽빽
카이사르
##sp
커넥션
단번에
딸내미
온화
휘두
BS
맹신
투여
빠짐없이
엣지
걸어갔
바랬
챌린지
계세요
1941
장안
컨디션
과반수
막혔
솔선수범
떠오른다
캄보디아
루프
서북
##거려
##의회
인칭
척추
항우
##ice
sh
불태우
공생
으니라고
저당
기정
문파
채웠
카시
박성
시모
김윤
단검
바닷물
커밍
나쁨
##차근
링컨
승승장구
차근차근
그자
##절절
##와라
##댕이
구구절절
##무진
단행본
한바탕
그럴까
가족사
느닷없이
쿠스
남동
순이익
간병
푼돈
자서
1944
제조사
개연
홀리
##테이너
수족
##라이나
블럭
석기
시간대
라크
세키
핵미사일
비만
##ire
뒷배
##이동
미신
우지
##LL
##진다는
해악
부스터
추진력
##OD
디질
육갑
초계
메트로
하계
치른
159
땅바닥
함장
살펴볼
할리우드
부대원
신관
선우
크레이
365
삼류
목재
안재
대법관
지근
살린
두드러지
얼만데
유토피아
기와
구차
납세
무서움
미남
의제
얍삽
입김
체내
NG
데스크
살만
카인
모험가
덕목
할껄
다가갔
싸대
새겨진
움직인다
언주
섭섭
속초
히라
함량
왕건
엘레
퀴즈
##ory
지닌다
김재규
휘발유
게리
돌변
모병
영등
발산
싸돌
넓히
롤러
##과점
양지
간경
예우
질타
모여들
##AP
나니
쥐어짜
상어
이기심
바꿔치기
파국
북극
새빨
사키
누락
뮌헨
다국적
매스컴
유리창
노화
타쿠
망쳤
까페
음양
하치
##19
버틴
아야죠
시킬려고
야구장
방사선
##위원
젤리
옷차림
밧줄
달려오
저작물
DC
나올지
##당당
##ure
대주주
##yp
정연
영화관
다네요
플루
##떨어지
설훈
다이빙
악인
사생
마사지
직계
손오
드워프
이바지
언데드
게나
##튿날
de
사문서
친숙
서지
판검사
코스닥
모략
망원경
그랜
섬뜩
안건
Un
일어섰
단두대
아세
마음가짐
꽃뱀
의정
아메리칸
퉤퉤
유태인
래퍼
인플레이션
선거전
서포트
만류
8000
발바닥
RPG
남방
넘친다
승패
시베리아
##ect
단말기
상체
싹싹
꾸리
어벤
##러그
부득
마술사
발하
만사
빠를
이튿날
뿌듯
적패
환하
총칼
##일비
힘차
훔친
##나물
오키나와
카테고리
피디
야죠
배현진
젠장
무의미
##마침
177
스로
정열
강동
혜성
납작
디바
베드
택한
소작
함경
##베르트
방정식
탄식
얄팍
##ust
대구시
예절
몰려와서
가소
때려라
수상자
동그
야권
맛집
식용
때마침
싸운다
스마
뼛속
GT
국인
당위
선입
고정간첩
포화
민초
불출마
가의
싸인
넘나
유수
황급
부사관
말자
##글라스
열혈
용자
##거든
조부
천둥
토마토
허약
##ian
콘솔
돼지고기
딸아이
더빙
밀어붙
넓혀
전법
지탄
성가
떠올렸
##노릇
친화
거둘
돌림
갑작스런
##오루
도르
DD
로보
힌두
황소
연행
사상가
네일
스레
##ts
가려서
밀레
주임
초능력
별일
선로
차등
캐슬
성장률
과천
방어구
갤러
솜방망이
뒤돌아
부귀
국부
스토커
나뭇잎
기대감
였으므로
기괴
클린턴
데일리
늘려서
비축
비오
올려다보
언젠간
공양
일인
화난다
어지럽히
핵실험
공채
내셔널
정청
청각
총무
일으킨다
고사하고
안토니
무턱대고
환산
스윙
왕궁
꾀하
라이너
쥐뿔
벌거
천자
나타낸
거슬리
엊그제
북서
까발리
뼈저리
심야
떨구
본의
독성
선뜻
배상금
나눔
하의
여운
어나
정보원
처했
##ord
노모
틀려
##살개
트로이
문제없
극일
길목
성의
필히
꾸역
조또
보가
반민
케네
##뿌리
테크닉
야겠다
점진
통한다
모성
빨갛
##메리카
대교
재차
스티커
후려치
##프란시스코
##며시
샌프란시스코
첼시
김미
BJ
순결
##독부
공국
와해
석가
선후
개비
구부
기스
족치
##유산
나위
알려준다
중공군
업보
피치
마십시오
구지
금연
무승부
란스
시청료
땅콩
허우
돌아다닌
유화
이철
공격수
취업률
잘리
강단
간곡히
##화학
클론
버르
사납
다님
다릅니다
무고죄
당혹
앨런
혹여
남인
오노
##길이
축출
전문직
손오공
끝낸
꼬붕
객체
일주
구렁
몰린
발포
줄여라
무의식
쾌감
거렸
아구
더구만
짊어지
명장
로이드
허망
##자치
실까
뻔한데
관동
정신없이
세간
##아슬
간수
##노동
칠레
아슬아슬
슈퍼맨
아실
야욕
형용
##혜선
맹박
병동
먹힐
상경
드러낸다
##깁니다
저지를
서번
정희
날아갔
귀결
깜깜
황사
짜여
이건희
방호복
삽살개
히로시마
먹일
광진
양질
##애나
숨긴
움켜쥐
서울역
##푸스
개콘
겨루
키워야
실실
경재
개관
세조
상수
##으리
al
내팽
슬라
##날두
김호중
춘추
멈췄
간만
출입국
가디언
씁니다
호날두
Su
갑작스럽
연기자
엄하
로그인
영창
돌아다녀
뒷면
악착
트레이너
접할
정발
워킹
뉘우치
유관
해놨
미나미
망토
케빈
되새
연신
낙엽
현저
아멘
진위
수라
스톱
파랑
스틱
록맨
##aw
대제
서유럽
부릅
특색
알아차리
다마
창백
배부른
주점
주광
리얼돌
미노
사가
열린다
헌정
줄인
현충일
고영
독백
보로
쪽지
불분
어젯
1956
여생
용맹
이보
이라든가
비벼
오케스트라
정파
결계
다녀도
BBC
바비
아틀
182
김두한
론가
리버풀
폭언
상반기
어젯밤
수십조
CV
베기
담담
평원
서번트
무주택자
바르셀
펌프
출산율
커튼
바르셀로나
##답니다
권력욕
손흥
숙종
메이플
하이에나
펼쳐진
##고가
##바위
게이머
현수막
잖어
유예
103
배꼽
실직
팽팽
갈구
원자재
##돌프
으이그
뛰어다니
죽여서
##훼손
변증법
내세울
처해야
스테이
토라
냐구요
모사
인품
불씨
1958
위정자
1953
몰아주
청자
1954
와이파이
뒤진
난데
충북
해괴
정치학
산재
산산
##코프
얌전
지켜볼
모면
창의력
공문
재심
세밀
키워서
말썽
비운
제하
위아래
이력서
과속
추행
##좌파
효도
천배
손흥민
슬기
거쳐서
한진
합심
##야스
멘토
쑥대밭
매점
테츠
으리라고
경건
반대쪽
산수
원초
작당
엿볼
트러
담장
자그마
로선
총출
##딱지
헌납
명예훼손
그랑
##ung
돌아다녔
마운
##가요
철권
이어폰
이강
##소녀
피시
고약
밀려나
Ex
빤히
신학자
원성
나루토
1955
될수록
따먹
미분
선수단
말단
##시피
홋카이도
날로
행패
그기
멘붕
거제
소린지
돼도
라오
토우
##슬리
맞은
재림
사대부
승낙
보여요
문젠
감투
든게
보디
살폈
잔류
유다
피했
합산
취록
##저곳
궁합
함축
이곳저곳
저질러도
날릴
유람
헬멧
만회
불분명
들으니
맹렬
단체장
패기
마수
카스트
이방인
뽑힌
이와
호리
조급
징후
치도
쪽팔려
동정심
내려와서
그러고
삼척
##사벽
김주
터무니없
넘사벽
리자
나쁠
카프
요가
해짐
스즈키
현저히
사발
영재
뜯기
밀착
##대원
할게요
운전사
EM
서진
악물
입혀
##ide
노이즈
##뜨린다
유망주
당뇨병
##연합
갔다왔
증강
##지물
##어드
끈질기
질수록
하우
공습
풍성
경쟁사
조선총
##나불
김종민
미궁
재조사
낙타
잠그
갉아먹
안가
면하
스카웃
GB
외과
위자
흐뭇
기상청
##na
##레기
들이밀
연유
친목
##신저
영영
나았
우찌
배낭
아프가
어떻하
피해야
판매자
궁정
소감
##이면
##개치
건드려
메우
##쓴이
케네디
추기
파우
##모사
조선총독부
글쓴이
대시
##해전
직급
트로피
##ov
후쿠오카
거래처
도려내
꿋꿋
전관
소비에트
차인
거듭나
프로그래밍
초미세
속편
쑤시
원년
예보
왔으며
특례
문치
##피어
영미
사르
관청
허덕이
하천
황급히
모하
성균
누진
알몸
넥타이
심이
영도
for
항암
아니야
끌어올리
가맹점
똥파리
재량
비스트
쌩까
경향신문
기우
##증권
##수무
골렘
##ib
드려요
기냥
체벌
레아
환각
화두
애완견
유지비
이판
획일
미명
초중
220
중용
단면
잠든
아무데
뒤엎
시게
아레나
길들여
불태워
도식
버금가
요격
맞은편
바이올린
언능
아날
정인
거주지
투항
부축
망칠
비아냥
심해서
상판
걷어차
자다
풀어놓
필라
섭리
놀라울
트랩
오메가
사익
급제
기행
윌슨
원유
입힌
살렸
성균관
사적
모진
수거
베가
하스
단총
코멘트
졌으니
사천
호통
꼭지
리나
본분
그니
두근
당선자
도통
대표자
강해서
가엾
진가
진공
풀릴
빼액
도망쳐
받아들여야
뒤틀
부러지
총각
취업자
반값
단물
골프장
##어서
으리라는
까놓
저감
기억력
아프가니스탄
워즈
적색
벗어났
총격
였음을
가져다주
##마시
휴게소
THE
경영학
허허허
총출동
자포
허울
군국
선양
어진
통칭
음력
##주부
먹혀
BL
##ft
물어봐라
같잖
독신
돈독
가야지
병든
신작
목동
뮤지
렉스
때론
약해서
토시
##심장
려는지
뒤바
##여객
##ps
##내려
이태리
리코
박진
##젤레스
소리지르
전해진다
물든
몰려다니
##미르
디렉
콜롬
마담
민영
찔끔
항거
학설
호크
마코토
##몰라
에코
광해군
배때
이회창
경계선
계모
분장
정액
연평해전
받아쓰
CIA
정몽
상여
촉수
음료수
알고
지어서
동시대
낸다는
와카
흘러나오
초선
되돌아가
는다며
쯧쯧쯧
교시
불린
노브라
선점
리조
지망
내치
##잣집
특목
##이센
피지
##리스타
타오르
프로이센
연합회
난독
신정
실익
깽깽이
번복
역습
천진
시방
괴롭혔
하류
텃밭
시발점
폴리스
피폭
손질
충주
약관
열라
본전
역사가
소실
삐딱
화난
쇄신
결별
아하
치러야
갖은
서태
찌꺼
광부
분담금
장정
불변
##일체
##아시아
부셔
떠벌리
빨려
흑우
##수거
갈겨
냉각
##우트
따라갈
지켜봐야
타이완
##11
무형
첩보
지으면
날라가
슬로건
AKB
비누
주광덕
경솔
원종
불기
찬물
한줌
암담
히든
하이데
왕정
주선
설거지
카구
발열
안무
괘씸
떼거지
논조
거쳐야
건져
기념일
현충원
너도나도
대리점
##대소
자갈
문세
유분
원더
버지
보류
생화학
거행
올립니다
바빴
세계사
합세
연하
컨테이너
여주인공
발주
포대
단의
품절
기념식
한일전
시안
가옥
매혹
잠정
동떨어진
나고
정미
넓이
면책
레몬
브레인
신경질
지하실
김창
##바나
농경
상투
진군
수혜자
하츠
거린
처자식
##아닌
브라우
전기료
지휘자
본디
안장
언론통제
썬더
근사
빛깔
일과
일텐데
선형
레이디
이겨야
비키
외칠
##여겨
바빠서
길들이
역차별
1939
우승자
박태
어판
몰려가
풍수
피보
가와
완성도
듀스
한국군
발짝
처들
실무자
시속
씨름
영락
감내
왈가
통영
전한다
MAX
크라이
##ick
원서
부서지
일례
무서워하
애국가
품종
##가치
영등포
세르비아
보궐
잖냐
출자
##타카
향유
지마
과업
동유럽
순사
연약
압권
떠오른
봐선
GR
동남아시아
##스틴
곡물
결부
냉면
따왔
황태자
##꼴라
PK
걸어야
뿌렸
충청북도
어시스트
여장
만년
소꿉
신진
##팽이
##구질
샤오미
건재
##io
난처
불멸
##일치
##덕션
청도
한가요
흐느
과금
불법행위
크롬
난관
안간
주춤
줏대
끼칠
포진
1952
분리수거
확장팩
서머
손모
직격
개도국
여긴다
생업
다른지
성전환
동태
하녀
주공
첩자
에이전
장작
컴백
휴전선
분출
외야
외로운
페스
힐러
찌꺼기
##레이트
시외버스
바티
코마
익혀
내려갈
어떨지
찰리
은수
관공서
라느니
키나
비료
스토어
스타리그
근력
후한
도망쳤
을사
프로게이
프로게이머
sbs
블라디
개당
구인
뜬구름
캄캄
##대죄
연평도
주사위
쿠라
기보
나몰라
##잘못
##쨋든
덕택
문턱
희박
어쨋든
석고대죄
포켓몬스터
톡톡히
걸세
임직원
출가
인터페이스
##렉트
재계
쪼가리
일거리
일사
심도
돌팔
성자
쪽쪽
무비
송환
치사율
##킨스
##러움
리얼리즘
화병
눈꼽
##승차
자서전
중임
명료
망가진
찍혔
##니시
##단지
얽힌
대소
편할
다섯째
피폐
권익
옆방
꺼낸
걸쳐서
샤를
악재
중거리
##PM
오디
후련
히데요시
무현
용암
주니
비수
신대
터전
실력자
낙후
수영장
수천억
북동
국자
##택시
에밀리
가열
한낱
몸담
미생물
순국
친족
잡혀서
남작
데요
불감
별짓
구명
나나
열릴
재력
즐거워
무방비
기겁
이찬
피어
바론
심할
여중
의약품
아편
네모
릴레이
저래라
나들
천마
혜원
전속
차세대
하아
전정
짱꼴라
##좌왕
선일
##하늘
와타
우왕좌왕
간편
몸값
고아원
CM
까치
모닝
점주
청량
알콜
노부나가
7000
지은
폴더
##베르크
당겨
저의
##다드
ES
차질
마법소녀
우버
양육비
고식
촉발
유례
구질구질
이봐
거저
생소
도망갔
사변
현정
금성
이산화
커진
어울릴
베네치아
NE
이관
밀린
##탱이
오피스텔
두터
1959
득표율
번지르
오인
##젠테이션
메스
Wor
우마
깔보
##US
뭉친
속박
덜덜
해저
강전
트레일러
합방
딸기
맞짱
코레
기록관
앞바다
받침
즉흥
약소국
##숭아
비석
탄원
요점
Br
명하
세율
들어줄
큽니다
반군
냉소
전유
탈모
##해하
여직
aid
절묘
##데레
연희
##oh
눈부신
술사
이규
자장
사우디
볼수록
끓이
눈여겨
들어맞
버렸으면
힐링
군부대
간결
환멸
오다
굴하
이참
##송이
라든지
테오
##무도
OUT
전세금
당면
여고생
특목고
잔잔
전할
나이프
##무이
무임승차
기마
번번
후궁
##터지
에픽
##NG
그래봐야
1942
저력
##당겨
펑크
엄격히
혼다
동승
토종
벌어진다
팬클럽
해다
대전차
항성
상하이
기고만장
최민
실속
사과문
산골
죄의식
까끼
포맷
강당
정세균
어학
1943
신생아
##외선
였었
강민
리퍼
거림
황혼
일색
호러
온건
신데렐라
EC
##터스
친위대
BC
쳐박혀
가리켜
둘째치
벌일
My
김희
애잔
115
때려야
중령
허둥
##만치
##시원
쾌적
나불나불
##히토
육식
##메다
껴서
사냥개
Fr
천한
커트
크나
섬멸
바둑이
사케
괴로운
팔꿈치
1938
재빠
강효
상거래
카우
녹취
해인
황홀
피리
반가운
스나이
미스터리
수축
코디
어수선
아첨
정력
헤아리
말린
도자기
무서울
이공
변인
고단
설날
##ite
방통
스톡
우크라
Wh
체조
허상
해역
수요일
##천리
담합
깔린
힌트
감출
라스트
때려서
수교
출몰
팔짱
술탄
##히코
##과이
##누이
안간힘
겐지
원할
토사구
토가
묻혔
BB
수칙
엇다
팔렸
쉽사리
##챙이
브랜
궁중
겉모습
말로
거린다
##날리
아우구
헤아릴
구혜선
떨치
살까
대생
방콕
연필
옛말
##월드
크나큰
공민
미들
지양
미쿠
어리버리
lg
혈연
데려와
승소
무르
##다닌
##마개
망자
보여도
얼렁
탕진
행여
원룸
흩어지
장원
워프
##귀신
발끝
신다고
응답자
갈라놓
##감당
코프
다쳤
##시티
다분히
자일
##IG
나들목
성년
내준
##꾸역
지리산
루리
중하
화대
돌려보
페인트
어버버
내키
범용
꾸역꾸역
잃어버렸
먹인
악령
딴따라
##ax
러서
애처
동반자
맴돌
유스
토사구팽
450
고우
막힐
1800
졸지
스칼
돌린다
윗사람
쉼터
죄짓
우가
성난
발화
##래시
루마니아
콤플렉스
움직인
해대
수복
도성
어물
팔다리
하이드
장막
이호
격퇴
먼데
조인
학년도
둘러싸여
라파
에세이
말문
다각
태수
한스
바쿠
랜다
##ost
살림살이
사본
부글
전폭
새낀
아파하
남길
밉상
하곤
궁예
내분
##대군
뒷감당
마흔
가다듬
신명
나아졌
손씨
다를까
##재원
노노
놓친
단조
빙의
지검
마르크스주의
##에른
##중국
무녀
그레이트
대림
역사학
정정당당
들였
활발히
돈줄
사서
목선
할망정
다윗
우환
신곡
인삼
##두렁
최우수
변방
빠져들
봐줄
통탄
아폴로
엽기
신공
윈드
대한제국
비웃음
말꼬리
추첨
계보
배양
종영
모빌
##부지
흥청
##무스
##AD
피조
##질서
향해서
일용직
제반
끌어들여
##중기
막혀서
어는
괴멸
농어
불러오
수아
합하
일깨워
선악
잔다
장년
달릴
부풀리
차차
프렌
발린
호국
복부
생산력
알뜰
고충
극동
농간
성배
딜레마
저학
헛된
끼니
단과
별의
##ich
메꾸
러지
밝혀져
국지
운전기사
만하다
is
보아하니
106
보유자
성종
종용
얼간
##불성
삼각형
억장
노동부
모델링
먹방
헌병
개새
별의별
복면
전반기
갈기갈기
한답니다
민지
고든
##바꿈
##수염
소리야
치는
on
송도
새겨져
유심히
스탭
다름아닌
스파르타
서랍
금치
개떼
마자
효자
##선언
##앤젤레스
로스앤젤레스
엇갈
박히
보탬
수퍼
줄리
막가
기동전
과열
넥슨
고착
증서
요런
전남편
##본부
천리
작살내
서두
ID
오호
구니
부조
하이닉스
전동차
화분
진자
독사
으십니다
균등
걸작
도련
진다면
뒹굴
쇠고기
대할
하노이
야전
희극
##포드
문학사
쓸개
사업주
제너
캐서
##락치
En
따스
험악
반죽
치장
총액
히로시
AV
이카
저널리즘
##버릇
##겹살
반듯이
셨으니
스목
린다
목수
측은
재편
가했
구토
꾸민
샷건
혈맹
이계
포병
지성인
독과점
비뚤
신격화
매듭
삼겹살
징역형
##ows
영령
추기경
식욕
##종양
모병제
결백
유대교
드린다
겸허
인원수
열세
저울
조영
##15
양정철
관악
애액
마카
물으면
고을
렌트
시로
수화기
장시간
독박
어떤가
아브라
잉크
##클레스
##to
흡입
그려지
위화
남여
비친
난도질
찬송
회사원
정교회
우글
우량
챔피언십
윤곽
주어졌
망한다고
니즈
복싱
왕관
분기점
개지
1914
나이스
고원
거주자
내려올
엿같
오퍼
안타까움
접한
권능
들추
##리나
바이에른
1951
희석
ED
말렸
건드렸
승화
액티브
진에
기저귀
아그
##니스트
스콧
저금
공감대
##드리히
럼프
맹자
##렉션
1957
이가
영정
대원군
사와
##워즈
안드레
라니깐
상쇄
알레르기
##린내
관리비
짬뽕
낙서
정승
올라타
1936
고른
뇌종양
분하
##제이
토키
빌보드
훼방
왔으니
스카우트
명색
범죄인
내란죄
##역사
버크
고위층
제노
파출소
엄밀
결점
성화
생활고
더리
화교
##재단
시뻘
어정
뒷구멍
CR
영진
매뉴
이견
BTS
매연
빌려서
교묘히
맞물려
희롱
요양원
굽신거리
곡인
경희대
도트
실과
손모가지
바꾼다
저편
취해야
향한다
다이소
솔루션
주어진다
##도록
무급
스나
차린다
역명
다윈
로키
멋져
반달
사옵니다
교구
들쑤
둬서
이복
VIP
반열
병상
직구
레이어
딸린
순양함
달달
발송
베푸
프리드리히
속상하
비법
##콥터
##타입
순경
연비
보살펴
MM
##pp
시립
해커
참배
말다
심술
슬리
빙판
사색
##코스
페니
인다
행정관
들여놓
싫어한다
병신
면치
가린
도교
반년
내무
기하학
잡초
건축가
##자원
꿀꿀
도색
이용해
꼬집
리사
최영
내려간
쳐죽
소견
훑어
꽃잎
미로
평점
##반구
훈육
##길동
자는데
가당
몰렸
펼친
여야지
언어학
말소
##더슨
네스
마유
구정
거른다
가장자리
도스
목매
에이지
문드
이직
싸워라
이재정
흔들림
때려치
거스르
척살
109
브라더스
잔해
으련
1937
FB
종파
쥐꼬리
연기력
##qu
헤어진
다쳐
##폴리오
나돌
포트폴리오
원산지
요상
올지
##람회
악성
부산광역시
전용기
에스파
떵떵거리
띨띨
##먹이
배추
##가림
국공립
램프
변제
걸어다니
통계청
기본기
남극
고학
광고주
노약
쌓았
##모자
격노
스러우
##금속
계명
지날수록
오브젝트
둘레
용언
백조
숨겼
출루
총탄
대용
면세
충원
밀어부치
남서
빌린
##ime
동동
볼땐
토머스
바흐
산탄
##메라
공경
서늘
마모
벽화
##ook
##시로
부잣집
겁쟁이
터보
감리
징집
광복절
대관
자상
아쉬울
##oll
얌전히
도가
가져간
가운
히히
커스텀
살려라
보신
##근성
구해서
화형
여차
부응
목요일
본가
아날로그
메신저
팔릴
표제
떨어짐
물증
도면
영업자
쉬우
은사
주스
블리자드
커진다
골목길
악착같이
##타고
탄광
##ace
채식
패륜
##응보
떠올라
내민
쓰여진
오두
역경
날린다
인과응보
근접전
산적
갑판
난방
대인배
찬반
시부
집유
145
동래
숱한
##대교
프로모
다룬다
로지
거리낌
표기법
접전
키라
머스
미얀
##랭크
헬리콥터
냉혹
128
월등히
소각장
역효과
주창
샤프
어쨌거나
미식
##분해
김홍
문디
손꼽히
##유국
메아리
대통령령
커밍아웃
지긋지긋하
양현석
대칭
##이상
미향
총독부
순차
초석
거뒀
비상시
##보인다
##령관
때기
공판
##ary
밑밥
찌푸리
LP
사칭
이조
내리막
솔로몬
미완
##닐라
알아채
스파이더맨
베스트셀러
기약
춘향
피켓
코피
##LS
##폭풍
갈리아
편도
새빨간
친지
반한
오스카
넘어섰
혼나
##ox
라미
보우
집약
##사업
들이닥
홀대
##ond
##장머리
운전대
##버릴
테리
장마
전근
겸하
아픕니다
이씨
##ies
정거
말뚝
152
술자리
암말
현제
방법론
폄훼
낭만주의
종착
숨겨져
초유
모아야
아낙
트러블
애칭
신용카드
아스트
그년
##OU
IBM
중심부
암세포
스며들
방아
선구자
손놓
도쿠가와
라던가
발단
놀아난
나체
논두렁
즐비
Sc
높였
질린
피력
버르장머리
섀도우
##불만
생필
양준
심리학자
유희왕
세탁기
불감증
거하
##IM
you
능한
교통부
스트라이커
검장
매뉴얼
교내
어벤져
갑갑
등골
금호
원곡
생필품
착공
##럴드
전해졌
적재
유상
재수사
테일러
평화상
동국
##속기
이뤄진
때메
안젤
다르크
식상
경복
극명
강남좌파
접근성
카톨릭
고조선
무실점
러쉬
양수
말귀
인걸
불러도
행방불명
무너진다
남아도
영호
아스카
밀양
밝힌다
135
살벌
##구미
지킨다
시킵시다
강습
교외
정선
만두
다녀서
나온다면
휘말리
다우
쭉쭉
개의
경화
희곡
욕실
국감
사림
보잉
##일관
민수
##기수
일장기
레바
튜브
그란
스트로
강좌
두드려
엄숙
155
투정
이용객
잡음
타깃
경작
쩔쩔매
사극
속력
애서
연주자
##예프
경리
지역주의
올리브
박제
다량
서남
파파
##는데도
려거든
강효상
깨져서
##레오
##거린다
다그
디테일
무용지물
너스
계책
섬광
급상
피지컬
슬라이드
송출
불난
104
다오
겨자
빙시
신영
퍼시
형체
물기
전류
##리케이션
고용주
불운
워너
이해력
예지
변함없
기로
곡소리
레슬링
날강도
박명
합니다만
곰팡이
식기
펭귄
군비
##sh
타이거즈
일으켜서
검표
바오
##퍼니
임박
가주
담그
심연
펠리
고루
소질
리베
벡터
흑마
##디움
글리
제천
##봅시다
지만은
주절
이중인격자
허리띠
이당
번성
납입
배고프
군국주의
문창
순회
배임
NHK
골격
잠자코
세워라
결산
리바
인권위
각색
망친다
패딩
미륵
련다
너덜
차입
체스
한해서
배속
그런다
귀가
끼얹
오판
카탈
이희
파내
무궁화
지구촌
방공
어루
660
막바지
유탄
천왕
드려라
바구니
검은색
##론자
저럴까
나날이
스노우
##호흡
곧잘
새리
문항
연호
##탐정
원나라
##대왕
##까짓
마의
가로질러
모신
회자
도망친
들렀
홍성
태운
티끌
##선다
문제삼
써준
알지
현시
페루
발찌
요시다
만도
타우
165
조양호
뉴턴
일간지
명재
숭이
##왕조
음색
첫차
할망구
유류
다스려
안테
탈바꿈
##낍니다
1933
1100
고산
분주
가벼워
최상급
주물
벌금형
디펜
베어
동탁
헬렌
강력범
무지한
체형
소이
##로리
장녀
받아들인다
공문서
알림
##리다
검출
보여줘
문물
배리
잘잘못
시연
통사
저격수
말려야
빠구리
찌든
교육비
대졸
##디다
남다른
라거나
인분
법리
집어치우
위나라
성신
헤드라인
모일
로브
타임스
도메
스콜
##다하고
포옹
출입구
실마리
아랫사람
선아
센티미터
위세
매드
효능
##께요
크리스토
비어
##리우스
어거지
텔레콤
차서
나선다
독주
##오래
뒤집어쓰
했다간
자락
지간
##급수
정재
내세웠
서산
밝혀서
제작비
김상조
벨라
터스
모태
노라고
서슴없이
거침없이
늙다리
리셋
부강
처자
고대로
사로잡힌
툭툭
쉬울
파이트
역도
젓가락
##택동
고환
중앙선
다더
기쁨조
피싱
대청
부사장
Wind
하비
##장이
매끄
퍼뜨린
##기지
화염병
중종
cc
책략
NBA
탱이
##ake
해협
부두
웨일
포식
##다르
##토미
사이토
체구
초코
##사카
정치권력
요코하마
##프스
##화물
천명
오래오래
##ank
찔렀
팔아
서약
정박
문화유산
단락
소량
##쩌둥
마오쩌둥
전위
지멋대로
엑스맨
리우스
외인
할로
맥도날드
거북선
김우
엑시
진태
들어내
##깅스
전면전
안다면
제수
소송법
미용실
멀다하고
베개
레깅스
오케이
즉석
시가지
검역
이발
##스코
창업자
##레타리아
느낍니다
방산
##제비
자크
험담
피식
##ix
프린세스
말끔
oid
꽃길
##팔트
고혈
빙빙
세차
프롤레타리아
피조물
빼돌린
에디션
out
오즈
성행위
조속히
미오
개밥
익힌
에바
폐암
접목
리비아
정설
레인지
아스팔트
Love
눈초리
맥아
##az
이남
주동자
퍼준
학번
홍진
흑역사
능욕
##슬러
바빌
의미심장
마중
함양
워라
김기춘
추징
통신망
본업
##익스
만신
이눔
호식
그른
파밍
독방
병진
공관
신안
난간
능률
들춰
나타낼
레이싱
들러리
연전
##ree
수영복
가책
##바야
유명세
으뜸
##orn
정거장
고물
훈수
베토
호모
임자
장문
총통
틈타
펜스
박동
출중
기발
작물
막스
산모
내게는
부랴
항변
아십니까
추수
히가시
앙리
세워졌
부려라
정민
곧이어
극렬
내려다
제라
스케치
프랑스군
##따박
UC
개진
치료법
##박따박
따박따박
모택동
섣불리
혈당
가져라
카바
경치
자해
자시
폭리
이동하
도감
이과
질식
수학자
외주
자살골
수학여행
쏴서
콘돔
데려온
요미우리
해충
조선왕조
떠라
##개골
113
##샅이
피해망상
건널
도화
초연
컴퍼니
북치
판박이
전세기
어때서
밀폐
##13
133
##act
갓난
다닌다고
##멩이
수비력
샅샅이
하이데거
독설
울릉
배운다
마타
사뭇
공중분해
no
절호
구가
이라든지
목격자
초소
팔찌
##pt
뛰어가
전보
이럼
농약
유민
도표
##브리드
부득이
찾아와서
나타냈
문틀
##갱생
가로채
산문
독식
엔트리
팔촌
살아날
레버
불이
##메르
유역
과소
자력갱생
미트
됐었
들켜
어중간
로저
우로
진하
들통나
빡세
아킬
끄집어내
치워야
건넸
참모총장
하이브리드
##바이벌
##ans
백정
자랄
배급제
무법천지
창시자
질의
토큰
정할
볼펜
부상자
네이트
참관
포스코
튀겨
##사의
번호판
가자
라자
남아프리카
가발
줄였
으려다
원균
##미디어
족장
##산업
서해안
특공대
##기능
하자
라이들
사오
구이
하강
생떼
인거
Dr
우스운
박형
LTE
조오
출연료
까맣
선회
##ids
##의지
들린
##성대
##삼촌
선입견
직진
방도
##시안
전도사
운석
서훈
노점
휴먼
놀라움
기무사
네이션
무심코
##익스피어
닛산
셰익스피어
##긍긍
덩이
이겨낼
전전긍긍
##16
1929
테크놀
스피릿
Sk
걸어오
묻힌
궁금증
AA
집무실
돌멩이
턱없이
비일비
레이블
비일비재
1600
뭔들
후원자
144
쉐리
홧병
깨어난
총선거
분홍색
삽화
화질
##라는
나아질
##가드
키타
김혜
워크래프트
펼칠
올려놓
교관
준영
던지라
신령
고달
났으면
독해
격투기
소재지
건데요
Part
벌어먹
드래곤볼
나아진
폭군
의료비
진우
카타르
이글스
푸드
사나운
헤치
통쾌
가차없이
부지기수
놓쳤
립스
##들였
주무르
겠다는
탈법
뒤쫓
체재
등불
재판장
돌발
일테
##도전
수난
떨어진다는
명쾌
뮤지션
750
조계
##메스
고층
위기감
나왓
내력
사업체
게르만
##충제
땅덩어리
볼래
왜군
여초
양민
라그나
적잖
묵직
청룡
갈대
던진다
성교
##ment
수기
담뱃
제쳐
아브라함
홍길동
##ss
가브리
끄나
실록
이아
피에르
토트
꺼라
합의금
쌍도
챔프
총알받이
##절머리
시커먼
진절머리
##드립
KTX
떨어져도
리조트
니즘
김인
##공업
클라우드
붙어먹
나와요
##해도
아낌
동갑
야후
퇴학
치우치
지고
카터
저리도
철갑
성행
억누르
집집
오거돈
겸비
꼽힌다
난쟁이
니혼
루저
##ah
##14
스페인어
##니카
찾아냈
##선거
부검
가한
송혜
##맥스
가리켰
까봐
뜻밖에
Ne
괴인
짜내
타구
씌워서
불가리
탄로
연장선
투고
해준
헛되
잘라서
친서
사바
상쾌
##가슴
##셉트
휴양
고양시
트리거
벌거벗
밑천
안부
허황
잘린
군량
부피
158
참석자
그래라
살아간다
별자리
mb
폭정
백마
##한국
문아
파괴력
어업
총합
##노소
노조원
203
겉보기
기회주의
엑소
취한다
뛰어났
북풍
급변
기입
107
거자
##로그램
투영
위자료
명작
잡소리
##민주당
찢어진
덧붙이
구금
수줍
나참
득실거리
북구
좁혀
라이온즈
리프트
조광
관계없
시몬
##순간
맨체스터
전매
파열
리트
못생
혹평
악세
오냐
무한도전
민의
온난
시흥
##LE
순정
독립성
초가
도그
사조
스타디움
따져야
징병제
영동
사각지대
##람쥐
눈물나
머리채
값싼
개정안
OVA
위한다면
토익
의뢰인
기틀
우민
캡슐
다채
급상승
공리
끼여
시킵니다
청기
레나
172
여대생
kf
도처
몸뚱이
조목
관리인
찾아낸
손수건
찌들
카운티
웅장
##떼기
유마
자책점
낙인찍
연체
어려워서
두른
##칩니다
오타쿠
객실
타리
떄문
공병
정교수
정현
##국수
둔화
기관차
무참히
농수
연탄
제프
노예근성
키드
평지
원점
허비
##급식
하다못해
제복
누비
혼잣
막대기
홀드
##왈부
##미리
##보살
몰아붙이
후폭풍
최대치
왈가왈부
패드
야쿠자
프로모션
무상급식
팔라
불가사의
소린가
신통
임대차
마초
김장
재명
존립
책무
하후
화사
이에
아무거
병풍
초계기
층간
주황
장사치
송중기
지나쳐
거머
털릴
까스
할복
##덜미
송혜교
실토
머뭇거리
입마개
대갈빡
기교
소피
미역국
분발
음해
##식물
리서
##iss
##처리
이산가족
오도
피오
해운대
중대장
남녀노소
도마뱀
무예
##행정
##평생
장동
##이치로
쇼트
자물
##끄러미
삼국사기
리야
할꼬
##시타
물귀신
미군정
분업
##봐라
넘어온
650
컵라면
한영
브레이커
어정쩡
콩가루
리들
New
뭉쳐야
부르스
워낙에
백과사전
난해
휘말려
다인
대감
까만
개노릇
스크롤
울림
어루만
접점
##근무
유카
케이트
유기체
##나절
##나간
에프
전일
거미줄
미비
남아돌
잔여
##OW
곤경
도의
##티콘
원폭
be
판도라
죄명
##댕기
왕세
아전
몰려왔
Im
간만에
스플
리포트
당직
살래
디비
아포
윤지
리브
맞췄
현대판
거들떠
그만둔
덤벼들
##위성
산속
베토벤
케이드
치뤄야
기복
송강
웅동
카사
코스튬
신중히
법전
재갈
관두
수렁
뻥치
주상
치카
튀어나와
브루스
홍석
드러누
영감탱이
유격수
동맥
구해야
레이트
##구르
270
급락
채보
꼬나
세도
초식
감염병
어처구니없
문고
날아갈
보여진다
이선
퓨전
놨으니
베어스
일구
바바
##그려
가솔
애견
자긍
##ET
까딱
싱어
걸핏
어데
##ug
끈기
지애
지어야
두개골
자잘
작렬
쪽박
인륜
표식
자작극
서양인
까내리
떨어져야
비서실
##선교
카와
거름
박기
칭기
듬뿍
케리
아뢰
족족
분교
빨아들
하시
항시
주희
환관
물거품
뇌리
호재
미쳐도
어부지리
세액
사용료
내막
고친
빤쓰
230
에이전트
에밀
자성
복지부
동자
밀렸
장지
이율
폐단
후보자
그새
전래
잡스
자유자재
##old
박경
##나기
연막
고나
언저리
프리랜
끄나풀
1935
바쁜데
교직원
##문서답
아연
항로
동문서답
Mar
능하
##만년
기하급수
##ach
멜론
프랑스인
해야겠
장탄
##짜고
괴롭혀
페인
체념
는걸
유나
아만
정렬
##죽음
고발자
찝찝
대표작
자빠지
부국
대출금
math
망함
트윈스
반신
변덕
혹사
내국인
내림
인부
주치
든다는
블릿
##ance
동호회
라디
##불성설
떠안
저글
맛없
이사회
어불성설
##법인
딸려
모욕죄
총사퇴
근방
웬일
라이센스
승천
절절
162
##짜고짜
다짜고짜
불경
내용물
고를
리티
옮김
해리스
##안경
##ound
안드로메다
pr
예사
성병
전입
삐라
군정
드가
간청
발족
주원
기제
어다가
세운다
배지
##공주
가이아
아테나
전리
친히
##ens
강연료
송신
판결문
##토르
연발
122
혹세
정우성
구세주
변두리
풍족
장영
노련
그리스어
지영
##세우스
경합
깁니다
치민
커피숍
골절
투르
##비언
사단장
영하
##ish
대수롭
##ii
마티
웃음거리
짭새
매미
끌리
##재해
카니발
알려준
그람
대물림
진원지
춘장
코로
가랑
사셨
충무
도륙
버스트
##두사
게거품
이기주
박찬주
늘려야
매복
병균
산동
독소
무찌
흘릴
##90
기린
숨결
정숙이
음란물
##17
스컬
튀김
176
##마차
에메
열병
스기
성산
염장
블러
모씨
갈라서
참내
이슬람교
부질
##다닐
마주쳤
안재현
##린데
OK
리비
송곳
창조주
자청
흘러내
오비
운하
김명수
저물
연산군
처박혀
감명
스릴
조여
뜬금없
송나라
168
반출
부비
쏟아부
##벤처
장례식장
어드벤처
이누
베란다
시상
자연재해
단역
고라
기어코
##철호
모건
퍼스
아지매
##믹스
달력
자바
흑막
야유
징하
개호
방망이
소나타
##아르
긴데
올려도
스스
태백
문학상
어벤져스
연설문
차고
데빌
아메바
시네마
깨갱
개울
어째서인지
냅다
##경화
xxx
거센
비문
쏠리
오르내리
창녀
중후
패했
https
물끄러미
속수무
시미
합격자
속수무책
##매김
##에스
부단
고속버스
남궁
시그마
라드
##키리
유사시
OP
##거릴
흉터
##은정
거래량
부통령
외삼촌
진솔
조던
##현실
##매장
who
생수
책자
선거제
##망정
##II
포니
초안
자임
러니
변변
자리매김
WC
정의감
아케이드
리츠
쇠약
스모그
덮어씌우
검사장
자카
금품
일터
무기력
안이
중사
으랴
조희
공구
테이크
만무
고노
히사
비기
다니요
현대사
맞아
어렴
항만
성동
##드라마
소피아
찾아간
보였으나
메카닉
좀비
로웠
우의
군소
맹활
흐른다
공공연
역사관
가액
소마
고깃
넘보
카일
나머진
각광
스택
평형
##먼드
창작물
비틀즈
그니깐
식스
모어
물으
1932
리알
##교사
클러
가져와서
호조
진부
가져갈
급감
국위
점하
##골목
##잇감
힐러리
##닥거리
바라본
##어치
물어볼
방어선
SA
싸움질
델타
아쉬워
현주소
들일
잡수
온실
소급
상책
정보력
격전
수로
성체
니트
모차
이춘
죄파
경도
땅볼
추스
옥스
처남
희소
가려내
얼릉
힘없이
##만큼
을려는
험난
구식
선글라스
리부
114
문수
주마
SN
##미스
간병인
양당
##포스
접종
환급
뚝뚝
놔도
승산
##부글
기모
보살피
송두리
아쿠아
개종자
파시스트
숙지
심복
피웠
감도
힘주
청바지
조진
청국
미국식
차려서
갇히
아벨
인어
경신
움츠
부글부글
Or
해로운
##tm
조윤
츠카
##매기
프리랜서
방랑
설상가
by
우크
편안히
구울
늘렸
망가져
설상가상
떠올려
전대통령
거란
이무
뿌리치
재위
거쳤
석학
청결
답습
로제
##아티아
FBI
크로아티아
자긍심
진사
우크라이나
##강대
sid
막차
덕지
마기
호드
연임
의복
물리학자
임정
도용
1918
불가리아
한패
자치구
섞이
국제기구
제곱
##커트
상학
##부랴
숨소리
1931
확증
몸살
자물쇠
##천사
##부절
##래기
일품
불바다
쌀값
밤하늘
이사단
한탕
##각형
머리칼
하이라이트
교향곡
호스트
김관
얼씬
War
##경찰
##현민
아이즈
판교
니기
뒷조사
브로커
버지니아
시퍼
최정
대나
명랑
##테이
했는데도
분별력
당리
박재
붕대
청계천
안절
해태
되돌릴
안절부절
권했
닷컴
츠바
AB
도당
써놨
인줄
차주
자당
호호
타살
바이킹
페이크
비근
서초구
금화
빗대
알루미
걷잡
혼잣말
꼭꼭
사복
타스
로망
##정신
시드니
정청래
##케이
비이
안타까울
갈라져
태후
부랴부랴
##모어
유트
##헤이
불리우
##로이드
전우
애호
돌기
##무민
메주
gr
혹세무민
궁핍
##장군
오공
노엘
센트럴
MG
다이스
판소리
##입국
부들거리
전권
허풍
매료
##마른
##ade
이뤄졌
신순
여과
실기
홍남
통감
흡연자
실거
자격지심
대덕
신다는
양치기
그리곤
통통
마에
##ence
승전
종시
책봉
##비슷
채집
떠나가
경산
생각났
약체
알고리즘
황가
크리스티
신학교
##레븐
우라늄
뒤흔들
변함없이
형용사
방방
총애
손색
자고로
##환자
샌드위치
도보
아선
라니요
쉬웠
액정
천치
크래프트
연좌
역사책
병과
맹활약
깔리
스피어
시경
##RI
1934
초동
사용법
ABC
한적
로스트
무이
은서
##렁크
식료
조경
발칸
참새
회심
독살
로동
117
이웃집
프로덕션
고삐
빙산
실리콘
진에어
정체불명
토목
##위원회
공전
무표
레비
김연철
연락처
후베이
갈증
버텼
버린다는
쓰임
식단
흐릿
##병원
시달렸
바깥쪽
게라도
니가
게을리
발라드
어렴풋
준엄
##회전
가르쳐야
아까워서
면허증
낀데
경복궁
급사
대장군
모나
연의
플로리다
다가온
호대
초밥
1925
무위
주리
거길
벌인다
장풍
조끼
기동력
퍼질
인벤
열전
부가세
은닉
귀태
정명
##다닥
속물
세일즈맨
김도
##데르
고어
우스꽝
지켜줄
트렁크
210
립니
지켜본
구겨
하숙
남남
템플
퍼펙트
초빙
캐롤
대각
항체
별칭
라비
화요일
고령화
쉰내
제철
써요
대응책
시켰으면
에워
칼슘
박람회
이리하여
미얀마
수목
외투
개짓거리
활주
LCD
권리금
김규
유행어
포르쉐
께선
퇴역
심취
쓰러질
순직
을꼬
153
ar
##맞추
자른
##착오
자이언트
행인
둘러싸인
발전기
시행착오
프레젠테이션
흐를
괴롭힌
할께요
청부
적도
레이첼
이새
됐으며
혜안
조재
철도역
장단점
꽁짜
적진
송영
하층민
매화
으레
##oo
163
광분
벼룩
##투표
TS
실탄
##수원
역겨움
##그래
##티지
도와야
은빛
한하
은인
다져
자인
대학살
훑어보
독하
제네시스
인피니티
입방
갈라진
짤막
강정
모퉁이
알루미늄
##레스트
정오
질린다
하워드
1905
휴교
챙겨야
답장
잠기
저곳
차가
만지작
알파벳
모티
배고픈
노렸
##바라지
##장치
소품
##어져서
구야
환한
이끌려
한국식
마두
깃들
포유
실렸
선지자
투철
저글링
몰고가
Cr
##ll
탄수
1917
식견
이영훈
려야
레시피
창세기
##중파
박살난
바래요
쐐기
다가온다
##ail
강의실
사놓
##버섯
##ode
유골
직함
##언스
왈왈
##ome
교육학
무거워
카를로스
World
기네스
사다
준다는데
월터
그리워하
아이유
가로지
##던트
알린
피크
허점
아방
다변
러셀
유구
콘셉트
묶인
템포
홍남기
명부
세모
전자파
냉기
##헌영
굴레
병맛
읍내
성적표
노름
초범
등본
##돌아다니
진시
입장료
1928
여념
꺼꾸
두만
미하
뒷담
와이번
떠받들
연초
스나이퍼
광란
이끼
잠긴
CNN
음직
##트랙
콜롬비아
반기문
세가
털렸
sp
각료
히드라
타츠
클라이
친중파
떡하니
역주
크라운
떠맡
스타워즈
DE
박인
족발
울트라맨
빅토르
KOF
논설
욕지
디아블로
부식
부유층
주라
##ins
떨어뜨려
박유
1300
해왔
휘감
홍문
달려왔
남겨진
반자
살육
모니터링
가브리엘
라운
기집
온다면
통폐
##ase
건방지
##정책
##드름
반입
한경
현우
##부인과
씌운
기울여야
달라도
의과
달아났
천정
떠들썩
매춘부
격상
종국
훈련소
압록
##립트
노니
나빴
노상
라다
두리번
누웠
반인
시에
트이
Pro
##ear
주동
혼잡
모차르트
남파
나지
차종
침탈
##상종
바꼈
대파
생쥐
부끄럼
호세
남측
억양
국화
불경기
비선
불평불만
블룸
산길
났었
공급자
미티
뻥긋
머리털
으련만
##거림
뽑혔
은둔
거사
글렀
청했
##망청
뽐내
백미
일언
근무자
뽑아
탤런트
##머니즘
뚫려
##사관
헤어졌
국민은행
쇄국
어슬
흥청망청
상법
주세요
승마
울화통
재야
##퀘어
미소녀
빨리빨리
##own
다가서
갈린다
##들레
성공회
명실
스네
잔존
붙잡혀
일신
156
유니버스
들썩
조력자
저쩌구
수연
지난달
클레어
걸즈
##OX
베르크
최경
입혔
타개
NS
정약
문책
##기름
1400
라이터
만취
비잔
가전제품
잡이
GE
거진
커리
##LED
러닝
격침
상승세
까부
다단
##투아
##사정
Windows
차립시다
예고편
폐인
고참
소관
출두
게요
##슬링
내보냈
포주
재외
전열
외가
NT
삼켜
역관
괜찬
하명
도맡
아린
기다린
열불
안색
쫒아내
가든
현관문
##ile
현종
활자
소모품
양동
왕좌
민자
센타
UP
궁녀
동종
두둑
127
뒤돌
타의
바이크
대혁명
짱구
통념
된지
거느
전사자
선풍기
파가
수재
260
제르
164
보일러
척척
바뀜
반세기
뎃글
사고력
경영인
##바키아
지도력
스파크
개막전
궁수
패한
게임기
히카
나빠서
##분투
녹여
##바가지
당주
콘스탄티노
사회단체
숙부
슈가
Man
갤럽
관음
껍니다
진구
염수
진해
##그라드
김천
문호
한술
휩쓸려
깨알
왔으나
캠핑
도호
기총
##도니아
고군
맷집
부설
만렙
이레
kr
사골
지난주
연합국
급박
마호
되돌아보
회오리
##오른
카디
깐다
내던
##ki
토론토
먹였
걸러야
건모
완강
깎아내리
##우회
어질
재탕
닥칠
##맞춤
ex
먹잇감
파렴치한
바라본다
소정
태구
끌려갔
상층
토악
심경
칼로리
계장
도토리
##호란
식충
OO
##턴트
부가가치
##라이언트
메시아
소인배
어로
못나
산더미
표류
##친구
복숭아
한다든지
금년
##어든
선착
외지
심산
임대인
컨설턴트
봄날
연마
휘둘렀
깜박
찾아낼
실루
점원
조건부
손들
아오지
정색
BR
백원
만화책
ML
기신
장황
클라이언트
##그네
무표정
LI
비늘
이달
창밖
형주
강진
NGO
악독
어서라도
이영호
동로
평평
가련
대했
돌머리
러라
지렁이
남양주
도인
독일인
곽상도
저속
숙였
빼앗겼
엮여
투데이
협동조합
원효
시끄러워
통폐합
노론
다람쥐
정봉
##불통
돌출
생가
제각각
기념비
존심
택지
157
로만
휴업
##칼리
현물
한데요
낮잠
반포
세계일보
달한다
지병
USB
무협
당나
도메인
난세
현세
부적합
가할
##바구니
나눈다
낭패
##AE
처칠
악귀
We
발키리
##플릭스
개역
다독
큐어
역력
##어찌
가명
조무
라이즈
망설임
플랫폼
넷플릭스
일벌
##구이
악보
##HC
##ons
어겼
천당
고점
로컬
신수
헤아려
바실
앉힌
##부족
##곡동
남원
##전등
154
미연
애걸
울컥
무가
리서치
뒤져야
배당금
수임
퇴색
사무직
내사
피한
콜린
놔둬
스완
호사
죽일려고
따내
실추
풍조
백혈
트론
스트레
웨어
재워
##저러
단풍
잡아들이
서영교
퀴가
불명예
제스처
얼버
##카스
한국사
겁나게
펼쳐져
라인하르트
##로프
백원우
이안
##트론
막사
##산성
야자
옥중
소자
149
천지인
##대장
금감
심미
이냐
물방울
산부인과
차출
국비
봉황
갔으니
병영
우여
판별
##ction
천안문
전갈
졸렬
사투
결단력
송가
수식어
별별
진즉에
##ys
적대시
민도
진찰
Fl
코파
통학
KF
기판
##Hz
멸치
이광수
물의
전처
##작전
긍지
오래가
붙여진
뒤편
유타
피렌
AFC
디플
블라인
머시
김재동
방편
야드
1927
쏠쏠
아둔
펜션
다던가
고고학
사들이
빈정
배알
진흙탕
여서는
맹수
낙태죄
밀러
##르바
##성향
대학원생
또렷
##갑시다
고취
For
몬테
정종
##예우
항생
덮여
따라갔
능선
헐리
전관예우
모리스
##컨드
친다고
포커스
아들놈
스펙트
아오이
극진
폼페이
서바이벌
습기
떨어진다고
간소
총사령관
드로우
황무지
그리운
질투심
김성근
RA
가만두
부귀영화
이라니
Ph
유식
##ML
편중
##형제
고사포
전조
조현아
##댄다
직설
장신구
맥아더
재빠르
백발
추워
경은
세컨드
연한
##처분
쓴다면
누려
난자
고음
노드
본드
BMW
범벅
빛내
교의
양가
쿠니
한국일보
단자
고집불통
GN
다매
##친절
쟁탈
기막힌
누운
몰골
콩나물
굳히
차남
비쳐
인즉
##퍼런스
Go
신앙심
건장
앤디
프랭클린
도널드
전등
##무네
##랄드
내딛
챔스
고파
불친절
소방서
연평균
앞마당
애먼
쿠마
##라구
배심
보듬
권태
오락실
현란
참작
협잡
무능력자
카이저
근디
보행자
농어촌
스쿼
유야
쇠뇌
##센터
커플링
어찌어찌
##베트남
물대
전월
예배당
놓쳐
장타
마미
야야
정치성향
번창
총구
북측
124
서비스업
원해서
측량
개인택시
중한
##인간
아동학
1924
가득찬
브이
테란
멀티미디어
가이드라인
자판기
인색
116
흘러내리
괴담
캐리어
입건
캐서린
놨더니
음절
레저
데려왔
근교
소유주
차분히
김한
##교회
루즈
승복
##질렀
우월주의
응당
칼질
오역
추녀
수심
139
해상도
꾸지
##nt
입힐
##십자
도난
주정차
레이건
노릴
##파크
명수
앞면
감춘
지나칠
먹여살
어긋난
카렌
가창
번지르르
각서
조선소
노크
달비
던져서
버니
빌헬
아래층
불러다
안테나
##사병
익산
보수주의
부스트
쳐죽일
심포
데카르트
한선교
가정폭력
수질
##바라기
외래어
교통비
##참시
아그라
이연
착지
##제리
NA
부관참시
매립
버립시다
은메달
오리온
##간다는
물러난
나아갔
라트
오시
나왔었
본모습
news
##곡절
pd
법석
미래한국
냐면서
새발
인고
건너갔
나간다고
126
여잔
데미
청색
줄기차
노리개
공법
대뜸
난생
군벌
##라이어
하수구
가압
부추겨
가느
볼륨
지열
전근대
##LA
오두막
타결
지난날
특종
바라지
##던가
귀기
달린다
미스테리
co
다움
뒤이
꼬인
니년
상충
올까
##슬로
제이슨
더워
운지
소셜
자릿
장창
노블
대진
미대
##경제
##ash
들러붙
##가게
TVA
건조기
웰빙
화목
게이츠
올린다고
딸랑이
야금
작두
LED
UF
부담금
급부
만졌
한민
얼마간
쏟아졌
정동영
주지사
얼떨
은디
##모르
건방진
크로우
서대문
브론
공작원
시설물
스트리밍
정가
유유상종
클레이
쳐들어오
자들
해석학
도저
볼리
처가
프락치
알아냈
배고픔
버핏
밀려서
음지
##바야시
경종
실크
우미
매달린
구운
강기정
모서리
물러날
최태민
분사
안치
우길
미셸
한식
따져서
상서
취객
시종일관
돌려야
PV
한입
험지
곰곰이
흠뻑
##ical
##pg
미개인
잘라야
소림
##대접
우러러
시찰
##쿠니
##나마나
컬렉션
닫힌
중남
시민운동
174
보나마나
방문객
마스코트
동대
스매
신청서
움직여야
점멸
소신껏
뒈질
마을버스
우여곡절
채굴
설계도
블라인드
서성
슈타인
존댓
해집니다
홀딩
존댓말
위화감
신호등
빈손
sc
리리
시크릿
외할머니
답안
논지
웨이트
공탁
장제스
부쳐
의향
부러진
잽싸
신시
특출
친선
페어리
광양
##조림
만끽
주심
후세인
##건설
버러
산당
조망
헤헤
부딪혀
망한다는
환희
가솔린
시름
양양
두려웠
레트
##마킹
Ad
놀래
도운
프로세서
털기
수선
정확도
약수
##히트
내복
반주
서식지
국호
증거물
캔디
벤치마킹
얼라
인계
잉태
강유
볼라고
1926
##티티
표준어
부릅뜨
현상금
협업
정당방위
연꽃
후생
노을
트림
##케인
스펙트럼
송병
윌리엄스
가여
벌집
고쳤
농후
1921
절충
골랐
##네이터
구설수
증축
탄성
선후배
너구리
농림
홈경기
따돌림
##상부
벌린
알선
부적응
유창
뜨거워
맞춰야
더없이
야한
순화
##빠이
부풀려
당나귀
1923
##베르토
개요
스트레이트
마네
정치력
된다니
철부지
산산조각
발차기
성군
차도
##oth
봉우리
마케도니아
감사원
소풍
수진
일명
페르소
바싹
##라비아
가왕
##ng
폐차
걸핏하면
만희
능히
저열
낙오
##지옥
걷어가
속했
파수
파나
만리
맞대응
페스트
계약금
태만
가변
연어
실루엣
잔고
윤리학
구직
새파
분경
찬밥
이우
치웠
헛짓
유즈
쿄코
##타니
민요
색다른
이석
끌어내려
책장
투옥
최재
문천
##그라들
빨랑
피츠
패소
근현
루소
##오피아
해서든
에티오피아
스팅
카자흐
OG
녹조
몰아치
상민
##세상
된단
오른다고
뻣뻣
풀어
득달
초음
##tn
관사
인영
유부남
값어치
혁명가
움찔
황산
보여라
살려서
선율
포천
군장
빈대
궤적
빙하
중심주의
로저스
##델피아
뛰쳐나
필라델피아
획책
복리
원어
경부고속도로
장터
1907
용모
여론전
너흰
익성
부평
##아키
싱싱
호족
헤일
횟집
완패
고해
달째
켈리
브로드
했잖아요
해프
다면서요
it
폐교
꼬여
겨를
말짱
##조치
마신다
배때지
구내
플롯
터트려
as
##마켓
박혀서
연개
이천
타치
##idsec
압록강
개털
까짓
학도
쏴도
생산직
복수심
삥땅
한다구
사라짐
수빈
아로
팔뚝
하세
종로구
이왕이면
비통
꿈속
IN
편익
조나
##축구
미스트
찬찬
이찬원
지편
인공위성
외딴
식료품
사우디아
냅니다
급수
기함
이쿠
허름
이럴수록
희희
랜스
광학
요르
비틀거리
때린다
상아
몸체
영양제
체납
축사
김부겸
요일
정한다
베트콩
이철희
전단지
아처
차비
엄중히
은밀히
린치
118
격분
##테리아
뒷짐
##주머니
독촉
미진
심혈
우회전
출입문
##험자
예일
유별
경미
##욕장
전문의
데이빗
해프닝
퇴행
투르크
##ink
깨뜨리
해바라기
##빼기
니카
중앙아시아
테슬라
강지
금물
번화
##공산
증설
##갑다
중개사
맞선
비범
클로즈
##ert
뜯어고
리턴
앞가림
원심
페로
흔들렸
휩쓸리
활주로
다저스
대미
##플러스
탐관
인천광역시
챙겨서
뭉게
논거
당가
우빈
박헌영
엮인
##랑카
수의
세션
심오
고장나
역부족
임관
동체
실권
##영수
인사이드
물대포
내줄
화전
서태지
안나
열나
인센
들여오
스튜어트
휴스턴
거참
모더니즘
목성
으셔
인데다
물린
쇼쇼
기정사실
목장
미상
노심
악하
정태
##생각
인플레
EN
다의
무인도
피렌체
구한다
차이나
몰려와
북정
아이피
대야
죽이기
나몰라라
##군자
네크로
스크립트
중급
인센티브
준이
미지수
프로파
모자르
러일
나폴리
윗분
보균
도망칠
아토
이뤘
개화
온데
탈영
모레
마이어
극악무도
시구
병단
나잇
붙인다
##에몽
잠적
빌헬름
뒷걸음
어워드
지역민
브릿
양태
예식
뒤돌아보
고토
올라도
괭이
뿜어내
폭침
아리랑
166
왼팔
습니다만
일임
장도
세워져
갱수
실신
도독
메소
소사
에덴
원님
키요
스탠스
명탐정
스러워서
교익
위스키
성냥
푸른색
CH
애덤
악담
##ey
끈다
픽업
##저쩌
레이지
하심
러시아어
리버스
봉해
잡담
시켜도
마지못해
리언
목덜미
신칸
논객
독약
노브
따끔
브레스
폴드
신용장
9000
서커스
흘러나왔
팝콘
야만인
국운
삼위
고관
늘어져
출고
일직
돌아선
트린
330
OC
건보
대추
##눅스
수프
클리셰
지터
암석
차곡
부차
울궈
나그네
총명
주조
폭삭
페르소나
남북통일
정해서
사마의
뚝딱
베틀
빨랐
청해
쫓아다니
남긴다
쳐가
한구석
작살나
노원
복식
잽이
페트
패배자
브라우저
는고
만신창
출토
토박이
돌아다닐
나야
명곡
백기
조총
세스
탄산
을지라도
시애
착실
##TC
영의정
달려와
배고파
더나
여상
헤지
망발
동천
신촌
난독증
에스파냐
겠죠
빈자리
목청
스퀘어
##된다
미적
호미
의술
작업장
칭기즈
시켰으며
탁상행정
성운
All
일군
그랑프리
혈액형
이효
장기전
미행
재결
리눅스
들어감
##운수
삼위일체
##UN
버나
블랙박스
다나카
앵글
위구르
III
살균
설설
병아리
북두
열대
정변
##놀림
개죽음
미간
고프
위약
아우르
낼려고
불합
마카오
평야
이주민
김지은
TR
사우디아라비아
동메달
##복음
신차
제아
나트
어떻든
판다고
영달
아찔
건도
번져
##pl
까자
심해졌
##트린
##패드
브리지
CBS
정략
1922
라바
옥죄
굶주린
치울
되도록
블레
러너
송철호
매그
찾아올
데려다가
목메
아지트
불러일으켰
손등
280
320
귀담
한정판
##스티스
조운
꼬랑
성상
사형수
여지없이
노재
액자
회부
적시타
인출
흥남
바알
데이비스
미끄러지
##MC
인마
밀라노
작성자
라꼬
조잡
최진
떠다니
야인
쪼잔
토할
게으른
기른
과도기
힌두교
알맹이
요시노
웨인
프레드
문맹
##정보
##막음
미천
들어와도
실생활
주립
스텔라
검소
##페리
서요
퀴어
다니깐
##득실
들이받
##are
태권도
산행
##조목
인트
중고차
박대
성토
일감
##개토
마도카
된단다
괴테
백합
지킵
과분
기합
액면
득실득실
빗나가
연고지
승급
광개토
리볼
오아
##마치
##배상
애타
젓국
스루
안대
유의미
권역
감염원
공석
레미
쥬얼
그리스인
오미
자키
초년
메기
허긴
합쳐도
이로
밀쳐
이창
##장사
고위급
사귄
최승
##펠러
해서인지
리마
##탄두
융자
공터
판권
출연진
단시간
아라비아
비행장
신랄
노약자
아닌감
거위
통계학
충격파
차액
장보고
완구
흑색
##상조
수세
태워서
하로
##니코
초사
카쿠
##암리
시공간
이입
해했
그리핀
황색
역자
##냉이
약초
##벨리
글단
아카네
체가
대내
선서
이변
내려졌
닉스
시당
입상
기권
자의식
감비아
달나라
털려
카제
치명상
해택
선호도
탈옥
##전입
유자
위장전입
슬램
지친다
쿠사
오딘
하라
공포심
저항력
실바
원론
방종
말릴
조련
리도
동일본
세나
윤회
이래야
겸임
디디
본거지
조병
아귀
적과
갈아치
카게
망가졌
열렬히
말싸움
시황
커브
김세연
친모
신칸센
두려워서
계약자
le
각계
코미디언
프린스
입막음
착착
서자
전해져
가보
닫혀
##덴티티
아이덴티티
먹힌
휘젓
원작자
난데없이
On
오성
애플리케이션
Co
군청
사천왕
체로
쿠리
##DS
설립자
안기부
고압
세일러
달려온
예속
고릴라
쇼군
괴이
닫히
##ecd
놓칠
수리비
협곡
전유물
할로윈
바그너
전희
진면
낙양
레프
진선
##아졌
기나
일궈
레슬러
라이드
원자로
초당
달료
167
두터운
펄펄
노라면
울릉도
부심
개작
선민
신가요
현시점
미호
해발
넬슨
향토
후반전
##보호
##ign
땡겨
압살
오피
자본금
빠져나갔
바르트
me
리우
타노스
##결승
어영
##꼭지
두들기
유모차
공속
문두
다야
영산
틈틈
대대장
병자호란
나우
##슐린
가토
식비
내서
베껴
테크놀로지
얽히
영양소
거들먹
연금술사
연화
음미
공연장
작인
강해졌
나이츠
입힌다
기축
응대
아디
##정리
물어본
빵점
##어주
알아본
속였
##부진
달라요
럭키
구멍가게
적개
##레이즈
단신
알렉산드리아
에비
비합
경마
꺼낼
##보유국
드러낼
무한히
노미
모에
나태
전태
참치
##황후
예비역
이비
태형
바인
##라이터
굶주림
리키
생겼으니
화합물
찬찬히
끄레기
상봉
더라는
##이라
금하
##호테
태양계
혀라
가려라
스테이크
공예
전구
찔려
학군
정부군
치우친
전리품
마르크
명인
필적
##지사지
토토
금색
알아차렸
회초리
잘라라
어줍
역지사지
몰지
##카미
매겨
핵보유국
인도인
흥정
고부
반고
침식
성채
피살
누굴까
숙련도
여아
빚더미
무서우
오리엔
탐관오리
경색
장엄
왕세자
fr
연대기
미디
아제
잇속
두환
조라
겁난다
간간이
듀크
주술사
농축
히브리
##굽신
게으름
피나
##iver
텔레포트
착안
매트릭스
날아간다
로사
발사기
999
자충
굽신굽신
사심
##마사
셰프
하르
뛰어드
느껴야
##말이
뚜벅
염색체
형광
몇일
짜집
살아난
심심찮
윤봉
##동욱
리뉴
시부모
##고스
146
동인지
북돋
경쾌
루팡
##로워
한국은행
173
강화도
태초
##보도
노랫
리믹스
퇴계
급선
붉은색
엄폐
##애자
간염
해열
칼빈
명치
헛웃음
올라온다
국문
후문
미리미리
조지아
기공
는단
유적지
엑시즈
우화
우루과이
One
교황청
빙그레
쏜다
에러
요셉
복음서
철창
남구
자켓
##사이드
##르륵
후쿠시
공보
분유
아무개
뒷바라지
글래
날지
재이
방아쇠
쇼나
편차
대영
아차
##도어
무서운지
##르트르
껄껄
두각
부서진
가인
군관
린지
면밀히
DPS
무감
집정
자음
나감
로마인
굴종
지배층
비젼
솟구
산만
진형
419
사보
텍스
분파
##텅이
그을
장탄수
고군분투
배째
상명
지프
피에
앞세운
샤넬
팩스
상여금
SH
배웅
뒤따르
조비
함의
감수성
했을지도
이한
타원
이미선
남대문
세레
하튼
##고불
물약
계산기
런닝
##탐탐
호박씨
원단
트리오
망이
앉혔
수제
점철
행시
##러졌
정신대
호시탐탐
묘소
박세
도탄
형이상
기치
##영장
글귀
선체
종놈
su
조미
콜럼
딱이
제네바
대잔치
탄원서
불어나
삐리
보성
색소
떨어뜨린
창아
서사시
일병
잠겼
성장기
개드립
개싸움
이세상
가로지르
구심
##재기
죽여버
꼬치
마고
##ai
계획서
##치병
숙인
인슐린
흔치
탈주
##허가
재킷
##보우
라이트닝
선심성
믄서
황자
##현동
끈끈
부기
요리조리
혐오감
폴아웃
##보그
쿠르드
내려와야
주옥
하임
키워라
전문점
기네
도취
고초
으쓱
중학
꽂혀
핫바지
솔저
부턴가
운임
지방대
조심스레
나으리
프린터
##리드
아르메
##자족
소꿉친구
##티니
3500
부록
지쳤
더부
뚫렸
연변
그럴듯한
살아난다
토트넘
묘비
##ower
테크노
메이트
발가
강산
재제
천년
자급자족
카밀
뚜렷이
마음씨
귀양
##툭튀
굴절
긴가
영유
팀킬
입학식
묵념
지훈
운전석
게시물
값비
단테
잿빛
뛰어내리
##레슬링
블루스
만족감
이지스
차떼기
대자
가로등
외동
항전
늘린
1911
##라이언스
목돈
접촉자
통나무
김웅
너그럽
자폐
잡힌다
디렉터
끼우
아의
대못
추켜
앞세워서
해열제
감싼
동네북
개중
핵탄두
갑툭튀
파라오
철자
내부자
제각기
쓸려
##시설
앙도
스마일
줄라고
##설수설
추장
단디
청소부
표리
##글리
대호
트임
정주영
조질
지져
도와줘
고마워요
식인
프로레슬링
다든지
답사
수완
직간
알량
범람
씨방
유람선
갖춰야
CT
베니
##게이트
씨알
유우키
재우
쪽수
1700
연속극
어나더
항생제
##묘지
바주
으루
횡설수설
되살아
물불
더디
이즈미
코칭
##행사
둥둥
사모님
매개체
NL
액세
##orea
액세서리
방벽
성악
##라치
시타
종주
사일
나간다는
선적
조디
사기죄
기병대
폭우
##운하
헤드샷
토비
팽배
미도리
히죽
##협회
원로원
극락
민병
상병
원죄
미어
전량
잊어버렸
스쿼드
캥기
국책
가를
나래
뚝배기
실제론
다문
영악
하품
##바루
미네랄
윈터
GO
아고
얼티
중국식
만치
부업
합장
완주
보배
앞부분
양방
##몰이
속삭이
얼라이언스
포구
레베
사미
##쿠버
가압류
TC
138
yg
김옥
벌판
기뻐했
##ION
대리석
화물차
엄살
큰데
감전
거수
바텀
껄끄
레이븐
최장
캐스트
##푸르트
지가
퍼뜨려
이론가
바니
어인
미완성
잘랐
##던데
요놈
뒤져서
이등
엘리스
진척
무뚝
과로
대당
바벨
파괴자
임은정
성큼
처한다
깨우치
위신
거덩
해이
장재원
기당
나카무라
드실
정은아
무뚝뚝
이겨서
십수
치우쳐
분지
욕되
악장
조마
##양이
폐선
페가
광고비
위층
유목민
발트
이에야스
서치
선보인
망덕
철조
쫓겨난
라이징
사이보그
방문자
떨어트리
실소
장땡
AN
파정
집들이
찜질
##ere
정중히
단돈
생동
리콜
에메랄드
닥친
여름철
하염
148
입점
유니버
dog
뼈아
진기
해한다
비자금
새이
직역
체리
전능
증빙
##불견
후광
변절자
현무
이건가
꺾이
꿍꿍
돼냐
메이크
이덕
다진
창건
굳건히
폐위
내달
신한은행
하산
황족
순간이동
알려줘
라프
아노
꽃피
지녀
홈피
걸려들
놀랬
대학가
구급차
화들
##겨우
##박사
그이
직통
두드러진
고라도
돌아댕기
집합체
증액
난린데
윈도
오차
허드
꼴불견
사계
한라
##악산
불시
Red
경례
컴뱃
##프레드
갸웃
생강
스냅
화들짝
이요
##ult
##슬라비아
유고슬라비아
권한다
졌으나
조각상
수면제
문성
샘물
질렸
아씨
삼거리
뒷골목
이반
MD
##텍스
들떠
야마모토
증조
빙글
헤집
공분
웃겨서
간선
슬금
심플
기말
베라
명회
영선
올라올
흉내내
편집장
공민왕
뷰티
생리대
요망
추신
##선스
##ream
경외
부쩍
AG
지음
##국가
앙상
DF
단맛
스왑
파해
뒷문
로자
학연
으려니
잡범
수준급
TOP
노기
들어설
타키
얽매이
기시
지당
##어머니
##가동
조목조목
눈살
이형
졸속
얼씨
밥벌이
가까울
벗겨지
##마을
##나스
132
운영비
까리
##잡배
2022
광속
흥선
외친다
시정잡배
사각형
죄자
구자
깎이
덮치
라이선스
내놨
되물
Con
눈가
근면
##렌트
목표물
비지니스
개악
뛰어든
날아간
##uck
박명수
재택
싸돌아다니
집게
헤라클레스
재범
앞장섰
진시황
학장
##레스테
판자
##꺼풀
진과
표지판
자퇴
빗물
웅크리
하오
그만둬
레인보우
사옥
올바로
##tle
공물
억불
137
142
윤성
짠하
부담감
웨폰
우이
올라와서
느릿
##시즘
금충
밀려오
면면
정호
근거지
부들대
산호
오로치
벽면
이바
구박
휘날리
번뇌
달구
##감정
Ed
비준
산군
김미화
무더
역과
화단
메뚜기
짤린
경련
선험
다닌다는
병리
장내
체장
튕기
모용
비스듬
걸이
##리니
고열
볼드
금빛
정약용
박치기
민우
핵전쟁
문경
집시
확연
남해
노여
보균자
학식
엠블
영아
패하
수혈
시편
끄떡
난징
도축
유턴
족히
백서
치적
통채
##수단
143
##빠지
밀입국
현행범
섭정
가람
반민주
##지휘
대여섯
뭣하
히스테리
줄리아
유카리
채워서
구문
서툴
지웠
##블러
난리나
부자연
족쇄
주택가
##군데
##나르도
송장
허겁
적개심
다칠
지어도
프로그래머
라더라
기표
예매
나왔으니
롤링
##딩크
치세
맺힌
세관
허기
스토킹
반목
전업주부
외도
찮은
##차곡
돌려놓
바티칸
어퍼
차곡차곡
하루속히
특정인
트로트
불면
##백백
매칭
애자
직분
조구
##마드
최전방
바트
신고자
자연인
뒤집히
술값
전문대
먹혔
후루
야훼
으로선
직간접
들르
면피
이은재
선주
꼬드
는가요
권투
요충
근저
인감
##러웠
쓰러트리
지레
폭염
사민
욕지거리
주거지
기관포
인기투표
명명백백
허우적
주황색
산후
히딩크
알찬
의식주
수출입
드리블
리얼리티
아르메니아
아름다웠
##노프
##덱스
DB
가져온다
패왕
##답시고
아픈데
보냅시다
유관순
청혼
일일히
탄수화물
맞닥
특단
##암동
비무장
연정
일동
해산물
이럴까
수납
##바스
소모량
시르
천방
농수산물
엠마
오클
표결
맹독
##관리본부
인도주의
싹수
말려들
우등
무한정
슈퍼마켓
신조어
교명
마교
무릇
공수부대
550
나눴
뷔페
베른
문정인
루미
루이지
스타즈
한다던데
시그널
클립
박유천
월경
오리지날
꼬맹이
지교
대서특
뭘까요
애지
136
##anc
제사장
물주
졋네
락스
영희
리볼버
대서특필
탈레
허전
빼돌려
사하
심증
의로운
소대장
토드
헤어나
철책
아미노
ON
군용
에필
유럽연합
들여야
데이브
에필로그
그어
대기실
질병관리본부
떠든
금주
생포
맛볼
고무줄
양준일
147
SO
작아지
##이야
겨우겨우
괴로워하
내손
독기
한겨례
설움
유생
횡단보도
BE
검문
세척
##노스케
뽀뽀
양팔
169
뿌려서
수현
이쯤
풀풀
명령어
이정현
외야수
양치
해줌
##테오
원해
터짐
##손가락
광동
키노
에이미
적대감
머지않아
염불
맞닿
쭈쭈
더우
속여서
다이묘
굴곡
깨어났
아랫도리
거동
디비전
미자
민족주의자
못내
준석
아낌없이
나직
뭉클
중금속
기니
위약금
go
로니
코딩
##연자
박한
나시
속삭였
##지겁
기울어진
허겁지겁
남하
전령
승리자
눈멀
준결승
공청
한우
비할
스케이팅
경차
훔쳤
힘겨운
스피치
계엄군
그칠
사타
그까짓
원재
간데
서연
습한
진행할
기뻤
질소
윤기
상실감
흥하
총학
투자가
##ma
##부단
송시
놀란다
우유부단
기필
띈다
어투
우후
혼종
생년
현질
내동
청구인
농심
시애틀
연줄
루카스
표주
하대
맞히
꼬우
찢겨
밀치
안구
여행지
계승자
흔쾌
가정부
루키
수역
땐데
알아낸
크레인
김순
폐원
발췌
윽박
너클
정월
계량
군경
수경
판본
평하
001
봉이
결핵
##cal
##다랗
먹힌다
사활
하체
방주
##네스코
나두
흑사병
여객기
##북치
낭떠
그만한
데려와서
낭떠러지
수돗
철철
하교
벌칙
헐크
다이렉트
막지
애드
간헐
실망감
왕립
피처
해져야
미워도
푸념
공연히
승하
흡족
귀기울
강냉이
치곤
불도
지새
1912
얼리
역모
IR
만듭니다
개전
밀림
적기
대범
129
##레트
강서구
교량
후장
안드레아
공비
성남시
제드
콜레스테
부러우
유니온
등대
혈기
모자른
등록증
벌어져
콧물
피똥
멸하
영해
온나
손해배상
에그
황량
계파
곤혹
탁현민
정봉주
원순
1908
눈매
편애
121
러시아인
에우
갖췄
동백
민가
아싸
개인전
내려지
##전력
근원지
콜레스테롤
별수
칩니다
난로
공언
스몰
우먼
은연
북한산
되살리
선녀
공격기
댄서
보냄
안토니오
떠내려
샐러드
수사학
빈센트
발본
##조작
예수쟁이
만족도
다산
판촉
최하위
봉착
프로리그
호무
기척
특이점
관저
잡다
토기
겨울철
bl
없앴
기요
탐내
수전
페달
기어들어가
빗자루
원재료
몸싸움
세단
빅터
진저리
페이퍼
나른
신봉자
문전
퇘지
##ina
하얀색
비화
제식
필승
클라크
빈곤층
조나라
깃든
헬레
##천동
심리전
어려워졌
규약
사야카
세정
주성
시행령
미추
자객
절하
UFO
##MS
##int
뒷북치
스타킹
MSL
진면목
단세포
오열
체증
회의실
소우
갈아치우
슈퍼스타
개패
험하
였음에도
영예
##요금
나왔으며
병원장
형이상학
도라에몽
늘상
##저만
부정과
바이스
읽히
터리
기록물
내보낸
이수진
아타
무로
문하
프랑수아
오자
북적
이름값
잊혀진
FPS
대려
떼돈
버립니다
억눌
정모
새들
소문난
몰아세우
911
타산
편제
보신탕
수속
해수욕장
이춘재
가물
불임
쫄딱
찍찍
팩션
능통
대종
어민
요절
식수
가처분
궁굼
##iew
하카
프로스트
노량
조삼
##사슬
개항
담요
불안해하
지바
두꺼비
마운트
두통
해댔
코노
후벼
을지언정
깊숙히
윤영
일손
헌팅
졸지에
은은
일억
마소
시치
현미경
고딕
신디
지어내
히카루
김보
밀실
옥타
기내
유니콘
이노우
물고
##ier
석자
도요토미
oecd
고체
국난
##라나
제너럴
노랗
##프레스
토요타
발렌타인
이을
프리즘
리크
피상
털린
놓아주
겁내
바닐라
세법
알제리
모른다면
로로
톱니
##버시
누린
한약
비탈
사요
들쑤시
산신
여리
기나긴
붉히
요술
불상사
유유히
학당
장어
떄문에
공의회
헤게
야마다
통했
##제표
재무제표
동탄
시문
쥐약
즐긴
##다구
땅굴
누를
도선
너라
맞불
버려도
뉘우
##FL
##게티
리니지
일침
값진
구서
으라면
따리
변비
다든가
의연
다카키
않되
교무실
나이키
순한
봐준
전문학교
끼쳐
목도
말다툼
어렴풋이
김춘
마니아
치운
뒷산
단비
사행
기슭
##증기
프랑크푸르트
col
심석희
독실
돌팔매
내색
로버
상급자
빠트리
조신
이체
이만저만
섹션
외톨
데려갔
독거
소연
주안
라오스
논산
박격
예하
기타리스트
김기현
킹덤
허리케인
고령자
##개발
관통력
리액
이외수
현행법
LPG
배아
산성
플레임
가래침
동그랗
갑작스레
당론
케이지
와요
카오루
하염없이
비야
오지랍
코딱지
정실
부질없
##다행
스칼렛
강희
다스릴
프라이버시
합숙
에듀
##파람
##tr
##열차
무한대
중앙은행
아껴서
허튼
누더기
술술
태경
##스민
대주교
내줬
##내셔널
인터내셔널
자충수
스바루
바이어
강판
헤게모니
등시
아브
박혔
본고
자아내
김소
방바닥
##세로
공공연히
##led
버즈
지킴
##퇴직
##ism
종석
짜여진
벨벳
부세
카카
204
Mk
더해
원이
라메
거다
서당
슬러그
발신
가까우
천만다행
tvN
뒤쳐지
돈지
평신
의문점
들어올리
술병
출항
남김없이
터뜨려
##폴리스
앤더슨
조의
할게
##칠리아
봤으니
##IV
##저트
지겨운
gd
원생
티벳
리바운드
우타
퇴화
노프
리전
혹자
##염치
##공론
과한
닉슨
영양가
최성해
약칭
위압
폭발물
만장일치
빙상
빵집
앞섰
부마
아반
포효
##포머
드루이드
점쟁이
##라마
보낸다고
난지
팔린다
안마
##글라
관내
괴력
촉매
벌어들이
Car
나빠졌
##irl
래스
장시
김남국
져요
계산서
프롤로그
혐의자
유네스코
지지리
서현
살맛
부끄러워서
시아버지
싫증
휴학
현기증
살판
저들
걸으면
꺼야
##본주의
##채기
경량
티저
정대협
성호
레즈비언
목조
NAS
Sch
지배했
거장
땡큐
참말
무식한
돌고래
천수
촘촘
##ork
값비싼
우쭐
잠금
홍정
현상학
덜컥
부러운
##뇌동
DA
쌓였
이구
정용
##만금
부화뇌동
맞장구
라뇨
페르난
튀어나왔
건드린
나고야
고베
돌풍
서거
세실
##슬금
##에이터
넘나들
다이나
##극상
지배인
소말
는단다
LH
김은
산천
찌른
유부녀
성녀
규슈
쓸까
연다
폭죽
병폐
Fate
국악
일갈
지칠
내려간다
레귤
표했
두건
인승
때려도
가정사
개망나니
뒤집어씌우
조동아리
기댈
부주의
비토
협찬
비니
##비용
굵직
일렉
심사숙
굶겨
들켰
핑이
기어가
보구
낙수
밸리
선종
고려사
조면
##RE
짤렸
퍼시픽
다로
성찬
고영태
을시
##성어
공포감
심사숙고
담가
카악
##대원군
조소
일직선
방수
토픽
선반
어항
OB
적격
흔든
교도관
늘어진
코지
내자
시뻘건
부의
카세
적막
픽션
##파니
녹차
##ife
개야
화보
쓰레기장
아파도
끊겼
산사람
접해
찾아온다
번번이
착해
환갑
즐거웠
으스
##훈련
슬금슬금
배회
##나베
기필코
숙성
완만
함흥
##amp
묶음
올거
거던
교직
뇌물죄
윤봉길
군필
진연
비행선
Star
옷장
지피
가로세로
그치만
축축
바보짓
불구경
소유물
조삼모사
거북이
물뽕
벙벙
서동
형세
꼬랑지
강현
하난
나가사키
올라야
얼티밋
후리
끝장내
세네
##유사
관찰자
되살아나
감돌
벅차
인게
카토
떨어뜨렸
134
갈림
밖엔
국민성
강원랜드
봉하
상식선
말끝
변조
아이리스
둘러대
아까우
관성
국법
울고불
웅변
도정
타사
우사
원사
캐피
시간표
모유
벌렸
하락세
전편
##오냐
왜적
탐지기
부락
재조
고장난
어드밴
친부
백선
예원
공덕
프런트
부녀자
변상
외자
민병대
지쳐서
무찌르
갑부
빠듯
개찰
로렌스
고여
##봉투
마부
서유
반품
여순
호락
더라구
하극상
레바논
거머리
낭독
슬며시
박준
피어나
결사반대
오냐오냐
노스케
##스톤
경박
개자
나면
츤데레
발끈하
시코
기관장
일맥
콘테
봉화
완존
철조망
더비
##orm
아델
인신매매
정일
장발
능멸
발치
야마구치
조윤선
문관
풍미
졸부
중환자
##동네
어지러운
가호
런처
맞설
##공산당
볼거리
동승자
고금
기전
헐떡
명맥
컬럼
세상사
매표
신드
고철
탄막
독가스
튜닝
임수
인류학
카로
스파이크
더이다
교파
일러스트레이터
조까
비견
##일본
강적
골방
이교도
꿰차
언년
midsec
유증
기본소득
여객철도
HT
민석
에잇
착복
보통학교
게으르
##백계
드셔
자릿수
불똥
절세
대각선
리엘
들임
폴라
퓨리
걸어왔
한건데
금산
상궁
##ition
종신형
부끄러울
더운데
##ous
생태학
강과
포악
래미
단호히
피운
보여줌
일벌백계
상왕
썩을
황궁
my
한명
건드릴
느껴집니다
공방전
Vol
물줄기
장식품
깜놀
한지라
단상
변희
퍼레이드
홍익표
타임즈
투표함
아쉬웠
기보단
승상
유노
MF
불응
펄쩍
박박
##미트
레이크
레귤러
류현진
개경
곧이
수비대
워렌
황천
오정
오싹
탈레반
알아먹
투약
황인
저래서
##비비
아이작
도읍
뉴스거리
커터
존경심
적의
재치
다케다
세태
카노
가격대
날씬
TO
생산물
몰아붙
광풍
레지스
늘이
로펌
풀린다
강직
마들
점퍼
기혼
어사
답니까
팔려서
진료소
해지지
볼까요
사르트르
야하
후천
확고히
반아
주취
##tern
짓눌
으셔서
불러들이
수도사
마더
축구장
높인
리다
몰염치
실황
웨일스
걸어온
가실
숨진
조시
로코
인산
승기
##종일
트랜스포머
낚아
면목
아론
욕조
##개혁
방사포
축물
릴리스
장려금
숭상
명소
집어들
##린다면
옵티
호에
쇼쇼쇼
오아시스
엄호
나진
##성인
보미
천차
##문화재
노장
정곡
졸음
질풍
##토시
수요자
전월세
절개
기아차
난투
돌려라
협소
Op
당수
출정
피셔
이상실
달기
진범
로테이션
다이너
상대국
좌절감
합작품
살아났
조니
좌회전
구단주
##노리
청소기
##페르
잠재우
약했
강팀
신교
##래스카
##터면
금감원
관전
이어주
하마터면
급선무
물감
육류
자면서
가르친다
뒷목
##사항
부적격
상선
##소총
끌려간
김유신
그럴싸하
금상
애쉬
막다른
토성
경장
아량
유혈
아이언맨
중남미
##bb
용왕
조부모
아수라장
##전사
영사관
끓어
반향
셜록
역세
유랑
성현
통일성
프레데
밀란
익사
골리
방류
외눈
##링크
니기미
##갈색
도형
쓰러진다
찬미
자기장
하반신
##ero
입소
기특
플루토
을께
고쳐라
와타나베
레슨
히말라
선동가
비상시국
괴벨
날벼락
눌려
오쿠
지법
중추원
주눅
sm
그럽
##수스
자란다
천적
비아냥거리
연립
웨딩
니키
천공
##olog
다림
야시
삐뚤어진
가쓰
##ors
흔쾌히
##고양이
구하라
감독관
발버둥치
정이
에디슨
김택
아뇨
호투
한자어
테일즈
부전
분분
카멜
아름다워
GG
래야
후추
##문고
멍한
사필
법망
담자
이삭
지조
애벌레
호봉
까마득
EV
기물
1906
이모티콘
단타
덕지덕지
글쎄요
플랑
체급
와이번스
히말라야
##문트
OLED
시덥
깽이
귀향
수유
오기
블라디미르
바바리
간교
프로토타입
조광조
##당략
##브르
당리당략
뭣하러
##스턴트
다수결
##여대
올리버
으신가
낙천
립식
증오심
골몰
구스
샐러리
평수
BPM
언사
인스턴트
해낸다
##에고
못했으며
스케이트
불발
서럽
마주친
김종필
갑니까
눈보라
의중
이치로
물살
애틀
계신다
종가
아이젠
생물체
##발전
학자금
땡기
박테리아
쇠사슬
식초
애리
특보
프루
나토
야스쿠니
##다발
회고록
남일
족하
종소리
##일라
불가결
무사시
걸프
얘긴데
연해
전서
다닥
한달
##목사
생겨도
메구미
정규군
##ING
구수
서한
카카오톡
양아
억류
핀잔
Ste
해줘야
숙식
앨리
협공
전지전
사생아
산전
직사
퀴야
청구서
주치의
퓨처
방청
펄럭
졸업장
전지전능
당국자
JP
나지막
##푸드
##집합
바루
징크스
개풀
기압
승선
저수
쩝쩝쩝
대성공
하남
김연아
끈질긴
##ype
언변
Gre
재봉
차악
un
덮인
떨렸
직영
양심선언
카페인
황국
깡그리
파행
눌러서
떠밀려
모셨
투니
##oss
유괴
간악
##span
동속
만국
KC
화답
휘파람
화원
결석
흑룡
당사국
애틀랜
모란
저스티스
코팅
교문
구전
기죽
대판
스테이트
봉합
철제
풍력
급소
보부
불고기
김여사
알렉산드로스
족쳐야
##IO
줬으니
보수파
광저우
GSL
설대
물려줄
떠돌이
급성장
일렉트로
맹주
명대사
좋아해
지온
##ull
어때요
임재
싸여
채색
불행히
일지도
루루
얹혀
카르마
퇴폐
역겨워서
피노
FDA
루스벨트
구렁텅이
조나단
트리스
휩싸여
##포로
나레이션
다한다
중범죄
빳빳
결정짓
불합격
코웃음
콜드
해남
복역
짐짓
들개
양립
시트콤
방독
생깁니다
IOC
계셔
신비주의
요식
##메트
군데군데
짤려
토이
활동가
지낸다
뒤져도
파충
돌파구
얼떨결
스매시
부츠
친위
관람객
행선
도지
이도
아미타
박주민
세인
오덕
이황
성명서
베끼
남군
내실
벼르
호그
몰지각
STA
매지
칼자루
지정학
이중국
단념
구조대
괴벨스
치뤘
세무서
동내
이오리
코요
포부
공사장
풋볼
이유로
자연환경
오합
장화
정크
흔들릴
아카이
수작질
식생활
주려
##데시
범한
기주
호령
화났
Kbs
회동
흉흉
닭고기
마리나
입주민
밤잠
자드
##시험
##폐기
기다림
몸부림치
녹이
##IST
여기자
무효화
잠바
표리부동
문민
상했
전집
뺏긴
투지
미유키
용수
TP
with
새까
여명
오소리
##ta
갈매기
멜라
낌새
##로로
우니
고무신
귀퉁이
피사
혼신
경찰차
집념
지지부진
마칠
선망
코빼기
퍼져서
1909
지킵시다
내세워서
걸음걸이
당정
자태
포커
##주곡
##ale
겠다고
인스
입출
정과
김예
거금
달팽이
찜찜
보호구역
##찌개
가파른
가느다란
애프
맡겨야
불어오
염전
후사
사회당
궁색
떠넘
리에
아멜
급습
등한
레오나르도
여든
침략자
##고랑
따라붙
##ave
##어사
##마르크
##흐로
SL
성내
과민
피로감
격식
겨레
씨족
조옷
차감
서주
응집
문종
시제
걸린다고
김지영
해적단
데니스
조바
바야흐로
빠이
숙고
슬림
장애자
제창
치여
고결
페렴
##거스
수렵
종군
털어먹
퇴물
당최
콩고물
진국
조범
참말로
제시카
태고
최적화
약발
행할
##달라
도수
레고
처량
우루루
프렌즈
댕겨
대참
도나
예명
모국어
탁상공론
구소
##작물
##셰비
##양양
소나기
요크
SUV
걸터
급조
한다네
달리기
##에미
매달렸
되돌아오
얼렁뚱
내던지
뼈대
오대
대보
투표지
색안경
##IE
격돌
특강
플러그
운전수
남충
조처
재래식
헤딩
천문학자
새하
씌울
바빌론
긴박
무겸
뿌릴
선화
확성기
ad
몰릴
충정
군단장
기해
찬송가
예문
계산법
기러기
알아낼
양키스
여린
전압
##시개
방책
소추
##ex
전국구
청취자
연좌제
인적
이노우에
택할
부르크
패트릭
장학생
피겨
어우러져
부가가치세
금욕
엉성
파먹
어가
드러눕
스팸
캐내
드레드
삼켰
##구정
베이스볼
맛나
저점
술책
순교자
갔으면
헤어질
황희
신검
##군요
Day
선단
홀딱
반성문
iOS
발밑
에일리
웅진
축산
평의회
아우디
로스터
피아니스트
SW
게임즈
222
실어
편대
##사장
슈리
팽개치
좌편
전환점
방지법
##방귀
##후무
전무후무
만고
광진구
구강
깜냥
도사리
늦춰
만민
살며시
나와야지
그레고리
언약
##사와
석회
유가증권
레파
##마나
누출
덥석
설파
흥선대원군
독차
아셨
##발림
번다고
정해졌
삼국유사
오로라
집정관
유하
인장
정치범
예산안
속세
영천
아쉬워서
크리스토퍼
나원
만화가
미싱
애절
조슈
무법자
콧수염
버벅
죠죠
났으니
넥서스
생방송
즐긴다
피난민
구획
아랍어
레밍
한의사
소상히
유념
유일무이
각목
객기
운다
잖소
크리스천
소폭
지산
대장장이
취득세
뒤처
병마
그래왔
드리워
연수원
스타크
배리어
사울
살핀
원진
처세
니케
줘패
판가
함경도
월화
저긴
카즈야
은영
##학파
내건
거닐
비등
생매장
반대자
AL
악곡
긴다
비주류
목자
흩어진
맹글
결장
##큘라
괴변
천부
휘두른
TBS
든다면
찬바람
이뤄지는
기류
하인리히
번화가
매거진
준장
이봉
일석
영화사
CB
번다
유두
버렸으니
수돗물
날일
퍼먹
UFC
내다
##기념
인사말
마셔야
네거
원호
무감각
탁구
그리구
LIVE
술법
아운
황토
양평
자형
평했
놓였
문둥이
세츠
##갈머리
권성
##태평
바로크
내려진
앞당겨
##캐스트
희화
소비재
시시비비
앞머리
밀리언
##푸르
염라
리히
성심
고공
기통
수잔
추운데
벅찬
아르카
1895
지존
누런
무난히
질지
총성
케임
##손자
##춧가루
귀여워
촌장
점성
흙탕
어감
박격포
은어
칠성
##래요
##금니
얼치기
태미
##태현
금식
붙히
조식
##GA
케리건
정경두
초전
지나쳤
전반전
삼척동자
CL
익혔
치환
육수
전자기
고추장
볶음
풀칠
하지메
구데기
갯벌
압구정
보국
샌디
찻잔
##거름
노동법
##der
극작
짜릿
김성수
눈덩이
곰탕
Joh
노소
시보
호되
소비량
미야자키
모교
보초
La
비협
통조림
시킨다면
##ose
모의고사
멜리
브릿지
염기
존칭
천계
##하이머
광탈
금할
식은
지성호
비루
끌어당기
창원시
축구단
래는
주제넘
프론트
락할
수니
번뜩
자주포
프란츠
GTA
LS
원희
함포
식은땀
글라스
들여보내
배심원
##려구
간통죄
오합지
매서
##비우스
##문가
익스프레스
UR
내어주
킬로그램
삼림
향우회
폭풍우
라파엘
꽁무니
중일
해밀
병무
쾌속
북진
으르렁
감미
뇌졸
##동물
형무소
코시
알아봐
암흑기
뭔일
삿포로
흘러갔
몰려드
배설물
부익
어겨
칠흑
멀뚱
페이커
드나드
유메
김영철
산란
와이어
감청
띄어
마우
도봉
##스트림
김시
##yle
##민정
봐주
다락
경순
렬이
공정성
건성
귓가
##UM
##페스트
##게이츠
초저
마장
첨예
청동기
화이
##노트
아미노산
가본
드라큘라
어야지요
베드로
예스
해야겠다
보일지
체인점
질색
가지런
법상
빌게이츠
들어앉
변천
섣부
여차하면
거머쥐
연구비
발갱이
루리웹
슬리퍼
착실히
##야금
그런대로
광활
라잖아
매경
즉결
축재
틀어지
자조
부르르
헌장
휴무
위중
최루
허언
산탄총
요르단
수포
악세사리
오합지졸
원기
주영
지청
활활
국가관
야금야금
가렸
임이
질까봐
아슈
따라간다
베이커
공실
유코
화소
MI
뻥뻥
각주
첫눈
씁시다
자연수
어금니
증자
성북
더러움
이뤄지지
##les
래리
밀정
##hy
니코니코
명기
수원시
마운드
꼬리표
침울
##티어
골프채
유로파
머들
배럴
##려는
폭사
올레
미끄러져
근황
나뿐
니께
불러다가
새싹
장경
##코지
##ann
북벌
옹립
평이
##쌔신
금새
어쌔신
천주
RS
대견
살찌
엎드리
1904
마님
##즈카
소말리아
DP
바하
외워
인단
결례
물으니
천신
뒤치
##레라
러서는
독차지
은신처
한다던가
랜턴
컨트롤러
자니까
의경
은행원
마태
제원
가석
갖출
번들
시저
터트렸
널린
사출
아니한다
##떨어져
소방차
모로코
명종
특채
찌를
하동
##네트
단초
피그
##전설
스위트
극우파
클라라
랜서
미켈
왓슨
강제성
군바리
대작
역공
할려구
얼렁뚱땅
디트로
이화여대
디트로이트
그리드
얼룩진
과소평가
비대칭
미관
성소
실직자
RD
악녀
ytn
한평생
감시자
기본급
저기요
옮겨졌
아역
헌혈
뺨치
절망감
카자흐스탄
저세상
##비히
오명
이범
부딪쳐
틀어박혀
페더
징표
격변
비속
##pr
쫒겨나
리노
갈고리
##토리얼
박병
영상물
본때
중진
글러브
교조
지나간다
HK
좌시
컴플렉스
김전
트래픽
히나타
Do
비엔
파드
##융합
갈일
드릴게요
강호동
떨림
합병증
따돌리
버디
빨라서
적장
불러온
RC
볼프
재검
환전
라이스
VR
감초
새긴
실비
여시
IQ
무진장
전황
동맹군
법체
문제아
문젠데
최태원
북위
향신
냉담
대환
불현
지운
빛났
몰랐다
비합리
스킵
느껴져
발랄
소임
톰슨
통근
걸려야
병설
컨대
그만둬라
위한다는
견학
소영
란트
와이드
마르셀
호송
##트니
프레디
괄호
갔으며
문도
접했
MK
순항
튜토리얼
인격체
심해질
##다닌다
신창
완고
칩시다
로열티
그럴싸한
내지르
서희
토네
보금
실타
##모아
비빔
광석
기망
산둥
핵융합
앞장선
명실상부
불식
##귀정
발원
해국
본론
##네즈
은연중
꿍꿍이
보금자리
농작물
머지
자도
불러라
건너뛰
재작
##aver
할애비
살생
아우라
경비병
Sw
고온
엘자
공금
적십자
계집애
시무
호두
##쪼록
반역죄
라벨
서투
상심
gdp
졸이
한물
껴야
샴페인
열성
골머리
푸코
뒷날
중죄
##영민
조물
하영
신호위
제아무리
억만
타들
구조주의
심지
포자
환매
##ica
파이브
저널리스트
단선
으름
최고봉
완용
차안
부익부
##자매
겹쳐서
오리진
머나
야로
달라져
도둑년
사탕발림
무드
영양분
정찰기
송시열
무정
불끈
굶주리
새만금
넘쳐난다
우메
광주광역시
동진
병법
뽑혀
양조
웅덩이
교권
불충
대공포
an
만루
부순
피부색
사필귀정
니스트
스네이크
시끌
맑스
메워
페기
##몰래
지국
촌놈
머나먼
관군
시우
연놈
쟁반
현찰
다망
수감자
관현
##모더니즘
포스트모더니즘
텐가
천인
##때기
리부트
뿔뿔
사냥감
떠돌아
퀴들아
해야겠네
비바람
##무야
러시아군
로맨틱
초급
##원숭이
ss
아소
담판
쇼맨
피울
실종자
깍아내리
혈서
tr
랩터
변칙
##치마
유야무야
장현
로고스
발소리
음질
방독면
로미
브룩
삼전
길동
##노부
부활절
tk
격기
아나키
눈부시
스텐
연가
평시
##ics
2021
병종
거둔다
버팀
군법
단층
에어리
요충지
검도
관원
장상
떠올릴
생계비
옘병
엑셀
장한
초장
탄두
들어간다고
구보
영합
낯익
이방원
학기제
가석방
양다리
이잔
광견
유년기
##상통
버릴까
뺏어가
최인
홍차
외할아버지
시판
브래드
끙끙
씩씩
탕감
발가벗
구여
반팔
임태
장세
##ason
짤라야
옥스퍼드
나갑니다
##만별
으니라구
데르
천차만별
공포증
그럴만
라매
한조
네거티브
계셔서
네로
미토
라떼
연우
베이컨
저학력
불지르
순기능
BGA
이로운
으십니까
라멘
미공
칼춤
바쁠
##체인
교통수단
구천
##지변
넘어져
저작권
일어설
내팽개치
주이
격화
205
게리온
가한다
도로는
TF
순탄
안사
조계종
함구
서글프
급작
라티
치수
중수
Gl
ATM
어법
슬라임
한산
따듯
고등교육
김수현
누그러
중퇴
총책
콧구멍
파충류
나영
할란다
내겐
규합
##잘것
불현듯
봐왔
되묻
분풀이
주화
감옥행
뒤진다
한다든가
구선
날아들
원아
##덕거리
아몬
조바심
걸터앉
UI
소시지
회비
피시방
도상
줄무늬
스펜
##바시
##ise
들어간다는
고모부
반점
성정
쫓아오
붙혀
자넨
##털이
이부진
숙녀
대첩
스펙터
김신
최전선
갈길
##코어
mg
배율
덮쳐
부여잡
경비대
쾌활
아양
후견
자빠진
1896
감언
들킬
청천
크롤
필패
##EA
쟁탈전
김칫
소기업
온종일
회기
친형
된다면서
##이즈미
받드
프라이드
수개월
방명
인주
정각
수행자
Sy
상계
##다녀
아쉬워하
OF
정강
코르셋
하타
빗장
환대
겨드
프리드
일맥상통
본점
정순
자파
련지
촟불
정성껏
불기소
바오로
꽃다발
켄지
##마담
안전장치
골동
대의원
졸리
청호
각본가
기안
밸브
중엽
더듬이
성불
타박
특질
후일담
앤드류
자알
콜럼버스
절기
코스타
근본주의
완승
지파
기근
방증
병살
퉁퉁
프린트
무교
전군
흘린다
좋아해서
예장
철원
마로
불거
감가
사이먼
해진다는
방패막이
황룡
비전문가
불량배
강풍
뒤엉
통일교
유충
1915
라네요
추신수
고름
애석
여물
##개구리
광년
##스트로
국립대
극좌파
막아서
예일대
낚싯
용광
물색
##꾸러기
들어갑니다
바닥나
KD
순발
##방사기
가타
우둔
합해
가져간다
문화사
다워야
불알
사스케
셧다운
스포트
화염방사기
이러쿵
리차
얼터
##고르
우월감
미하일
Bo
살돈
태안
태양열
선곡
조가
미망
##레미
연성
뒤떨어진
본회
우렁
특파
빼앗겨
순발력
따진다
코리안
다이애나
천재지변
곤두박질
유치장
##자스
체득
옮겨야
잊어버린
기폭
브뤼
기대치
칼리지
북서쪽
삼성그룹
털썩
보스니아
장승
일언반구
##정지
파쇼
루시퍼
레니
곱하
오랫만
모티프
제이크
잔액
##let
빙긋
##연구
리쿠
발명품
갈림길
신주쿠
불효
경계심
조롱거리
##ild
육포
중무장
##사우
스폰지
라카
레스터
요우
핏대
##느냐
사우루스
군민
라울
형제자매
메이크업
시차
태웠
##당겼
사기질
킹스
조타
해보인다
Ro
To
몰려서
##처녀
수문
포근
007
##브로
따귀
입니다만
집사람
대마초
여진족
별루
난전
어린놈
공성전
사학재단
무네
쫓겨났
자유의지
기본법
NASA
이근
청일
박장
진통제
민혁
솔라
우짤
##익빈
무함
파커
##속임
얼굴마담
빈익빈
요것
프라하
눈속임
천불
대표단
골칫
윤종
된다니까
타카하시
경대
옹졸
히키
오스틴
단정짓
순박
정윤
도입부
도미노
레이너
쌈박질
덮개
설렁
화근
##가사리
환심
유학자
비협조
en
우리말
처할
베이더
떠보
메라
잖여
찌른다
바쳐야
요샌
빠져나왔
대뇌
시식
에워싸
신천
약재
한센
##토류
Am
분석가
강할
건넨
프래
비스마르크
서빙
필로
신파
촉촉
틈틈이
동봉
근근
주호
오존
웨이터
한상
희토류
##리지
서슬
##곡리
유물론
호랑
##보리
명석
파니
존엄성
원군
꺼진
송아지
울궈먹
Sou
쓸려고
그친
윈스턴
헤엄치
눈치챈
Jtbc
배합
백설
부려서
한동
##셔닝
포지셔닝
통속
갈팡
브라더
오롯
ME
천년만년
일등
XXX
신보
지껄여라
Qu
박하
시책
육사
이스터
회계사
두드렸
##와야
옮겨서
공당
방해죄
영외
##사포
##난리
380
논밭
발설
온기
대련
라리
엄포
어구
공모전
이병철
찾아봐도
그려진다
인두
노점상
웨슬리
제다이
국회법
전광판
분투
파안
흙탕물
데우스
방비
해안가
말끔히
국민감정
코다
##날락
윤희
##ational
크래
##지리아
나이지리아
들락날락
마이트
목마
호강
광복군
매끄럽
걸릴까
남아공
블록체인
잡아당기
황장
##경색
오점
우편물
들락거리
이속
스크래
빼돌렸
패스트푸드
스터디
이리도
이치고
보살핌
애호가
뇌경색
토나
필시
하늘색
그래야지
갇혀서
고행
매질
소고
슬로우
벌렁
없음
조사단
큰일나
매카
##25
원색
중앙지
의붓
##잘것없
좌초
벌기
재연
논란거리
롯데마트
천인공
사이렌
등한시
천인공노
떠나라
부나
카이토
가라앉히
시효
가창력
등단
포워드
추도
네코
##차원
낮춘
탈리
지켜봐
작심
광훈
금나라
췌장
아이비
지켜본다
터무니없이
투병
풀밭
아야지요
구매력
활로
소개서
빠져나간
니콜라
LV
래스터
시이
아킬레스
지하철역
뒈져
비집
##헤드
이데아
쓸어버려야
초음파
김칫국
만우
사력
공고히
부안
온갓
국문학
달통
쌀쌀
방명록
영접
구루
취조
효린
프로토콜
모터스
흘러내렸
스컴
차르
통아
스윕
주세
##사관학교
양방향
자습
속속들이
쏘아보
쌍수
여교사
모멸
##sc
미혼모
굽실
밝기
식대
핸드백
곰곰히
스트립
쥐죽
박봉
급체
스필
옵티머스
갈통
기현
사용량
당할까봐
태어났으며
전희경
윗부분
코리
신문지
웃겼
되먹
절대다수
Col
플레어
플랜트
영화판
곁들여
원두
##드르
산도
이승엽
부랑
분당선
석가모니
떼거리
역주행
외무부
처다보
표범
표밭
청년층
##호락
누마
##볼루션
선제골
덜하
반나절
셔터
지하수
요트
수사대
호락호락
라데
##볼트
세용
쇠고랑
가려져
깔렸
성패
콜로니
용법
##빙글
산국
##어냈
그중
로젠
##맹랑
볼셰비
일레븐
패미
##me
허무맹랑
시칠리아
##강우
##라이즈
유엔군
계몽주의
유방암
어죽
차창
리투아
성교육
슈터
안착
빙글빙글
리투아니아
경제인
당연지사
교신
붓다
와이셔츠
클락
발진
웬수
이다
쥐잡
진통
펼쳐졌
어후
1913
케미
##코르
레이터
날아온
박지성
악단
수발
엔가
지상주의
저음
역정
전란
하데스
도전자
보일까
채워져
뒷부분
으셔야
##메어
빙결
은색
패인
##현정
도가니
걷히
아란
골자
기개
프로테
수호신
치만
뉴시스
디플레이션
병명
테드
기간제
집어삼
약해진
우열
잇달
자욱
##벗고
프랑켄
박살났
RE
력사
##징가
천거
카린
피한다
유니버설
석연
불러올
##지둥
##느릿
자유주의자
비좁
장렬
교우
반바지
모잘
주몽
부러움
동식물
손보
이실
민원인
허둥지둥
들킨
히카리
소금물
닭장
시군
간이
수은
문선
막심
타일러
갱생
활동비
유품
의기양양
LO
열의
퀴는
##폴트
아르테
띤다
##HD
마일리
##vel
##싸대기
파고드
단수
브란
소화기
##애미
##따구
나침
선친
응수
채동욱
물렸
잡아떼
Sm
끊긴
본대
옹기
남아메리카
발벗고
악연
예수회
나일
수나라
저상
##보다
과대망상
물통
두툼
연기금
중과
차치
생모
시현
유아기
##린트
북아프리카
원반
서려
강남역
아함
우도
##부사
##뭉개
##ject
##슈타
바라봤
포석
키메라
날라오
##고분
##인드
설계사
##따나
바를
지원군
도호쿠
##이인
파스칼
사선
이기주의자
앞발
물들이
빠져라
능구
창자
티격
힐끗
어찌할
나이트메어
난이
건넜
어줍잖
소산
점사
지를
마이애미
지평선
약올리
##갓집
토탈
논리학
빠라
##타주
##더지
프란체
약혼자
부술
안지
##부미
문비
로딩
성부
주전자
자외선
행정학
따졌
내리막길
노여움
어눌
판독
견적
ph
츠나
선공
연중
##af
##너덜
이정미
거느린
호쿠
친애
푸대접
##니엄
##YP
칵테일
완전체
대치동
뒤죽
총의
판가름
찾아갈
선제공격
휘청거리
드냐
건진
변해서
포장마차
테라스
자산가
다무
데인
설명서
행진곡
연개소문
어유
오행
장강
지방산
취재원
식히
지켜서
북아메리카
뒤섞여
해준다면
스탠리
불쾌감
성형외과
야된다
##고도
개과
##재주
어서요
너덜너덜
강함
놔둬라
당선인
가려진
고시원
샴푸
탕탕
허준
날렵
불량자
공개념
꼬장
명왕
군가
와선
차베스
##이설
시집가
추모식
애틀랜타
부어
터미네이터
꾸몄
선왕
##냅시다
격언
달한
벌떼
체크카드
듀엣
윤상
으네
천심
낮출
조예
함몰
마개
습지
투덜거리
몽상
견훤
서스
원도
지유
입주자
기모노
마천
체불
혼전
##uk
애틋
지세
현은
##닙니다
따라올
싸이월드
막시
MT
효종
해치우
심슨
대유
부단히
장량
오의
지구대
당상
허가제
감언이설
구스타
##엄마
ok
돈지랄
Mus
글루
불러들여
머시기
메릴
영속
허균
사우나
관망
페이트
##장성
창안
가결
용의
골대
펠트
관아
결방
너그러
살롱
용해
미코토
225
그랜트
걸스
군아
피쳐
해탈
스트라
##라이어티
감쌀
##app
금과
유일신
금광
케르
코이
벌어들인
슈타
타라
아무짝
버라이어티
야무지
영구히
개리
어류
남조
스크래치
유약
적어지
얻어터지
는다는데
증산
질기
리액션
도검
위용
사무엘
그레이드
가로수
꿈틀거리
섹터
장년층
미심
고분고분
청량리
안보리
신앙인
DX
##호텔
##넘어가
우즈베
구술
자긴
코라
굿판
기거
저시
제퍼
컨데
효과음
개인차
높여야
마도사
환호성
아낄
짤릴
쳐다봤
마따나
막연히
볼턴
빈사
에리카
감흥
방전
지남
브레이브
##팔구
심함
아낀
는다니
후각
##샤바
비빌
순도
올가미
종묘
인공강우
뮤즈
착시
겁주
숙원
작문
각별히
##진진
사교육비
Is
자대
천식
진아
퉁명
##제철
향신료
근질
그만둘
창조성
애프터
시금
자를
총칭
##able
네버
막중
진두
자연주의
윤치
일그러진
초일
추호
관병
신박
##사무소
무속
함마
덩굴
문답
미애
상념
##그로
밀린다
주막
변치
추문
도적질
Wii
십중
지리학
네게
변해야
알렌
생긴다는
처서
##블랜드
##독립
갱단
오수
꼿꼿
늘려라
벨리
사간
언짢
균형발전
천연가스
##악단
회중
클리블랜드
무함마드
NM
고동
외박
지점장
꾸벅
미즈키
플레인
일정량
진선미
촌락
효성
데스노트
시스터
귀인
무니
SKY
##인데
스퍼
썰렁
파쇄
석궁
가르키
십중팔구
돌볼
연작
달려서
무서워요
개법
벌컥
한사
뉴타운
함재기
지상군
콜라보레이션
이너
##ron
우스갯
떠받드
노량진
처마
504
약세
##iel
##불이
공공재
아가야
염상
미분양
베아
젖히
조업
##키호테
##정권
방탕
투박
세기말
아세안
날아와
맞아들
빗발
마징가
자오
체육계
빠빠
오션
##색원
버린다고
##따로
챌린저
파안대소
우당
발본색원
김전일
ebs
##변속기
보수주의자
집어던지
돈키호테
##GB
집행부
1894
아구창
FW
##박죽
대자보
왼발
코즈
명지
어쩔려고
공과금
신해
##득점
시험지
뒤죽박죽
까칠
치룰
별세
피카소
경중
돋보
흩어졌
666
참호
가져다가
쇄도
적출
##부영
##야샤
이누야샤
굽혀
예멘
클레오
세이지
만우절
기를
봤었
체이
오버랩
##하우스
##트려
조선조
탐험가
스릴러
독고
친했
##조마
구릉
##젠더
변희재
해묵
이신
말린다
방글라
못생겼
방글라데시
광야
##아비
굳어지
유실
코타로
815
한니발
##웨이트
##세라
넘어왔
스탠다드
개주
악습
터너
##짐승
하늘나라
DMB
fl
놔둘
베티
치바
1890
문충
조마조마
이륙
디펜스
고쳐서
알프스
틀릴
혀서
오븐
겸직
도량
음침
##힙니다
넉넉히
느릿느릿
살찐
강경파
미카엘
피카츄
##ict
스커트
이시다
생리학
시큰
친자
플래닛
초년생
쌀밥
알갱이
지략
##코리아
뒤떨어지
마작
특인
백혈병
AF
풀어내
1916
계십니까
볼링
지롱
탐탁
뒤로
인강
존대
느껴서
우스워
생도
여객선
냈으면
장생
##난방
사이언스
흥미진진
일어날지
는냐
말뜻
오동
관리법
##가르드
부시장
빠가사리
일념
미사키
발성
번트
창씨
미라이
어록
이학
토했
독극
아련
채워야
##테르담
그랴
루드
얼척
치지
면세점
니콜라스
여상규
드레이크
픽셀
걸린다는
나트륨
옷감
정병
부린다
##월일
난다면
여백
장장
허니
아이슬
##세이돈
동급생
반겨
조온
축조
포세이돈
##고시
시험장
POP
##초프
보안관
로빈슨
사에
소포
졸졸
기념품
탯이
##나시
##질팡
누진제
애국지사
방북
쿠퍼
라이브러리
상반신
이항
말랐
머문
토템
역이
잖은
##구구
죽인다고
레터
림프
손책
뜯어보
줄려면
여비
찡찡
스트림
근육질
웃어
애리조
토네이도
도령
올라섰
벌겋
부릅니다
480
아폴론
가용
쿠웨이트
굳어졌
기민
태동
##레우스
람보
알프레드
Gam
결판
먹먹
영분
알바니아
압둘
할멈
흐린
##유포
##성군
사로잡히
포박
차려입
소미
방파
##깨나
선언문
게오르
##브리지
연단
제격
취사
##시키
크리스티나
나다
정감
정품
##해튼
거지꼴
그랜저
경찰대
레퍼
노획
모닥
교배
원체
준대
라던지
반인륜
침상
눈치챘
형질
황도
##사실유포
모닥불
아갈머리
격한
로페
차일드
허위사실유포
##니컬
노쇠
뒷담화
서린
모잘라
우스갯소리
라르
섀끼
추카
사시미
장서
그려졌
주나라
티코
구정물
코걸이
실에
주검
신청자
녹음기
송라이터
야바위
원정대
괴한
우성
오찬
컨퍼런스
강우
동색
로세
케냐
싸이트
접착
염치없
해줍
감촉
비애
##23
그린다
다비
뚫어지
보시
죽어나
사욕
오려
김영란
으믄
##유진
##습니까
낙지
##뜨려야
파우스트
보급품
갈팡질팡
석양
행차
##코니
들여라
기선
건드려서
접견
자나깨나
이빠이
쳐올리
다메
음악회
물씬
특파원
##ern
백선엽
대쉬
저어
마에다
군무
340
불사조
북동쪽
어영부영
아녔
취항
머릿수
고래고래
무빙
압박감
항소심
뒷걸음질
페라리
##관총
##빼미
4500
아카리
보육원
낼름
유소년
풍겨
ERA
왕녀
반원
볼리비아
샤인
때려치우
내보이
일심
아이슬란드
금단
키치
아이패드
영업소
무궁무진
내버리
앙심
에베
용액
흘러들
완제품
쿵쿵
소린데
알래스카
##나갈
이용한
상륙작전
키아
##셔틀
자기편
합일
##포동
##폐기물
건당
서킷
##정대
dna
초판
그리로
알바로
맨해튼
해동
발행인
양천
괴롭힐
긁어
오나라
칸막이
태울
공산품
고춧가루
구시
오장
연방군
맞춘다
콘스탄티노플
##매석
밑거름
매점매석
불면증
##세데스
메르세데스
달랬
축전
지켜온
청주시
민란
선견
테레사
랄프
펄스
##치오
구태여
먹물
출원
포승
대비책
변별
소도시
IV
마커
약주
내려도
순자
신참
인솔
##꾸기
##죽순
가우
상놈
수증기
마음놓
뚝심
비스듬히
급해
동그라
시류
실랑이
휘저
흑화
우후죽순
재조명
깝죽
맨손
불철
스쳤
골동품
굴릴
산파
##단결
동작구
문중
직선제
대궐
##장소
기품
리시
아돌프
판다는
건설업
고서라도
스코프
꼼짝없이
정공
조응
끌어내릴
여섯째
Ser
지켜준
엄히
오드
콧방귀
연두
다녀와서
역기
현진
칠푼
중론
커져서
##박산
빵셔틀
샤르
파토
헤로
시황제
에일리언
꿀리
갈비뼈
고품
배격
진데
풀려났
적수
지배력
몸뚱아리
사경
순번
파랗
영자
참고인
안식일
골리앗
내과
리오스
어거
원안
히노
갔으나
살린다
##중지
##디푸스
##링턴
오이디푸스
재검토
라딘
대림동
실각
벽지
열량
존망
놀러갔
리허
민회
문상
들어먹
pl
격자
##각색
노년층
남대
뜯겨
봉창
불미
복속
사절단
반해서
해일
핵폐기물
동년배
부연
바르샤바
면할
실수요
소환제
건너간
나침반
레이나
박도
시공사
고창
서프
EZ
황해
감사히
노땅
미년
##up
편집국
월호
##집행
엄지손가락
명주
미온
야산
카즈마
들뜬
모체
##푸라기
금천
수의사
생겨난다
못할까
관찰사
동명이인
교지
##브스
도안
차오
##취업
##스토이
올빼미
##학생회
마모루
샐러리맨
끽소리
은거
톨스토이
##스름
##aster
하드코어
거뜬
백일
만수
재소
로마자
키퍼
마라는
떠오를
만신창이
피파
##스티누스
조수석
이월
흠칫
때려죽이
공신력
괴짜
두더지
문달
보리스
엘렌
총학생회
바닷속
군의
부고
석이
매수인
헐리우드
악다
옐로
막힘
가메
소학교
힘겨
접대부
자화상
움켜잡
히코
느냐며
마사키
철구
미성숙
수도권
나찌
반어
무서운가
권모
무에
타오
사멸
##나카
##옵니까
대항해
해부학
슬라브
직업인
##상간
해설자
PB
큼직
학술지
백범
카리브
숫가락
Super
희수
나탈
모피
헛점
먹통
버트
호우
근친상간
부결
석권
오갈
침수
요는
고흐
문집
왜란
외유
조력
심호흡
다가갈
SCP
국권
깨워
라더
억측
철기
넘어졌
치프
개간
차태현
판이
솟아오르
저학년
부감
자경
수익금
견습
문안
빈둥
호법
##펜하
단일팀
아반떼
국무부
트랜스젠더
백해
신경전
라냐
조종당
카구라
처제
체르노
##성사
홍진호
하려
채점
텀블러
벌주
자던
수행원
차례차례
칭한다
자소
코스모스
푸하하하
돌대
산기
장준
중신
레이다
나흘
로트
이크
비껴
카펫
승부차기
비와
퍼뜨렸
뒤집혀
미네소
둔감
부다
문벌
소희
치타
국전
평탄
츠바사
혈전
It
##이프
##포타
경륜
깨부수
꾸러미
인겨
맞섰
빚쟁이
죽치
##ool
성인군자
원제
대전광역시
외장
피비
환사
해줄께
리벤
아시아인
당구
이혜
기록부
주먹구구
잖나
ICBM
계룡
플래티
빈번히
엥겔
카트리
보인다면
플래티넘
ce
최빈
##바둥
부산물
마셔라
걸어도
은평
따분
휴머니즘
조반
##둥바둥
국가주의
소매치기
트루먼
얼간이
##산동
사라졌으면
##상정
서민층
at
전말
친딸
##브이
자유로이
구원자
비박
촉각
##스부르크
고승
될려고
우군
뛰쳐나가
꽃밭
너비
산거
야성
##바드
버틴다
메소포타
메소포타미아
떨려
생식기
자못
호노
프라이즈
전소
조셉
심장병
옥살
주종
지켜줘야
어물쩡
##저쩌구
##땡이
문외
코란
항공편
묻힐
수비진
##너드
레퍼토리
검기
유달리
종단
바주카
쓰라
문화재청
동심
윤동
지브
도일
고마웠
뿔뿔이
##소송
##45
깔아
일렬
제패
커비
커다랗
절레
주운
담배꽁
##동사
건넌
성안
클수록
트렉
##무쌍
추적자
도외
팻말
뒷다리
저버린
포이
날아왔
이율배
저고리
다닥다닥
감마
끊어진
최경환
고된
옮겨라
한림
조선업
경공
밀반
보잘것없
우표
출하
자연사
Mr
아레스
알짜
샤크
##요리
검법
명운
대웅
래나
베로
뻐꾸기
##클레
##글거리
용호
임명권자
끌어들인
악다구니
귀싸대기
업신
유라시아
광교
치미
정읍
토오루
사이좋
몸서리
진달
군상
바이트
##동설
구들
단강
다아
방임
뻥끗
재보
어쩌구저쩌구
LCK
제품군
살펴야
루돌프
정육
박용진
극작가
Top
불자
서가
초짜
김옥균
도올
밤길
이종걸
얼버무리
지와
콘티
합참
##ye
묵향
왜소
##28
두루마리
경무
소노
니콜라이
후두
라면서요
꼬였
잔업
정독
조직력
Ge
협력자
이니셜
개마
##다귀
##태격
마르틴
자장면
화룡
극단주의
외벌
데스티니
MLB
시러
남서쪽
늘어선
등기부
티격태격
미심쩍
호중
혁명군
숨겨둔
날까봐
몰아쉬
연장자
골반
소강
치국
비이성
되뇌
##틱스
미니언
비옥
유천
##봉사
옷깃
스니
화엄
##팔찌
보약
아흐
위즈
작아
펼친다
결정체
작업실
피도
담배꽁초
울먹이
##도스
리차드
지부장
동그라미
띄운
야곱
종친
부르짓
태그팀
내구력
조승
행주
황운하
무너뜨린
배달원
율곡
##합중국
대손
테루
네네
탈의
매상
하모니
흠결
묶이
힘찬
한량
공화정
주간지
끝자락
무르익
만석
호신
##사귀
##자살
어쩔래
다트
##노미야
마포구
지게
독극물
시한폭탄
응모
잎사귀
삼바
칠까
##테우스
사기꾼
##atch
철벽
넘긴다
암스
대합
미란
이코
쟁쟁
제위
컨벤
##우뚱
##팬지
성취감
답례
흉물
##예술
인용문
물개
정론
가나안
스타트업
대참사
쓰려
국빈
##버니
포식자
강추
삼중
옛부터
옳바른
접어든
옹호자
Korea
가림
질럿
차일
베네딕
입소문
##만만
장로교
##orts
노정
엄습
장로회
자애
호치
##프로
##제도
동업
히포
찌푸렸
다이스케
요구사항
동원령
##out
준법
려니까
##느러미
맘놓
nd
눈물겹
CA
위도
이홍
능구렁이
목화
책망
지율
##페서
체르노빌
켄트
##다간
짜집기
YS
마그마
오매
운동회
귓속
개척자
못가
문교
오웬
##apan
엉엉
전인
주먹질
관서
향락
회합
##EX
개나리
군세
항암제
만질
못난이
빨아들이
개강
쿠파
방사성
부딪혔
마일리지
기염
대양
로드리
남겨둔
귀천
근세
성단
##하복
스와프
노루
건너온
즐겨라
##에이션
##코딩
한국전력
대조표
##정보부
쏠려
침팬지
식칼
오리콘
RB
나데
##뜨기
관보
파스타
프롬
상명하복
자학
주권자
##반장
RO
피부과
기엔
##놀드
행사장
잔디밭
엄니
밀릴
어련
기다란
내리치
1898
지킨다고
귀감
막노동
비실
살린다고
유림
유채
가만이
비싼데
남베트남
길잡이
화환
김준호
진취
홈구장
##키오
조선왕조실록
일가견
청담
부산시
끊겨
나전
본과
탈진
모조
파렴치범
곤봉
서드
##제프
거져
사창
실연
해두
맹장
메꿔
멸족
백상
불살
KS
특활
카르타고
오야
하야토
랜디
석탑
바꿈
인임
랜딩
이율배반
Mi
박보
기어다니
해밀턴
동수
뻘건
##러울
치료사
위로금
리지
속칭
의용
홀수
##탕스
웬만큼
레지스탕스
부추겨서
어려워진다
키프
정은경
펼쳐진다
미도
짤방
풍비
컨벤션
삐걱
매가
박승
보헤
총동원령
Gu
씻겨
맡겨라
적료
총열
##IR
종아리
팀워크
낙방
미판
불치병
혼미
가평
##net
모른단
크로노스
직격탄
사무국
테러리즘
지푸라기
알리바이
아닌지요
꾸중
이판국
부팅
양형
꺼졌
이븐
영월
당직자
병조
현빈
피지배
병무청
박창
하가
Pv
개년
정맥
QR
다죠
얕잡
256
줄여도
혼례
행해졌
마를
사사키
장차관
광채
층위
##안간
작품상
시누이
스크랩
부령
캔버스
하렘
권선
버클리
##감사
뿌리깊
중견수
김덕
리젠
혼용
볼셰비키
아물
일변
뇌세포
시한부
극비
꿰매
아니할
넘나드
반다이
타치바나
내려놔
바사
별안간
헬라
가져서
중앙정보부
해줘서
노사모
꼬셔서
문짝
헤메
토막내
욕해도
무화
잡배
집어던
수송기
향연
후후
##은희
중역
산발
예천
잿더미
##피드
필터링
보름달
메드
사공
음운
탐방
업무상
불굴
지천
키운다
풀려난
파묻혀
민방위
당권
도란
을가
장실
정복자
근데도
승질
지나온
침입자
기울일
통역사
굳어진
카야
##강병
실외
월권
금정
파식
##그램
릭스
식도
##네요
깜빡이
부국강병
섀도
수금
##고물
CO
Up
광전사
없인
적산
친교
행동력
카이로
생후
신경증
다뤘
칼부림
코일
##농사
##당토
제구
임태훈
양재
페르디
개인사
정해야
헤르메스
알현
갸우뚱
봉수
지반
##yc
##토당토
PM
속고
한낮
갑상
얼토당토
피해갈
눈꺼풀
남정
지드
레베카
중간고사
부스러기
압제
인면
황금빛
런닝맨
애지중지
괘변
살랑
저스틴
Team
야영
오뚜기
조심히
면장
소운
슬러
팰리스
페라
##비안
산다면
아나스타
전치
뒤바뀌
용석
카도
현악
대절
밀레니엄
극구
낙담
담백
라요
접합
송파구
줄리엣
입항
욕함
정영
전임자
해맑
다원주의
대식
엇갈리
똥값
풍류
##저지
합쳐진
용인시
굴림
당진
에테르
품성
두려울
정신과
태어났으면
우시
줍니까
직렬
가비
과징
카다
권위자
으셨어요
역전승
약해졌
니티
룰루
티탄
퍼뜩
헤더
콘테스트
빈스
서든
써니
피스트
엘리엇
원한다고
성곽
올곧
태평성대
KA
곱씹
요세
내말이
동적
엽서
누진세
싱글벙
모실
차우
##마이트
아류
주소지
활약상
대역죄
봐주지
여분
##정부지
행정력
하시모토
불붙
옳다
윤규
동북아시아
드라고
맥시
사마귀
영유권
전횡
##메이트
선봉장
친밀감
맨몸
메두사
##지방
괴질
시건
천정부지
닛폰
수풀
간음
넘쳤
배팅
행했
야밤
얕보
데뷔작
노코
미혹
간대
삿대
청소년기
최빈국
Em
미정
천태
이사벨
길쭉
분권
카무이
순삭
못해도
쌈질
터프
창조자
달마
등원
문지기
KR
우애
대행사
상감
파나마
전투복
깁스
염력
홀라
출장소
올꺼
지이
##네다
4050
우월성
감량
삭스
카오리
코러스
힘썼
이상민
둥그
옥탑
필립스
셀카
Black
SG
포트리스
심령
##대상
클로버
미식축구
구룡
벤트
부서져
스프레이
DHC
공돌이
살충제
##러서
##통행
탈선
혈족
부정행위
냉정히
명당
몽롱
점막
내보낼
이뤄질
범퍼
부추키
##걸레
##쿠로
고쿠
제이드
럭비
면밀
문지르
##잖아요
준다며
기어오르
청사진
드미
포위망
찰떡
퍼블
성탄
자양
고지식
나도
폐수
이상주의
는다면서
폐가
네프
영전
외구
##허전
키움
##IL
번건
슬럼프
군신
부대장
행해진
김구라
남동쪽
청송
사실주의
날려서
살점
왕도
몬트리
몬트리올
옮긴다
덤불
습도
잉어
다요
묘역
Ver
하두
공증
숨죽이
농민군
감속
##순위
오진
##얼거리
돌팔이
똥내
임창
창창
##yn
##불허전
##계약
비탄
생이
을려나
휘두를
공복
김석
진언
명불허전
수신제
GPS
노림
해골바가지
앙드레
##메시스
다이너마이트
쿠시
개긴
능사
전목사
컨버
캡콤
##위생
근엄
또박
310
아우구스티누스
소구
페미나
512
Par
극형
##소싱
##팔방
어루만지
쓴맛
##치레
##펴락
윤택
동서양
강병
박항
##지근
전통문화
Good
아웃소싱
부추긴
As
결격
윗집
##테르부르크
네이밍
DR
다비드
호이
지휘부
싱글벙글
망라
원혼
주홍
시작점
승부조작
엔지니어링
베버
윤정
출품
##락펴락
너그러운
드넓
병리학
스투
쥐락펴락
대드
풀백
##zz
##나비
맨발
번졌
카가
끓인
새대가리
##시위
포장지
도적놈
이뤄지고
한명숙
코토
151
당할지
BD
근시안
일률
홍가
럼블
명망
##ual
516
먹구름
원탑
원시인
북침
분다
휩싸였
렌트카
PER
될걸
노른
주네
##노자
데일
##네시
##냥이
디젤차
값싸
배불
다이노스
웨스턴
철갑탄
리허설
무직
최루탄
라로
세레나
##복동
길길이
재경
코브라
그린벨트
울창
넘겨서
구심점
돼버렸
레디
공용어
정형외과
빼어난
잘렸
움직여서
밴쿠버
비슷비슷
엑스포
빠뜨린
상복
##fr
마조
크리에이터
SV
영과
칙령
혈육
미우라
염라대왕
키사
일축
령도
불패
은가요
사문
장민
지류
황보
##느질
의당
뼈아픈
검지
더치
암탉
심한데
모반
치룬
치켜들
놓아두
꽃놀이
나란
괴로웠
고강
가임
바드
비숍
요거
저변
합금
창업주
장모님
옥사
지껄인
과대평가
EA
골탕
낸다면
얄미
요강
##나타
##리아스
북대
암약
암행
휘몰
bj
처소
혼선
##방네
전립
##좌석
동네방네
주무시
응원가
기념물
애무
레티
##요환
AE
정철
##디우스
박항서
방위군
포상금
Mag
개운
득시
똥차
키무라
##토끼
##팔이
종인
##어난다
통이
밀어준
맞기
불량품
개코
임했
간나
고주
쇠락
돌아다닌다
송영길
서막
위크
저촉
쳐야지
##도사
상설
##au
곤욕
한유
혐이다
요긴
철근
정치사
휘어
##니클
##혜진
개아
일합
gp
조도
지언정
홈플러스
시의
이트
뜨끔
부의장
에디터
Time
당인
자망
한서
회선
엄청날
개발비
패티
##99
합리주의
고은
증이
빠져나온
RP
일망
초호
타니
주워들
난립
일만
##승지
이재민
뉴저지
조모
친동생
켈트
수송선
##방관
노략
멍석
요요
교보
딴판
지닐
선발전
신대륙
FF
외벽
요도
공의
구어
드높
파천
수술실
복당
임요환
##cc
연습장
관절염
입헌
격납
스리랑카
##급부
흠모
##EE
밀려났
두꺼워
감화
심근
연대장
돌려보냈
방불
폰트
##로움
##회계
부드러워
##사우루스
전여
하코
무언계
결의안
타시
모셔야
팔아넘기
끈적
칠판
##고쿠
일어선
발아
##슐리
머리띠
수수방관
윤창
이탈리아어
방기
예체
##젤로
물러섰
만주국
내무부
예체능
휴게실
우글거리
am
갈려면
로직
엘베
죽도
제퍼슨
억수
##연금
식민주의
원위치
##앗이
반대급부
GTX
오솔
솟구치
김범
해할
핸디
군의관
성황
훤하
강지환
딸려서
사방팔방
광주시
황금기
묵비
시빌
젖가슴
말조심
##주야
##산역
다녀간
지그시
되새겨
티오
전염성
해리슨
사직서
육중
입맞춤
조선공산당
방관자
인벤토리
뒷자리
과수원
극기
항고
에너지원
백호
별빛
스도
원희룡
한센병
갑주
개거
미합중국
공중전
잔금
기울었
버릴라
PL
단칼
형부
141
산중
쏴라
##입시다
먹여야
뛰어내려
치러진
과징금
지현
치달
패해
##선열
함부르크
자만심
And
공녀
성시
연병
오갔
현감
##칼라
불철주야
El
상추
##24
경부선
넙죽
친다는
하달
서글픈
케임브리지
볼품
김종국
경증
될려면
변속기
cl
가랭이
증거보
이재웅
미라클
영종
푸아
##닥다리
거려서
그라고
동업자
문고리
맹인
비욘
경전철
창호
##히사
당한다는
중성자
단전
지참
패가
##즐리
naver
먹여서
열화
참기름
이름난
더럽혀
선덕
독서실
수그러
증류
아이리
한데도
이지만
쓰러뜨린
진노
##러진다
가르시아
현지인
PVP
프록
##33
##사건
업신여
탱자
##망신
문제집
한계점
클로즈업
난잡
진의
이동한
신간
좁히
##가죽
##KA
프랑코
떨쳤
부왕
재정부
가상현실
바시
품앗이
서기관
##저드
따로따로
경배
냉큼
동공
으쌰
칠려고
급체포
남음
직경
저격총
표제어
네온
성결
유황
DMZ
오솔길
완력
컬트
##절레
##착륙
주둔지
동그란
삼일
숙적
개씹
훔쳐서
##반짝
타고나
TT
군포
판세
행동거지
진작에
절레절레
접경
##괭이
오마주
시파
옷가지
출판물
So
##비츠
승냥이
##길래
회의장
스펜서
돋우
수병
셀레
신태
신승
반짝반짝
TN
vip
조석
포도당
고담
##대전
섣부른
달갑
만악
ai
꺼림
팩토리
##돈나
되새기
돈돈
일루
작은
프리스트
넘버원
스카프
합쳐져
차이나타운
악평
드라군
Kn
##탱크
사라져서
도네
마쇼
침례
love
배달부
아방궁
프리즈
영남대
거유
삼족
131
미스코리아
물어본다
BT
전모
해본
근저당
실격
힘센
아놀드
버마
암벽
되짚
애송이
일순간
인회
찻집
어쩐다
패가망신
id
각박
준호
헛소문
빌렸
호각
조선어
만든다는
강약
자개
파블로
소론
영덕
객사
재방송
지회
돌아볼
Comp
계백
##누리
수취
쏘아대
초면
##하키
국민연금
대동강
가마니
석화
##백산
신호탄
음압
계급장
불꽃놀이
격정
수신자
반가워
직언
알려줘야
출근길
민트
위그
##들러
알아챈
초교
완충
파마
##노이
정몽주
반야
차로
편치
타케시
조미료
강준
베푼
총생
##son
##다이스
낙랑
데프
뱅가드
법질서
##메이션
번역가
역이용
레그
플레이트
부우
숙달
길이길이
알라딘
도제
떡칠
시럽
대문짝
참관인
노욕
헬로
##불교
굴러다니
권성동
올림피아
저금리
TE
##사진
##추세
##플린
생긴다면
Rev
정수리
거수기
으름장
아녜
피우진
메마른
향할
스타팅
뻔했
다이어
업장
##토모
내편이
동창회
시치미
수틀리
암암리
교섭단체
착잡
##봉지
미츠루
읍소
##모델
려구요
오묘
##붕어
사망률
들여온
bb
무왕
##inal
노처녀
각시
멈칫
연지
현아
언론계
통행료
참판
##무익
뒤통수치
홍정욱
결기
박전
쉬운데
째려
휘장
상층부
외다
인시
##상각
##껍질
구속영장
길렀
회랑
문화방송
는대도
좌경
찡그리
피보험자
클러스터
클로드
##호도
현실주의
신춘
렌지
원술
여의치
가쿠
공책
괴도
빌릴
판관
국산품
소치
지껄일
총량
진달래
DO
들먹거리
되살려
셀러
셔먼
끌기
역삼
입회
클레멘
XP
웅성
우수수
주접떨
복고
손끝
켄타
현생
마운틴
생겨날
Gen
맡긴다
점장
갑오
당적
공정위
##구먼
AMD
퉤퉤퉤
생긴다고
문패
참상
명성황후
발렌시아
욕질
합한
John
덩크
래서
맞대결
붐비
##하게
##ings
진술서
##더리
뤠기
오뎅
호언
모니카
여제
잠옷
밟히
양기
##테니
급료
문조
산체
외진
장바구니
전번
스테판
##씀이
논한
싸매
침소
##민정음
됐으나
압송
큰형
##참배
수미
저만치
구속력
보내왔
EMP
잇따라
조강
주렁
협주곡
##결백
##CE
##우라
박민
본교
지서
이제동
김예령
일몰
히타
한가득
지퍼
질긴
도합
씀씀이
##신보
우즈베키스탄
1903
모성애
김봉
인테르
IG
산간
속공
쾌거
산업단지
재이니
십계
단아
발코니
임계
월트
훈민정음
일주일
방망
서강대
신이치
##명령
공사비
을라나
다닙니다
기네스북
Per
미타
분절
##규어
봉변
좀벌레
신사참배
붕어빵
백해무익
라캉
촌스럽
노우
응접
화평
##날레
주방장
뒤틀린
권혁
##사판
##대신
##ICE
놀릴
민들레
렀을
해버릴
PG
정통성
감가상각
도급
야요
야릇
주워먹
소프
김재원
미네소타
양성소
나마나
서스펜
##산면
딱한
##edia
스푼
특근
##고개
콘스탄티
과묵
##직고
마크롱
저당권
저울질
종착역
단통
삭막
쫄따구
HE
겁탈
눈짓
주우
시엘
시더
##렌스
가스통
는갑다
됨됨
루가
##ner
실수요자
서예
넘어설
감옥살이
갈피
이실직고
학수
샤아
겸허히
블룸버그
동주
메테오
미담
보낸다는
놀부
랑가
척박
마음고생
푸시
번역본
손잡고
노르망
재작년
홀라당
UM
멋져요
분전
상속인
진두지휘
박순
헤어져
짭짤
##루야
알린다
오상
해롭
고소장
끌어오
궐기
뜨리
살갗
안상
제방
##포폴
프로포폴
비천
세후
체이스
경험담
분만
카에
##스트리트
게이밍
여중생
MO
동위
사냥터
감회
진인
스타인
다름없이
돌아간다는
나뒹
디에고
불모
했어요
공멸
뒷거래
순무
작명
##지먼트
##복걸
매니지먼트
길러야
극빈
증표
납세자
물병
아람
##텍처
이해도
독립국
아키텍처
박현
좁쌀
애걸복걸
낀다
준동
통재
##탄불
두려워했
선거관리
궁금해하
재택근무
선거관리위원회
내모
떡고물
읍니까
놔둔
보릿
##동산
바락
참의
천호
가까워졌
출당
국민주
에반스
초일류
베다
화순
황하
놀렸
미각
파지
치켜세우
중국집
후발
거주민
공청회
아종
오구
처닫
화살표
이긴다고
진분
##십시오
뒷좌석
부주
일륜
Ag
ER
급성
조졌
허정
수행평가
평안도
지려
한파
##방군
나루호도
신형
유발자
일깨우
다도
위업
젠틀
해봐야
두만강
멀린
어비스
인즈
재규어
한옥
흐느끼
강신
린이
가업
회당
구석기
늦장
더러우
이스탄불
멈춘다
경구
부네
청교도
정상급
기막히
떠먹
서러운
얼추
오드리
적인
풀타임
##alk
혼재
##신기
##돌림
세이부
야고
##스틱
도망친다
끼어드
비웠
롯데월드
내친
휘어잡
육안
금지안
충과
송정
유빈
굴려서
폐족
거래세
어울렸
트레인
도랑
온순
명예직
Dream
건국대
김두관
다다랐
프로테스탄
금관
인육
##여름
##쁩니다
김종서
장검
부딪쳤
잡아들여
덮친
메츠
한디
크레이지
최단
논제
우디
쿠루
##도장
##선생
따라온
장난기
들이미
줄서기
반정
산봉
안톤
유종
비잔틴
아토피
가뿐
결선
넌지
시프
밀짚
제니퍼
건과
끌어올려
DT
숨어들
만드신
류지
소지품
민비
여드름
역내
요나
뇌졸중
광광
높여서
참다
시영
풍문
버린다면
결연
용적
윽박지르
서역
수액
사쿠라이
##려요
홀린
뒤집힌
거구
여종
개머리
면직
오다리
##바인
오른발
곤장
우직
익힐
촌구석
바이올렛
어허
용시
유표
절대자
##ivers
발랐
실성
관리직
안시
어귀
##렐루야
##슬로바키아
외무성
허고
##ton
##원장
찾아간다
체코슬로바키아
명장면
굉음
디저트
자타
토와
스쿠
##코스터
다스렸
이치카
분한
적외선
낸시
몽키
법도
무전기
아둥바둥
행상
##조약
##그림
합창단
젤다
##거린
높임
롤러코스터
괴성
명도
알츠
표하
##스기
##노래
앤드루
알츠하이머
닥쳤
용건
주례
임대업
영문학
인금
##ater
##리에
지킨다는
떠돌아다니
어메이
실학
오월
정초
##라트
초롱
잠재의식
##딴지
위기관리
파라다이스
도공
위스
총신
속삭임
카탈로그
비린내
케니
##술수
하진
##자국
경제난
사카이
자야
생년월일
##랄라
종이컵
띄어쓰기
만병
뭐한
위트
다더만
덤벼드
Play
오른다는
득실대
연주회
유분수
통제력
##버려
##isc
sky
난파
온정
사사로운
##터카
권모술수
경자
임화
재결합
미망인
뒷방
욕심내
학우
한양대
렌터카
바쳐서
유폐
이서
판넬
##지간
##라르
타카시
도스토
현도
##27
컬럼비아
##오적
결정타
건질
혼탁
##터진
시원시원
얼만지
들려서
인격자
청렴결백
다케시마
방석
올챙이
한길
뒤집어쓴
가십
백전
아이오
사이퍼
수도회
히로부미
건배
PA
htm
을사오적
중등
선술
주루
쪼금
하군
그랬었
오반
의탁
도로공사
데리다
이정권
마코
석조
통구이
허영심
끝맺
##재인
해결사
빼앗길
아궁
스턴트
도넛
잖습니까
빅토리
파헤쳐서
갈치
일렉트
김현철
속기
##타자
##커니
좌석버스
떠벌
상조
스칸
진경
집어치
##ution
무패
##문제
드러워
RAW
그득
등짝
민은
페지
##몽매
나무랄
외쳐라
테레비
건실
제군
##백제
신라면
묻어나
슬립
연륜
받아들여졌
킬링
무지몽매
다곤
요람
이교
##도생
바꾼다고
귀여움
치약
석춘
##데라
낮춰서
겨워
살수
상동
매튜
도망다니
할퀴
##land
아틀라스
한달전
견줄
위암
지석
이등병
헌트
신뢰감
여야만
뭉가가
껴도
등반
방진
빼곡
음산
##나발
부른다고
왜인
홍역
가지런히
넌지시
아누
뉴스룸
비행사
010
290
세손
후견인
가려야
급했
바느질
손쉬
위촉
펠릭스
따시
혐이
와트
##츠카
##각각
그레이엄
어림없
##나티
인도적
시시각각
거들먹거리
병세
##XT
스웨터
수평선
사저
발표회
발명가
주진
요지경
나들이
##ium
##조무사
객차
기실
매서운
청개구리
멈춰서
추축
혐일
넘어진
타쿠미
850
유색
늘어남
주자학
건디
귀재
상우
외견
코퍼
휘둥
##특허
NEW
나나미
전매특허
냐니
차오르
인지상정
시급히
사무장
##마자키
들켜서
우중
훈련장
친근감
본기
아야카
간호조무사
외눈박이
기가
코나미
##이오스
이뤄낸
변용
##테른
##스트리
##강대국
시리우스
각자도생
꿋꿋이
엠파이어
##혐오
자치령
도원
맘먹
번돈
자하
크리스틴
##라드
##더링
지구력
물러설
마동
황기
TA
##조끼
이원론
근신
연거
초강대국
국행
마슈
순대
용접공
조희연
불한
외척
천운
##타파
해안선
료마
수력
품안
##쏘시개
가속도
조리돌림
근위
##레즈
##계산
아서요
카메오
시노부
논외
셰퍼드
##말고
내레이션
수려
내비치
마돈나
형조
백골
모욕감
OPS
덧붙여서
베레
영락없
##레인저
건지요
저작권법
군마
매정
불쏘시개
지노
저런데
끓어오르
Rob
성검
버텨야
신림
제값
##레인지
씌웠
원회
녹색당
Amer
꽂히
시디
힐끔
앞당기
윤보
헬싱
간밤
다와
쓰시마
520
##지명
물리쳤
위계질서
구충제
오감
##성가
##und
강해진다
갑작스러운
가트
얄밉
영면
찍혀서
##추얼
관도
배재
추려
법률가
뺑뺑
번번히
어메이징
##배추
아파요
연장전
대함
우숩
좌중
칼집
난임
시학
인기척
뛰어놀
울상
익살
줄인다
##산리
전경련
오하
욕한다
합성어
노략질
방광
시냇
짜라
카가미
##삼성
보나
화성시
임수경
맛난
블래
그윽
개양
획기적으로
녹스
블랑
절멸
평화주의
새로움
레오나
팔라딘
선불
창병
야구단
고트
도진
물길
요량
캐럴
##톡스
단양
생방
자여
수출국
속아넘어가
놀러가
허탈감
IF
이판사판
우글우
조일
여래
지코
생물학자
줄기세포
정류소
App
속살
어촌
##시울
성충
의롭
컨트리
폐국
아이스하키
덕수
버퍼
카롤
타계
한울
코로나도
ISO
전재
프란치
독학
케익
황새
##초사
인질극
목전
폴로
두리번거리
금붕어
눈시울
지팡
마셔도
불결
치히로
통달
화백
힘든지
송인
쾌유
작업자
깨우쳐
재목
정혜
화투
가톨릭교회
저수지
후타
봣자
유원지
둘러앉
미네르바
입방정
Girl
건졌
앤서니
에지
필수품
일사천리
듀티
연암
Pe
내야수
차릴까
금괴
열반
중서
행안
키리토
사귈
금지령
대니얼
스켈
을런지
##티움
상황판
고려인
자수성가
온게임
옴니
지켜야지
골칫거리
온게임넷
wh
는개
아닌데요
군량미
밑바탕
담아내
분열증
본원
쌍방향
up
레토
새워
접한다
##경궁
이어인
몬하
미니스
개색
논어
푸짐
##워스
##돋움
박형준
TW
담벼락
수트
로미오
함인
##혈증
한중일
담대
서하
칭기즈칸
Tw
구닥다리
사헌
흉하
##들일
사채업자
BA
몰매
예찬
주사기
까네
시프트
지한
질려고
동음
언쟁
카니
##캐슬
일상생활
노심초사
신드롬
##미코
타나카
헛되이
낚아채
올가
##가방
206
불러일으킬
탐닉
##주렁
##두근
맞바
실비아
역전패
충무공
주렁주렁
새장
케이티
##나가와
연역
##레아
왼편
중매
당할까
좌익수
PSP
밋밋
무도회
만리장성
미영
발돋움
서툰
죽을
##라박
생동감
농노
석굴
언동
종지부
##떨이
##여왕
덜렁
호실
##ble
김정민
스포츠카
징그러운
손정
오유
투시
소개팅
나빠진
상한선
미룰
앙코르
장흥
컴파
동물보호
##eth
검수
붙임
퍼런
나츠미
바운드
서행
언성
전상
조선말
중요도
아득히
상현
측천
탈것
##귀비
문드러진
껀가
난제
최서
##모트
물리칠
관료제
크러
시민군
공장장
하이고
붙여야
작센
송곳니
재취업
청진
할부
불쌍히
##관광
자위질
640
colspan
박은
재채기
철인
해주
수북
##파스
동의어
조각가
다그치
인면수
대오
##습기
시험관
주현
노조미
복합체
취약점
대노
지신
가정주부
와일드카드
꼬옥
발칵
##큘럼
대장간
모름지기
하츠네
만지작거리
##전등화
금은
조속
색감
지방세
견인차
머독
쳐죽이
변소
화낼
맞춰져
다구리
떨궈
풍전등화
헌다
흉측
불가침
올라갈수록
무근
직각
조난
##또박
전초
또박또박
삼일절
노르망디
더스트
마공
뱅킹
전투원
##뢰즈
브루노
종중
자유인
집단주의
때려부수
가셔야
응축
친왕
다가와서
어리숙
박찬호
처리장
당첨자
마그네
노보
진희
조직체
젖꼭지
혼령
##개명
보필
본위
뿌옇
섞여서
자우
퇴적
당겼
창녕
##규환
구소련
사헌부
일본제
##수입
당제
자축
폭행죄
1880
주입식
바그다드
커리큘럼
샤먼
영기
정아
주미
크로니클
심청
개사
논다고
성한
슬하
총검
조재범
국내법
시달려
독버섯
두근거리
서론
성창호
아루
하소
마이크로
숨쉬기
맞받
법당
장진
줄타기
법정동
아즈사
올케
포렌
##합성
포렌식
쿠션
내려온다
MBN
찔끔찔
대청소
부렀
티타
흠잡
부추겼
##대부
물리친
생중
211
으려다가
무너뜨릴
네타
드시
활기찬
찔려서
새하얀
브렉
올라탔
다이버
상록
##쭈물
튀어나올
##보레
떨어집니다
힘써야
터뜨린
##진보
국민회
1897
바란다고
오퍼레이터
UAE
냈으며
Out
사또
##사이더
남색
면했
켜져
텐션
따라간
위독
일로
활기차
꿈쩍
세면
오심
1899
##첨단
사피
드리프트
아웃사이더
넘겨야
쯔쯔쯔
노랫소리
무구
유파
방어전
##일랜드
츠카사
총생산
김근
비룡
장롱
##GE
우물쭈물
구미호
다방면
유영철
420
학살자
오라버니
뉴캐슬
역서
안드
최첨단
출입금
이긴다는
인면수심
Night
나방
렸다
빵꾸
계신데
기어들어
경축
칭했
키바
피안
##습관
관광버스
##DX
국수주의
된통
제이스
판과
사치품
게놈
곡괭이
사은
신년사
쉑히
식습관
유현
##카르
겠지만
브리스
어묵
인기몰이
전립선
##29
못할망정
버팀목
아늑
##맘대로
좌상
한다느니
감독원
박장대소
나갑시다
MR
RF
배관
적선
페퍼
편했
결손
말버릇
스멀
제련
##틀링
내시경
마한
어자
옷자락
오르간
하직
빗방울
1860
히토미
창씨개명
사분
유장
최충
들어준
이성애자
닷새
두텁
을란다
비하인드
목구
특훈
##gh
##그라운드
실용주의
카스미
미켈란
뮐러
숙모
양날
주신
카네기
영암
올시다
혜진
만드세요
서술자
관인
세토
차려요
계율
갓길
둥이
보였으며
##홍철
##범벅
상징물
아랫것
케로로
탐나
팟캐스트
떠올린다
금서
나기사
밀매
사회봉사
돌아설
김태호
720
화풍
효수
취임사
시즈카
브래지어
고명
푼다
뇌파
티브이
##건적
취임식
강수량
기차역
펠레
우주인
##카즈
##총사
달려와서
슬라이딩
곡명
성진
려고요
예선전
기뻐할
포승줄
비너스
매사추세
매사추세츠
앞선다
당쟁
데이지
돌격소총
귀납
뛴다
연례
측정기
리원
석실
면박
사해
연옥
이프
김택용
계류
말지
##스타인
블리스
사념
##어져라
하와
##위키
마사무네
클라이맥스
담주
무신론자
강매
글썽
도현
렌스
아니요
만담
지른다
##망울
다리우스
스포트라이트
패미컴
보세
봉사상
합쳐야
남몰래
식자재
정훈
클레임
갈굼
으래
접선
정두
페르디난
동화책
하키
##주춤
리디
돈가스
수화
날아오르
BO
낚이
별건
최고위
불이익
병문
소다
알베르
##이츠
##와르
몰러
욕정
흘려서
순례자
유례없
곡예
성장세
진보라
폭력범
싸워도
경락
양인
외조
인덱스
해칠
싼다
외연
이라던가
노림수
##브레
길들여진
장당
##천년
소만
외쳐야
중랑
드러머
쉐보레
황이
사이오
간극
알람
쟁여
소식통
홍명
##atorn
플라잉
트레버
스팟
짓누르
차크라
과부하
비키니
내려찍
전기톱
유우야
르노삼성
아와
폐병
간행물
응변
최연
##특권
수임료
고저
랬더니
임페리
퇴짜
떨어져라
붙잡힌
앞자리
크림슨
연나라
지에
품속
손뼉
기울어져
시퍼렇
걸고
격동
아꼈
유주
화강
서도
최윤
푸쉬
Season
오목
동치
바크
##사탕
##ky
##ane
마르티
사카모토
임페리얼
노키아
독불
시여
애증
회군
반공주의
휴양지
조무래기
독불장군
보그
오금
김응
시브
##성큼
Chr
거신
입신
철혈
##페어
아프간
병약
불충분
동면
현존재
손쉬운
꼴뚜기
유대감
요상한
전반부
선견지명
교학
합스부르크
후신
나세
썰매
쫄쫄
핑장
쇄국정책
혜화
튼튼히
성큼성큼
랍비
알비
흉년
흥망
초인종
주야
홍범
울진
223
낼까
노발
누우
흥원
혹여나
발육
한신
도굴
보온
짝수
한티
정착지
사마천
이채
인선
정운
청순
##바겐
##대비
##알라
##할시
유명무실
문외한
갇혔
견이
낭자
불온
연류
전현
히터
##저래라
운도
표어
피난처
사온
살날
화음
1901
생태계
이래라저래라
끄러
나앉
조심조심
##부담
감지덕지
동냥
자꾸나
원판결
유경
칸나
##zy
여겨질
##컬레이터
에스컬레이터
면책특권
뒤척
오신
##불가
##기스
##솔리니
리벤지
오버로드
1870
##독스
망가질
미켈란젤로
Har
린드
진호
##PN
김규식
바쁨
웃길
꼬라박
선취
##총액
겉옷
교미
콘도
합해서
해간
홉스
시기상조
시가총액
두령
페티
살펴봐야
강태
상옥
중이
순국선열
응접실
신현
피칭
해자
##래곤
용광로
팬더
##록나
불도저
옥탑방
듭시다
띄워서
래쉬
재동
이정표
지단
##사납
점령지
떼우
헛다리
도로시
백의
웬지
축약
호타
갑상선
라사
레너드
혹한
홀랑
1902
급부상
알약
유형문화재
급할
큰지
##난로
##aby
스탄
급매
부침
살필
식자
캔자스
성미
환청
기름진
끔직
노신
뒈졌
전의
펜듈
나카노
펜듈럼
맹점
술판
양배추
헛간
##타진
산업체
베르그
새천년
##기어
걸어라
공명정대
터트린
코바
##입니까
ATP
개찰구
끄적
식판
입영
한다기
채찍질
다혈
성왕
파피
행복감
몰라보
루트비히
##ike
으려던
명문가
카트라이더
일망타진
구면
만이
미룬
테디
##oper
구색
숨지
개머리판
he
링거
가진다는
증감
큰아버지
클리프
감나무
동장
##트만
단거
다당
싹트
양군
음파
폭식
조슈아
##태평양
깝깝
비닐봉지
서안
보험자
세이프
취침
계시록
직물
들어올렸
가마솥
성수기
리무진
보어
##팔로
뻗치
번역기
분단국가
조고
브라이
티엘
어드밴스
황장엽
Min
랍니까
747
자자손손
네비
비번
징발
##뭉치
가감
임지
첼로
하이트
고문관
화초
문병
외대
종기
##킨슨
235
하르트
중전차
티르
투덜대
메디치
구와
문사
##메드
부러웠
고폭탄
역류
토닥
오클랜드
쫒아가
켤레
연주가
보령
##폴리
##텅구리
감세
우천
광무
멍텅구리
미선
스에
우림
의주
가택
##샤오
노숙자
우글우글
208
따라왔
낄낄대
LNG
계부
아식
##어른
part
남다르
모야
수이
진퇴
##으니까
##딱서니
찔끔찔끔
코이치
기와집
철딱서니
스필버그
배서
석주
순하
육로
문발
실언
태사
금기시
커크
##26
들이키
조그맣
추징금
대내외
밀려난
둔다는
렵니다
아데
왔음
패퇴
불타오르
양제
총영
##실현
버드나무
경애
가정집
코스트코
대유행
산채
스탬
##강식
끝장나
난폭운전
이효리
갈렸
성룡
장윤
하순
연령층
들춰내
굴지
야사
체의
체르
흐를수록
안수
하여간에
뽀록나
태백산
밤늦
사성
붙잡히
도르트
상큼
##드려
##글러
물어봐도
약혼녀
Bar
매킨
총서
파로
헐벗
##곡곡
고학년
다혈질
모인다
백운
비르
차면
털끝
##해방군
##포화
##꼬대
오작
폭설
##등기
인민해방군
모아도
저항군
안타까웠
방방곡곡
서귀
노선도
내연
들뢰즈
인화
초고속
209
대방
역점
은화
흑석
##디나
가슴속
가누
인입
##오피스
장미꽃
솟아나
얀데레
중의원
출병
##유리
투표장
애니메이터
갈라치기
암스테르담
펜실
##노미
편집부
##베이니아
디오니
펜실베이니아
철썩
##ks
아미타불
사들여
짱박혀
떨어질까
지어다
우러나
잠꼬대
위험부담
번쩍이
빌어먹을
새파란
범했
마셔서
하숙집
개점
관능
그려서
바꿔야지
백주
손서
이상향
기울인
법주
솔리드
##da
거문고
기진
##종기
서고
##릅니까
립스틱
나바
느려서
질러대
굳혔
토호
염동
응해
정평
필리프
바삐
우진
일마
치른다
프톨
##쓰듯
##적소
인생관
##레마이오스
프톨레마이오스
기무
근무지
도니
박희
이설
짓궂
가정교육
영애
타미
지킬려고
샘플링
동고
러버
불났
영우
전패
##국사
저지른다
비잔티움
수서
안창호
야구부
남근
물쓰듯
중흥
##트리스
전주시
풍비박산
CI
약제
휩싸이
류성
재벌가
타고났
ed
근소
수놓
Res
낙점
끄덕여
Chong
항해사
비속어
HS
멀미
브렌
호만
폭스바겐
샬롯
질려서
민간단체
팔아넘
##fer
아무쪼록
가득차
실증주의
결박
댈러스
둔다면
만호
면사무소
챙긴다
##육강식
리만큼
약육강식
율리우스
통신부
저걸로
탑승자
Comm
개취
담지
박아
##니언
실패작
나타난다는
경품
설전
우면
방부
심대
쟁의
중병
소음기
치기
키르
2400
연출가
사별
쌈지
지어낸
한사코
군번
선무
뉴스타파
비례제
에니
포경
간략히
마름
밀약
서라도
소절
좌국
초승
판매원
실린더
사계절
전여옥
대필
딜런
##쿠르
낄낄거리
다워
카논
##니트
스플래시
블레이즈
알마
해박
여류
오트
황우
세터
로더
윗물
##여구
은행나무
밤샘
##생명
##즈마
안겨준
남주
안영
졌었
불명확
각안
코자
##보냈
##콜콜
생산품
미사여구
명세서
창법
망설였
제이콥
봉가
##고금
시시콜콜
볼께
쌤통
김용민
뒷수
크리스티안
선역
섭렵
어시
Str
모셔라
개틀링
게일
니어
프로메
빚진
주객
줬었
필명
##히드
발당
Ev
가습기
수메르
##임새
스플릿
과인
##세키
스테인
날인
하중
가난뱅이
세탁소
열병식
불한당
Act
잔데
쿠노
폭력배
소년원
김현수
분대장
바실리
대민
리란
큰절
스테레오
슬로바키아
물레
고소미
부위원장
유복
졸라매
성년자
Fre
눈귀
멸자
티모
하한
지랄병
만만찮
우두커니
각마
예치
텐더
표한다
참의원
터빈
##제트
모기업
템플러
노영민
으깨
##파트라
안전벨트
리세
호연
크리에이
클레오파트라
크리에이티브
동분
퀄컴
쪼개지
유언장
따오
쌓여서
안들
할렐루야
##면제
생길지
##ube
##봅니다
뒤집혔
늑장
명줄
비터
양로
터놓
##VER
이뤄져야
##진보당
백치
어쨌건
대잠
##나서
##이들
대망
성만
지안
만만세
덕성
화친
려는가
아틀란
비교적
손전등
수해
해봅시다
병역면제
병시
##사촌
벌점
중화기
추격전
되팔
로페이
미시마
찔린
방송법
설치류
근대사
붕당
지효
지환
##오버
가독
백도어
대변자
초신
피부병
못났
아르티
막아주
개집
암스트
##보스
국립묘지
천문대
유별나
도타
실래요
from
글래스
감쪽
는다더니
333
단박
당합니다
윤서
##텍스트
김대업
전시관
fe
레프트
버무
부레
##imes
삼총사
아문
토치
김유정
신기록
류자
메밀
죽지
212
대분
버겁
오순
순간순간
반미주의
농사일
서러움
위니
과학고
할인점
프로파간다
꺠문
##Dae
이강철
아녜요
##공원
프랜시스
주먹구구식
화포
##천선
선착장
Life
닌깐
하연
흉부
진법
다이브
문무일
소르
책사
출사
스스럼
내조
장주
2200
쉬워진다
가파르
비쌀
은희
쭝국
펠로
후딱
시켰으니
출연자
동하
성깔
메르시
서양식
번스
##PA
인가라는
사업비
적재적소
훌륭히
사유지
출생지
엥겔스
시화
재료비
톱니바퀴
김춘추
민호
벗어
본서
비류
음대
일견
가짐
갈갈이
여쭤
위드
짱돌
##거슨
생원
재떨이
대구광역시
##리아나
뭉가는
고흥
요사
우야
하디
리포터
마아
종주국
토속
아베를
신기루
무력감
암스트롱
내저
몽환
새삼스레
룩셈
아퍼
움푹
저라
315
드러누워
성례
수간
갈라졌
득표수
사타구니
권좌
탄자
등록세
새겨들
광견병
일렉트릭
일회성
비엔나
놔주
향교
NATO
950
남초
에로스
재간
214
버스비
느껴짐
영업용
패러독스
숱하
드러남
꽂힌
북상
잉카
지나다니
남겨야
범상
빠름
한둘
흠좀
룩셈부르크
흠좀무
로토
마셜
베나
##공단
카즈키
별난
울산광역시
즐거워하
유격대
물어도
사만
수탁
왕릉
호명
선동열
송달
술어
잊혀질
부스럼
주걱
마추
국민대
매도인
부군
바리새
식당가
자그마치
생판
홍종
흘러간
차인데
오르내
은주
깔아뭉개
전봇
히다
선착순
ChongDae
오르막
고지서
달해
내던져
wto
구좌
도하
바도
황녀
##대성
스탠딩
비올
색시
이시카와
전봇대
px
경운
로시
컬링
힘있
돈세
마키아
##이조
최민수
옥타브
광자
SHO
교두
15000
트랙터
뿌린다
신구
우경화
동서고금
레닌주의
숙대
치어리
토굴
데려갈
기호학
그럴만한
Live
진평
황야
##로트
공급량
스켈레
아악
헬리오
널널
말발
영삼
##럭스
암초
1001
더라니
헤드폰
빨강이
프로메테우스
미코
결정자
##ana
우현
진건
떨어뜨릴
수익자
아드리
이징
쟁기
234
과중
속좁
육교
지켜도
전환기
지껄였
높인다
늘린다고
준다니까
채워진
잔상
도와서
구테
센고쿠
도둑맞
가린다
만드셨
##주정
##루엔
축구팀
블루투스
계주
수가
##강아지
더해져
스켈레톤
근자
발식
엇비슷
타타
화공
우상호
색인
천도교
부어서
입바른
카푸
엄청났
담겨져
꼬꼬
성애
국어사전
우익수
벤자
웨스
화정
평신도
북스
북동부
객원
##ger
벗겨서
바짓
해아
##겁니다
밝혀져야
살펴본다
바란다면
어울림
내린다고
소지자
하버드대
깨진다
스메
피차
돌아갑니다
외지인
돋보인다
요제프
리요
문방
##뎅이
그래두
고용인
보디가드
홍문종
상행
암수
치트
##불복
##atorname
##들린
클러치
국선
진골
감리교
포레스트
수리검
법학자
복불복
애꾸
쿼드
냉랭
파사
믿음직
뒷배경
마방
콘트롤
죽인다는
나간다면
바란다는
다자녀
강건
슬럼
잡탕
부영
웰스
중문
출금
##불망
집어쳐
열어
잇따
백룡
양력
수입원
드라마틱
곧이곧
세공
통관
데니
심판대
만발
##갈비
익스트림
발자취
부탁드려요
분광
불입
##모레
감싸안
대합실
그라스
술주정
이맘
재롱
진땀
경탄
국소
의무감
디폴트
청한
무가내
본산
##블랑
의문사
뒷일
문진
트럼
인디애나
봉해졌
뭐요
넘어질
보자기
수일
##중독
다수당
객관화
##아박
조형물
아틀란티스
하쿠
메이슨
몰아부치
바리스타
부토
대리운전
휘둘려
대동단결
아틀레
지모
퍼거슨
알랑
쳐바르
참모습
일리노이
장동민
기댄
손견
가방끈
패권주의
행선지
기어올라
알아차린
##기운
공력
빙구
찬가
##넌트
네메시스
니랑
신예
총파
코지마
학실
지켜낸
예술인
상한가
김병준
남잔
바카
갈라고
버릇없
휩싸인
가위바위
스트레칭
가위바위보
초승달
액트
첨보
일석이조
광폭
납시
207
뚤린
벌어
영계
최현
파직
올라감
스테로이드
의왕
판시
370
여주인
김형오
겨눈
드골
산학
특촬
가요제
경주시
꾀병
무과
박선
번질
전합니다
학제
미소년
잡아끌
옥션
야쿠르트
날라리
무중
반등
월스트리트
바코드
서평
##게일
시부야
교습
메가트론
Will
##탄광
하수도
편향성
하야시
공손히
일렀
좌완
통고
기울어지
강의료
시큰둥
do
외향
화술
그레이스
니야
북인
재로
전곡
페드로
잖아도
마토
약방
홧김
510
사로잡혔
복음주의
요동치
불나방
불거지
옛적
우레
정범
기름기
꼴아박
뻗쳐
지린
노승
명과
박광
##드문
이사야
맥박
##퉁불
행여나
포츠
##ator
다뤄야
수성구
##퉁불퉁
용쓰
직도
##인구
중환자실
아나스타샤
경민
사들인
##글러스
일기토
OR
비보
신당
천룡
박스오피스
백병
강제집행
스피노자
대서양
더글러스
송치
증차
폭약
##지종
안내서
국경선
430
계양
좌의정
##주가리
장고
카세트
꿀벌
상연
이동해
도망간다
회의감
jpg
오승
코비
##dr
생일날
이질감
Fe
볼꺼
##심판
벙긋
놔뒀
울퉁불퉁
기산
동복
코바야시
볼보
잇몸
활달
스파게티
도르트문트
머큐
##자카
치트키
##사유
곧이곧대로
턱주가리
무식쟁이
떨기
알로
군용기
끊어졌
염산
스키장
엘런
일천
빨라졌
건반
학교장
샤이닝
본회의
자유민
이녀
철들
브루나이
내몰리
논해
띄웠
통풍
이런다고
모리배
거둬서
군도
방직
칙칙
속주
##ley
PT
설칠
헌병대
개과천선
유단
다이어리
다단계
러블리
피츠버그
서귀포
봇물
바람둥이
기부자
매끈
철렁
축척
프론티어
호아
##부르
오라클
PO
뱃살
산술
주중
느낀다는
밀크
주모
##확인
미필자
art
서야
일편
##겨치
##미문
띄울
입담
카툰
타케루
아카이브
송수
영채
자코
철통
코니
굴비
점마
진료비
공돈
백화
현인
##35
##테인
기자단
입버릇
전봉
최남
소림사
비드
선데이
응원단
시논
씨네
##iam
##형사
자초지종
명이
제마
##락부
관중석
도화선
궁시
나크
재사
##ham
다임
##어두
와타루
생난리
드문드문
대간
완쾌
제앙
콧대
사고사
각개
쿠도
황해도
융단
조취
아베노
뒤흔드
대환영
목판
뿌려라
장국
##네이
어슬렁거리
Win
시해
헤비급
쏜살
일땐
찌개
퀴벌레
특진
퍼스널
총파업
##매나
플라자
최형
아닌게
도살장
이뻐서
OM
ml
잡일
하복
그럴려면
시오리
전연
브리튼
쳐다볼
도매상
총격전
예수교
전대미문
MRI
고글
머피
양비
##ott
루디
리제
##키스
그만뒀
던디
말려서
베니스
최규
네거리
달수
액상
밝혀냈
관료주의
쓰임새
산자
용케
육탄
##서주
##저냥
바바라
부둥
킴벌리
Ins
카프카
눈여겨보
벤자민
Ke
부림
상산
온리
참나무
##air
캐피탈
니르
##iet
##이야기
구파
참선
추워서
피니시
##어낸
튀어나와서
도이
스캐
피플
##게스
##조화
위한다고
도기
질감
현령
##바바
생활관
청년단
안산시
굳어져
남영
동과
민물
net
명숙
서천
예법
타진
패럴
깐깐
네기
소기
무안타
낙오자
감겨
##way
##세웠
깝치지
MTV
목도리
##물산
돌격대
CGV
밀짚모자
독대
둔기
수대
지다
##기침
안식처
서핑
아배
김상교
격납고
블로킹
소제
아비규환
오피셜
걸출
김하
끄트
보톡스
슬라이더
##을성
나빠질
엘러리
팔랑
쳐다본다
##예프스키
건널목
뫼비우스
치맛
##irst
경적
웬디
반대표
RT
탈루
표독
제주특별
통지서
##자치도
제주특별자치도
산뜻
소머리
춘절
인텔리
아오지탄광
금도
백석
율리
임파
##소설
한국지부
후지와라
왼손잡이
안내문
연거푸
FR
비안
새턴
하행
##사위
쏟아질
홍석현
발터
생지옥
친자식
##난만
내려치
이동식
즉위식
TG
광인
뺏길
증정
투석
생각난
장충
나아간다
MIT
참을성
투숙
돌려도
반송
##개비
는다거나
레논
##겨울
청국장
목적물
연해주
흥부
나오미
노무라
큰일날
더기
##IX
기암
들으려고
의결권
래디
어둑
인편
전화벨
당했으며
방사장
오매불망
ip
봉고
선실
심란
죄이
캐쉬
##정변
블로거
조물주
백웅
산장
영민
끄트머리
지는
윤가
트란
타이르
단란
마빡
스펀
조안
팽이
돌아간다고
김효
말갈
박시
발주자
무학
베르트
조깅
기백
##통치
먼지털이
소리쳐
예술품
온당
해군기지
어두웠
네년
조군
쥑이
의정서
랏다
퍼플
간다는데
달고
##방아
임금제
그렉
에마
##트르
그렁
역마
장력
천진난만
훈도
그냥저냥
Pre
식신
초지
찜질방
내리쳤
제이미
졸로
부도나
째려보
HG
강소
대번
대백
델리
쥬라기
가슴팍
끌어들였
제껴
홀연히
하이브
신식
회한
재봉틀
알차
은자
허송
현판
할당제
##루미나티
동분서주
일루미나티
패주
카우보이
디스코
플라워
##데리
##개미
MV
강시
##바흐
##평균
기술직
##ms
망가뜨려
제철소
아르테미스
갈레
벌목
적잖이
삼합
용문
이매
세대주
윤치호
찢어질
허수
뒤끝
rd
백자
천기
가졌으며
계집년
각급
구부리
마즈
병가
1550
안도감
이마니
푸딩
##ATT
갈까요
싱크로
현석
테이저
두서
따갑
워스
시아파
서임
총상
##갈라
사업소
이발소
에로게
굴렸
모루
걸으며
메롱
발레단
애처롭
퇴마
##니크
태양신
##stem
시지
집적
칼뱅
##inc
기독교도
히야
번호표
마커스
반상
외곡
피어스
##gr
나타남
일람
잡지사
나리타
반했
저우
헤븐
##96
##urn
복서
북북
오소
이심
고고학자
권양
티라노
클리닉
뒤섞인
부직
펩시
##모양
215
커맨더
남도
라돈
수자
파다
홍콩인
망구
##ony
마츠모토
오우거
사약
시추
키미
##가을
##피디아
크리드
갈고
새터
배틀필드
나당
속전
보이드
상호주의
통솔력
욕보
##화원
흐트러
양구
첫해
초입
독립선언
지우개
반자동
노안
##코스트
##남북
위키피디아
신스
##처제
미친다는
새터민
배너
상등
##고대
ap
뗏목
왕왕
##간히
느낀다고
만주족
봉신
할지언정
수소문
됨됨이
목련
태상
최민희
십계명
금마
밝힘
우거진
원어민
됩시다
폐륜
삼성물산
진보당
카에데
NBC
민권
카스티
태진
구속감
태어난다
박석
황진
단정지
개때
정량
시덥잖
머큐리
황금색
유인원
개욕
개피
승합
첫발
아나톨
FX
##프리트
미나토
녹지
정안
##수도
아닌지라
동두
디어
최동
함석
##니지
##장각
하이테크
아스타
엘사
##무르
프로펠러
IIDX
마려
무쇠
암투
연아
털보
##함수
##ata
선보인다
덕담
최원
카시오
이루어진다는
기뻐서
섬겨
식겁
충공
횡행
##코더
정심
진명
핀다
올린다는
Of
프리스
밀어붙여
고역
료코
사구
웍스
직제
동서남북
마지노
bts
비쳤
조적
폭압
국과수
중경
풍긴다
##34
올려다
지녀야
냉방
특무
돌아감
로데
##구녕
##uss
쓰여졌
갈릴레오
박진영
가름
신우
장직
##hn
바이마르
XY
번진
임명장
일어난다는
타츠야
개새끼
넓적
촞불
대조영
Heart
무치
저질러서
한탄스럽
극진히
뒤로하
그럴듯하게
나츠키
몬지
무솔리니
슈미트
쳐줄
글렌
깜박이
소거
풍월
보여집니다
와서야
훈련병
김태균
끌어올렸
말초
문질러
부교
삼양
실까요
자승
환골
리플렉
도스토예프스키
BP
국조
금포
꾸밀
비구니
생겼으면
고마울
아랫배
어간
정남
청치
모여라
아우구스
귀기울이
복병
차상
영화상
전략가
돌려줄
탈출구
WAR
미첼
쉐이
##우옌
준다니
블래스트
무대책
##ERO
걱정거리
보더
옥이
##ke
Pol
노도
봉헌
모멸감
해학
빠져드
인피니트
##퍼트
프리킥
##산군
알아챘
사형제도
부석
심볼
양명
후송
금메달리스트
##차대
개천지
무미
생트
540
출구조사
프로테스탄트
ne
씨익
회복력
돌팔매질
중정
해공
난리난
어이쿠
남한산성
펼쳐질
731
앰프
주저리
진풍
기형아
301
알아본다
소독약
학수고대
메트
착상
커야
국제선
부러져
워크숍
Mod
강석
무반
위문
하루살이
깨져야
재가동
두드러진다
1889
보여줘라
WE
끝마
버팔로
심폐
##코모리
박상기
게이버
기녀
보군
##플로
크로스오버
벼슬아치
해코지
##파시
구급대
들른
들쳐
##투수
##맞이
아랍인
조총련
히키코모리
뇌격
분말
암자
한승
얽매여
암말도
맛본
##쉬르
고대인
##검찰청
망막
양원
##가랑이
전해라
랠리
보관소
브론즈
넘친
던대
발도
신석기
대검찰청
화학자
샌드백
센트리
스핑
귀고리
김좌
복습
예천군
전언
비대위
오른편
##가분
##로니아
국모
꽥꽥
낮술
오디세우스
알려서
물고문
대별
덧없
로어
베야
##진데
##노기
새벽녘
유비트
호노카
가벼움
안성맞춤
구직자
들고
본이
사루
오발
바짓가랑이
꾸밈
만전
점토
호탕
사토시
개벽
차사
몽니
##카메라
몰아낼
탐험대
##타령
중심가
동방신기
선선
전출
체액
드래그
매매혼
질식사
사파이어
##자위대
##수소
새파랗
각설
괴기
땅크
명군
임프
너트
뭉실
어덯
온의
중차대
혜린
##가야
의미론
주제가
송강호
마레
동북공정
북아일랜드
Max
255
테마파크
지침서
지주회사
갖다
법부
철야
깨끗히
서일본
약값
할라면
##섬유
덮쳤
지척
브라만
경로당
뒤덮인
미화원
무원
뺀질
사들였
참외
청양
퓨어
##동맹
MHz
해봐요
감탄사
노른자
Rec
색조
써져
약효
짖밟
번듯
서라
뇌수
등식
멋모르
은행장
들이켰
붕가
상극
황성
살릴려고
쇼트트랙
대죄
덤핑
질끈
##ARD
겹겹
유작
##국민
호치민
록펠러
생산지
마리사
뼈다귀
USA
내맘대로
묻어두
##ubl
겡이
풀려서
디오니소스
민준
자족
##부키
여름날
비빔밥
##브론
업신여기
가엽
냉대
좌경화
보내온
감자탕
탐사선
탕평
히이
피비린내
장희
##성경
##말리
증가량
수입품
맥스웰
요시미
Ele
예종
들을
미유
커널
나오키
오카다
과녁
사학자
##니꽈
청년회
흔들려
선발투수
##용수
자라난
소외감
산사
체취
문학가
얼씨구나
갑신
홍삼
사식
기도회
일방통행
에버랜드
뚱딴지
##그리스
지방도
수업료
겹친
관조
나다니
핑거
##장자
걸으면서
마주칠
리수
##도치
준비물
전망대
알렉산드르
맥없이
왜사
김관진
엄폐물
근근히
정근
집어먹
상대주의
볼려
시주
이김
한나
그리폰
갈릴레이
누군들
재미난
감쪽같이
물려서
세브
일희
##냅니다
##프레소
##루엔자
매실
밴시
연로
창대
##버려야
개꼴
스톨
방탄복
볼프강
놀람
##메리
유전학
빨라진다
트롤링
감쌌
악사
자길
청명
때려죽
관구
불협
설법
##천외
가득히
Rock
광둥
기상천외
끝물
매리
소하
흥신
##be
파라과이
헤엄쳐
통렬
헛돈
##탄올
개화파
프랑켄슈타인
곁눈
못다
와르르
보일려고
##십리
점령군
루팅
현격
리모컨
세츠나
밝아지
##ECT
FN
겐세이
다툴
쾰른
긴축
리의
일변도
돈세탁
바뀐다고
가넷
고슴
받친
부신
한철
갖춰져
고슴도치
교동
군축
늘어졌
민박
사세
스맥
식빵
마비노기
랜드마크
삐죽
선열
이리스
폭소
##지책
안전사고
이대호
강퇴
금내
넘쳐서
외아들
##러워서
##절명
##살인
찡그
짓밟히
헷갈릴
향료
흐흐
동두천
노미야
다쳐서
베오
종횡
캠벨
손목시계
고간
중턱
날라갔
경범죄
도키
승수
##우면
불구덩이
코스모
공사관
천안시
불복종
돈벌레
뺏겼
일본국
펄럭이
스맥다운
온달
훨훨
##부자
##고만
으나마나
캘리포니아주
먹인다
빠뜨렸
천조
털린다
##버스터
물려준
근위대
사담
치려
계심
양궁
제모
하일
##베다
국내선
시위자
이태준
한라산
아우구스투스
코사
황하나
트로츠키
개불
곰팡
음역
이군
탐하
##치히
가까워질
명계
##바도르
주름살
노가리
##fl
텔레파시
##aker
엠블럼
닥달
매해
석아
셨잖아요
아몰
정광
인플루엔자
##동사니
그쵸
기삿
볼라
카오
이러저러
침체기
피스톨
기삿거리
남송
아울렛
EL
남사
산티아
원세
충혈
디딤
균일
놨으면
동티
사외
헌제
호라이
##티모어
마이스터
프라이스
스스럼없이
##청정
##감독
한다지만
현대식
지냈으며
탄피
법무법인
##ology
손순
역어
##화음
##구레
가니
맙니다
쑥쑥
##줘도
글로브
광개토대왕
VOC
본처
레지던트
동침
설자리
##덕왕
보이즈
원한다는
Da
푼수
##오빠
##치료
대정
아조
Ma
니치
앙금
777
검정고시
초치
탄다고
##포도
##타고라스
무아
퍼니
중고생
초필
그림책
뺑뺑이
다세
##br
동아줄
묵과
뿌연
천시
##김치
액셀
읽혀
헝클
218
Sec
행자
정보국
묵상
새신
솔솔
개인위생
당한다고
공병호
구불
봉양
빈혈
##de
##니더
##고돌
##갯짓
아카기
Free
걸루
기화
구로구
받아적
알폰
짝짓
맞아떨어지
날림
##매치
감봉
심영
##츠크
인데도
송병구
구캐
##눈깔
연예대상
잡혀갔
정년퇴직
담근
무뎌
버려졌
벗겨진
여요
오력
선거일
항공대
강해질
수레바퀴
성가신
유기농
마크로스
프린스턴
헤이세이
돌덩이
백만장자
버로우
회가
은성
진품
허드슨
산티아고
처방전
이청
추동
쉬워졌
대웅전
##쿼터스
데스매치
유비쿼터스
다락방
국시
##당착
##랏빛
간다며
트레이서
PvP
벌구
혈중
호문
관자
아셔야
집세
##바득
얼굴색
중화사상
누누
승조
신성시
벌떼처럼
머그
버려요
김철
말씨
##회원
넥스트
소일
팔레
편갈라
메탈기어
하사관
동중
맘고생
응우옌
정구
코퍼레이션
빅딜
직군
흰머리
싫어함
가학
꿈꾼
풍산
아르타
모기지
가리킨
통신비
담양
철로
##ogr
반동분자
산체스
이그
망가뜨린
손익계산
손익계산서
댄다고
##66
##셔리
운동량
경의선
RNA
oper
럭셔리
연후
펜싱
##보험
##카타
##주군
거짓부
모은다
도야지
접히
##역학
온건파
응께
다이얼
화물선
내팽개
사린
늘린다
답방
암모
오용
##하임
니미럴
견과
섭니다
신희
찍힐
철사
드릴께요
링링
호프집
떠벌이
유스케
졋다
튀르크
홍시
맹렬히
어우러진
병렬
아코
예물
오경
울린다
박종철
정명훈
뒷수습
##맞춰
단막
예정자
홍석천
도핑
밀려들
리옹
방장
생겨야
프란체스코
MX
반시
최명
펴낸
노면
송전
양초
일걸
1884
무신론
정미경
사하라
##세움
시커멓
재소자
애슐리
지랑
누에
예프
요한다
마키나
시댄
원용
해원
다녀요
마닐라
민아
풍겼
##니치
운동화
약탈자
세슘
불러들였
소작농
볼티모어
상디
자편
빌빌거리
##행랑
물어봐야
으신지
원활히
플랑크
노홍철
디카
표차
##가물
언행일치
헬레니즘
눕히
용두
위저드
베르나르
일순
팔목
해시
##ty
무언지
뒤안
바베
잡동사니
화판
##이의
자가당착
승정
일어남
페터
##천후
기업주
##록스
밝혀야지
무허가
실어서
체임
##치락
인류애
개오
루기
북제
흑발
다이크
미지근
530
사산
줄행랑
에스토
##끼들
디만
시니어
라식
마지않
오컬
해장
221
학부형
html
군왕
##스님
승강기
스트롱
못해요
동궁
비말
부끄러웠
어려워진
뭉가놈
##만화
공손찬
허우적거리
감점
171
Sl
줄창
##인명
순애
케도
케스
받아치
자필
중립국
에스프레소
거등
오답
옵스
포용력
뽀개
창립자
허둥대
니버
호유
##ga
##75
낙찰자
차가워
노원구
입네
아프로디
아프로디테
냉수
연녀
장중
포개
안전망
설과
허사
세상일
흘러도
여운형
트럼펫
금당
누수
뽑힐
사석
석판
이시스
중보
충직
##크림
놀라워
들어올려
그렌
오원
으다
짜맞추
두려워할
파헤쳐야
us
목과
전미
카타리
홍련
강형
맘속
첫머리
출애
##웁니다
기울인다
출애굽
라몬
열씨
족제비
케일
성인병
Moon
레크리
법문
코소
##엑스
레크리에이션
퍼블리
휼륭
경거
위수
끝났으니
꾹꾹
니지
양귀비
빠져야
##의사당
만유
바꿔도
쳐들어와
카자마
한동훈
고임금
땔감
신실
우울해
기년
약식
부끄러워하
발라서
단간
재는
##장담
501
특수부대
CU
아른
조자
받아들여서
설계자
조준경
##부답
꽃가루
##인수
##삭스
무인기
아킬레우스
등잔
흑기사
저기압
따가
튀니지
미니게임
묵묵부답
버거운
요렇게
정후
돌아가실
금자
디딜
뭔줄
불곰
##홀름
에어로
서문경
페가수스
근속
영빈
외골
의성
외톨이
알베르토
동호인
호언장담
이바라
##깃거리
담당관
넵튠
녹아들
이츠키
##는거
씨부렸
말랑
블레이크
괴뢰군
쓰러뜨릴
외동딸
충공깽
무심히
큼지막
따른다는
여전사
Blue
기명
술래
국회의사당
치어리더
칸다
대해야
선거후
타이머
##ope
화강암
나포
##문예
기관사
떠나보내
대성당
발품
위례
화수
선동자
경단
고침
기다립니다
공공장소
수족관
어슬렁
스펀지
준단
집산
쪼르르
플란트
관세음
FT
명진
용례
인진
인허가
존폐
##큐버스
##슈타포
게슈타포
라일
싸드
요행
이무기
흥국
한풀
다다른
변속
칩셋
##21
마이티
카빈
키득
타성
행크
잠수부
실정법
동격
시라이
저린
##za
봉선
충언
계신가요
LOVE
누렇
뻔해
옥황
트리니티
김삼
합죽
이기붕
상각
송사
옐로우
트립
패도
##머거리
##웁시다
##언니
동의서
##미화원
방청객
갖다대
##88
440
에스토니아
뇌사
잦아들
계산대
내디
최고점
알바라
기동대
위법성
반만년
전야
정치사상
환경미화원
##ount
강연회
문민정부
골병
구연
숨졌
원근
잉간
귀머거리
퀘벡
##습니다
##enc
입석
타블로
누울
등분
주어져
##지역
가열차
리딩
삼보
신문고
수색대
선인장
던져야
삼풍
습하
조순
주모자
초법
풀잎
행장
떠받치
페르난도
들쑤셔
메사
벌릴
범칙
상근
속터지
이파리
햄릿
안내원
쇼타
랑그
변사
성가시
양화
일소
척수
##민턴
못했으나
통합진보당
저녁때
인조인간
수형
##잡기
데려올
고배
더워서
코크
가우스
신채
칼끝
##발라
기준치
크레타
AU
금사
임사
초나라
특명
어려웠을
위증죄
두근두근
중풍
정반
진창
샌드박스
##미니
만든다면
자료실
해군력
경실
둡시다
북조
##렛대
신춘문예
수공
##리케
아이린
친해졌
쳐들어온
카트린
감원
로아
상통
빠져도
하이패스
세바스
뛰어갔
컨셉트
이병헌
관악구
점성술
묻혀서
울먹
장용
페러
라벤
완도
매끄러운
kim
박력
변압
에른
티토
##마츠
마성
샤머니즘
육전
결단코
양육권
데미안
부직포
엉거
종과
번역자
오컬트
친아버지
타이트
##거미
무덤덤
깍듯
방범
임나
품귀
전해진
란가
##테라
모여든
김부선
배드민턴
회항
늘어질
매섭
식장
와의
에이브
##충전
Char
선승
퍼져나갔
불후
우우
망고
우뇌
바타
원투
펀딩
경정
제다
붙여졌
생길까
거침없
북서부
난거
마대
유심
##bo
만만히
무거웠
리베이트
기뢰
노나
찹쌀
눕혀
단명
백스
부울
클라리
##EL
나타난다고
뜯어고치
운동권
노인정
근해
동석
쌈짓
지렛대
희랍
##itch
알칼리
재지
미용사
거물급
암소
##타마
되갚
현과
특별자치
들이마시
걸릴지
##MAX
특별자치시
될런지
보모
서광
##처치
##근질
##돗개
각양
논다는
송지
후설
##콘서트
묘수
진돗개
##피온
소방대원
대업
비취
라이토
학명
마네킹
브뤼셀
류성룡
Lo
샐리
간사이
명암
아보
중헌
호라
후백제
##상제
##ori
패전국
베이비붐
고품질
만반
터뜨릴
##로니
갈라치
나이트클럽
JYP
감별
물산
밑줄
짓이
학적
고봉
복덕
씨씨
한다더라
역겨우
뒤안길
망연자
바투
신노스케
주필
##uv
하이힐
벌여야
망연자실
본들
장과
파레
##단심
##ats
파워레인저
아사달
안겼
전성
이나즈마
Music
쌈짓돈
리파
외채
클라인
##상잔
거뜬히
NFL
럭스
적병
직항
태화
혜란
아니꼽
주구
철문
바빌로니아
다빈
에트
쭈그리
코우지
##진다고
조선일
머무를
디밀
묘미
숭실
츠루
##출혈
명찰
오데
체육복
개천절
수훈
인력거
히로미
cj
최치
##첨화
들어옴
두들겨패
Sum
꽁초
재충전
교육법
달라야
금상첨화
원석
패잔
따라와
중앙당
액세스
후크
마상
##꼭대기
투수진
평양성
벗어난다
살의
칫솔
##리어트
들려온다
Li
으으
##세월
관광업
밀리터리
민담
유월
다잖아요
저상버스
백병전
비염
유순
떠올린
나창
네드
세웅
한큐
다이슨
긴요
엘레나
자작곡
가희
무디
칠곡
금일
산꼭대기
요오
청군
##lex
도금
실의
##rain
동갑내기
라트비아
마키아벨리
인포
숙박비
그른지
뚱보
이쁨
체신
배때기
암행어사
가둔
고친다
내선
단칸
시약
윤활
짧아
화창
##망동
방행
드로이드
노블레스
에노
진홍
포아
마석
뭉쳤
시청각
방만
유이치
고린
내국민
Big
어장
역장
휠씬
누각
박철
박소연
쓸어가
버나드
사그라들
천가
출진
조언자
만해
여학교
인간사
이용료
##very
부둥켜
눈총
볼록
따라선
감염증
충전기
##스멀
신상품
##ards
알버트
카라스
쓸어버릴
반어법
스멀스멀
데자
성철
인천시
737
모탈
반월
이택
매그넘
양비론
강급
오르페
태평양전쟁
Let
새치
알트
웃돈
##밍고
이정재
복통
싱이
소쉬르
슬래
파노
##두철
노먼
돗자리
무해
크류
운전병
미시시피
SAT
광수
선각
에콰
오사무
에콰도르
et
굶기
##등등
한성부
비뚤어진
얼씨구
감췄
눈까리
헤럴드
##부러지
금장
깜둥이
야나기
##두루
상대식
이리로
중계방송
Sun
브록
위고
겨루기
감영
홀가분
##분방
마틸
모치
박문
짊어진
##우로스
일어납니다
행정청
##메이커
튀긴
##엔드
##보감
컴퓨팅
개화기
견문
다테
도회
##항력
자유분방
##ara
들이마
계상
광택
올려고
228
페미나치
머리맡
아드님
OT
산세
채운다
기회비용
막내아들
대들보
스톡홀름
임동
제청
나뒹굴
보니
천추
##주얼
가노
청라
##ONE
둔다고
모발
요식업
쉰다
하자드
지명타자
공학자
눈독
등치
웅크
향년
일편단심
건륭
골똘
서풍
##SS
분향
##발진
아카시아
교육열
물어내
##ler
니코틴
카스트로
애덤스
유단자
교무
급발진
은동
재하
피쉬
합헌
비구
##블루
김정남
신청인
총회장
가냘
선영
캐주얼
보증인
설문지
빨러
프라이팬
가셔
##추장
##꾸라
##ange
궁이
저으며
##러맨
##딸랑
개정판
육군사관학교
우의정
이터널
지그래
쓰라린
초회
펜타
국민대표
크리스찬
sin
슴다
자두
##뚜껑
결론지
모집단
딸랑딸랑
tbs
퀴들이
특약
자랑거리
나치즘
아유미
날뛴
빠꾸
야경
적혈
침전
후임자
##슈얼
161
대항전
김양
사달
우고
##장어
김성주
구레
따가운
큰손
신영복
옹기종기
가서도
나쁜데
허무주의
희소성
Sot
산해
오색
외설
##OID
##떨어졌
아야노
아라시
따져도
이원일
안과
철두철
임시직
피임약
철두철미
Mc
배변
부창
잠잘
형아
고소인
스피리
기흥
복학
시티즌
MBA
섹슈얼
움막
청학
켄이치
타이베이
고인돌
패션쇼
출루율
IB
갈까봐
##카운
##ART
GPU
생뚱
시퀀
절연
##네이션
##루아
민주주의자
부러졌
##ACK
밀반입
권양숙
꺼질
들썩이
일목
##명분
드리우
노총각
실려가
숙의
##이가
##레온
216
발자크
걸래
격앙
석재
피랍
##금지
부담없이
어리광
기지개
구명조끼
주원장
속상해
리자드
원탁
히치
##투자
찌그러지
베베
정찬
홀딩스
도라지
타코
##제일
작업복
노소영
해줍니다
항간
적대국
구스타프
귀농
달라이
헐렁
##네사
##타나
XB
별점
피토
거짓부렁
늦잠
샐러맨
왕년
전년도
샐러맨더
뒷말
조이스
들어차
되돌아왔
없앤다고
경시청
광적
뒤틀리
시루
윤도
짬짜
모래시계
HTML
패트리
가곡
강재
고이즈미
기려
카츠키
대의명분
츠바키
Japan
다마스
미납
쬐끔
창덕
카키
함평
##AA
청산가리
퍼부으
엉거주춤
비쌌
안인
용은
부러울
소행성
산기슭
김만
된답니다
신유
양철
원청
코민
호머
##막염
아이파크
Open
국을
자연법
미술품
들먹여
감응
멋쟁이
건들이
본지
망합니다
임할
젓갈
카슈
픽처
##트페
투표소
1848
크라이슬러
Dark
교착
몽상가
사츠키
호숫
얼만큼
코요미
호숫가
로디
명태
문석
상트페
##EG
181
나타납니다
내놔야
상트페테르부르크
Power
Your
구주
냈으니
송송
##동무
##iale
Cont
금동
쇼코
싱긋
어거스틴
일출
불가항력
디바이스
임야
홍경
청년기
416
포항제철
콜로세움
Ap
검붉
귓구멍
도카이
미장
북주
인욕
임해
코넬
지구인
처참히
칠지
바이퍼
2600
수상쩍
최신형
Mark
썰물
와전
주워서
할런지
##봉대
레이카
##ari
수신기
각이
날랐
베가스
에너
블레어
사은품
바친다
발로
줄려
lte
문부
크크
솟구쳐
비신
##48
##세유
수용체
명목상
고만고만
빈틈없이
프리덤
건너오
커트라인
con
솔트
야오
원지
최준
다크니스
Je
로메
라고는
운송인
에티켓
도파
새엄마
아신
트였
엘릭
훈방
상황실
Type
명량
트램
혜영
권법
번다는
쏘나타
젖혀
경어
고르바
흥신소
시메
탈락자
1885
고르바초프
End
욕자
##케이드
문어대가리
개론
양봉
조산
두루두루
잉여금
야요이
객석
미풍
윤호
##네프
##거루
가져도
월마트
프렌드
대체재
경내
신궁
##xt
5060
가진다고
장난친
펠리페
십일
흔들린다
필사본
시게루
빼들
위서
응석
표트르
호루스
##에리
자살자
김동연
가여운
Cy
낙낙
망처
장물
##세워
부천시
끌어올린
곡사포
수자원
한비
적응력
델라
피버
조합장
동식
불공
예조
유당
##커버리
수도승
도루묵
추스르
스캇
적분
레진
마제
구제역
이문열
경포
부성
부루
처내
##36
##비지
2100
넘칠
자금력
메로
설아
젖국
##베니아
소아시아
루즈벨트
TD
러프
인습
효시
아침밥
개축
다졌
성우진
침소봉대
라든
램지
양서
왕명
타켓
포신
##균등
개나발
촉한
부드러움
고학력
무트
사포
스탑
저공
##에프
주먹밥
블라우스
어니스트
종복
공공시설
숙일
공식전
토벌대
누른다
제럴드
풀가동
환송
휘둥그레
KN
남만
보랏빛
아샤
젠지
형기
횡사
##수술
BF
성민
입조심
지보
##불사
TB
낙향
마무
티거
##비행
변압기
학규
올랐으니
초대장
노어
##립스
##촌동
아서라도
베르사유
남지
등심
조스
217
플루토늄
High
경진
공들여
브리티
클럭
##야구
미술가
서프라이즈
성유
예거
음서
쫒는
요구르트
간암
서먹
세발
세바
찢어져
다가섰
더러워지
크레용
GU
루시아
엔도
##도그
##메기
받침대
괄목
콩두
고사리
박규
조악
추풍
##ene
없앤다
감퇴
이두
인중
청대
키네
##니르
내놔도
개눈깔
데릭
##박자
##백호
##몬트
바부
븅아
충렬
플리트
정치국
내려야지
올려야지
무너뜨려
##lee
어려워질
대덕구
에리스
해온다
후우
##무역
슬로베니아
밀어붙였
ac
지론
쫄려
##수일
뚫어져라
이인제
비인
아칸
좌수
평균치
호소력
아오키
모여야
짝짝짝
##터기
쓰러뜨렸
홀로코스트
속한다고
Cor
다퉈
##추리
도박장
놓여져
도체
박범
해졌으며
괘씸죄
서성이
##일레븐
강제력
자치제
갈린
등수
설악산
평방
미나모토
벙신
살집
최지
후카
##꽂이
모여드
가계부
폴리페서
거둬들이
상부상조
JC
복위
십시다
재의
레이브
아리안
무용수
교가
밸류
남성혐오
고달프
못생기
에머
일광
재처리
힘줄
부러워서
Mb
들보
명퇴
소경
환히
입장권
여겨야
만다
비파
선미
야속
##기니
능청
##물질
나무란다
뒤지기
두루뭉
버텨라
가덕
본방
거래법
시달린
얼버무
대굴
보입니까
Pa
그쳐
당산
몽테
소냐
허파
세계수
찌푸려
EPL
내노
복각
필경
다녀와
560
##공화당
자민련
낭인
민선
##고로
이야길
##enn
형제간
빼돌려서
아즈텍
동률
퇴거
넘어감
##다이라
스칸디나
스칸디나비아
걸립니다
기립
룰렛
보검
캥거루
##찬란
##보트
고속철
맡겨서
병살타
가점
베낀
샤론
어지러워
경호실
동조자
고리대
만년필
박카스
상비
##루냐
##뿔소
민주공화당
동정표
미적분
하북
심해져
무라카미
패륜아
ET
장아
덮어씌
민의원
아퀴
취기
흘러간다
물소리
##만도
히로유키
녹슨
뉴타입
태연히
품평
서투른
군졸
알베르트
쪄서
만덕
컬쳐
파치
그런가요
토막글
시금치
불협화음
Her
국철
선족
역기능
키프로스
속어
취량
흉한
수작업
광덕
인덕
터져야
##사회
이케다
귀부인
산단
여로
헬레나
드래건
불러일으킨
권속
꺼낸다
전해들
조족
박병호
경거망동
셰이
짬밥
##타오
였음이
멍들
뺀다
순신
위연
전쟁시
Air
강선
누만
속절
합디다
##부조화
뛰어오
하도급
마호메트
듬직
래들
씨발
토건
힘든가
야마자키
얼려
중천
초자
인지부조화
화장지
선민의식
애널
이족
적신
화인
반비
써왔
외적
안타까워하
무더위
산양
VOD
가온
깎인
디아스
감춰진
꽁지
윤선
제프리
터져라
적립금
크라스
##전차
프라모델
피로도
발기인
반신반
음경
##그만
인정사정
아카데미상
멕이
못질
용소
진진
##벌떡
부정수
낮춰야
Hist
산삼
우든
중개업
나연
대좌
장석
##디트
##아보
스핑크스
백동
앙쥬
오릅니다
튜너
서둘렀
다이나믹
쳐부수
출고가
포메이션
NSC
Sn
곱슬
니콘
육감
털려서
##우산
참고서
유키노
김순례
조응천
영화인
진귀
초구
사쿠야
미워할
내두
보은
종언
프리퀄
폭주족
눌리
송유
줄임
착해서
일단락
매디
영식
일약
가지마
라이엇
잊혀져
연골
##충우
딸아
Tv
안배
원당
장조
츠네
세르게이
둔하
쉬워서
추심
태음
##다짐
상담원
이세키
김유진
신진대사
파이낸
카멜레온
죽을죄
쌍검
준위
케라
##사화
##구비
넌센스
뜬공
선결
장덕
쪼그리
파혼
##78
밀려왔
King
수회
연남
월계
##HT
##교동
시퀀스
아과
은대
##르도
웰치
겁대가리
설렘
엘소드
김정호
창조물
쳐들어가
감찰관
급전
복날
야식
대한다
헐떡이
인숙
좌뇌
행색
환란
영안
완비
외웠
텅비
호크스
##텔링
스토리텔링
전태일
번주
우하
나이롱
마셔요
지마는
박소
세전
우공
용산구
공백기
쓸쓸히
바들
과식
종반
행로
총력전
오시리스
담아
##시온
한다지
베로니카
박빙
연원
##컴컴
DDR
라덴
맺혀
성계
영이
춘다
로드맵
주호영
별게
응어리
키예프
테베
팡팡
했었으나
린트
물렁
지느러미
피통
결정력
까다로
돋아나
얌체
참모장
Gold
권해
시레
##리언
##주니어
환승역
##기념물
꺼도
해뒀
##간지
##위복
은하수
일진회
프렌치
열외
전병
책방
##당선
올라탄
이승훈
유감없이
SSR
이경규
시무룩
김복동
명가
비흡
부딪힌
반짝거리
비흡연자
금번
일대기
투혼
양성자
JAP
솔깃
저성장
이름표
선동죄
전시장
분쇄기
겨운
까막
일설
컵스
##hw
책상머리
조원태
##불출
전화위복
고려장
교과목
클로이
막내딸
Bre
린스
역린
종잡
혁혁
정몽준
대격
선기
성낸
해봄
터질지
보헤미아
귀도
심벌
쟁광
##사발
Christ
LM
빗줄기
초의
토스트
파당
사마리아
생생히
세븐일레븐
상할
철군
츳코
퇴직자
심장부
증조부
울릴
##소매
잔다르크
VOCAL
염화
원예
형장
모자란다
납북
비엠
사철
우문
인족
정죄
나빠요
dl
괴팍
숙취
햄스터
강보
##포츠
번뜩이
신겐
푹푹
##저가
허리춤
갖춰진
이러다간
##면체
타타르
홀로그램
##숭숭
회의소
엎드린
역도산
고목
아민
양강
번돈으로
윤보선
거냐
공파
로건
영통
238
프란시스
Off
신판
어안
군주제
COM
목차
액스
어두컴컴
까한
뒤숭숭
뷰어
턱수염
김현아
세무사
논법
요로
참극
##천만
아리사
천연기념물
물욕
한용
##니츠
두려우
우터
분교장
부창부수
갑지
라이덴
토모코
짝짝꿍
패잔병
녹두
북베트남
브루클린
평창동
신바람
전자책
남서부
살균제
가모
부야
선경
철길
##자유
기다려도
두들겨맞
일면식
신망
##nn
##손녀
위반자
승부수
잊혀졌
OCG
넘볼
온대
##드기
서재필
얼쩡
흙먼지
뛰어올라
카즈미
깁슨
다목
블랭크
여남
따진다면
약할
275
티아라
개일
공회
땅덩이
준칙
추우
토코
퍼진다
데려간
##ush
Fi
문밖
뺏겨
재민
태어
꼽혔
민통
보사
영연
오닐
제부
메인보드
뒤엉켜
히포크라테스
Ind
강금
엘더
종간
퇴로
NLL
페레
##초가
##뭐니
골라야
뜨거웠
신애
파구
##패닉
떨어질까봐
블리츠
범칙금
신채호
샤우
##인사
히스패닉
가쁜
멘델
육영수
주다
탁아
##뮤직
아무렴
등락
콜레라
이수근
아킬레스건
##키들
Che
공저
놨을
다재
단짝
들립니다
로베르
바텐
발사대
사납금
무궁화호
리바이
추증
큰스님
헬륨
김나
모계
설현
수집가
문방구
로바
상제
씻기
염주
저토록
##ions
조리법
승지
##니뭐니
류우
쉬이
식중독
에는
고위험
##ouse
Er
플로우
##예산
김용호
겨드랑이
KM
회계감사
새까맣
##충우돌
개근
소니아
원류
흉보
##TRA
##무트
##투족
자동변속기
##칼리버
기말고사
몬드
좌충우돌
코아
터로
흩날리
##피오
수도자
친절히
토스카
XML
일급
쿠르트
##천국
동남쪽
GA
놓쳐서
리보
무뢰
##러우
##푸른
기본요금
타이타
사면초가
엉켜
현현
##왕후
포스팅
아자씨
검투사
##날린
들어와야
470
Sotiale
대찬
신룡
어엿
세이야
##도르프
직사각
탈의실
Ab
놨던
아성
조지프
대임
라키
손재주
혜주
##볼라
선산
총부리
##충돌
문화부
내게도
1871
뽑아낼
가선
발려
삼계
설원
왕전
피질
##컷뉴스
여보세요
Bat
겠어요
최교
풍신
홍상
환부
어려워하
긴급조치
기피자
긁어모
cd
게토
벽난로
송현정
나성
으되
진안
트랜드
노컷뉴스
렉스턴
리빙
박연
불덩이
여몽
용공
들여와
끌어낼
달할
코페르
중소형
시냇물
Km
옥시
##피에르
중심축
기예
내것
동도
뭐니뭐니
분가
신서
##클리드
흐트러지
낙사
피르
바질
풀뿌리
풍차
온실가스
렵니까
섭씨
조봉
집대성
핏빛
인류학자
미주리
샌디에이
니마
돌핀
화로
무우
언락
연무
코오
홍주
바스티
석수
작설
쟈니
##불란
여성주의
213
군영
기친
나옵니까
남창
태공
흥건
로켓단
보드카
샌디에이고
개목
광화
리튬
오레
##레이브
고드
후다닥
##시엄
살아간다는
부산항
안병
아카시
윤종신
노나라
베일리
어웨이
자신만만
서장훈
검단
셰리
엿장수
정여
##르바이
##르바이잔
맨서
세타
쌩쌩
축배
과욕
구례
찰지
양로원
당번
이끌어냈
소모전
해버려
피타고라스
스트링
해진다고
진풍경
짬짜미
휴우
##지스
##ody
대용량
광어
꼴사납
병정
끌어들일
프레데터
##슈비츠
카트리지
테제
공훈
목공
어문
##할머니
미술사
불태웠
세분화
영등포구
낚싯대
견자
국해
인서
아우슈비츠
총대주교
마요네즈
우치하
돌궐
하셈
핫도그
거두어들
튀어나온다
아제르바이잔
화승
뉴올리
버둥
이듭
그래미
개심
경음
식모
던져라
널찍
브람
보릿고개
포티
##UC
일어난다고
기지국
방계
웬리
털털
투자처
마찬가
판매점
프리티
코소보
##나우
가마쿠라
한다던지
갑신정변
널뛰
방용
1882
드미트리
놀린
슈마
슈테
을라면
드럼통
각양각색
##WC
글꼴
난소
인세
채광
친가
##su
##건조
이야긴
열변
유업
쪼매
최유
특효
능수
속사정
##콜로
뒤집기
가시나
학구
국민생각
460
##세이더
크루세이더
차선책
임해야
카누
남양주시
Dav
동리
민관
상훈
##뮬러
끌어모아
잡아오
우에노
호라이즌
경실련
깬다
조야
촉법
취리히
코페르니
촉법소년
동현
와락
킨다
##22
##구경
리어스
덜컹
불룩
종지
점심때
포에
흔해
##눈썹
타이핑
##icle
##WA
학습지
상임위
긴지
명물
자강
쾌재
기다려서
김좌진
동한
떡국
미실
의형제
플레이스
광명시
유배지
가고
당락
입속
장계
지스
패싸움
필하
##속결
인후
적벽
안당
책동
풀숲
자유도
일사불란
속전속결
박애
에칭
카잔
황선
개인기
가해야
파주시
채식주의자
생각날
넘어와
소형차
걸러서
개좌
실베
천산
풍광
Not
슬래시
쏙쏙
달아난
정사각형
야단치
따끈
딸딸
발할
송광
집현
카플
돈맛
힘냅시다
##지축
##보낸
떨어뜨린다
##une
들으라고
삼지
장합
뭉가야
VOCALOID
다디
골퍼
앙숙
애환
##폐물
아들내미
기억난다
러스트
부풀려서
으르렁거리
꾸지람
산등
윤주
메르켈
포토샵
천방지축
곡성
길버트
유틸
중저가
지층
짚신
유통망
아쉬우
##저러쿵
코페르니쿠스
유틸리티
새겼
224
뛰어오르
레인저스
기달
##ita
학력고사
추켜세우
여선생
기준점
인술
폭음
이경우
꼬불
난점
빚지
저위
진왕
음울
사랑방
김관영
##면서
통역관
토우마
유리카
이러쿵저러쿵
말벌
보문
새뮤
인더스
##레프
빌리지
해줄테
야제
철종
해약
허당
브로드웨이
니이
임다
지방분
서구인
##별초
공격대
포항시
곱창
군집
귀띔
땡전
떠야
문리
염분
택견
한솔
프레시안
유희열
라운지
남문
눈엣
능글
딴짓
수탉
신야
알토
열연
잔챙이
학관
벌어질지
눈엣가시
라켓
루니
##플라이
##pha
들림
자차
전분
제레미
슬플
산초
이고
지엽
치토
걸어갈
묵시록
강동구
불이행
동음이의
물림
시론
원부
AAA
##샤오핑
VC
꺼벙
덩샤오핑
앉힐
##달성
심박
퍼질러
푸에르
알아차릴
미지급
교두보
꼬여서
맺히
어렵사리
서지현
골문
금이
금제
##95
##티즘
신권
접미사
찢어
취합
무더운
GK
까말
승희
쌍벽
겉멋
궁내
의역
호메
무자격
살라딘
주물러
Who
루쉰
##소사
304
레이서
더듬거리
그레이브
##ANI
사나다
1850
##olution
마스터즈
내줘
바운
칼데
##전함
시리얼
기념행사
이브스
담사
컨소
진화론
들어온다고
org
고달픈
컨소시엄
강권
디럭스
사회부
생활상
축구공
걸레질
메모지
물꼬
반딧
태호
달아오르
심포니
귀기울여
av
무토
성직
미쳐라
엎드려서
내팽겨치
사황
퇴위
##의연
목표달성
번거롭
일희일비
띄엄
삼킨
착란
맞겨
자토
허버트
지질학
스트레인지
북해
분규
쏠렸
테헤
혹성
블록버스터
승전국
단임
두발
차암
##프레이즈
시켜요
소속감
##ames
공히
절름
토바
##RS
여행기
편집증
시퍼런
Hy
그은
동떨어져
연막탄
모나코
마테
##하지마
맞물리
이목구비
끼여들
굳혀
김갑
날뛸
##시리
사이키
##플로러
대계
재수생
익스플로러
브라이트
스르르
추계
친아들
##종자
엑스레이
폼페이우스
FL
고과
남아나
빅스
앞당
약함
엎어지
##76
임이자
편집국장
서라벌
리만
필체
##앗간
인기가요
##시원히
과메기
반석
버틀러
속시원히
존치
사회면
몰려온
뤼팽
배급사
주니치
개회
곡조
명희
오므
종량
총국
디딤돌
북남
양진
저돌
##싸개
옥좌
제초
##장교
좋아한
최교일
옳소
찾아봐
모래알
허송세월
십일조
네라
느림
덤블
빚어진
응했
표고
##PER
##삼간
드러워서
천하제일
서스펜션
타이타닉
대천
맹공
휴즈
구태의연
메를
우간다
##분석
말라리아
과로사
공범자
플립
아닐런지
출발선
스레드
순혈
없다
지러
##론을
밝혀낸
안젤라
초가삼간
최수
노다
관리국
유리병
GC
위나
제삿
혁파
##징계
누가누
달치
앞치마
하피
남겨서
꿈꿔
버렷
설진
쌓일
집배
컬처
황재
기국
요체
끊어질
유권
패킷
아스가르드
EB
식성
줄라
회전문
남동부
BEM
세찬
실라
터부
눈물겨운
Fire
관등
네만
늘여
못박
셔틀버스
날려야
라흐
호른
##입구역
구도심
제후국
신료
아라이
##기들
일가친
마지노선
간언
낑낑
따가리
어언
여소
후군
망아지
미란다
시실
줜나
반지하
하세가와
어찌할꼬
ab
초가집
KG
곤궁
몰르
껑충
매지컬
수스
중식
파와
단체전
여잔데
에어리어
구래
뚜드려
밟혀
진짠
톈진
미나리
특출난
시물
오송
##도취
케이프
고해성사
노린다
들쥐
썩이
여겨져
뒷주머니
장항
황정
##실조
감정싸움
베이직
영양실조
이종명
세정제
타란
##연의
##ald
##버리지
근현대
정두언
##다리기
피에로
공여
노덕
담날
시소
점액
리그베다
휴지통
콜트
##아프리카
##미남
##쳐도
알리바바
이라던지
숨겨야
경전차
아로마
고막
리기
장성기
창제
##져리
##드릭
간단다
GAM
벌건
에델
##ters
에른스트
생겼으며
는감
래이
우키
##르슈
시달릴
JAPAN
ms
가분
##도둑
대문자
낚시질
Univers
들고일
투표자
초상집
예뻐서
농토
옥천
##개석
구경거리
아랍에미
신동엽
아랍에미리트
북소리
쿠쿠
피바람
##주택
##갤럽
한가운데
아영
이하일
##코비치
공화주의
사토루
맞잡
암송
이베이
팽개
통화량
숭배자
동구권
해파리
헉헉
##구불
매운맛
교치
를르슈
펌웨어
##라호
한국갤럽
땜질
불손
서상
##other
고차원
속눈썹
##칠기
이윤열
거시경제
초심자
포터블
벨라루스
징검
짜식
비버
황석
자제력
지의
체어
##어누르
재생성
앞질러
오간
찍어누르
보상비
집행자
싱크대
테헤란
되받
혈투
##lo
##파르
규장각
해트
##하는
226
이슬람교도
카다피
황우석
Ac
랴오
추돌
##파르트
개그콘서트
##ird
김보름
밑장
장광
쳐진
##반지
아이코
보복조치
Intern
로보트
강민호
돋보였
날래
친부모
한다구요
들으려
헌정사
Hot
mc
느티
진혁
##병기
매달릴
조강지처
검시
귀의
미겔
끝날지
캐치프레이즈
나전칠기
관목
초이스
추서
2050
하이네
man
##현실주의
좌판
히들
백혈구
내려놔라
로카
##세다
찾아뵙
쳐들어왔
고니시
의열
##소침
자주독립
인종주의
의기소침
재계약
반비례
min
##단절
##민족
삽입곡
아만다
육손
호당
일회용품
창덕궁
멋쩍
부탄
##자박
##씨름
중개인
견뎌야
매여
##대발
내려보내
ARM
불거진
위지
직공
홍조
화생
부양책
김포시
가내
경조사
기의
서나
헤르만
꺼림칙
자승자박
집현전
일가친척
뉴런
영작
##버님
그런가보다
국교단절
시끄러웠
감식
교서
깎여
야크
해직
이시이
관동군
노발대발
ps
치인
올려진
이정희
오신환
단대
두레
공정거래
기계식
을걸요
공정거래위
개창
불독
세아
용신
정처
창틀
시사점
고질병
구녁
민조
반절
보폭
부계
봉안
빈치
신단
호오
수채
엄단
저려
조간
아까울
망신살
신성모
질러서
전봉준
갑론을
상진
세진
밀어줄
호위함
갑론을박
봄버
부로
찰싹
##ican
덮어두
왜성
우거
위닝
##ha
답한
삼립
쇼팽
얼굴빛
판타스틱
끝났으면
뻔할
근질근질
느티나무
동류
동형
로밍
쌍방울
아톰
##가키
##통신
하루히
안데르
##타니아
##빌라이
정준하
까다로워
거스를
샤드
거야
민재
밥숟
##코타
다던지
쓰여져
테츠야
나즈
앙상블
Po
츠치
원정군
토리노
Over
린네
줄때
식량난
김부식
흔든다
연석
창살
허스키
갈아탔
슬펐
피콜로
줘야해
경학
샛길
##가타
410
이자스민
스콜피온
멜리사
수공업
회신
개막식
이발사
TBC
당게
루이즈
##페셔널
인쇄물
하버마스
번잡
와사
우루스
황위
이상일
비행단
연출자
영도자
WH
루아
허경
이집트인
브랜디
귀빈
신신
##문자
이승환
약해져
소작인
불소
장유
절체
프로페셔널
지명도
김해시
친일인명
친일인명사전
마침표
스미레
노폐물
단주
드라도
양친
큰딸
호동
황송
##ius
문학관
다이노
##ollow
성물
학칙
이혼녀
야스오
내비두
서찰
줄다리기
카루
혁명당
은지라
모지라
번데기
좌고
##연맹
##실신
카디널
썼으며
앨버트
월광
##끄덕
응급처치
디셉
분부
선거인
오래간
끝남
핵우산
이상주
불시착
은평구
내빼
보크
서바
쿄스케
피코
화속
가정생활
느낀다면
아메리카노
집어삼키
참정권
##다능
##아기
서술어
사자성어
눌러야
프란치스코
관세음보살
방갈
얼빵
발생지
마누엘
대관식
히히덕
고풍
공창
냉혈
라라고
문공
밀봉
악동
어길
화훼
##토프
공격자
접속자
서바이버
ver
프시
젋은
##KK
##채무
신세기
안양시
답안지
죽여버려야
떡실신
부쳤
에뮬
정동원
##연기
사토미
법자
수한
약학
저인
다소곳
설교자
조달청
조적조
전표
마르세유
기세등등
승정원
귓전
봉제
쿠나
항속
지만서도
못했었
성탄절
금곡
응고
패착
그저께
시미즈
la
남장
네루
메피스
미취
젖소
드래곤즈
날카로워
백련
화주
##결혼
답답이
들려준
배울까
흘러나온
결투장
나츠메
리빌
바랜
음유
호성
##티에
pro
생신
탈로스
##인상
로군요
친화력
묶여서
금시
땡볕
라야지
래빗
어깃
였잖
음표
포뮬러
한반도기
##ital
코민테른
##cd
최고형
박보검
어깃장
we
박식
백년
뼈져리
##용품
##춘다
조연상
오작동
다재다능
국명
도림
스탠더
외쳐도
말대
노지
노구
반강
청백
끄덕끄덕
뛰어내렸
핸디캡
못쓴
죠니
천우
유사점
거를
리네
보기
가담자
뜯어낼
뒤처지
GX
당지
사택
정언
직거래
일본도
찾아들
가로저
헌신짝
호메로스
일흔
철봉
2700
뒤덮여
윤재
##입술
이봐요
로베르토
맥심
최치원
설라
##oup
자아실현
알레고리
Mic
Pet
쇼우
승우
수출품
밀어줬
농사지
최진실
내립시다
몸길이
싸움터
의자왕
소매점
일거수일
일거수일투족
높혀
보노
보보
에치
존귀
행이
화장터
미야코
을려구
샤이니
귓속말
사창가
칼국수
로이스
창수
재미나
미결
번안
콩트
해보
1830
뿌려야
향로
으라니
카탈루냐
미공개
BEMANI
르블랑
항원
Ang
맞닥뜨리
윤동주
애통
에인
병원균
대연
댈까
사월
##피지
레드삭스
움직인다는
뻘뻘
도와줘도
깜찍
진무
##핸드
알려질
오리엔탈
미니스커트
간도
멀찍
용족
이클
홀짝
증가세
부랑자
이클립스
장재
폐점
향리
시대상
개헌안
##ORPG
나스닥
발군
의안
장밋
는진
데시
반유
산비
샌더스
치치
아닐지라도
Met
난항
전각
질척
황건적
추천서
##ement
구불구불
선유
심합니다
번인
어찌해
부러워하
융성
코네
향방
코코아
에그맨
곰보
묘기
비제
화북
소아과
늘씬
숙직
역발
##밴드
결정지
중화학
옆면
총소리
쿼터백
뉴비
문형
찬동
청풍
##수전
나오토
폐쇄성
엠블렘
새뮤얼
바젤
산청
온수
카모
홍문관
베크
석류
장료
재석
##지아
다시마
프리츠
에드먼드
낙심
박지윤
카밀라
도자
샬럿
크랙
틀어박
마가렛
시끌벅
먼로
신법
암사
헷갈려
페널티킥
Park
끌려갈
별관
야코
엿듣
##중국해
개폐
망루
서체
쿠페
##겐슈타인
체육회
비트겐슈타인
괴로울
허물어지
르브론
제례
피험자
히고
##체육
대항력
오펜
와다
진서
혼쭐
환술
##ven
##강산
소비세
집행관
내게서
견우
뇌출혈
돼야지
어썰
회사채
이승기
경비실
차입금
최충헌
어썰트
내음
싱겁
퍼서
시에라
Bur
모회사
위너스
돌아와야
다니까요
다각화
천생
##과학
##모음
진입로
##oph
먹혀들
방세
운가
God
물려야
사무원
리플리
부다페스트
따라했
나이까
함석헌
재재
크랭크
환웅
이래요
하야테
주절주
와세다
효고
##쿠치
적혈구
굴렀
인수인
디모
애고
여려
예순
특산물
##소이
##와트
사회인
호프만
굵기
모선
주아
##oot
출신자
송기
엎친
자요
##애애
순찰차
영매
예인
체전
##얼빈
스테파니
리어카
단번
문간
복소
왈츠
조어
중의
후학
##자본주의
##포인트
폭발력
대원칙
승합차
동여
모뎀
고혈압
빠개
손절매
DJMAX
sr
미확인
출렁
##탈태
공학부
주절주절
거취
랄지
미케
베지
색칠
완곡
우람
박영효
퇴근길
애물
앤트
민족사
##자치단체
환골탈태
감고
버네
이동기
흐트러진
하기
누리꾼
매표소
묘연
설혹
가르켜
붙잡혔
외로워
Can
더글라스
머쓱
몸조심
##외법
룸메이트
소현
숨바
쿠우
토인
##라시
operatorname
임성
제라드
선덕여왕
Des
동풍
매형
유클리드
쾌차
##반정
행정법
심해진
빌빌대
누려야
트와
혜정
대하드라마
관영
라피
인본주의
재가
##동맥
갈아탈
내쳐
##하워
##기술
우에스기
Kim
김중
랑게
영세업자
초코파이
아이젠하워
KCC
덤덤
자마
판인
익혀야
간척
장독
팔굽
##빈다
결속력
코쿠
주재원
허우적대
군말
포인
##재앙
재무장
도미니카
릴리즈
당보
분도
삐삐
서이
족벌
##테말라
무너뜨렸
역전재판
nm
과테말라
매독
##탈출
245
233
일차원
##레드
으셨으면
김준교
예식장
수그러들
생뚱맞
꾸물
는냥
망은
외숙
인의
##덴부르크
드러커
상습범
아나키스트
과음
깨어날
빗속
의금
주욱
치외법
황충
이스마
노리코
맥도널드
치외법권
PE
2300
눈뜬
당편
등받이
주책
천제
책임진다
249
대초
래더
롤리
정결
양심껏
가다
도플
상보
워런
##we
다녀갔
선교회
고지대
해인사
위압감
구관
팔로우
우등생
날려라
##공명
모자람
져야한다
김혜수
카타르시스
영제
종민
탁탁
여겨서
이보세요
블러디
다희
섬김
센다이
징검다리
메갈이
뭥미
##활성
마리우스
도망자
건설업자
이랜드
##을지
중개업자
재평가
뒤집힐
멈춰야
안토니우스
휴교령
월화드라마
JS
다드
자회
##AND
##일라잇
트와일라잇
느와르
짱짱
커티스
헛기침
강간죄
신해철
옛다
죄받
찔렸
##비에
버려두
Mac
리만치
싱하
토카
##드렁
전해질
신분당선
##ield
Wi
꼬임
난타
몽이
칼륨
콩쿠르
편식
해마
성대모사
골인
꼬부
봣다
체스터
##중간
무대응
잃어버릴
Ass
News
광업
유색인
비급
입교
##자지
##질나
뿌리내리
장애아
주목적
유성룡
재빠른
꾼다
도이치
예단
월성
##공신
##퓨터
1876
들여다볼
이희호
코스타리카
네빌
산요
선창
오에
요사이
코타
푸치
히브
##port
문화일보
법체계
pt
권은희
칭한
나귀
반수
아발
아후
으십시오
##ux
그케
바자
박정부
장태
전륜
즌라도
타자기
광신자
오디세이
총책임자
도고
미더
을게요
코발
정진석
무럭
밀물
방목
산들
엮여서
조위
##의금
##선택
중순양함
영락없이
백부
신계
종적
##지혈
##나케
##군인
터트릴
군들
마킹
식후
일고
짜깁
찢기
##무로
##회복
삼국지연의
무투
사목
터주
하얼빈
조용필
달러화
접착제
조족지혈
레노
이냥
레이아웃
아키코
##트로피
닭똥
로케
수생
오질
플렉스
설친다
아사쿠라
제이티
쿠르드족
병문안
oled
무혈
엘더스
외려
우선주의
급파
대척
돌담
민갑
태원
호쾌
##파고스
로드리게스
게바라
광의
기어들어오
버너
필리스
해류
##동체
몰아낸
아드레
두둑히
목탁
켜진
폭거
Grand
최병
##무드
##워라
엔트로피
여울
행정직
고금리
손놀림
키시
##버러
차림새
##ift
만수무
생장
선희
진드기
국방군
경력자
노덕술
롱주
##도끼
끌어내렸
최형우
허연
390
감기약
홍천
##오열
당비
함교
돋보기
쓸래
양씨
자린
스러워했
달아날
쥐어박
발아래
에선가
TM
속설
정학
시킬까
롬멜
몸가짐
무희
비사
장삼
공격진
Light
발렸
옥새
웨이드
##갱어
파란만장
도플갱어
군다
낼지
몸종
산사태
사이언
계획안
중앙부
클래시
받아들여질
성형수술
실려고
출도
다녀올
논박
부이
켄시로
켈러
##러시
되돌아갔
라이프치히
굴린
드링크
산유국
훌훌
##멀뚱
하노버
케플러
노동청
연합체
##ival
무이자
덤볐
부아
빡시
뽄새
에큐
몰랐었
오토봇
ALL
cr
류큐
무량
하운드
##BO
조종석
나치스
모셔오
이부키
초신성
광합성
약진
집행정지
부딪힐
돌아온다는
돌려보낸
고픈
백남
완성품
불러일으킨다
걸기
내몽
넷마
##년기
가독성
북군
짱나
투아
1883
초상권
아드레날린
산자락
운비
##ITA
##더듬
사오정
키사라기
병참
술상
안티오
가무
듀이
잠드
##방석
밝혀짐
우선주
지휘권
아픈가
고리타
멀뚱멀뚱
만수무강
갱년기
구찌
상중
앉혀서
##가나
아그니
후버
##YS
##수수
비슈
넘어뜨리
HR
구대
주름잡
아츠시
플러그인
이생
차디
##la
이세민
우량주
##태자
##윤리
심리치료
원고지
상영관
어퍼컷
단무지
용하
취집
허투
어스름
파타
##iri
레코딩
샌가
숙연
##atic
재단법인
뒤따랐
네모난
논설위원
FE
아난
사분오열
강만
압사
익주
한갓
부러뜨리
멍멍멍
응시자
겸사
넝쿨
천일
Show
생트집
RX
세주
점쳐
##해머
소스라치
이삿
지원서
오죽하면
카를로
이삿짐
HOT
대실
레카
블레이
울린
임오
##레벌떡
슈퍼카
올바름
히데키
휘말린
소가
이골
파보
전두엽
무등
범절
영일
스러운데
아키타
친해진
김수영
Back
뉴딜
능정
대저
방음
새총
세사
동족상잔
타쿠야
길수
골드만
사제단
찔러서
주최자
긴밀히
루주
생고생
한거
헐레벌떡
헤카
##앓이
쌍판대기
저길
주면
행한다
##는다
##뚜벅
목포시
복사본
뒤돌아서
뚜벅뚜벅
메피스토
Pop
말길
망인
서큐버스
회충
국민신문
올려져
마르쿠스
동질감
김현종
국민신문고
외판
철분
푼다고
##ute
moon
북당
세리카
사고파
아나키즘
목축
에볼라
##ck
##초롱
버려져
파우더
니켈
리엔
불장난
항산
bm
버선
시린
운문
##수산부
이익금
둘러쌓
글씨체
2025
강형욱
고농
분방
건사
레볼루션
속단
오져
케케
엘리야
그로테
타이거스
Mon
Tri
찬성표
껄끄러운
시코쿠
486
dr
일월
임한
움츠리
절체절명
계투
주노
저런다
SHOW
애널리스트
다승
달서
베리아
식음
코뿔소
편함
##샤인
슈퍼볼
어설트
미구
외손자
임경
카본
불가분
##하마드
근린
서생
##나항공
행정동
나카지마
혜자
공사판
아시아나항공
란다고
봅니까
빛날
조림
툴툴
풍운
##부쳐
그랬음
아르마
못써
쏴야
추력
다빈치
건덕지
렌더링
슈퍼주니어
해져라
일곱째
610
산책로
문교부
KE
리먼
볼로
제타
다카하시
그쯤
응할
전명
##육신
연구가
브래들리
뒤쳐진
개저
장손
처용
쳤으면
평가전
포도청
SEED
어물쩍
문익
손금
카시트
겹겹이
뉴올리언스
말수
죠셉
나대지
호위병
Art
페널티가
담소
환공
##간당
씨부렁
넘쳐흐
증거보존
화낸
##UR
##IF
##기부
신인왕
간토
야루
처진
파자
##해졌
##얼음
12000
떠나갔
권사
북로
투성인
##우먼
가스실
형편없이
동해안
Project
조전
줄까요
크래시
한직
후환
##고비
모래밭
루블
엿보이
조잘
원리금
해수면
데바
외피
떨어트려
차리리
##연구원
정육점
내관
다함
마샬
몸놀림
물릴
어명
정법
중압
##살롱
동군
예제
그럴까요
219
가물가물
가녀
덴버
정토
봐야겠
콘스탄티누스
등진
러서야
빤다고
의젓
자림
##집권
##휴가
수양대군
불순물
수녀원
경순양함
요설
키츠
고대사
싱크탱크
요하네스
ONE
들들
립시
막힙니다
포제
문화원
매일신보
EXO
체이서
##공학
현대그룹
##enter
API
개문
무령
중인
##꺽정
편해졌
##폭력배
라더만
권오
덥썩
문노
버러지
봄철
와아
율동
희정
중간중간
몰려온다
내게로
제트기
MMORPG
방랑자
임꺽정
진대
조직폭력배
대립각
ATT
광원
단하
달여
아더
온돌
응분
키릴
해조
문화관광
이성애
룰라
마노
선과
오릭스
고만하
문화관광부
구씨
까무
디나
영신
윤원
카산
편해서
##이러
##ERS
메디컬
서성거리
감액
강주
납골
노이드
언놈
외울
제헌
쿠빌라이
농구장
서유기
입학생
##제르
타이가
피노키오
무리뉴
장밋빛
Best
볼텍스
서대
제논
306
263
매만
명창
양녀
학예
황망
##진대
##데없
시끌벅적
눈망울
둘까
도시바
조교수
격주
끝마치
로티
쓰레기차
무서운데
대장정
에드가
볼드모트
깨웠
양세
##85
천리마
##할린
일체감
뒤바뀐
관급
급자
맹비
손괴
비아냥대
속절없이
넷마블
구위
데워
맴도
조유
주법
중주
초현실주의
헝겊
##수정
국경일
복덕방
레반
뭇매
참살
서경덕
볼지
영력
피날레
##사쿠
인터폴
물음표
쳐다본
레거
박서
수세기
이몽
처마시
풍파
##우어
우승컵
고독사
거봐
배탈
스면
해드
히피
227
땀방울
해물
수출액
