{"version":"1.0","truncation":null,"padding":null,"added_tokens":[{"id":0,"special":true,"content":"<s>","single_word":false,"lstrip":false,"rstrip":false,"normalized":false},{"id":1,"special":true,"content":"<pad>","single_word":false,"lstrip":false,"rstrip":false,"normalized":false},{"id":2,"special":true,"content":"</s>","single_word":false,"lstrip":false,"rstrip":false,"normalized":false},{"id":3,"special":true,"content":"<unk>","single_word":false,"lstrip":false,"rstrip":false,"normalized":false},{"id":4,"special":true,"content":"<mask>","single_word":false,"lstrip":false,"rstrip":false,"normalized":false},{"id":5,"special":true,"content":"[UNK0]","single_word":false,"lstrip":false,"rstrip":false,"normalized":false},{"id":6,"special":true,"content":"[UNK1]","single_word":false,"lstrip":false,"rstrip":false,"normalized":false},{"id":7,"special":true,"content":"[UNK2]","single_word":false,"lstrip":false,"rstrip":false,"normalized":false},{"id":8,"special":true,"content":"[UNK3]","single_word":false,"lstrip":false,"rstrip":false,"normalized":false},{"id":9,"special":true,"content":"[UNK4]","single_word":false,"lstrip":false,"rstrip":false,"normalized":false},{"id":10,"special":true,"content":"[UNK5]","single_word":false,"lstrip":false,"rstrip":false,"normalized":false},{"id":11,"special":true,"content":"[UNK6]","single_word":false,"lstrip":false,"rstrip":false,"normalized":false},{"id":12,"special":true,"content":"[UNK7]","single_word":false,"lstrip":false,"rstrip":false,"normalized":false},{"id":13,"special":true,"content":"[UNK8]","single_word":false,"lstrip":false,"rstrip":false,"normalized":false},{"id":14,"special":true,"content":"[UNK9]","single_word":false,"lstrip":false,"rstrip":false,"normalized":false},{"id":15,"special":true,"content":"[unused0]","single_word":false,"lstrip":false,"rstrip":false,"normalized":false},{"id":16,"special":true,"content":"[unused1]","single_word":false,"lstrip":false,"rstrip":false,"normalized":false},{"id":17,"special":true,"content":"[unused2]","single_word":false,"lstrip":false,"rstrip":false,"normalized":false},{"id":18,"special":true,"content":"[unused3]","single_word":false,"lstrip":false,"rstrip":false,"normalized":false},{"id":19,"special":true,"content":"[unused4]","single_word":false,"lstrip":false,"rstrip":false,"normalized":false},{"id":20,"special":true,"content":"[unused5]","single_word":false,"lstrip":false,"rstrip":false,"normalized":false},{"id":21,"special":true,"content":"[unused6]","single_word":false,"lstrip":false,"rstrip":false,"normalized":false},{"id":22,"special":true,"content":"[unused7]","single_word":false,"lstrip":false,"rstrip":false,"normalized":false},{"id":23,"special":true,"content":"[unused8]","single_word":false,"lstrip":false,"rstrip":false,"normalized":false},{"id":24,"special":true,"content":"[unused9]","single_word":false,"lstrip":false,"rstrip":false,"normalized":false},{"id":25,"special":true,"content":"[unused10]","single_word":false,"lstrip":false,"rstrip":false,"normalized":false},{"id":26,"special":true,"content":"[unused11]","single_word":false,"lstrip":false,"rstrip":false,"normalized":false},{"id":27,"special":true,"content":"[unused12]","single_word":false,"lstrip":false,"rstrip":false,"normalized":false},{"id":28,"special":true,"content":"[unused13]","single_word":false,"lstrip":false,"rstrip":false,"normalized":false},{"id":29,"special":true,"content":"[unused14]","single_word":false,"lstrip":false,"rstrip":false,"normalized":false},{"id":30,"special":true,"content":"[unused15]","single_word":false,"lstrip":false,"rstrip":false,"normalized":false},{"id":31,"special":true,"content":"[unused16]","single_word":false,"lstrip":false,"rstrip":false,"normalized":false},{"id":32,"special":true,"content":"[unused17]","single_word":false,"lstrip":false,"rstrip":false,"normalized":false},{"id":33,"special":true,"content":"[unused18]","single_word":false,"lstrip":false,"rstrip":false,"normalized":false},{"id":34,"special":true,"content":"[unused19]","single_word":false,"lstrip":false,"rstrip":false,"normalized":false},{"id":35,"special":true,"content":"[unused20]","single_word":false,"lstrip":false,"rstrip":false,"normalized":false},{"id":36,"special":true,"content":"[unused21]","single_word":false,"lstrip":false,"rstrip":false,"normalized":false},{"id":37,"special":true,"content":"[unused22]","single_word":false,"lstrip":false,"rstrip":false,"normalized":false},{"id":38,"special":true,"content":"[unused23]","single_word":false,"lstrip":false,"rstrip":false,"normalized":false},{"id":39,"special":true,"content":"[unused24]","single_word":false,"lstrip":false,"rstrip":false,"normalized":false},{"id":40,"special":true,"content":"[unused25]","single_word":false,"lstrip":false,"rstrip":false,"normalized":false},{"id":41,"special":true,"content":"[unused26]","single_word":false,"lstrip":false,"rstrip":false,"normalized":false},{"id":42,"special":true,"content":"[unused27]","single_word":false,"lstrip":false,"rstrip":false,"normalized":false},{"id":43,"special":true,"content":"[unused28]","single_word":false,"lstrip":false,"rstrip":false,"normalized":false},{"id":44,"special":true,"content":"[unused29]","single_word":false,"lstrip":false,"rstrip":false,"normalized":false},{"id":45,"special":true,"content":"[unused30]","single_word":false,"lstrip":false,"rstrip":false,"normalized":false},{"id":46,"special":true,"content":"[unused31]","single_word":false,"lstrip":false,"rstrip":false,"normalized":false},{"id":47,"special":true,"content":"[unused32]","single_word":false,"lstrip":false,"rstrip":false,"normalized":false},{"id":48,"special":true,"content":"[unused33]","single_word":false,"lstrip":false,"rstrip":false,"normalized":false},{"id":49,"special":true,"content":"[unused34]","single_word":false,"lstrip":false,"rstrip":false,"normalized":false},{"id":50,"special":true,"content":"[unused35]","single_word":false,"lstrip":false,"rstrip":false,"normalized":false},{"id":51,"special":true,"content":"[unused36]","single_word":false,"lstrip":false,"rstrip":false,"normalized":false},{"id":52,"special":true,"content":"[unused37]","single_word":false,"lstrip":false,"rstrip":false,"normalized":false},{"id":53,"special":true,"content":"[unused38]","single_word":false,"lstrip":false,"rstrip":false,"normalized":false},{"id":54,"special":true,"content":"[unused39]","single_word":false,"lstrip":false,"rstrip":false,"normalized":false},{"id":55,"special":true,"content":"[unused40]","single_word":false,"lstrip":false,"rstrip":false,"normalized":false},{"id":56,"special":true,"content":"[unused41]","single_word":false,"lstrip":false,"rstrip":false,"normalized":false},{"id":57,"special":true,"content":"[unused42]","single_word":false,"lstrip":false,"rstrip":false,"normalized":false},{"id":58,"special":true,"content":"[unused43]","single_word":false,"lstrip":false,"rstrip":false,"normalized":false},{"id":59,"special":true,"content":"[unused44]","single_word":false,"lstrip":false,"rstrip":false,"normalized":false},{"id":60,"special":true,"content":"[unused45]","single_word":false,"lstrip":false,"rstrip":false,"normalized":false},{"id":61,"special":true,"content":"[unused46]","single_word":false,"lstrip":false,"rstrip":false,"normalized":false},{"id":62,"special":true,"content":"[unused47]","single_word":false,"lstrip":false,"rstrip":false,"normalized":false},{"id":63,"special":true,"content":"[unused48]","single_word":false,"lstrip":false,"rstrip":false,"normalized":false},{"id":64,"special":true,"content":"[unused49]","single_word":false,"lstrip":false,"rstrip":false,"normalized":false},{"id":65,"special":true,"content":"[unused50]","single_word":false,"lstrip":false,"rstrip":false,"normalized":false},{"id":66,"special":true,"content":"[unused51]","single_word":false,"lstrip":false,"rstrip":false,"normalized":false},{"id":67,"special":true,"content":"[unused52]","single_word":false,"lstrip":false,"rstrip":false,"normalized":false},{"id":68,"special":true,"content":"[unused53]","single_word":false,"lstrip":false,"rstrip":false,"normalized":false},{"id":69,"special":true,"content":"[unused54]","single_word":false,"lstrip":false,"rstrip":false,"normalized":false},{"id":70,"special":true,"content":"[unused55]","single_word":false,"lstrip":false,"rstrip":false,"normalized":false},{"id":71,"special":true,"content":"[unused56]","single_word":false,"lstrip":false,"rstrip":false,"normalized":false},{"id":72,"special":true,"content":"[unused57]","single_word":false,"lstrip":false,"rstrip":false,"normalized":false},{"id":73,"special":true,"content":"[unused58]","single_word":false,"lstrip":false,"rstrip":false,"normalized":false},{"id":74,"special":true,"content":"[unused59]","single_word":false,"lstrip":false,"rstrip":false,"normalized":false},{"id":75,"special":true,"content":"[unused60]","single_word":false,"lstrip":false,"rstrip":false,"normalized":false},{"id":76,"special":true,"content":"[unused61]","single_word":false,"lstrip":false,"rstrip":false,"normalized":false},{"id":77,"special":true,"content":"[unused62]","single_word":false,"lstrip":false,"rstrip":false,"normalized":false},{"id":78,"special":true,"content":"[unused63]","single_word":false,"lstrip":false,"rstrip":false,"normalized":false},{"id":79,"special":true,"content":"[unused64]","single_word":false,"lstrip":false,"rstrip":false,"normalized":false},{"id":80,"special":true,"content":"[unused65]","single_word":false,"lstrip":false,"rstrip":false,"normalized":false},{"id":81,"special":true,"content":"[unused66]","single_word":false,"lstrip":false,"rstrip":false,"normalized":false},{"id":82,"special":true,"content":"[unused67]","single_word":false,"lstrip":false,"rstrip":false,"normalized":false},{"id":83,"special":true,"content":"[unused68]","single_word":false,"lstrip":false,"rstrip":false,"normalized":false},{"id":84,"special":true,"content":"[unused69]","single_word":false,"lstrip":false,"rstrip":false,"normalized":false},{"id":85,"special":true,"content":"[unused70]","single_word":false,"lstrip":false,"rstrip":false,"normalized":false},{"id":86,"special":true,"content":"[unused71]","single_word":false,"lstrip":false,"rstrip":false,"normalized":false},{"id":87,"special":true,"content":"[unused72]","single_word":false,"lstrip":false,"rstrip":false,"normalized":false},{"id":88,"special":true,"content":"[unused73]","single_word":false,"lstrip":false,"rstrip":false,"normalized":false},{"id":89,"special":true,"content":"[unused74]","single_word":false,"lstrip":false,"rstrip":false,"normalized":false},{"id":90,"special":true,"content":"[unused75]","single_word":false,"lstrip":false,"rstrip":false,"normalized":false},{"id":91,"special":true,"content":"[unused76]","single_word":false,"lstrip":false,"rstrip":false,"normalized":false},{"id":92,"special":true,"content":"[unused77]","single_word":false,"lstrip":false,"rstrip":false,"normalized":false},{"id":93,"special":true,"content":"[unused78]","single_word":false,"lstrip":false,"rstrip":false,"normalized":false},{"id":94,"special":true,"content":"[unused79]","single_word":false,"lstrip":false,"rstrip":false,"normalized":false},{"id":95,"special":true,"content":"[unused80]","single_word":false,"lstrip":false,"rstrip":false,"normalized":false},{"id":96,"special":true,"content":"[unused81]","single_word":false,"lstrip":false,"rstrip":false,"normalized":false},{"id":97,"special":true,"content":"[unused82]","single_word":false,"lstrip":false,"rstrip":false,"normalized":false},{"id":98,"special":true,"content":"[unused83]","single_word":false,"lstrip":false,"rstrip":false,"normalized":false},{"id":99,"special":true,"content":"[unused84]","single_word":false,"lstrip":false,"rstrip":false,"normalized":false},{"id":100,"special":true,"content":"[unused85]","single_word":false,"lstrip":false,"rstrip":false,"normalized":false},{"id":101,"special":true,"content":"[unused86]","single_word":false,"lstrip":false,"rstrip":false,"normalized":false},{"id":102,"special":true,"content":"[unused87]","single_word":false,"lstrip":false,"rstrip":false,"normalized":false},{"id":103,"special":true,"content":"[unused88]","single_word":false,"lstrip":false,"rstrip":false,"normalized":false},{"id":104,"special":true,"content":"[unused89]","single_word":false,"lstrip":false,"rstrip":false,"normalized":false},{"id":105,"special":true,"content":"[unused90]","single_word":false,"lstrip":false,"rstrip":false,"normalized":false},{"id":106,"special":true,"content":"[unused91]","single_word":false,"lstrip":false,"rstrip":false,"normalized":false},{"id":107,"special":true,"content":"[unused92]","single_word":false,"lstrip":false,"rstrip":false,"normalized":false},{"id":108,"special":true,"content":"[unused93]","single_word":false,"lstrip":false,"rstrip":false,"normalized":false},{"id":109,"special":true,"content":"[unused94]","single_word":false,"lstrip":false,"rstrip":false,"normalized":false},{"id":110,"special":true,"content":"[unused95]","single_word":false,"lstrip":false,"rstrip":false,"normalized":false},{"id":111,"special":true,"content":"[unused96]","single_word":false,"lstrip":false,"rstrip":false,"normalized":false},{"id":112,"special":true,"content":"[unused97]","single_word":false,"lstrip":false,"rstrip":false,"normalized":false},{"id":113,"special":true,"content":"[unused98]","single_word":false,"lstrip":false,"rstrip":false,"normalized":false},{"id":114,"special":true,"content":"[unused99]","single_word":false,"lstrip":false,"rstrip":false,"normalized":false},{"id":115,"special":true,"content":"[unused100]","single_word":false,"lstrip":false,"rstrip":false,"normalized":false},{"id":116,"special":true,"content":"[unused101]","single_word":false,"lstrip":false,"rstrip":false,"normalized":false},{"id":117,"special":true,"content":"[unused102]","single_word":false,"lstrip":false,"rstrip":false,"normalized":false},{"id":118,"special":true,"content":"[unused103]","single_word":false,"lstrip":false,"rstrip":false,"normalized":false},{"id":119,"special":true,"content":"[unused104]","single_word":false,"lstrip":false,"rstrip":false,"normalized":false},{"id":120,"special":true,"content":"[unused105]","single_word":false,"lstrip":false,"rstrip":false,"normalized":false},{"id":121,"special":true,"content":"[unused106]","single_word":false,"lstrip":false,"rstrip":false,"normalized":false},{"id":122,"special":true,"content":"[unused107]","single_word":false,"lstrip":false,"rstrip":false,"normalized":false},{"id":123,"special":true,"content":"[unused108]","single_word":false,"lstrip":false,"rstrip":false,"normalized":false},{"id":124,"special":true,"content":"[unused109]","single_word":false,"lstrip":false,"rstrip":false,"normalized":false},{"id":125,"special":true,"content":"[unused110]","single_word":false,"lstrip":false,"rstrip":false,"normalized":false},{"id":126,"special":true,"content":"[unused111]","single_word":false,"lstrip":false,"rstrip":false,"normalized":false},{"id":127,"special":true,"content":"[unused112]","single_word":false,"lstrip":false,"rstrip":false,"normalized":false},{"id":128,"special":true,"content":"[unused113]","single_word":false,"lstrip":false,"rstrip":false,"normalized":false},{"id":129,"special":true,"content":"[unused114]","single_word":false,"lstrip":false,"rstrip":false,"normalized":false},{"id":130,"special":true,"content":"[unused115]","single_word":false,"lstrip":false,"rstrip":false,"normalized":false},{"id":131,"special":true,"content":"[unused116]","single_word":false,"lstrip":false,"rstrip":false,"normalized":false},{"id":132,"special":true,"content":"[unused117]","single_word":false,"lstrip":false,"rstrip":false,"normalized":false},{"id":133,"special":true,"content":"[unused118]","single_word":false,"lstrip":false,"rstrip":false,"normalized":false},{"id":134,"special":true,"content":"[unused119]","single_word":false,"lstrip":false,"rstrip":false,"normalized":false},{"id":135,"special":true,"content":"[unused120]","single_word":false,"lstrip":false,"rstrip":false,"normalized":false},{"id":136,"special":true,"content":"[unused121]","single_word":false,"lstrip":false,"rstrip":false,"normalized":false},{"id":137,"special":true,"content":"[unused122]","single_word":false,"lstrip":false,"rstrip":false,"normalized":false},{"id":138,"special":true,"content":"[unused123]","single_word":false,"lstrip":false,"rstrip":false,"normalized":false},{"id":139,"special":true,"content":"[unused124]","single_word":false,"lstrip":false,"rstrip":false,"normalized":false},{"id":140,"special":true,"content":"[unused125]","single_word":false,"lstrip":false,"rstrip":false,"normalized":false},{"id":141,"special":true,"content":"[unused126]","single_word":false,"lstrip":false,"rstrip":false,"normalized":false},{"id":142,"special":true,"content":"[unused127]","single_word":false,"lstrip":false,"rstrip":false,"normalized":false},{"id":143,"special":true,"content":"[unused128]","single_word":false,"lstrip":false,"rstrip":false,"normalized":false},{"id":144,"special":true,"content":"[unused129]","single_word":false,"lstrip":false,"rstrip":false,"normalized":false},{"id":145,"special":true,"content":"[unused130]","single_word":false,"lstrip":false,"rstrip":false,"normalized":false},{"id":146,"special":true,"content":"[unused131]","single_word":false,"lstrip":false,"rstrip":false,"normalized":false},{"id":147,"special":true,"content":"[unused132]","single_word":false,"lstrip":false,"rstrip":false,"normalized":false},{"id":148,"special":true,"content":"[unused133]","single_word":false,"lstrip":false,"rstrip":false,"normalized":false},{"id":149,"special":true,"content":"[unused134]","single_word":false,"lstrip":false,"rstrip":false,"normalized":false},{"id":150,"special":true,"content":"[unused135]","single_word":false,"lstrip":false,"rstrip":false,"normalized":false},{"id":151,"special":true,"content":"[unused136]","single_word":false,"lstrip":false,"rstrip":false,"normalized":false},{"id":152,"special":true,"content":"[unused137]","single_word":false,"lstrip":false,"rstrip":false,"normalized":false},{"id":153,"special":true,"content":"[unused138]","single_word":false,"lstrip":false,"rstrip":false,"normalized":false},{"id":154,"special":true,"content":"[unused139]","single_word":false,"lstrip":false,"rstrip":false,"normalized":false},{"id":155,"special":true,"content":"[unused140]","single_word":false,"lstrip":false,"rstrip":false,"normalized":false},{"id":156,"special":true,"content":"[unused141]","single_word":false,"lstrip":false,"rstrip":false,"normalized":false},{"id":157,"special":true,"content":"[unused142]","single_word":false,"lstrip":false,"rstrip":false,"normalized":false},{"id":158,"special":true,"content":"[unused143]","single_word":false,"lstrip":false,"rstrip":false,"normalized":false},{"id":159,"special":true,"content":"[unused144]","single_word":false,"lstrip":false,"rstrip":false,"normalized":false},{"id":160,"special":true,"content":"[unused145]","single_word":false,"lstrip":false,"rstrip":false,"normalized":false},{"id":161,"special":true,"content":"[unused146]","single_word":false,"lstrip":false,"rstrip":false,"normalized":false},{"id":162,"special":true,"content":"[unused147]","single_word":false,"lstrip":false,"rstrip":false,"normalized":false},{"id":163,"special":true,"content":"[unused148]","single_word":false,"lstrip":false,"rstrip":false,"normalized":false},{"id":164,"special":true,"content":"[unused149]","single_word":false,"lstrip":false,"rstrip":false,"normalized":false},{"id":165,"special":true,"content":"[unused150]","single_word":false,"lstrip":false,"rstrip":false,"normalized":false},{"id":166,"special":true,"content":"[unused151]","single_word":false,"lstrip":false,"rstrip":false,"normalized":false},{"id":167,"special":true,"content":"[unused152]","single_word":false,"lstrip":false,"rstrip":false,"normalized":false},{"id":168,"special":true,"content":"[unused153]","single_word":false,"lstrip":false,"rstrip":false,"normalized":false},{"id":169,"special":true,"content":"[unused154]","single_word":false,"lstrip":false,"rstrip":false,"normalized":false},{"id":170,"special":true,"content":"[unused155]","single_word":false,"lstrip":false,"rstrip":false,"normalized":false},{"id":171,"special":true,"content":"[unused156]","single_word":false,"lstrip":false,"rstrip":false,"normalized":false},{"id":172,"special":true,"content":"[unused157]","single_word":false,"lstrip":false,"rstrip":false,"normalized":false},{"id":173,"special":true,"content":"[unused158]","single_word":false,"lstrip":false,"rstrip":false,"normalized":false},{"id":174,"special":true,"content":"[unused159]","single_word":false,"lstrip":false,"rstrip":false,"normalized":false},{"id":175,"special":true,"content":"[unused160]","single_word":false,"lstrip":false,"rstrip":false,"normalized":false},{"id":176,"special":true,"content":"[unused161]","single_word":false,"lstrip":false,"rstrip":false,"normalized":false},{"id":177,"special":true,"content":"[unused162]","single_word":false,"lstrip":false,"rstrip":false,"normalized":false},{"id":178,"special":true,"content":"[unused163]","single_word":false,"lstrip":false,"rstrip":false,"normalized":false},{"id":179,"special":true,"content":"[unused164]","single_word":false,"lstrip":false,"rstrip":false,"normalized":false},{"id":180,"special":true,"content":"[unused165]","single_word":false,"lstrip":false,"rstrip":false,"normalized":false},{"id":181,"special":true,"content":"[unused166]","single_word":false,"lstrip":false,"rstrip":false,"normalized":false},{"id":182,"special":true,"content":"[unused167]","single_word":false,"lstrip":false,"rstrip":false,"normalized":false},{"id":183,"special":true,"content":"[unused168]","single_word":false,"lstrip":false,"rstrip":false,"normalized":false},{"id":184,"special":true,"content":"[unused169]","single_word":false,"lstrip":false,"rstrip":false,"normalized":false},{"id":185,"special":true,"content":"[unused170]","single_word":false,"lstrip":false,"rstrip":false,"normalized":false},{"id":186,"special":true,"content":"[unused171]","single_word":false,"lstrip":false,"rstrip":false,"normalized":false},{"id":187,"special":true,"content":"[unused172]","single_word":false,"lstrip":false,"rstrip":false,"normalized":false},{"id":188,"special":true,"content":"[unused173]","single_word":false,"lstrip":false,"rstrip":false,"normalized":false},{"id":189,"special":true,"content":"[unused174]","single_word":false,"lstrip":false,"rstrip":false,"normalized":false},{"id":190,"special":true,"content":"[unused175]","single_word":false,"lstrip":false,"rstrip":false,"normalized":false},{"id":191,"special":true,"content":"[unused176]","single_word":false,"lstrip":false,"rstrip":false,"normalized":false},{"id":192,"special":true,"content":"[unused177]","single_word":false,"lstrip":false,"rstrip":false,"normalized":false},{"id":193,"special":true,"content":"[unused178]","single_word":false,"lstrip":false,"rstrip":false,"normalized":false},{"id":194,"special":true,"content":"[unused179]","single_word":false,"lstrip":false,"rstrip":false,"normalized":false},{"id":195,"special":true,"content":"[unused180]","single_word":false,"lstrip":false,"rstrip":false,"normalized":false},{"id":196,"special":true,"content":"[unused181]","single_word":false,"lstrip":false,"rstrip":false,"normalized":false},{"id":197,"special":true,"content":"[unused182]","single_word":false,"lstrip":false,"rstrip":false,"normalized":false},{"id":198,"special":true,"content":"[unused183]","single_word":false,"lstrip":false,"rstrip":false,"normalized":false},{"id":199,"special":true,"content":"[unused184]","single_word":false,"lstrip":false,"rstrip":false,"normalized":false},{"id":200,"special":true,"content":"[unused185]","single_word":false,"lstrip":false,"rstrip":false,"normalized":false},{"id":201,"special":true,"content":"[unused186]","single_word":false,"lstrip":false,"rstrip":false,"normalized":false},{"id":202,"special":true,"content":"[unused187]","single_word":false,"lstrip":false,"rstrip":false,"normalized":false},{"id":203,"special":true,"content":"[unused188]","single_word":false,"lstrip":false,"rstrip":false,"normalized":false},{"id":204,"special":true,"content":"[unused189]","single_word":false,"lstrip":false,"rstrip":false,"normalized":false},{"id":205,"special":true,"content":"[unused190]","single_word":false,"lstrip":false,"rstrip":false,"normalized":false},{"id":206,"special":true,"content":"[unused191]","single_word":false,"lstrip":false,"rstrip":false,"normalized":false},{"id":207,"special":true,"content":"[unused192]","single_word":false,"lstrip":false,"rstrip":false,"normalized":false},{"id":208,"special":true,"content":"[unused193]","single_word":false,"lstrip":false,"rstrip":false,"normalized":false},{"id":209,"special":true,"content":"[unused194]","single_word":false,"lstrip":false,"rstrip":false,"normalized":false},{"id":210,"special":true,"content":"[unused195]","single_word":false,"lstrip":false,"rstrip":false,"normalized":false},{"id":211,"special":true,"content":"[unused196]","single_word":false,"lstrip":false,"rstrip":false,"normalized":false},{"id":212,"special":true,"content":"[unused197]","single_word":false,"lstrip":false,"rstrip":false,"normalized":false},{"id":213,"special":true,"content":"[unused198]","single_word":false,"lstrip":false,"rstrip":false,"normalized":false},{"id":214,"special":true,"content":"[unused199]","single_word":false,"lstrip":false,"rstrip":false,"normalized":false}],"normalizer":{"type":"BertNormalizer","clean_text":true,"handle_chinese_chars":true,"strip_accents":false,"lowercase":false},"pre_tokenizer":{"type":"BertPreTokenizer"},"post_processor":null,"decoder":{"type":"WordPiece","prefix":"##","cleanup":true},"model":{"type":"WordPiece","unk_token":"[UNK]","continuing_subword_prefix":"##","max_input_chars_per_word":100,"vocab":{"<s>":0,"<pad>":1,"</s>":2,"<unk>":3,"<mask>":4,"[UNK0]":5,"[UNK1]":6,"[UNK2]":7,"[UNK3]":8,"[UNK4]":9,"[UNK5]":10,"[UNK6]":11,"[UNK7]":12,"[UNK8]":13,"[UNK9]":14,"[unused0]":15,"[unused1]":16,"[unused2]":17,"[unused3]":18,"[unused4]":19,"[unused5]":20,"[unused6]":21,"[unused7]":22,"[unused8]":23,"[unused9]":24,"[unused10]":25,"[unused11]":26,"[unused12]":27,"[unused13]":28,"[unused14]":29,"[unused15]":30,"[unused16]":31,"[unused17]":32,"[unused18]":33,"[unused19]":34,"[unused20]":35,"[unused21]":36,"[unused22]":37,"[unused23]":38,"[unused24]":39,"[unused25]":40,"[unused26]":41,"[unused27]":42,"[unused28]":43,"[unused29]":44,"[unused30]":45,"[unused31]":46,"[unused32]":47,"[unused33]":48,"[unused34]":49,"[unused35]":50,"[unused36]":51,"[unused37]":52,"[unused38]":53,"[unused39]":54,"[unused40]":55,"[unused41]":56,"[unused42]":57,"[unused43]":58,"[unused44]":59,"[unused45]":60,"[unused46]":61,"[unused47]":62,"[unused48]":63,"[unused49]":64,"[unused50]":65,"[unused51]":66,"[unused52]":67,"[unused53]":68,"[unused54]":69,"[unused55]":70,"[unused56]":71,"[unused57]":72,"[unused58]":73,"[unused59]":74,"[unused60]":75,"[unused61]":76,"[unused62]":77,"[unused63]":78,"[unused64]":79,"[unused65]":80,"[unused66]":81,"[unused67]":82,"[unused68]":83,"[unused69]":84,"[unused70]":85,"[unused71]":86,"[unused72]":87,"[unused73]":88,"[unused74]":89,"[unused75]":90,"[unused76]":91,"[unused77]":92,"[unused78]":93,"[unused79]":94,"[unused80]":95,"[unused81]":96,"[unused82]":97,"[unused83]":98,"[unused84]":99,"[unused85]":100,"[unused86]":101,"[unused87]":102,"[unused88]":103,"[unused89]":104,"[unused90]":105,"[unused91]":106,"[unused92]":107,"[unused93]":108,"[unused94]":109,"[unused95]":110,"[unused96]":111,"[unused97]":112,"[unused98]":113,"[unused99]":114,"[unused100]":115,"[unused101]":116,"[unused102]":117,"[unused103]":118,"[unused104]":119,"[unused105]":120,"[unused106]":121,"[unused107]":122,"[unused108]":123,"[unused109]":124,"[unused110]":125,"[unused111]":126,"[unused112]":127,"[unused113]":128,"[unused114]":129,"[unused115]":130,"[unused116]":131,"[unused117]":132,"[unused118]":133,"[unused119]":134,"[unused120]":135,"[unused121]":136,"[unused122]":137,"[unused123]":138,"[unused124]":139,"[unused125]":140,"[unused126]":141,"[unused127]":142,"[unused128]":143,"[unused129]":144,"[unused130]":145,"[unused131]":146,"[unused132]":147,"[unused133]":148,"[unused134]":149,"[unused135]":150,"[unused136]":151,"[unused137]":152,"[unused138]":153,"[unused139]":154,"[unused140]":155,"[unused141]":156,"[unused142]":157,"[unused143]":158,"[unused144]":159,"[unused145]":160,"[unused146]":161,"[unused147]":162,"[unused148]":163,"[unused149]":164,"[unused150]":165,"[unused151]":166,"[unused152]":167,"[unused153]":168,"[unused154]":169,"[unused155]":170,"[unused156]":171,"[unused157]":172,"[unused158]":173,"[unused159]":174,"[unused160]":175,"[unused161]":176,"[unused162]":177,"[unused163]":178,"[unused164]":179,"[unused165]":180,"[unused166]":181,"[unused167]":182,"[unused168]":183,"[unused169]":184,"[unused170]":185,"[unused171]":186,"[unused172]":187,"[unused173]":188,"[unused174]":189,"[unused175]":190,"[unused176]":191,"[unused177]":192,"[unused178]":193,"[unused179]":194,"[unused180]":195,"[unused181]":196,"[unused182]":197,"[unused183]":198,"[unused184]":199,"[unused185]":200,"[unused186]":201,"[unused187]":202,"[unused188]":203,"[unused189]":204,"[unused190]":205,"[unused191]":206,"[unused192]":207,"[unused193]":208,"[unused194]":209,"[unused195]":210,"[unused196]":211,"[unused197]":212,"[unused198]":213,"[unused199]":214,"!":215,"\"":216,"%":217,"'":218,",":219,"-":220,".":221,"/":222,"0":223,"1":224,"2":225,"3":226,"4":227,"5":228,"6":229,"7":230,"8":231,"9":232,":":233,"?":234,"@":235,"A":236,"B":237,"C":238,"D":239,"E":240,"F":241,"G":242,"H":243,"I":244,"J":245,"K":246,"L":247,"M":248,"N":249,"O":250,"P":251,"Q":252,"R":253,"S":254,"T":255,"U":256,"V":257,"W":258,"X":259,"Y":260,"Z":261,"a":262,"b":263,"c":264,"d":265,"e":266,"f":267,"g":268,"h":269,"i":270,"j":271,"k":272,"l":273,"m":274,"n":275,"o":276,"p":277,"q":278,"r":279,"s":280,"t":281,"u":282,"v":283,"w":284,"x":285,"y":286,"z":287,"~":288,"·":289,"♬":290,"가":291,"각":292,"갂":293,"갃":294,"간":295,"갅":296,"갆":297,"갇":298,"갈":299,"갉":300,"갊":301,"갋":302,"갌":303,"갍":304,"갎":305,"갏":306,"감":307,"갑":308,"값":309,"갓":310,"갔":311,"강":312,"갖":313,"갗":314,"갘":315,"같":316,"갚":317,"갛":318,"개":319,"객":320,"갞":321,"갟":322,"갠":323,"갢":324,"갣":325,"갤":326,"갥":327,"갧":328,"갩":329,"갫":330,"갬":331,"갭":332,"갮":333,"갯":334,"갰":335,"갱":336,"갲":337,"갳":338,"갴":339,"갵":340,"갶":341,"갷":342,"갸":343,"갹":344,"갺":345,"갼":346,"갿":347,"걀":348,"걁":349,"걃":350,"걆":351,"걇":352,"걈":353,"걉":354,"걊":355,"걋":356,"걌":357,"걍":358,"걎":359,"걐":360,"걑":361,"걒":362,"걓":363,"걔":364,"걕":365,"걖":366,"걘":367,"걜":368,"걤":369,"걥":370,"걧":371,"걨":372,"걩":373,"걬":374,"걭":375,"거":376,"걱":377,"걲":378,"걳":379,"건":380,"걵":381,"걶":382,"걷":383,"걸":384,"걹":385,"걺":386,"걻":387,"걼":388,"걽":389,"걾":390,"걿":391,"검":392,"겁":393,"겂":394,"것":395,"겄":396,"겅":397,"겆":398,"겇":399,"겈":400,"겉":401,"겊":402,"겋":403,"게":404,"겍":405,"겎":406,"겏":407,"겐":408,"겒":409,"겓":410,"겔":411,"겕":412,"겗":413,"겙":414,"겚":415,"겛":416,"겜":417,"겝":418,"겞":419,"겟":420,"겠":421,"겡":422,"겢":423,"겣":424,"겤":425,"겥":426,"겦":427,"겧":428,"겨":429,"격":430,"겪":431,"겫":432,"견":433,"겭":434,"겮":435,"겯":436,"결":437,"겱":438,"겲":439,"겳":440,"겴":441,"겵":442,"겷":443,"겸":444,"겹":445,"겺":446,"겻":447,"겼":448,"경":449,"겾":450,"겿":451,"곀":452,"곁":453,"곂":454,"곃":455,"계":456,"곅":457,"곆":458,"곈":459,"곋":460,"곌":461,"곔":462,"곕":463,"곖":464,"곗":465,"곘":466,"곙":467,"곚":468,"곛":469,"곜":470,"곝":471,"곟":472,"고":473,"곡":474,"곢":475,"곣":476,"곤":477,"곥":478,"곧":479,"골":480,"곩":481,"곪":482,"곫":483,"곬":484,"곭":485,"곮":486,"곯":487,"곰":488,"곱":489,"곲":490,"곳":491,"곴":492,"공":493,"곶":494,"곷":495,"곸":496,"곹":497,"곺":498,"곻":499,"과":500,"곽":501,"관":502,"괁":503,"괂":504,"괃":505,"괄":506,"괅":507,"괌":508,"괍":509,"괏":510,"괐":511,"광":512,"괒":513,"괓":514,"괔":515,"괕":516,"괖":517,"괗":518,"괘":519,"괙":520,"괜":521,"괝":522,"괞":523,"괠":524,"괨":525,"괫":526,"괬":527,"괭":528,"괴":529,"괵":530,"괸":531,"괺":532,"괼":533,"굄":534,"굅":535,"굇":536,"굈":537,"굉":538,"굌":539,"교":540,"굑":541,"굔":542,"굗":543,"굘":544,"굚":545,"굠":546,"굡":547,"굣":548,"굤":549,"굥":550,"굦":551,"굧":552,"굨":553,"굩":554,"굪":555,"굫":556,"구":557,"국":558,"굮":559,"굯":560,"군":561,"굱":562,"굲":563,"굳":564,"굴":565,"굵":566,"굶":567,"굷":568,"굺":569,"굻":570,"굼":571,"굽":572,"굾":573,"굿":574,"궀":575,"궁":576,"궂":577,"궃":578,"궄":579,"궅":580,"궆":581,"궇":582,"궈":583,"궉":584,"권":585,"궍":586,"궏":587,"궐":588,"궑":589,"궓":590,"궘":591,"궙":592,"궛":593,"궜":594,"궝":595,"궠":596,"궤":597,"궥":598,"궨":599,"궬":600,"궭":601,"궮":602,"궯":603,"궲":604,"궳":605,"궵":606,"궷":607,"궸":608,"궹":609,"귀":610,"귁":611,"귄":612,"귇":613,"귈":614,"귐":615,"귑":616,"귓":617,"귔":618,"귕":619,"귖":620,"귘":621,"귛":622,"규":623,"귝":624,"균":625,"귣":626,"귤":627,"귥":628,"귦":629,"귬":630,"귭":631,"귯":632,"귱":633,"귴":634,"귷":635,"그":636,"극":637,"귺":638,"귻":639,"근":640,"귽":641,"귾":642,"귿":643,"글":644,"긁":645,"긂":646,"긃":647,"긄":648,"긆":649,"긇":650,"금":651,"급":652,"긊":653,"긋":654,"긌":655,"긍":656,"긎":657,"긏":658,"긐":659,"긑":660,"긒":661,"긓":662,"긔":663,"긕":664,"긘":665,"긛":666,"긜":667,"긞":668,"긤":669,"긥":670,"긧":671,"긩":672,"긪":673,"긬":674,"긯":675,"기":676,"긱":677,"긲":678,"긴":679,"긵":680,"긶":681,"긷":682,"길":683,"긹":684,"긺":685,"긻":686,"긼":687,"긿":688,"김":689,"깁":690,"깂":691,"깃":692,"깄":693,"깅":694,"깆":695,"깇":696,"깈":697,"깉":698,"깊":699,"깋":700,"까":701,"깍":702,"깎":703,"깐":704,"깑":705,"깒":706,"깓":707,"깔":708,"깕":709,"깖":710,"깗":711,"깛":712,"깜":713,"깝":714,"깞":715,"깟":716,"깠":717,"깡":718,"깢":719,"깣":720,"깤":721,"깥":722,"깦":723,"깧":724,"깨":725,"깩":726,"깪":727,"깬":728,"깯":729,"깰":730,"깱":731,"깵":732,"깸":733,"깹":734,"깺":735,"깻":736,"깼":737,"깽":738,"깾":739,"꺀":740,"꺄":741,"꺅":742,"꺆":743,"꺈":744,"꺊":745,"꺋":746,"꺌":747,"꺍":748,"꺏":749,"꺓":750,"꺔":751,"꺕":752,"꺗":753,"꺘":754,"꺙":755,"꺚":756,"꺜":757,"꺟":758,"꺠":759,"꺢":760,"꺤":761,"꺨":762,"꺰":763,"꺳":764,"꺴":765,"꺵":766,"꺼":767,"꺽":768,"꺾":769,"껀":770,"껃":771,"껄":772,"껅":773,"껇":774,"껌":775,"껍":776,"껏":777,"껐":778,"껑":779,"껒":780,"껓":781,"껔":782,"껕":783,"껗":784,"께":785,"껙":786,"껚":787,"껜":788,"껠":789,"껨":790,"껩":791,"껫":792,"껬":793,"껭":794,"껰":795,"껳":796,"껴":797,"껵":798,"껶":799,"껸":800,"껼":801,"꼄":802,"꼅":803,"꼇":804,"꼈":805,"꼉":806,"꼊":807,"꼌":808,"꼍":809,"꼏":810,"꼐":811,"꼣":812,"꼤":813,"꼥":814,"꼨":815,"꼬":816,"꼭":817,"꼮":818,"꼰":819,"꼲":820,"꼳":821,"꼴":822,"꼵":823,"꼶":824,"꼷":825,"꼹":826,"꼻":827,"꼼":828,"꼽":829,"꼿":830,"꽀":831,"꽁":832,"꽂":833,"꽃":834,"꽄":835,"꽅":836,"꽆":837,"꽇":838,"꽈":839,"꽉":840,"꽊":841,"꽌":842,"꽐":843,"꽑":844,"꽘":845,"꽙":846,"꽛":847,"꽜":848,"꽝":849,"꽠":850,"꽤":851,"꽥":852,"꽦":853,"꽨":854,"꽳":855,"꽴":856,"꽹":857,"꽼":858,"꾀":859,"꾁":860,"꾄":861,"꾈":862,"꾐":863,"꾕":864,"꾜":865,"꾝":866,"꾠":867,"꾤":868,"꾬":869,"꾭":870,"꾱":871,"꾳":872,"꾸":873,"꾹":874,"꾺":875,"꾼":876,"꾾":877,"꾿":878,"꿀":879,"꿁":880,"꿂":881,"꿃":882,"꿄":883,"꿇":884,"꿈":885,"꿉":886,"꿋":887,"꿌":888,"꿍":889,"꿎":890,"꿏":891,"꿐":892,"꿑":893,"꿓":894,"꿔":895,"꿕":896,"꿘":897,"꿜":898,"꿝":899,"꿤":900,"꿥":901,"꿧":902,"꿨":903,"꿩":904,"꿬":905,"꿯":906,"꿰":907,"꿱":908,"꿲":909,"꿴":910,"꿸":911,"꿹":912,"꿻":913,"꿿":914,"뀀":915,"뀃":916,"뀄":917,"뀅":918,"뀈":919,"뀌":920,"뀍":921,"뀐":922,"뀔":923,"뀜":924,"뀝":925,"뀟":926,"뀠":927,"뀡":928,"뀤":929,"뀨":930,"뀩":931,"뀪":932,"뀬":933,"뀰":934,"뀱":935,"뀳":936,"뀷":937,"뀸":938,"뀹":939,"뀻":940,"뀽":941,"끀":942,"끄":943,"끅":944,"끆":945,"끈":946,"끉":947,"끊":948,"끋":949,"끌":950,"끍":951,"끎":952,"끏":953,"끐":954,"끓":955,"끔":956,"끕":957,"끗":958,"끘":959,"끙":960,"끚":961,"끛":962,"끜":963,"끝":964,"끞":965,"끟":966,"끠":967,"끡":968,"끤":969,"끨":970,"끯":971,"끰":972,"끵":973,"끸":974,"끼":975,"끽":976,"끾":977,"낀":978,"낂":979,"낃":980,"낄":981,"낅":982,"낋":983,"낌":984,"낍":985,"낎":986,"낏":987,"낐":988,"낑":989,"낒":990,"낓":991,"낔":992,"낕":993,"낗":994,"나":995,"낙":996,"낚":997,"낛":998,"난":999,"낝":1000,"낞":1001,"낟":1002,"날":1003,"낡":1004,"낢":1005,"낣":1006,"낤":1007,"낥":1008,"낧":1009,"남":1010,"납":1011,"낪":1012,"낫":1013,"났":1014,"낭":1015,"낮":1016,"낯":1017,"낰":1018,"낱":1019,"낲":1020,"낳":1021,"내":1022,"낵":1023,"낶":1024,"낸":1025,"낻":1026,"낼":1027,"냄":1028,"냅":1029,"냇":1030,"냈":1031,"냉":1032,"냊":1033,"냋":1034,"냌":1035,"냍":1036,"냎":1037,"냏":1038,"냐":1039,"냑":1040,"냒":1041,"냔":1042,"냗":1043,"냘":1044,"냙":1045,"냠":1046,"냡":1047,"냣":1048,"냤":1049,"냥":1050,"냦":1051,"냧":1052,"냨":1053,"냩":1054,"냪":1055,"냫":1056,"냬":1057,"냰":1058,"냴":1059,"냼":1060,"냿":1061,"넀":1062,"넁":1063,"넄":1064,"너":1065,"넉":1066,"넊":1067,"넋":1068,"넌":1069,"넎":1070,"넏":1071,"널":1072,"넑":1073,"넒":1074,"넓":1075,"넔":1076,"넖":1077,"넗":1078,"넘":1079,"넙":1080,"넚":1081,"넛":1082,"넜":1083,"넝":1084,"넞":1085,"넟":1086,"넠":1087,"넡":1088,"넢":1089,"넣":1090,"네":1091,"넥":1092,"넦":1093,"넧":1094,"넨":1095,"넫":1096,"넬":1097,"넭":1098,"넴":1099,"넵":1100,"넶":1101,"넷":1102,"넸":1103,"넹":1104,"넺":1105,"넻":1106,"넼":1107,"넽":1108,"넾":1109,"넿":1110,"녀":1111,"녁":1112,"녂":1113,"년":1114,"녅":1115,"녆":1116,"녇":1117,"녈":1118,"념":1119,"녑":1120,"녓":1121,"녔":1122,"녕":1123,"녖":1124,"녗":1125,"녘":1126,"녙":1127,"녚":1128,"녛":1129,"녜":1130,"녝":1131,"녠":1132,"녤":1133,"녬":1134,"녭":1135,"녯":1136,"녰":1137,"녱":1138,"녴":1139,"노":1140,"녹":1141,"녺":1142,"녻":1143,"논":1144,"녽":1145,"녾":1146,"녿":1147,"놀":1148,"놁":1149,"놂":1150,"놃":1151,"놇":1152,"놈":1153,"놉":1154,"놊":1155,"놋":1156,"놌":1157,"농":1158,"놎":1159,"놏":1160,"놐":1161,"놑":1162,"높":1163,"놓":1164,"놔":1165,"놕":1166,"놖":1167,"놘":1168,"놛":1169,"놜":1170,"놝":1171,"놤":1172,"놥":1173,"놧":1174,"놨":1175,"놩":1176,"놪":1177,"놬":1178,"놯":1179,"놰":1180,"놴":1181,"놸":1182,"뇀":1183,"뇁":1184,"뇄":1185,"뇅":1186,"뇌":1187,"뇍":1188,"뇐":1189,"뇔":1190,"뇜":1191,"뇝":1192,"뇟":1193,"뇠":1194,"뇡":1195,"뇤":1196,"뇨":1197,"뇩":1198,"뇬":1199,"뇰":1200,"뇸":1201,"뇹":1202,"뇻":1203,"뇽":1204,"눀":1205,"눂":1206,"눃":1207,"누":1208,"눅":1209,"눈":1210,"눉":1211,"눋":1212,"눌":1213,"눍":1214,"눓":1215,"눔":1216,"눕":1217,"눗":1218,"눙":1219,"눚":1220,"눛":1221,"눜":1222,"눝":1223,"눞":1224,"눟":1225,"눠":1226,"눤":1227,"눨":1228,"눰":1229,"눳":1230,"눴":1231,"눵":1232,"눸":1233,"눹":1234,"눼":1235,"눽":1236,"뉀":1237,"뉄":1238,"뉅":1239,"뉌":1240,"뉍":1241,"뉑":1242,"뉔":1243,"뉘":1244,"뉙":1245,"뉜":1246,"뉠":1247,"뉨":1248,"뉩":1249,"뉫":1250,"뉬":1251,"뉭":1252,"뉰":1253,"뉴":1254,"뉵":1255,"뉸":1256,"뉼":1257,"늄":1258,"늅":1259,"늇":1260,"늉":1261,"늌":1262,"늎":1263,"늏":1264,"느":1265,"늑":1266,"늒":1267,"늓":1268,"는":1269,"늕":1270,"늖":1271,"늗":1272,"늘":1273,"늙":1274,"늚":1275,"늛":1276,"늜":1277,"늟":1278,"늠":1279,"늡":1280,"늣":1281,"늤":1282,"능":1283,"늦":1284,"늧":1285,"늨":1286,"늩":1287,"늪":1288,"늫":1289,"늬":1290,"늭":1291,"늰":1292,"늴":1293,"늼":1294,"늽":1295,"늿":1296,"닁":1297,"닄":1298,"니":1299,"닉":1300,"닊":1301,"닋":1302,"닌":1303,"닍":1304,"닏":1305,"닐":1306,"닑":1307,"닒":1308,"닗":1309,"님":1310,"닙":1311,"닚":1312,"닛":1313,"닜":1314,"닝":1315,"닞":1316,"닟":1317,"닠":1318,"닡":1319,"닢":1320,"닣":1321,"다":1322,"닥":1323,"닦":1324,"닧":1325,"단":1326,"닩":1327,"닪":1328,"닫":1329,"달":1330,"닭":1331,"닮":1332,"닯":1333,"닰":1334,"닱":1335,"닲":1336,"닳":1337,"담":1338,"답":1339,"닶":1340,"닷":1341,"닸":1342,"당":1343,"닺":1344,"닻":1345,"닼":1346,"닽":1347,"닾":1348,"닿":1349,"대":1350,"댁":1351,"댂":1352,"댄":1353,"댇":1354,"댈":1355,"댉":1356,"댏":1357,"댐":1358,"댑":1359,"댓":1360,"댔":1361,"댕":1362,"댖":1363,"댗":1364,"댘":1365,"댙":1366,"댚":1367,"댛":1368,"댜":1369,"댝":1370,"댠":1371,"댣":1372,"댤":1373,"댥":1374,"댦":1375,"댬":1376,"댭":1377,"댯":1378,"댰":1379,"댱":1380,"댲":1381,"댴":1382,"댷":1383,"댸":1384,"댼":1385,"덀":1386,"덈":1387,"덋":1388,"덌":1389,"덍":1390,"더":1391,"덕":1392,"덖":1393,"덗":1394,"던":1395,"덙":1396,"덛":1397,"덜":1398,"덝":1399,"덞":1400,"덟":1401,"덢":1402,"덣":1403,"덤":1404,"덥":1405,"덦":1406,"덧":1407,"덨":1408,"덩":1409,"덪":1410,"덫":1411,"덬":1412,"덭":1413,"덮":1414,"덯":1415,"데":1416,"덱":1417,"덲":1418,"덴":1419,"덷":1420,"델":1421,"덹":1422,"덻":1423,"뎀":1424,"뎁":1425,"뎂":1426,"뎃":1427,"뎄":1428,"뎅":1429,"뎆":1430,"뎇":1431,"뎈":1432,"뎉":1433,"뎊":1434,"뎋":1435,"뎌":1436,"뎍":1437,"뎐":1438,"뎓":1439,"뎔":1440,"뎜":1441,"뎝":1442,"뎟":1443,"뎠":1444,"뎡":1445,"뎤":1446,"뎦":1447,"뎧":1448,"뎨":1449,"뎬":1450,"뎹":1451,"뎻":1452,"뎽":1453,"도":1454,"독":1455,"돆":1456,"돇":1457,"돈":1458,"돉":1459,"돋":1460,"돌":1461,"돍":1462,"돎":1463,"돏":1464,"돐":1465,"돒":1466,"돓":1467,"돔":1468,"돕":1469,"돖":1470,"돗":1471,"돘":1472,"동":1473,"돚":1474,"돛":1475,"돜":1476,"돝":1477,"돞":1478,"돟":1479,"돠":1480,"돡":1481,"돤":1482,"돨":1483,"돩":1484,"돰":1485,"돱":1486,"돳":1487,"돴":1488,"돵":1489,"돸":1490,"돻":1491,"돼":1492,"돽":1493,"돾":1494,"됀":1495,"됃":1496,"됄":1497,"됌":1498,"됍":1499,"됏":1500,"됐":1501,"됑":1502,"됒":1503,"됔":1504,"됗":1505,"되":1506,"됙":1507,"됚":1508,"된":1509,"됝":1510,"됟":1511,"될":1512,"됡":1513,"됢":1514,"됤":1515,"됥":1516,"됧":1517,"됨":1518,"됩":1519,"됫":1520,"됬":1521,"됭":1522,"됮":1523,"됰":1524,"됱":1525,"됳":1526,"됴":1527,"됵":1528,"됸":1529,"됻":1530,"됼":1531,"둄":1532,"둅":1533,"둇":1534,"둉":1535,"둊":1536,"둋":1537,"둌":1538,"둏":1539,"두":1540,"둑":1541,"둒":1542,"둔":1543,"둗":1544,"둘":1545,"둙":1546,"둚":1547,"둛":1548,"둞":1549,"둟":1550,"둠":1551,"둡":1552,"둣":1553,"둥":1554,"둦":1555,"둧":1556,"둨":1557,"둩":1558,"둪":1559,"둫":1560,"둬":1561,"둭":1562,"둰":1563,"둴":1564,"둼":1565,"둽":1566,"둿":1567,"뒀":1568,"뒁":1569,"뒄":1570,"뒇":1571,"뒈":1572,"뒌":1573,"뒐":1574,"뒑":1575,"뒓":1576,"뒘":1577,"뒙":1578,"뒛":1579,"뒜":1580,"뒝":1581,"뒞":1582,"뒠":1583,"뒤":1584,"뒥":1585,"뒨":1586,"뒫":1587,"뒬":1588,"뒴":1589,"뒵":1590,"뒷":1591,"뒸":1592,"뒹":1593,"뒺":1594,"뒼":1595,"듀":1596,"듁":1597,"듄":1598,"듇":1599,"듈":1600,"듐":1601,"듑":1602,"듓":1603,"듕":1604,"듘":1605,"드":1606,"득":1607,"듞":1608,"듟":1609,"든":1610,"듡":1611,"듢":1612,"듣":1613,"들":1614,"듥":1615,"듦":1616,"듧":1617,"듨":1618,"듩":1619,"듪":1620,"듫":1621,"듬":1622,"듭":1623,"듯":1624,"듰":1625,"등":1626,"듲":1627,"듳":1628,"듴":1629,"듵":1630,"듶":1631,"듷":1632,"듸":1633,"듹":1634,"듼":1635,"딀":1636,"딈":1637,"딉":1638,"딋":1639,"딍":1640,"디":1641,"딕":1642,"딖":1643,"딘":1644,"딛":1645,"딜":1646,"딝":1647,"딞":1648,"딣":1649,"딤":1650,"딥":1651,"딧":1652,"딨":1653,"딩":1654,"딪":1655,"딫":1656,"딬":1657,"딭":1658,"딮":1659,"딯":1660,"따":1661,"딱":1662,"딲":1663,"딳":1664,"딴":1665,"딷":1666,"딸":1667,"딹":1668,"딺":1669,"딻":1670,"딿":1671,"땀":1672,"땁":1673,"땃":1674,"땄":1675,"땅":1676,"땆":1677,"땈":1678,"땉":1679,"땋":1680,"때":1681,"땍":1682,"땎":1683,"땐":1684,"땓":1685,"땔":1686,"땜":1687,"땝":1688,"땟":1689,"땠":1690,"땡":1691,"땢":1692,"땣":1693,"땤":1694,"땦":1695,"땧":1696,"땨":1697,"땩":1698,"땬":1699,"땰":1700,"땸":1701,"땽":1702,"떃":1703,"떄":1704,"떅":1705,"떈":1706,"떌":1707,"떔":1708,"떗":1709,"떘":1710,"떙":1711,"떠":1712,"떡":1713,"떢":1714,"떣":1715,"떤":1716,"떥":1717,"떦":1718,"떧":1719,"떨":1720,"떩":1721,"떪":1722,"떫":1723,"떮":1724,"떯":1725,"떰":1726,"떱":1727,"떳":1728,"떴":1729,"떵":1730,"떶":1731,"떷":1732,"떸":1733,"떹":1734,"떺":1735,"떻":1736,"떼":1737,"떽":1738,"떾":1739,"뗀":1740,"뗄":1741,"뗌":1742,"뗍":1743,"뗏":1744,"뗐":1745,"뗑":1746,"뗔":1747,"뗗":1748,"뗘":1749,"뗙":1750,"뗜":1751,"뗠":1752,"뗨":1753,"뗫":1754,"뗬":1755,"뗭":1756,"뗳":1757,"뗴":1758,"뗵":1759,"뗸":1760,"뗼":1761,"똇":1762,"똈":1763,"또":1764,"똑":1765,"똒":1766,"똔":1767,"똗":1768,"똘":1769,"똙":1770,"똚":1771,"똝":1772,"똟":1773,"똠":1774,"똡":1775,"똣":1776,"똥":1777,"똦":1778,"똧":1779,"똨":1780,"똩":1781,"똫":1782,"똬":1783,"똭":1784,"똮":1785,"똰":1786,"똴":1787,"똵":1788,"똷":1789,"똻":1790,"똼":1791,"똽":1792,"똿":1793,"뙀":1794,"뙁":1795,"뙄":1796,"뙇":1797,"뙈":1798,"뙌":1799,"뙓":1800,"뙛":1801,"뙜":1802,"뙝":1803,"뙤":1804,"뙥":1805,"뙨":1806,"뙬":1807,"뙴":1808,"뙷":1809,"뙸":1810,"뙹":1811,"뙿":1812,"뚀":1813,"뚁":1814,"뚄":1815,"뚈":1816,"뚊":1817,"뚕":1818,"뚜":1819,"뚝":1820,"뚞":1821,"뚠":1822,"뚢":1823,"뚣":1824,"뚤":1825,"뚥":1826,"뚦":1827,"뚧":1828,"뚨":1829,"뚫":1830,"뚬":1831,"뚭":1832,"뚯":1833,"뚱":1834,"뚴":1835,"뚵":1836,"뚷":1837,"뚸":1838,"뚹":1839,"뚼":1840,"뛀":1841,"뛃":1842,"뛋":1843,"뛌":1844,"뛍":1845,"뛓":1846,"뛔":1847,"뛕":1848,"뛝":1849,"뛟":1850,"뛣":1851,"뛥":1852,"뛧":1853,"뛨":1854,"뛰":1855,"뛱":1856,"뛴":1857,"뛸":1858,"뜀":1859,"뜁":1860,"뜃":1861,"뜄":1862,"뜅":1863,"뜌":1864,"뜍":1865,"뜐":1866,"뜔":1867,"뜛":1868,"뜜":1869,"뜝":1870,"뜡":1871,"뜨":1872,"뜩":1873,"뜪":1874,"뜬":1875,"뜮":1876,"뜯":1877,"뜰":1878,"뜱":1879,"뜳":1880,"뜷":1881,"뜸":1882,"뜹":1883,"뜻":1884,"뜼":1885,"뜽":1886,"뜾":1887,"뜿":1888,"띀":1889,"띁":1890,"띃":1891,"띄":1892,"띅":1893,"띈":1894,"띌":1895,"띔":1896,"띕":1897,"띙":1898,"띟":1899,"띠":1900,"띡":1901,"띤":1902,"띧":1903,"띨":1904,"띰":1905,"띱":1906,"띳":1907,"띴":1908,"띵":1909,"띶":1910,"띸":1911,"띻":1912,"라":1913,"락":1914,"띾":1915,"띿":1916,"란":1917,"랁":1918,"랂":1919,"랃":1920,"랄":1921,"랅":1922,"랆":1923,"랇":1924,"랈":1925,"랉":1926,"랊":1927,"랋":1928,"람":1929,"랍":1930,"랎":1931,"랏":1932,"랐":1933,"랑":1934,"랒":1935,"랓":1936,"랔":1937,"랕":1938,"랖":1939,"랗":1940,"래":1941,"랙":1942,"랚":1943,"랜":1944,"랟":1945,"랠":1946,"랡":1947,"램":1948,"랩":1949,"랫":1950,"랬":1951,"랭":1952,"랮":1953,"랯":1954,"랰":1955,"랱":1956,"랲":1957,"랳":1958,"랴":1959,"략":1960,"랸":1961,"랺":1962,"랻":1963,"랼":1964,"럄":1965,"럅":1966,"럇":1967,"럈":1968,"량":1969,"럊":1970,"럌":1971,"럎":1972,"럏":1973,"럐":1974,"럑":1975,"럔":1976,"럗":1977,"럘":1978,"럠":1979,"럣":1980,"럤":1981,"럥":1982,"러":1983,"럭":1984,"럮":1985,"럯":1986,"런":1987,"럱":1988,"럲":1989,"럳":1990,"럴":1991,"럵":1992,"럶":1993,"럷":1994,"럸":1995,"럻":1996,"럼":1997,"럽":1998,"럾":1999,"럿":2000,"렀":2001,"렁":2002,"렂":2003,"렃":2004,"렄":2005,"렅":2006,"렆":2007,"렇":2008,"레":2009,"렉":2010,"렊":2011,"렋":2012,"렌":2013,"렏":2014,"렐":2015,"렑":2016,"렓":2017,"렗":2018,"렘":2019,"렙":2020,"렚":2021,"렛":2022,"렜":2023,"렝":2024,"렞":2025,"렠":2026,"렡":2027,"렢":2028,"렣":2029,"려":2030,"력":2031,"렦":2032,"렧":2033,"련":2034,"렩":2035,"렪":2036,"렫":2037,"렬":2038,"렭":2039,"렴":2040,"렵":2041,"렷":2042,"렸":2043,"령":2044,"렺":2045,"렻":2046,"렼":2047,"렽":2048,"렾":2049,"렿":2050,"례":2051,"롁":2052,"롄":2053,"롈":2054,"롐":2055,"롑":2056,"롓":2057,"롔":2058,"롕":2059,"롘":2060,"로":2061,"록":2062,"롞":2063,"론":2064,"롡":2065,"롣":2066,"롤":2067,"롥":2068,"롫":2069,"롬":2070,"롭":2071,"롮":2072,"롯":2073,"롰":2074,"롱":2075,"롲":2076,"롳":2077,"롴":2078,"롵":2079,"롶":2080,"롷":2081,"롸":2082,"롹":2083,"롻":2084,"롼":2085,"뢀":2086,"뢁":2087,"뢈":2088,"뢉":2089,"뢋":2090,"뢌":2091,"뢍":2092,"뢐":2093,"뢓":2094,"뢔":2095,"뢕":2096,"뢘":2097,"뢜":2098,"뢥":2099,"뢨":2100,"뢩":2101,"뢰":2102,"뢱":2103,"뢴":2104,"뢸":2105,"룀":2106,"룁":2107,"룃":2108,"룄":2109,"룅":2110,"룈":2111,"료":2112,"룍":2113,"룐":2114,"룔":2115,"룜":2116,"룝":2117,"룟":2118,"룠":2119,"룡":2120,"룢":2121,"룤":2122,"룧":2123,"루":2124,"룩":2125,"룪":2126,"룬":2127,"룯":2128,"룰":2129,"룱":2130,"룷":2131,"룸":2132,"룹":2133,"룻":2134,"룽":2135,"룾":2136,"룿":2137,"뤀":2138,"뤁":2139,"뤂":2140,"뤃":2141,"뤄":2142,"뤅":2143,"뤈":2144,"뤌":2145,"뤔":2146,"뤕":2147,"뤗":2148,"뤘":2149,"뤙":2150,"뤜":2151,"뤟":2152,"뤠":2153,"뤡":2154,"뤤":2155,"뤨":2156,"뤩":2157,"뤫":2158,"뤰":2159,"뤱":2160,"뤳":2161,"뤵":2162,"뤸":2163,"뤼":2164,"뤽":2165,"륀":2166,"륄":2167,"륌":2168,"륍":2169,"륏":2170,"륐":2171,"륑":2172,"륔":2173,"류":2174,"륙":2175,"륜":2176,"륟":2177,"률":2178,"륨":2179,"륩":2180,"륫":2181,"륭":2182,"륮":2183,"륰":2184,"륲":2185,"륳":2186,"르":2187,"륵":2188,"륶":2189,"른":2190,"륹":2191,"륻":2192,"를":2193,"륽":2194,"륾":2195,"륿":2196,"릀":2197,"릁":2198,"릂":2199,"릃":2200,"름":2201,"릅":2202,"릆":2203,"릇":2204,"릈":2205,"릉":2206,"릊":2207,"릋":2208,"릌":2209,"릍":2210,"릎":2211,"릏":2212,"릐":2213,"릑":2214,"릔":2215,"릘":2216,"릠":2217,"릡":2218,"릣":2219,"릥":2220,"릫":2221,"리":2222,"릭":2223,"릮":2224,"린":2225,"릱":2226,"릲":2227,"릳":2228,"릴":2229,"릵":2230,"릶":2231,"릷":2232,"릸":2233,"릹":2234,"릻":2235,"림":2236,"립":2237,"릾":2238,"릿":2239,"맀":2240,"링":2241,"맂":2242,"맃":2243,"맄":2244,"맅":2245,"맆":2246,"맇":2247,"마":2248,"막":2249,"맊":2250,"맋":2251,"만":2252,"맍":2253,"많":2254,"맏":2255,"말":2256,"맑":2257,"맒":2258,"맓":2259,"맔":2260,"맕":2261,"맖":2262,"맗":2263,"맘":2264,"맙":2265,"맚":2266,"맛":2267,"맜":2268,"망":2269,"맞":2270,"맟":2271,"맠":2272,"맡":2273,"맢":2274,"맣":2275,"매":2276,"맥":2277,"맨":2278,"맩":2279,"맪":2280,"맫":2281,"맬":2282,"맴":2283,"맵":2284,"맷":2285,"맸":2286,"맹":2287,"맺":2288,"맻":2289,"맼":2290,"맽":2291,"맿":2292,"먀":2293,"먁":2294,"먄":2295,"먆":2296,"먇":2297,"먈":2298,"먐":2299,"먑":2300,"먓":2301,"먕":2302,"먖":2303,"먗":2304,"먘":2305,"먛":2306,"먜":2307,"먠":2308,"먤":2309,"먱":2310,"머":2311,"먹":2312,"먺":2313,"먻":2314,"먼":2315,"먽":2316,"먾":2317,"먿":2318,"멀":2319,"멁":2320,"멂":2321,"멈":2322,"멉":2323,"멊":2324,"멋":2325,"멌":2326,"멍":2327,"멎":2328,"멏":2329,"멐":2330,"멑":2331,"멒":2332,"멓":2333,"메":2334,"멕":2335,"멘":2336,"멛":2337,"멜":2338,"멤":2339,"멥":2340,"멧":2341,"멨":2342,"멩":2343,"멪":2344,"멫":2345,"멬":2346,"멭":2347,"멮":2348,"멯":2349,"며":2350,"멱":2351,"멲":2352,"면":2353,"멵":2354,"멶":2355,"멷":2356,"멸":2357,"멿":2358,"몀":2359,"몁":2360,"몃":2361,"몄":2362,"명":2363,"몆":2364,"몇":2365,"몈":2366,"몉":2367,"몊":2368,"몋":2369,"몌":2370,"몐":2371,"몔":2372,"몟":2373,"몡":2374,"몢":2375,"몣":2376,"모":2377,"목":2378,"몪":2379,"몫":2380,"몬":2381,"몮":2382,"몯":2383,"몰":2384,"몱":2385,"몲":2386,"몴":2387,"몷":2388,"몸":2389,"몹":2390,"몺":2391,"못":2392,"몼":2393,"몽":2394,"몾":2395,"몿":2396,"뫀":2397,"뫁":2398,"뫂":2399,"뫃":2400,"뫄":2401,"뫅":2402,"뫈":2403,"뫌":2404,"뫔":2405,"뫕":2406,"뫗":2407,"뫘":2408,"뫙":2409,"뫚":2410,"뫜":2411,"뫠":2412,"뫤":2413,"뫼":2414,"뫽":2415,"묀":2416,"묄":2417,"묏":2418,"묑":2419,"묘":2420,"묙":2421,"묜":2422,"묠":2423,"묨":2424,"묫":2425,"묭":2426,"묯":2427,"무":2428,"묵":2429,"묶":2430,"묷":2431,"문":2432,"묹":2433,"묺":2434,"묻":2435,"물":2436,"묽":2437,"묾":2438,"묿":2439,"뭀":2440,"뭁":2441,"뭃":2442,"뭄":2443,"뭅":2444,"뭇":2445,"뭈":2446,"뭉":2447,"뭊":2448,"뭋":2449,"뭌":2450,"뭍":2451,"뭎":2452,"뭏":2453,"뭐":2454,"뭑":2455,"뭔":2456,"뭕":2457,"뭗":2458,"뭘":2459,"뭙":2460,"뭚":2461,"뭟":2462,"뭠":2463,"뭡":2464,"뭣":2465,"뭤":2466,"뭥":2467,"뭦":2468,"뭧":2469,"뭨":2470,"뭩":2471,"뭫":2472,"뭬":2473,"뭭":2474,"뭰":2475,"뭴":2476,"뭵":2477,"뭷":2478,"뭽":2479,"뭿":2480,"뮁":2481,"뮈":2482,"뮉":2483,"뮌":2484,"뮏":2485,"뮐":2486,"뮘":2487,"뮙":2488,"뮛":2489,"뮜":2490,"뮝":2491,"뮤":2492,"뮥":2493,"뮦":2494,"뮨":2495,"뮫":2496,"뮬":2497,"뮴":2498,"뮷":2499,"뮹":2500,"뮻":2501,"뮼":2502,"므":2503,"믁":2504,"믂":2505,"믄":2506,"믆":2507,"믇":2508,"믈":2509,"믉":2510,"믌":2511,"믏":2512,"믐":2513,"믑":2514,"믓":2515,"믕":2516,"믖":2517,"믘":2518,"믙":2519,"믛":2520,"믜":2521,"믝":2522,"믠":2523,"믣":2524,"믤":2525,"믬":2526,"믯":2527,"믰":2528,"믱":2529,"미":2530,"믹":2531,"믺":2532,"믻":2533,"민":2534,"믽":2535,"믾":2536,"믿":2537,"밀":2538,"밁":2539,"밂":2540,"밇":2541,"밈":2542,"밉":2543,"밊":2544,"밋":2545,"밌":2546,"밍":2547,"밎":2548,"및":2549,"밐":2550,"밑":2551,"밒":2552,"밓":2553,"바":2554,"박":2555,"밖":2556,"밗":2557,"반":2558,"밙":2559,"밚":2560,"받":2561,"발":2562,"밝":2563,"밞":2564,"밟":2565,"밠":2566,"밡":2567,"밢":2568,"밣":2569,"밤":2570,"밥":2571,"밦":2572,"밧":2573,"밨":2574,"방":2575,"밪":2576,"밫":2577,"밬":2578,"밭":2579,"밮":2580,"밯":2581,"배":2582,"백":2583,"밲":2584,"밳":2585,"밴":2586,"밷":2587,"밸":2588,"밹":2589,"밿":2590,"뱀":2591,"뱁":2592,"뱃":2593,"뱄":2594,"뱅":2595,"뱆":2596,"뱇":2597,"뱈":2598,"뱉":2599,"뱊":2600,"뱋":2601,"뱌":2602,"뱍":2603,"뱎":2604,"뱐":2605,"뱓":2606,"뱔":2607,"뱕":2608,"뱗":2609,"뱛":2610,"뱜":2611,"뱝":2612,"뱟":2613,"뱡":2614,"뱤":2615,"뱥":2616,"뱨":2617,"뱩":2618,"뱬":2619,"뱰":2620,"뱸":2621,"뱽":2622,"벁":2623,"버":2624,"벅":2625,"벆":2626,"번":2627,"벉":2628,"벊":2629,"벋":2630,"벌":2631,"벍":2632,"벎":2633,"벏":2634,"벐":2635,"벑":2636,"벓":2637,"범":2638,"법":2639,"벖":2640,"벗":2641,"벘":2642,"벙":2643,"벚":2644,"벛":2645,"벜":2646,"벝":2647,"벞":2648,"벟":2649,"베":2650,"벡":2651,"벤":2652,"벧":2653,"벨":2654,"벩":2655,"벫":2656,"벯":2657,"벰":2658,"벱":2659,"벲":2660,"벳":2661,"벴":2662,"벵":2663,"벶":2664,"벷":2665,"벸":2666,"벹":2667,"벺":2668,"벻":2669,"벼":2670,"벽":2671,"벾":2672,"변":2673,"볁":2674,"볂":2675,"볃":2676,"별":2677,"볅":2678,"볆":2679,"볇":2680,"볈":2681,"볋":2682,"볌":2683,"볍":2684,"볎":2685,"볏":2686,"볐":2687,"병":2688,"볒":2689,"볓":2690,"볔":2691,"볕":2692,"볖":2693,"볗":2694,"볘":2695,"볙":2696,"볜":2697,"볠":2698,"볫":2699,"볭":2700,"보":2701,"복":2702,"볶":2703,"볷":2704,"본":2705,"볹":2706,"볻":2707,"볼":2708,"볽":2709,"볾":2710,"봀":2711,"봁":2712,"봃":2713,"봄":2714,"봅":2715,"봆":2716,"봇":2717,"봈":2718,"봉":2719,"봊":2720,"봋":2721,"봌":2722,"봍":2723,"봎":2724,"봏":2725,"봐":2726,"봑":2727,"봒":2728,"봔":2729,"봗":2730,"봘":2731,"봙":2732,"봟":2733,"봠":2734,"봡":2735,"봣":2736,"봤":2737,"봥":2738,"봦":2739,"봨":2740,"봩":2741,"봫":2742,"봬":2743,"봭":2744,"봰":2745,"봴":2746,"봵":2747,"봽":2748,"봿":2749,"뵀":2750,"뵁":2751,"뵈":2752,"뵉":2753,"뵌":2754,"뵏":2755,"뵐":2756,"뵑":2757,"뵘":2758,"뵙":2759,"뵛":2760,"뵜":2761,"뵝":2762,"뵞":2763,"뵠":2764,"뵤":2765,"뵥":2766,"뵨":2767,"뵬":2768,"뵴":2769,"뵵":2770,"뵷":2771,"뵹":2772,"뵺":2773,"부":2774,"북":2775,"붂":2776,"붃":2777,"분":2778,"붅":2779,"붆":2780,"붇":2781,"불":2782,"붉":2783,"붊":2784,"붋":2785,"붌":2786,"붍":2787,"붎":2788,"붏":2789,"붐":2790,"붑":2791,"붓":2792,"붔":2793,"붕":2794,"붖":2795,"붗":2796,"붘":2797,"붙":2798,"붚":2799,"붛":2800,"붜":2801,"붝":2802,"붠":2803,"붤":2804,"붥":2805,"붬":2806,"붭":2807,"붯":2808,"붰":2809,"붱":2810,"붴":2811,"붸":2812,"붹":2813,"붼":2814,"뷀":2815,"뷁":2816,"뷃":2817,"뷇":2818,"뷉":2819,"뷋":2820,"뷍":2821,"뷐":2822,"뷔":2823,"뷕":2824,"뷘":2825,"뷜":2826,"뷤":2827,"뷥":2828,"뷧":2829,"뷩":2830,"뷮":2831,"뷰":2832,"뷱":2833,"뷴":2834,"뷷":2835,"뷸":2836,"뷹":2837,"븀":2838,"븁":2839,"븂":2840,"븃":2841,"븅":2842,"븈":2843,"븉":2844,"븋":2845,"브":2846,"븍":2847,"븎":2848,"븏":2849,"븐":2850,"븓":2851,"블":2852,"븕":2853,"븜":2854,"븝":2855,"븞":2856,"븟":2857,"븡":2858,"븢":2859,"븤":2860,"븥":2861,"븦":2862,"븧":2863,"븨":2864,"븩":2865,"븬":2866,"븰":2867,"븸":2868,"븹":2869,"븻":2870,"븽":2871,"빂":2872,"비":2873,"빅":2874,"빆":2875,"빇":2876,"빈":2877,"빋":2878,"빌":2879,"빍":2880,"빎":2881,"빏":2882,"빓":2883,"빔":2884,"빕":2885,"빖":2886,"빗":2887,"빘":2888,"빙":2889,"빚":2890,"빛":2891,"빜":2892,"빝":2893,"빞":2894,"빟":2895,"빠":2896,"빡":2897,"빢":2898,"빣":2899,"빤":2900,"빧":2901,"빨":2902,"빩":2903,"빪":2904,"빫":2905,"빬":2906,"빭":2907,"빯":2908,"빰":2909,"빱":2910,"빳":2911,"빴":2912,"빵":2913,"빶":2914,"빷":2915,"빸":2916,"빹":2917,"빺":2918,"빻":2919,"빼":2920,"빽":2921,"빾":2922,"뺀":2923,"뺃":2924,"뺄":2925,"뺅":2926,"뺌":2927,"뺍":2928,"뺏":2929,"뺐":2930,"뺑":2931,"뺒":2932,"뺓":2933,"뺔":2934,"뺕":2935,"뺗":2936,"뺘":2937,"뺙":2938,"뺚":2939,"뺜":2940,"뺠":2941,"뺡":2942,"뺨":2943,"뺩":2944,"뺫":2945,"뺭":2946,"뺴":2947,"뺵":2948,"뺶":2949,"뺸":2950,"뺼":2951,"뻁":2952,"뻄":2953,"뻇":2954,"뻈":2955,"뻉":2956,"뻐":2957,"뻑":2958,"뻒":2959,"뻔":2960,"뻕":2961,"뻖":2962,"뻗":2963,"뻘":2964,"뻙":2965,"뻠":2966,"뻡":2967,"뻣":2968,"뻤":2969,"뻥":2970,"뻦":2971,"뻨":2972,"뻩":2973,"뻪":2974,"뻫":2975,"뻬":2976,"뻭":2977,"뻰":2978,"뻴":2979,"뻼":2980,"뻿":2981,"뼀":2982,"뼁":2983,"뼈":2984,"뼉":2985,"뼊":2986,"뼌":2987,"뼏":2988,"뼐":2989,"뼑":2990,"뼘":2991,"뼙":2992,"뼛":2993,"뼜":2994,"뼝":2995,"뼠":2996,"뼡":2997,"뼤":2998,"뼬":2999,"뽀":3000,"뽁":3001,"뽂":3002,"뽄":3003,"뽇":3004,"뽈":3005,"뽐":3006,"뽑":3007,"뽓":3008,"뽕":3009,"뽖":3010,"뽘":3011,"뽚":3012,"뽛":3013,"뽜":3014,"뽝":3015,"뽞":3016,"뽠":3017,"뽤":3018,"뽥":3019,"뽫":3020,"뽬":3021,"뽭":3022,"뽯":3023,"뽰":3024,"뽱":3025,"뽴":3026,"뽷":3027,"뽸":3028,"뽹":3029,"뾀":3030,"뾃":3031,"뾔":3032,"뾥":3033,"뾰":3034,"뾱":3035,"뾲":3036,"뾴":3037,"뾸":3038,"뿁":3039,"뿃":3040,"뿅":3041,"뿌":3042,"뿍":3043,"뿎":3044,"뿐":3045,"뿑":3046,"뿓":3047,"뿔":3048,"뿕":3049,"뿛":3050,"뿜":3051,"뿝":3052,"뿟":3053,"뿠":3054,"뿡":3055,"뿤":3056,"뿥":3057,"뿧":3058,"뿨":3059,"뿩":3060,"뿬":3061,"뿰":3062,"뿱":3063,"뿳":3064,"뿹":3065,"뿽":3066,"쀀":3067,"쀄":3068,"쀅":3069,"쀈":3070,"쀌":3071,"쀍":3072,"쀏":3073,"쀒":3074,"쀓":3075,"쀠":3076,"쀡":3077,"쀨":3078,"쀳":3079,"쀵":3080,"쀼":3081,"쀽":3082,"쀾":3083,"쁀":3084,"쁄":3085,"쁌":3086,"쁍":3087,"쁏":3088,"쁐":3089,"쁑":3090,"쁘":3091,"쁙":3092,"쁜":3093,"쁝":3094,"쁟":3095,"쁠":3096,"쁨":3097,"쁩":3098,"쁫":3099,"쁭":3100,"쁮":3101,"쁰":3102,"쁴":3103,"쁸":3104,"쁼":3105,"삉":3106,"삐":3107,"삑":3108,"삒":3109,"삔":3110,"삗":3111,"삘":3112,"삠":3113,"삡":3114,"삣":3115,"삤":3116,"삥":3117,"삦":3118,"삧":3119,"삨":3120,"삫":3121,"사":3122,"삭":3123,"삮":3124,"삯":3125,"산":3126,"삱":3127,"삲":3128,"삳":3129,"살":3130,"삵":3131,"삶":3132,"삷":3133,"삸":3134,"삹":3135,"삺":3136,"삻":3137,"삼":3138,"삽":3139,"삾":3140,"삿":3141,"샀":3142,"상":3143,"샂":3144,"샃":3145,"샄":3146,"샅":3147,"샆":3148,"샇":3149,"새":3150,"색":3151,"샊":3152,"샋":3153,"샌":3154,"샎":3155,"샏":3156,"샐":3157,"샑":3158,"샒":3159,"샓":3160,"샔":3161,"샕":3162,"샗":3163,"샘":3164,"샙":3165,"샚":3166,"샛":3167,"샜":3168,"생":3169,"샞":3170,"샟":3171,"샠":3172,"샡":3173,"샢":3174,"샣":3175,"샤":3176,"샥":3177,"샦":3178,"샨":3179,"샫":3180,"샬":3181,"샮":3182,"샴":3183,"샵":3184,"샷":3185,"샸":3186,"샹":3187,"샼":3188,"샽":3189,"샾":3190,"샿":3191,"섀":3192,"섁":3193,"섂":3194,"섄":3195,"섈":3196,"섉":3197,"섊":3198,"섐":3199,"섑":3200,"섓":3201,"섔":3202,"섕":3203,"섘":3204,"서":3205,"석":3206,"섞":3207,"섟":3208,"선":3209,"섡":3210,"섢":3211,"섣":3212,"설":3213,"섥":3214,"섦":3215,"섧":3216,"섨":3217,"섩":3218,"섪":3219,"섫":3220,"섬":3221,"섭":3222,"섮":3223,"섯":3224,"섰":3225,"성":3226,"섲":3227,"섳":3228,"섴":3229,"섵":3230,"섶":3231,"섷":3232,"세":3233,"섹":3234,"섺":3235,"섻":3236,"센":3237,"섽":3238,"섿":3239,"셀":3240,"셁":3241,"셂":3242,"셃":3243,"셆":3244,"셇":3245,"셈":3246,"셉":3247,"셋":3248,"셌":3249,"셍":3250,"셎":3251,"셏":3252,"셐":3253,"셑":3254,"셒":3255,"셓":3256,"셔":3257,"셕":3258,"셖":3259,"션":3260,"셛":3261,"셜":3262,"셟":3263,"셤":3264,"셥":3265,"셧":3266,"셨":3267,"셩":3268,"셪":3269,"셫":3270,"셬":3271,"셭":3272,"셮":3273,"셯":3274,"셰":3275,"셱":3276,"셲":3277,"셴":3278,"셸":3279,"솀":3280,"솁":3281,"솃":3282,"솄":3283,"솅":3284,"솈":3285,"솉":3286,"솊":3287,"소":3288,"속":3289,"솎":3290,"솏":3291,"손":3292,"솑":3293,"솒":3294,"솓":3295,"솔":3296,"솕":3297,"솖":3298,"솛":3299,"솜":3300,"솝":3301,"솟":3302,"솠":3303,"송":3304,"솢":3305,"솣":3306,"솤":3307,"솥":3308,"솦":3309,"솧":3310,"솨":3311,"솩":3312,"솬":3313,"솰":3314,"솸":3315,"솹":3316,"솻":3317,"솼":3318,"솽":3319,"쇀":3320,"쇄":3321,"쇅":3322,"쇆":3323,"쇈":3324,"쇌":3325,"쇔":3326,"쇗":3327,"쇘":3328,"쇙":3329,"쇜":3330,"쇟":3331,"쇠":3332,"쇡":3333,"쇣":3334,"쇤":3335,"쇨":3336,"쇱":3337,"쇳":3338,"쇵":3339,"쇸":3340,"쇼":3341,"쇽":3342,"숀":3343,"숄":3344,"숌":3345,"숍":3346,"숏":3347,"숐":3348,"숑":3349,"숔":3350,"숖":3351,"숗":3352,"수":3353,"숙":3354,"숚":3355,"순":3356,"숝":3357,"숟":3358,"술":3359,"숡":3360,"숢":3361,"숤":3362,"숧":3363,"숨":3364,"숩":3365,"숪":3366,"숫":3367,"숬":3368,"숭":3369,"숮":3370,"숯":3371,"숰":3372,"숱":3373,"숲":3374,"숳":3375,"숴":3376,"숵":3377,"숶":3378,"숸":3379,"숼":3380,"쉄":3381,"쉅":3382,"쉇":3383,"쉈":3384,"쉉":3385,"쉌":3386,"쉐":3387,"쉑":3388,"쉒":3389,"쉓":3390,"쉔":3391,"쉗":3392,"쉘":3393,"쉙":3394,"쉚":3395,"쉛":3396,"쉜":3397,"쉞":3398,"쉟":3399,"쉠":3400,"쉡":3401,"쉣":3402,"쉤":3403,"쉥":3404,"쉧":3405,"쉨":3406,"쉩":3407,"쉪":3408,"쉫":3409,"쉬":3410,"쉭":3411,"쉮":3412,"쉰":3413,"쉲":3414,"쉳":3415,"쉴":3416,"쉻":3417,"쉼":3418,"쉽":3419,"쉾":3420,"쉿":3421,"슀":3422,"슁":3423,"슂":3424,"슄":3425,"슅":3426,"슆":3427,"슇":3428,"슈":3429,"슉":3430,"슌":3431,"슏":3432,"슐":3433,"슘":3434,"슙":3435,"슛":3436,"슝":3437,"슞":3438,"슟":3439,"슠":3440,"슢":3441,"스":3442,"슥":3443,"슦":3444,"슧":3445,"슨":3446,"슩":3447,"슫":3448,"슬":3449,"슭":3450,"슮":3451,"슯":3452,"슰":3453,"슲":3454,"슳":3455,"슴":3456,"습":3457,"슶":3458,"슷":3459,"슸":3460,"승":3461,"슺":3462,"슻":3463,"슼":3464,"슽":3465,"슾":3466,"슿":3467,"싀":3468,"싁":3469,"싄":3470,"싅":3471,"싆":3472,"싇":3473,"싈":3474,"싐":3475,"싑":3476,"싓":3477,"싕":3478,"싖":3479,"싘":3480,"싙":3481,"싚":3482,"시":3483,"식":3484,"싞":3485,"싟":3486,"신":3487,"싡":3488,"싢":3489,"싣":3490,"실":3491,"싥":3492,"싦":3493,"싧":3494,"싨":3495,"싩":3496,"싪":3497,"싫":3498,"심":3499,"십":3500,"싮":3501,"싯":3502,"싰":3503,"싱":3504,"싲":3505,"싳":3506,"싴":3507,"싵":3508,"싶":3509,"싷":3510,"싸":3511,"싹":3512,"싺":3513,"싻":3514,"싼":3515,"싾":3516,"싿":3517,"쌀":3518,"쌂":3519,"쌇":3520,"쌈":3521,"쌉":3522,"쌋":3523,"쌌":3524,"쌍":3525,"쌎":3526,"쌐":3527,"쌑":3528,"쌒":3529,"쌓":3530,"쌔":3531,"쌕":3532,"쌖":3533,"쌘":3534,"쌛":3535,"쌜":3536,"쌞":3537,"쌟":3538,"쌤":3539,"쌥":3540,"쌧":3541,"쌨":3542,"쌩":3543,"쌬":3544,"쌯":3545,"쌰":3546,"쌱":3547,"쌴":3548,"쌸":3549,"쌻":3550,"썀":3551,"썁":3552,"썃":3553,"썄":3554,"썅":3555,"썋":3556,"썌":3557,"썍":3558,"썎":3559,"썐":3560,"썔":3561,"썖":3562,"썜":3563,"썝":3564,"썟":3565,"썠":3566,"썡":3567,"써":3568,"썩":3569,"썪":3570,"썫":3571,"썬":3572,"썯":3573,"썰":3574,"썱":3575,"썳":3576,"썸":3577,"썹":3578,"썻":3579,"썼":3580,"썽":3581,"썾":3582,"쎀":3583,"쎁":3584,"쎂":3585,"쎃":3586,"쎄":3587,"쎅":3588,"쎆":3589,"쎇":3590,"쎈":3591,"쎌":3592,"쎍":3593,"쎓":3594,"쎔":3595,"쎕":3596,"쎗":3597,"쎘":3598,"쎙":3599,"쎜":3600,"쎝":3601,"쎟":3602,"쎠":3603,"쎡":3604,"쎤":3605,"쎨":3606,"쎰":3607,"쎱":3608,"쎳":3609,"쎴":3610,"쎵":3611,"쎼":3612,"쎽":3613,"쎾":3614,"쏀":3615,"쏃":3616,"쏄":3617,"쏌":3618,"쏏":3619,"쏐":3620,"쏔":3621,"쏖":3622,"쏘":3623,"쏙":3624,"쏚":3625,"쏜":3626,"쏟":3627,"쏠":3628,"쏨":3629,"쏩":3630,"쏫":3631,"쏬":3632,"쏭":3633,"쏮":3634,"쏰":3635,"쏱":3636,"쏳":3637,"쏴":3638,"쏵":3639,"쏸":3640,"쏼":3641,"쐄":3642,"쐅":3643,"쐇":3644,"쐈":3645,"쐉":3646,"쐌":3647,"쐏":3648,"쐐":3649,"쐑":3650,"쐒":3651,"쐣":3652,"쐤":3653,"쐥":3654,"쐨":3655,"쐬":3656,"쐭":3657,"쐰":3658,"쐴":3659,"쐼":3660,"쐽":3661,"쐿":3662,"쑀":3663,"쑈":3664,"쑉":3665,"쑌":3666,"쑐":3667,"쑙":3668,"쑛":3669,"쑝":3670,"쑤":3671,"쑥":3672,"쑦":3673,"쑨":3674,"쑫":3675,"쑬":3676,"쑴":3677,"쑵":3678,"쑷":3679,"쑹":3680,"쑻":3681,"쑼":3682,"쒀":3683,"쒁":3684,"쒂":3685,"쒄":3686,"쒈":3687,"쒐":3688,"쒑":3689,"쒓":3690,"쒔":3691,"쒕":3692,"쒘":3693,"쒜":3694,"쒝":3695,"쒞":3696,"쒠":3697,"쒤":3698,"쒥":3699,"쒧":3700,"쒫":3701,"쒭":3702,"쒯":3703,"쒰":3704,"쒱":3705,"쒴":3706,"쒵":3707,"쒸":3708,"쒹":3709,"쒼":3710,"쓀":3711,"쓃":3712,"쓈":3713,"쓉":3714,"쓊":3715,"쓋":3716,"쓌":3717,"쓍":3718,"쓐":3719,"쓑":3720,"쓒":3721,"쓔":3722,"쓕":3723,"쓘":3724,"쓜":3725,"쓤":3726,"쓥":3727,"쓧":3728,"쓩":3729,"쓰":3730,"쓱":3731,"쓲":3732,"쓴":3733,"쓷":3734,"쓸":3735,"쓹":3736,"쓺":3737,"쓿":3738,"씀":3739,"씁":3740,"씂":3741,"씃":3742,"씄":3743,"씅":3744,"씆":3745,"씇":3746,"씈":3747,"씉":3748,"씊":3749,"씋":3750,"씌":3751,"씍":3752,"씐":3753,"씔":3754,"씗":3755,"씜":3756,"씝":3757,"씞":3758,"씟":3759,"씡":3760,"씤":3761,"씥":3762,"씦":3763,"씧":3764,"씨":3765,"씩":3766,"씪":3767,"씬":3768,"씮":3769,"씯":3770,"씰":3771,"씱":3772,"씳":3773,"씶":3774,"씷":3775,"씸":3776,"씹":3777,"씺":3778,"씻":3779,"씼":3780,"씽":3781,"씾":3782,"씿":3783,"앀":3784,"앁":3785,"앂":3786,"앃":3787,"아":3788,"악":3789,"앆":3790,"앇":3791,"안":3792,"앉":3793,"않":3794,"앋":3795,"알":3796,"앍":3797,"앎":3798,"앏":3799,"앐":3800,"앑":3801,"앒":3802,"앓":3803,"암":3804,"압":3805,"앖":3806,"앗":3807,"았":3808,"앙":3809,"앚":3810,"앛":3811,"앜":3812,"앝":3813,"앞":3814,"앟":3815,"애":3816,"액":3817,"앢":3818,"앣":3819,"앤":3820,"앦":3821,"앧":3822,"앨":3823,"앩":3824,"앰":3825,"앱":3826,"앲":3827,"앳":3828,"앴":3829,"앵":3830,"앶":3831,"앷":3832,"앸":3833,"앹":3834,"앺":3835,"앻":3836,"야":3837,"약":3838,"앾":3839,"앿":3840,"얀":3841,"얁":3842,"얂":3843,"얃":3844,"얄":3845,"얅":3846,"얆":3847,"얇":3848,"얉":3849,"얊":3850,"얋":3851,"얌":3852,"얍":3853,"얎":3854,"얏":3855,"얐":3856,"양":3857,"얒":3858,"얓":3859,"얔":3860,"얕":3861,"얖":3862,"얗":3863,"얘":3864,"얙":3865,"얜":3866,"얠":3867,"얨":3868,"얩":3869,"얪":3870,"얫":3871,"얬":3872,"얭":3873,"얮":3874,"얰":3875,"얳":3876,"어":3877,"억":3878,"얶":3879,"얷":3880,"언":3881,"얹":3882,"얺":3883,"얻":3884,"얼":3885,"얽":3886,"얾":3887,"얿":3888,"엀":3889,"엁":3890,"엂":3891,"엃":3892,"엄":3893,"업":3894,"없":3895,"엇":3896,"었":3897,"엉":3898,"엊":3899,"엋":3900,"엌":3901,"엍":3902,"엎":3903,"엏":3904,"에":3905,"엑":3906,"엒":3907,"엓":3908,"엔":3909,"엕":3910,"엗":3911,"엘":3912,"엙":3913,"엜":3914,"엞":3915,"엠":3916,"엡":3917,"엢":3918,"엣":3919,"엤":3920,"엥":3921,"엦":3922,"엧":3923,"엨":3924,"엩":3925,"엪":3926,"엫":3927,"여":3928,"역":3929,"엮":3930,"엯":3931,"연":3932,"엱":3933,"엲":3934,"엳":3935,"열":3936,"엵":3937,"엶":3938,"엷":3939,"엸":3940,"엹":3941,"엻":3942,"염":3943,"엽":3944,"엾":3945,"엿":3946,"였":3947,"영":3948,"옂":3949,"옃":3950,"옄":3951,"옅":3952,"옆":3953,"옇":3954,"예":3955,"옉":3956,"옌":3957,"옐":3958,"옘":3959,"옙":3960,"옛":3961,"옜":3962,"옝":3963,"옞":3964,"옟":3965,"옠":3966,"옢":3967,"옣":3968,"오":3969,"옥":3970,"옦":3971,"옧":3972,"온":3973,"옩":3974,"옪":3975,"옫":3976,"올":3977,"옭":3978,"옮":3979,"옯":3980,"옰":3981,"옱":3982,"옲":3983,"옳":3984,"옴":3985,"옵":3986,"옶":3987,"옷":3988,"옸":3989,"옹":3990,"옺":3991,"옻":3992,"옼":3993,"옽":3994,"옾":3995,"옿":3996,"와":3997,"왁":3998,"왂":3999,"완":4000,"왅":4001,"왆":4002,"왇":4003,"왈":4004,"왉":4005,"왐":4006,"왑":4007,"왓":4008,"왔":4009,"왕":4010,"왖":4011,"왗":4012,"왘":4013,"왙":4014,"왚":4015,"왛":4016,"왜":4017,"왝":4018,"왠":4019,"왡":4020,"왢":4021,"왤":4022,"왥":4023,"왬":4024,"왭":4025,"왯":4026,"왰":4027,"왱":4028,"왲":4029,"왳":4030,"왴":4031,"왶":4032,"왷":4033,"외":4034,"왹":4035,"왼":4036,"욀":4037,"욈":4038,"욉":4039,"욋":4040,"욌":4041,"욍":4042,"욎":4043,"욐":4044,"욓":4045,"요":4046,"욕":4047,"욖":4048,"욗":4049,"욘":4050,"욛":4051,"욜":4052,"욝":4053,"욣":4054,"욤":4055,"욥":4056,"욧":4057,"욨":4058,"용":4059,"욪":4060,"욫":4061,"욬":4062,"욭":4063,"욮":4064,"욯":4065,"우":4066,"욱":4067,"욲":4068,"욳":4069,"운":4070,"욵":4071,"욷":4072,"울":4073,"욹":4074,"욺":4075,"욻":4076,"욼":4077,"욽":4078,"욾":4079,"욿":4080,"움":4081,"웁":4082,"웂":4083,"웃":4084,"웄":4085,"웅":4086,"웆":4087,"웇":4088,"웈":4089,"웉":4090,"웊":4091,"웋":4092,"워":4093,"웍":4094,"웎":4095,"원":4096,"웑":4097,"웒":4098,"웓":4099,"월":4100,"웕":4101,"웖":4102,"웗":4103,"웘":4104,"웙":4105,"웚":4106,"웛":4107,"웜":4108,"웝":4109,"웞":4110,"웟":4111,"웠":4112,"웡":4113,"웢":4114,"웣":4115,"웤":4116,"웥":4117,"웦":4118,"웧":4119,"웨":4120,"웩":4121,"웪":4122,"웬":4123,"웯":4124,"웰":4125,"웱":4126,"웳":4127,"웸":4128,"웹":4129,"웻":4130,"웼":4131,"웽":4132,"웾":4133,"윀":4134,"윁":4135,"윂":4136,"위":4137,"윅":4138,"윈":4139,"윋":4140,"윌":4141,"윔":4142,"윕":4143,"윖":4144,"윗":4145,"윘":4146,"윙":4147,"윚":4148,"윜":4149,"윝":4150,"윟":4151,"유":4152,"육":4153,"윢":4154,"윣":4155,"윤":4156,"윥":4157,"윧":4158,"율":4159,"윯":4160,"윰":4161,"윱":4162,"윳":4163,"융":4164,"윶":4165,"윷":4166,"윸":4167,"윹":4168,"윺":4169,"윻":4170,"으":4171,"윽":4172,"윾":4173,"윿":4174,"은":4175,"읁":4176,"읂":4177,"읃":4178,"을":4179,"읅":4180,"읆":4181,"읇":4182,"읈":4183,"읉":4184,"읊":4185,"읋":4186,"음":4187,"읍":4188,"읎":4189,"읏":4190,"읐":4191,"응":4192,"읒":4193,"읓":4194,"읔":4195,"읕":4196,"읖":4197,"읗":4198,"의":4199,"읙":4200,"읜":4201,"읟":4202,"읠":4203,"읨":4204,"읩":4205,"읪":4206,"읫":4207,"읬":4208,"읭":4209,"읮":4210,"읯":4211,"읰":4212,"읱":4213,"읲":4214,"읳":4215,"이":4216,"익":4217,"읶":4218,"읷":4219,"인":4220,"읹":4221,"읺":4222,"읻":4223,"일":4224,"읽":4225,"읾":4226,"읿":4227,"잀":4228,"잁":4229,"잂":4230,"잃":4231,"임":4232,"입":4233,"잆":4234,"잇":4235,"있":4236,"잉":4237,"잊":4238,"잋":4239,"잌":4240,"잍":4241,"잎":4242,"잏":4243,"자":4244,"작":4245,"잒":4246,"잓":4247,"잔":4248,"잕":4249,"잖":4250,"잗":4251,"잘":4252,"잙":4253,"잚":4254,"잛":4255,"잜":4256,"잝":4257,"잞":4258,"잟":4259,"잠":4260,"잡":4261,"잢":4262,"잣":4263,"잤":4264,"장":4265,"잦":4266,"잧":4267,"잨":4268,"잩":4269,"잪":4270,"잫":4271,"재":4272,"잭":4273,"잮":4274,"잰":4275,"잲":4276,"잳":4277,"잴":4278,"잼":4279,"잽":4280,"잿":4281,"쟀":4282,"쟁":4283,"쟂":4284,"쟃":4285,"쟄":4286,"쟅":4287,"쟆":4288,"쟇":4289,"쟈":4290,"쟉":4291,"쟊":4292,"쟌":4293,"쟎":4294,"쟏":4295,"쟐":4296,"쟘":4297,"쟙":4298,"쟛":4299,"쟜":4300,"쟝":4301,"쟞":4302,"쟟":4303,"쟠":4304,"쟡":4305,"쟣":4306,"쟤":4307,"쟥":4308,"쟨":4309,"쟬":4310,"쟴":4311,"쟸":4312,"쟹":4313,"쟼":4314,"저":4315,"적":4316,"젂":4317,"젃":4318,"전":4319,"젅":4320,"젆":4321,"젇":4322,"절":4323,"젉":4324,"젊":4325,"젋":4326,"젌":4327,"젍":4328,"젎":4329,"젏":4330,"점":4331,"접":4332,"젒":4333,"젓":4334,"젔":4335,"정":4336,"젖":4337,"젗":4338,"젘":4339,"젙":4340,"젚":4341,"젛":4342,"제":4343,"젝":4344,"젞":4345,"젠":4346,"젡":4347,"젣":4348,"젤":4349,"젬":4350,"젭":4351,"젯":4352,"젰":4353,"젱":4354,"젲":4355,"젳":4356,"젴":4357,"젵":4358,"젶":4359,"젷":4360,"져":4361,"젹":4362,"젺":4363,"젼":4364,"젾":4365,"젿":4366,"졀":4367,"졂":4368,"졈":4369,"졉":4370,"졋":4371,"졌":4372,"졍":4373,"졎":4374,"졏":4375,"졐":4376,"졑":4377,"졒":4378,"졓":4379,"졔":4380,"졘":4381,"졜":4382,"졨":4383,"졩":4384,"조":4385,"족":4386,"졲":4387,"졳":4388,"존":4389,"졵":4390,"졶":4391,"졷":4392,"졸":4393,"졹":4394,"졺":4395,"졻":4396,"졽":4397,"졿":4398,"좀":4399,"좁":4400,"좂":4401,"좃":4402,"좄":4403,"종":4404,"좆":4405,"좇":4406,"좈":4407,"좉":4408,"좊":4409,"좋":4410,"좌":4411,"좍":4412,"좎":4413,"좐":4414,"좒":4415,"좓":4416,"좔":4417,"좜":4418,"좝":4419,"좟":4420,"좠":4421,"좡":4422,"좢":4423,"좣":4424,"좤":4425,"좥":4426,"좦":4427,"좧":4428,"좨":4429,"좩":4430,"좬":4431,"좭":4432,"좮":4433,"좯":4434,"좰":4435,"좱":4436,"좸":4437,"좼":4438,"좽":4439,"죄":4440,"죅":4441,"죈":4442,"죌":4443,"죔":4444,"죕":4445,"죗":4446,"죘":4447,"죙":4448,"죚":4449,"죜":4450,"죝":4451,"죠":4452,"죡":4453,"죢":4454,"죣":4455,"죤":4456,"죥":4457,"죧":4458,"죨":4459,"죰":4460,"죱":4461,"죳":4462,"죴":4463,"죵":4464,"죶":4465,"죷":4466,"죸":4467,"죹":4468,"죺":4469,"죻":4470,"주":4471,"죽":4472,"죾":4473,"죿":4474,"준":4475,"줁":4476,"줂":4477,"줃":4478,"줄":4479,"줅":4480,"줆":4481,"줈":4482,"줉":4483,"줊":4484,"줋":4485,"줌":4486,"줍":4487,"줎":4488,"줏":4489,"줐":4490,"중":4491,"줒":4492,"줓":4493,"줔":4494,"줕":4495,"줖":4496,"줗":4497,"줘":4498,"줙":4499,"줚":4500,"줜":4501,"줝":4502,"줟":4503,"줠":4504,"줨":4505,"줩":4506,"줫":4507,"줬":4508,"줭":4509,"줮":4510,"줯":4511,"줰":4512,"줱":4513,"줳":4514,"줴":4515,"줵":4516,"줸":4517,"줼":4518,"쥄":4519,"쥅":4520,"쥇":4521,"쥈":4522,"쥉":4523,"쥐":4524,"쥑":4525,"쥔":4526,"쥘":4527,"쥠":4528,"쥡":4529,"쥣":4530,"쥤":4531,"쥥":4532,"쥦":4533,"쥨":4534,"쥫":4535,"쥬":4536,"쥭":4537,"쥰":4538,"쥳":4539,"쥴":4540,"쥼":4541,"쥽":4542,"쥿":4543,"즁":4544,"즂":4545,"즄":4546,"즇":4547,"즈":4548,"즉":4549,"즋":4550,"즌":4551,"즎":4552,"즏":4553,"즐":4554,"즑":4555,"즘":4556,"즙":4557,"즛":4558,"즜":4559,"증":4560,"즞":4561,"즟":4562,"즠":4563,"즡":4564,"즣":4565,"즤":4566,"즥":4567,"즨":4568,"즬":4569,"즴":4570,"즵":4571,"즷":4572,"즹":4573,"즺":4574,"즼":4575,"지":4576,"직":4577,"짂":4578,"짃":4579,"진":4580,"짅":4581,"짆":4582,"짇":4583,"질":4584,"짉":4585,"짊":4586,"짋":4587,"짌":4588,"짍":4589,"짎":4590,"짏":4591,"짐":4592,"집":4593,"짒":4594,"짓":4595,"짔":4596,"징":4597,"짖":4598,"짗":4599,"짘":4600,"짙":4601,"짚":4602,"짛":4603,"짜":4604,"짝":4605,"짞":4606,"짠":4607,"짢":4608,"짣":4609,"짤":4610,"짥":4611,"짦":4612,"짧":4613,"짪":4614,"짫":4615,"짬":4616,"짭":4617,"짮":4618,"짯":4619,"짰":4620,"짱":4621,"짲":4622,"짳":4623,"짴":4624,"짵":4625,"짶":4626,"짷":4627,"째":4628,"짹":4629,"짺":4630,"짼":4631,"짾":4632,"짿":4633,"쨀":4634,"쨈":4635,"쨉":4636,"쨋":4637,"쨌":4638,"쨍":4639,"쨎":4640,"쨐":4641,"쨓":4642,"쨔":4643,"쨕":4644,"쨖":4645,"쨘":4646,"쨚":4647,"쨜":4648,"쨟":4649,"쨤":4650,"쨥":4651,"쨧":4652,"쨨":4653,"쨩":4654,"쨬":4655,"쨰":4656,"쨱":4657,"쨲":4658,"쨴":4659,"쩀":4660,"쩁":4661,"쩃":4662,"쩄":4663,"쩅":4664,"쩌":4665,"쩍":4666,"쩎":4667,"쩐":4668,"쩑":4669,"쩓":4670,"쩔":4671,"쩕":4672,"쩖":4673,"쩗":4674,"쩘":4675,"쩛":4676,"쩜":4677,"쩝":4678,"쩟":4679,"쩠":4680,"쩡":4681,"쩢":4682,"쩣":4683,"쩤":4684,"쩦":4685,"쩧":4686,"쩨":4687,"쩩":4688,"쩬":4689,"쩰":4690,"쩸":4691,"쩹":4692,"쩻":4693,"쩼":4694,"쩽":4695,"쪄":4696,"쪅":4697,"쪈":4698,"쪌":4699,"쪔":4700,"쪕":4701,"쪗":4702,"쪘":4703,"쪙":4704,"쪚":4705,"쪜":4706,"쪟":4707,"쪠":4708,"쪵":4709,"쪹":4710,"쪻":4711,"쪼":4712,"쪽":4713,"쪾":4714,"쪿":4715,"쫀":4716,"쫂":4717,"쫃":4718,"쫄":4719,"쫅":4720,"쫌":4721,"쫍":4722,"쫏":4723,"쫐":4724,"쫑":4725,"쫒":4726,"쫓":4727,"쫔":4728,"쫕":4729,"쫖":4730,"쫗":4731,"쫘":4732,"쫙":4733,"쫚":4734,"쫛":4735,"쫜":4736,"쫟":4737,"쫠":4738,"쫨":4739,"쫩":4740,"쫫":4741,"쫭":4742,"쫰":4743,"쫴":4744,"쫵":4745,"쬈":4746,"쬎":4747,"쬐":4748,"쬑":4749,"쬔":4750,"쬘":4751,"쬠":4752,"쬡":4753,"쬥":4754,"쬬":4755,"쬭":4756,"쬮":4757,"쬰":4758,"쬲":4759,"쬴":4760,"쬼":4761,"쬽":4762,"쬿":4763,"쭀":4764,"쭁":4765,"쭂":4766,"쭃":4767,"쭄":4768,"쭅":4769,"쭈":4770,"쭉":4771,"쭊":4772,"쭌":4773,"쭏":4774,"쭐":4775,"쭕":4776,"쭘":4777,"쭙":4778,"쭛":4779,"쭝":4780,"쭞":4781,"쭟":4782,"쭠":4783,"쭤":4784,"쭥":4785,"쭨":4786,"쭬":4787,"쭭":4788,"쭵":4789,"쭷":4790,"쭸":4791,"쭹":4792,"쭻":4793,"쮀":4794,"쮁":4795,"쮇":4796,"쮉":4797,"쮑":4798,"쮓":4799,"쮔":4800,"쮕":4801,"쮜":4802,"쮝":4803,"쮠":4804,"쮤":4805,"쮭":4806,"쮱":4807,"쮸":4808,"쮹":4809,"쮼":4810,"쯀":4811,"쯈":4812,"쯉":4813,"쯋":4814,"쯍":4815,"쯎":4816,"쯔":4817,"쯕":4818,"쯘":4819,"쯛":4820,"쯜":4821,"쯤":4822,"쯥":4823,"쯧":4824,"쯨":4825,"쯩":4826,"쯪":4827,"쯫":4828,"쯰":4829,"쯱":4830,"쯴":4831,"찁":4832,"찅":4833,"찌":4834,"찍":4835,"찎":4836,"찏":4837,"찐":4838,"찓":4839,"찔":4840,"찗":4841,"찜":4842,"찝":4843,"찟":4844,"찠":4845,"찡":4846,"찢":4847,"찣":4848,"찤":4849,"찥":4850,"찦":4851,"찧":4852,"차":4853,"착":4854,"찪":4855,"찫":4856,"찬":4857,"찭":4858,"찮":4859,"찯":4860,"찰":4861,"찱":4862,"찲":4863,"찳":4864,"찴":4865,"찷":4866,"참":4867,"찹":4868,"찻":4869,"찼":4870,"창":4871,"찾":4872,"찿":4873,"챀":4874,"챁":4875,"챂":4876,"챃":4877,"채":4878,"책":4879,"챈":4880,"챊":4881,"챋":4882,"챌":4883,"챔":4884,"챕":4885,"챗":4886,"챘":4887,"챙":4888,"챚":4889,"챜":4890,"챝":4891,"챠":4892,"챡":4893,"챤":4894,"챦":4895,"챨":4896,"챫":4897,"챰":4898,"챱":4899,"챳":4900,"챴":4901,"챵":4902,"챶":4903,"챷":4904,"챸":4905,"챺":4906,"챻":4907,"챼":4908,"챽":4909,"첑":4910,"처":4911,"척":4912,"천":4913,"첝":4914,"첞":4915,"첟":4916,"철":4917,"첡":4918,"첢":4919,"첣":4920,"첤":4921,"첦":4922,"첧":4923,"첨":4924,"첩":4925,"첪":4926,"첫":4927,"첬":4928,"청":4929,"첮":4930,"첯":4931,"첰":4932,"첱":4933,"첲":4934,"첳":4935,"체":4936,"첵":4937,"첸":4938,"첻":4939,"첼":4940,"쳄":4941,"쳅":4942,"쳇":4943,"쳈":4944,"쳉":4945,"쳊":4946,"쳋":4947,"쳌":4948,"쳍":4949,"쳏":4950,"쳐":4951,"쳑":4952,"쳒":4953,"쳔":4954,"쳗":4955,"쳘":4956,"쳠":4957,"쳡":4958,"쳢":4959,"쳣":4960,"쳤":4961,"쳥":4962,"쳦":4963,"쳧":4964,"쳨":4965,"쳫":4966,"쳬":4967,"쳭":4968,"쳰":4969,"쳴":4970,"촀":4971,"초":4972,"촉":4973,"촌":4974,"촏":4975,"촐":4976,"촔":4977,"촘":4978,"촙":4979,"촛":4980,"촜":4981,"총":4982,"촞":4983,"촟":4984,"촠":4985,"촡":4986,"촣":4987,"촤":4988,"촥":4989,"촨":4990,"촪":4991,"촬":4992,"촴":4993,"촵":4994,"촷":4995,"촹":4996,"촺":4997,"촼":4998,"쵀":4999,"쵁":5000,"쵕":5001,"최":5002,"쵝":5003,"쵠":5004,"쵤":5005,"쵭":5006,"쵮":5007,"쵯":5008,"쵱":5009,"쵴":5010,"쵸":5011,"쵹":5012,"쵼":5013,"쵿":5014,"춀":5015,"춈":5016,"춉":5017,"춋":5018,"춌":5019,"춍":5020,"춎":5021,"춏":5022,"춐":5023,"추":5024,"축":5025,"춘":5026,"춚":5027,"춛":5028,"출":5029,"춝":5030,"춞":5031,"춟":5032,"춠":5033,"춡":5034,"춣":5035,"춤":5036,"춥":5037,"춧":5038,"충":5039,"춪":5040,"춫":5041,"춬":5042,"춭":5043,"춮":5044,"춯":5045,"춰":5046,"춱":5047,"춴":5048,"춸":5049,"췁":5050,"췃":5051,"췄":5052,"췅":5053,"췆":5054,"췈":5055,"췌":5056,"췍":5057,"췐":5058,"췔":5059,"췕":5060,"췜":5061,"췝":5062,"췟":5063,"췡":5064,"췤":5065,"취":5066,"췩":5067,"췬":5068,"췰":5069,"췸":5070,"췹":5071,"췻":5072,"췼":5073,"췽":5074,"츀":5075,"츄":5076,"츅":5077,"츈":5078,"츌":5079,"츔":5080,"츕":5081,"츗":5082,"츙":5083,"츛":5084,"츜":5085,"츞":5086,"츠":5087,"측":5088,"츤":5089,"츧":5090,"츨":5091,"츰":5092,"츱":5093,"츳":5094,"층":5095,"츶":5096,"츷":5097,"츸":5098,"츹":5099,"츼":5100,"츽":5101,"칀":5102,"칄":5103,"칌":5104,"칍":5105,"칑":5106,"칔":5107,"치":5108,"칙":5109,"친":5110,"칝":5111,"칞":5112,"칟":5113,"칠":5114,"칡":5115,"칢":5116,"칤":5117,"칧":5118,"침":5119,"칩":5120,"칫":5121,"칬":5122,"칭":5123,"칮":5124,"칯":5125,"칰":5126,"칱":5127,"칲":5128,"칳":5129,"카":5130,"칵":5131,"칶":5132,"칸":5133,"칻":5134,"칼":5135,"칽":5136,"캄":5137,"캅":5138,"캆":5139,"캇":5140,"캈":5141,"캉":5142,"캊":5143,"캋":5144,"캌":5145,"캍":5146,"캎":5147,"캏":5148,"캐":5149,"캑":5150,"캔":5151,"캘":5152,"캙":5153,"캠":5154,"캡":5155,"캢":5156,"캣":5157,"캤":5158,"캥":5159,"캨":5160,"캩":5161,"캪":5162,"캬":5163,"캭":5164,"캮":5165,"캰":5166,"캴":5167,"캵":5168,"캼":5169,"캽":5170,"캿":5171,"컀":5172,"컁":5173,"컄":5174,"컅":5175,"컇":5176,"컈":5177,"커":5178,"컥":5179,"컦":5180,"컨":5181,"컫":5182,"컬":5183,"컭":5184,"컯":5185,"컴":5186,"컵":5187,"컷":5188,"컸":5189,"컹":5190,"컺":5191,"컼":5192,"컽":5193,"컾":5194,"컿":5195,"케":5196,"켁":5197,"켄":5198,"켇":5199,"켈":5200,"켉":5201,"켐":5202,"켑":5203,"켓":5204,"켔":5205,"켕":5206,"켘":5207,"켙":5208,"켚":5209,"켛":5210,"켜":5211,"켝":5212,"켞":5213,"켠":5214,"켤":5215,"켬":5216,"켭":5217,"켯":5218,"켰":5219,"켱":5220,"켲":5221,"켴":5222,"켵":5223,"켷":5224,"켸":5225,"켼":5226,"콋":5227,"콌":5228,"코":5229,"콕":5230,"콘":5231,"콛":5232,"콜":5233,"콤":5234,"콥":5235,"콧":5236,"콩":5237,"콪":5238,"콫":5239,"콬":5240,"콭":5241,"콮":5242,"콯":5243,"콰":5244,"콱":5245,"콲":5246,"콴":5247,"콸":5248,"쾀":5249,"쾃":5250,"쾅":5251,"쾈":5252,"쾌":5253,"쾍":5254,"쾐":5255,"쾡":5256,"쾤":5257,"쾨":5258,"쾩":5259,"쾬":5260,"쾰":5261,"쾽":5262,"쿄":5263,"쿅":5264,"쿈":5265,"쿌":5266,"쿔":5267,"쿗":5268,"쿙":5269,"쿜":5270,"쿠":5271,"쿡":5272,"쿢":5273,"쿤":5274,"쿧":5275,"쿨":5276,"쿩":5277,"쿫":5278,"쿯":5279,"쿰":5280,"쿱":5281,"쿳":5282,"쿵":5283,"쿸":5284,"쿹":5285,"쿺":5286,"쿻":5287,"쿼":5288,"쿽":5289,"퀀":5290,"퀄":5291,"퀌":5292,"퀏":5293,"퀐":5294,"퀑":5295,"퀔":5296,"퀘":5297,"퀙":5298,"퀜":5299,"퀠":5300,"퀡":5301,"퀫":5302,"퀭":5303,"퀰":5304,"퀴":5305,"퀵":5306,"퀸":5307,"퀻":5308,"퀼":5309,"큄":5310,"큅":5311,"큇":5312,"큉":5313,"큌":5314,"큐":5315,"큑":5316,"큔":5317,"큘":5318,"큠":5319,"큡":5320,"큣":5321,"큥":5322,"큨":5323,"큩":5324,"큪":5325,"크":5326,"큭":5327,"큮":5328,"큰":5329,"큲":5330,"큳":5331,"클":5332,"큵":5333,"큷":5334,"큻":5335,"큼":5336,"큽":5337,"큿":5338,"킀":5339,"킁":5340,"킂":5341,"킄":5342,"킅":5343,"킆":5344,"킇":5345,"킈":5346,"킉":5347,"킌":5348,"킐":5349,"킘":5350,"킝":5351,"킠":5352,"키":5353,"킥":5354,"킦":5355,"킨":5356,"킫":5357,"킬":5358,"킴":5359,"킵":5360,"킶":5361,"킷":5362,"킸":5363,"킹":5364,"킺":5365,"킼":5366,"킽":5367,"킾":5368,"킿":5369,"타":5370,"탁":5371,"탂":5372,"탄":5373,"탅":5374,"탆":5375,"탇":5376,"탈":5377,"탉":5378,"탊":5379,"탍":5380,"탏":5381,"탐":5382,"탑":5383,"탓":5384,"탔":5385,"탕":5386,"탖":5387,"탗":5388,"탘":5389,"탙":5390,"탚":5391,"탛":5392,"태":5393,"택":5394,"탞":5395,"탟":5396,"탠":5397,"탣":5398,"탤":5399,"탬":5400,"탭":5401,"탯":5402,"탰":5403,"탱":5404,"탲":5405,"탴":5406,"탵":5407,"탶":5408,"탷":5409,"탸":5410,"탹":5411,"탼":5412,"턀":5413,"턈":5414,"턉":5415,"턋":5416,"턍":5417,"턐":5418,"턑":5419,"턔":5420,"턕":5421,"턘":5422,"턩":5423,"터":5424,"턱":5425,"턴":5426,"턷":5427,"털":5428,"턹":5429,"턺":5430,"텀":5431,"텁":5432,"텂":5433,"텃":5434,"텄":5435,"텅":5436,"텆":5437,"텇":5438,"텈":5439,"텉":5440,"텊":5441,"텋":5442,"테":5443,"텍":5444,"텐":5445,"텓":5446,"텔":5447,"템":5448,"텝":5449,"텟":5450,"텠":5451,"텡":5452,"텢":5453,"텣":5454,"텤":5455,"텥":5456,"텦":5457,"텧":5458,"텨":5459,"텩":5460,"텬":5461,"텰":5462,"텸":5463,"텹":5464,"텻":5465,"텼":5466,"텽":5467,"톀":5468,"톃":5469,"톄":5470,"톅":5471,"톈":5472,"톌":5473,"톔":5474,"토":5475,"톡":5476,"톢":5477,"톤":5478,"톧":5479,"톨":5480,"톩":5481,"톪":5482,"톰":5483,"톱":5484,"톳":5485,"통":5486,"톶":5487,"톷":5488,"톸":5489,"톹":5490,"톺":5491,"톻":5492,"톼":5493,"톽":5494,"퇀":5495,"퇄":5496,"퇌":5497,"퇍":5498,"퇏":5499,"퇑":5500,"퇘":5501,"퇙":5502,"퇜":5503,"퇧":5504,"퇫":5505,"퇬":5506,"퇭":5507,"퇮":5508,"퇴":5509,"퇵":5510,"퇶":5511,"퇸":5512,"퇼":5513,"툄":5514,"툅":5515,"툇":5516,"툈":5517,"툉":5518,"툊":5519,"툌":5520,"툐":5521,"툑":5522,"툠":5523,"툣":5524,"툥":5525,"툨":5526,"툩":5527,"투":5528,"툭":5529,"툰":5530,"툱":5531,"툲":5532,"툳":5533,"툴":5534,"툻":5535,"툼":5536,"툽":5537,"툿":5538,"퉁":5539,"퉂":5540,"퉄":5541,"퉅":5542,"퉆":5543,"퉈":5544,"퉉":5545,"퉌":5546,"퉐":5547,"퉛":5548,"퉜":5549,"퉝":5550,"퉤":5551,"퉥":5552,"퉨":5553,"퉬":5554,"퉵":5555,"퉷":5556,"퉸":5557,"퉹":5558,"퉼":5559,"퉽":5560,"퉾":5561,"튀":5562,"튁":5563,"튄":5564,"튈":5565,"튐":5566,"튑":5567,"튓":5568,"튔":5569,"튕":5570,"튘":5571,"튜":5572,"튝":5573,"튠":5574,"튤":5575,"튬":5576,"튭":5577,"튱":5578,"튴":5579,"튵":5580,"튶":5581,"트":5582,"특":5583,"튺":5584,"튻":5585,"튼":5586,"튽":5587,"튿":5588,"틀":5589,"틁":5590,"틂":5591,"틅":5592,"틇":5593,"틈":5594,"틉":5595,"틊":5596,"틋":5597,"틍":5598,"틎":5599,"틏":5600,"틐":5601,"틑":5602,"틒":5603,"틓":5604,"틔":5605,"틕":5606,"틘":5607,"틜":5608,"틤":5609,"틧":5610,"틩":5611,"티":5612,"틱":5613,"틳":5614,"틴":5615,"틷":5616,"틸":5617,"팀":5618,"팁":5619,"팃":5620,"팄":5621,"팅":5622,"팆":5623,"팈":5624,"팉":5625,"팊":5626,"파":5627,"팍":5628,"팎":5629,"팏":5630,"판":5631,"팑":5632,"팒":5633,"팓":5634,"팔":5635,"팕":5636,"팖":5637,"팗":5638,"팘":5639,"팙":5640,"팚":5641,"팛":5642,"팜":5643,"팝":5644,"팟":5645,"팠":5646,"팡":5647,"팢":5648,"팣":5649,"팤":5650,"팥":5651,"팦":5652,"팧":5653,"패":5654,"팩":5655,"팬":5656,"팯":5657,"팰":5658,"팸":5659,"팹":5660,"팻":5661,"팼":5662,"팽":5663,"퍀":5664,"퍁":5665,"퍄":5666,"퍅":5667,"퍈":5668,"퍌":5669,"퍔":5670,"퍙":5671,"퍝":5672,"퍞":5673,"퍠":5674,"퍡":5675,"퍤":5676,"퍵":5677,"퍼":5678,"퍽":5679,"퍾":5680,"펀":5681,"펃":5682,"펄":5683,"펅":5684,"펌":5685,"펍":5686,"펏":5687,"펐":5688,"펑":5689,"펒":5690,"펔":5691,"펕":5692,"펖":5693,"펗":5694,"페":5695,"펙":5696,"펜":5697,"펟":5698,"펠":5699,"펨":5700,"펩":5701,"펫":5702,"펭":5703,"펰":5704,"펲":5705,"펴":5706,"펵":5707,"편":5708,"펹":5709,"펺":5710,"펻":5711,"펼":5712,"폄":5713,"폅":5714,"폇":5715,"폈":5716,"평":5717,"폌":5718,"폐":5719,"폑":5720,"폔":5721,"폘":5722,"폠":5723,"폡":5724,"폣":5725,"폥":5726,"폨":5727,"포":5728,"폭":5729,"폮":5730,"폯":5731,"폰":5732,"폳":5733,"폴":5734,"폼":5735,"폽":5736,"폿":5737,"퐁":5738,"퐂":5739,"퐄":5740,"퐅":5741,"퐆":5742,"퐇":5743,"퐈":5744,"퐉":5745,"퐌":5746,"퐐":5747,"퐑":5748,"퐘":5749,"퐙":5750,"퐛":5751,"퐜":5752,"퐝":5753,"퐠":5754,"퐣":5755,"퐤":5756,"퐥":5757,"퐨":5758,"푀":5759,"푁":5760,"푄":5761,"푈":5762,"푕":5763,"표":5764,"푝":5765,"푠":5766,"푤":5767,"푬":5768,"푭":5769,"푯":5770,"푱":5771,"푲":5772,"푴":5773,"푶":5774,"푷":5775,"푸":5776,"푹":5777,"푼":5778,"푿":5779,"풀":5780,"풁":5781,"풂":5782,"풃":5783,"풇":5784,"품":5785,"풉":5786,"풋":5787,"풍":5788,"풎":5789,"풏":5790,"풐":5791,"풑":5792,"풒":5793,"풓":5794,"풔":5795,"풕":5796,"풘":5797,"풜":5798,"풩":5799,"풬":5800,"풰":5801,"풱":5802,"풴":5803,"풸":5804,"풹":5805,"퓅":5806,"퓌":5807,"퓍":5808,"퓐":5809,"퓔":5810,"퓟":5811,"퓡":5812,"퓨":5813,"퓩":5814,"퓬":5815,"퓰":5816,"퓸":5817,"퓹":5818,"퓻":5819,"퓽":5820,"퓿":5821,"픀":5822,"픂":5823,"프":5824,"픅":5825,"픈":5826,"픋":5827,"플":5828,"픍":5829,"픎":5830,"픓":5831,"픔":5832,"픕":5833,"픗":5834,"픙":5835,"픚":5836,"픜":5837,"픝":5838,"픞":5839,"픟":5840,"픠":5841,"픤":5842,"픨":5843,"픵":5844,"픹":5845,"피":5846,"픽":5847,"핀":5848,"핃":5849,"필":5850,"핆":5851,"핋":5852,"핌":5853,"핍":5854,"핏":5855,"핐":5856,"핑":5857,"핒":5858,"핓":5859,"핔":5860,"핕":5861,"핖":5862,"핗":5863,"하":5864,"학":5865,"핚":5866,"핛":5867,"한":5868,"핝":5869,"핞":5870,"핟":5871,"할":5872,"핡":5873,"핢":5874,"핣":5875,"핤":5876,"핥":5877,"핦":5878,"핧":5879,"함":5880,"합":5881,"핪":5882,"핫":5883,"핬":5884,"항":5885,"핮":5886,"핯":5887,"핰":5888,"핱":5889,"핲":5890,"핳":5891,"해":5892,"핵":5893,"핶":5894,"핷":5895,"핸":5896,"핺":5897,"핻":5898,"핼":5899,"핽":5900,"햄":5901,"햅":5902,"햇":5903,"했":5904,"행":5905,"햊":5906,"햋":5907,"햌":5908,"햍":5909,"햎":5910,"햏":5911,"햐":5912,"햑":5913,"햔":5914,"햘":5915,"햙":5916,"햚":5917,"햛":5918,"햝":5919,"햟":5920,"햠":5921,"햡":5922,"햣":5923,"햤":5924,"향":5925,"햨":5926,"햩":5927,"햫":5928,"햬":5929,"햭":5930,"햰":5931,"햿":5932,"헀":5933,"헁":5934,"허":5935,"헉":5936,"헊":5937,"헋":5938,"헌":5939,"헍":5940,"헏":5941,"헐":5942,"헑":5943,"헒":5944,"헓":5945,"헔":5946,"헕":5947,"헗":5948,"험":5949,"헙":5950,"헚":5951,"헛":5952,"헜":5953,"헝":5954,"헞":5955,"헟":5956,"헠":5957,"헡":5958,"헢":5959,"헣":5960,"헤":5961,"헥":5962,"헦":5963,"헧":5964,"헨":5965,"헫":5966,"헬":5967,"헭":5968,"헯":5969,"헰":5970,"헱":5971,"헲":5972,"헳":5973,"헴":5974,"헵":5975,"헶":5976,"헷":5977,"헸":5978,"헹":5979,"헼":5980,"헽":5981,"헾":5982,"헿":5983,"혀":5984,"혁":5985,"혂":5986,"혃":5987,"현":5988,"혅":5989,"혆":5990,"혇":5991,"혈":5992,"혉":5993,"혐":5994,"협":5995,"혒":5996,"혓":5997,"혔":5998,"형":5999,"혖":6000,"혘":6001,"혙":6002,"혚":6003,"혛":6004,"혜":6005,"혝":6006,"혠":6007,"혤":6008,"혬":6009,"혭":6010,"혯":6011,"혰":6012,"혱":6013,"혲":6014,"혴":6015,"혷":6016,"호":6017,"혹":6018,"혺":6019,"혻":6020,"혼":6021,"혽":6022,"혾":6023,"혿":6024,"홀":6025,"홁":6026,"홅":6027,"홇":6028,"홈":6029,"홉":6030,"홋":6031,"홍":6032,"홎":6033,"홐":6034,"홑":6035,"홒":6036,"홓":6037,"화":6038,"확":6039,"홖":6040,"홗":6041,"환":6042,"홙":6043,"홛":6044,"활":6045,"홝":6046,"홟":6047,"홡":6048,"홣":6049,"홤":6050,"홥":6051,"홧":6052,"홨":6053,"황":6054,"홪":6055,"홫":6056,"홬":6057,"홭":6058,"홮":6059,"홯":6060,"홰":6061,"홱":6062,"홴":6063,"횃":6064,"횄":6065,"횅":6066,"회":6067,"획":6068,"횐":6069,"횓":6070,"횔":6071,"횜":6072,"횝":6073,"횟":6074,"횠":6075,"횡":6076,"횢":6077,"횤":6078,"횧":6079,"효":6080,"횩":6081,"횬":6082,"횰":6083,"횸":6084,"횹":6085,"횻":6086,"횽":6087,"훀":6088,"훃":6089,"후":6090,"훅":6091,"훈":6092,"훉":6093,"훊":6094,"훋":6095,"훌":6096,"훍":6097,"훏":6098,"훑":6099,"훓":6100,"훔":6101,"훕":6102,"훗":6103,"훙":6104,"훚":6105,"훛":6106,"훜":6107,"훝":6108,"훞":6109,"훟":6110,"훠":6111,"훡":6112,"훤":6113,"훨":6114,"훯":6115,"훰":6116,"훱":6117,"훳":6118,"훵":6119,"훸":6120,"훻":6121,"훼":6122,"훽":6123,"휀":6124,"휄":6125,"휅":6126,"휇":6127,"휍":6128,"휏":6129,"휐":6130,"휑":6131,"휔":6132,"휗":6133,"휘":6134,"휙":6135,"휜":6136,"휠":6137,"휨":6138,"휩":6139,"휫":6140,"휭":6141,"휰":6142,"휲":6143,"휳":6144,"휴":6145,"휵":6146,"휸":6147,"휼":6148,"흄":6149,"흅":6150,"흇":6151,"흉":6152,"흊":6153,"흌":6154,"흎":6155,"흏":6156,"흐":6157,"흑":6158,"흒":6159,"흓":6160,"흔":6161,"흗":6162,"흘":6163,"흙":6164,"흚":6165,"흛":6166,"흜":6167,"흝":6168,"흟":6169,"흠":6170,"흡":6171,"흣":6172,"흤":6173,"흥":6174,"흦":6175,"흨":6176,"흩":6177,"흪":6178,"흫":6179,"희":6180,"흭":6181,"흰":6182,"흳":6183,"흴":6184,"흵":6185,"흼":6186,"흽":6187,"흿":6188,"힁":6189,"힂":6190,"힄":6191,"힇":6192,"히":6193,"힉":6194,"힊":6195,"힌":6196,"힏":6197,"힐":6198,"힑":6199,"힒":6200,"힕":6201,"힗":6202,"힘":6203,"힙":6204,"힛":6205,"힜":6206,"힝":6207,"힞":6208,"힟":6209,"힠":6210,"힡":6211,"힢":6212,"힣":6213,"％":6214,"##치":6215,"##시":6216,"##켰":6217,"##습":6218,"##니":6219,"##다":6220,"##성":6221,"##표":6222,"##던":6223,"##져":6224,"##소":6225,"##재":6226,"##♬":6227,"##의":6228,"##계":6229,"##했":6230,"##겠":6231,"##나":6232,"##쁜":6233,"##집":6234,"##안":6235,"##이":6236,"##귀":6237,"##군":6238,"##단":6239,"##을":6240,"##개":6241,"##상":6242,"##에":6243,"##2":6244,"##정":6245,"##조":6246,"##위":6247,"##원":6248,"##장":6249,"##으":6250,"##로":6251,"##간":6252,"##혹":6253,"##렛":6254,"##트":6255,"##자":6256,"##응":6257,"##한":6258,"##며":6259,"##름":6260,"##볻":6261,"##는":6262,"##폐":6263,"##화":6264,"##된":6265,"##줄":6266,"##알":6267,"##았":6268,"##지":6269,"##만":6270,"##퍼":6271,"##큼":6272,"##은":6273,"##기":6274,"##윗":6275,"##대":6276,"##가":6277,"##리":6278,"##규":6279,"##있":6280,"##데":6281,"##당":6282,"##하":6283,"##코":6284,"##도":6285,"##4":6286,"##0":6287,"##라":6288,"##전":6289,"##박":6290,"##아":6291,"##스":6292,"##러":6293,"##움":6294,"##9":6295,"##6":6296,"##5":6297,"##년":6298,"##면":6299,"##서":6300,"##식":6301,"##어":6302,"##보":6303,"##야":6304,"##구":6305,"##값":6306,"##긴":6307,"##쁘":6308,"##신":6309,"##네":6310,"##여":6311,"##줘":6312,"##봐":6313,"##할":6314,"##수":6315,"##없":6316,"##문":6317,"##작":6318,"##통":6319,"##락":6320,"##백":6321,"##명":6322,"##죽":6323,"##갔":6324,"##고":6325,"##렬":6326,"##돼":6327,"##추":6328,"##천":6329,"##해":6330,"##돈":6331,"##받":6332,"##거":6333,"##땜":6334,"##깅":6335,"##말":6336,"##님":6337,"##드":6338,"##실":6339,"##적":6340,"##를":6341,"##먹":6342,"##렵":6343,"##까":6344,"##발":6345,"##슈":6346,"##요":6347,"##창":6348,"##체":6349,"##오":6350,"##후":6351,"##1":6352,"##제":6353,"##들":6354,"##효":6355,"##각":6356,"##과":6357,"##동":6358,"##처":6359,"##럼":6360,"##살":6361,"##잔":6362,"##새":6363,"##키":6364,"##별":6365,"##회":6366,"##뿐":6367,"##격":6368,"##료":6369,"##국":6370,"##내":6371,"##르":6372,"##려":6373,"##뙤":6374,"##압":6375,"##렸":6376,"##8":6377,"##짓":6378,"##진":6379,"##맹":6380,"##점":6381,"##모":6382,"##본":6383,"##역":6384,"##프":6385,"##텐":6386,"##히":6387,"##일":6388,"##부":6389,"##런":6390,"##저":6391,"##생":6392,"##탓":6393,"##병":6394,"##람":6395,"##몰":6396,"##셐":6397,"##담":6398,"##척":6399,"##잖":6400,"##사":6401,"##투":6402,"##입":6403,"##업":6404,"##뎃":6405,"##줬":6406,"##훈":6407,"##른":6408,"##침":6409,"##틱":6410,"##금":6411,"##그":6412,"##렇":6413,"##튜":6414,"##디":6415,"##못":6416,"##게":6417,"##덴":6418,"##와":6419,"##랑":6420,"##경":6421,"##덕":6422,"##착":6423,"##린":6424,"##죠":6425,"##축":6426,"##벅":6427,"##좋":6428,"##릇":6429,"##볼":6430,"##같":6431,"##냐":6432,"##죄":6433,"##앙":6434,"##애":6435,"##비":6436,"##때":6437,"##심":6438,"##합":6439,"##음":6440,"##결":6441,"##인":6442,"##분":6443,"##쩌":6444,"##두":6445,"##미":6446,"##갱":6447,"##세":6448,"##선":6449,"##질":6450,"##느":6451,"##낄":6452,"##베":6453,"##댓":6454,"##용":6455,"##곤":6456,"##않":6457,"##등":6458,"##M":6459,"##G":6460,"##3":6461,"##쳐":6462,"##설":6463,"##룹":6464,"##찜":6465,"##임":6466,"##e":6467,"##a":6468,"##s":6469,"##l":6470,"##F":6471,"##었":6472,"##겟":6473,"##벌":6474,"##되":6475,"##테":6476,"##우":6477,"##놓":6478,"##배":6479,"##연":6480,"##뻑":6481,"##뿜":6482,"##육":6483,"##영":6484,"##찌":6485,"##검":6486,"##증":6487,"##탑":6488,"##존":6489,"##즈":6490,"##철":6491,"##반":6492,"##억":6493,"##주":6494,"##택":6495,"##절":6496,"##권":6497,"##력":6498,"##템":6499,"##O":6500,"##T":6501,"##A":6502,"##터":6503,"##난":6504,"##겐":6505,"##양":6506,"##준":6507,"##법":6508,"##센":6509,"##물":6510,"##중":6511,"##루":6512,"##낌":6513,"##날":6514,"##킨":6515,"##논":6516,"##쓰":6517,"##곸":6518,"##달":6519,"##온":6520,"##마":6521,"##석":6522,"##관":6523,"##총":6524,"##벨":6525,"##밖":6526,"##머":6527,"##학":6528,"##왜":6529,"##케":6530,"##많":6531,"##행":6532,"##엽":6533,"##냥":6534,"##타":6535,"##엔":6536,"##먼":6537,"##맨":6538,"##링":6539,"##쿨":6540,"##골":6541,"##협":6542,"##빠":6543,"##순":6544,"##잘":6545,"##막":6546,"##싸":6547,"##뎈":6548,"##7":6549,"##밀":6550,"##글":6551,"##월":6552,"##t":6553,"##h":6554,"##뎅":6555,"##유":6556,"##워":6557,"##공":6558,"##차":6559,"##율":6560,"##뷰":6561,"##끌":6562,"##늦":6563,"##놈":6564,"##광":6565,"##무":6566,"##맞":6567,"##겄":6568,"##편":6569,"##릉":6570,"##외":6571,"##버":6572,"##널":6573,"##찬":6574,"##충":6575,"##돌":6576,"##I":6577,"##S":6578,"##맥":6579,"##떻":6580,"##든":6581,"##듬":6582,"##꼬":6583,"##께":6584,"##산":6585,"##였":6586,"##것":6587,"##족":6588,"##k":6589,"##m":6590,"##극":6591,"##좀":6592,"##툰":6593,"##둥":6594,"##앤":6595,"##컬":6596,"##방":6597,"##쉬":6598,"##켄":6599,"##셰":6600,"##첼":6601,"##혁":6602,"##림":6603,"##최":6604,"##답":6605,"##깐":6606,"##숑":6607,"##길":6608,"##속":6609,"##졌":6610,"##더":6611,"##건":6612,"##판":6613,"##쳤":6614,"##현":6615,"##번":6616,"##뻥":6617,"##탈":6618,"##깝":6619,"##친":6620,"##크":6621,"##울":6622,"##노":6623,"##토":6624,"##남":6625,"##겼":6626,"##빼":6627,"##얀":6628,"##빈":6629,"##촌":6630,"##카":6631,"##믿":6632,"##란":6633,"##항":6634,"##앞":6635,"##찍":6636,"##복":6637,"##북":6638,"##커":6639,"##뮤":6640,"##티":6641,"##엇":6642,"##래":6643,"##누":6644,"##청":6645,"##균":6646,"##겨":6647,"##책":6648,"##넼":6649,"##짜":6650,"##듯":6651,"##놀":6652,"##레":6653,"##씨":6654,"##곱":6655,"##슬":6656,"##찰":6657,"##감":6658,"##파":6659,"##운":6660,"##밥":6661,"##품":6662,"##익":6663,"##캄":6664,"##괜":6665,"##힘":6666,"##읍":6667,"##찼":6668,"##릭":6669,"##긔":6670,"##독":6671,"##좡":6672,"##십":6673,"##바":6674,"##힌":6675,"##뛰":6676,"##냄":6677,"##호":6678,"##능":6679,"##E":6680,"##피":6681,"##됐":6682,"##잉":6683,"##민":6684,"##햇":6685,"##겉":6686,"##옷":6687,"##완":6688,"##뱍":6689,"##범":6690,"##직":6691,"##념":6692,"##킷":6693,"##강":6694,"##놔":6695,"##랜":6696,"##교":6697,"##급":6698,"##약":6699,"##쉐":6700,"##견":6701,"##싶":6702,"##악":6703,"##맵":6704,"##푸":6705,"##B":6706,"##C":6707,"##손":6708,"##뀐":6709,"##함":6710,"##브":6711,"##풍":6712,"##록":6713,"##컹":6714,"##령":6715,"##봤":6716,"##땐":6717,"##출":6718,"##뜨":6719,"##망":6720,"##짝":6721,"##셨":6722,"##채":6723,"##포":6724,"##근":6725,"##불":6726,"##믕":6727,"##컨":6728,"##션":6729,"##승":6730,"##횡":6731,"##홈":6732,"##쇼":6733,"##핑":6734,"##초":6735,"##변":6736,"##론":6737,"##겻":6738,"##취":6739,"##춰":6740,"##왔":6741,"##먀":6742,"##씹":6743,"##땅":6744,"##째":6745,"##플":6746,"##콘":6747,"##츠":6748,"##P":6749,"##밌":6750,"##찾":6751,"##색":6752,"##칠":6753,"##꽃":6754,"##열":6755,"##렁":6756,"##췍":6757,"##뷇":6758,"##헯":6759,"##뮬":6760,"##패":6761,"##엘":6762,"##곳":6763,"##b":6764,"##i":6765,"##w":6766,"##객":6767,"##셉":6768,"##올":6769,"##페":6770,"##렴":6771,"##걸":6772,"##허":6773,"##메":6774,"##넛":6775,"##환":6776,"##활":6777,"##켜":6778,"##띄":6779,"##y":6780,"##n":6781,"##o":6782,"##g":6783,"##헤":6784,"##늠":6785,"##L":6786,"##섯":6787,"##램":6788,"##뒤":6789,"##랼":6790,"##립":6791,"##언":6792,"##확":6793,"##층":6794,"##갈":6795,"##얼":6796,"##굴":6797,"##풀":6798,"##쌤":6799,"##잇":6800,"##컷":6801,"##필":6802,"##될":6803,"##득":6804,"##p":6805,"##형":6806,"##뜰":6807,"##웠":6808,"##목":6809,"##랄":6810,"##빨":6811,"##팠":6812,"##낙":6813,"##욜":6814,"##꺼":6815,"##암":6816,"##폰":6817,"##틴":6818,"##잡":6819,"##c":6820,"##줍":6821,"##깨":6822,"##따":6823,"##혀":6824,"##술":6825,"##썩":6826,"##닌":6827,"##곡":6828,"##샤":6829,"##예":6830,"##딧":6831,"##써":6832,"##떨":6833,"##너":6834,"##롱":6835,"##윤":6836,"##듣":6837,"##슴":6838,"##픔":6839,"##덩":6840,"##탐":6841,"##럽":6842,"##넘":6843,"##힛":6844,"##쏠":6845,"##태":6846,"##팅":6847,"##얍":6848,"##삽":6849,"##N":6850,"##높":6851,"##쿠":6852,"##폭":6853,"##팔":6854,"##참":6855,"##쑈":6856,"##량":6857,"##홍":6858,"##웹":6859,"##뽜":6860,"##짱":6861,"##향":6862,"##챙":6863,"##닼":6864,"##됬":6865,"##끼":6866,"##몸":6867,"##끝":6868,"##매":6869,"##측":6870,"##럭":6871,"##욕":6872,"##련":6873,"##종":6874,"##헌":6875,"##혼":6876,"##슨":6877,"##또":6878,"##띠":6879,"##삶":6880,"##K":6881,"##늘":6882,"##칙":6883,"##덤":6884,"##둘":6885,"##녕":6886,"##뻔":6887,"##녀":6888,"##덜":6889,"##갤":6890,"##릴":6891,"##r":6892,"##냔":6893,"##섭":6894,"##쯤":6895,"##왕":6896,"##턱":6897,"##숙":6898,"##액":6899,"##몽":6900,"##쿵":6901,"##룡":6902,"##앗":6903,"##떡":6904,"##빚":6905,"##퇴":6906,"##웅":6907,"##앟":6908,"##꾼":6909,"##맘":6910,"##튼":6911,"##챠":6912,"##멱":6913,"##욱":6914,"##뢰":6915,"##딜":6916,"##솔":6917,"##륙":6918,"##랐":6919,"##껄":6920,"##봅":6921,"##떤":6922,"##랙":6923,"##d":6924,"##평":6925,"##봉":6926,"##킹":6927,"##촉":6928,"##탄":6929,"##났":6930,"##졷":6931,"##첩":6932,"##픽":6933,"##펌":6934,"##펑":6935,"##톈":6936,"##뉴":6937,"##엉":6938,"##웃":6939,"##특":6940,"##례":6941,"##쪽":6942,"##떠":6943,"##엌":6944,"##뽑":6945,"##헉":6946,"##휴":6947,"##씩":6948,"##킬":6949,"##뿔":6950,"##궁":6951,"##닦":6952,"##f":6953,"##옴":6954,"##끗":6955,"##칭":6956,"##므":6957,"##쏴":6958,"##꼇":6959,"##멍":6960,"##겸":6961,"##펀":6962,"##톡":6963,"##갑":6964,"##씀":6965,"##D":6966,"##팀":6967,"##류":6968,"##껏":6969,"##쪘":6970,"##띾":6971,"##윈":6972,"##쌍":6973,"##뭐":6974,"##u":6975,"##곰":6976,"##걀":6977,"##묘":6978,"##뎐":6979,"##끊":6980,"##셔":6981,"##귿":6982,"##x":6983,"##춘":6984,"##껑":6985,"##짠":6986,"##쥐":6987,"##딩":6988,"##홀":6989,"##벙":6990,"##좁":6991,"##떼":6992,"##헨":6993,"##꾸":6994,"##송":6995,"##콜":6996,"##릿":6997,"##험":6998,"##깡":6999,"##럴":7000,"##칼":7001,"##떔":7002,"##꼴":7003,"##똥":7004,"##삼":7005,"##섬":7006,"##숭":7007,"##삐":7008,"##흣":7009,"##쌉":7010,"##쥬":7011,"##롭":7012,"##텅":7013,"##읅":7014,"##멋":7015,"##염":7016,"##핵":7017,"##쟁":7018,"##묻":7019,"##혈":7020,"##둔":7021,"##갓":7022,"##틀":7023,"##딱":7024,"##캐":7025,"##및":7026,"##룩":7027,"##켔":7028,"##혜":7029,"##탕":7030,"##긋":7031,"##흙":7032,"##롤":7033,"##흉":7034,"##샹":7035,"##낸":7036,"##접":7037,"##봇":7038,"##휘":7039,"##됏":7040,"##퐁":7041,"##v":7042,"##Y":7043,"##툭":7044,"##튀":7045,"##뜯":7046,"##맜":7047,"##엄":7048,"##흥":7049,"##몀":7050,"##맴":7051,"##뤼":7052,"##닥":7053,"##괴":7054,"##쓴":7055,"##룰":7056,"##눈":7057,"##좌":7058,"##R":7059,"##Q":7060,"##텔":7061,"##싼":7062,"##률":7063,"##잠":7064,"##됩":7065,"##획":7066,"##댁":7067,"##캠":7068,"##씬":7069,"##큰":7070,"##셀":7071,"##젓":7072,"##닐":7073,"##픈":7074,"##눌":7075,"##돠":7076,"##훗":7077,"##흰":7078,"##돔":7079,"##됨":7080,"##뱃":7081,"##빵":7082,"##햐":7083,"##낳":7084,"##줌":7085,"##쿄":7086,"##뿌":7087,"##쩐":7088,"##섹":7089,"##믹":7090,"##뭔":7091,"##펙":7092,"##멸":7093,"##블":7094,"##빽":7095,"##돚":7096,"##챵":7097,"##졔":7098,"##돨":7099,"##뱉":7100,"##얹":7101,"##딸":7102,"##칮":7103,"##겁":7104,"##듦":7105,"##팬":7106,"##싱":7107,"##렷":7108,"##돋":7109,"##랫":7110,"##푼":7111,"##흐":7112,"##먄":7113,"##훼":7114,"##붕":7115,"##쩝":7116,"##빙":7117,"##벽":7118,"##넣":7119,"##씁":7120,"##꿎":7121,"##늬":7122,"##쌔":7123,"##즐":7124,"##뮈":7125,"##닿":7126,"##맙":7127,"##컴":7128,"##멈":7129,"##겜":7130,"##즌":7131,"##퀴":7132,"##앱":7133,"##딨":7134,"##샊":7135,"##몇":7136,"##앜":7137,"##황":7138,"##희":7139,"##김":7140,"##욤":7141,"##W":7142,"##젠":7143,"##떄":7144,"##봄":7145,"##뻣":7146,"##쁩":7147,"##곧":7148,"##샛":7149,"##z":7150,"##텍":7151,"##툴":7152,"##쳣":7153,"##봥":7154,"##꼽":7155,"##녔":7156,"##쭉":7157,"##냅":7158,"##웈":7159,"##흫":7160,"##흑":7161,"##융":7162,"##캅":7163,"##낮":7164,"##짴":7165,"##뀔":7166,"##붙":7167,"##q":7168,"##얘":7169,"##띵":7170,"##댄":7171,"##쥔":7172,"##욬":7173,"##룽":7174,"##싫":7175,"##닠":7176,"##쉽":7177,"##삿":7178,"##엿":7179,"##눠":7180,"##멘":7181,"##맣":7182,"##꽈":7183,"##쎄":7184,"##턴":7185,"##쯔":7186,"##뫀":7187,"##밸":7188,"##딴":7189,"##몬":7190,"##짧":7191,"##낀":7192,"##댔":7193,"##j":7194,"##얻":7195,"##맛":7196,"##뜻":7197,"##딬":7198,"##뇨":7199,"##쾌":7200,"##궄":7201,"##뚝":7202,"##칸":7203,"##쥤":7204,"##곶":7205,"##짐":7206,"##잣":7207,"##랬":7208,"##셸":7209,"##뚜":7210,"##숨":7211,"##롸":7212,"##닮":7213,"##슷":7214,"##렘":7215,"##맂":7216,"##랍":7217,"##꿔":7218,"##껍":7219,"##빤":7220,"##꽂":7221,"##톱":7222,"##뜩":7223,"##팜":7224,"##뇌":7225,"##옵":7226,"##뀨":7227,"##렜":7228,"##껴":7229,"##쯥":7230,"##댕":7231,"##쁨":7232,"##륨":7233,"##옥":7234,"##랭":7235,"##놨":7236,"##냈":7237,"##뻐":7238,"##댐":7239,"##뀌":7240,"##갇":7241,"##찮":7242,"##농":7243,"##갰":7244,"##닷":7245,"##걷":7246,"##븐":7247,"##낫":7248,"##낼":7249,"##넹":7250,"##젤":7251,"##슘":7252,"##횐":7253,"##X":7254,"##욧":7255,"##벤":7256,"##롴":7257,"##붸":7258,"##클":7259,"##깔":7260,"##꽤":7261,"##탁":7262,"##퉤":7263,"##꼭":7264,"##슺":7265,"##샷":7266,"##멪":7267,"##멕":7268,"##럳":7269,"##덱":7270,"##힣":7271,"##믄":7272,"##줫":7273,"##잼":7274,"##략":7275,"##롬":7276,"##밋":7277,"##뒀":7278,"##훠":7279,"##쓱":7280,"##몆":7281,"##삭":7282,"##뱅":7283,"##엣":7284,"##햄":7285,"##헴":7286,"##앨":7287,"##녹":7288,"##캘":7289,"##렋":7290,"##썼":7291,"##됫":7292,"##뽕":7293,"##챔":7294,"##콩":7295,"##끄":7296,"##촤":7297,"##갖":7298,"##끈":7299,"##졋":7300,"##웰":7301,"##옳":7302,"##뱀":7303,"##꼏":7304,"##갚":7305,"##헙":7306,"##탱":7307,"##섞":7308,"##뇬":7309,"##삑":7310,"##쫌":7311,"##쇠":7312,"##깜":7313,"##V":7314,"##굼":7315,"##묜":7316,"##뚱":7317,"##렙":7318,"##닝":7319,"##썬":7320,"##둑":7321,"##묵":7322,"##털":7323,"##빌":7324,"##챈":7325,"##켓":7326,"##쫄":7327,"##셧":7328,"##넷":7329,"##휼":7330,"##꿈":7331,"##팡":7332,"##컵":7333,"##찹":7334,"##첫":7335,"##납":7336,"##쉰":7337,"##첨":7338,"##쑤":7339,"##넌":7340,"##셈":7341,"##듐":7342,"##곽":7343,"##졸":7344,"##댈":7345,"##징":7346,"##쌓":7347,"##넬":7348,"##껀":7349,"##렌":7350,"##핀":7351,"##짤":7352,"##슥":7353,"##쩔":7354,"##땋":7355,"##멀":7356,"##뭇":7357,"##빡":7358,"##륜":7359,"##냉":7360,"##컥":7361,"##쩡":7362,"##핳":7363,"##왤":7364,"##궸":7365,"##헬":7366,"##쩍":7367,"##옆":7368,"##퍌":7369,"##땠":7370,"##뺏":7371,"##밬":7372,"##꺠":7373,"##힐":7374,"##닫":7375,"##쁠":7376,"##섴":7377,"##맡":7378,"##엎":7379,"##잃":7380,"##싹":7381,"##촛":7382,"##헥":7383,"##팍":7384,"##밝":7385,"##옹":7386,"##델":7387,"##쉴":7388,"##톤":7389,"##윰":7390,"##밍":7391,"##뽀":7392,"##뭣":7393,"##툿":7394,"##엑":7395,"##읽":7396,"##놧":7397,"##갸":7398,"##쓸":7399,"##녁":7400,"##깥":7401,"##섰":7402,"##춤":7403,"##갼":7404,"##Z":7405,"##귄":7406,"##꼈":7407,"##젊":7408,"##웜":7409,"##촬":7410,"##짘":7411,"##즘":7412,"##렉":7413,"##퓨":7414,"##밟":7415,"##쐈":7416,"##헿":7417,"##셋":7418,"##눅":7419,"##꿨":7420,"##왓":7421,"##튈":7422,"##앉":7423,"##흡":7424,"##륵":7425,"##틸":7426,"##뎌":7427,"##짰":7428,"##샠":7429,"##굳":7430,"##텀":7431,"##뱔":7432,"##늉":7433,"##헝":7434,"##핫":7435,"##밴":7436,"##꼼":7437,"##펴":7438,"##맺":7439,"##핥":7440,"##봣":7441,"##톨":7442,"##꺄":7443,"##륭":7444,"##밭":7445,"##웬":7446,"##즙":7447,"##폼":7448,"##슝":7449,"##겧":7450,"##깉":7451,"##걍":7452,"##녘":7453,"##쬬":7454,"##쭐":7455,"##썸":7456,"##핡":7457,"##뻤":7458,"##짖":7459,"##쌈":7460,"##숲":7461,"##헐":7462,"##벗":7463,"##왼":7464,"##꿀":7465,"##땩":7466,"##눕":7467,"##잊":7468,"##얺":7469,"##밧":7470,"##랔":7471,"##룸":7472,"##윽":7473,"##텨":7474,"##U":7475,"##굿":7476,"##퇘":7477,"##깍":7478,"##깁":7479,"##J":7480,"##걔":7481,"##틍":7482,"##뷔":7483,"##곗":7484,"##뎠":7485,"##렐":7486,"##펜":7487,"##굽":7488,"##앍":7489,"##랩":7490,"##딘":7491,"##풉":7492,"##샴":7493,"##랏":7494,"##봨":7495,"##큐":7496,"##밑":7497,"##꼿":7498,"##쏜":7499,"##몹":7500,"##탖":7501,"##홧":7502,"##빛":7503,"##롄":7504,"##웁":7505,"##흔":7506,"##밤":7507,"##혐":7508,"##땄":7509,"##찐":7510,"##윅":7511,"##꽥":7512,"##쫓":7513,"##톰":7514,"##폴":7515,"##닙":7516,"##킴":7517,"##첸":7518,"##삘":7519,"##H":7520,"##쟤":7521,"##넠":7522,"##훌":7523,"##뺑":7524,"##춫":7525,"##즉":7526,"##잭":7527,"##쨍":7528,"##탬":7529,"##헷":7530,"##윌":7531,"##팩":7532,"##빅":7533,"##듀":7534,"##캡":7535,"##슐":7536,"##흩":7537,"##씌":7538,"##땀":7539,"##흄":7540,"##뗳":7541,"##뭘":7542,"##덫":7543,"##땡":7544,"##핸":7545,"##쟈":7546,"##믘":7547,"##쪼":7548,"##끔":7549,"##똑":7550,"##떳":7551,"##둬":7552,"##룬":7553,"##칵":7554,"##킵":7555,"##웟":7556,"##벼":7557,"##쌀":7558,"##굉":7559,"##텡":7560,"##밉":7561,"##읎":7562,"##붓":7563,"##줏":7564,"##뢍":7565,"##읹":7566,"##겹":7567,"##딪":7568,"##킥":7569,"##췄":7570,"##끕":7571,"##눙":7572,"##쇄":7573,"##콰":7574,"##됌":7575,"##냇":7576,"##퉁":7577,"##밪":7578,"##앀":7579,"##뼉":7580,"##좃":7581,"##츄":7582,"##넝":7583,"##갃":7584,"##맏":7585,"##덮":7586,"##낰":7587,"##롯":7588,"##엤":7589,"##멬":7590,"##쎃":7591,"##똘":7592,"##깎":7593,"##튁":7594,"##둡":7595,"##샀":7596,"##뚠":7597,"##찡":7598,"##푹":7599,"##뉘":7600,"##곁":7601,"##쩬":7602,"##캍":7603,"##얓":7604,"##둿":7605,"##낭":7606,"##뼈":7607,"##깃":7608,"##횟":7609,"##봘":7610,"##늄":7611,"##괄":7612,"##닛":7613,"##쿼":7614,"##샵":7615,"##믜":7616,"##갭":7617,"##틐":7618,"##랴":7619,"##쟌":7620,"##셜":7621,"##넴":7622,"##갯":7623,"##쀀":7624,"##혔":7625,"##넨":7626,"##됄":7627,"##켐":7628,"##쯱":7629,"##힝":7630,"##덥":7631,"##뤄":7632,"##쪄":7633,"##젝":7634,"##멤":7635,"##힙":7636,"##꾀":7637,"##탠":7638,"##팃":7639,"##찔":7640,"##뫄":7641,"##웨":7642,"##풑":7643,"##쨩":7644,"##릐":7645,"##앖":7646,"##꿰":7647,"##괬":7648,"##숩":7649,"##빕":7650,"##뫼":7651,"##헛":7652,"##닭":7653,"##땍":7654,"##콤":7655,"##밈":7656,"##옜":7657,"##쫀":7658,"##볘":7659,"##꼰":7660,"##뎄":7661,"##팸":7662,"##듸":7663,"##깊":7664,"##걱":7665,"##렀":7666,"##띰":7667,"##칩":7668,"##렝":7669,"##뽄":7670,"##횽":7671,"##좈":7672,"##댸":7673,"##츔":7674,"##댜":7675,"##뜸":7676,"##똠":7677,"##쿤":7678,"##픕":7679,"##팝":7680,"##폔":7681,"##뒈":7682,"##칫":7683,"##뚫":7684,"##쉟":7685,"##렣":7686,"##쫏":7687,"##깽":7688,"##벚":7689,"##쎈":7690,"##킈":7691,"##썰":7692,"##숍":7693,"##넥":7694,"##쯧":7695,"##옄":7696,"##삣":7697,"##귤":7698,"##쾅":7699,"##뺴":7700,"##잏":7701,"##얒":7702,"##끓":7703,"##릅":7704,"##뜬":7705,"##싯":7706,"##둣":7707,"##얌":7708,"##훔":7709,"##퀸":7710,"##흠":7711,"##숴":7712,"##뺌":7713,"##뎁":7714,"##럿":7715,"##듷":7716,"##쯩":7717,"##춥":7718,"##뒷":7719,"##쏀":7720,"##슾":7721,"##캔":7722,"##웍":7723,"##뵌":7724,"##붴":7725,"##랰":7726,"##낵":7727,"##캥":7728,"##찢":7729,"##뀜":7730,"##굥":7731,"##쳏":7732,"##옯":7733,"##멜":7734,"##뿅":7735,"##쾈":7736,"##캌":7737,"##멧":7738,"##욭":7739,"##캬":7740,"##컄":7741,"##쭈":7742,"##벡":7743,"##퀘":7744,"##죵":7745,"##됴":7746,"##묭":7747,"##콕":7748,"##섀":7749,"##닄":7750,"##읋":7751,"##돝":7752,"##캣":7753,"##콬":7754,"##꺽":7755,"##좉":7756,"##푈":7757,"##넉":7758,"##둠":7759,"##깈":7760,"##뗌":7761,"##쌱":7762,"##겅":7763,"##뽝":7764,"##뺀":7765,"##볶":7766,"##늙":7767,"##툼":7768,"##촐":7769,"##샘":7770,"##궈":7771,"##뇸":7772,"##쫑":7773,"##벳":7774,"##냬":7775,"##쉨":7776,"##엨":7777,"##싳":7778,"##츙":7779,"##듭":7780,"##엾":7781,"##헵":7782,"##넓":7783,"##뵈":7784,"##헹":7785,"##싷":7786,"##혓":7787,"##햌":7788,"##펐":7789,"##햏":7790,"##닺":7791,"##샜":7792,"##쥘":7793,"##뭉":7794,"##쒸":7795,"##룀":7796,"##옌":7797,"##텟":7798,"##켠":7799,"##짚":7800,"##쫒":7801,"##껭":7802,"##쉘":7803,"##뚤":7804,"##퀄":7805,"##썹":7806,"##궤":7807,"##옝":7808,"##엥":7809,"##긒":7810,"##꿱":7811,"##캉":7812,"##랸":7813,"##괸":7814,"##쌋":7815,"##괭":7816,"##넵":7817,"##쏘":7818,"##픝":7819,"##갹":7820,"##딤":7821,"##붐":7822,"##놬":7823,"##놂":7824,"##틔":7825,"##볍":7826,"##졈":7827,"##흘":7828,"##앵":7829,"##셕":7830,"##륽":7831,"##헣":7832,"##딕":7833,"##긐":7834,"##띤":7835,"##믈":7836,"##얔":7837,"##샌":7838,"##왠":7839,"##욥":7840,"##댯":7841,"##첵":7842,"##씽":7843,"##뚸":7844,"##냑":7845,"##뵤":7846,"##랋":7847,"##쪗":7848,"##쌰":7849,"##읐":7850,"##즛":7851,"##즁":7852,"##듵":7853,"##뿟":7854,"##갬":7855,"##럻":7856,"##짬":7857,"##큘":7858,"##븉":7859,"##덯":7860,"##옛":7861,"##쿡":7862,"##탯":7863,"##끙":7864,"##앓":7865,"##팽":7866,"##잦":7867,"##밨":7868,"##썽":7869,"##왈":7870,"##츈":7871,"##겪":7872,"##싥":7873,"##훅":7874,"##흨":7875,"##찝":7876,"##뤀":7877,"##쭁":7878,"##냨":7879,"##댠":7880,"##핍":7881,"##옇":7882,"##덟":7883,"##귈":7884,"##쳥":7885,"##뇽":7886,"##옼":7887,"##팈":7888,"##빜":7889,"##얏":7890,"##쥰":7891,"##숟":7892,"##췃":7893,"##씻":7894,"##쟝":7895,"##쩠":7896,"##늣":7897,"##옮":7898,"##땨":7899,"##튭":7900,"##쟎":7901,"##윔":7902,"##윙":7903,"##놐":7904,"##찻":7905,"##뮨":7906,"##뾰":7907,"##텼":7908,"##킁":7909,"##퍽":7910,"##쉮":7911,"##홉":7912,"##냠":7913,"##닉":7914,"##빔":7915,"##눔":7916,"##왭":7917,"##뮷":7918,"##챘":7919,"##챡":7920,"##꾹":7921,"##쨰":7922,"##튬":7923,"##컸":7924,"##쿰":7925,"##펠":7926,"##긍":7927,"##맄":7928,"##럾":7929,"##줔":7930,"##쁑":7931,"##늕":7932,"##녈":7933,"##첢":7934,"##눜":7935,"##랖":7936,"##녓":7937,"##좇":7938,"##틈":7939,"##팁":7940,"##펫":7941,"##쨌":7942,"##탤":7943,"##괨":7944,"##큭":7945,"##댙":7946,"##츤":7947,"##쏸":7948,"##붹":7949,"##밞":7950,"##됀":7951,"##켯":7952,"##칟":7953,"##핼":7954,"##깤":7955,"##컫":7956,"##툽":7957,"##잌":7958,"##쾨":7959,"##땝":7960,"##콧":7961,"##엠":7962,"##뎀":7963,"##쇽":7964,"##낯":7965,"##섻":7966,"##쉼":7967,"##죸":7968,"##긁":7969,"##츨":7970,"##뱡":7971,"##팻":7972,"##쟙":7973,"##륮":7974,"##벶":7975,"##꼐":7976,"##풋":7977,"##쳦":7978,"##훨":7979,"##믐":7980,"##촹":7981,"##캎":7982,"##줒":7983,"##샬":7984,"##엮":7985,"##뺨":7986,"##잎":7987,"##씐":7988,"##귝":7989,"##좝":7990,"##낑":7991,"##쨔":7992,"##긱":7993,"##늗":7994,"##숫":7995,"##몪":7996,"##잤":7997,"##낚":7998,"##쉑":7999,"##쵸":8000,"##낝":8001,"##갠":8002,"##씰":8003,"##꽉":8004,"##긇":8005,"##앰":8006,"##첱":8007,"##슽":8008,"##녜":8009,"##옿":8010,"##썅":8011,"##붇":8012,"##젼":8013,"##녴":8014,"##갛":8015,"##쳠":8016,"##쭤":8017,"##읙":8018,"##죈":8019,"##좆":8020,"##쑵":8021,"##쵝":8022,"##뤠":8023,"##쩜":8024,"##쥼":8025,"##웡":8026,"##쓔":8027,"##홓":8028,"##꿋":8029,"##퓌":8030,"##읗":8031,"##쉭":8032,"##쇅":8033,"##맀":8034,"##댑":8035,"##랃":8036,"##꽝":8037,"##겆":8038,"##겋":8039,"##돜":8040,"##댱":8041,"##싀":8042,"##얂":8043,"##펼":8044,"##탸":8045,"##갗":8046,"##뻘":8047,"##벞":8048,"##릏":8049,"##랟":8050,"##싈":8051,"##핟":8052,"##셩":8053,"##믺":8054,"##텁":8055,"##쏟":8056,"##넿":8057,"##먕":8058,"##랗":8059,"##돟":8060,"##윳":8061,"##앸":8062,"##붉":8063,"##콥":8064,"##넜":8065,"##팰":8066,"##멓":8067,"##찯":8068,"##펄":8069,"##삱":8070,"##숀":8071,"##곈":8072,"##팼":8073,"##뤕":8074,"##굶":8075,"##빗":8076,"##뢀":8077,"##쨈":8078,"##촨":8079,"##묶":8080,"##쥭":8081,"##겤":8082,"##멐":8083,"##눀":8084,"##굔":8085,"##퍠":8086,"##릎":8087,"##퀀":8088,"##붑":8089,"##챗":8090,"##쌨":8091,"##턍":8092,"##뚷":8093,"##홰":8094,"##앋":8095,"##욯":8096,"##읏":8097,"##쳫":8098,"##쪹":8099,"##곀":8100,"##붤":8101,"##펭":8102,"##헠":8103,"##킄":8104,"##폿":8105,"##솟":8106,"##뺘":8107,"##닢":8108,"##떵":8109,"##샄":8110,"##튄":8111,"##푠":8112,"##갘":8113,"##찠":8114,"##엏":8115,"##쒼":8116,"##줠":8117,"##쒕":8118,"##휜":8119,"##됍":8120,"##훡":8121,"##즤":8122,"##췌":8123,"##괘":8124,"##쪈":8125,"##겔":8126,"##꽁":8127,"##썻":8128,"##꾜":8129,"##뷁":8130,"##젇":8131,"##빩":8132,"##궂":8133,"##꽅":8134,"##뵜":8135,"##싴":8136,"##쫩":8137,"##귓":8138,"##텬":8139,"##닣":8140,"##깠":8141,"##옽":8142,"##팹":8143,"##잨":8144,"##쌩":8145,"##켬":8146,"##돕":8147,"##빸":8148,"##쾡":8149,"##솨":8150,"##쎅":8151,"##죡":8152,"##왑":8153,"##셍":8154,"##팎":8155,"##샇":8156,"##둗":8157,"##볔":8158,"##셌":8159,"##핝":8160,"##몫":8161,"##맼":8162,"##쩃":8163,"##늫":8164,"##돞":8165,"##쯍":8166,"##궐":8167,"##놉":8168,"##뭍":8169,"##솽":8170,"##왱":8171,"##듄":8172,"##빧":8173,"##렼":8174,"##뺍":8175,"##휄":8176,"##퀑":8177,"##잰":8178,"##뗑":8179,"##샅":8180,"##쎠":8181,"##뻡":8182,"##얐":8183,"##젖":8184,"##쌘":8185,"##싨":8186,"##끵":8187,"##띨":8188,"##쑹":8189,"##쫘":8190,"##믠":8191,"##깟":8192,"##뙈":8193,"##됰":8194,"##웤":8195,"##혱":8196,"##얽":8197,"##앳":8198,"##뇠":8199,"##잽":8200,"##쉌":8201,"##쨕":8202,"##둰":8203,"##꿇":8204,"##쎌":8205,"##쳬":8206,"##뻨":8207,"##텋":8208,"##졓":8209,"##뭤":8210,"##쳋":8211,"##츌":8212,"##븅":8213,"##헭":8214,"##탆":8215,"##톄":8216,"##삲":8217,"##탔":8218,"##맷":8219,"##슙":8220,"##뽐":8221,"##쿳":8222,"##쇳":8223,"##쮜":8224,"##짼":8225,"##꺜":8226,"##킼":8227,"##텝":8228,"##솝":8229,"##쩨":8230,"##앴":8231,"##읔":8232,"##닽":8233,"##랱":8234,"##퉷":8235,"##퀵":8236,"##겈":8237,"##졍":8238,"##쑥":8239,"##딛":8240,"##뛴":8241,"##켈":8242,"##덧":8243,"##폇":8244,"##좼":8245,"##맟":8246,"##뮌":8247,"##핏":8248,"##졘":8249,"##핮":8250,"##횰":8251,"##눟":8252,"##멉":8253,"##뿍":8254,"##좨":8255,"##줴":8256,"##낢":8257,"##솤":8258,"##꿉":8259,"##팦":8260,"##뼘":8261,"##챃":8262,"##긻":8263,"##볕":8264,"##쐬":8265,"##밎":8266,"##돳":8267,"##빳":8268,"##젭":8269,"##젯":8270,"##콴":8271,"##톼":8272,"##퐤":8273,"##뗀":8274,"##닊":8275,"##팤":8276,"##첬":8277,"##죤":8278,"##맠":8279,"##껐":8280,"##쥥":8281,"##멌":8282,"##껌":8283,"##렻":8284,"##쌖":8285,"##뱆":8286,"##룍":8287,"##뤘":8288,"##룻":8289,"##늼":8290,"##텈":8291,"##쨀":8292,"##럑":8293,"##꾐":8294,"##짹":8295,"##픵":8296,"##꿍":8297,"##삡":8298,"##뽭":8299,"##퀼":8300,"##궜":8301,"##촵":8302,"##깼":8303,"##싑":8304,"##켤":8305,"##멵":8306,"##넚":8307,"##앂":8308,"##핌":8309,"##빻":8310,"##켸":8311,"##쳌":8312,"##봍":8313,"##쥴":8314,"##짷":8315,"##렫":8316,"##놎":8317,"##뉸":8318,"##벵":8319,"##섣":8320,"##쎘":8321,"##맗":8322,"##낱":8323,"##숌":8324,"##끤":8325,"##닏":8326,"##쩖":8327,"##줜":8328,"##땃":8329,"##젔":8330,"##봴":8331,"##욘":8332,"##씅":8333,"##훤":8334,"##쌥":8335,"##믾":8336,"##쨋":8337,"##씸":8338,"##햤":8339,"##뜡":8340,"##팟":8341,"##읊":8342,"##컼":8343,"##덬":8344,"##샥":8345,"##캨":8346,"##캩":8347,"##뺠":8348,"##숖":8349,"##밯":8350,"##룐":8351,"##썌":8352,"##줭":8353,"##얕":8354,"##짏":8355,"##맑":8356,"##뉵":8357,"##뵙":8358,"##젹":8359,"##챌":8360,"##낡":8361,"##쌞":8362,"##돗":8363,"##떙":8364,"##랳":8365,"##뭑":8366,"##쎀":8367,"##댴":8368,"##쭙":8369,"##쥑":8370,"##폈":8371,"##곘":8372,"##웩":8373,"##헜":8374,"##엪":8375,"##봀":8376,"##뺐":8377,"##퓰":8378,"##늑":8379,"##솥":8380,"##샣":8381,"##뎋":8382,"##셯":8383,"##끽":8384,"##겍":8385,"##숏":8386,"##펩":8387,"##싁":8388,"##끠":8389,"##튠":8390,"##팥":8391,"##렿":8392,"##탭":8393,"##탉":8394,"##훟":8395,"##쵭":8396,"##펃":8397,"##탴":8398,"##빴":8399,"##밲":8400,"##듳":8401,"##뷴":8402,"##햣":8403,"##쟜":8404,"##퉌":8405,"##쩼":8406,"##얇":8407,"##켝":8408,"##렆":8409,"##얄":8410,"##밣":8411,"##끜":8412,"##졀":8413,"##칰":8414,"##쒀":8415,"##땟":8416,"##퉂":8417,"##젴":8418,"##뻉":8419,"##캭":8420,"##캇":8421,"##룧":8422,"##씪":8423,"##얗":8424,"##읶":8425,"##깹":8426,"##듈":8427,"##듓":8428,"##몃":8429,"##쳈":8430,"##솜":8431,"##괌":8432,"##헸":8433,"##웪":8434,"##펏":8435,"##솼":8436,"##왁":8437,"##늧":8438,"##쫐":8439,"##죗":8440,"##퓬":8441,"##뎉":8442,"##뺩":8443,"##깰":8444,"##릮":8445,"##쿫":8446,"##헱":8447,"##롻":8448,"##썜":8449,"##짭":8450,"##쌑":8451,"##낍":8452,"##랮":8453,"##떸":8454,"##싡":8455,"##웝":8456,"##젬":8457,"##뜷":8458,"##궍":8459,"##싣":8460,"##렠":8461,"##숔":8462,"##셤":8463,"##멶":8464,"##휠":8465,"##큨":8466,"##쎽":8467,"##롷":8468,"##읈":8469,"##벹":8470,"##닯":8471,"##짫":8472,"##숼":8473,"##홥":8474,"##곙":8475,"##챤":8476,"##뮥":8477,"##돤":8478,"##곪":8479,"##퐉":8480,"##뭄":8481,"##쏫":8482,"##깆":8483,"##졑":8484,"##팆":8485,"##짇":8486,"##쿱":8487,"##밷":8488,"##잳":8489,"##렄":8490,"##긤":8491,"##딥":8492,"##꺾":8493,"##쫙":8494,"##뷱":8495,"##윷":8496,"##뼝":8497,"##짯":8498,"##읻":8499,"##앶":8500,"##걘":8501,"##컺":8502,"##닜":8503,"##켕":8504,"##넙":8505,"##뱁":8506,"##곷":8507,"##쟀":8508,"##죻":8509,"##뤡":8510,"##뿡":8511,"##챳":8512,"##뺄":8513,"##긕":8514,"##읰":8515,"##몌":8516,"##닑":8517,"##엊":8518,"##쎜":8519,"##곜":8520,"##쵀":8521,"##슼":8522,"##겡":8523,"##텂":8524,"##틋":8525,"##쉣":8526,"##빂":8527,"##탰":8528,"##짛":8529,"##젘":8530,"##옺":8531,"##댘":8532,"##넽":8533,"##옶":8534,"##췹":8535,"##쭥":8536,"##샐":8537,"##쉇":8538,"##잿":8539,"##걌":8540,"##뤗":8541,"##쟄":8542,"##긷":8543,"##겎":8544,"##삔":8545,"##쫗":8546,"##떰":8547,"##꽐":8548,"##젉":8549,"##숰":8550,"##횃":8551,"##큽":8552,"##귘":8553,"##쑨":8554,"##헼":8555,"##힠":8556,"##얰":8557,"##띁":8558,"##셥":8559,"##됔":8560,"##쨟":8561,"##쌧":8562,"##졐":8563,"##젛":8564,"##궝":8565,"##읬":8566,"##뻬":8567,"##힉":8568,"##뭏":8569,"##녑":8570,"##싧":8571,"##괍":8572,"##샨":8573,"##큇":8574,"##볏":8575,"##떶":8576,"##츼":8577,"##밠":8578,"##쪙":8579,"##뜍":8580,"##핰":8581,"##텤":8582,"##똔":8583,"##눨":8584,"##냿":8585,"##빰":8586,"##췡":8587,"##퇫":8588,"##눴":8589,"##딫":8590,"##셬":8591,"##잪":8592,"##넸":8593,"##랠":8594,"##뗴":8595,"##욌":8596,"##눗":8597,"##쏭":8598,"##딲":8599,"##뽤":8600,"##솩":8601,"##쳇":8602,"##긲":8603,"##딣":8604,"##쎔":8605,"##잴":8606,"##괂":8607,"##춧":8608,"##폄":8609,"##탙":8610,"##슛":8611,"##둨":8612,"##듫":8613,"##챁":8614,"##웢":8615,"##먈":8616,"##쟉":8617,"##셴":8618,"##휀":8619,"##삥":8620,"##푶":8621,"##좦":8622,"##똵":8623,"##좔":8624,"##쭝":8625,"##떽":8626,"##떴":8627,"##깄":8628,"##챕":8629,"##뛔":8630,"##곺":8631,"##놌":8632,"##훑":8633,"##떈":8634,"##쭘":8635,"##뜌":8636,"##껜":8637,"##럐":8638,"##짢":8639,"##젆":8640,"##콋":8641,"##맇":8642,"##냌":8643,"##걩":8644,"##뜀":8645,"##잗":8646,"##홋":8647,"##깻":8648,"##왘":8649,"##웽":8650,"##밫":8651,"##멊":8652,"##텃":8653,"##찿":8654,"##늰":8655,"##릋":8656,"##켁":8657,"##읾":8658,"##똬":8659,"##뽈":8660,"##끏":8661,"##끅":8662,"##낟":8663,"##긘":8664,"##봔":8665,"##퐝":8666,"##옘":8667,"##껠":8668,"##곴":8669,"##뷸":8670,"##읺":8671,"##맸":8672,"##샙":8673,"##쥣":8674,"##껒":8675,"##쇆":8676,"##븜":8677,"##쌕":8678,"##엧":8679,"##넄":8680,"##뻰":8681,"##섶":8682,"##뜹":8683,"##괔":8684,"##찣":8685,"##뗫":8686,"##씼":8687,"##굯":8688,"##쟇":8689,"##좍":8690,"##띔":8691,"##윜":8692,"##챦":8693,"##럶":8694,"##괵":8695,"##뇰":8696,"##짅":8697,"##쮸":8698,"##휙":8699,"##핽":8700,"##랅":8701,"##휩":8702,"##룝":8703,"##떧":8704,"##뱄":8705,"##붘":8706,"##젱":8707,"##쌜":8708,"##썪":8709,"##낔":8710,"##뤸":8711,"##퍅":8712,"##즹":8713,"##톻":8714,"##끆":8715,"##얶":8716,"##흒":8717,"##쥄":8718,"##됙":8719,"##앎":8720,"##쎗":8721,"##뱎":8722,"##봬":8723,"##뛸":8724,"##뗭":8725,"##쌴":8726,"##싄":8727,"##냣":8728,"##겂":8729,"##읁":8730,"##셒":8731,"##윕":8732,"##뫅":8733,"##뤔":8734,"##퉽":8735,"##걑":8736,"##홬":8737,"##휸":8738,"##훙":8739,"##렞":8740,"##쵴":8741,"##짔":8742,"##걺":8743,"##훰":8744,"##쑐":8745,"##콸":8746,"##싲":8747,"##쉙":8748,"##둙":8749,"##궭":8750,"##콱":8751,"##퉈":8752,"##쳔":8753,"##찟":8754,"##잫":8755,"##삵":8756,"##듲":8757,"##퍈":8758,"##쐇":8759,"##뻗":8760,"##뽁":8761,"##햑":8762,"##뇐":8763,"##멷":8764,"##숸":8765,"##늴":8766,"##뗘":8767,"##퍄":8768,"##뉍":8769,"##귕":8770,"##삯":8771,"##칀":8772,"##췬":8773,"##뭡":8774,"##몯":8775,"##뻠":8776,"##롲":8777,"##깞":8778,"##곻":8779,"##됭":8780,"##읭":8781,"##옐":8782,"##퐐":8783,"##찤":8784,"##먑":8785,"##뤽":8786,"##쏼":8787,"##옙":8788,"##퀠":8789,"##쭛":8790,"##걿":8791,"##왐":8792,"##릷":8793,"##읠":8794,"##낲":8795,"##놋":8796,"##땤":8797,"##웛":8798,"##놤":8799,"##퐈":8800,"##멩":8801,"##롰":8802,"##쑬":8803,"##냘":8804,"##숄":8805,"##젣":8806,"##캤":8807,"##퇸":8808,"##혠":8809,"##쿜":8810,"##챨":8811,"##얾":8812,"##캰":8813,"##빝":8814,"##죱":8815,"##읕":8816,"##봌":8817,"##줳":8818,"##짆":8819,"##샏":8820,"##돴":8821,"##븟":8822,"##얜":8823,"##벋":8824,"##몱":8825,"##꺵":8826,"##즂":8827,"##뱌":8828,"##뭫":8829,"##뫌":8830,"##탣":8831,"##숳":8832,"##믓":8833,"##탘":8834,"##귯":8835,"##띅":8836,"##떪":8837,"##뮦":8838,"##땈":8839,"##죳":8840,"##듕":8841,"##짙":8842,"##벰":8843,"##봫":8844,"##햊":8845,"##핶":8846,"##뮴":8847,"##싺":8848,"##빱":8849,"##쳡":8850,"##읆":8851,"##쵤":8852,"##씉":8853,"##톹":8854,"##쌌":8855,"##쳗":8856,"##흌":8857,"##좱":8858,"##욍":8859,"##힜":8860,"##겾":8861,"##죷":8862,"##몔":8863,"##쉫":8864,"##듴":8865,"##롕":8866,"##낏":8867,"##밢":8868,"##꺤":8869,"##엫":8870,"##츰":8871,"##됟":8872,"##갊":8873,"##깸":8874,"##킿":8875,"##똭":8876,"##쎙":8877,"##먇":8878,"##컾":8879,"##켘":8880,"##륀":8881,"##꿘":8882,"##긼":8883,"##쒹":8884,"##첰":8885,"##섳":8886,"##얠":8887,"##놑":8888,"##툨":8889,"##촟":8890,"##뎝":8891,"##얬":8892,"##졉":8893,"##졎":8894,"##줩":8895,"##굵":8896,"##쉈":8897,"##슢":8898,"##빢":8899,"##궛":8900,"##곬":8901,"##홯":8902,"##땔":8903,"##쭌":8904,"##몄":8905,"##륍":8906,"##픜":8907,"##듼":8908,"##밓":8909,"##갴":8910,"##걐":8911,"##륌":8912,"##쟸":8913,"##맍":8914,"##곌":8915,"##괞":8916,"##튐":8917,"##뒝":8918,"##욮":8919,"##눳":8920,"##맃":8921,"##챱":8922,"##삒":8923,"##뗄":8924,"##쟬":8925,"##뢸":8926,"##넡":8927,"##렑":8928,"##풐":8929,"##쫠":8930,"##쐣":8931,"##퇄":8932,"##큅":8933,"##쒔":8934,"##룜":8935,"##쉥":8936,"##놯":8937,"##얃":8938,"##햘":8939,"##랆":8940,"##햔":8941,"##땬":8942,"##쩰":8943,"##쟛":8944,"##쀼":8945,"##쎴":8946,"##젋":8947,"##앿":8948,"##큉":8949,"##닻":8950,"##뿩":8951,"##틁":8952,"##퇵":8953,"##읜":8954,"##멎":8955,"##죧":8956,"##셓":8957,"##펵":8958,"##깩":8959,"##툥":8960,"##딹":8961,"##켙":8962,"##튕":8963,"##듡":8964,"##읃":8965,"##돡":8966,"##늨":8967,"##귱":8968,"##딍":8969,"##띡":8970,"##쯕":8971,"##슉":8972,"##썋":8973,"##늡":8974,"##헀":8975,"##젲":8976,"##텆":8977,"##혛":8978,"##쑴":8979,"##뭊":8980,"##빋":8981,"##놘":8982,"##깬":8983,"##닡":8984,"##멑":8985,"##눼":8986,"##햫":8987,"##덛":8988,"##냏":8989,"##뒹":8990,"##칳":8991,"##쏃":8992,"##굦":8993,"##볗":8994,"##섨":8995,"##쳄":8996,"##춍":8997,"##릂":8998,"##셱":8999,"##볐":9000,"##깂":9001,"##덞":9002,"##봊":9003,"##줟":9004,"##쏵":9005,"##왇":9006,"##캿":9007,"##롫":9008,"##볷":9009,"##븍":9010,"##짗":9011,"##뎨":9012,"##빆":9013,"##깢":9014,"##돵":9015,"##퍙":9016,"##옅":9017,"##쎼":9018,"##깋":9019,"##굇":9020,"##봗":9021,"##퉹":9022,"##곚":9023,"##먓":9024,"##왛":9025,"##휏":9026,"##뚬":9027,"##벴":9028,"##뼛":9029,"##쇡":9030,"##슌":9031,"##켲":9032,"##쨉":9033,"##헍":9034,"##캼":9035,"##쉔":9036,"##쟘":9037,"##뵹":9038,"##앚":9039,"##떱":9040,"##겣":9041,"##쬽":9042,"##륏":9043,"##뇄":9044,"##슁":9045,"##먾":9046,"##겊":9047,"##굣":9048,"##풔":9049,"##귬":9050,"##챀":9051,"##횅":9052,"##흗":9053,"##셑":9054,"##텠":9055,"##쿸":9056,"##킅":9057,"##둉":9058,"##뛣":9059,"##눃":9060,"##쩢":9061,"##쒝":9062,"##헗":9063,"##싰":9064,"##앁":9065,"##끍":9066,"##훍":9067,"##죰":9068,"##잟":9069,"##뫠":9070,"##큔":9071,"##줙":9072,"##숵":9073,"##랚":9074,"##싚":9075,"##욲":9076,"##훜":9077,"##귁":9078,"##훝":9079,"##쏨":9080,"##븽":9081,"##닳":9082,"##씯":9083,"##꿧":9084,"##첮":9085,"##웧":9086,"##곃":9087,"##뵀":9088,"##왰":9089,"##릳":9090,"##샸":9091,"##힞":9092,"##뎇":9093,"##웱":9094,"##뎡":9095,"##왴":9096,"##즵":9097,"##땽":9098,"##볫":9099,"##뉜":9100,"##픙":9101,"##햡":9102,"##펨":9103,"##훃":9104,"##뿝":9105,"##뉨":9106,"##틓":9107,"##럈":9108,"##먐":9109,"##컁":9110,"##횬":9111,"##쉿":9112,"##펍":9113,"##갿":9114,"##쭵":9115,"##쉒":9116,"##꺅":9117,"##탛":9118,"##듥":9119,"##줰":9120,"##잋":9121,"##핬":9122,"##핦":9123,"##휫":9124,"##븀":9125,"##튺":9126,"##쩄":9127,"##뀝":9128,"##귐":9129,"##줃":9130,"##뇩":9131,"##먁":9132,"##쟠":9133,"##칯":9134,"##숯":9135,"##뙇":9136,"##솬":9137,"##맬":9138,"##곹":9139,"##긓":9140,"##뺕":9141,"##뤁":9142,"##늅":9143,"##엍":9144,"##펖":9145,"##옸":9146,"##짊":9147,"##랒":9148,"##믑":9149,"##룱":9150,"##눞":9151,"##쨘":9152,"##쒜":9153,"##엢":9154,"##욪":9155,"##뜅":9156,"##눤":9157,"##뵐":9158,"##굘":9159,"##좐":9160,"##즞":9161,"##퍀":9162,"##맆":9163,"##볜":9164,"##싮":9165,"##쥡":9166,"##븨":9167,"##똰":9168,"##궇":9169,"##춪":9170,"##뗙":9171,"##죔":9172,"##푀":9173,"##킌":9174,"##죺":9175,"##궯":9176,"##둞":9177,"##쉞":9178,"##촥":9179,"##핤":9180,"##쎕":9181,"##뭌":9182,"##픂":9183,"##괓":9184,"##붅":9185,"##뭅":9186,"##텻":9187,"##똴":9188,"##쒯":9189,"##잲":9190,"##쿺":9191,"##쯘":9192,"##솰":9193,"##샾":9194,"##덷":9195,"##헑":9196,"##햝":9197,"##뿽":9198,"##졨":9199,"##홤":9200,"##갂":9201,"##줗":9202,"##믽":9203,"##껰":9204,"##떃":9205,"##듁":9206,"##걊":9207,"##롹":9208,"##쏙":9209,"##챂":9210,"##뇝":9211,"##줎":9212,"##웂":9213,"##텽":9214,"##챰":9215,"##팧":9216,"##넗":9217,"##읒":9218,"##찳":9219,"##띃":9220,"##쩘":9221,"##끾":9222,"##벍":9223,"##몐":9224,"##귑":9225,"##젿":9226,"##밐":9227,"##횩":9228,"##컀":9229,"##뜽":9230,"##좯":9231,"##붜":9232,"##냴":9233,"##텄":9234,"##냩":9235,"##쫍":9236,"##쎤":9237,"##췐":9238,"##뭠":9239,"##뻼":9240,"##뭁":9241,"##듩":9242,"##섺":9243,"##벷":9244,"##켱":9245,"##줐":9246,"##핲":9247,"##팓":9248,"##쉅":9249,"##봦":9250,"##햭":9251,"##뀰":9252,"##앆":9253,"##춞":9254,"##겦":9255,"##벱":9256,"##퐜":9257,"##뎬":9258,"##싢":9259,"##굡":9260,"##뻿":9261,"##푴":9262,"##뢔":9263,"##턺":9264,"##앝":9265,"##쫭":9266,"##뀠":9267,"##몾":9268,"##쭭":9269,"##칌":9270,"##늟":9271,"##퉄":9272,"##뀬":9273,"##륑":9274,"##숱":9275,"##꾤":9276,"##녠":9277,"##땁":9278,"##쬐":9279,"##쀨":9280,"##굻":9281,"##뉑":9282,"##섷":9283,"##픟":9284,"##흭":9285,"##꽊":9286,"##뭰":9287,"##젞":9288,"##뒨":9289,"##덲":9290,"##샆":9291,"##떩":9292,"##읇":9293,"##쳉":9294,"##즬":9295,"##쨐":9296,"##넎":9297,"##옻":9298,"##쏩":9299,"##핒":9300,"##솊":9301,"##첑":9302,"##뵁":9303,"##꾺":9304,"##쳘":9305,"##읖":9306,"##좩":9307,"##돐":9308,"##괗":9309,"##륄":9310,"##꿏":9311,"##뗏":9312,"##릊":9313,"##뭥":9314,"##롼":9315,"##룔":9316,"##휭":9317,"##켇":9318,"##윘":9319,"##닞":9320,"##넑":9321,"##놜":9322,"##닟":9323,"##껗":9324,"##삠":9325,"##찧":9326,"##앃":9327,"##긥":9328,"##왹":9329,"##꿩":9330,"##핚":9331,"##넋":9332,"##핧":9333,"##욳":9334,"##튤":9335,"##쬭":9336,"##쇘":9337,"##첯":9338,"##좢":9339,"##묄":9340,"##읿":9341,"##댝":9342,"##껩":9343,"##엡":9344,"##햟":9345,"##댬":9346,"##럌":9347,"##믁":9348,"##됑":9349,"##쒥":9350,"##춌":9351,"##갷":9352,"##늏":9353,"##츕":9354,"##몈":9355,"##댗":9356,"##뤟":9357,"##웎":9358,"##뎆":9359,"##솧":9360,"##촴":9361,"##셃":9362,"##쯰":9363,"##햠":9364,"##섿":9365,"##엗":9366,"##죜":9367,"##홴":9368,"##뫈":9369,"##죘":9370,"##씃":9371,"##둛":9372,"##쉛":9373,"##챻":9374,"##짒":9375,"##빘":9376,"##늪":9377,"##쟨":9378,"##뢨":9379,"##뿨":9380,"##뺭":9381,"##텢":9382,"##웉":9383,"##좸":9384,"##쐒":9385,"##얷":9386,"##퉜":9387,"##햬":9388,"##폽":9389,"##뺙":9390,"##궷":9391,"##퉅":9392,"##촣":9393,"##륳":9394,"##툐":9395,"##얭":9396,"##솓":9397,"##쐐":9398,"##쑝":9399,"##즥":9400,"##꿂":9401,"##춴":9402,"##읨":9403,"##꼄":9404,"##몁":9405,"##썡":9406,"##촏":9407,"##캏":9408,"##쌬":9409,"##팄":9410,"##뺸":9411,"##캪":9412,"##녅":9413,"##뇻":9414,"##넫":9415,"##괖":9416,"##띱":9417,"##틑":9418,"##벜":9419,"##먜":9420,"##삮":9421,"##댤":9422,"##댖":9423,"##괼":9424,"##뱨":9425,"##꽙":9426,"##뛕":9427,"##잆":9428,"##찅":9429,"##쳨":9430,"##흏":9431,"##뢐":9432,"##앐":9433,"##즡":9434,"##괙":9435,"##쎆":9436,"##긌":9437,"##걶":9438,"##껼":9439,"##슄":9440,"##뽱":9441,"##톅":9442,"##쩦":9443,"##홇":9444,"##뢴":9445,"##뤙":9446,"##앾":9447,"##펗":9448,"##돱":9449,"##쮱":9450,"##굲":9451,"##뚯":9452,"##뱝":9453,"##춐":9454,"##풱":9455,"##춚":9456,"##좊":9457,"##뗵":9458,"##잕":9459,"##봑":9460,"##힢":9461,"##슟":9462,"##뵷":9463,"##녤":9464,"##똒":9465,"##뀹":9466,"##냤":9467,"##엙":9468,"##듶":9469,"##푿":9470,"##넏":9471,"##쎳":9472,"##쇵":9473,"##풰":9474,"##딈":9475,"##낃":9476,"##얉":9477,"##몿":9478,"##볹":9479,"##놰":9480,"##싕":9481,"##묠":9482,"##픠":9483,"##좟":9484,"##섲":9485,"##솎":9486,"##잀":9487,"##빍":9488,"##틩":9489,"##핔":9490,"##뤈":9491,"##뤩":9492,"##븡":9493,"##뫙":9494,"##츀":9495,"##씝":9496,"##쟡":9497,"##썖":9498,"##쪕":9499,"##꼍":9500,"##뽂":9501,"##꼌":9502,"##웋":9503,"##쫛":9504,"##겝":9505,"##츱":9506,"##욵":9507,"##뿤":9508,"##씤":9509,"##겢":9510,"##띌":9511,"##붔":9512,"##셇":9513,"##껨":9514,"##핱":9515,"##뒺":9516,"##땸":9517,"##븬":9518,"##꾕":9519,"##딖":9520,"##짳":9521,"##똿":9522,"##췸":9523,"##렃":9524,"##굧":9525,"##댇":9526,"##퀌":9527,"##싐":9528,"##웑":9529,"##읪":9530,"##웊":9531,"##뢜":9532,"##룪":9533,"##롁":9534,"##딮":9535,"##큿":9536,"##멁":9537,"##쏱":9538,"##늩":9539,"##됳":9540,"##춉":9541,"##멮":9542,"##슭":9543,"##엒":9544,"##띳":9545,"##뢈":9546,"##뒬":9547,"##묾":9548,"##퀙":9549,"##쇌":9550,"##벖":9551,"##튿":9552,"##옂":9553,"##앧":9554,"##럄":9555,"##뱰":9556,"##읱":9557,"##꾄":9558,"##혘":9559,"##궑":9560,"##괕":9561,"##뒑":9562,"##럵":9563,"##쫕":9564,"##킘":9565,"##햿":9566,"##쟣":9567,"##뒙":9568,"##릍":9569,"##싿":9570,"##툇":9571,"##딋":9572,"##눚":9573,"##샂":9574,"##샋":9575,"##엩":9576,"##큑":9577,"##힁":9578,"##햅":9579,"##왖":9580,"##힄":9581,"##섮":9582,"##냧":9583,"##톳":9584,"##볌":9585,"##뀄":9586,"##싵":9587,"##읯":9588,"##냦":9589,"##낐":9590,"##빫":9591,"##췰":9592,"##젰":9593,"##욨":9594,"##죕":9595,"##릆":9596,"##뗐":9597,"##쥠":9598,"##엶":9599,"##쒠":9600,"##랎":9601,"##멥":9602,"##훻":9603,"##츅":9604,"##킸":9605,"##뭬":9606,"##렂":9607,"##짲":9608,"##샃":9609,"##릔":9610,"##홐":9611,"##컽":9612,"##볓":9613,"##닾":9614,"##붍":9615,"##뙸":9616,"##볇":9617,"##풒":9618,"##봒":9619,"##륹":9620,"##싪":9621,"##츽":9622,"##쁄":9623,"##먺":9624,"##췈":9625,"##쇗":9626,"##퓩":9627,"##긩":9628,"##욖":9629,"##뿠":9630,"##묹":9631,"##묫":9632,"##똗":9633,"##볋":9634,"##삻":9635,"##릶":9636,"##갲":9637,"##밊":9638,"##뵘":9639,"##탍":9640,"##랉":9641,"##랕":9642,"##햨":9643,"##벘":9644,"##쩟":9645,"##읫":9646,"##잛":9647,"##턀":9648,"##섁":9649,"##릫":9650,"##텊":9651,"##톽":9652,"##렺":9653,"##씆":9654,"##얿":9655,"##툳":9656,"##뤌":9657,"##촠":9658,"##샑":9659,"##힏":9660,"##큠":9661,"##꼵":9662,"##뽥":9663,"##줮":9664,"##쁴":9665,"##뺵":9666,"##썁":9667,"##갵":9668,"##굅":9669,"##굑":9670,"##쓲":9671,"##렦":9672,"##뉼":9673,"##쪔":9674,"##텥":9675,"##쯜":9676,"##쁀":9677,"##쳅":9678,"##돛":9679,"##춣":9680,"##먛":9681,"##맊":9682,"##쓉":9683,"##죌":9684,"##틉":9685,"##넞":9686,"##굈":9687,"##붱":9688,"##죨":9689,"##굮":9690,"##늇":9691,"##궉":9692,"##딯":9693,"##쉧":9694,"##좄":9695,"##뮐":9696,"##슞":9697,"##뷀":9698,"##볃":9699,"##먿":9700,"##띈":9701,"##쨜":9702,"##뼜":9703,"##몋":9704,"##폠":9705,"##섘":9706,"##껬":9707,"##썐":9708,"##쓤":9709,"##랂":9710,"##웄":9711,"##괏":9712,"##즨":9713,"##콮":9714,"##눹":9715,"##됵":9716,"##뇔":9717,"##샼":9718,"##겯":9719,"##쒧":9720,"##뜔":9721,"##뼤":9722,"##듪":9723,"##얙":9724,"##엓":9725,"##뤃":9726,"##됡":9727,"##퓐":9728,"##썟":9729,"##횹":9730,"##욼":9731,"##줅":9732,"##짪":9733,"##핢":9734,"##똡":9735,"##펔":9736,"##읟":9737,"##늌":9738,"##뫃":9739,"##헁":9740,"##줕":9741,"##렊":9742,"##닪":9743,"##첳":9744,"##닸":9745,"##폘":9746,"##촘":9747,"##큡":9748,"##둟":9749,"##죴":9750,"##즠":9751,"##챴":9752,"##엦":9753,"##줉":9754,"##솅":9755,"##윾":9756,"##쒑":9757,"##귴":9758,"##틜":9759,"##겓":9760,"##뮼":9761,"##칬":9762,"##횸":9763,"##럇":9764,"##갞":9765,"##믤":9766,"##켵":9767,"##퇑":9768,"##컿":9769,"##섵":9770,"##솸":9771,"##뱐":9772,"##쐑":9773,"##슫":9774,"##샞":9775,"##휍":9776,"##촙":9777,"##냒":9778,"##긬":9779,"##맪":9780,"##갺":9781,"##캊":9782,"##캑":9783,"##넺":9784,"##둪":9785,"##앛":9786,"##갉":9787,"##퇀":9788,"##큥":9789,"##숧":9790,"##긛":9791,"##혰":9792,"##뫤":9793,"##뉠":9794,"##쯉":9795,"##븥":9796,"##촡":9797,"##듹":9798,"##꿐":9799,"##몺":9800,"##뵨":9801,"##읉":9802,"##됥":9803,"##쓍":9804,"##벟":9805,"##겥":9806,"##읓":9807,"##왝":9808,"##켑":9809,"##뭋":9810,"##탹":9811,"##럤":9812,"##줼":9813,"##쬑":9814,"##푷":9815,"##훕":9816,"##쐴":9817,"##낗":9818,"##잍":9819,"##겒":9820,"##덨":9821,"##쳑":9822,"##쾰":9823,"##뱬":9824,"##줁":9825,"##욀":9826,"##롥":9827,"##뫁":9828,"##쁸":9829,"##녬":9830,"##뱈":9831,"##븕":9832,"##륻":9833,"##쟹":9834,"##뀽":9835,"##뼌":9836,"##쮹":9837,"##긑":9838,"##칝":9839,"##싞":9840,"##첝":9841,"##풕":9842,"##섥":9843,"##뺃":9844,"##뚀":9845,"##쭷":9846,"##즎":9847,"##칞":9848,"##쬥":9849,"##걵":9850,"##갅":9851,"##꽦":9852,"##눝":9853,"##궬":9854,"##똣":9855,"##봏":9856,"##귛":9857,"##췅":9858,"##롘":9859,"##웚":9860,"##벸":9861,"##꼅":9862,"##뽰":9863,"##쾀":9864,"##굷":9865,"##츳":9866,"##춮":9867,"##꾾":9868,"##쪾":9869,"##낛":9870,"##졶":9871,"##윧":9872,"##윸":9873,"##좭":9874,"##곋":9875,"##늿":9876,"##윱":9877,"##겇":9878,"##땓":9879,"##쉤":9880,"##뺒":9881,"##볭":9882,"##봙":9883,"##걈":9884,"##쾬":9885,"##깕":9886,"##굨":9887,"##섢":9888,"##궹":9889,"##덖":9890,"##쉓":9891,"##쓥":9892,"##섕":9893,"##뽛":9894,"##냍":9895,"##쮓":9896,"##삤":9897,"##욗":9898,"##됢":9899,"##뾱":9900,"##냪":9901,"##튱":9902,"##펰":9903,"##섊":9904,"##킠":9905,"##덙":9906,"##넾":9907,"##즄":9908,"##릌":9909,"##뻒":9910,"##궘":9911,"##묑":9912,"##녽":9913,"##뭴":9914,"##횻":9915,"##앏":9916,"##꽇":9917,"##솈":9918,"##븤":9919,"##겱":9920,"##붋":9921,"##곢":9922,"##욎":9923,"##궃":9924,"##켷":9925,"##씺":9926,"##슲":9927,"##팉":9928,"##잚":9929,"##뚣":9930,"##왂":9931,"##뜾":9932,"##핞":9933,"##욷":9934,"##쯎":9935,"##뵬":9936,"##꺔":9937,"##욹":9938,"##뷥":9939,"##껕":9940,"##눍":9941,"##뒸":9942,"##쐭":9943,"##핻":9944,"##씷":9945,"##렅":9946,"##횔":9947,"##큪":9948,"##콫":9949,"##춝":9950,"##뺼":9951,"##탼":9952,"##텰":9953,"##쌂":9954,"##빭":9955,"##쎾":9956,"##뽞":9957,"##믉":9958,"##벧":9959,"##짌":9960,"##홡":9961,"##껫":9962,"##뾀":9963,"##쯈":9964,"##읂":9965,"##웾":9966,"##짃":9967,"##흝":9968,"##앒":9969,"##먻":9970,"##욫":9971,"##쮝":9972,"##쟥":9973,"##솢":9974,"##묨":9975,"##릁":9976,"##맢":9977,"##뛋":9978,"##탇":9979,"##낥":9980,"##짋":9981,"##맒":9982,"##뒌":9983,"##싟":9984,"##뎍":9985,"##껳":9986,"##폣":9987,"##톺":9988,"##즼":9989,"##쓩":9990,"##밦":9991,"##핃":9992,"##첲":9993,"##슿":9994,"##쁝":9995,"##뎽":9996,"##롶":9997,"##콌":9998,"##횝":9999,"##걉":10000,"##곅":10001,"##깧":10002,"##칔":10003,"##갆":10004,"##멨":10005,"##엋":10006,"##냎":10007,"##슆":10008,"##븝":10009,"##웸":10010,"##옫":10011,"##흟":10012,"##꺆":10013,"##뀡":10014,"##끨":10015,"##꿴":10016,"##뭈":10017,"##칱":10018,"##쿈":10019,"##뢌":10020,"##춈":10021,"##엸":10022,"##퐄":10023,"##꿕":10024,"##롣":10025,"##쀠":10026,"##앷":10027,"##냡":10028,"##뻇":10029,"##쥨":10030,"##녆":10031,"##꿿":10032,"##홣":10033,"##쏰":10034,"##셛":10035,"##쥉":10036,"##뼙":10037,"##껸":10038,"##쓋":10039,"##졳":10040,"##쀅":10041,"##녛":10042,"##꺰":10043,"##욿":10044,"##죙":10045,"##닁":10046,"##엵":10047,"##뙨":10048,"##긪":10049,"##닰":10050,"##훀":10051,"##칡":10052,"##낕":10053,"##뎊":10054,"##쨨":10055,"##퐌":10056,"##꽹":10057,"##셎":10058,"##맅":10059,"##퐛":10060,"##숮":10061,"##췟":10062,"##놃":10063,"##돓":10064,"##쟐":10065,"##꿜":10066,"##풂":10067,"##싦":10068,"##젙":10069,"##슀":10070,"##뱩":10071,"##뺡":10072,"##걋":10073,"##큣":10074,"##죚":10075,"##뚭":10076,"##쟞":10077,"##짂":10078,"##췩":10079,"##햍":10080,"##꺳":10081,"##욉":10082,"##껓":10083,"##썀":10084,"##춬":10085,"##삸":10086,"##줆":10087,"##폑":10088,"##톧":10089,"##찎":10090,"##욛":10091,"##픞":10092,"##픅":10093,"##맩":10094,"##흴":10095,"##꺀":10096,"##럯":10097,"##곂":10098,"##뒁":10099,"##혙":10100,"##쉡":10101,"##뺫":10102,"##엷":10103,"##녾":10104,"##윂":10105,"##녚":10106,"##몉":10107,"##냊":10108,"##긧":10109,"##슯":10110,"##폌":10111,"##흇":10112,"##윀":10113,"##쭟":10114,"##뻄":10115,"##솣":10116,"##뗔":10117,"##뺔":10118,"##슶":10119,"##럮":10120,"##쌒":10121,"##옃":10122,"##뒴":10123,"##됝":10124,"##롐":10125,"##핺":10126,"##뉩":10127,"##뵛":10128,"##횄":10129,"##붖":10130,"##럊":10131,"##땢":10132,"##롳":10133,"##읮":10134,"##켭":10135,"##쭨":10136,"##뀪":10137,"##둴":10138,"##쵱":10139,"##놕":10140,"##킝":10141,"##폅":10142,"##랡":10143,"##쎂":10144,"##얨":10145,"##큄":10146,"##쌸":10147,"##릥":10148,"##닒":10149,"##걕":10150,"##봵":10151,"##뭨":10152,"##쁌":10153,"##잧":10154,"##윻":10155,"##뤨":10156,"##돸":10157,"##롵":10158,"##뀸":10159,"##뮹":10160,"##웕":10161,"##닩":10162,"##뵴":10163,"##넒":10164,"##잙":10165,"##옭":10166,"##왥":10167,"##셁":10168,"##릵":10169,"##돉":10170,"##띙":10171,"##틅":10172,"##렪":10173,"##곯":10174,"##킫":10175,"##갮":10176,"##툄":10177,"##빾":10178,"##춋":10179,"##뇀":10180,"##헫":10181,"##뽖":10182,"##튻":10183,"##긎":10184,"##긂":10185,"##섧":10186,"##촞":10187,"##뇜":10188,"##홑":10189,"##뫔":10190,"##걁":10191,"##툅":10192,"##샢":10193,"##헡":10194,"##짦":10195,"##섉":10196,"##쐨":10197,"##볅":10198,"##줨":10199,"##퓸":10200,"##벆":10201,"##잁":10202,"##꿁":10203,"##녱":10204,"##뱋":10205,"##깒":10206,"##됸":10207,"##뚕":10208,"##섫":10209,"##닧":10210,"##쬔":10211,"##붛":10212,"##궆":10213,"##엲":10214,"##끘":10215,"##툉":10216,"##볂":10217,"##샎":10218,"##꺊":10219,"##씾":10220,"##걻":10221,"##봈":10222,"##혬":10223,"##핖":10224,"##쬼":10225,"##셖":10226,"##좠":10227,"##뜼":10228,"##푯":10229,"##쯪":10230,"##훵":10231,"##햩":10232,"##걼":10233,"##걹":10234,"##얅":10235,"##혝":10236,"##묙":10237,"##뒄":10238,"##칄":10239,"##즴":10240,"##봟":10241,"##벝":10242,"##곭":10243,"##쎡":10244,"##뗠":10245,"##깾":10246,"##밮":10247,"##짞":10248,"##좽":10249,"##쌟":10250,"##굫":10251,"##봠":10252,"##됃":10253,"##칽":10254,"##뽯":10255,"##셆":10256,"##츧":10257,"##턔":10258,"##윿":10259,"##샡":10260,"##톸":10261,"##뚥":10262,"##흎":10263,"##퓽":10264,"##맫":10265,"##젏":10266,"##쁫":10267,"##엜":10268,"##얖":10269,"##뢘":10270,"##녂":10271,"##맻":10272,"##윟":10273,"##댛":10274,"##꼮":10275,"##묺":10276,"##팢":10277,"##쿻":10278,"##냫":10279,"##닚":10280,"##렢":10281,"##탅":10282,"##췻":10283,"##꺌":10284,"##낂":10285,"##꺈":10286,"##뉙":10287,"##솃":10288,"##륿":10289,"##뉀":10290,"##붌":10291,"##묀":10292,"##곩":10293,"##몴":10294,"##얪":10295,"##됮":10296,"##춯":10297,"##쒰":10298,"##랓":10299,"##챼":10300,"##맋":10301,"##솻":10302,"##볽":10303,"##픋":10304,"##렏":10305,"##뷜":10306,"##켴":10307,"##뇅":10308,"##넶":10309,"##잜":10310,"##푤":10311,"##맿":10312,"##틎":10313,"##뚨":10314,"##픓":10315,"##룤":10316,"##뒘":10317,"##흓":10318,"##됱":10319,"##뗍":10320,"##혲":10321,"##펒":10322,"##콛":10323,"##턉":10324,"##걖":10325,"##뤫":10326,"##푭":10327,"##젅":10328,"##둦":10329,"##뫘":10330,"##앑":10331,"##섑":10332,"##슂":10333,"##삺":10334,"##솠":10335,"##룟":10336,"##캴":10337,"##몼":10338,"##끰":10339,"##먠":10340,"##멏":10341,"##쒈":10342,"##퀜":10343,"##팕":10344,"##긜":10345,"##끋":10346,"##뤂":10347,"##붠":10348,"##홪":10349,"##쏬":10350,"##찴":10351,"##풬":10352,"##홗":10353,"##숐":10354,"##똨":10355,"##킇":10356,"##뗬":10357,"##쩧":10358,"##빹":10359,"##쪅":10360,"##녖":10361,"##룃":10362,"##븰":10363,"##꺗":10364,"##놖":10365,"##깇":10366,"##딞":10367,"##푲":10368,"##쉠":10369,"##뮛":10370,"##엃":10371,"##캆":10372,"##쮀":10373,"##졵":10374,"##팒":10375,"##혴":10376,"##쓜":10377,"##욋":10378,"##앹":10379,"##웥":10380,"##뷮":10381,"##웓":10382,"##쥳":10383,"##겿":10384,"##핯":10385,"##뒵":10386,"##뢁":10387,"##탲":10388,"##뀟":10389,"##옦":10390,"##엳":10391,"##졒":10392,"##륩":10393,"##쑦":10394,"##쀵":10395,"##맖":10396,"##쳧":10397,"##굤":10398,"##덋":10399,"##괃":10400,"##옾":10401,"##뇁":10402,"##껵":10403,"##솀":10404,"##즑":10405,"##톔":10406,"##턕":10407,"##굚":10408,"##홛":10409,"##꾿":10410,"##틷":10411,"##딷":10412,"##쟂":10413,"##릠":10414,"##탚":10415,"##딀":10416,"##빯":10417,"##뱟":10418,"##묯":10419,"##킾":10420,"##뻈":10421,"##삾":10422,"##숚":10423,"##쵕":10424,"##굠":10425,"##혿":10426,"##쁭":10427,"##잩":10428,"##첟":10429,"##빟":10430,"##벎":10431,"##뭽":10432,"##랲":10433,"##쬿":10434,"##먗":10435,"##웦":10436,"##웼":10437,"##뽓":10438,"##팚":10439,"##쉪":10440,"##풁":10441,"##룅":10442,"##돩":10443,"##듧":10444,"##쒁":10445,"##쯫":10446,"##쀄":10447,"##쿔":10448,"##뜛":10449,"##잒":10450,"##삳":10451,"##먱":10452,"##핕":10453,"##뤱":10454,"##쭻":10455,"##뚴":10456,"##웻":10457,"##떢":10458,"##젳":10459,"##놩":10460,"##굾":10461,"##욝":10462,"##혖":10463,"##뷕":10464,"##쎵":10465,"##뎟":10466,"##챸":10467,"##꼳":10468,"##쪌":10469,"##눰":10470,"##넭":10471,"##왚":10472,"##롈":10473,"##젺":10474,"##멂":10475,"##껃":10476,"##녰":10477,"##뙁":10478,"##옠":10479,"##럣":10480,"##꼻":10481,"##헚":10482,"##쇙":10483,"##뾲":10484,"##팛":10485,"##뚧":10486,"##롔":10487,"##앇":10488,"##듑":10489,"##괁":10490,"##칑":10491,"##셏":10492,"##볎":10493,"##힑":10494,"##넻":10495,"##녺":10496,"##홁":10497,"##섟":10498,"##쫚":10499,"##떫":10500,"##찓":10501,"##쮼":10502,"##솉":10503,"##놇":10504,"##솦":10505,"##믆":10506,"##힗":10507,"##슻":10508,"##샚":10509,"##첻":10510,"##씳":10511,"##퍾":10512,"##갣":10513,"##튓":10514,"##앻":10515,"##맽":10516,"##젃":10517,"##랈":10518,"##툻":10519,"##뇤":10520,"##띿":10521,"##롑":10522,"##헲":10523,"##끟":10524,"##픗":10525,"##렓":10526,"##겫":10527,"##큮":10528,"##깱":10529,"##앢":10530,"##쥽":10531,"##읳":10532,"##솄":10533,"##띀":10534,"##옉":10535,"##뉭":10536,"##줓":10537,"##뎧":10538,"##쁙":10539,"##둩":10540,"##젷":10541,"##퐆":10542,"##랻":10543,"##쉩":10544,"##꽄":10545,"##썎":10546,"##넀":10547,"##캈":10548,"##뷩":10549,"##뢉":10550,"##뜝":10551,"##쟼":10552,"##흜":10553,"##쇤":10554,"##졹":10555,"##끛":10556,"##슠":10557,"##낎":10558,"##묽":10559,"##뮙":10560,"##떹":10561,"##돰":10562,"##뺜":10563,"##윶":10564,"##븈":10565,"##컭":10566,"##븓":10567,"##죹":10568,"##곫":10569,"##훉":10570,"##훞":10571,"##귔":10572,"##뀻":10573,"##괒":10574,"##늚":10575,"##뮫":10576,"##썃":10577,"##덪":10578,"##꽌":10579,"##톩":10580,"##봎":10581,"##뷤":10582,"##궨":10583,"##쑌":10584,"##긏":10585,"##퉆":10586,"##콯":10587,"##룷":10588,"##뭃":10589,"##궅":10590,"##뷘":10591,"##킂":10592,"##텸":10593,"##쾍":10594,"##껔":10595,"##꾝":10596,"##멿":10597,"##뼡":10598,"##쎨":10599,"##쒱":10600,"##얫":10601,"##셲":10602,"##싓":10603,"##왯":10604,"##뉄":10605,"##걥":10606,"##볁":10607,"##샫":10608,"##쨧":10609,"##죶":10610,"##쇜":10611,"##쨬":10612,"##퓔":10613,"##줸":10614,"##엕":10615,"##댚":10616,"##꿲":10617,"##씊":10618,"##홎":10619,"##뚼":10620,"##툊":10621,"##찲":10622,"##싾":10623,"##뷉":10624,"##쉾":10625,"##빶":10626,"##퉸":10627,"##늖":10628,"##낻":10629,"##훽":10630,"##갋":10631,"##뙬":10632,"##럏":10633,"##퓡":10634,"##퇬":10635,"##돍":10636,"##됗":10637,"##쪿":10638,"##옢":10639,"##몮":10640,"##귺":10641,"##팊":10642,"##혤":10643,"##퍔":10644,"##궙":10645,"##핆":10646,"##댥":10647,"##뎔":10648,"##둄":10649,"##뢱":10650,"##겭":10651,"##찭":10652,"##쀽":10653,"##뿛":10654,"##싆":10655,"##쌐":10656,"##갍":10657,"##덭":10658,"##뵥":10659,"##췼":10660,"##볒":10661,"##땰":10662,"##둌":10663,"##읷":10664,"##놁":10665,"##풓":10666,"##럲":10667,"##붊":10668,"##럅":10669,"##챜":10670,"##횤":10671,"##깓":10672,"##샒":10673,"##쭀":10674,"##찷":10675,"##긃":10676,"##뜮":10677,"##푕":10678,"##돎":10679,"##쩽":10680,"##빓":10681,"##낒":10682,"##뛃":10683,"##럱":10684,"##꺙":10685,"##쨲":10686,"##좜":10687,"##솕":10688,"##냼":10689,"##햰":10690,"##쯨":10691,"##쭬":10692,"##엀":10693,"##휑":10694,"##쫜":10695,"##폨":10696,"##릡":10697,"##즣":10698,"##췤":10699,"##풩":10700,"##춱":10701,"##펲":10702,"##놴":10703,"##볠":10704,"##씋":10705,"##빬":10706,"##팑":10707,"##겳":10708,"##셫":10709,"##욺":10710,"##돻":10711,"##겚":10712,"##틒":10713,"##뚹":10714,"##홟":10715,"##칶":10716,"##킦":10717,"##럘":10718,"##잂":10719,"##쏌":10720,"##꿑":10721,"##믛":10722,"##웆":10723,"##샟":10724,"##츸":10725,"##붗":10726,"##춠":10727,"##돆":10728,"##냰":10729,"##덀":10730,"##뮜":10731,"##봩":10732,"##땣":10733,"##렡":10734,"##탗":10735,"##쒴":10736,"##벛":10737,"##옩":10738,"##뿕":10739,"##툠":10740,"##풜":10741,"##뛓":10742,"##뽬":10743,"##줈":10744,"##룄":10745,"##푱":10746,"##뀅":10747,"##렧":10748,"##귻":10749,"##떯":10750,"##빞":10751,"##쉉":10752,"##빣":10753,"##릀":10754,"##핣":10755,"##츜":10756,"##볾":10757,"##븹":10758,"##싘":10759,"##쐉":10760,"##퉛":10761,"##쁼":10762,"##뱇":10763,"##챝":10764,"##닲":10765,"##럷":10766,"##컈":10767,"##즇":10768,"##씈":10769,"##씍":10770,"##욐":10771,"##풇":10772,"##뒠":10773,"##묏":10774,"##믖":10775,"##퇼":10776,"##샦":10777,"##툱":10778,"##툑":10779,"##틳":10780,"##띻":10781,"##흛":10782,"##쥈":10783,"##귭":10784,"##눋":10785,"##킺":10786,"##뭷":10787,"##졲":10788,"##튵":10789,"##힂":10790,"##맚":10791,"##뉬":10792,"##뇍":10793,"##뺚":10794,"##춸":10795,"##앩":10796,"##꿬":10797,"##떦":10798,"##훓":10799,"##먤":10800,"##탂":10801,"##큌":10802,"##쨥":10803,"##휰":10804,"##밗":10805,"##뤵":10806,"##옱":10807,"##샗":10808,"##낋":10809,"##퓹":10810,"##깵":10811,"##륟":10812,"##깛":10813,"##붥":10814,"##칲":10815,"##븦":10816,"##쭸":10817,"##힇":10818,"##둫":10819,"##웗":10820,"##걓":10821,"##릃":10822,"##뜿":10823,"##춀":10824,"##갏":10825,"##톶":10826,"##쪜":10827,"##쒘":10828,"##뻙":10829,"##퉬":10830,"##퀭":10831,"##쉳":10832,"##뮻":10833,"##핛":10834,"##둚":10835,"##켛":10836,"##헕":10837,"##댷":10838,"##봡":10839,"##쒞":10840,"##섈":10841,"##씜":10842,"##밇":10843,"##썍":10844,"##좤":10845,"##듢":10846,"##쩻":10847,"##쁍":10848,"##녇":10849,"##돇":10850,"##칻":10851,"##걾":10852,"##넦":10853,"##왅":10854,"##녿":10855,"##읩":10856,"##붰":10857,"##럠":10858,"##픚":10859,"##짣":10860,"##엯":10861,"##낅":10862,"##찱":10863,"##퇏":10864,"##쟴":10865,"##낞":10866,"##훯":10867,"##빪":10868,"##싇":10869,"##떮":10870,"##옣":10871,"##쭂":10872,"##쁟":10873,"##뎤":10874,"##븂":10875,"##딉":10876,"##씡":10877,"##뻴":10878,"##첞":10879,"##꽆":10880,"##짍":10881,"##쒐":10882,"##횢":10883,"##벫":10884,"##쩩":10885,"##벐":10886,"##쿙":10887,"##넖":10888,"##듰":10889,"##됒":10890,"##푝":10891,"##꼨":10892,"##췕":10893,"##훳":10894,"##듇":10895,"##홝":10896,"##밒":10897,"##쥿":10898,"##릸":10899,"##탷":10900,"##낓":10901,"##텦":10902,"##헒":10903,"##퀰":10904,"##튽":10905,"##똫":10906,"##옪":10907,"##쎱":10908,"##챊":10909,"##퉥":10910,"##맓":10911,"##쿩":10912,"##윢":10913,"##햙":10914,"##햚":10915,"##깦":10916,"##낣":10917,"##윝":10918,"##뱜":10919,"##짥":10920,"##뮝":10921,"##걜":10922,"##뽚":10923,"##왉":10924,"##궠":10925,"##벩":10926,"##멒":10927,"##륰":10928,"##갶":10929,"##벉":10930,"##믇":10931,"##슦":10932,"##꿥":10933,"##헓":10934,"##즏":10935,"##덝":10936,"##줋":10937,"##핓":10938,"##픍":10939,"##땧":10940,"##껙":10941,"##뎦":10942,"##꺘":10943,"##씦":10944,"##뿬":10945,"##흽":10946,"##댭":10947,"##힊":10948,"##찏":10949,"##쵠":10950,"##쨴":10951,"##뛟":10952,"##쒓":10953,"##꽜":10954,"##쨓":10955,"##뷍":10956,"##혇":10957,"##쁮":10958,"##쿗":10959,"##찁":10960,"##녯":10961,"##숡":10962,"##욈":10963,"##죿":10964,"##룯":10965,"##벑":10966,"##듘":10967,"##씔":10968,"##혃":10969,"##꾁":10970,"##쾤":10971,"##궥":10972,"##슳":10973,"##렾":10974,"##칢":10975,"##뼏":10976,"##댂":10977,"##햋":10978,"##좒":10979,"##쫃":10980,"##릱":10981,"##굱":10982,"##닋":10983,"##긄":10984,"##낤":10985,"##뤜":10986,"##꿤":10987,"##젶":10988,"##컇":10989,"##춭":10990,"##겲":10991,"##둒":10992,"##쓷":10993,"##삷":10994,"##궏":10995,"##쉄":10996,"##긿":10997,"##혷":10998,"##랇":10999,"##땦":11000,"##뢩":11001,"##퓍":11002,"##됼":11003,"##핋":11004,"##귾":11005,"##븃":11006,"##띴":11007,"##맔":11008,"##굌":11009,"##솁":11010,"##봭":11011,"##퐅":11012,"##덣":11013,"##얩":11014,"##뢓":11015,"##쫖":11016,"##뙌":11017,"##왙":11018,"##섦":11019,"##젚":11020,"##붆":11021,"##걎":11022,"##륫":11023,"##뢕":11024,"##쿽":11025,"##욻":11026,"##씞":11027,"##싅":11028,"##솏":11029,"##썯":11030,"##뎻":11031,"##렩":11032,"##꺍":11033,"##뼊":11034,"##닶":11035,"##봽":11036,"##뒜":11037,"##칍":11038,"##봿":11039,"##퓟":11040,"##덹":11041,"##깣":11042,"##딳":11043,"##뒛":11044,"##숤":11045,"##퓅":11046,"##찦":11047,"##딝":11048,"##놏":11049,"##흚":11050,"##휨":11051,"##꽠":11052,"##꼤":11053,"##젂":11054,"##텉":11055,"##걲":11056,"##믏":11057,"##갫":11058,"##쾃":11059,"##낧":11060,"##뤰":11061,"##앺":11062,"##삉":11063,"##뻦":11064,"##릻":11065,"##륾":11066,"##쩓":11067,"##윋":11068,"##펻":11069,"##뀍":11070,"##룢":11071,"##쐌":11072,"##앣":11073,"##푬":11074,"##꿹":11075,"##엞":11076,"##굄":11077,"##럔":11078,"##뢥":11079,"##픨":11080,"##몡":11081,"##즟":11082,"##뫗":11083,"##졺":11084,"##꿯":11085,"##쨚":11086,"##귷":11087,"##뉰":11088,"##잓":11089,"##섂":11090,"##냗":11091,"##뇹":11092,"##뜁":11093,"##셭":11094,"##걨":11095,"##줂":11096,"##랁":11097,"##룠":11098,"##붂":11099,"##윖":11100,"##톌":11101,"##꿸":11102,"##샓":11103,"##혚":11104,"##픹":11105,"##늓":11106,"##뿱":11107,"##쳒":11108,"##휵":11109,"##쏳":11110,"##홱":11111,"##츞":11112,"##컦":11113,"##쩕":11114,"##퐠":11115,"##끚":11116,"##턷":11117,"##쬲":11118,"##췁":11119,"##꾈":11120,"##똚":11121,"##덌":11122,"##턑":11123,"##쓀":11124,"##뗗":11125,"##젵":11126,"##죢":11127,"##룈":11128,"##퍤":11129,"##덍":11130,"##홮":11131,"##춏":11132,"##퐥":11133,"##텣":11134,"##첡":11135,"##앲":11136,"##벊":11137,"##꿓":11138,"##뗸":11139,"##촀":11140,"##뭩":11141,"##햎":11142,"##쿌":11143,"##팘":11144,"##챋":11145,"##됤":11146,"##슮":11147,"##틘":11148,"##빺":11149,"##뒼":11150,"##똼":11151,"##혽":11152,"##괠":11153,"##웞":11154,"##얋":11155,"##씿":11156,"##귖":11157,"##펺":11158,"##킽":11159,"##헏":11160,"##넁":11161,"##뇡":11162,"##휗":11163,"##흦":11164,"##뙥":11165,"##쩎":11166,"##뻕":11167,"##믙":11168,"##젗":11169,"##춟":11170,"##먖":11171,"##멭":11172,"##퐇":11173,"##곲":11174,"##쀈":11175,"##롓":11176,"##쓒":11177,"##팯":11178,"##묷":11179,"##촷":11180,"##꺋":11181,"##됻":11182,"##쓐":11183,"##꼥":11184,"##핷":11185,"##뤅":11186,"##뱕":11187,"##괐":11188,"##슧":11189,"##뾸":11190,"##챷":11191,"##쪵":11192,"##롡":11193,"##뱓":11194,"##쿅":11195,"##릹":11196,"##혭":11197,"##췽":11198,"##웇":11199,"##괫":11200,"##퇜":11201,"##늒":11202,"##뿥":11203,"##쇸":11204,"##뒥":11205,"##뻭":11206,"##뼁":11207,"##샿":11208,"##셮":11209,"##쩤":11210,"##캋":11211,"##꺏":11212,"##쎰":11213,"##핪":11214,"##벯":11215,"##퉐":11216,"##웯":11217,"##듨":11218,"##롮":11219,"##줖":11220,"##꼉":11221,"##젌":11222,"##좎":11223,"##윹":11224,"##뻖":11225,"##긯":11226,"##뙄":11227,"##끸":11228,"##튴":11229,"##쩣":11230,"##쓺":11231,"##뽠":11232,"##셪":11233,"##몊":11234,"##궳":11235,"##껶":11236,"##퉼":11237,"##홨":11238,"##끉":11239,"##섓":11240,"##쟃":11241,"##웘":11242,"##둭":11243,"##헳":11244,"##먽":11245,"##흵":11246,"##뜳":11247,"##쀍":11248,"##픎":11249,"##붬":11250,"##덦":11251,"##흤":11252,"##뿰":11253,"##꺴":11254,"##쥇":11255,"##븁":11256,"##헊":11257,"##쵼":11258,"##닗":11259,"##쿯":11260,"##풸":11261,"##슩":11262,"##텓":11263,"##깑":11264,"##곝":11265,"##쯋":11266,"##틂":11267,"##펕":11268,"##왗":11269,"##썾":11270,"##퍵":11271,"##쎟":11272,"##죅":11273,"##꺕":11274,"##땆":11275,"##둼":11276,"##쇟":11277,"##쀾":11278,"##벺":11279,"##춎":11280,"##솹":11281,"##댲":11282,"##핗":11283,"##륲":11284,"##즜":11285,"##폯":11286,"##덢":11287,"##섄":11288,"##쾽":11289,"##촜":11290,"##쫔":11291,"##큩":11292,"##덻":11293,"##딭":11294,"##놥":11295,"##밙":11296,"##힡":11297,"##봁":11298,"##쭠":11299,"##쫫":11300,"##쇈":11301,"##뽷":11302,"##렽":11303,"##뚢":11304,"##춛":11305,"##짺":11306,"##쬘":11307,"##쿹":11308,"##웒":11309,"##튑":11310,"##욣":11311,"##쉻":11312,"##롞":11313,"##믝":11314,"##헔":11315,"##뀩":11316,"##댉":11317,"##릘":11318,"##폳":11319,"##뻩":11320,"##꾱":11321,"##뒐":11322,"##봋":11323,"##츛":11324,"##댦":11325,"##잮":11326,"##곣":11327,"##홙":11328,"##랺":11329,"##붚":11330,"##턋":11331,"##쓈":11332,"##녝":11333,"##붼":11334,"##쪻":11335,"##룾":11336,"##맕":11337,"##꼣":11338,"##룁":11339,"##쳊":11340,"##쵯":11341,"##뉫":11342,"##뛝":11343,"##떥":11344,"##븎":11345,"##탏":11346,"##퇭":11347,"##폮":11348,"##뗜":11349,"##뀈":11350,"##컅":11351,"##젎":11352,"##벁":11353,"##뱸":11354,"##풘":11355,"##윁":11356,"##뜪":11357,"##걧":11358,"##줚":11359,"##떘":11360,"##섡":11361,"##밚":11362,"##퉝":11363,"##훚":11364,"##쒂":11365,"##뢋":11366,"##낶":11367,"##슇":11368,"##앦":11369,"##뭀":11370,"##벓":11371,"##솛":11372,"##늽":11373,"##뛱":11374,"##큳":11375,"##캵":11376,"##빏":11377,"##갥":11378,"##옲":11379,"##쐰":11380,"##깪":11381,"##븻":11382,"##쵹":11383,"##탵":11384,"##똻":11385,"##쯛":11386,"##혾":11387,"##흼":11388,"##얎":11389,"##몢":11390,"##귽":11391,"##갢":11392,"##쮠":11393,"##쎁":11394,"##휅":11395,"##눽":11396,"##뭭":11397,"##쫟":11398,"##텩":11399,"##홒":11400,"##탶":11401,"##윣":11402,"##텇":11403,"##뛀":11404,"##푄":11405,"##퀫":11406,"##샕":11407,"##꺓":11408,"##씮":11409,"##뼐":11410,"##벻":11411,"##벏":11412,"##띧":11413,"##긹":11414,"##쐤":11415,"##뮁":11416,"##쭞":11417,"##뮘":11418,"##쥫":11419,"##혆":11420,"##뎜":11421,"##걳":11422,"##챚":11423,"##챽":11424,"##쀳":11425,"##쌻":11426,"##뛧":11427,"##뼬":11428,"##쮕":11429,"##뾥":11430,"##릑":11431,"##줵":11432,"##곟":11433,"##닱":11434,"##꺟":11435,"##깖":11436,"##쬰":11437,"##릾":11438,"##샽":11439,"##둧":11440,"##윚":11441,"##웳":11442,"##쯀":11443,"##뚞":11444,"##둏":11445,"##덗":11446,"##쐽":11447,"##튘":11448,"##욾":11449,"##잢":11450,"##뵝":11451,"##죾":11452,"##댣":11453,"##쪠":11454,"##밳":11455,"##쎝":11456,"##섩":11457,"##븧":11458,"##쒄":11459,"##밡":11460,"##흪":11461,"##붏":11462,"##뻫":11463,"##챺":11464,"##궀":11465,"##혯":11466,"##쀌":11467,"##뉌":11468,"##뤤":11469,"##곥":11470,"##칧":11471,"##럗":11472,"##뇟":11473,"##홭":11474,"##뜄":11475,"##멯":11476,"##긶":11477,"##떗":11478,"##먆":11479,"##꾭":11480,"##럥":11481,"##툌":11482,"##쮭":11483,"##렗":11484,"##굗":11485,"##챶":11486,"##볆":11487,"##욽":11488,"##꿌":11489,"##짉":11490,"##윺":11491,"##끯":11492,"##렚":11493,"##넢":11494,"##믻":11495,"##먘":11496,"##쿧":11497,"##쑀":11498,"##곕":11499,"##쮤":11500,"##쨎":11501,"##헢":11502,"##쒭":11503,"##씄":11504,"##뮉":11505,"##쳰":11506,"##뽫":11507,"##옧":11508,"##졩":11509,"##튝":11510,"##긊":11511,"##땎":11512,"##럸":11513,"##줱":11514,"##쟅":11515,"##툩":11516,"##쟏":11517,"##흳":11518,"##쭹":11519,"##씇":11520,"##옰":11521,"##휇":11522,"##젾":11523,"##팗":11524,"##쩗":11525,"##슅":11526,"##짶":11527,"##뵑":11528,"##뎓":11529,"##샮":11530,"##밂":11531,"##랊":11532,"##윯":11533,"##섽":11534,"##츷":11535,"##풴":11536,"##엻":11537,"##얮":11538,"##겏":11539,"##늎":11540,"##짮":11541,"##졏":11542,"##뤳":11543,"##츗":11544,"##톪":11545,"##눵":11546,"##싩":11547,"##몲":11548,"##뿁":11549,"##첤":11550,"##녙":11551,"##듞":11552,"##쨤":11553,"##땉":11554,"##륐":11555,"##폥":11556,"##쿢":11557,"##힟":11558,"##욓":11559,"##쀒":11560,"##솑":11561,"##븋":11562,"##뱽":11563,"##띸":11564,"##힕":11565,"##퍝":11566,"##닍":11567,"##퉵":11568,"##숪":11569,"##돘":11570,"##틏":11571,"##옞":11572,"##훊":11573,"##켉":11574,"##뀃":11575,"##뫕":11576,"##딿":11577,"##킆":11578,"##췆":11579,"##씥":11580,"##헞":11581,"##퀡":11582,"##룿":11583,"##탟":11584,"##뉔":11585,"##퀐":11586,"##늭":11587,"##퉉":11588,"##킐":11589,"##턩":11590,"##줝":11591,"##슸":11592,"##뷐":11593,"##뵵":11594,"##셂":11595,"##걃":11596,"##횜":11597,"##쐥":11598,"##삹":11599,"##랯":11600,"##쩅":11601,"##퇙":11602,"##뙛":11603,"##쵿":11604,"##뷃":11605,"##펅":11606,"##넟":11607,"##뒓":11608,"##톀":11609,"##똇":11610,"##쓹":11611,"##쾐":11612,"##멛":11613,"##퐂":11614,"##쥅":11615,"##쁐":11616,"##귣":11617,"##쩛":11618,"##밿":11619,"##혂":11620,"##깺":11621,"##밹":11622,"##쫴":11623,"##촪":11624,"##캮":11625,"##뿹":11626,"##꽳":11627,"##쭊":11628,"##꼊":11629,"##띟":11630,"##꽀":11631,"##쨱":11632,"##뙓":11633,"##텹":11634,"##퀏":11635,"##붃":11636,"##뜐":11637,"##삗":11638,"##늤":11639,"##댏":11640,"##녗":11641,"##뜜":11642,"##쯴":11643,"##똧":11644,"##얳":11645,"##믂":11646,"##뵉":11647,"##릣":11648,"##삨":11649,"##쐏":11650,"##헰":11651,"##뭧":11652,"##퉨":11653,"##쥦":11654,"##횓":11655,"##뚦":11656,"##콭":11657,"##겕":11658,"##뱥":11659,"##팖":11660,"##픀":11661,"##쇨":11662,"##짎":11663,"##퓻":11664,"##쫵":11665,"##끀":11666,"##얁":11667,"##썔":11668,"##겵":11669,"##켞":11670,"##둅":11671,"##큵":11672,"##첪":11673,"##퇍":11674,"##쇣":11675,"##쵁":11676,"##뭦":11677,"##궲":11678,"##꿄":11679,"##븢":11680,"##갌":11681,"##뱊":11682,"##긺":11683,"##뿓":11684,"##륔":11685,"##홖":11686,"##끡":11687,"##뎹":11688,"##쁏":11689,"##곛":11690,"##혺":11691,"##풎":11692,"##썠":11693,"##뿑":11694,"##턐":11695,"##웖":11696,"##긵":11697,"##꼹":11698,"##훋":11699,"##빷":11700,"##뽸":11701,"##펟":11702,"##흿":11703,"##쓌":11704,"##뜱":11705,"##쟟":11706,"##슏":11707,"##왆":11708,"##몷":11709,"##둇":11710,"##겷":11711,"##꿻":11712,"##몣":11713,"##쬎":11714,"##훸":11715,"##헋":11716,"##뵏":11717,"##삫":11718,"##꿝":11719,"##즺":11720,"##켼":11721,"##츶":11722,"##댼":11723,"##릲":11724,"##띕":11725,"##횠":11726,"##샔":11727,"##겺":11728,"##멫":11729,"##띶":11730,"##졜":11731,"##넔":11732,"##떅":11733,"##혻":11734,"##쌇":11735,"##왲":11736,"##뚁":11737,"##짵":11738,"##눓":11739,"##눸":11740,"##폡":11741,"##톷":11742,"##휔":11743,"##괺":11744,"##돖":11745,"##쮁":11746,"##붎":11747,"##톃":11748,"##봃":11749,"##좥":11750,"##숬":11751,"##풏":11752,"##돽":11753,"##뻪":11754,"##돏":11755,"##뼑":11756,"##딺":11757,"##뚵":11758,"##봰":11759,"##훱":11760,"##썄":11761,"##딻":11762,"##겗":11763,"##쓕":11764,"##똩":11765,"##곔":11766,"##틕":11767,"##쑷":11768,"##쪟":11769,"##귥":11770,"##뭿":11771,"##븞":11772,"##헾":11773,"##쬡":11774,"##쩑":11775,"##촼":11776,"##붯":11777,"##읲":11778,"##듟":11779,"##뷧":11780,"##첧":11781,"##뙝":11782,"##뺅":11783,"##꼷":11784,"##턘":11785,"##퀻":11786,"##뙹":11787,"##믱":11788,"##뼠":11789,"##쫰":11790,"##섐":11791,"##툈":11792,"##엱":11793,"##쏐":11794,"##뙷":11795,"##밁":11796,"##꺨":11797,"##렭":11798,"##왷":11799,"##볙":11800,"##똮":11801,"##떣":11802,"##쏄":11803,"##껅":11804,"##쬈":11805,"##쌛":11806,"##삧":11807,"##꾬":11808,"##힒":11809,"##늛":11810,"##햛":11811,"##돾":11812,"##핐":11813,"##쐅":11814,"##긆":11815,"##뭵":11816,"##뉅":11817,"##풹":11818,"##붭":11819,"##벲":11820,"##젡":11821,"##좧":11822,"##쟆":11823,"##씶":11824,"##묿":11825,"##쭄":11826,"##즷":11827,"##믯":11828,"##뵞":11829,"##싻":11830,"##푁":11831,"##헽":11832,"##헟":11833,"##굪":11834,"##틤":11835,"##꿃":11836,"##넊":11837,"##즋":11838,"##븏":11839,"##쫅":11840,"##좂":11841,"##븩":11842,"##뙜":11843,"##졿":11844,"##뛥":11845,"##뵺":11846,"##쑫":11847,"##웙":11848,"##횧":11849,"##뭎":11850,"##쑛":11851,"##픤":11852,"##꽑":11853,"##뛍":11854,"##쒵":11855,"##숶":11856,"##뺶":11857,"##췔":11858,"##숝":11859,"##죥":11860,"##걽":11861,"##쬮":11862,"##겮":11863,"##첣":11864,"##륶":11865,"##혅":11866,"##홫":11867,"##큻":11868,"##뫂":11869,"##꽛":11870,"##칤":11871,"##뽘":11872,"##둽":11873,"##싖":11874,"##뀱":11875,"##휲":11876,"##쨖":11877,"##쓿":11878,"##헧":11879,"##찗":11880,"##텧":11881,"##퐣":11882,"##첦":11883,"##쌯":11884,"##뺗":11885,"##퇶":11886,"##썱":11887,"##굩":11888,"##쉗":11889,"##쉜":11890,"##괅":11891,"##릈":11892,"##헦":11893,"##믰":11894,"##냋":11895,"##뷷":11896,"##턹":11897,"##갟":11898,"##웣":11899,"##펹":11900,"##빎":11901,"##캢":11902,"##믬":11903,"##뎂":11904,"##둊":11905,"##돒":11906,"##콪":11907,"##캽":11908,"##쓑":11909,"##쇀":11910,"##씟":11911,"##놛":11912,"##뽴":11913,"##뷋":11914,"##꾳":11915,"##엂":11916,"##늜":11917,"##탊":11918,"##큲":11919,"##낪":11920,"##궓":11921,"##떷":11922,"##뿎":11923,"##틊":11924,"##놸":11925,"##탞":11926,"##씱":11927,"##끐":11928,"##갳":11929,"##퍞":11930,"##걇":11931,"##똽":11932,"##킀":11933,"##썳":11934,"##눂":11935,"##쫨":11936,"##덈":11937,"##겞":11938,"##퇌":11939,"##훛":11940,"##퐙":11941,"##됚":11942,"##뼀":11943,"##쬴":11944,"##꽘":11945,"##쮑":11946,"##캙":11947,"##뾴":11948,"##뒇":11949,"##쎍":11950,"##굺":11951,"##쳭":11952,"##놪":11953,"##쒤":11954,"##뜃":11955,"##뽹":11956,"##쉚":11957,"##뙴":11958,"##튔":11959,"##뗨":11960,"##잝":11961,"##삦":11962,"##줯":11963,"##뱗":11964,"##쇱":11965,"##눉":11966,"##뺓":11967,"##쭏":11968,"##팏":11969,"##쏔":11970,"##똟":11971,"##쉲":11972,"##벾":11973,"##곖":11974,"##짿":11975,"##옟":11976,"##뀷":11977,"##쀡":11978,"##겴":11979,"##껚":11980,"##봆":11981,"##톢":11982,"##혉":11983,"##휳":11984,"##튶":11985,"##줊":11986,"##슰":11987,"##홅":11988,"##얊":11989,"##솒":11990,"##쏖":11991,"##틧":11992,"##켚":11993,"##떺":11994,"##떾":11995,"##뵠":11996,"##쓊":11997,"##귇":11998,"##쀏":11999,"##좰":12000,"##잞":12001,"##왬":12002,"##퍁":12003,"##좬":12004,"##곮":12005,"##깗":12006,"##쏚":12007,"##뚈":12008,"##뗼":12009,"##뱤":12010,"##섔":12011,"##쮔":12012,"##뒞":12013,"##팣":12014,"##쳢":12015,"##혒":12016,"##놝":12017,"##볈":12018,"##좣":12019,"##좓":12020,"##녭":12021,"##큷":12022,"##왢":12023,"##쐼":12024,"##긞":12025,"##볖":12026,"##넧":12027,"##퓿":12028,"##툣":12029,"##섪":12030,"##쓧":12031,"##뷹":12032,"##냙":12033,"##쟊":12034,"##턈":12035,"##엹":12036,"##뱛":12037,"##걭":12038,"##뽇":12039,"##쁰":12040,"##숗":12041,"##겛":12042,"##쭅":12043,"##걆":12044,"##뿳":12045,"##쫂":12046,"##졻":12047,"##죣":12048,"##휐":12049,"##뻁":12050,"##똙":12051,"##젍":12052,"##쏏":12053,"##끎":12054,"##뛌":12055,"##퐑":12056,"##춡":12057,"##꽼":12058,"##쐄":12059,"##쳴":12060,"##퇧":12061,"##킶":12062,"##똈":12063,"##끞":12064,"##쒫":12065,"##흅":12066,"##걤":12067,"##뿧":12068,"##틇":12069,"##쬠":12070,"##툲":12071,"##팙":12072,"##쓘":12073,"##찪":12074,"##엁":12075,"##갎":12076,"##뙀":12077,"##럎":12078,"##쌎":12079,"##댰":12080,"##씂":12081,"##윥":12082,"##퍡":12083,"##똷":12084,"##쳍":12085,"##쏮":12086,"##쩀":12087,"##퀔":12088,"##됧":12089,"##쩸":12090,"##얆":12091,"##츹":12092,"##쮉":12093,"##졽":12094,"##뫽":12095,"##찫":12096,"##뙿":12097,"##꽨":12098,"##둋":12099,"##깯":12100,"##뫚":12101,"##췝":12102,"##퐨":12103,"##뒫":12104,"##떌":12105,"##풃":12106,"##찥":12107,"##퇮":12108,"##뀀":12109,"##흊":12110,"##쑉":12111,"##놊":12112,"##걬":12113,"##퐘":12114,"##씧":12115,"##싙":12116,"##쐿":12117,"##뀳":12118,"##꼶":12119,"##쑙":12120,"##뀤":12121,"##븸":12122,"##믣":12123,"##똦":12124,"##뾔":12125,"##꺢":12126,"##뭕":12127,"##훏":12128,"##꺚":12129,"##귦":12130,"##쭕":12131,"##젒":12132,"##킉":12133,"##빖":12134,"##쾩":12135,"##갧":12136,"##솖":12137,"##췜":12138,"##곆":12139,"##컯":12140,"##퉾":12141,"##궵":12142,"##쩹":12143,"##왳":12144,"##썝":12145,"##믌":12146,"##쪚":12147,"##겙":12148,"##짾":12149,"##왶":12150,"##뮏":12151,"##몟":12152,"##붝":12153,"##궮":12154,"##뭗":12155,"##쩁":12156,"##뛨":12157,"##쑼":12158,"##눛":12159,"##뫜":12160,"##콲":12161,"##뭟":12162,"##썫":12163,"##꼲":12164,"##쵮":12165,"##쎇":12166,"##괝":12167,"##쀓":12168,"##챫":12169,"##촺":12170,"##뚄":12171,"##쓃":12172,"##숢":12173,"##죝":12174,"##빇":12175,"##뭙":12176,"##뚊":12177,"##걒":12178,"##껇":12179,"##꾠":12180,"##쭃":12181,"##뿃":12182,"##헶":12183,"##쎓":12184,"##셟":12185,"##뾃":12186,"##쇔":12187,"##녻":12188,"##멲":12189,"##뭚":12190,"##쑻":12191,"##졂":12192,"##왡":12193,"##꽴":12194,"##갩":12195,"##똝":12196,"##씗":12197,"##♬에":12198,"##♬이":12199,"##♬을":12200,"##♬의":12201,"##♬가":12202,"##♬는":12203,"##♬를":12204,"##♬들":12205,"##♬은":12206,"##♬도":12207,"##으로":12208,"♬에":12209,"##♬으로":12210,"♬을":12211,"##♬로":12212,"##♬에서":12213,"♬의":12214,"♬이":12215,"##하는":12216,"##니다":12217,"♬를":12218,"##♬과":12219,"##하고":12220,"##♬적":12221,"♬는":12222,"♬은":12223,"##는데":12224,"##이다":12225,"♬가":12226,"##♬만":12227,"##다고":12228,"##♬들♬이":12229,"##♬와":12230,"##지만":12231,"있다":12232,"사람":12233,"아니":12234,"♬으로":12235,"##라고":12236,"##했다":12237,"##00":12238,"##까지":12239,"♬에서":12240,"있는":12241,"♬로":12242,"##었다":12243,"##면서":12244,"♬도":12245,"##다는":12246,"##♬에게":12247,"생각":12248,"우리":12249,"##♬들♬은":12250,"♬들":12251,"##♬까지":12252,"##하게":12253,"##부터":12254,"##해서":12255,"♬과":12256,"대한":12257,"##리고":12258,"##이라":12259,"##한다":12260,"20":12261,"##♬님":12262,"하는":12263,"한다":12264,"한국":12265,"##보다":12266,"국민":12267,"##습니다":12268,"##♬적인":12269,"때문":12270,"♬적":12271,"##렇게":12272,"##으면":12273,"그러":12274,"영화":12275,"이런":12276,"진짜":12277,"##♬적♬으로":12278,"♬와":12279,"##니까":12280,"지금":12281,"##하지":12282,"##♬에♬는":12283,"일본":12284,"지난":12285,"##하면":12286,"##♬나":12287,"그런":12288,"문제":12289,"##♬이나":12290,"##♬부터":12291,"##♬들♬의":12292,"##하다":12293,"##♬보다":12294,"같은":12295,"너무":12296,"10":12297,"자신":12298,"다른":12299,"중국":12300,"##대로":12301,"##♬성":12302,"나라":12303,"##는거":12304,"하나":12305,"##처럼":12306,"위해":12307,"##통령":12308,"들어":12309,"그리고":12310,"만들":12311,"미국":12312,"그래":12313,"경우":12314,"##하기":12315,"정부":12316,"##♬화":12317,"##이고":12318,"##네요":12319,"201":12320,"##인데":12321,"##♬들♬을":12322,"##라는":12323,"아이":12324,"##어서":12325,"하고":12326,"이상":12327,"대통령":12328,"이제":12329,"19":12330,"이번":12331,"그냥":12332,"##세요":12333,"문재":12334,"작가":12335,"사실":12336,"##기♬를":12337,"다고":12338,"##♬처럼":12339,"##한테":12340,"된다":12341,"##어요":12342,"아닌":12343,"##해야":12344,"##지고":12345,"다시":12346,"##나라":12347,"##았다":12348,"것이다":12349,"##입니다":12350,"시작":12351,"함께":12352,"사회":12353,"따라":12354,"없는":12355,"정도":12356,"정치":12357,"##♬한테":12358,"경제":12359,"서울":12360,"##이라고":12361,"때문♬에":12362,"많이":12363,"통해":12364,"##라도":12365,"보고":12366,"가능":12367,"하지만":12368,"모르":12369,"인간":12370,"##이지":12371,"시간":12372,"가장":12373,"아무":12374,"나오":12375,"필요":12376,"기업":12377,"##♬에♬도":12378,"아니라":12379,"##하여":12380,"##되는":12381,"##♬에서♬는":12382,"##리는":12383,"정말":12384,"##리♬를":12385,"자기":12386,"북한":12387,"모두":12388,"##였다":12389,"상황":12390,"##자♬가":12391,"세계":12392,"##으며":12393,"지역":12394,"##다가":12395,"민주":12396,"200":12397,"이후":12398,"##리♬가":12399,"어떻":12400,"##같은":12401,"모든":12402,"##♬서":12403,"대표":12404,"##려고":12405,"것♬이":12406,"모습":12407,"좋아":12408,"시장":12409,"사업":12410,"관계":12411,"국가":12412,"이렇게":12413,"♬까지":12414,"것♬은":12415,"어떻게":12416,"문재인":12417,"사용":12418,"여자":12419,"관련":12420,"내♬가":12421,"없다":12422,"##스트":12423,"마음":12424,"##주의":12425,"다음":12426,"여기":12427,"대해":12428,"♬만":12429,"##된다":12430,"이유":12431,"##♬랑":12432,"해야":12433,"##합니다":12434,"이미":12435,"있었":12436,"많은":12437,"##이라는":12438,"위한":12439,"##겠다":12440,"댓글":12441,"이야":12442,"##사람":12443,"정신":12444,"지원":12445,"##는다":12446,"##기♬가":12447,"##보고":12448,"아직":12449,"현재":12450,"돌아":12451,"그렇게":12452,"처음":12453,"사이":12454,"했다":12455,"##♬권":12456,"계속":12457,"사랑":12458,"그러나":12459,"##하며":12460,"어떤":12461,"것♬으로":12462,"작가♬님":12463,"##어야":12464,"투자":12465,"것♬을":12466,"##♬아":12467,"##거나":12468,"얼마":12469,"##사♬를":12470,"라고":12471,"라는":12472,"무슨":12473,"프로":12474,"12":12475,"♬성":12476,"내용":12477,"##기♬도":12478,"역시":12479,"##민국":12480,"보여":12481,"경기":12482,"##으니":12483,"##구나":12484,"##는지":12485,"30":12486,"근데":12487,"있을":12488,"특히":12489,"##아서":12490,"좋은":12491,"##하면서":12492,"##인가":12493,"##인지":12494,"##어나":12495,"여성":12496,"남자":12497,"11":12498,"하지":12499,"##레이":12500,"밝혔":12501,"##♬들♬에게":12502,"이해":12503,"보면":12504,"이어":12505,"##지는":12506,"다는":12507,"조국":12508,"##기♬에":12509,"진행":12510,"##♬네":12511,"바로":12512,"여러":12513,"국내":12514,"100":12515,"##가는":12516,"대한민국":12517,"교육":12518,"##♬당":12519,"이용":12520,"그래서":12521,"##있는":12522,"##♬들♬도":12523,"기대":12524,"오늘":12525,"결과":12526,"수준":12527,"결국":12528,"##도록":12529,"검찰":12530,"##지♬를":12531,"##것♬도":12532,"##로운":12533,"방송":12534,"##력♬을":12535,"♬에게":12536,"중요":12537,"##인♬이":12538,"##잖아":12539,"피해":12540,"지만":12541,"있었다":12542,"기사":12543,"기술":12544,"어디":12545,"##이었다":12546,"면서":12547,"이름":12548,"그렇":12549,"##이었":12550,"##지막":12551,"최고":12552,"♬부터":12553,"##밖에":12554,"연구":12555,"최근":12556,"조사":12557,"15":12558,"##자♬는":12559,"##시키":12560,"자유":12561,"##없이":12562,"##♬엔":12563,"보이":12564,"국회":12565,"또한":12566,"이러":12567,"##는게":12568,"##소리":12569,"잘못":12570,"마지막":12571,"♬화":12572,"설명":12573,"살아":12574,"##이♬가":12575,"계획":12576,"♬고":12577,"떨어":12578,"민주당":12579,"상대":12580,"사람♬이":12581,"저런":12582,"경찰":12583,"이거":12584,"삼성":12585,"없이":12586,"대학":12587,"##가지":12588,"지지":12589,"##되고":12590,"개발":12591,"웹툰":12592,"친구":12593,"##장♬을":12594,"우리나라":12595,"어느":12596,"사건":12597,"당시":12598,"의원":12599,"##♬마":12600,"지난해":12601,"베댓":12602,"나♬는":12603,"가족":12604,"학교":12605,"##지♬도":12606,"물론":12607,"나타":12608,"세상":12609,"##레기":12610,"♬보다":12611,"당신":12612,"작품":12613,"##사♬가":12614,"정권":12615,"##해라":12616,"되는":12617,"같이":12618,"기록":12619,"감독":12620,"##어도":12621,"##머니":12622,"전문":12623,"올해":12624,"자신♬의":12625,"대상":12626,"이게":12627,"##지♬가":12628,"##으나":12629,"##비스":12630,"현실":12631,"##정♬을":12632,"알고":12633,"그럼":12634,"받아":12635,"관심":12636,"##♬에서♬도":12637,"정책":12638,"얼굴":12639,"##이야":12640,"이날":12641,"후보":12642,"제대로":12643,"##거리":12644,"만들어":12645,"얼마나":12646,"##시아":12647,"개인":12648,"주인":12649,"##동안":12650,"사진":12651,"##주는":12652,"##♬째":12653,"학생":12654,"##♬이랑":12655,"##졌다":12656,"정보":12657,"##♬들♬과":12658,"##시간":12659,"회사":12660,"##했던":12661,"18":12662,"그♬는":12663,"나온":12664,"누구":12665,"##♬자":12666,"않고":12667,"##인다":12668,"평가":12669,"이야기":12670,"##부분":12671,"##하는데":12672,"조선":12673,"##장♬은":12674,"배우":12675,"하면":12676,"그것":12677,"##되어":12678,"##력♬이":12679,"가지":12680,"다양":12681,"한번":12682,"##겠지":12683,"자체":12684,"문화":12685,"##수♬가":12686,"##기업":12687,"말했다":12688,"찾아":12689,"##더니":12690,"따르":12691,"있는데":12692,"않는":12693,"부분":12694,"실제":12695,"일반":12696,"##중♬에":12697,"어려":12698,"직접":12699,"활동":12700,"알려":12701,"그만":12702,"동안":12703,"예정":12704,"운영":12705,"공개":12706,"##이트":12707,"##지♬는":12708,"그리":12709,"금융":12710,"해서":12711,"그림":12712,"선거":12713,"완전":12714,"##없는":12715,"언제":12716,"##운데":12717,"##장♬이":12718,"위원":12719,"##해도":12720,"##0년":12721,"새로운":12722,"상태":12723,"언론":12724,"##놓고":12725,"일부":12726,"올라":12727,"존재":12728,"##주고":12729,"그런데":12730,"대구":12731,"조금":12732,"의미":12733,"결정":12734,"##진다":12735,"소리":12736,"##스크":12737,"있고":12738,"게임":12739,"않은":12740,"##하나":12741,"제발":12742,"스토":12743,"##전♬에":12744,"책임":12745,"##로나":12746,"세금":12747,"공격":12748,"않았":12749,"발생":12750,"누가":12751,"한다고":12752,"재미":12753,"현대":12754,"먼저":12755,"##기♬는":12756,"아주":12757,"##이면":12758,"미래":12759,"##하자":12760,"제공":12761,"기준":12762,"##정부":12763,"##보면":12764,"인터":12765,"방법":12766,"확인":12767,"기자":12768,"부모":12769,"가지고":12770,"♬나":12771,"인정":12772,"합니다":12773,"##같이":12774,"##이냐":12775,"전체":12776,"하루":12777,"것♬도":12778,"##다면":12779,"##하네":12780,"머리":12781,"지나":12782,"서비스":12783,"그녀":12784,"참여":12785,"있다는":12786,"관리":12787,"한편":12788,"준비":12789,"발표":12790,"만화":12791,"50":12792,"♬라고":12793,"성공":12794,"자리":12795,"##을까":12796,"아니고":12797,"##라이":12798,"있어":12799,"##하는거":12800,"힘들":12801,"##♬들♬아":12802,"##한거":12803,"엄마":12804,"해도":12805,"##상♬을":12806,"사고":12807,"수사":12808,"##정도":12809,"##원♬이":12810,"##♬씩":12811,"주장":12812,"등장":12813,"##학교":12814,"만나":12815,"코로나":12816,"반대":12817,"##말고":12818,"과정":12819,"외국":12820,"##렸다":12821,"역사":12822,"13":12823,"주인공":12824,"선수":12825,"가격":12826,"##♬마다":12827,"서로":12828,"##리아":12829,"국제":12830,"##하시":12831,"산업":12832,"가운데":12833,"생활":12834,"대부분":12835,"25":12836,"보는":12837,"##러운":12838,"무엇":12839,"##기♬로":12840,"과거":12841,"##♬상":12842,"16":12843,"##000":12844,"이건":12845,"최대":12846,"위해서":12847,"제품":12848,"행동":12849,"거의":12850,"##랜드":12851,"전국":12852,"증가":12853,"정상":12854,"성장":12855,"경쟁":12856,"더욱":12857,"기억":12858,"사람♬들♬이":12859,"시민":12860,"##다니":12861,"있습니다":12862,"판매":12863,"##이며":12864,"재밌":12865,"해외":12866,"생산":12867,"노동":12868,"기다":12869,"요즘":12870,"효과":12871,"어린":12872,"보내":12873,"내려":12874,"##치고":12875,"그래도":12876,"##자♬를":12877,"##OO":12878,"해결":12879,"##리지":12880,"말♬을":12881,"당연":12882,"이것":12883,"얘기":12884,"14":12885,"못한":12886,"선택":12887,"아닌가":12888,"##♬밖에":12889,"엄청":12890,"표현":12891,"나왔":12892,"##근혜":12893,"추가":12894,"##문♬에":12895,"##이는":12896,"예상":12897,"##린다":12898,"규모":12899,"스타":12900,"##♬형":12901,"운동":12902,"쓰레기":12903,"##만원":12904,"있다고":12905,"장관":12906,"사람♬들":12907,"그♬의":12908,"영향":12909,"환경":12910,"아들":12911,"시대":12912,"없어":12913,"##그램":12914,"##의원":12915,"아니다":12916,"추진":12917,"##식♬을":12918,"빨리":12919,"교수":12920,"느낌":12921,"##자♬의":12922,"아버":12923,"대해서":12924,"요구":12925,"##이스":12926,"##려는":12927,"앞♬으로":12928,"##시다":12929,"##가서":12930,"드러":12931,"한다는":12932,"포함":12933,"##치는":12934,"말♬이":12935,"##와대":12936,"##화♬를":12937,"만든":12938,"알아":12939,"같다":12940,"##나요":12941,"♬권":12942,"다며":12943,"##♬여":12944,"##들어":12945,"중심":12946,"기본":12947,"17":12948,"결혼":12949,"##♬성♬이":12950,"입장":12951,"##야지":12952,"문재앙":12953,"##주세요":12954,"청와대":12955,"##아요":12956,"##었는데":12957,"구성":12958,"노력":12959,"등♬을":12960,"감사":12961,"##됐다":12962,"역할":12963,"##릭터":12964,"##한다고":12965,"도시":12966,"##했는데":12967,"유지":12968,"때문이다":12969,"마련":12970,"전쟁":12971,"좌파":12972,"장면":12973,"지방":12974,"##시켜":12975,"발전":12976,"##하던":12977,"##스로":12978,"나♬도":12979,"되어":12980,"##라마":12981,"##와서":12982,"말고":12983,"##스럽":12984,"##하겠":12985,"##스터":12986,"부산":12987,"건강":12988,"정의":12989,"##인♬의":12990,"박근혜":12991,"소비":12992,"##아니":12993,"##도♬를":12994,"##정♬이":12995,"지적":12996,"보인다":12997,"##이란":12998,"##♬요":12999,"##위원":13000,"##히려":13001,"분석":13002,"자동":13003,"판단":13004,"넘어":13005,"##는건":13006,"상당":13007,"해당":13008,"##이네":13009,"절대":13010,"확대":13011,"##하지만":13012,"우리♬가":13013,"고객":13014,"##리스":13015,"오히려":13016,"업체":13017,"자연":13018,"그게":13019,"공부":13020,"40":13021,"보수":13022,"오후":13023,"경험":13024,"##도♬가":13025,"안전":13026,"##자리":13027,"매우":13028,"##하냐":13029,"캐릭터":13030,"경영":13031,"범죄":13032,"만큼":13033,"기존":13034,"##했고":13035,"비교":13036,"사라":13037,"##♬성♬을":13038,"##더라":13039,"##시고":13040,"##음♬을":13041,"##이지만":13042,"도움":13043,"비판":13044,"전망":13045,"##이라도":13046,"솔직":13047,"비슷":13048,"없고":13049,"강화":13050,"스스로":13051,"##었던":13052,"거짓":13053,"##이버":13054,"시즌":13055,"##가고":13056,"기회":13057,"다르":13058,"##사♬는":13059,"수♬도":13060,"강조":13061,"##수♬를":13062,"♬자":13063,"##스♬를":13064,"사람♬은":13065,"바이":13066,"##스템":13067,"그대로":13068,"기관":13069,"##파트":13070,"##이니":13071,"##어난":13072,"##치♬를":13073,"스토리":13074,"##명♬이":13075,"##디어":13076,"##♬께":13077,"##♬질":13078,"인물":13079,"제작":13080,"##원♬을":13081,"안되":13082,"##인♬은":13083,"##지않":13084,"상승":13085,"특별":13086,"주변":13087,"밝혔다":13088,"아직♬도":13089,"이루":13090,"하는데":13091,"##이♬를":13092,"거래":13093,"원래":13094,"공동":13095,"대비":13096,"##한다는":13097,"활용":13098,"##영화":13099,"미친":13100,"구조":13101,"대신":13102,"연기":13103,"능력":13104,"##므로":13105,"자한":13106,"빨갱":13107,"##♬대로":13108,"##가리":13109,"##되었다":13110,"프로그램":13111,"다만":13112,"되고":13113,"분명":13114,"행복":13115,"위험":13116,"##인♬을":13117,"순간":13118,"##드는":13119,"##르는":13120,"제일":13121,"##자기":13122,"OOO":13123,"그때":13124,"시키":13125,"치료":13126,"##점♬을":13127,"라며":13128,"##시♬에":13129,"##위♬를":13130,"인생":13131,"21":13132,"은행":13133,"이♬를":13134,"조직":13135,"기간":13136,"김정":13137,"지속":13138,"##텐데":13139,"##♬야":13140,"부족":13141,"아무리":13142,"제♬가":13143,"##스♬가":13144,"24":13145,"##♬로서":13146,"##으면서":13147,"##보니":13148,"변화":13149,"바람":13150,"전혀":13151,"전부":13152,"##이기":13153,"##했다고":13154,"이♬에":13155,"##거지":13156,"다니":13157,"방식":13158,"##이♬는":13159,"##♬에선":13160,"병원":13161,"모습♬을":13162,"상품":13163,"되었다":13164,"저렇게":13165,"도록":13166,"항상":13167,"혼자":13168,"적용":13169,"인사":13170,"집중":13171,"비롯":13172,"##하니":13173,"##무원":13174,"가진":13175,"##라인":13176,"##번♬째":13177,"않는다":13178,"마스크":13179,"##마트":13180,"##명♬을":13181,"회장":13182,"##르고":13183,"##정한":13184,"주민":13185,"##있다":13186,"일단":13187,"출연":13188,"분야":13189,"전략":13190,"내년":13191,"아니면":13192,"충분":13193,"않았다":13194,"지켜":13195,"네이버":13196,"걱정":13197,"♬이나":13198,"확실":13199,"##♬계":13200,"##한데":13201,"개선":13202,"는데":13203,"##겠지만":13204,"##동산":13205,"뭔가":13206,"##었고":13207,"##스타":13208,"같은데":13209,"의견":13210,"♬처럼":13211,"##수록":13212,"대체":13213,"##자♬들":13214,"##리♬는":13215,"공산":13216,"##♬뿐":13217,"##은행":13218,"또는":13219,"높은":13220,"중앙":13221,"분위":13222,"##BS":13223,"더불":13224,"건설":13225,"##되면":13226,"적극":13227,"일♬이":13228,"보호":13229,"아마":13230,"솔직히":13231,"##기고":13232,"199":13233,"받고":13234,"나가":13235,"문제♬가":13236,"이러한":13237,"주요":13238,"고려":13239,"목표":13240,"달러":13241,"검사":13242,"크게":13243,"있지만":13244,"아님":13245,"열린":13246,"나오는":13247,"직원":13248,"우선":13249,"어렵":13250,"그걸":13251,"달리":13252,"##제♬를":13253,"##려면":13254,"##겠네":13255,"행사":13256,"노래":13257,"##건가":13258,"##때문♬에":13259,"신천":13260,"있던":13261,"궁금":13262,"##스♬는":13263,"22":13264,"일♬을":13265,"느끼":13266,"23":13267,"시스템":13268,"♬여":13269,"##을때":13270,"##감♬을":13271,"나서":13272,"##♬이다":13273,"드라마":13274,"그동안":13275,"인해":13276,"##더라도":13277,"있어서":13278,"수출":13279,"##되지":13280,"##라면":13281,"여행":13282,"중요한":13283,"##이터":13284,"아파트":13285,"가치":13286,"가까":13287,"매출":13288,"니♬가":13289,"의료":13290,"부동산":13291,"친일":13292,"##심히":13293,"음악":13294,"계약":13295,"##아야":13296,"다양한":13297,"##지지":13298,"##시장":13299,"실제로":13300,"가져":13301,"신경":13302,"수익":13303,"##먹고":13304,"##해주":13305,"보니":13306,"인터넷":13307,"정도♬로":13308,"##하다고":13309,"단체":13310,"자신♬이":13311,"여기♬서":13312,"자식":13313,"##기는":13314,"현장":13315,"##려서":13316,"다가":13317,"##요일":13318,"기분":13319,"관계자":13320,"출신":13321,"못하고":13322,"대회":13323,"등♬의":13324,"업무":13325,"그룹":13326,"갑자기":13327,"##하는게":13328,"조작":13329,"바라":13330,"사과":13331,"안보":13332,"##운동":13333,"각각":13334,"여론":13335,"##♬용":13336,"전♬에":13337,"움직":13338,"앞서":13339,"##에요":13340,"오래":13341,"##사♬의":13342,"유럽":13343,"없었다":13344,"차지":13345,"하면서":13346,"선동":13347,"영업":13348,"우리♬는":13349,"세월":13350,"##스♬의":13351,"생각♬이":13352,"##대♬를":13353,"##리면":13354,"방문":13355,"부담":13356,"기능":13357,"##지마":13358,"나라♬가":13359,"##해요":13360,"##건데":13361,"어쩌":13362,"##사업":13363,"습니다":13364,"##드시":13365,"가슴":13366,"설치":13367,"이전":13368,"발견":13369,"부정":13370,"##대한":13371,"##성♬을":13372,"##조건":13373,"저♬는":13374,"##사회":13375,"##났다":13376,"##간다":13377,"사망":13378,"##물♬을":13379,"대단":13380,"빨갱이":13381,"아닐":13382,"따라서":13383,"주식":13384,"##돼지":13385,"##성♬이":13386,"##으니까":13387,"나이":13388,"♬밖에":13389,"확보":13390,"자동차":13391,"들어가":13392,"##교육":13393,"##새끼":13394,"##상♬이":13395,"시절":13396,"##♬률":13397,"모르는":13398,"어머니":13399,"##내고":13400,"외교":13401,"회의":13402,"지도":13403,"총선":13404,"주택":13405,"언급":13406,"##봐라":13407,"열심히":13408,"먹고":13409,"최소":13410,"광고":13411,"##하였다":13412,"사람♬들♬은":13413,"새끼":13414,"##자인":13415,"공감":13416,"나와":13417,"##른다":13418,"통합":13419,"공급":13420,"##구요":13421,"아버지":13422,"우려":13423,"않을":13424,"불법":13425,"대응":13426,"보험":13427,"정확":13428,"##오는":13429,"전문가":13430,"LG":13431,"##던데":13432,"못하는":13433,"##군요":13434,"집단":13435,"선생":13436,"##하라":13437,"##억원":13438,"비해":13439,"인천":13440,"##정권":13441,"##♬생":13442,"##보는":13443,"국민♬들":13444,"안정":13445,"##구만":13446,"남편":13447,"##거다":13448,"##거든":13449,"떠나":13450,"끝나":13451,"있지":13452,"처리":13453,"##전자":13454,"##대표":13455,"영국":13456,"하다":13457,"지구":13458,"##러스":13459,"##냐고":13460,"가는":13461,"광주":13462,"##8년":13463,"싶은":13464,"시험":13465,"##수♬도":13466,"글로":13467,"공무원":13468,"목적":13469,"유명":13470,"밝혀":13471,"알았":13472,"보도":13473,"구속":13474,"작업":13475,"##만♬에":13476,"입니다":13477,"여러분":13478,"##시는":13479,"거기":13480,"국회의원":13481,"자금":13482,"사는":13483,"바뀌":13484,"오전":13485,"##♬보다♬는":13486,"##이션":13487,"##자♬들♬이":13488,"나올":13489,"##조차":13490,"무시":13491,"##리즈":13492,"본인":13493,"단순":13494,"##학생":13495,"뭐♬가":13496,"안타":13497,"가서":13498,"카드":13499,"정당":13500,"반응":13501,"전화":13502,"영화♬를":13503,"##대체":13504,"대책":13505,"갖고":13506,"26":13507,"##생각":13508,"참석":13509,"개혁":13510,"27":13511,"##명♬의":13512,"탄핵":13513,"##자♬로":13514,"여전":13515,"##이상":13516,"이익":13517,"과학":13518,"##국민":13519,"##어진":13520,"##전♬을":13521,"글로벌":13522,"##수♬는":13523,"했는데":13524,"시청":13525,"##의♬를":13526,"나쁜":13527,"평균":13528,"아베":13529,"##난다":13530,"사기":13531,"의사":13532,"지키":13533,"라이":13534,"괜찮":13535,"고민":13536,"영상":13537,"##이라면":13538,"시설":13539,"##5년":13540,"무서":13541,"##간♬에":13542,"##까요":13543,"보기":13544,"##너지":13545,"불가":13546,"이뤄":13547,"##7년":13548,"처벌":13549,"위치":13550,"SK":13551,"##9년":13552,"##이자":13553,"##거야":13554,"이♬는":13555,"희망":13556,"달라":13557,"반면":13558,"강력":13559,"아래":13560,"##트♬를":13561,"되었":13562,"##이어":13563,"##없다":13564,"선정":13565,"제도":13566,"28":13567,"♬당":13568,"##했지만":13569,"제외":13570,"이동":13571,"뉴스":13572,"실시":13573,"따른":13574,"##♬끼":13575,"도대체":13576,"신고":13577,"관광":13578,"반드시":13579,"공식":13580,"##문♬을":13581,"있으며":13582,"##왔다":13583,"주는":13584,"훨씬":13585,"##세계":13586,"브랜드":13587,"군대":13588,"##선♬을":13589,"장기":13590,"받은":13591,"##제♬가":13592,"의해":13593,"소설":13594,"싸우":13595,"어찌":13596,"60":13597,"진심":13598,"♬상":13599,"제시":13600,"있으면":13601,"신천지":13602,"거리":13603,"잡아":13604,"최초":13605,"##♬님♬이":13606,"프랑":13607,"##갔다":13608,"##지면":13609,"소재":13610,"아는":13611,"무조건":13612,"##당♬이":13613,"투표":13614,"도입":13615,"되면":13616,"♬뿐":13617,"젊은":13618,"아빠":13619,"소속":13620,"말씀":13621,"권력":13622,"##♬으로서":13623,"평화":13624,"하여":13625,"좋아요":13626,"하늘":13627,"##생활":13628,"##BC":13629,"수♬가":13630,"##내는":13631,"##듯이":13632,"독일":13633,"성격":13634,"따르면":13635,"핵심":13636,"##겠다고":13637,"TV":13638,"##워서":13639,"남성":13640,"공간":13641,"유치":13642,"##라서":13643,"생각♬을":13644,"##6년":13645,"##럼프":13646,"중소":13647,"인식":13648,"시행":13649,"청소":13650,"##준다":13651,"등♬이":13652,"##하다는":13653,"롯데":13654,"사람♬을":13655,"해라":13656,"##지게":13657,"많다":13658,"사태":13659,"♬이라고":13660,"생각해":13661,"아프":13662,"만약":13663,"각종":13664,"아름":13665,"스포":13666,"감염":13667,"오른":13668,"스마트":13669,"마치":13670,"종교":13671,"##받고":13672,"불안":13673,"##했을":13674,"나중♬에":13675,"자세":13676,"보유":13677,"일어나":13678,"소개":13679,"##일♬이":13680,"니♬들":13681,"자주":13682,"너희":13683,"##지역":13684,"##단체":13685,"##점♬이":13686,"가정":13687,"심각":13688,"통신":13689,"느껴":13690,"##원♬은":13691,"비용":13692,"그거":13693,"그♬가":13694,"##개월":13695,"##지♬에":13696,"예산":13697,"모델":13698,"인상":13699,"논란":13700,"##이크":13701,"아니냐":13702,"##겠습니다":13703,"이젠":13704,"증거":13705,"##위♬에":13706,"사장":13707,"##♬쯤":13708,"##관계":13709,"있게":13710,"내부":13711,"##수있":13712,"##인트":13713,"진실":13714,"협력":13715,"수입":13716,"어려운":13717,"되지":13718,"보통":13719,"##겠다는":13720,"빠져":13721,"독립":13722,"점점":13723,"센터":13724,"싶다":13725,"트럼프":13726,"방향":13727,"연결":13728,"##어버":13729,"장애":13730,"돈♬을":13731,"음식":13732,"최종":13733,"##시민":13734,"선보":13735,"안나":13736,"##림픽":13737,"##인♬들":13738,"변호":13739,"자료":13740,"##♬으로써":13741,"작은":13742,"##♬율":13743,"불구":13744,"증권":13745,"회복":13746,"맞는":13747,"인권":13748,"주제":13749,"쉽게":13750,"사무":13751,"##대♬에":13752,"거짓말":13753,"공연":13754,"감정":13755,"애♬들":13756,"감소":13757,"당연히":13758,"##레스":13759,"전투":13760,"두고":13761,"##금♬을":13762,"없을":13763,"실패":13764,"고통":13765,"담당":13766,"##잖아요":13767,"대화":13768,"나라♬를":13769,"형태":13770,"올려":13771,"누군":13772,"그려":13773,"##어들":13774,"승리":13775,"202":13776,"29":13777,"여전히":13778,"##영♬이":13779,"다♬들":13780,"신청":13781,"##대♬가":13782,"대선":13783,"이래":13784,"행정":13785,"미리":13786,"제목":13787,"전자":13788,"##하거나":13789,"한심":13790,"♬님":13791,"##일♬을":13792,"출시":13793,"청년":13794,"국민♬의":13795,"방안":13796,"##임♬을":13797,"##가♬를":13798,"##운드":13799,"##할때":13800,"개념":13801,"도와":13802,"주고":13803,"단계":13804,"지금♬까지":13805,"김정은":13806,"대출":13807,"무능":13808,"감동":13809,"##냈다":13810,"마을":13811,"♬형":13812,"##물♬이":13813,"추천":13814,"때♬는":13815,"시켜":13816,"아내":13817,"##디오":13818,"위원회":13819,"##머리":13820,"##되었":13821,"##여서":13822,"##4년":13823,"공공":13824,"##2년":13825,"더불어":13826,"들고":13827,"사례":13828,"업계":13829,"있도록":13830,"본격":13831,"니♬들♬이":13832,"플레이":13833,"자본":13834,"불러":13835,"##프로":13836,"개돼지":13837,"러시아":13838,"의혹":13839,"##♬로♬는":13840,"##♬하고":13841,"마찬":13842,"않아":13843,"진출":13844,"관한":13845,"오는":13846,"1년":13847,"주목":13848,"정부♬가":13849,"국정":13850,"##♬으로♬는":13851,"##이드":13852,"노조":13853,"말하는":13854,"스트":13855,"##수♬의":13856,"포기":13857,"제기":13858,"##조사":13859,"소득":13860,"국민♬이":13861,"자꾸":13862,"힘♬을":13863,"모양":13864,"배댓":13865,"있기":13866,"나온다":13867,"재판":13868,"그럴":13869,"좋다":13870,"조정":13871,"타이":13872,"좌빨":13873,"일으":13874,"싫어":13875,"가짜":13876,"전개":13877,"수도":13878,"##위원회":13879,"당장":13880,"이기":13881,"강남":13882,"합의":13883,"지급":13884,"##서♬를":13885,"차량":13886,"##작가":13887,"위기":13888,"발언":13889,"##♬들♬에":13890,"수요":13891,"교회":13892,"그나":13893,"70":13894,"개최":13895,"지금♬은":13896,"관계자♬는":13897,"자체♬가":13898,"이끌":13899,"아침":13900,"##♬로부터":13901,"전환":13902,"나타나":13903,"참가":13904,"하기":13905,"못하":13906,"##경제":13907,"전기":13908,"##했다는":13909,"제주":13910,"사실♬을":13911,"##그룹":13912,"##일보":13913,"살인":13914,"##♬별":13915,"없었":13916,"마찬가지":13917,"혐의":13918,"인도":13919,"조용":13920,"응원":13921,"국민♬을":13922,"바꾸":13923,"국민♬들♬이":13924,"##대♬의":13925,"고용":13926,"조성":13927,"교통":13928,"대형":13929,"불쌍":13930,"##3년":13931,"좋아하는":13932,"외국인":13933,"##두고":13934,"저거":13935,"코스":13936,"촬영":13937,"필요한":13938,"하락":13939,"##깨문":13940,"자산":13941,"##♬과♬의":13942,"31":13943,"##센터":13944,"##부♬는":13945,"공정":13946,"상관":13947,"파악":13948,"##시면":13949,"시리즈":13950,"받아들":13951,"##져서":13952,"##기관":13953,"##든지":13954,"시간♬이":13955,"오랜":13956,"만드는":13957,"이야기♬를":13958,"##체♬가":13959,"##마디":13960,"유일":13961,"부탁":13962,"매일":13963,"##움♬을":13964,"##등학교":13965,"##세♬를":13966,"조건":13967,"자격":13968,"아시아":13969,"##하였":13970,"전달":13971,"프리":13972,"##라리":13973,"기획":13974,"##부♬가":13975,"##건지":13976,"예술":13977,"기반":13978,"할머니":13979,"##민주":13980,"##♬와♬의":13981,"연출":13982,"온라인":13983,"이유♬가":13984,"힘든":13985,"환자":13986,"##부♬를":13987,"지하":13988,"초반":13989,"민족":13990,"유리":13991,"혹은":13992,"##장♬에서":13993,"##♬꾼":13994,"##도♬로":13995,"확진":13996,"##심♬을":13997,"진보":13998,"인기":13999,"평생":14000,"##장♬에":14001,"##스코":14002,"##원♬의":14003,"독재":14004,"##고있":14005,"대중":14006,"##식♬이":14007,"##식♬으로":14008,"##는거지":14009,"##란다":14010,"##리기":14011,"##하세요":14012,"재앙":14013,"받는":14014,"우승":14015,"##어라":14016,"충분히":14017,"것이라고":14018,"논의":14019,"동생":14020,"불과":14021,"##♬조차":14022,"자랑":14023,"##산업":14024,"아예":14025,"이사":14026,"##다운":14027,"그러면":14028,"성과":14029,"펀드":14030,"법무":14031,"참고":14032,"제한":14033,"##반기":14034,"##♬들♬만":14035,"그저":14036,"##뉴스":14037,"동시♬에":14038,"종합":14039,"##함♬을":14040,"##르게":14041,"대통령♬이":14042,"하며":14043,"연합":14044,"영어":14045,"♬별":14046,"##리♬에":14047,"##것♬이":14048,"없다는":14049,"경우♬가":14050,"이걸":14051,"구축":14052,"동물":14053,"##만한":14054,"차이":14055,"##지어":14056,"##아버":14057,"이라":14058,"##하기♬도":14059,"받을":14060,"하자":14061,"세월호":14062,"##♬라고":14063,"으며":14064,"분량":14065,"인수":14066,"했던":14067,"##소♬를":14068,"성적":14069,"전통":14070,"가입":14071,"이때":14072,"실적":14073,"쓰는":14074,"조치":14075,"##기♬의":14076,"##리♬의":14077,"어디♬서":14078,"받았":14079,"##분♬에":14080,"거나":14081,"말♬도":14082,"##1년":14083,"훈련":14084,"##시킨":14085,"##많은":14086,"관객":14087,"재산":14088,"##감♬이":14089,"보여주":14090,"저♬도":14091,"완전히":14092,"해석":14093,"##가♬가":14094,"좋겠다":14095,"지난달":14096,"나머":14097,"이유♬는":14098,"500":14099,"행위":14100,"##봐야":14101,"비난":14102,"##느냐":14103,"단지":14104,"없다고":14105,"안되는":14106,"##습니까":14107,"##♬이♬가":14108,"건물":14109,"그랬":14110,"생각하는":14111,"취업":14112,"##스러운":14113,"##던가":14114,"베뎃":14115,"됐다":14116,"배경":14117,"요청":14118,"구매":14119,"됩니다":14120,"별로":14121,"##장♬의":14122,"주로":14123,"198":14124,"최저":14125,"해주":14126,"##우고":14127,"금지":14128,"대깨문":14129,"##해보":14130,"반영":14131,"##개♬를":14132,"2년":14133,"가르":14134,"서민":14135,"약간":14136,"신문":14137,"입국":14138,"##♬만큼":14139,"자살":14140,"♬마":14141,"♬률":14142,"시도":14143,"자신♬을":14144,"철저":14145,"끌어":14146,"##것같":14147,"##아가":14148,"생긴":14149,"##였던":14150,"복지":14151,"##비♬를":14152,"개정":14153,"검토":14154,"화장":14155,"설립":14156,"특징":14157,"##시키는":14158,"과연":14159,"프랑스":14160,"수상":14161,"있었던":14162,"설정":14163,"##들고":14164,"##인거":14165,"굉장":14166,"돌아가":14167,"황교":14168,"일자리":14169,"구체":14170,"##회사":14171,"##대♬로":14172,"대변":14173,"차례":14174,"강제":14175,"##지말고":14176,"약속":14177,"##어지":14178,"##장관":14179,"않다":14180,"##이든":14181,"목소리":14182,"이명":14183,"봐도":14184,"남아":14185,"규제":14186,"연속":14187,"상당히":14188,"##가락":14189,"차별":14190,"##구♬가":14191,"어린이":14192,"##무리":14193,"##씨♬는":14194,"##리오":14195,"신뢰":14196,"##일♬에":14197,"80":14198,"집♬에":14199,"보이는":14200,"선발":14201,"##겠냐":14202,"남북":14203,"강한":14204,"일정":14205,"혁신":14206,"그건":14207,"생명":14208,"애초":14209,"혹시":14210,"장난":14211,"인지":14212,"##자♬들♬은":14213,"가만":14214,"##♬적이고":14215,"부문":14216,"홍보":14217,"##한게":14218,"##서♬는":14219,"불편":14220,"##당♬은":14221,"지♬들":14222,"토착":14223,"달려":14224,"##이죠":14225,"##웹툰":14226,"##롭게":14227,"상처":14228,"##♬끼리":14229,"생겼":14230,"정리":14231,"##시키고":14232,"속♬에서":14233,"나무":14234,"민간":14235,"##문화":14236,"쓰고":14237,"하는거":14238,"##스럽게":14239,"귀여":14240,"모르고":14241,"갈등":14242,"##차피":14243,"하게":14244,"끝♬까지":14245,"마음♬을":14246,"차라리":14247,"있으니":14248,"##한다면":14249,"피해자":14250,"멤버":14251,"근무":14252,"의심":14253,"부르":14254,"하이":14255,"##드♬를":14256,"평소":14257,"올리":14258,"통일":14259,"보다":14260,"전라도":14261,"덧붙":14262,"오빠":14263,"사상":14264,"상상":14265,"##예요":14266,"##구♬를":14267,"##나게":14268,"##겁니다":14269,"노무":14270,"##랐다":14271,"##체♬를":14272,"죽은":14273,"역할♬을":14274,"올림픽":14275,"##♬론":14276,"##♬과♬는":14277,"싸움":14278,"소비자":14279,"##가요":14280,"미사":14281,"번♬째":14282,"통과":14283,"적♬이":14284,"작년":14285,"##페이지":14286,"##려야":14287,"내놓":14288,"눈♬에":14289,"알바":14290,"어차피":14291,"없애":14292,"목숨":14293,"저희":14294,"위원장":14295,"수행":14296,"직업":14297,"벌써":14298,"위♬에":14299,"거지":14300,"공장":14301,"##놈♬들":14302,"인터뷰":14303,"도로":14304,"눈치":14305,"분위기":14306,"연예":14307,"##원♬에":14308,"대사":14309,"##주♬가":14310,"아무♬도":14311,"는다":14312,"재미있":14313,"연재":14314,"지지율":14315,"군사":14316,"것♬처럼":14317,"##계♬를":14318,"##같은데":14319,"##투자":14320,"가능♬성♬이":14321,"애니":14322,"역대":14323,"듣고":14324,"물어":14325,"있음":14326,"아닙":14327,"영화♬는":14328,"##가지고":14329,"있어야":14330,"분노":14331,"한마디":14332,"사람♬의":14333,"최고♬의":14334,"##♬에서♬의":14335,"희생":14336,"규정":14337,"항공":14338,"그린":14339,"3년":14340,"##프트":14341,"##싶다":14342,"##인줄":14343,"##대통령":14344,"##하려고":14345,"살고":14346,"##er":14347,"##아라":14348,"미세":14349,"##위♬가":14350,"이르":14351,"놓고":14352,"##도♬는":14353,"이해♬가":14354,"##국가":14355,"♬계":14356,"##인♬들♬이":14357,"자기♬가":14358,"##먹는":14359,"타고":14360,"##개발":14361,"거부":14362,"확산":14363,"비중":14364,"국방":14365,"굉장히":14366,"##쳤다":14367,"본다":14368,"중소기업":14369,"문제♬는":14370,"제안":14371,"##♬만♬이":14372,"##♬에♬만":14373,"300":14374,"##♬다":14375,"죽음":14376,"모습♬이":14377,"많아":14378,"충격":14379,"어쩔":14380,"##지원":14381,"##분♬이":14382,"심지어":14383,"무기":14384,"알게":14385,"♬째":14386,"확정":14387,"근거":14388,"자한♬당":14389,"##하려":14390,"일상":14391,"우주":14392,"##♬에게♬는":14393,"##드립":14394,"##지♬로":14395,"전해":14396,"##것♬을":14397,"##비♬가":14398,"공사":14399,"##이♬의":14400,"지배":14401,"고양":14402,"중♬에":14403,"##어♬를":14404,"그러니까":14405,"##바로":14406,"##50":14407,"여름":14408,"못할":14409,"이명박":14410,"비슷한":14411,"다행":14412,"엄청난":14413,"그림체":14414,"이라는":14415,"늘어":14416,"##사고":14417,"니♬네":14418,"민주주의":14419,"##할수":14420,"##신♬이":14421,"똑같":14422,"##정책":14423,"기념":14424,"어서":14425,"이재":14426,"##나는":14427,"적폐":14428,"10년":14429,"##랍니다":14430,"마이":14431,"질문":14432,"##리게":14433,"아쉬":14434,"##당한":14435,"##도♬의":14436,"영향♬을":14437,"고생":14438,"중간":14439,"시점":14440,"##국♬의":14441,"촛불":14442,"게다가":14443,"4월":14444,"부끄":14445,"공포":14446,"포인트":14447,"##셔서":14448,"나♬만":14449,"예전":14450,"##관리":14451,"근로":14452,"그나마":14453,"생기":14454,"보면서":14455,"분양":14456,"향후":14457,"말♬은":14458,"자녀":14459,"##봐도":14460,"앞♬에":14461,"♬서":14462,"혜택":14463,"우리♬의":14464,"것입니다":14465,"이곳":14466,"있다면":14467,"신규":14468,"특수":14469,"맨날":14470,"졸업":14471,"오르":14472,"임명":14473,"후반":14474,"스포츠":14475,"통한":14476,"에너지":14477,"청소년":14478,"없어서":14479,"비율":14480,"##리카":14481,"완벽":14482,"야당":14483,"제조":14484,"전시":14485,"만족":14486,"바꿔":14487,"새로":14488,"동일":14489,"##개혁":14490,"이제♬는":14491,"저지":14492,"##법♬을":14493,"당선":14494,"수♬밖에":14495,"##보기":14496,"눈물":14497,"뛰어":14498,"못했":14499,"옛날":14500,"된다고":14501,"나누":14502,"방침":14503,"♬용":14504,"마음♬이":14505,"액션":14506,"물건":14507,"등록":14508,"지식":14509,"##기술":14510,"정부♬는":14511,"##나오":14512,"♬두":14513,"안♬에":14514,"속♬에":14515,"등♬에":14516,"##위♬로":14517,"직장":14518,"완성":14519,"##아닌":14520,"노무현":14521,"주도":14522,"##은거":14523,"바탕":14524,"가득":14525,"신용":14526,"##시지":14527,"독자":14528,"판결":14529,"바보":14530,"우수":14531,"##져야":14532,"##자고":14533,"없는데":14534,"레이":14535,"##하다가":14536,"##세대":14537,"중단":14538,"돌려":14539,"있나":14540,"##심♬이":14541,"진정":14542,"##원♬에서":14543,"1000":14544,"임금":14545,"했지만":14546,"##씨♬가":14547,"##우스":14548,"축구":14549,"전반":14550,"난리":14551,"연애":14552,"특정":14553,"겁니다":14554,"보장":14555,"데이터":14556,"유통":14557,"슈퍼":14558,"표정":14559,"무섭":14560,"아닌데":14561,"겨울":14562,"##시대":14563,"경기도":14564,"##텐츠":14565,"##것♬들":14566,"저러":14567,"기초":14568,"시기":14569,"돼지":14570,"맞춰":14571,"가면":14572,"##하신":14573,"접근":14574,"##문제":14575,"불구하고":14576,"문제♬를":14577,"##해야지":14578,"논리":14579,"몰아":14580,"예정이다":14581,"잠시":14582,"##다른":14583,"따로":14584,"있어요":14585,"같아요":14586,"##것이다":14587,"나머지":14588,"월드":14589,"선물":14590,"##우는":14591,"분기":14592,"##활동":14593,"마무리":14594,"##가면":14595,"##거운":14596,"형성":14597,"거쳐":14598,"벌어":14599,"존나":14600,"리그":14601,"##선거":14602,"밝히":14603,"윤석":14604,"##기♬만":14605,"현지":14606,"공주":14607,"##행♬을":14608,"##진♬이":14609,"##았는데":14610,"매력":14611,"시간♬을":14612,"앞♬에서":14613,"수술":14614,"조합":14615,"##업체":14616,"##퓨터":14617,"##았던":14618,"##하라고":14619,"90":14620,"##받는":14621,"인구":14622,"바다":14623,"##♬제":14624,"협상":14625,"3월":14626,"소유":14627,"모자":14628,"굳이":14629,"봐야":14630,"기부":14631,"재정":14632,"##시설":14633,"이루어":14634,"##것♬은":14635,"내일":14636,"영화♬가":14637,"##가족":14638,"##사♬에":14639,"멍청":14640,"##해진":14641,"위안":14642,"##환경":14643,"##겠죠":14644,"##수♬로":14645,"##회♬를":14646,"나♬의":14647,"##신♬을":14648,"활성":14649,"제출":14650,"인한":14651,"나경":14652,"##연구":14653,"##인간":14654,"##지♬의":14655,"##됩니다":14656,"##스러":14657,"반복":14658,"##석♬이":14659,"변경":14660,"세대":14661,"것♬에":14662,"현상":14663,"디지":14664,"##드♬가":14665,"##이기♬도":14666,"인간♬이":14667,"뒤♬에":14668,"대전":14669,"비밀":14670,"노인":14671,"개봉":14672,"달창":14673,"시각":14674,"##10":14675,"만들고":14676,"있네":14677,"똑같은":14678,"일베":14679,"##는거야":14680,"6월":14681,"##치♬가":14682,"지정":14683,"##0년대":14684,"위협":14685,"##걸로":14686,"♬제":14687,"체험":14688,"KBS":14689,"##려라":14690,"원칙":14691,"##가♬는":14692,"결론":14693,"##증권":14694,"답답":14695,"도전":14696,"일제":14697,"협의":14698,"살펴":14699,"미안":14700,"##사♬로":14701,"개월":14702,"##온다":14703,"##트♬가":14704,"이상한":14705,"원인":14706,"으면":14707,"않으면":14708,"##케팅":14709,"그것♬도":14710,"5월":14711,"사전":14712,"그러니":14713,"월급":14714,"##분♬들":14715,"동네":14716,"임대":14717,"##마라":14718,"된다는":14719,"##보자":14720,"악플":14721,"지분":14722,"사법":14723,"일본♬이":14724,"나♬를":14725,"둘러":14726,"대박":14727,"##방송":14728,"믿고":14729,"일어":14730,"##♬권♬을":14731,"가능한":14732,"집안":14733,"호텔":14734,"디자인":14735,"##니스":14736,"베트":14737,"##거같":14738,"서울시":14739,"꾸준":14740,"저기":14741,"어른":14742,"만드":14743,"무대":14744,"그♬들♬의":14745,"반성":14746,"프로젝":14747,"가구":14748,"##거든요":14749,"손♬을":14750,"황교안":14751,"선언":14752,"##리어":14753,"##이익":14754,"달성":14755,"##하려는":14756,"수♬는":14757,"##도♬에":14758,"폭력":14759,"안하고":14760,"토론":14761,"##했습니다":14762,"애초♬에":14763,"선진":14764,"대기업":14765,"그♬를":14766,"박정":14767,"경북":14768,"와서":14769,"##없고":14770,"##♬께서":14771,"하시":14772,"##개♬의":14773,"의식":14774,"삼성전자":14775,"투입":14776,"관심♬을":14777,"컴퓨터":14778,"##왜구":14779,"정주":14780,"##♬만♬으로":14781,"♬생":14782,"초기":14783,"##리그":14784,"미세먼":14785,"계열":14786,"창업":14787,"##♬와♬는":14788,"시작했다":14789,"이름♬을":14790,"골프":14791,"##주♬를":14792,"인간♬의":14793,"금리":14794,"##부♬의":14795,"##단♬을":14796,"##일까":14797,"못했다":14798,"총리":14799,"사회♬적":14800,"##느라":14801,"##줘야":14802,"##약♬을":14803,"지랄":14804,"하나님":14805,"태양":14806,"##만화":14807,"##지요":14808,"마라":14809,"돈♬이":14810,"버스":14811,"파괴":14812,"눈♬을":14813,"일♬은":14814,"##아지":14815,"보였":14816,"진정한":14817,"9월":14818,"##20":14819,"##국♬에":14820,"짜증":14821,"나름":14822,"##사건":14823,"##나서":14824,"보상":14825,"비행":14826,"측면":14827,"어울":14828,"##장♬으로":14829,"MBC":14830,"마법":14831,"10월":14832,"##♬인":14833,"세력":14834,"##도시":14835,"등♬으로":14836,"35":14837,"원하는":14838,"##국♬이":14839,"바이러스":14840,"아무것♬도":14841,"최악":14842,"예방":14843,"##♬들♬한테":14844,"공유":14845,"말해":14846,"12월":14847,"이미지":14848,"##메라":14849,"채용":14850,"구분":14851,"절차":14852,"##었다고":14853,"잘생":14854,"도망":14855,"불가능":14856,"늘어나":14857,"##♬같이":14858,"블랙":14859,"##거라":14860,"사퇴":14861,"요소":14862,"공수":14863,"되는데":14864,"7월":14865,"♬엔":14866,"만♬에":14867,"벗어나":14868,"##주♬의":14869,"드디어":14870,"##적♬이":14871,"심리":14872,"발행":14873,"상황♬에서":14874,"무역":14875,"서울대":14876,"미치":14877,"하네":14878,"##조선":14879,"받았다":14880,"베트남":14881,"##♬감":14882,"울산":14883,"싫어요":14884,"##짜리":14885,"수업":14886,"운용":14887,"##in":14888,"어제":14889,"무너":14890,"하나♬의":14891,"외모":14892,"##학년":14893,"운전":14894,"##는가":14895,"취급":14896,"대우":14897,"못해":14898,"##시켰":14899,"택시":14900,"다소":14901,"보였다":14902,"맞아":14903,"조심":14904,"##아이":14905,"지♬가":14906,"##민♬이":14907,"중국인":14908,"크리스":14909,"그만큼":14910,"긴장":14911,"흔들":14912,"동료":14913,"##웠다":14914,"##마자":14915,"##래도":14916,"뭐냐":14917,"너무나":14918,"빠른":14919,"##말♬이":14920,"바닥":14921,"##이었던":14922,"온갖":14923,"여기♬에":14924,"스마트폰":14925,"한반":14926,"심판":14927,"의무":14928,"이벤":14929,"무리":14930,"한국인":14931,"같습니다":14932,"그렇지":14933,"없습니다":14934,"##이에요":14935,"하나♬도":14936,"없음":14937,"##부♬에":14938,"##하도록":14939,"귀엽":14940,"##명♬은":14941,"아나":14942,"있는지":14943,"말아":14944,"##있는데":14945,"스타일":14946,"##있고":14947,"리더":14948,"##♬으로부터":14949,"그것♬은":14950,"긍정":14951,"소녀":14952,"놀라":14953,"##보단":14954,"마케팅":14955,"8월":14956,"나섰":14957,"##이♬에":14958,"특성":14959,"너♬네":14960,"여자♬가":14961,"쿠키":14962,"향해":14963,"노동자":14964,"##위♬는":14965,"이♬와":14966,"동원":14967,"소통":14968,"##받은":14969,"아니라고":14970,"하니":14971,"문죄":14972,"회원":14973,"##30":14974,"그♬들♬은":14975,"주가":14976,"1월":14977,"거야":14978,"것♬과":14979,"왔다":14980,"##바일":14981,"##되면서":14982,"정작":14983,"미사일":14984,"##수준":14985,"이번♬에":14986,"변호사":14987,"##하니까":14988,"는지":14989,"##말로":14990,"방어":14991,"##이팅":14992,"KT":14993,"필요♬가":14994,"영웅":14995,"경남":14996,"확실히":14997,"효율":14998,"흐름":14999,"인제":15000,"똑같이":15001,"않을까":15002,"##주시":15003,"이하":15004,"그녀♬의":15005,"펼쳐":15006,"담배":15007,"휴대":15008,"페미":15009,"##친구":15010,"아닐까":15011,"##하셨":15012,"브라":15013,"단어":15014,"메이":15015,"풀어":15016,"전년":15017,"선생♬님":15018,"실험":15019,"출발":15020,"저녁":15021,"000":15022,"과정♬에서":15023,"##만큼":15024,"##관♬이":15025,"이성":15026,"대답":15027,"본부":15028,"금액":15029,"무식":15030,"##그러":15031,"극복":15032,"자원":15033,"##겠네요":15034,"데뷔":15035,"##주면":15036,"##경기":15037,"당신♬이":15038,"문재인♬이":15039,"손해":15040,"친일파":15041,"생각하고":15042,"준다":15043,"체계":15044,"라면":15045,"사회주의":15046,"부인":15047,"♬율":15048,"##사람♬이":15049,"##이네요":15050,"무료":15051,"##♬까지♬는":15052,"##세♬가":15053,"불리":15054,"영역":15055,"##하네요":15056,"스페":15057,"##시오":15058,"봤는데":15059,"같아":15060,"절반":15061,"##안♬을":15062,"남♬의":15063,"##♬보고":15064,"고소":15065,"##부모":15066,"아까":15067,"보니까":15068,"있었는데":15069,"소름":15070,"전했":15071,"내용♬이":15072,"그것♬을":15073,"이리":15074,"수많은":15075,"##선♬이":15076,"수십":15077,"##on":15078,"##달라고":15079,"물러":15080,"토착왜구":15081,"장소":15082,"남녀":15083,"내용♬을":15084,"덕분♬에":15085,"##간♬의":15086,"적절":15087,"모바일":15088,"헌법":15089,"가고":15090,"대상♬으로":15091,"죽을":15092,"디지털":15093,"악마":15094,"동의":15095,"사형":15096,"아냐":15097,"위반":15098,"이탈":15099,"##한국":15100,"높이":15101,"폭발":15102,"##인듯":15103,"몰랐":15104,"가까운":15105,"지금♬도":15106,"##규모":15107,"매년":15108,"위해서♬는":15109,"교사":15110,"집회":15111,"더러운":15112,"##라스":15113,"상황♬이":15114,"먹는":15115,"문학":15116,"몸♬을":15117,"다이":15118,"안된다":15119,"##나고":15120,"법무부":15121,"않게":15122,"집행":15123,"영원":15124,"두려":15125,"##력♬은":15126,"사람♬도":15127,"말♬로":15128,"그녀♬는":15129,"나선":15130,"언어":15131,"허용":15132,"##겼다":15133,"자극":15134,"##보네":15135,"##해지":15136,"197":15137,"따뜻":15138,"##이♬로":15139,"##미♬가":15140,"한국♬의":15141,"통화":15142,"깨끗":15143,"##니아":15144,"대가리":15145,"테러":15146,"##자♬와":15147,"원작":15148,"조용히":15149,"##우♬가":15150,"정치인":15151,"외부":15152,"전형":15153,"##전♬이":15154,"매각":15155,"이유♬로":15156,"##때♬는":15157,"유튜":15158,"실망":15159,"본인♬이":15160,"##자♬들♬의":15161,"양심":15162,"##독교":15163,"드립":15164,"가만히":15165,"미국♬의":15166,"너♬는":15167,"작용":15168,"잘못된":15169,"여당":15170,"도움♬이":15171,"##♬마저":15172,"##♬만♬을":15173,"보건":15174,"사실상":15175,"##자♬에":15176,"검색":15177,"대해서♬는":15178,"2월":15179,"2차":15180,"##문♬이":15181,"그것♬이":15182,"말♬에":15183,"##군♬이":15184,"##받아":15185,"인증":15186,"아름다운":15187,"영화♬의":15188,"2000":15189,"강원":15190,"가수":15191,"언니":15192,"##량♬이":15193,"인근":15194,"##스토":15195,"채권":15196,"##단♬이":15197,"싶어":15198,"일주":15199,"누리":15200,"예고":15201,"##림♬이":15202,"##었을":15203,"모아":15204,"처음♬으로":15205,"아닙니다":15206,"소송":15207,"웃음":15208,"##잡고":15209,"별점":15210,"연금":15211,"11월":15212,"높아":15213,"설명했다":15214,"##정보":15215,"##거래":15216,"수호":15217,"부여":15218,"연장":15219,"프레":15220,"하던":15221,"##이였":15222,"전용":15223,"방역":15224,"유니":15225,"##하러":15226,"인데":15227,"명예":15228,"홍콩":15229,"커피":15230,"##했으면":15231,"하는게":15232,"종목":15233,"비리":15234,"내리":15235,"통해서":15236,"건축":15237,"눈♬이":15238,"##면서♬도":15239,"사항":15240,"##기사":15241,"나눠":15242,"바랍니다":15243,"정부♬의":15244,"기여":15245,"놈♬들":15246,"일본♬의":15247,"일본♬은":15248,"사이♬에":15249,"##카드":15250,"들여":15251,"이럴":15252,"콘텐츠":15253,"프로젝트":15254,"체제":15255,"수용":15256,"##플레이":15257,"추정":15258,"도착":15259,"아동":15260,"구입":15261,"있을까":15262,"체결":15263,"총장":15264,"##화♬가":15265,"공수처":15266,"##겠어요":15267,"##관♬을":15268,"폐지":15269,"들어오":15270,"예♬를":15271,"주말":15272,"정규":15273,"인력":15274,"중심♬으로":15275,"순수":15276,"부모♬님":15277,"앉아":15278,"##시킬":15279,"훌륭":15280,"의한":15281,"시위":15282,"##하는건":15283,"이상♬의":15284,"걸어":15285,"##조작":15286,"##돌아":15287,"##an":15288,"계산":15289,"작성":15290,"상징":15291,"##보험":15292,"우한":15293,"떠올":15294,"이나라":15295,"##♬루":15296,"진단":15297,"반도":15298,"##쳐서":15299,"##나무":15300,"지시":15301,"낮은":15302,"수정":15303,"##대는":15304,"제2":15305,"식품":15306,"뒤집":15307,"##건설":15308,"애플":15309,"축하":15310,"##사♬와":15311,"소중":15312,"카메라":15313,"점♬을":15314,"보지":15315,"국민♬들♬은":15316,"정치♬적":15317,"잡고":15318,"설계":15319,"피부":15320,"가끔":15321,"통제":15322,"흘러":15323,"신♬의":15324,"##나♬는":15325,"##이니까":15326,"냄새":15327,"##하기♬로":15328,"##량♬을":15329,"팩트":15330,"보이지":15331,"##리티":15332,"##으려고":15333,"해야지":15334,"기계":15335,"배치":15336,"삶♬을":15337,"5년":15338,"다면서":15339,"감옥":15340,"힘♬이":15341,"좋았":15342,"##쓰고":15343,"36":15344,"##영업":15345,"##주택":15346,"나와서":15347,"집♬에서":15348,"왠지":15349,"##있어":15350,"상담":15351,"뉴욕":15352,"##진짜":15353,"간다":15354,"부부":15355,"케이":15356,"##했으며":15357,"감안":15358,"##실♬을":15359,"상황♬을":15360,"남자♬가":15361,"마음♬에":15362,"##길래":15363,"##한건":15364,"##대♬는":15365,"##전♬에서":15366,"한나라":15367,"뭐라":15368,"##위해":15369,"합리":15370,"생존":15371,"##속♬에":15372,"내내":15373,"맞추":15374,"어떠":15375,"언제나":15376,"에이":15377,"있냐":15378,"평범":15379,"연락":15380,"45":15381,"봐라":15382,"회담":15383,"시원":15384,"##누리":15385,"나타났":15386,"없네":15387,"스킬":15388,"만난":15389,"후♬에":15390,"이중":15391,"51":15392,"다면":15393,"##리스트":15394,"##리며":15395,"자한당":15396,"예측":15397,"글♬을":15398,"법률":15399,"##가♬의":15400,"보자":15401,"억울":15402,"실천":15403,"법인":15404,"전했다":15405,"어이":15406,"##시♬가":15407,"##바리":15408,"백신":15409,"봉사":15410,"##세기":15411,"새벽":15412,"전세계":15413,"반일":15414,"나갈":15415,"##버린":15416,"##함♬이":15417,"##라니":15418,"다녀":15419,"비상":15420,"##려나":15421,"심사":15422,"##길♬을":15423,"교체":15424,"##놓은":15425,"정체":15426,"뭐야":15427,"##질♬을":15428,"매국":15429,"안타깝":15430,"##티브":15431,"##로♬를":15432,"##상♬에":15433,"♬씩":15434,"##이라니":15435,"##었지만":15436,"##드♬의":15437,"##라지":15438,"개그":15439,"##점♬은":15440,"화려":15441,"##말♬을":15442,"모른다":15443,"세상♬에":15444,"대처":15445,"이♬들♬은":15446,"밀어":15447,"자리♬를":15448,"##료♬를":15449,"흥미":15450,"베이":15451,"길♬을":15452,"당국":15453,"##워크":15454,"우연":15455,"인재":15456,"인간♬들":15457,"쏟아":15458,"가게":15459,"##히는":15460,"떨어진":15461,"왜이":15462,"그렇다고":15463,"조국♬이":15464,"투쟁":15465,"웃기":15466,"여부":15467,"한다면":15468,"정주행":15469,"##안♬에":15470,"제1":15471,"비정":15472,"나쁘":15473,"할인":15474,"자아":15475,"##달러":15476,"스크":15477,"거기♬에":15478,"알아서":15479,"남은":15480,"있으":15481,"##경♬이":15482,"없지":15483,"야구":15484,"전날":15485,"학습":15486,"##원♬으로":15487,"집값":15488,"##것♬들♬이":15489,"데려":15490,"라인":15491,"##고♬를":15492,"관심♬이":15493,"불만":15494,"기울":15495,"정신차":15496,"최소한":15497,"대로":15498,"##하겠다":15499,"개소리":15500,"내세":15501,"사람♬들♬의":15502,"마지막♬에":15503,"예비":15504,"유시민":15505,"##본다":15506,"쓰러":15507,"장비":15508,"공산주의":15509,"##아치":15510,"꾸준히":15511,"화면":15512,"공모":15513,"##대학":15514,"##주♬는":15515,"한계":15516,"먹을":15517,"속도":15518,"##시길":15519,"말할":15520,"##사랑":15521,"##모리":15522,"패션":15523,"창조":15524,"고위":15525,"홈페이지":15526,"아니야":15527,"##금융":15528,"가능♬성":15529,"출전":15530,"편의":15531,"실질":15532,"생겨":15533,"박정희":15534,"아쉽":15535,"애♬들♬이":15536,"##금지":15537,"들어서":15538,"주문":15539,"미군":15540,"적어도":15541,"소리♬를":15542,"제거":15543,"이♬들":15544,"간단":15545,"1위":15546,"탄생":15547,"명령":15548,"공산당":15549,"말한다":15550,"정신병":15551,"이승":15552,"##댓글":15553,"이정도":15554,"최순":15555,"연습":15556,"##제품":15557,"##쪽♬으로":15558,"말한":15559,"지♬들♬이":15560,"##었습니다":15561,"##피소":15562,"검은":15563,"##일♬부터":15564,"상대♬로":15565,"##이♬들":15566,"윤석열":15567,"##되기":15568,"사이트":15569,"생각한다":15570,"원내":15571,"##놈♬이":15572,"좋을":15573,"설마":15574,"기독교":15575,"태극":15576,"##지기":15577,"##드♬는":15578,"아무런":15579,"반도체":15580,"##인가요":15581,"도덕":15582,"##하는지":15583,"##회의":15584,"부상":15585,"##로그":15586,"것♬들♬이":15587,"신기":15588,"기소":15589,"가해":15590,"공항":15591,"##사는":15592,"겨우":15593,"##리자":15594,"##격♬을":15595,"이른":15596,"창출":15597,"것♬들":15598,"이슈":15599,"생각합니다":15600,"나오고":15601,"##따라":15602,"제정":15603,"결코":15604,"카페":15605,"##임금":15606,"챙겨":15607,"##바이":15608,"##리♬로":15609,"##기간":15610,"##방♬에":15611,"무서운":15612,"보게":15613,"나왔다":15614,"옆♬에":15615,"안좋":15616,"##거면":15617,"##먹을":15618,"32":15619,"정은":15620,"입고":15621,"##하시는":15622,"전남":15623,"혼란":15624,"없으면":15625,"쇼핑":15626,"등등":15627,"대통령♬은":15628,"가까이":15629,"뻔뻔":15630,"사랑♬을":15631,"집권":15632,"강력한":15633,"실현":15634,"##지마라":15635,"상식":15636,"채널":15637,"체육":15638,"다루":15639,"이론":15640,"통계":15641,"소년":15642,"안돼":15643,"올랐":15644,"이혼":15645,"이벤트":15646,"의도":15647,"나오면":15648,"##소득":15649,"할아버":15650,"활약":15651,"##질♬이":15652,"##대회":15653,"수석":15654,"가야":15655,"알려졌":15656,"클럽":15657,"##소리♬를":15658,"##라♬가":15659,"유사":15660,"김영":15661,"모여":15662,"분명히":15663,"##야말로":15664,"보낸":15665,"다음♬화":15666,"##서관":15667,"##어야지":15668,"청문":15669,"##자체":15670,"##대가리":15671,"##진♬을":15672,"틀딱":15673,"떠오":15674,"##이라며":15675,"아저":15676,"##호♬가":15677,"SBS":15678,"근본":15679,"♬마다":15680,"더이상":15681,"계획이다":15682,"##항공":15683,"판사":15684,"주사":15685,"철학":15686,"##유♬의":15687,"취소":15688,"나경원":15689,"유튜브":15690,"##범죄":15691,"##기♬와":15692,"기타":15693,"안내":15694,"##친다":15695,"실력":15696,"불매":15697,"##메이션":15698,"##나가":15699,"2015년":15700,"물리":15701,"느낄":15702,"##점♬으로":15703,"오픈":15704,"억지":15705,"작가♬님♬이":15706,"못하게":15707,"##차♬를":15708,"간첩":15709,"죽여":15710,"압박":15711,"##들아":15712,"##남불":15713,"때♬마다":15714,"한화":15715,"앨범":15716,"않나":15717,"현금":15718,"##바닥":15719,"몰라":15720,"지상":15721,"가능하다":15722,"##까봐":15723,"소식":15724,"수학":15725,"##겠어":15726,"상장":15727,"##군♬의":15728,"칭찬":15729,"감성":15730,"방해":15731,"##구조":15732,"##분♬을":15733,"##진♬은":15734,"##경♬을":15735,"그♬들♬이":15736,"개입":15737,"##19":15738,"이외":15739,"미술":15740,"##거냐":15741,"인류":15742,"여주":15743,"##게임":15744,"끝내":15745,"애국":15746,"초딩":15747,"저번":15748,"잠깐":15749,"이용해":15750,"그곳":15751,"동시":15752,"지수":15753,"때려":15754,"##일♬까지":15755,"최대한":15756,"밑♬에":15757,"모두♬가":15758,"식♬으로":15759,"선배":15760,"피해♬를":15761,"등급":15762,"갖추":15763,"소환":15764,"이름♬이":15765,"##♬들♬로":15766,"추구":15767,"초등":15768,"##화점":15769,"##정치":15770,"오해":15771,"모른":15772,"##받을":15773,"광화":15774,"손가락":15775,"##상태":15776,"만한":15777,"미세먼지":15778,"2016년":15779,"관련된":15780,"리얼":15781,"가라":15782,"처음♬부터":15783,"##호♬를":15784,"출마":15785,"수수":15786,"##라우":15787,"확률":15788,"##평가":15789,"괴롭":15790,"전면":15791,"##던지":15792,"일부러":15793,"돌아오":15794,"##♬보다♬도":15795,"단순히":15796,"상위":15797,"동성":15798,"동아":15799,"##리트":15800,"수능":15801,"경우♬에♬는":15802,"이달":15803,"해소":15804,"아니지만":15805,"경우♬는":15806,"##거고":15807,"##♬짜리":15808,"뽑아":15809,"##회장":15810,"##TV":15811,"고백":15812,"##된다고":15813,"미디어":15814,"##♬님♬은":15815,"확장":15816,"당신♬은":15817,"복귀":15818,"빼고":15819,"##♬두":15820,"법원":15821,"##여자":15822,"##서♬가":15823,"분리":15824,"##럽게":15825,"##개♬가":15826,"아이템":15827,"##먹은":15828,"사람♬들♬을":15829,"장르":15830,"재밌게":15831,"없지만":15832,"어깨":15833,"국토":15834,"정도♬의":15835,"무한":15836,"키우":15837,"##기지":15838,"##라며":15839,"33":15840,"다를":15841,"##기에":15842,"##정♬은":15843,"살려":15844,"이것♬은":15845,"그리스":15846,"플랫":15847,"국무":15848,"##단다":15849,"##피스":15850,"##당히":15851,"##우♬는":15852,"주의":15853,"고향":15854,"증명":15855,"것이었다":15856,"안철":15857,"미국♬이":15858,"연계":15859,"아르":15860,"듯한":15861,"대부분♬의":15862,"196":15863,"##치게":15864,"##싶은":15865,"##인♬으로":15866,"34":15867,"##였는데":15868,"38":15869,"##종♬의":15870,"여유":15871,"##ar":15872,"다리":15873,"##없어":15874,"##♬화♬를":15875,"##♬보단":15876,"경쟁력":15877,"키워":15878,"많은데":15879,"청구":15880,"차이♬가":15881,"기생":15882,"감사합니다":15883,"에피소":15884,"팔아":15885,"보여주는":15886,"네트":15887,"##애♬들":15888,"하냐":15889,"전력":15890,"느낌♬이":15891,"니♬들♬은":15892,"정보♬를":15893,"진지":15894,"상호":15895,"오지":15896,"관람":15897,"느낀":15898,"평등":15899,"자전":15900,"종북":15901,"설득":15902,"오늘♬도":15903,"##치지":15904,"수원":15905,"거듭":15906,"##한번":15907,"##니깐":15908,"##주지":15909,"한국♬은":15910,"##든가":15911,"필요하다":15912,"저게":15913,"말이다":15914,"고발":15915,"##아니라":15916,"차단":15917,"##상♬은":15918,"왜냐":15919,"어려움":15920,"끝난":15921,"점♬에서":15922,"했고":15923,"##방♬을":15924,"과제":15925,"점검":15926,"아니지":15927,"##수수":15928,"모집":15929,"착각":15930,"수치":15931,"빠르":15932,"지옥":15933,"깊은":15934,"이웃":15935,"대놓고":15936,"정확히":15937,"한데":15938,"##상황":15939,"##복♬을":15940,"부품":15941,"한반도":15942,"박사":15943,"있었고":15944,"세상♬을":15945,"##거임":15946,"인공":15947,"99":15948,"갈수록":15949,"요리":15950,"바란다":15951,"영혼":15952,"갔다":15953,"##일♬은":15954,"2017년":15955,"##♬적이다":15956,"##로♬가":15957,"##되는데":15958,"대만":15959,"##♬층":15960,"##비아":15961,"커플":15962,"##로지":15963,"교과":15964,"##안♬이":15965,"참고♬로":15966,"진입":15967,"##or":15968,"힘내":15969,"##는거다":15970,"대변인":15971,"복잡":15972,"내고":15973,"##카오":15974,"청원":15975,"재난":15976,"##그리":15977,"##음♬이":15978,"##프라":15979,"##져라":15980,"♬한테":15981,"사실♬은":15982,"둘♬이":15983,"걸쳐":15984,"문빠":15985,"라헬":15986,"##버리":15987,"경우♬도":15988,"발사":15989,"떨어지":15990,"투자자":15991,"##적♬을":15992,"##시♬는":15993,"##어♬가":15994,"##긴다":15995,"##정♬에":15996,"반발":15997,"했으나":15998,"##♬자♬가":15999,"종류":16000,"겁나":16001,"때♬도":16002,"작가♬의":16003,"##뮤니":16004,"얼굴♬을":16005,"부활":16006,"뛰어난":16007,"국민♬은":16008,"성폭":16009,"찬성":16010,"바른":16011,"너♬도":16012,"매수":16013,"협박":16014,"##동생":16015,"북한♬이":16016,"공천":16017,"유도":16018,"물고":16019,"노출":16020,"빨간":16021,"대기":16022,"여야":16023,"분♬들":16024,"괜히":16025,"##이라서":16026,"##노총":16027,"보조":16028,"##터리":16029,"최강":16030,"5000":16031,"검증":16032,"1인":16033,"들었다":16034,"사귀":16035,"아이♬가":16036,"고등학교":16037,"성능":16038,"인가":16039,"했다고":16040,"지루":16041,"발휘":16042,"조선일보":16043,"##버스":16044,"그♬에":16045,"2014년":16046,"직후":16047,"완화":16048,"이란":16049,"착한":16050,"##보내":16051,"##배우":16052,"##히고":16053,"##가♬에":16054,"투기":16055,"배달":16056,"##있네":16057,"2018년":16058,"원전":16059,"00":16060,"후회":16061,"##사람♬들":16062,"##여행":16063,"가량":16064,"##드리":16065,"연구원":16066,"배뎃":16067,"필수":16068,"짱깨":16069,"##의식":16070,"생각하면":16071,"소방":16072,"것이라는":16073,"기회♬를":16074,"김대":16075,"할수":16076,"경상":16077,"줄어들":16078,"##장♬과":16079,"자영업":16080,"지휘":16081,"이지":16082,"화학":16083,"때♬까지":16084,"입학":16085,"한미":16086,"위안부":16087,"표시":16088,"협회":16089,"##그래":16090,"##때♬마다":16091,"고급":16092,"재무":16093,"아이디어":16094,"♬보고":16095,"몰려":16096,"##명♬으로":16097,"패배":16098,"죽어":16099,"유료":16100,"결제":16101,"투명":16102,"방사":16103,"##슬람":16104,"##직원":16105,"둘다":16106,"어야":16107,"##영상":16108,"멀리":16109,"##단♬의":16110,"했으며":16111,"##겠는데":16112,"인민":16113,"육성":16114,"KB":16115,"철저히":16116,"애니메이션":16117,"대다":16118,"둘째":16119,"##공사":16120,"손♬에":16121,"##되서":16122,"올린":16123,"##나면":16124,"##미터":16125,"답변":16126,"응답":16127,"최순실":16128,"내♬로":16129,"아닌가요":16130,"못한다":16131,"국립":16132,"중간♬에":16133,"그렇고":16134,"동기":16135,"멋진":16136,"비례":16137,"고정":16138,"##부대":16139,"##시절":16140,"어요":16141,"##줌마":16142,"##용♬이":16143,"연간":16144,"월드컵":16145,"이번♬화":16146,"배신":16147,"가을":16148,"제재":16149,"지하철":16150,"모르겠다":16151,"엄마♬가":16152,"돌파":16153,"거기♬서":16154,"##현♬이":16155,"법♬을":16156,"그러고":16157,"양성":16158,"다름":16159,"현대차":16160,"매장":16161,"##비♬는":16162,"좋지":16163,"보인":16164,"##♬란":16165,"자율":16166,"이런거":16167,"이것♬이":16168,"##피언":16169,"♬로부터":16170,"중국♬에":16171,"##었으면":16172,"부대":16173,"어릴":16174,"맞고":16175,"고마":16176,"##장면":16177,"##향♬이":16178,"순위":16179,"상황♬에":16180,"생각♬은":16181,"책임♬을":16182,"자존":16183,"탈출":16184,"날아":16185,"실업":16186,"##전♬의":16187,"얘기♬를":16188,"줄어":16189,"이탈리아":16190,"남한":16191,"##전쟁":16192,"스테":16193,"학원":16194,"옹호":16195,"##주♬에":16196,"조선족":16197,"이민":16198,"일본♬에":16199,"경고":16200,"균형":16201,"주지":16202,"2018":16203,"무려":16204,"파트":16205,"세종":16206,"자전거":16207,"##상♬의":16208,"노예":16209,"세워":16210,"##였고":16211,"##해주는":16212,"악화":16213,"대학생":16214,"감독♬은":16215,"##다시":16216,"단독":16217,"##함♬으로써":16218,"방지":16219,"##된다는":16220,"언젠":16221,"검찰개혁":16222,"상반기":16223,"아울":16224,"##NS":16225,"이야기♬가":16226,"보안":16227,"성인":16228,"식당":16229,"형사":16230,"의지":16231,"부분♬이":16232,"##스♬와":16233,"일찍":16234,"수단":16235,"헤어":16236,"그다":16237,"##소♬가":16238,"책♬을":16239,"##점♬에서":16240,"대법":16241,"##동♬을":16242,"것이고":16243,"올라가":16244,"누구♬나":16245,"분류":16246,"떨어져":16247,"동양":16248,"IT":16249,"##♬님♬의":16250,"신체":16251,"씨♬는":16252,"##렀다":16253,"마주":16254,"느꼈":16255,"능력♬을":16256,"개판":16257,"김성":16258,"마침":16259,"정신♬이":16260,"##았고":16261,"##미♬를":16262,"봅니다":16263,"보이고":16264,"##연♬이":16265,"청문회":16266,"대결":16267,"##더만":16268,"##자나":16269,"받지":16270,"넘는":16271,"수준♬이":16272,"텔레":16273,"동맹":16274,"배려":16275,"당사":16276,"존경":16277,"##스포":16278,"안♬에서":16279,"한명":16280,"삶♬의":16281,"얻어":16282,"털어":16283,"아웃":16284,"커뮤니":16285,"공약":16286,"한정":16287,"##데이":16288,"모를":16289,"기준♬으로":16290,"뒤♬로":16291,"##이던":16292,"##을텐데":16293,"##협회":16294,"입주":16295,"이다":16296,"##소리♬가":16297,"중인":16298,"##하지말고":16299,"페이스":16300,"##셔야":16301,"##스티":16302,"400":16303,"##년♬이":16304,"시나":16305,"유명한":16306,"들어간":16307,"##자산":16308,"##시♬를":16309,"도움♬을":16310,"데리고":16311,"새누리":16312,"##동♬이":16313,"마약":16314,"##♬으":16315,"비롯한":16316,"##연금":16317,"2012년":16318,"##세력":16319,
[...]
