<s>
<pad>
</s>
<unk>
<mask>
[UNK0]
[UNK1]
[UNK2]
[UNK3]
[UNK4]
[UNK5]
[UNK6]
[UNK7]
[UNK8]
[UNK9]
[unused0]
[unused1]
[unused2]
[unused3]
[unused4]
[unused5]
[unused6]
[unused7]
[unused8]
[unused9]
[unused10]
[unused11]
[unused12]
[unused13]
[unused14]
[unused15]
[unused16]
[unused17]
[unused18]
[unused19]
[unused20]
[unused21]
[unused22]
[unused23]
[unused24]
[unused25]
[unused26]
[unused27]
[unused28]
[unused29]
[unused30]
[unused31]
[unused32]
[unused33]
[unused34]
[unused35]
[unused36]
[unused37]
[unused38]
[unused39]
[unused40]
[unused41]
[unused42]
[unused43]
[unused44]
[unused45]
[unused46]
[unused47]
[unused48]
[unused49]
[unused50]
[unused51]
[unused52]
[unused53]
[unused54]
[unused55]
[unused56]
[unused57]
[unused58]
[unused59]
[unused60]
[unused61]
[unused62]
[unused63]
[unused64]
[unused65]
[unused66]
[unused67]
[unused68]
[unused69]
[unused70]
[unused71]
[unused72]
[unused73]
[unused74]
[unused75]
[unused76]
[unused77]
[unused78]
[unused79]
[unused80]
[unused81]
[unused82]
[unused83]
[unused84]
[unused85]
[unused86]
[unused87]
[unused88]
[unused89]
[unused90]
[unused91]
[unused92]
[unused93]
[unused94]
[unused95]
[unused96]
[unused97]
[unused98]
[unused99]
[unused100]
[unused101]
[unused102]
[unused103]
[unused104]
[unused105]
[unused106]
[unused107]
[unused108]
[unused109]
[unused110]
[unused111]
[unused112]
[unused113]
[unused114]
[unused115]
[unused116]
[unused117]
[unused118]
[unused119]
[unused120]
[unused121]
[unused122]
[unused123]
[unused124]
[unused125]
[unused126]
[unused127]
[unused128]
[unused129]
[unused130]
[unused131]
[unused132]
[unused133]
[unused134]
[unused135]
[unused136]
[unused137]
[unused138]
[unused139]
[unused140]
[unused141]
[unused142]
[unused143]
[unused144]
[unused145]
[unused146]
[unused147]
[unused148]
[unused149]
[unused150]
[unused151]
[unused152]
[unused153]
[unused154]
[unused155]
[unused156]
[unused157]
[unused158]
[unused159]
[unused160]
[unused161]
[unused162]
[unused163]
[unused164]
[unused165]
[unused166]
[unused167]
[unused168]
[unused169]
[unused170]
[unused171]
[unused172]
[unused173]
[unused174]
[unused175]
[unused176]
[unused177]
[unused178]
[unused179]
[unused180]
[unused181]
[unused182]
[unused183]
[unused184]
[unused185]
[unused186]
[unused187]
[unused188]
[unused189]
[unused190]
[unused191]
[unused192]
[unused193]
[unused194]
[unused195]
[unused196]
[unused197]
[unused198]
[unused199]
!
"
%
'
,
-
.
/
0
1
2
3
4
5
6
7
8
9
:
?
@
A
B
C
D
E
F
G
H
I
J
K
L
M
N
O
P
Q
R
S
T
U
V
W
X
Y
Z
a
b
c
d
e
f
g
h
i
j
k
l
m
n
o
p
q
r
s
t
u
v
w
x
y
z
~
·
♬
가
각
갂
갃
간
갅
갆
갇
갈
갉
갊
갋
갌
갍
갎
갏
감
갑
값
갓
갔
강
갖
갗
갘
같
갚
갛
개
객
갞
갟
갠
갢
갣
갤
갥
갧
갩
갫
갬
갭
갮
갯
갰
갱
갲
갳
갴
갵
갶
갷
갸
갹
갺
갼
갿
걀
걁
걃
걆
걇
걈
걉
걊
걋
걌
걍
걎
걐
걑
걒
걓
걔
걕
걖
걘
걜
걤
걥
걧
걨
걩
걬
걭
거
걱
걲
걳
건
걵
걶
걷
걸
걹
걺
걻
걼
걽
걾
걿
검
겁
겂
것
겄
겅
겆
겇
겈
겉
겊
겋
게
겍
겎
겏
겐
겒
겓
겔
겕
겗
겙
겚
겛
겜
겝
겞
겟
겠
겡
겢
겣
겤
겥
겦
겧
겨
격
겪
겫
견
겭
겮
겯
결
겱
겲
겳
겴
겵
겷
겸
겹
겺
겻
겼
경
겾
겿
곀
곁
곂
곃
계
곅
곆
곈
곋
곌
곔
곕
곖
곗
곘
곙
곚
곛
곜
곝
곟
고
곡
곢
곣
곤
곥
곧
골
곩
곪
곫
곬
곭
곮
곯
곰
곱
곲
곳
곴
공
곶
곷
곸
곹
곺
곻
과
곽
관
괁
괂
괃
괄
괅
괌
괍
괏
괐
광
괒
괓
괔
괕
괖
괗
괘
괙
괜
괝
괞
괠
괨
괫
괬
괭
괴
괵
괸
괺
괼
굄
굅
굇
굈
굉
굌
굎
교
굑
굔
굗
굘
굚
굠
굡
굣
굤
굥
굦
굧
굨
굩
굪
굫
구
국
굮
굯
군
굱
굲
굳
굴
굵
굶
굷
굺
굻
굼
굽
굾
굿
궀
궁
궂
궃
궄
궅
궆
궇
궈
궉
권
궍
궏
궐
궑
궓
궘
궙
궛
궜
궝
궠
궤
궥
궨
궬
궭
궮
궯
궲
궳
궵
궷
궸
궹
귀
귁
귄
귇
귈
귐
귑
귓
귔
귕
귖
귘
귛
규
귝
균
귣
귤
귥
귦
귬
귭
귯
귱
귴
귷
그
극
귺
귻
근
귽
귾
귿
글
긁
긂
긃
긄
긆
긇
금
급
긊
긋
긌
긍
긎
긏
긐
긑
긒
긓
긔
긕
긘
긛
긜
긞
긤
긥
긧
긩
긪
긬
긯
기
긱
긲
긴
긵
긶
긷
길
긹
긺
긻
긼
긿
김
깁
깂
깃
깄
깅
깆
깇
깈
깉
깊
깋
까
깍
깎
깐
깑
깒
깓
깔
깕
깖
깗
깛
깜
깝
깞
깟
깠
깡
깢
깣
깤
깥
깦
깧
깨
깩
깪
깬
깯
깰
깱
깵
깸
깹
깺
깻
깼
깽
깾
꺀
꺄
꺅
꺆
꺈
꺊
꺋
꺌
꺍
꺏
꺓
꺔
꺕
꺗
꺘
꺙
꺚
꺜
꺟
꺠
꺢
꺤
꺨
꺰
꺳
꺴
꺵
꺼
꺽
꺾
껀
껃
껄
껅
껇
껌
껍
껏
껐
껑
껒
껓
껔
껕
껗
께
껙
껚
껜
껠
껨
껩
껫
껬
껭
껰
껳
껴
껵
껶
껸
껼
꼄
꼅
꼇
꼈
꼉
꼊
꼌
꼍
꼏
꼐
꼣
꼤
꼥
꼨
꼬
꼭
꼮
꼰
꼲
꼳
꼴
꼵
꼶
꼷
꼹
꼻
꼼
꼽
꼿
꽀
꽁
꽂
꽃
꽄
꽅
꽆
꽇
꽈
꽉
꽊
꽌
꽐
꽑
꽘
꽙
꽛
꽜
꽝
꽠
꽤
꽥
꽦
꽨
꽭
꽳
꽴
꽹
꽼
꾀
꾁
꾄
꾈
꾐
꾕
꾜
꾝
꾠
꾤
꾬
꾭
꾱
꾳
꾸
꾹
꾺
꾼
꾾
꾿
꿀
꿁
꿂
꿃
꿄
꿇
꿈
꿉
꿋
꿌
꿍
꿎
꿏
꿐
꿑
꿓
꿔
꿕
꿘
꿜
꿝
꿤
꿥
꿧
꿨
꿩
꿬
꿯
꿰
꿱
꿲
꿴
꿸
꿹
꿻
꿿
뀀
뀃
뀄
뀅
뀈
뀌
뀍
뀐
뀔
뀜
뀝
뀟
뀠
뀡
뀤
뀨
뀩
뀪
뀬
뀰
뀱
뀳
뀷
뀸
뀹
뀻
뀽
끀
끄
끅
끆
끈
끉
끊
끋
끌
끍
끎
끏
끐
끓
끔
끕
끗
끘
끙
끚
끛
끜
끝
끞
끟
끠
끡
끤
끨
끯
끰
끵
끸
끼
끽
끾
낀
낂
낃
낄
낅
낋
낌
낍
낎
낏
낐
낑
낒
낓
낔
낕
낗
나
낙
낚
낛
난
낝
낞
낟
날
낡
낢
낣
낤
낥
낧
남
납
낪
낫
났
낭
낮
낯
낰
낱
낲
낳
내
낵
낶
낸
낻
낼
냄
냅
냇
냈
냉
냊
냋
냌
냍
냎
냏
냐
냑
냒
냔
냗
냘
냙
냠
냡
냣
냤
냥
냦
냧
냨
냩
냪
냫
냬
냰
냴
냼
냿
넀
넁
넄
너
넉
넊
넋
넌
넎
넏
널
넑
넒
넓
넔
넖
넗
넘
넙
넚
넛
넜
넝
넞
넟
넠
넡
넢
넣
네
넥
넦
넧
넨
넫
넬
넭
넴
넵
넶
넷
넸
넹
넺
넻
넼
넽
넾
넿
녀
녁
녂
년
녅
녆
녇
녈
념
녑
녓
녔
녕
녖
녗
녘
녙
녚
녛
녜
녝
녟
녠
녤
녬
녭
녯
녰
녱
녴
노
녹
녺
녻
논
녽
녾
녿
놀
놁
놂
놃
놇
놈
놉
놊
놋
놌
농
놎
놏
놐
놑
높
놓
놔
놕
놖
놘
놛
놜
놝
놤
놥
놧
놨
놩
놪
놬
놯
놰
놴
놸
뇀
뇁
뇄
뇅
뇌
뇍
뇐
뇔
뇜
뇝
뇟
뇠
뇡
뇤
뇨
뇩
뇬
뇰
뇸
뇹
뇻
뇽
눀
눂
눃
누
눅
눈
눉
눋
눌
눍
눓
눔
눕
눗
눙
눚
눛
눜
눝
눞
눟
눠
눤
눨
눰
눳
눴
눵
눸
눹
눼
눽
뉀
뉄
뉅
뉌
뉍
뉑
뉔
뉘
뉙
뉜
뉠
뉨
뉩
뉫
뉬
뉭
뉰
뉴
뉵
뉸
뉼
늄
늅
늇
늉
늌
늎
늏
느
늑
늒
늓
는
늕
늖
늗
늘
늙
늚
늛
늜
늟
늠
늡
늣
늤
능
늦
늧
늨
늩
늪
늫
늬
늭
늰
늴
늼
늽
늿
닁
닄
니
닉
닊
닋
닌
닍
닏
닐
닑
닒
닗
님
닙
닚
닛
닜
닝
닞
닟
닠
닡
닢
닣
다
닥
닦
닧
단
닩
닪
닫
달
닭
닮
닯
닰
닱
닲
닳
담
답
닶
닷
닸
당
닺
닻
닼
닽
닾
닿
대
댁
댂
댄
댇
댈
댉
댏
댐
댑
댓
댔
댕
댖
댗
댘
댙
댚
댛
댜
댝
댠
댣
댤
댥
댦
댬
댭
댯
댰
댱
댲
댴
댷
댸
댼
덀
덈
덋
덌
덍
더
덕
덖
덗
던
덙
덛
덜
덝
덞
덟
덢
덣
덤
덥
덦
덧
덨
덩
덪
덫
덬
덭
덮
덯
데
덱
덲
덴
덷
델
덹
뎀
뎁
뎂
뎃
뎄
뎅
뎆
뎇
뎈
뎉
뎊
뎋
뎌
뎍
뎐
뎓
뎔
뎜
뎝
뎟
뎠
뎡
뎤
뎦
뎧
뎨
뎬
뎻
뎽
도
독
돆
돇
돈
돉
돋
돌
돍
돎
돏
돐
돒
돓
돔
돕
돖
돗
돘
동
돚
돛
돜
돝
돞
돟
돠
돡
돤
돨
돩
돰
돱
돳
돴
돵
돸
돻
돼
돽
돾
됀
됃
됄
됌
됍
됏
됐
됑
됒
됔
됗
되
됙
됚
된
됝
됟
될
됡
됢
됤
됥
됧
됨
됩
됫
됬
됭
됮
됰
됱
됳
됴
됵
됸
됻
됼
둄
둅
둇
둉
둊
둋
둌
둏
두
둑
둒
둔
둗
둘
둙
둚
둛
둞
둟
둠
둡
둣
둥
둦
둧
둨
둩
둪
둫
둬
둭
둰
둴
둼
둽
둿
뒀
뒁
뒄
뒇
뒈
뒌
뒐
뒑
뒓
뒘
뒙
뒛
뒜
뒝
뒞
뒠
뒤
뒥
뒨
뒫
뒬
뒴
뒵
뒷
뒸
뒹
뒺
뒼
듀
듁
듄
듇
듈
듐
듑
듓
듕
듘
드
득
듞
듟
든
듡
듢
듣
들
듥
듦
듧
듨
듩
듪
듫
듬
듭
듯
듰
등
듲
듳
듴
듵
듶
듷
듸
듹
듼
딀
딈
딉
딋
딍
디
딕
딖
딘
딛
딜
딝
딞
딣
딤
딥
딧
딨
딩
딪
딫
딬
딭
딮
딯
따
딱
딲
딳
딴
딷
딸
딹
딺
딻
딿
땀
땁
땃
땄
땅
땆
땈
땉
땋
때
땍
땎
땐
땓
땔
땜
땝
땟
땠
땡
땢
땣
땤
땦
땧
땨
땩
땬
땰
땸
땽
떄
떅
떈
떌
떔
떗
떘
떙
떠
떡
떢
떣
떤
떥
떦
떧
떨
떩
떪
떫
떮
떯
떰
떱
떳
떴
떵
떶
떷
떸
떹
떺
떻
떼
떽
떾
뗀
뗄
뗌
뗍
뗏
뗐
뗑
뗔
뗗
뗘
뗙
뗜
뗠
뗨
뗫
뗬
뗭
뗳
뗴
뗵
뗸
뗼
똇
똈
또
똑
똒
똔
똗
똘
똙
똚
똝
똟
똠
똡
똣
똥
똦
똧
똨
똩
똫
똬
똭
똮
똰
똴
똵
똷
똻
똼
똽
똿
뙀
뙁
뙄
뙇
뙈
뙌
뙓
뙛
뙜
뙝
뙤
뙥
뙨
뙬
뙴
뙷
뙸
뙹
뙿
뚀
뚁
뚄
뚈
뚊
뚕
뚜
뚝
뚞
뚠
뚢
뚣
뚤
뚥
뚦
뚧
뚨
뚫
뚬
뚭
뚯
뚱
뚴
뚵
뚷
뚸
뚹
뚼
뛀
뛃
뛋
뛌
뛍
뛓
뛔
뛕
뛝
뛟
뛣
뛥
뛧
뛨
뛰
뛱
뛴
뛸
뜀
뜁
뜃
뜄
뜅
뜌
뜍
뜐
뜔
뜛
뜜
뜝
뜡
뜨
뜩
뜪
뜬
뜮
뜯
뜰
뜱
뜳
뜷
뜸
뜹
뜻
뜼
뜽
뜾
뜿
띀
띁
띃
띄
띅
띈
띌
띔
띕
띙
띟
띠
띡
띤
띧
띨
띰
띱
띳
띴
띵
띶
띸
띻
라
락
띾
띿
란
랁
랂
랃
랄
랅
랆
랇
랈
랉
랊
랋
람
랍
랎
랏
랐
랑
랒
랓
랔
랕
랖
랗
래
랙
랚
랜
랟
랠
랡
램
랩
랫
랬
랭
랮
랯
랰
랱
랲
랳
랴
략
랸
랺
랻
랼
럄
럅
럇
럈
량
럊
럌
럎
럏
럐
럑
럔
럗
럘
럠
럣
럤
럥
러
럭
럮
럯
런
럱
럲
럳
럴
럵
럶
럷
럸
럻
럼
럽
럾
럿
렀
렁
렂
렃
렄
렅
렆
렇
레
렉
렊
렋
렌
렏
렐
렑
렓
렗
렘
렙
렚
렛
렜
렝
렞
렠
렡
렢
렣
려
력
렦
렧
련
렩
렪
렫
렬
렭
렴
렵
렷
렸
령
렺
렻
렼
렽
렾
렿
례
롁
롄
롈
롐
롑
롓
롔
롕
롘
로
록
롞
론
롡
롣
롤
롥
롫
롬
롭
롮
롯
롰
롱
롲
롳
롴
롵
롶
롷
롸
롹
롻
롼
뢀
뢁
뢈
뢉
뢋
뢌
뢍
뢐
뢓
뢔
뢕
뢘
뢜
뢥
뢨
뢩
뢰
뢱
뢴
뢸
룀
룁
룃
룄
룅
룈
료
룍
룐
룔
룜
룝
룟
룠
룡
룢
룤
룧
루
룩
룪
룬
룯
룰
룱
룷
룸
룹
룻
룽
룾
룿
뤀
뤁
뤂
뤃
뤄
뤅
뤈
뤌
뤔
뤕
뤗
뤘
뤙
뤜
뤟
뤠
뤡
뤤
뤨
뤩
뤫
뤰
뤱
뤳
뤵
뤸
뤼
뤽
륀
륄
륌
륍
륏
륐
륑
륔
류
륙
륜
륟
률
륨
륩
륫
륭
륮
륰
륲
륳
르
륵
륶
른
륹
륻
를
륽
륾
륿
릀
릁
릂
릃
름
릅
릇
릈
릉
릊
릋
릌
릍
릎
릏
릐
릑
릔
릘
릠
릡
릣
릥
릫
리
릭
릮
린
릱
릲
릳
릴
릵
릶
릷
릸
릹
릻
림
립
릾
릿
맀
링
맂
맃
맄
맅
맆
맇
마
막
맊
맋
만
맍
많
맏
말
맑
맒
맓
맔
맕
맖
맗
맘
맙
맚
맛
맜
망
맞
맟
맠
맡
맢
맣
매
맥
맨
맩
맪
맫
맬
맴
맵
맷
맸
맹
맺
맻
맼
맽
맿
먀
먁
먄
먆
먇
먈
먐
먑
먓
먕
먖
먗
먘
먛
먜
먠
먤
먱
머
먹
먺
먻
먼
먽
먾
먿
멀
멁
멂
멈
멉
멊
멋
멌
멍
멎
멏
멐
멑
멒
멓
메
멕
멘
멛
멜
멤
멥
멧
멨
멩
멪
멫
멬
멭
멮
멯
며
멱
멲
면
멵
멶
멷
멸
멿
몀
몁
몃
몄
명
몆
몇
몈
몉
몊
몋
몌
몐
몔
몟
몡
몢
몣
모
목
몪
몫
몬
몮
몯
몰
몱
몲
몴
몷
몸
몹
몺
못
몼
몽
몾
몿
뫀
뫁
뫂
뫃
뫄
뫅
뫈
뫌
뫔
뫕
뫗
뫘
뫙
뫚
뫜
뫠
뫤
뫼
뫽
묀
묄
묏
묑
묘
묙
묜
묠
묨
묫
묭
묯
무
묵
묶
묷
문
묹
묺
묻
물
묽
묾
묿
뭀
뭁
뭃
뭄
뭅
뭇
뭈
뭉
뭊
뭋
뭌
뭍
뭎
뭏
뭐
뭑
뭔
뭕
뭗
뭘
뭙
뭚
뭟
뭠
뭡
뭣
뭤
뭥
뭦
뭧
뭨
뭩
뭫
뭬
뭭
뭰
뭴
뭵
뭷
뭽
뭿
뮁
뮈
뮉
뮌
뮏
뮐
뮘
뮙
뮛
뮜
뮝
뮤
뮥
뮦
뮨
뮫
뮬
뮴
뮷
뮹
뮻
뮼
므
믁
믂
믄
믆
믇
믈
믉
믌
믏
믐
믑
믓
믕
믖
믘
믙
믛
믜
믝
믠
믣
믤
믬
믯
믰
믱
미
믹
믺
믻
민
믽
믾
믿
밀
밁
밂
밇
밈
밉
밊
밋
밌
밍
밎
및
밐
밑
밒
밓
바
박
밖
밗
반
밙
밚
받
발
밝
밞
밟
밠
밡
밢
밣
밤
밥
밦
밧
밨
방
밪
밫
밬
밭
밮
밯
배
백
밲
밳
밴
밷
밸
밹
밿
뱀
뱁
뱃
뱄
뱅
뱆
뱇
뱈
뱉
뱊
뱋
뱌
뱍
뱎
뱐
뱓
뱔
뱕
뱗
뱛
뱜
뱝
뱟
뱡
뱤
뱥
뱨
뱩
뱬
뱰
뱸
뱽
벁
버
벅
벆
번
벉
벊
벋
벌
벍
벎
벏
벐
벑
벓
범
법
벖
벗
벘
벙
벚
벛
벜
벝
벞
벟
베
벡
벤
벧
벨
벩
벫
벯
벰
벱
벲
벳
벴
벵
벶
벷
벸
벹
벺
벻
벼
벽
벾
변
볁
볂
볃
별
볅
볆
볇
볈
볋
볌
볍
볎
볏
볐
병
볒
볓
볔
볕
볖
볗
볘
볜
볠
볫
볭
보
복
볶
볷
본
볹
볻
볼
볽
볾
봀
봁
봃
봄
봅
봆
봇
봈
봉
봊
봋
봌
봍
봎
봏
봐
봑
봒
봔
봗
봘
봙
봟
봠
봡
봣
봤
봥
봦
봨
봩
봫
봬
봭
봰
봴
봵
봽
봿
뵀
뵁
뵈
뵉
뵌
뵏
뵐
뵑
뵘
뵙
뵛
뵜
뵝
뵞
뵠
뵤
뵥
뵨
뵬
뵴
뵵
뵷
뵹
뵺
부
북
붂
붃
분
붅
붆
붇
불
붉
붊
붋
붌
붍
붎
붏
붐
붑
붓
붔
붕
붖
붗
붘
붙
붚
붛
붜
붝
붠
붤
붥
붬
붭
붯
붰
붱
붴
붸
붹
붼
뷀
뷁
뷃
뷇
뷉
뷋
뷍
뷐
뷔
뷕
뷘
뷜
뷤
뷥
뷧
뷩
뷮
뷰
뷱
뷴
뷷
뷸
뷹
븀
븁
븂
븃
븅
븈
븉
븋
브
븍
븎
븏
븐
븓
블
븕
븛
븜
븝
븞
븟
븡
븢
븤
븥
븦
븧
븨
븩
븬
븰
븸
븹
븻
븽
빂
비
빅
빆
빇
빈
빋
빌
빍
빎
빏
빓
빔
빕
빖
빗
빘
빙
빚
빛
빜
빝
빞
빟
빠
빡
빢
빣
빤
빧
빨
빩
빪
빫
빬
빭
빯
빰
빱
빳
빴
빵
빶
빷
빸
빹
빺
빻
빼
빽
빾
뺀
뺃
뺄
뺅
뺌
뺍
뺏
뺐
뺑
뺒
뺓
뺔
뺕
뺗
뺘
뺙
뺚
뺜
뺠
뺡
뺨
뺩
뺫
뺭
뺴
뺵
뺶
뺸
뺼
뻁
뻄
뻇
뻈
뻉
뻐
뻑
뻒
뻔
뻕
뻖
뻗
뻘
뻙
뻠
뻡
뻣
뻤
뻥
뻦
뻨
뻩
뻪
뻫
뻬
뻭
뻰
뻴
뻼
뻿
뼀
뼁
뼈
뼉
뼊
뼌
뼏
뼐
뼑
뼘
뼙
뼛
뼜
뼝
뼠
뼡
뼤
뼬
뽀
뽁
뽂
뽄
뽇
뽈
뽐
뽑
뽓
뽕
뽖
뽘
뽚
뽛
뽜
뽝
뽞
뽠
뽤
뽥
뽫
뽬
뽭
뽯
뽰
뽱
뽴
뽷
뽸
뽹
뾀
뾃
뾔
뾥
뾰
뾱
뾲
뾴
뾸
뿁
뿃
뿅
뿌
뿍
뿎
뿐
뿑
뿓
뿔
뿕
뿛
뿜
뿝
뿟
뿠
뿡
뿤
뿥
뿧
뿨
뿩
뿬
뿰
뿱
뿳
뿹
뿽
쀀
쀄
쀅
쀈
쀌
쀍
쀏
쀒
쀓
쀠
쀡
쀨
쀳
쀵
쀼
쀽
쀾
쁀
쁄
쁌
쁍
쁏
쁐
쁑
쁘
쁙
쁜
쁝
쁟
쁠
쁨
쁩
쁫
쁭
쁮
쁰
쁴
쁸
쁼
삉
삐
삑
삒
삔
삗
삘
삠
삡
삣
삤
삥
삦
삧
삨
삫
사
삭
삮
삯
산
삱
삲
삳
살
삵
삶
삷
삸
삹
삺
삻
삼
삽
삾
삿
샀
상
샂
샃
샄
샅
샆
샇
새
색
샊
샋
샌
샎
샏
샐
샑
샒
샓
샔
샕
샗
샘
샙
샚
샛
샜
생
샞
샟
샠
샡
샢
샣
샤
샥
샦
샨
샫
샬
샮
샴
샵
샷
샸
샹
샼
샽
샾
샿
섀
섁
섂
섄
섈
섉
섊
섐
섑
섓
섔
섕
섘
서
석
섞
섟
선
섡
섢
섣
설
섥
섦
섧
섨
섩
섪
섫
섬
섭
섮
섯
섰
성
섲
섳
섴
섵
섶
섷
세
섹
섺
섻
센
섽
섿
셀
셁
셂
셃
셆
셇
셈
셉
셋
셌
셍
셎
셏
셐
셑
셒
셓
셔
셕
셖
션
셛
셜
셟
셤
셥
셧
셨
셩
셫
셬
셭
셮
셯
셰
셱
셲
셴
셸
솀
솁
솃
솄
솅
솈
솉
솊
소
속
솎
솏
손
솑
솒
솓
솔
솕
솖
솛
솜
솝
솟
솠
송
솢
솣
솤
솥
솦
솧
솨
솩
솬
솰
솸
솹
솻
솼
솽
쇀
쇄
쇅
쇆
쇈
쇌
쇔
쇗
쇘
쇙
쇜
쇟
쇠
쇡
쇣
쇤
쇨
쇱
쇳
쇵
쇸
쇼
쇽
숀
숄
숌
숍
숏
숐
숑
숔
숖
숗
수
숙
숚
순
숝
숟
술
숡
숢
숤
숧
숨
숩
숪
숫
숬
숭
숮
숯
숰
숱
숲
숳
숴
숵
숶
숸
숼
쉄
쉅
쉇
쉈
쉉
쉌
쉐
쉑
쉒
쉓
쉔
쉗
쉘
쉙
쉚
쉛
쉜
쉞
쉟
쉠
쉡
쉣
쉤
쉥
쉧
쉨
쉩
쉪
쉫
쉬
쉭
쉮
쉰
쉲
쉳
쉴
쉻
쉼
쉽
쉾
쉿
슀
슁
슂
슄
슅
슆
슇
슈
슉
슌
슏
슐
슘
슙
슛
슝
슞
슟
슠
슢
스
슥
슦
슧
슨
슩
슫
슬
슭
슮
슯
슰
슲
슳
슴
습
슶
슷
슸
승
슺
슻
슼
슽
슾
슿
싀
싁
싄
싅
싆
싇
싈
싐
싑
싓
싕
싖
싘
싙
싚
시
식
싞
싟
신
싡
싢
싣
실
싥
싦
싧
싨
싩
싪
싫
심
십
싮
싯
싰
싱
싲
싳
싴
싵
싶
싷
싸
싹
싺
싻
싼
싾
싿
쌀
쌂
쌇
쌈
쌉
쌋
쌌
쌍
쌎
쌐
쌑
쌒
쌓
쌔
쌕
쌖
쌗
쌘
쌛
쌜
쌞
쌟
쌤
쌥
쌧
쌨
쌩
쌬
쌯
쌰
쌱
쌴
쌸
쌻
썀
썁
썃
썄
썅
썋
썌
썍
썎
썐
썔
썖
썜
썝
썟
썠
썡
써
썩
썪
썫
썬
썯
썰
썱
썳
썸
썹
썻
썼
썽
썾
쎀
쎁
쎂
쎃
쎄
쎅
쎆
쎇
쎈
쎌
쎍
쎓
쎔
쎕
쎗
쎘
쎙
쎜
쎝
쎟
쎠
쎡
쎤
쎨
쎰
쎱
쎳
쎴
쎵
쎼
쎽
쎾
쏀
쏃
쏄
쏌
쏏
쏐
쏔
쏖
쏘
쏙
쏚
쏜
쏟
쏠
쏨
쏩
쏫
쏬
쏭
쏮
쏰
쏱
쏳
쏴
쏵
쏸
쏼
쐄
쐅
쐇
쐈
쐉
쐌
쐏
쐐
쐑
쐒
쐣
쐤
쐥
쐨
쐬
쐭
쐰
쐴
쐼
쐽
쐿
쑀
쑈
쑉
쑌
쑐
쑙
쑛
쑝
쑤
쑥
쑦
쑨
쑫
쑬
쑴
쑵
쑷
쑹
쑻
쑼
쒀
쒁
쒂
쒄
쒈
쒐
쒑
쒓
쒔
쒕
쒘
쒜
쒝
쒞
쒠
쒤
쒥
쒧
쒫
쒭
쒯
쒰
쒱
쒴
쒵
쒸
쒹
쒼
쓀
쓃
쓈
쓉
쓊
쓋
쓌
쓍
쓐
쓑
쓒
쓔
쓕
쓘
쓜
쓤
쓥
쓧
쓩
쓰
쓱
쓲
쓴
쓷
쓸
쓹
쓺
쓿
씀
씁
씂
씃
씄
씅
씆
씇
씈
씉
씊
씋
씌
씍
씐
씔
씗
씜
씝
씞
씟
씡
씤
씥
씦
씧
씨
씩
씪
씬
씮
씯
씰
씱
씳
씶
씷
씸
씹
씺
씻
씼
씽
씾
씿
앀
앁
앂
앃
아
악
앆
앇
안
앉
않
앋
알
앍
앎
앏
앐
앑
앒
앓
암
압
앖
앗
았
앙
앚
앛
앜
앝
앞
앟
애
액
앢
앣
앤
앦
앧
앨
앩
앰
앱
앲
앳
앴
앵
앶
앷
앸
앹
앺
앻
야
약
앾
앿
얀
얁
얂
얃
얄
얅
얆
얇
얉
얊
얋
얌
얍
얎
얏
얐
양
얒
얓
얔
얕
얖
얗
얘
얙
얜
얠
얨
얩
얪
얫
얬
얭
얮
얰
얳
어
억
얶
얷
언
얹
얺
얻
얼
얽
얾
얿
엀
엁
엂
엃
엄
업
없
엇
었
엉
엊
엋
엌
엍
엎
엏
에
엑
엒
엓
엔
엕
엗
엘
엙
엜
엞
엠
엡
엢
엣
엤
엥
엦
엧
엨
엩
엪
엫
여
역
엮
엯
연
엱
엲
엳
열
엵
엶
엷
엸
엹
엻
염
엽
엾
엿
였
영
옂
옃
옄
옅
옆
옇
예
옉
옌
옐
옘
옙
옛
옜
옝
옞
옟
옠
옢
옣
오
옥
옦
옧
온
옩
옪
옫
올
옭
옮
옯
옰
옱
옲
옳
옴
옵
옶
옷
옸
옹
옺
옻
옼
옽
옾
옿
와
왁
왂
완
왅
왆
왇
왈
왉
왐
왑
왓
왔
왕
왖
왗
왘
왙
왚
왛
왜
왝
왠
왡
왢
왤
왥
왬
왭
왯
왰
왱
왲
왳
왴
왶
왷
외
왹
왼
욀
욈
욉
욋
욌
욍
욎
욐
욓
요
욕
욖
욗
욘
욛
욜
욝
욣
욤
욥
욧
욨
용
욪
욫
욬
욭
욮
욯
우
욱
욲
욳
운
욵
욷
울
욹
욺
욻
욼
욽
욾
욿
움
웁
웂
웃
웄
웅
웆
웇
웈
웉
웊
웋
워
웍
웎
원
웑
웒
웓
월
웕
웖
웗
웘
웙
웚
웛
웜
웝
웞
웟
웠
웡
웢
웣
웤
웥
웦
웧
웨
웩
웪
웬
웯
웰
웱
웳
웸
웹
웻
웼
웽
웾
윀
윁
윂
위
윅
윈
윋
윌
윔
윕
윖
윗
윘
윙
윚
윜
윝
윟
유
육
윢
윣
윤
윥
윧
율
윩
윯
윰
윱
윳
융
윶
윷
윸
윹
윺
윻
으
윽
윾
윿
은
읁
읂
읃
을
읅
읆
읇
읈
읉
읊
읋
음
읍
읎
읏
읐
응
읒
읓
읔
읕
읖
읗
의
읙
읜
읟
읠
읨
읩
읪
읫
읬
읭
읮
읯
읰
읱
읲
읳
이
익
읶
읷
인
읹
읺
읻
일
읽
읾
읿
잀
잁
잂
잃
임
입
잆
잇
있
잉
잊
잋
잌
잍
잎
잏
자
작
잒
잓
잔
잕
잖
잗
잘
잙
잚
잛
잜
잝
잞
잟
잠
잡
잢
잣
잤
장
잦
잧
잨
잩
잪
잫
재
잭
잮
잰
잲
잳
잴
잼
잽
잿
쟀
쟁
쟂
쟃
쟄
쟅
쟆
쟇
쟈
쟉
쟊
쟌
쟎
쟏
쟐
쟘
쟙
쟛
쟜
쟝
쟞
쟟
쟠
쟡
쟣
쟤
쟥
쟨
쟬
쟴
쟸
쟹
쟼
저
적
젂
젃
전
젅
젆
젇
절
젉
젊
젋
젌
젍
젎
젏
점
접
젒
젓
젔
정
젖
젗
젘
젙
젚
젛
제
젝
젞
젠
젡
젣
젤
젬
젭
젯
젰
젱
젲
젳
젴
젵
젶
젷
져
젹
젺
젼
젾
젿
졀
졂
졈
졉
졋
졌
졍
졎
졏
졐
졑
졒
졓
졔
졘
졜
졨
졩
조
족
졲
졳
존
졵
졶
졷
졸
졹
졺
졻
졽
졿
좀
좁
좂
좃
좄
종
좆
좇
좈
좉
좊
좋
좌
좍
좎
좐
좒
좓
좔
좜
좝
좟
좠
좡
좢
좣
좤
좥
좦
좧
좨
좩
좬
좭
좮
좯
좰
좱
좸
좼
좽
죄
죅
죈
죌
죔
죕
죗
죘
죙
죚
죜
죝
죠
죡
죢
죣
죤
죥
죧
죨
죰
죱
죳
죴
죵
죶
죷
죸
죹
죺
죻
주
죽
죾
죿
준
줁
줂
줃
줄
줅
줆
줈
줉
줊
줋
줌
줍
줎
줏
줐
중
줒
줓
줔
줕
줖
줗
줘
줙
줚
줜
줝
줟
줠
줨
줩
줫
줬
줭
줮
줯
줰
줱
줳
줴
줵
줸
줼
쥄
쥅
쥇
쥈
쥉
쥐
쥑
쥔
쥘
쥠
쥡
쥣
쥤
쥥
쥦
쥨
쥫
쥬
쥭
쥰
쥳
쥴
쥼
쥽
쥿
즁
즂
즄
즇
즈
즉
즋
즌
즎
즏
즐
즑
즘
즙
즛
즜
증
즞
즟
즠
즡
즣
즤
즥
즨
즬
즴
즵
즷
즹
즺
즼
지
직
짂
짃
진
짅
짆
짇
질
짉
짊
짋
짌
짍
짎
짏
짐
집
짒
짓
짔
징
짖
짗
짘
짙
짚
짛
짜
짝
짞
짠
짢
짣
짤
짥
짦
짧
짪
짫
짬
짭
짮
짯
짰
짱
짲
짳
짴
짵
짶
짷
째
짹
짺
짼
짾
짿
쨀
쨈
쨉
쨋
쨌
쨍
쨎
쨐
쨓
쨔
쨕
쨖
쨘
쨚
쨜
쨟
쨤
쨥
쨧
쨨
쨩
쨬
쨰
쨱
쨲
쨴
쩀
쩁
쩃
쩄
쩅
쩌
쩍
쩎
쩐
쩑
쩓
쩔
쩕
쩖
쩗
쩘
쩛
쩜
쩝
쩟
쩠
쩡
쩢
쩣
쩤
쩦
쩧
쩨
쩩
쩬
쩰
쩸
쩹
쩻
쩼
쩽
쪄
쪅
쪈
쪌
쪔
쪕
쪗
쪘
쪙
쪚
쪜
쪟
쪠
쪵
쪹
쪻
쪼
쪽
쪾
쪿
쫀
쫂
쫃
쫄
쫅
쫌
쫍
쫏
쫐
쫑
쫒
쫓
쫔
쫕
쫖
쫗
쫘
쫙
쫚
쫛
쫜
쫟
쫠
쫨
쫩
쫫
쫭
쫰
쫴
쫵
쬈
쬎
쬐
쬑
쬔
쬘
쬠
쬡
쬥
쬬
쬭
쬮
쬰
쬲
쬴
쬼
쬽
쬿
쭀
쭁
쭂
쭃
쭄
쭅
쭈
쭉
쭊
쭌
쭏
쭐
쭕
쭘
쭙
쭛
쭝
쭞
쭟
쭠
쭤
쭥
쭨
쭬
쭭
쭵
쭷
쭸
쭹
쭻
쮀
쮁
쮇
쮉
쮑
쮓
쮔
쮕
쮜
쮝
쮠
쮤
쮭
쮱
쮸
쮹
쮼
쯀
쯈
쯉
쯋
쯍
쯎
쯔
쯕
쯘
쯛
쯜
쯤
쯥
쯧
쯨
쯩
쯪
쯫
쯰
쯱
쯴
찁
찅
찌
찍
찎
찏
찐
찓
찔
찗
찜
찝
찟
찠
찡
찢
찣
찤
찥
찦
찧
차
착
찪
찫
찬
찭
찮
찯
찰
찱
찲
찳
찴
찷
참
찹
찻
찼
창
찾
찿
챀
챁
챂
챃
채
책
챈
챊
챋
챌
챔
챕
챗
챘
챙
챚
챜
챝
챠
챡
챤
챦
챨
챫
챰
챱
챳
챴
챵
챶
챷
챸
챺
챻
챼
챽
첑
처
척
천
첝
첞
첟
철
첡
첢
첣
첤
첦
첧
첨
첩
첪
첫
첬
청
첮
첯
첰
첱
첲
첳
체
첵
첸
첻
첼
쳄
쳅
쳇
쳈
쳉
쳊
쳋
쳌
쳍
쳏
쳐
쳑
쳒
쳔
쳗
쳘
쳠
쳡
쳢
쳣
쳤
쳥
쳦
쳧
쳨
쳫
쳬
쳭
쳰
쳴
촀
초
촉
촌
촏
촐
촔
촘
촙
촛
촜
총
촞
촟
촠
촡
촣
촤
촥
촨
촪
촬
촴
촵
촷
촹
촺
촼
쵀
쵁
쵕
최
쵝
쵠
쵤
쵭
쵮
쵯
쵱
쵴
쵸
쵹
쵼
쵿
춀
춈
춉
춋
춌
춍
춎
춏
춐
추
축
춘
춚
춛
출
춝
춞
춟
춠
춡
춣
춤
춥
춧
충
춪
춫
춬
춭
춮
춯
춰
춱
춴
춸
췁
췃
췄
췅
췆
췈
췌
췍
췐
췔
췕
췜
췝
췟
췡
췤
취
췩
췬
췰
췸
췹
췻
췼
췽
츀
츄
츅
츈
츌
츔
츕
츗
츙
츛
츜
츞
츠
측
츤
츧
츨
츰
츱
츳
층
츶
츷
츸
츹
츼
츽
칀
칄
칌
칍
칑
칔
치
칙
친
칝
칞
칟
칠
칡
칢
칤
칧
침
칩
칫
칬
칭
칮
칯
칰
칱
칲
칳
카
칵
칶
칸
칻
칼
칽
캄
캅
캆
캇
캈
캉
캊
캋
캌
캍
캎
캏
캐
캑
캔
캘
캙
캠
캡
캢
캣
캤
캥
캨
캩
캪
캬
캭
캮
캰
캴
캵
캼
캽
캿
컀
컁
컄
컅
컇
컈
커
컥
컦
컨
컫
컬
컭
컯
컴
컵
컷
컸
컹
컺
컼
컽
컾
컿
케
켁
켄
켇
켈
켉
켐
켑
켓
켔
켕
켘
켙
켚
켛
켜
켝
켞
켠
켤
켬
켭
켯
켰
켱
켲
켴
켵
켷
켸
켼
콋
콌
코
콕
콘
콛
콜
콤
콥
콧
콩
콪
콫
콬
콭
콮
콯
콰
콱
콲
콴
콸
쾀
쾃
쾅
쾈
쾌
쾍
쾐
쾡
쾤
쾨
쾩
쾬
쾰
쾽
쿄
쿅
쿈
쿌
쿔
쿗
쿙
쿜
쿠
쿡
쿢
쿤
쿧
쿨
쿩
쿫
쿯
쿰
쿱
쿳
쿵
쿸
쿹
쿺
쿻
쿼
쿽
퀀
퀄
퀌
퀏
퀐
퀑
퀔
퀘
퀙
퀜
퀠
퀡
퀫
퀭
퀰
퀴
퀵
퀸
퀻
퀼
큄
큅
큇
큉
큌
큐
큑
큔
큘
큠
큡
큣
큥
큨
큩
큪
크
큭
큮
큰
큲
큳
클
큵
큷
큻
큼
큽
큿
킀
킁
킂
킄
킅
킆
킇
킈
킉
킌
킐
킘
킝
킠
키
킥
킦
킨
킫
킬
킴
킵
킶
킷
킸
킹
킺
킼
킽
킾
킿
타
탁
탂
탄
탅
탆
탇
탈
탉
탊
탍
탏
탐
탑
탓
탔
탕
탖
탗
탘
탙
탚
탛
태
택
탞
탟
탠
탣
탤
탬
탭
탯
탰
탱
탲
탴
탵
탶
탷
탸
탹
탼
턀
턈
턉
턋
턍
턐
턑
턔
턕
턘
턩
터
턱
턴
턷
털
턹
턺
텀
텁
텂
텃
텄
텅
텆
텇
텈
텉
텊
텋
테
텍
텐
텓
텔
템
텝
텟
텠
텡
텢
텣
텤
텥
텦
텧
텨
텩
텬
텰
텸
텹
텻
텼
텽
톀
톃
톄
톅
톈
톌
톔
토
톡
톢
톤
톧
톨
톩
톪
톰
톱
톳
통
톶
톷
톸
톹
톺
톻
톼
톽
퇀
퇄
퇌
퇍
퇏
퇑
퇔
퇘
퇙
퇜
퇧
퇫
퇬
퇭
퇮
퇴
퇵
퇶
퇸
퇼
툄
툅
툇
툈
툉
툊
툌
툐
툑
툠
툥
툨
툩
투
툭
툰
툱
툲
툳
툴
툻
툼
툽
툿
퉁
퉂
퉄
퉅
퉆
퉈
퉉
퉌
퉐
퉛
퉜
퉝
퉤
퉥
퉨
퉬
퉵
퉷
퉸
퉹
퉼
퉽
퉾
튀
튁
튄
튈
튐
튑
튓
튔
튕
튘
튜
튝
튠
튤
튬
튭
튱
튴
튵
튶
트
특
튺
튻
튼
튽
튿
틀
틁
틂
틅
틇
틈
틉
틊
틋
틍
틎
틏
틐
틑
틒
틓
틔
틕
틘
틜
틤
틧
틩
티
틱
틳
틴
틷
틸
팀
팁
팃
팄
팅
팆
팈
팉
팊
파
팍
팎
팏
판
팑
팒
팓
팔
팕
팖
팗
팘
팙
팚
팛
팜
팝
팟
팠
팡
팢
팣
팤
팥
팦
팧
패
팩
팬
팯
팰
팸
팹
팻
팼
팽
퍀
퍁
퍄
퍅
퍈
퍌
퍔
퍙
퍝
퍞
퍠
퍡
퍤
퍵
퍼
퍽
퍾
펀
펃
펄
펅
펌
펍
펏
펐
펑
펒
펔
펕
펖
펗
페
펙
펜
펟
펠
펨
펩
펫
펭
펰
펲
펴
펵
편
펹
펺
펻
펼
폄
폅
폇
폈
평
폌
폐
폑
폔
폘
폠
폡
폣
폥
폨
포
폭
폯
폰
폳
폴
폼
폽
폿
퐁
퐂
퐄
퐅
퐆
퐇
퐈
퐉
퐌
퐐
퐑
퐘
퐙
퐛
퐜
퐝
퐠
퐣
퐤
퐥
퐨
푀
푁
푄
푈
푕
표
푝
푠
푤
푬
푭
푯
푱
푲
푴
푶
푷
푸
푹
푼
푿
풀
풁
풂
풃
풇
품
풉
풋
풍
풎
풏
풐
풑
풒
풓
풔
풕
풘
풜
풩
풬
풰
풱
풴
풸
풹
퓅
퓌
퓍
퓐
퓔
퓟
퓡
퓨
퓩
퓬
퓰
퓸
퓹
퓻
퓽
퓿
픀
픂
픃
프
픅
픈
픋
플
픍
픎
픓
픔
픕
픗
픙
픚
픜
픝
픞
픟
픠
픤
픨
픵
픹
피
픽
핀
핃
필
핆
핋
핌
핍
핏
핐
핑
핒
핓
핔
핕
핖
핗
하
학
핚
핛
한
핝
핞
핟
할
핡
핢
핣
핤
핥
핦
핧
함
합
핪
핫
핬
항
핮
핯
핰
핱
핲
핳
해
핵
핶
핷
핸
핺
핻
핼
핽
햄
햅
햇
했
행
햊
햋
햌
햍
햎
햏
햐
햑
햔
햘
햙
햚
햛
햝
햟
햠
햡
햣
햤
향
햨
햩
햫
햬
햭
햰
햿
헀
헁
허
헉
헊
헋
헌
헍
헏
헐
헑
헒
헓
헔
헕
헗
험
헙
헚
헛
헜
헝
헞
헟
헠
헡
헢
헣
헤
헥
헦
헧
헨
헫
헬
헭
헯
헰
헱
헲
헳
헴
헵
헶
헷
헸
헹
헼
헽
헾
헿
혀
혁
혂
혃
현
혅
혆
혇
혈
혉
혐
협
혒
혓
혔
형
혖
혘
혙
혚
혛
혜
혝
혠
혤
혬
혭
혯
혰
혱
혲
혴
혷
호
혹
혺
혻
혼
혽
혾
혿
홀
홁
홅
홇
홈
홉
홋
홍
홎
홐
홑
홒
홓
화
확
홖
홗
환
홙
홛
활
홝
홟
홡
홣
홤
홥
홧
홨
황
홪
홫
홬
홭
홮
홯
홰
홱
홴
횃
횄
횅
회
획
횐
횓
횔
횜
횝
횟
횠
횡
횢
횤
횧
효
횩
횬
횰
횸
횹
횻
횽
훀
훃
후
훅
훈
훉
훊
훋
훌
훍
훏
훑
훓
훔
훕
훗
훙
훚
훛
훜
훝
훞
훟
훠
훡
훤
훨
훯
훰
훱
훳
훵
훸
훻
훼
훽
휀
휄
휅
휇
휍
휏
휐
휑
휔
휗
휘
휙
휜
휠
휨
휩
휫
휭
휰
휲
휳
휴
휵
휸
휼
흄
흅
흇
흉
흊
흌
흎
흏
흐
흑
흒
흓
흔
흗
흘
흙
흚
흛
흜
흝
흟
흠
흡
흣
흤
흥
흦
흨
흩
흪
흫
희
흭
흰
흳
흴
흵
흼
흽
흿
힁
힂
힄
힇
히
힉
힊
힌
힏
힐
힑
힒
힕
힗
힘
힙
힛
힜
힝
힞
힟
힠
힡
힢
힣
％
##보
##절
##기
##♬
##에
##던
##하
##단
##가
##능
##한
##거
##자
##나
##1
##년
##6
##개
##월
##을
##곤
##셨
##군
##주
##겠
##지
##구
##중
##계
##는
##친
##격
##의
##뿌
##렷
##네
##화
##관
##이
##었
##어
##요
##로
##터
##톤
##입
##니
##다
##만
##인
##더
##집
##같
##은
##스
##토
##리
##벌
##레
##들
##잼
##오
##늘
##처
##음
##일
##를
##민
##국
##역
##사
##봐
##도
##홍
##본
##달
##고
##있
##정
##했
##부
##8
##0
##4
##2
##5
##벨
##서
##캎
##섬
##으
##봄
##전
##무
##죄
##분
##목
##님
##신
##노
##총
##교
##조
##참
##연
##변
##쭘
##함
##까
##대
##장
##급
##걸
##방
##시
##라
##명
##된
##현
##할
##것
##습
##통
##렁
##산
##유
##콩
##버
##와
##면
##크
##핳
##옥
##마
##람
##꼬
##드
##겨
##데
##모
##과
##바
##뒤
##덮
##야
##동
##똥
##추
##종
##엽
##곸
##흐
##래
##엑
##비
##해
##발
##u
##d
##g
##n
##9
##7
##수
##악
##선
##둔
##갑
##찌
##좋
##x
##키
##잇
##엇
##승
##잖
##아
##편
##행
##웹
##툰
##짱
##초
##려
##너
##꿔
##논
##결
##제
##성
##올
##갈
##때
##미
##캐
##럿
##용
##닐
##애
##순
##규
##둘
##린
##켜
##며
##론
##양
##말
##치
##솔
##표
##썸
##트
##럼
##런
##우
##란
##닌
##호
##상
##살
##게
##랏
##활
##파
##싸
##움
##낭
##맙
##됫
##즙
##위
##직
##녀
##듯
##건
##물
##머
##않
##았
##3
##L
##림
##차
##혔
##온
##르
##여
##랑
##균
##형
##적
##랬
##경
##팔
##넘
##겼
##죽
##글
##빨
##진
##짜
##렸
##꾹
##많
##청
##세
##히
##운
##뭔
##캥
##소
##내
##볼
##엄
##안
##왔
##속
##챙
##증
##테
##검
##텐
##T
##X
##융
##합
##학
##원
##두
##될
##릭
##깟
##좌
##빈
##센
##권
##씨
##송
##품
##뷰
##폭
##햇
##간
##혜
##누
##룩
##강
##울
##잡
##짓
##뭐
##되
##죠
##흠
##불
##회
##층
##냐
##탓
##였
##틸
##컷
##식
##피
##예
##환
##쓸
##필
##없
##생
##충
##답
##김
##궁
##축
##농
##천
##그
##룹
##굶
##긋
##실
##귀
##깨
##문
##알
##줄
##등
##덕
##포
##익
##왕
##곁
##력
##메
##느
##러
##텔
##먼
##약
##근
##새
##끼
##k
##b
##영
##감
##쟁
##립
##묘
##투
##율
##떳
##왓
##후
##류
##든
##석
##r
##억
##채
##놈
##썩
##옵
##각
##디
##뢰
##액
##션
##빤
##틀
##닭
##착
##왜
##졌
##당
##곡
##눌
##셔
##폐
##설
##록
##읽
##뇌
##작
##흡
##쩔
##공
##댓
##령
##P
##M
##S
##술
##임
##금
##꺼
##특
##업
##놓
##탄
##른
##배
##줌
##밖
##외
##큼
##획
##득
##태
##휴
##횟
##질
##긴
##풍
##맞
##썅
##복
##꾼
##몸
##철
##넼
##놀
##밌
##받
##륙
##됐
##잉
##재
##취
##뿜
##매
##랜
##탁
##팀
##붕
##량
##협
##카
##셰
##팍
##판
##먹
##져
##념
##책
##골
##박
##츌
##쳐
##름
##렘
##탰
##퍼
##베
##뎃
##별
##꾸
##뿐
##프
##얼
##심
##뎈
##엉
##덩
##쪽
##난
##료
##페
##체
##잎
##냄
##콜
##밑
##o
##l
##쓰
##떡
##밥
##끝
##번
##향
##랴
##릴
##코
##밟
##y
##p
##t
##w
##a
##c
##h
##남
##킨
##락
##날
##갔
##께
##냈
##엔
##촌
##I
##뱃
##돌
##길
##찜
##칠
##륵
##옹
##O
##G
##둥
##타
##렌
##못
##험
##돈
##허
##딴
##덤
##언
##Y
##N
##저
##항
##A
##밀
##찰
##쁘
##섹
##따
##갚
##망
##멋
##반
##졸
##슨
##높
##괴
##쩐
##삭
##족
##킬
##셈
##례
##준
##윈
##창
##암
##케
##컨
##팅
##막
##평
##m
##s
##츠
##푼
##i
##춰
##털
##완
##뭘
##K
##련
##풀
##냥
##뽀
##앵
##틴
##넌
##법
##패
##e
##북
##몽
##객
##널
##또
##최
##맨
##틱
##긔
##딩
##덴
##극
##찍
##잣
##값
##윤
##뒀
##팸
##넹
##응
##힘
##척
##랄
##낫
##잔
##돼
##램
##탑
##깃
##쫄
##긧
##첩
##떨
##삼
##겁
##벽
##얘
##광
##십
##촥
##멍
##욕
##믿
##듬
##즌
##놔
##콘
##꼴
##욯
##출
##즈
##쑤
##쇼
##워
##쯤
##염
##잘
##담
##백
##쳤
##봤
##병
##혼
##쁜
##몇
##겟
##끔
##효
##륜
##닫
##싶
##앉
##힐
##릇
##희
##셧
##칩
##삽
##점
##클
##닝
##햐
##됨
##황
##닼
##열
##빙
##웠
##엥
##났
##훈
##뉴
##앞
##닥
##낚
##겅
##됬
##맷
##씩
##혁
##긍
##뮤
##커
##닉
##죡
##밸
##럴
##짖
##몬
##칸
##땜
##좀
##줫
##껄
##헌
##숲
##윾
##싀
##낼
##됩
##줍
##땐
##궐
##줬
##맛
##캔
##콤
##뷔
##욱
##펙
##욥
##쫌
##견
##찬
##쉬
##줘
##웃
##롭
##걱
##왠
##붙
##왈
##루
##핀
##범
##렉
##늠
##멜
##빵
##듣
##똑
##떤
##괄
##벗
##렴
##롬
##짤
##푸
##퀴
##럽
##칭
##떼
##랫
##링
##촬
##R
##뜸
##봉
##쏟
##먘
##독
##싱
##턴
##짝
##찐
##떠
##슬
##C
##롤
##읍
##뜨
##블
##빠
##픽
##큰
##찾
##닙
##빌
##멘
##므
##랭
##꽁
##손
##흥
##펑
##엿
##굴
##벤
##겸
##붉
##눈
##쥬
##뽑
##랩
##췰
##v
##믹
##싢
##겄
##눠
##쿠
##첵
##헬
##낳
##쩡
##댕
##즤
##듕
##택
##티
##켓
##탈
##뻘
##갱
##렇
##뀐
##슴
##싫
##끈
##j
##벼
##켰
##색
##플
##W
##H
##쓴
##낸
##녁
##힌
##웟
##째
##껀
##납
##쌘
##젹
##압
##옴
##둑
##닷
##깐
##칼
##써
##깔
##혈
##빽
##믁
##존
##럭
##딘
##델
##징
##뭇
##넷
##촘
##끠
##킹
##눕
##혀
##브
##얍
##썁
##넣
##템
##찔
##욧
##측
##갤
##갖
##랙
##확
##껍
##컵
##뛰
##묻
##침
##핍
##꿀
##펀
##밍
##룰
##육
##쟈
##숭
##섯
##뮬
##즘
##픈
##뎅
##툭
##f
##쩌
##섭
##숙
##헤
##탐
##낀
##빅
##쿨
##눜
##접
##힝
##딥
##츼
##앙
##랐
##짐
##놧
##웅
##빛
##켯
##겡
##팩
##멸
##튀
##긱
##롱
##꽂
##빚
##꿍
##쟤
##폰
##젠
##곳
##럥
##팬
##흘
##렀
##팁
##잊
##딸
##냅
##깈
##맥
##밋
##뿅
##촉
##씀
##뱅
##F
##퇴
##멤
##곱
##렵
##놨
##옆
##냨
##슈
##엮
##껏
##뜰
##쀼
##쮸
##꺄
##옌
##땀
##벅
##J
##즉
##폿
##꿉
##렬
##췄
##빗
##탕
##낮
##률
##몰
##냠
##퉁
##껴
##쌉
##쉐
##퉄
##B
##찢
##잠
##꽃
##큌
##엌
##룸
##뱀
##폴
##랍
##뼘
##릿
##쉽
##E
##큐
##삐
##햄
##쥐
##및
##혹
##짚
##롸
##츄
##욬
##헐
##U
##략
##Q
##맹
##홀
##웰
##엘
##졐
##앤
##쌤
##쇠
##훔
##믄
##D
##얏
##츨
##낰
##셜
##숫
##끄
##쓍
##봣
##딜
##넠
##뚫
##샷
##첸
##떄
##헨
##튼
##뺐
##V
##땡
##앗
##붐
##칙
##겻
##섰
##낌
##숀
##겦
##쿡
##겜
##펴
##몿
##엨
##겹
##떻
##멀
##땅
##볕
##닦
##톡
##앨
##엠
##뜻
##쿵
##컴
##빡
##냔
##뻥
##곰
##쟎
##샘
##꽈
##벙
##곶
##삡
##뺩
##텨
##쌍
##먕
##뜩
##릐
##샤
##킷
##뇬
##팡
##읁
##녕
##졓
##냉
##둬
##덪
##씹
##낙
##쀨
##맘
##챴
##묵
##굥
##꼼
##얌
##혐
##쿤
##팻
##귄
##뽕
##홉
##겔
##쏴
##럠
##팽
##돠
##맡
##펜
##밴
##챔
##뤄
##뀜
##얀
##칰
##딪
##븐
##왘
##쇄
##쩍
##딱
##썻
##볍
##춤
##줏
##셉
##붸
##뀌
##폄
##꼽
##찮
##톱
##쩦
##핑
##끗
##봅
##뀔
##겋
##쁠
##씻
##됏
##늨
##뫽
##숨
##깎
##빼
##졋
##튜
##q
##z
##낄
##춘
##킈
##쌀
##읶
##겎
##갇
##첨
##벋
##꿈
##뚜
##눔
##궈
##뙈
##펫
##뻐
##쳑
##롯
##룬
##펏
##겐
##띨
##굿
##펼
##옷
##젓
##벡
##짴
##뒵
##휘
##궤
##핵
##봇
##딹
##뚝
##갘
##믓
##홈
##셀
##텀
##깉
##띄
##캡
##뿔
##댄
##뜯
##싡
##룡
##챌
##밤
##얄
##Z
##펨
##숍
##헛
##앜
##탱
##맏
##젱
##겪
##렙
##셋
##짰
##젤
##덷
##릅
##캠
##몹
##끌
##묭
##텍
##헣
##낟
##렠
##쓔
##쨩
##됌
##넨
##욘
##쿼
##뇨
##덜
##돔
##핸
##뤘
##똘
##깜
##띡
##끊
##씽
##샀
##횡
##짔
##싯
##솤
##갓
##쁨
##껌
##킴
##쌔
##얔
##뛴
##뻔
##얻
##햏
##콕
##턱
##썽
##뭉
##톰
##섞
##녔
##펭
##됄
##눞
##훨
##둗
##뉘
##띠
##넴
##댔
##팝
##쉼
##겉
##젝
##깝
##틈
##흑
##깅
##짠
##컬
##쟝
##윙
##킼
##뻡
##숩
##뮈
##볗
##톈
##웛
##럅
##맺
##렛
##뎀
##닮
##늦
##녜
##곧
##뺴
##칫
##갠
##쯱
##곜
##먄
##쳣
##짆
##좨
##슘
##괜
##쵸
##쥴
##찡
##랠
##좃
##덱
##썼
##힙
##뚱
##뒷
##릎
##꿇
##뺏
##빔
##꼭
##쁫
##콰
##텅
##쌩
##쉴
##됀
##렐
##멱
##폼
##웨
##좁
##훤
##꼈
##갰
##탯
##퓨
##랔
##닛
##짞
##툼
##샵
##즐
##텟
##깡
##잃
##걷
##닿
##줕
##샨
##끡
##슷
##탠
##둡
##짢
##갸
##녹
##뻗
##빰
##튤
##싼
##꿨
##촹
##밭
##쩜
##뜌
##뜐
##넝
##쭈
##갯
##젼
##콧
##뎁
##냇
##덛
##픔
##얽
##욜
##잤
##듀
##닠
##셴
##쎈
##맠
##뺘
##밝
##뱉
##듭
##옄
##뎡
##쐐
##밷
##짘
##랓
##쿄
##퇘
##썬
##쑵
##뤠
##켈
##븅
##눅
##뎌
##걀
##웡
##옼
##펠
##멈
##젺
##쪼
##좦
##챈
##썪
##잌
##윌
##횐
##씬
##굽
##잦
##뼈
##볶
##읿
##샬
##듸
##쭝
##깥
##벖
##깽
##쏘
##댠
##팟
##췬
##깋
##흙
##쾌
##뺨
##핥
##붓
##핰
##옛
##텃
##쎾
##겤
##쎄
##졍
##훌
##륭
##쒼
##띤
##햌
##퓌
##캉
##몆
##쬬
##휜
##괘
##꽉
##쫙
##몀
##뜬
##닒
##툴
##빆
##슝
##섀
##웈
##꺠
##쌈
##돋
##롴
##쨋
##샌
##핏
##쉘
##컹
##읋
##좝
##뿍
##엎
##핬
##쟀
##긄
##뭣
##쩝
##꼇
##쑥
##밉
##뺌
##룐
##끓
##슥
##읜
##싣
##쥼
##킄
##싄
##쥥
##랗
##꼰
##싹
##헝
##훗
##펄
##팼
##쉰
##젊
##딬
##톨
##킥
##셌
##맴
##딕
##샹
##룽
##닯
##딧
##찝
##귤
##넥
##봗
##쥑
##넬
##헠
##눙
##벵
##볻
##젆
##젭
##곘
##럾
##얜
##뽐
##꿜
##겈
##푝
##샠
##뚤
##캬
##샛
##멧
##뮨
##텰
##뺀
##웬
##숑
##짬
##솬
##랼
##빋
##쫓
##늣
##껭
##댸
##땠
##깻
##훕
##쏙
##늉
##쭐
##뗴
##쌓
##밈
##싴
##쏜
##몫
##봨
##퓰
##빱
##웍
##셐
##쏠
##릉
##첫
##댜
##팠
##멕
##걍
##숏
##틋
##웩
##핼
##텝
##뻑
##첼
##섺
##왼
##뻤
##씌
##핫
##옮
##꺟
##싵
##돛
##틓
##갹
##슾
##퀄
##쓒
##멊
##솟
##홥
##랟
##샏
##뵀
##욤
##봫
##좇
##밓
##꿥
##앎
##씁
##닜
##츈
##잽
##쑈
##윽
##녘
##윗
##녴
##삔
##퀸
##긎
##쌋
##쇅
##휄
##갭
##굳
##얖
##썹
##둠
##믈
##긕
##댐
##삘
##뵈
##잏
##퀼
##푕
##띵
##뽜
##꿴
##쯔
##낯
##좆
##굼
##횹
##샾
##챠
##죰
##켄
##늄
##짯
##쟣
##깤
##땟
##쟉
##덟
##곽
##뵐
##촛
##뱌
##앚
##뗌
##럐
##쨌
##댘
##삶
##쏱
##윅
##걔
##찹
##덧
##퀘
##쥤
##섴
##즁
##텁
##졔
##샊
##댁
##챤
##댈
##짧
##읎
##꺾
##츙
##덥
##떵
##꺽
##콥
##쳈
##셍
##솜
##둣
##믜
##듈
##큿
##읂
##럇
##퍽
##뫄
##헹
##쟌
##쇽
##홬
##봬
##뽄
##젖
##랰
##죵
##큘
##늑
##섵
##쩨
##죸
##뗄
##뇸
##싰
##겆
##톄
##쭉
##쨈
##뫈
##륲
##펐
##뀨
##쾅
##랒
##앟
##흉
##젔
##듴
##힉
##뒥
##흰
##짛
##룻
##펌
##녓
##씸
##헙
##긁
##깁
##혓
##좭
##쒸
##휑
##솊
##껑
##꼣
##쟂
##뷩
##잍
##앓
##헴
##뱜
##늡
##넓
##튕
##팜
##읔
##맵
##훼
##찼
##좉
##솥
##삣
##씋
##윂
##첬
##쉑
##뢴
##맑
##궜
##깊
##홓
##읺
##젛
##돗
##왑
##둉
##굉
##췡
##췌
##쾈
##빴
##웤
##넛
##귝
##탔
##묶
##댯
##궄
##먀
##맄
##헥
##퀙
##앍
##씍
##듦
##훠
##갛
##엣
##걋
##녆
##꼐
##릂
##곀
##챘
##쪘
##켔
##죱
##됰
##뵌
##늙
##돞
##졎
##찻
##렜
##랆
##곌
##쁭
##쪄
##묄
##흔
##뺑
##뼉
##숴
##낱
##닪
##핮
##쏫
##솨
##잭
##쵝
##팤
##힣
##슼
##볏
##몪
##땃
##붇
##잨
##륨
##봥
##뒹
##풑
##샴
##몃
##봔
##캣
##왤
##쿰
##냡
##닾
##숌
##냑
##뤼
##샙
##긐
##씦
##앱
##컼
##핻
##갣
##힛
##갴
##롶
##헷
##텄
##죗
##푠
##랖
##밐
##밎
##엏
##멩
##웋
##퉈
##챗
##탭
##넦
##썰
##랮
##얐
##셯
##츤
##븩
##엤
##웁
##풋
##븨
##켁
##댱
##텋
##쇜
##킉
##캄
##씰
##쥔
##맟
##쫀
##텻
##맇
##쯧
##엊
##뵙
##삿
##컥
##깸
##깠
##앝
##샥
##놐
##컀
##흫
##셤
##붜
##둰
##짊
##놉
##늬
##뇽
##뮥
##묙
##뢀
##휠
##헀
##긓
##왱
##땨
##넙
##픠
##딛
##쏨
##탤
##귈
##돤
##캤
##긒
##톧
##쎀
##씪
##눴
##밬
##쏭
##넫
##앰
##쫑
##쑬
##릳
##뽈
##쥰
##슐
##렺
##뢍
##폑
##졷
##띁
##넉
##쳉
##쮝
##쨕
##돱
##딨
##잰
##쉣
##쬐
##헉
##븡
##쐬
##갃
##뻬
##얹
##웜
##꼿
##퍈
##잆
##홋
##숸
##핧
##쌞
##윘
##똒
##욛
##킵
##읭
##봘
##읃
##뤀
##뎨
##딋
##셩
##눼
##넿
##볐
##넺
##큭
##컸
##엾
##딲
##홧
##땤
##냬
##얶
##퉤
##텈
##둧
##닺
##곗
##솝
##옠
##붘
##깍
##깧
##몄
##샅
##깬
##댑
##읗
##늪
##딫
##챕
##븜
##쉅
##탂
##놬
##옸
##꽤
##랎
##뛸
##넸
##뺠
##쓱
##씝
##퀀
##폈
##뇻
##밧
##흩
##앐
##쫒
##얕
##뭍
##얗
##닍
##젘
##뿡
##옂
##챦
##좔
##낋
##닳
##퐈
##곺
##굑
##밨
##쯘
##귐
##옻
##녯
##팎
##텬
##떸
##뷴
##얇
##샸
##튠
##돨
##쌰
##뺍
##겍
##궂
##죤
##뛔
##찟
##핤
##홤
##돕
##춧
##숱
##켠
##렼
##갗
##롵
##쳥
##뉩
##쌌
##깼
##귱
##씐
##쯕
##뫃
##퉜
##쐇
##낵
##춥
##땄
##퐁
##맻
##귘
##떯
##뿛
##끍
##쩕
##탸
##뼝
##췻
##훅
##쒀
##섲
##덫
##잿
##봌
##꾀
##틐
##졉
##섿
##옐
##룟
##읫
##뤗
##닏
##쒜
##촨
##옶
##맗
##굦
##젬
##땸
##맣
##맜
##쑝
##햤
##떴
##잲
##첟
##뗀
##롡
##믕
##챂
##쳌
##쳬
##놯
##읻
##츰
##뮌
##훝
##훜
##훟
##옳
##뗑
##슽
##굔
##뢐
##젯
##앴
##꽝
##짭
##잕
##떫
##뎄
##핲
##겝
##썌
##헑
##땋
##잋
##탛
##돜
##켤
##뉠
##겧
##꺙
##괭
##탹
##챵
##뜽
##듷
##흗
##떈
##괙
##늕
##뽁
##솈
##텥
##뻣
##샐
##꿧
##샄
##캌
##쳫
##짼
##껔
##낏
##곯
##묾
##꿰
##숖
##넵
##딤
##뎐
##닻
##잗
##횽
##큥
##릥
##궥
##죈
##홰
##슌
##벰
##뒸
##셎
##떱
##궇
##왖
##쇙
##빻
##빘
##쨔
##쉿
##팰
##촞
##욨
##댙
##칻
##캘
##괌
##뷉
##걹
##쉈
##헸
##싲
##땈
##멓
##깢
##앖
##뒈
##씯
##꿩
##횻
##읊
##왐
##끽
##윕
##퍄
##붰
##픜
##큅
##뱁
##됭
##쿸
##렋
##굵
##풉
##쫘
##긷
##챃
##텤
##퍌
##뇅
##컾
##핱
##쉨
##혖
##냌
##햬
##챨
##띔
##덯
##쌕
##샗
##졈
##팈
##쨜
##튬
##릏
##쾨
##탬
##뉵
##괸
##켴
##듰
##푹
##끰
##늧
##퐝
##펍
##땍
##첞
##읏
##뗙
##럄
##앸
##휔
##눀
##챋
##랸
##쓥
##곪
##뼌
##숟
##촟
##쉭
##즄
##읠
##엃
##궹
##곻
##쁟
##냦
##혛
##뵤
##캇
##싨
##뼛
##끋
##떙
##켐
##셸
##됍
##뱡
##꿘
##짗
##앂
##쟹
##칵
##뫼
##낑
##쳘
##낃
##팥
##겢
##쓉
##햊
##깰
##읅
##꽊
##쫩
##뉨
##뷸
##삥
##큨
##싈
##옜
##꿂
##욹
##꿋
##붑
##놰
##잫
##껰
##쵯
##켕
##뺄
##휨
##댣
##튄
##쉔
##쎔
##렝
##쉒
##벎
##뚀
##칮
##듐
##줩
##긇
##떽
##됗
##꺅
##촤
##앳
##퀵
##놋
##묜
##쎌
##윸
##땧
##삸
##뿟
##콸
##맃
##낡
##삤
##랅
##댴
##슺
##멷
##쯰
##쟜
##넜
##좐
##죌
##깄
##픕
##삑
##찿
##휼
##쪔
##삳
##꼳
##뙇
##죙
##싁
##휙
##멉
##챀
##짙
##눗
##맸
##췃
##쨀
##훙
##슿
##낍
##컄
##걁
##뗐
##뎬
##몈
##돡
##븟
##숰
##짥
##뿰
##텡
##깓
##쌱
##뮴
##귴
##햔
##촙
##칀
##띌
##왛
##벳
##갂
##슙
##쉥
##밣
##꿎
##츕
##멎
##풔
##졀
##맬
##촐
##윳
##홐
##쁸
##쎅
##쭤
##왁
##쩣
##뭄
##땔
##똠
##웝
##껼
##댝
##촠
##퇄
##둿
##궅
##괐
##핡
##뜡
##줙
##빕
##큔
##뻰
##큽
##켸
##뭥
##킁
##쐉
##쳇
##놎
##콱
##멨
##늫
##씜
##렣
##앋
##뀍
##쁩
##쪗
##럈
##햫
##숄
##옾
##둟
##쉙
##꺈
##쇗
##폇
##킝
##븋
##쳔
##탉
##캅
##켑
##굻
##빢
##흣
##륾
##몼
##헜
##틍
##맍
##퓸
##벱
##삵
##풱
##냣
##낔
##굡
##켘
##퇼
##뀬
##힠
##칲
##꺘
##턍
##팹
##핌
##썫
##볘
##횔
##븰
##귬
##삗
##섘
##훋
##됑
##븎
##렩
##륿
##벜
##뤈
##퇀
##퐐
##쭌
##깕
##훑
##슛
##죳
##젰
##녤
##룍
##뇰
##헿
##앛
##읕
##촼
##뱆
##듼
##걩
##휸
##쳧
##셬
##쟆
##슄
##덨
##욲
##샇
##밯
##씃
##뜀
##옭
##욍
##뙤
##푯
##쒓
##뎠
##뀠
##츅
##샃
##햅
##홝
##꺓
##칽
##짇
##웻
##짹
##뱐
##듲
##쉉
##옇
##롄
##갋
##밮
##챡
##뤌
##윰
##먻
##푴
##눤
##뺒
##끅
##챳
##펩
##얺
##닞
##됴
##줝
##먺
##몐
##욌
##츛
##풎
##풐
##껜
##껬
##긘
##쯨
##슉
##퀐
##줭
##쥘
##쓤
##컫
##늼
##퀑
##욻
##믐
##븝
##쨰
##퀭
##밒
##슭
##빳
##큳
##늗
##쌬
##껒
##픙
##뮹
##쟞
##멌
##춬
##섣
##삷
##롕
##옣
##퐤
##꺔
##꺵
##빪
##얋
##쁄
##쯈
##샋
##잟
##캏
##놩
##눹
##얒
##얾
##걐
##벚
##믾
##죧
##괞
##샜
##춚
##떰
##곅
##훀
##줗
##맒
##튱
##틔
##녾
##춍
##꽌
##됔
##얬
##솅
##툥
##긑
##쇆
##읖
##킾
##덞
##듧
##옿
##쪾
##갬
##휩
##엶
##볓
##릋
##픅
##잩
##툽
##딀
##셕
##빩
##팦
##왷
##븤
##핶
##퐄
##듳
##랋
##뵜
##젴
##톼
##뉜
##혘
##렂
##켬
##끕
##뎉
##캈
##줯
##싳
##벞
##쩟
##쟨
##팃
##깣
##톳
##넽
##됳
##쩄
##좒
##녠
##즠
##섕
##챼
##뱰
##햠
##섶
##봏
##솸
##퀻
##돵
##칞
##똫
##쎘
##볔
##힑
##콬
##뭏
##떔
##솽
##퉷
##붱
##튵
##뎋
##릈
##듫
##췅
##렿
##깇
##똧
##첝
##휭
##훵
##튿
##쥉
##탘
##뽝
##눚
##롲
##툐
##햙
##뱗
##쇣
##뤱
##뷀
##읆
##쒞
##줰
##뉌
##쇤
##켱
##땬
##몾
##핝
##뤨
##갵
##왭
##헵
##읩
##쎼
##닽
##짦
##듵
##둞
##쉛
##씉
##봑
##싿
##깪
##몴
##뢔
##왰
##쒝
##씅
##쏩
##쳴
##챱
##뾰
##틑
##즛
##붹
##낕
##빯
##늩
##듥
##욪
##딯
##붏
##첧
##뉍
##쑌
##슁
##쀳
##맆
##뭡
##꺀
##퀔
##됸
##숼
##쩰
##칯
##놕
##뷱
##몁
##뚠
##둙
##엩
##꽅
##앆
##랃
##즹
##롁
##옺
##뀝
##륑
##욮
##튭
##븍
##쌨
##읮
##귿
##챰
##셖
##툿
##힢
##뱄
##밞
##볭
##횅
##뼙
##흌
##즴
##샣
##좟
##퇔
##샡
##섷
##풓
##둼
##왇
##튝
##돟
##섻
##읓
##홣
##쇈
##빧
##졵
##쯜
##쎽
##쑴
##좡
##럳
##쨍
##왚
##꿸
##낢
##껫
##벹
##곷
##욿
##껨
##삯
##즥
##둩
##엡
##읇
##쐈
##횃
##렆
##쌖
##힁
##뤸
##벟
##쯩
##섁
##뉸
##푷
##젵
##괏
##찤
##궘
##홛
##큉
##쒹
##곹
##옅
##햘
##팓
##똬
##쨉
##읐
##뗘
##쵀
##맀
##퐅
##쮜
##쎵
##즨
##롷
##큮
##븉
##녛
##눃
##쪕
##꿃
##싷
##홯
##릠
##쳨
##걘
##쨴
##쬑
##묫
##윷
##쪙
##롳
##갲
##혠
##귻
##좈
##꽐
##쎠
##솓
##쥭
##춴
##덭
##뚯
##믙
##샫
##쌥
##먈
##춪
##룀
##뛍
##텇
##푤
##띾
##쑨
##닁
##냤
##맫
##쉌
##랲
##믇
##읈
##랻
##졻
##뢥
##쟙
##졿
##뎧
##렫
##좰
##돎
##낐
##갫
##뚨
##캭
##쿅
##횝
##룔
##녂
##돚
##쫏
##삻
##곢
##붭
##깂
##퐉
##콌
##깞
##냩
##끙
##믽
##볃
##앀
##쭛
##땩
##풒
##킿
##웽
##좩
##껐
##렄
##숯
##튓
##븥
##륻
##뺼
##넋
##덬
##핟
##뤃
##쟄
##훍
##춫
##턀
##웉
##캑
##뚬
##폽
##섈
##잒
##뎇
##갢
##샎
##꺊
##쨐
##잢
##뉼
##꺆
##뭠
##췈
##쾐
##뤡
##옦
##읒
##캍
##꼹
##땢
##녈
##쳄
##쿱
##쿫
##쯀
##롼
##텼
##깩
##젚
##쒑
##섂
##쵼
##쎴
##갉
##똔
##퇵
##렊
##똭
##쏐
##뷜
##춋
##봈
##겯
##죨
##쎜
##잴
##뱍
##쇌
##빸
##줉
##똴
##굲
##얅
##귁
##꾜
##즏
##뜾
##걜
##햑
##쿔
##쎤
##퐆
##궷
##쒔
##뱔
##꿏
##봠
##읹
##뛟
##꿐
##팉
##퉵
##댬
##붤
##냘
##픂
##넟
##쇳
##빟
##뭊
##쌜
##븈
##얷
##좠
##젿
##굇
##쏰
##쩬
##뎍
##쩧
##쇟
##햎
##닢
##쥈
##줈
##륶
##뽥
##놖
##훸
##멬
##캨
##룤
##읉
##넡
##탶
##럵
##궝
##펖
##옘
##쥣
##괬
##턑
##횓
##젾
##홪
##찪
##봊
##뒨
##옙
##맂
##묨
##쫛
##줜
##먠
##쌎
##쑹
##팄
##콴
##뜍
##죻
##숮
##엗
##킫
##롹
##횜
##뺫
##닟
##쳒
##깆
##쫜
##붛
##얂
##뇐
##댤
##륩
##닩
##뱨
##곔
##탙
##뵹
##읙
##촏
##닸
##캿
##왴
##몋
##홱
##슩
##꼌
##킦
##껶
##찲
##붥
##뷇
##뭰
##걌
##맼
##햣
##띃
##똨
##줴
##듄
##솃
##닶
##씤
##삾
##곈
##몔
##뫔
##릌
##롣
##햡
##웱
##삺
##캆
##톽
##쟐
##셇
##엪
##뽭
##떩
##빬
##뿨
##봟
##겾
##칱
##뱎
##셑
##챽
##걿
##쉄
##닡
##롥
##웾
##씿
##껗
##냪
##띅
##켙
##쟛
##묀
##뱈
##귓
##뻇
##녇
##쉇
##봍
##귾
##앺
##푶
##앶
##륐
##틜
##눳
##몌
##엫
##봦
##끤
##뇔
##쎆
##삲
##옽
##꼉
##핔
##헾
##눟
##쭥
##쮹
##걈
##좸
##넒
##둫
##싞
##됃
##셆
##뇜
##헭
##륍
##헼
##뜹
##젇
##꽥
##쵿
##잪
##섧
##쵁
##셛
##넚
##밙
##뺗
##딍
##윜
##퉆
##똵
##슆
##쯥
##쮠
##햝
##뀷
##곃
##읨
##굘
##궙
##욷
##엍
##됵
##괔
##뤂
##훳
##뙁
##댛
##섓
##쌴
##좢
##줒
##솰
##쏳
##캰
##팧
##앲
##옝
##쥨
##얠
##즵
##썜
##먽
##좄
##듪
##웢
##겒
##뗳
##폅
##싺
##퓡
##듶
##벏
##몱
##륹
##풰
##녺
##륄
##뫗
##몣
##왉
##잧
##먁
##돸
##쒱
##딻
##뎊
##슅
##왹
##밪
##벾
##춌
##뫠
##끎
##즼
##놘
##줔
##봃
##됱
##릔
##펵
##뽤
##댚
##뀸
##쪠
##텣
##툠
##셱
##륏
##뷍
##썎
##볌
##슦
##흨
##쉾
##픓
##괼
##퇭
##풕
##캵
##칶
##짏
##뺵
##떧
##튁
##켝
##쓌
##뻠
##뽱
##웼
##끾
##뮐
##좼
##쭸
##앻
##훻
##챁
##끜
##쬽
##큇
##뇄
##눰
##턔
##룯
##씾
##띈
##쁀
##샂
##릃
##쾡
##쾰
##츹
##뜷
##엧
##꽹
##뉭
##췸
##흛
##싑
##닄
##꼤
##츱
##눛
##밫
##걵
##쵤
##웧
##놂
##홨
##냏
##톺
##붖
##쑷
##헚
##웆
##엦
##툉
##텉
##솎
##뎆
##벛
##뛀
##헁
##얙
##헱
##롻
##럤
##릁
##튻
##떢
##넀
##늰
##듁
##푀
##뵨
##돴
##뺃
##녅
##찏
##벊
##찧
##껸
##쒠
##죔
##갍
##냒
##쯪
##셓
##묠
##벝
##뜔
##턐
##쥽
##텦
##햿
##줐
##뗏
##줚
##똰
##긤
##쟥
##닊
##큣
##끨
##욼
##즞
##뒴
##뻿
##똣
##킌
##쬭
##띻
##볁
##웸
##욀
##잀
##룁
##톌
##킇
##낞
##쟘
##뱩
##쒴
##랱
##귣
##벧
##끵
##뗬
##굨
##돐
##솀
##즡
##먜
##뗫
##킀
##땣
##쓐
##헊
##큻
##좽
##긂
##셥
##젋
##옉
##낒
##퉽
##웎
##좍
##샒
##꺍
##쯉
##햨
##퉂
##쫴
##츸
##혰
##뤽
##셒
##틉
##읪
##첮
##왯
##춣
##쁴
##뒜
##좂
##닣
##쌧
##뭌
##퍠
##횄
##펲
##솧
##긩
##뵛
##꼷
##걎
##줱
##엞
##혿
##힄
##뼐
##앃
##윱
##쐰
##겓
##횤
##륀
##뢉
##쭁
##룱
##귯
##퓽
##랳
##씈
##냫
##핞
##죹
##쬼
##쭏
##멶
##둚
##셃
##뭷
##뛓
##뻨
##쉡
##굣
##녑
##칳
##낗
##짉
##춛
##궛
##쏵
##늅
##벓
##췐
##갼
##촵
##엙
##힜
##핢
##뿓
##딈
##웄
##륌
##멫
##쫍
##늴
##럻
##봴
##꿁
##욭
##픗
##혚
##쳡
##탴
##튽
##밠
##픋
##쿳
##똡
##놏
##쭙
##릊
##륽
##즑
##꿱
##튶
##덝
##땆
##뫙
##깹
##샼
##꾱
##띰
##쪜
##릵
##찯
##윔
##겊
##룜
##봡
##큠
##뎟
##긜
##뎔
##혤
##뭅
##벍
##꿯
##핕
##좤
##횸
##훃
##쪹
##팑
##끚
##븽
##쒰
##됮
##짅
##렪
##쥅
##벘
##씺
##쭊
##탇
##킅
##갊
##걕
##댭
##쇡
##쩠
##갺
##갷
##쨥
##씼
##췁
##엒
##묽
##싟
##촣
##멪
##츗
##죴
##퀏
##헡
##컿
##욉
##랚
##칬
##늟
##렅
##킸
##뺸
##찎
##돝
##욋
##휵
##뢱
##얭
##쏸
##쏼
##쐭
##쉗
##췽
##뽚
##앹
##댗
##뗨
##릶
##엻
##쒭
##뵘
##섳
##뚣
##뀰
##괁
##튈
##쫃
##짫
##섐
##뒝
##붂
##꽙
##긌
##띿
##갅
##홗
##춯
##꽄
##앧
##횬
##듨
##탖
##쀠
##꿑
##쎃
##멐
##쌗
##긹
##섥
##돍
##뫁
##옫
##갏
##웑
##꺜
##텽
##쥠
##떪
##쓩
##뼤
##땽
##흭
##굤
##쿹
##쿺
##뿝
##쀍
##똟
##뵬
##휀
##쓋
##낪
##샆
##쫭
##겥
##벉
##솦
##귑
##벴
##벸
##홟
##뼠
##퍅
##싕
##탗
##햟
##렾
##볫
##쨘
##댇
##뜁
##햚
##늌
##쳅
##뎻
##퀜
##돰
##핪
##밳
##딞
##짳
##춉
##녬
##죚
##뤅
##뚸
##긲
##췆
##퉐
##횢
##왝
##꾿
##곕
##힗
##푄
##볷
##븀
##푱
##쯎
##엕
##쿜
##겇
##괒
##쁙
##쪌
##슟
##끉
##햍
##꼨
##헓
##큵
##럊
##놤
##갆
##짎
##뿕
##쓑
##큪
##걑
##놜
##붆
##먾
##윶
##냊
##넞
##폔
##슲
##걾
##걻
##빏
##훓
##샑
##낅
##엢
##댖
##졶
##솩
##빜
##씞
##몉
##뻦
##툳
##줓
##닧
##뮷
##릍
##믑
##걽
##줮
##삠
##뉑
##뗠
##떗
##먐
##빂
##슢
##틷
##낝
##뿃
##끆
##꾺
##겷
##룠
##켲
##쇀
##꽘
##틘
##펕
##츔
##켉
##짶
##쐿
##븓
##뺙
##슀
##헳
##웓
##렢
##쎳
##텆
##켛
##핓
##욝
##퐙
##좜
##귭
##컁
##돳
##욈
##썖
##몊
##먱
##숬
##둌
##빍
##춱
##탼
##핣
##흜
##먿
##뭨
##칝
##봒
##땁
##삮
##읰
##퍙
##컽
##햭
##줠
##췍
##졳
##퉥
##갌
##핗
##롫
##흎
##빝
##둨
##힞
##맔
##졩
##펔
##궸
##챶
##맋
##쁑
##뷁
##굈
##굅
##옩
##잛
##꼥
##쳦
##볒
##땰
##욖
##녿
##멵
##뉫
##튐
##옰
##걲
##곂
##맊
##엵
##훉
##꾤
##뱓
##낓
##앢
##뵷
##젷
##숔
##뵁
##핦
##쐥
##릡
##쑙
##엷
##윟
##졲
##뮝
##곙
##슫
##됥
##꺴
##뙨
##섮
##뒬
##뻉
##줅
##룝
##넎
##됒
##뚕
##뻒
##녖
##삉
##싚
##뼜
##츞
##믠
##닲
##펰
##읾
##뾱
##얨
##꺳
##덲
##쯛
##뭋
##궃
##쏀
##퀠
##싮
##줳
##겺
##쩻
##쭵
##뢈
##즣
##떘
##픵
##퐌
##쐅
##섟
##귕
##넾
##쎗
##밦
##꿬
##섑
##륫
##쳊
##쑐
##긏
##럌
##쳠
##꽜
##췤
##륰
##졑
##듡
##엓
##챸
##힡
##쥡
##렡
##숵
##뀡
##둏
##꼶
##뵏
##갞
##읳
##쨬
##퉌
##맅
##곝
##솉
##믺
##줃
##밢
##랇
##롔
##흏
##앏
##벲
##퓔
##줋
##쳰
##흓
##톻
##툲
##뒙
##뚷
##깛
##핽
##쌐
##뀩
##멥
##뻩
##굷
##굚
##궮
##첯
##깾
##뱽
##눵
##믛
##퇮
##쭭
##긬
##퇸
##멁
##퇑
##뺕
##긻
##댂
##욺
##쩩
##덋
##츜
##붠
##벆
##쌸
##뗸
##죿
##꿕
##젅
##쮼
##땝
##렦
##궉
##붅
##돘
##쩓
##낥
##튑
##젣
##밗
##볇
##츳
##씥
##흦
##퓬
##놑
##쾃
##쇘
##벩
##듟
##꽇
##짮
##츷
##젲
##욳
##먆
##끛
##쉧
##즎
##럣
##탵
##횩
##꾈
##얫
##헗
##겂
##젏
##쉜
##뀽
##뷐
##궨
##꼅
##쫰
##옃
##꾾
##읯
##빹
##궭
##췕
##슠
##앾
##짪
##뒐
##핖
##쯴
##씮
##렗
##뚭
##쁍
##쩃
##랕
##졘
##뻄
##텸
##괕
##췝
##뜱
##뇠
##뺭
##럮
##짂
##끟
##뽠
##덹
##혇
##혷
##넏
##썐
##쾽
##녭
##싦
##땎
##딭
##빭
##윻
##폨
##찓
##랂
##얩
##뚞
##푭
##벻
##겴
##딿
##뷘
##볹
##혾
##폌
##짣
##쒯
##늚
##홑
##넄
##칡
##컇
##폥
##훊
##눂
##춸
##뉔
##눍
##췟
##켷
##놌
##팛
##슏
##얃
##굱
##먛
##찴
##댷
##춏
##젒
##뛃
##툻
##쑉
##룅
##뇹
##헋
##쿙
##궍
##퉛
##펒
##됙
##딖
##앇
##촜
##냎
##벶
##뀟
##샞
##뉰
##둪
##뱟
##뵥
##겲
##됢
##됧
##뿤
##궀
##뷕
##꿻
##뿠
##겣
##싓
##켞
##촪
##늿
##즷
##짋
##쨚
##쎕
##늒
##쐑
##웖
##릱
##엋
##찫
##헰
##솣
##궯
##볅
##삱
##씟
##띕
##웦
##퍵
##깦
##웥
##텓
##뺅
##쉟
##뒌
##쾍
##괍
##떦
##듑
##뭬
##졨
##붗
##럶
##븃
##곬
##캪
##뜪
##왂
##윀
##툇
##톹
##퍀
##퓍
##찷
##숧
##잂
##힏
##콯
##틕
##늽
##밁
##섽
##앿
##앩
##뫀
##듢
##뫌
##쵹
##곩
##꺌
##솼
##궑
##쫗
##룢
##큄
##쟠
##캊
##낻
##롰
##윝
##잚
##봩
##뎜
##릲
##븻
##홇
##쵠
##쾀
##덗
##죕
##띧
##싥
##젃
##뭃
##뺜
##젉
##굌
##릘
##긊
##썀
##폳
##딳
##쩢
##붊
##딷
##텢
##뷤
##뽷
##뭤
##럱
##싐
##혙
##혉
##씡
##뚹
##늛
##롞
##꽆
##렑
##빶
##뻫
##옱
##렃
##덈
##잁
##짒
##칟
##쨟
##꽀
##믏
##뒺
##틧
##륔
##뫕
##뤳
##휰
##핃
##솖
##븬
##껙
##뜼
##짌
##뜮
##눝
##뎽
##덍
##돇
##뽂
##짲
##띱
##폯
##믖
##붼
##뀀
##빫
##뗜
##줨
##껚
##눋
##뱤
##욽
##핯
##턷
##잳
##켵
##됤
##퀡
##굯
##됟
##웒
##흄
##냍
##굾
##볆
##갿
##혝
##흪
##쬎
##붃
##쭞
##눨
##퉹
##럲
##쭹
##힟
##롈
##괵
##믱
##췜
##끀
##랺
##샟
##빷
##챜
##찱
##씷
##첰
##즬
##뗭
##볜
##꾬
##븢
##솄
##몡
##쓷
##햰
##퇬
##슯
##쎙
##쒈
##윹
##젶
##횰
##헯
##젗
##뉅
##틂
##탆
##픞
##죷
##뢋
##웊
##믰
##짷
##몯
##킐
##릾
##왡
##깗
##맿
##뛧
##뻴
##쮕
##굪
##킽
##맢
##젙
##똗
##첤
##훽
##뜅
##걺
##쀄
##씊
##쥿
##둛
##쉞
##뽰
##냗
##셁
##뫘
##롮
##돽
##춐
##넗
##넖
##곋
##됻
##붔
##췼
##똩
##쉪
##볽
##쏔
##듹
##풹
##좬
##샦
##겫
##쉩
##겵
##끐
##췹
##꽠
##듩
##뢕
##똈
##펃
##쿻
##썋
##쳏
##챻
##톸
##뜜
##냰
##뤤
##칑
##픤
##뢘
##폘
##핺
##쯍
##슶
##릸
##윧
##혅
##롓
##봙
##흝
##꼮
##얿
##흤
##뿩
##퓹
##풴
##걒
##낲
##쟃
##뇀
##뫅
##셭
##콭
##뢁
##릮
##찅
##놥
##틁
##뽓
##꾳
##늖
##쒧
##쭟
##묷
##쭠
##멒
##흽
##섦
##흳
##웇
##읱
##좓
##싧
##둴
##퍾
##뷮
##걉
##꼊
##뗗
##탅
##핷
##줎
##섡
##뢸
##퍤
##뒛
##솁
##읬
##댰
##쉳
##궠
##밲
##솛
##슂
##뀪
##띙
##힕
##쬘
##붋
##긶
##앷
##뛱
##풜
##닑
##됝
##쑛
##쉠
##굮
##숳
##돒
##솏
##솢
##뒘
##줟
##왬
##곣
##궆
##슻
##꼄
##썾
##렓
##쒄
##찦
##톶
##좯
##쬥
##둭
##컈
##꾐
##졏
##낂
##슰
##끸
##퉉
##잝
##돾
##큩
##뻈
##벫
##뎤
##귷
##긿
##쪅
##뚧
##믘
##뱝
##팕
##뤵
##곴
##뙷
##콫
##뉬
##츀
##얆
##텩
##쫠
##셏
##뺓
##뵵
##욵
##덦
##뙿
##댼
##럯
##숗
##쮁
##팒
##륳
##쇨
##뭈
##늓
##쫔
##킺
##섄
##엳
##볋
##죅
##혻
##랡
##퉅
##턹
##섫
##껠
##왶
##핚
##쐤
##쓀
##릀
##룈
##뾸
##꾁
##쿧
##멑
##칄
##뚁
##뇤
##훏
##녱
##춠
##윋
##괗
##찣
##븹
##엯
##샮
##줼
##붎
##탣
##꺨
##펻
##긺
##즋
##꿤
##읲
##묿
##븛
##쇵
##윺
##픝
##헞
##칤
##뱛
##댥
##찠
##췩
##쫐
##쥦
##휅
##뤩
##뭵
##뒑
##쵱
##헦
##빞
##싅
##죜
##쮱
##릑
##씆
##쑦
##됡
##틎
##콛
##퇌
##딝
##멿
##떅
##꿌
##샕
##딮
##톷
##힇
##녙
##뤔
##쪈
##릣
##돻
##쫖
##곆
##덙
##밇
##븁
##텠
##뮼
##궳
##옧
##듓
##햋
##틏
##굗
##씄
##꺕
##쿈
##핒
##뽛
##뵉
##쉓
##줁
##꿹
##혱
##뱋
##궬
##쩖
##퍡
##샔
##뤙
##힂
##퐨
##쀈
##껳
##럘
##퉾
##랁
##뚵
##찭
##헔
##렽
##쀅
##럔
##둄
##뷥
##엲
##푈
##썡
##눽
##뮜
##큑
##쐌
##흿
##엱
##훱
##칢
##읟
##묹
##챝
##켭
##뤜
##멂
##웗
##닰
##홭
##욫
##멏
##땓
##훰
##웪
##쥳
##셲
##긼
##쎁
##뎝
##룾
##챊
##퐣
##빖
##덣
##뚥
##녰
##팢
##픟
##팙
##꼻
##춀
##캼
##웂
##뙹
##뙜
##띸
##괂
##쮔
##뽴
##늇
##뗔
##큡
##줸
##뇩
##뫤
##툊
##뽬
##쨓
##뇝
##걖
##쪵
##퇫
##싾
##굎
##쿗
##멭
##퉼
##껇
##쭷
##킆
##쿌
##홁
##킂
##돏
##냧
##읷
##툑
##왗
##뜿
##즜
##꺗
##궏
##퇏
##촡
##늎
##벑
##껓
##쁼
##흟
##싇
##좊
##픃
##죶
##챺
##뚈
##켇
##롑
##렏
##퐥
##픚
##깵
##긛
##쭻
##슳
##쭀
##펺
##컯
##쒕
##뽸
##놸
##쎂
##풂
##춞
##훡
##뵠
##뢓
##헢
##쥫
##퍔
##얳
##틩
##픍
##럑
##껕
##붌
##멛
##믂
##뷧
##빺
##뛝
##뙴
##슮
##훞
##곮
##쟴
##겳
##볠
##믌
##샿
##쓹
##윖
##솻
##뜛
##곖
##겞
##롘
##퉝
##윁
##혬
##흊
##잓
##덀
##괓
##쐨
##쉻
##흴
##껵
##봽
##콋
##뭴
##뾴
##죺
##햩
##쉫
##꽭
##븧
##믝
##칔
##꿓
##뵴
##맕
##샢
##삨
##쀏
##킠
##쫟
##룃
##겿
##궵
##퍞
##싆
##벺
##뭫
##턺
##뢨
##뤁
##츽
##쨎
##몷
##뉄
##긵
##놇
##횧
##쩤
##탲
##왙
##짺
##뮻
##뒠
##앁
##첑
##뀹
##쉤
##툱
##붝
##줆
##튘
##씇
##껃
##쁌
##휏
##늭
##곫
##흇
##됚
##숝
##춡
##쭕
##묺
##꼏
##윯
##툌
##뎂
##혯
##뻭
##밚
##먖
##굫
##귔
##긃
##솹
##첢
##툄
##컅
##톢
##놊
##냴
##쩗
##괫
##뜝
##뢩
##퓐
##챷
##흵
##쮓
##뒄
##팗
##뵝
##넭
##뽘
##좱
##깒
##냙
##뼏
##핋
##곲
##숚
##쿽
##팯
##휫
##꾕
##쓺
##뛋
##듞
##텊
##띳
##캴
##촀
##햛
##콪
##쎱
##뇡
##믬
##뱥
##굠
##뾔
##컦
##뤕
##슸
##뿹
##덖
##뛥
##뮛
##쇸
##핛
##뭽
##뤟
##뻕
##짵
##뙥
##혆
##엀
##밡
##혂
##쟬
##풘
##륮
##뮫
##웕
##펗
##넢
##쏌
##텂
##궓
##맚
##풸
##턋
##굄
##뀱
##첲
##롐
##퓩
##흒
##흚
##쌂
##찳
##줂
##룧
##뱇
##즇
##낛
##떮
##퓅
##쁝
##뀅
##겏
##뺔
##끘
##쨖
##싪
##삹
##뮉
##핆
##잜
##챚
##폡
##헫
##웞
##픎
##픨
##붍
##얰
##렧
##퐇
##짃
##덢
##쬮
##뤫
##괅
##봎
##쐼
##쟇
##뎓
##쀵
##쀒
##둦
##톀
##쐒
##낶
##풩
##둇
##푿
##늤
##팊
##쌑
##돉
##윥
##쪟
##폠
##탟
##흅
##벐
##쟸
##갳
##잙
##촷
##퇜
##귽
##깖
##쬰
##팖
##먓
##벷
##퐛
##먗
##뿁
##뚦
##닚
##춈
##럗
##줊
##쐣
##쟼
##빾
##낎
##홅
##숡
##띟
##쳗
##렞
##옪
##툅
##춝
##칍
##쐴
##툨
##즟
##댲
##촴
##팚
##붚
##앣
##첳
##뫜
##팆
##걨
##릫
##랉
##쬿
##쎡
##쳋
##홒
##븕
##쏏
##벯
##랊
##띀
##몺
##쏃
##헕
##렻
##걳
##욣
##첱
##왲
##긆
##눸
##홎
##갮
##섩
##꼍
##잮
##쫅
##쥄
##쨨
##싩
##홫
##쓲
##덌
##뜳
##봵
##펅
##빣
##럷
##쟏
##걇
##젡
##뢌
##쩀
##볂
##욐
##먤
##귺
##츶
##캋
##묏
##닱
##죘
##뒁
##캩
##늏
##럸
##꺤
##룷
##땦
##죾
##컭
##쩸
##푁
##곟
##걊
##푲
##멯
##틒
##헽
##맽
##찗
##퍁
##셂
##캙
##걼
##쵴
##낧
##쉚
##휳
##콮
##뚢
##휗
##쯋
##붬
##셮
##닋
##쓘
##귥
##렭
##쓈
##돩
##썃
##쩅
##쒁
##좥
##젳
##씳
##썔
##쁮
##욗
##퐜
##뻁
##꿿
##혴
##얓
##쿢
##턘
##엜
##춎
##뭩
##옯
##넻
##틳
##빎
##쀽
##뇟
##럏
##탍
##툩
##뇁
##풏
##랈
##룿
##믤
##뽖
##놴
##돖
##꽛
##꾄
##걤
##뙌
##얮
##겱
##딺
##졹
##땉
##겚
##뼁
##쓿
##줖
##냋
##힒
##쒘
##쑫
##븏
##쭃
##겕
##륟
##먇
##첻
##쭄
##뼊
##픀
##핐
##뷃
##둋
##쩼
##홮
##숶
##퀫
##맩
##뻖
##쥇
##겛
##쉲
##홙
##캽
##듘
##춭
##볾
##쬠
##갶
##팘
##틇
##퉬
##칧
##뉀
##긥
##혒
##틊
##냼
##쿩
##쭅
##뭀
##홴
##닗
##볎
##쫚
##뀤
##뾲
##럎
##쀌
##혽
##턈
##똿
##얎
##팏
##뮦
##꺏
##젞
##꿲
##쾤
##릹
##겙
##앑
##봀
##갟
##룪
##쵕
##쵮
##컺
##밿
##녝
##볈
##렚
##홡
##뀄
##뷷
##쯫
##쨧
##뻪
##탏
##똷
##뤰
##탷
##봿
##썠
##똽
##훚
##댉
##썯
##쭨
##돓
##섢
##쮀
##괠
##섔
##솠
##쌛
##봁
##녻
##꽨
##맓
##욎
##둅
##몲
##쨲
##뭑
##뭿
##꼵
##귇
##팣
##섊
##퉸
##굺
##톃
##떷
##훛
##튴
##뒓
##숐
##똼
##썄
##슧
##삒
##쮑
##뛣
##꾝
##봭
##헏
##뻙
##혃
##괖
##휐
##쭬
##쇱
##샓
##귛
##쨱
##뀳
##댦
##싘
##턕
##괃
##뷹
##쌒
##탊
##쓜
##풇
##꺰
##쑼
##쒐
##갎
##넧
##녗
##왅
##됼
##뱕
##솕
##웘
##믆
##쟡
##쪿
##퉨
##휲
##뽞
##쬔
##쩹
##얊
##샽
##꽑
##뉙
##춟
##뙝
##엁
##괺
##뫂
##넑
##껩
##띶
##넁
##퐠
##뀻
##뒼
##톩
##뙸
##뺡
##뚄
##씶
##풃
##쏬
##탚
##놃
##뙄
##꿝
##꽦
##쨤
##흼
##갥
##몮
##귦
##퇍
##췔
##쳭
##멮
##쟊
##퇶
##놁
##쬴
##젂
##겮
##퓟
##뭙
##붯
##켚
##쓕
##쏄
##뜃
##삧
##귖
##떌
##쟅
##횠
##펟
##떶
##뚴
##볖
##샚
##옞
##봆
##끞
##씔
##칌
##늜
##넊
##뿎
##퀰
##둒
##쐄
##쎍
##쫵
##썍
##왥
##쫂
##걧
##릷
##쀾
##욾
##뙬
##뀃
##퇙
##듇
##뗍
##쁐
##짍
##웙
##붴
##봋
##뙛
##뮘
##쀡
##뮙
##묯
##틅
##긯
##묑
##쀓
##셫
##괨
##쩎
##옲
##첪
##뿥
##쾬
##밊
##쓊
##퐑
##윚
##뚊
##웳
##얪
##쪚
##쫫
##깑
##퓻
##웣
##껅
##굩
##둽
##혲
##뚼
##쩛
##톅
##뗼
##뒇
##쒤
##홖
##깯
##꺢
##쩘
##윣
##곚
##쑀
##츧
##녟
##졂
##걭
##꿄
##쌇
##쭂
##뢜
##쁏
##낣
##춮
##헧
##뮁
##떾
##뼀
##걃
##곛
##뿧
##쮭
##딉
##꽳
##얁
##숤
##쬲
##뽇
##쿯
##즂
##쳍
##쩑
##봰
##맪
##톪
##썱
##뭎
##뭦
##뽫
##믻
##큲
##뇍
##꺋
##꽼
##쌯
##뎦
##쎝
##뿱
##쏚
##솒
##퐘
##돆
##휇
##뾥
##쀀
##뼡
##뺶
##긪
##왆
##씱
##놝
##릻
##좣
##뛌
##죢
##꾭
##텧
##삫
##똙
##걓
##뿑
##뱸
##쩁
##윿
##낤
##벁
##뾀
##퇧
##끯
##뼑
##뗵
##뛕
##쌻
##뼬
##뙓
##쒥
##뵑
##쐏
##슇
##쏖
##맖
##픹
##쒵
##졽
##풬
##혭
##뿽
##싖
##쉮
##엸
##냿
##걶
##썟
##뜄
##킘
##쁰
##탞
##쬡
##캮
##첣
##놛
##힊
##띴
##얉
##퐂
##먑
##뱬
##갧
##뭧
##텹
##쌟
##턩
##뻼
##꺚
##뽯
##쟟
##앒
##숢
##떥
##믯
##섉
##턉
##짾
##뷋
##쪻
##꾠
##떣
##깱
##뱊
##뿬
##뭭
##뭕
##쵭
##쓧
##븸
##뿳
##줵
##쎓
##굧
##섪
##풁
##뭟
##쐽
##쎟
##쮤
##펹
##헲
##겗
##쒂
##콲
##푬
##폣
##젎
##툈
##똻
##녽
##즺
##둊
##싙
##밂
##쎰
##믣
##뒞
##첡
##뫚
##웯
##졒
##룄
##윩
##톔
##졜
##쒫
##찁
##욓
##똚
##헟
##퓿
##딣
##윢
##뵞
##셟
##끏
##챫
##훯
##뺚
##첦
##젍
##궲
##똦
##댏
##걥
##뀈
##떺
##휍
##솑
##쓃
##긞
##똮
##겭
##옢
##웚
##넶
##깺
##멲
##죥
##빇
##쮉
##곥
##빓
##섨
##왳
##밹
##쫨
##엂
##쏮
##녚
##괝
##헍
##옟
##헒
##눓
##쩽
##뒫
##잞
##좎
##앦
##걆
##놪
##캢
##짿
##젌
##퀌
##븞
##쎇
##튔
##쬈
##퍝
##눉
##쫕
##킶
##썳
##랯
##꼲
##썝
##슞
##븦
##숪
##븂
##쎨
##죣
##뽹
##갩
##믉
##뭁
##촺
##혺
##몢
##좧
##쳢
##엹
##왢
##떹
##싻
##뾃
##틤
##씧
##쾩
##꽴
##뵺
##찥
##곭
##졺
##씂
##걬
##켼
##튺
##큷
##뙀
##헶
##뭗
##몟
##삦
##뛨
##뮏
##똇
##넔
##씗
##쇔
##똝
##죝
##뭚
##쑻
##♬에
##♬이
##♬을
##♬의
##♬가
##♬는
##♬를
##♬들
##♬은
##♬도
##으로
♬에
##♬으로
♬을
##♬로
##♬에서
♬의
♬이
##하는
##니다
♬를
##♬과
##하고
##♬적
♬는
♬은
##는데
##이다
♬가
##♬만
##다고
##♬들♬이
##♬와
##지만
있다
사람
아니
♬으로
##라고
##했다
##00
##까지
♬에서
있는
♬로
##었다
##면서
♬도
##다는
##♬에게
생각
우리
##♬들♬은
♬들
##♬까지
##하게
##부터
##해서
♬과
대한
##리고
##이라
##한다
20
##♬님
하는
한다
한국
##보다
국민
##습니다
##♬적인
때문
♬적
##렇게
##으면
그러
영화
이런
진짜
##♬적♬으로
♬와
##니까
지금
##하지
##♬에♬는
일본
지난
##하면
##♬나
그런
문제
##♬이나
##♬부터
##♬들♬의
##하다
##♬보다
같은
너무
10
자신
다른
중국
##대로
##♬성
나라
##는거
하나
##처럼
위해
##통령
들어
그리고
만들
미국
그래
경우
##하기
정부
##♬화
##이고
##네요
201
##인데
##♬들♬을
##라는
아이
##어서
하고
이상
대통령
이제
19
이번
그냥
##세요
문재
작가
사실
##기♬를
다고
##♬처럼
##한테
된다
##어요
아닌
##해야
##지고
다시
##나라
##았다
것이다
##입니다
시작
함께
사회
따라
없는
정도
정치
##♬한테
경제
서울
##이라고
때문♬에
많이
통해
##라도
보고
가능
하지만
모르
인간
##이지
시간
가장
아무
나오
필요
기업
##♬에♬도
아니라
##하여
##되는
##♬에서♬는
##리는
정말
##리♬를
자기
북한
모두
##였다
상황
##자♬가
세계
##으며
지역
##다가
민주
200
이후
##리♬가
어떻
##같은
모든
##♬서
대표
##려고
것♬이
모습
좋아
시장
사업
관계
국가
이렇게
♬까지
것♬은
어떻게
문재인
사용
여자
관련
내♬가
없다
##스트
마음
##주의
다음
여기
대해
♬만
##된다
이유
##♬랑
해야
##합니다
이미
있었
많은
##이라는
위한
##겠다
댓글
이야
##사람
정신
지원
##는다
##기♬가
##보고
아직
현재
돌아
그렇게
처음
사이
했다
##♬권
계속
사랑
그러나
##하며
어떤
것♬으로
작가♬님
##어야
투자
것♬을
##♬아
##거나
얼마
##사♬를
라고
라는
무슨
프로
12
♬성
내용
##기♬도
역시
##민국
보여
경기
##으니
##구나
##는지
30
근데
있을
특히
##아서
좋은
##하면서
##인가
##인지
##어나
여성
남자
11
하지
##레이
밝혔
##♬들♬에게
이해
보면
이어
##지는
다는
조국
##기♬에
진행
##♬네
바로
여러
국내
100
##가는
대한민국
교육
##♬당
이용
그래서
##있는
##♬들♬도
기대
오늘
결과
수준
결국
##도록
검찰
##지♬를
##것♬도
##로운
방송
##력♬을
♬에게
중요
##인♬이
##잖아
피해
지만
있었다
기사
기술
어디
##이었다
면서
이름
그렇
##이었
##지막
최고
♬부터
##밖에
연구
최근
조사
15
##자♬는
##시키
자유
##없이
##♬엔
보이
국회
또한
이러
##는게
##소리
잘못
마지막
♬화
설명
살아
##이♬가
계획
♬고
떨어
민주당
상대
사람♬이
저런
경찰
이거
삼성
없이
대학
##가지
지지
##되고
개발
웹툰
친구
##장♬을
우리나라
어느
사건
당시
의원
##♬마
지난해
베댓
나♬는
가족
학교
##지♬도
물론
나타
세상
##레기
♬보다
당신
작품
##사♬가
정권
##해라
되는
같이
기록
감독
##어도
##머니
전문
올해
자신♬의
대상
이게
##지♬가
##으나
##비스
현실
##정♬을
알고
그럼
받아
관심
##♬에서♬도
정책
얼굴
##이야
이날
후보
제대로
##거리
만들어
얼마나
##시아
개인
주인
##동안
사진
##주는
##♬째
학생
##♬이랑
##졌다
정보
##♬들♬과
##시간
회사
##했던
18
그♬는
나온
누구
##♬자
않고
##인다
평가
이야기
##부분
##하는데
조선
##장♬은
배우
하면
그것
##되어
##력♬이
가지
다양
한번
##겠지
자체
문화
##수♬가
##기업
말했다
찾아
##더니
따르
있는데
않는
부분
실제
일반
##중♬에
어려
직접
활동
알려
그만
동안
예정
운영
공개
##이트
##지♬는
그리
금융
해서
그림
선거
완전
##없는
언제
##운데
##장♬이
위원
##해도
##0년
새로운
상태
언론
##놓고
일부
올라
존재
##주고
그런데
대구
조금
의미
결정
##진다
소리
##스크
있고
게임
않은
##하나
제발
스토
##전♬에
책임
##로나
세금
공격
않았
발생
누가
한다고
재미
현대
먼저
##기♬는
아주
##이면
미래
##하자
제공
기준
##정부
##보면
인터
방법
확인
기자
부모
가지고
♬나
인정
합니다
##같이
##이냐
전체
하루
것♬도
##다면
##하네
머리
지나
서비스
그녀
참여
있다는
관리
한편
준비
발표
만화
50
♬라고
성공
자리
##을까
아니고
##라이
있어
##하는거
힘들
##♬들♬아
##한거
엄마
해도
##상♬을
사고
수사
##정도
##원♬이
##♬씩
주장
등장
##학교
만나
코로나
반대
##말고
과정
외국
##렸다
역사
13
주인공
선수
가격
##♬마다
서로
##리아
국제
##하시
산업
가운데
생활
대부분
25
보는
##러운
무엇
##기♬로
과거
##♬상
16
##000
이건
최대
위해서
제품
행동
거의
##랜드
전국
증가
정상
성장
경쟁
더욱
기억
사람♬들♬이
시민
##다니
있습니다
판매
##이며
재밌
해외
생산
노동
기다
요즘
효과
어린
보내
내려
##치고
그래도
##자♬를
##OO
해결
##리지
말♬을
당연
이것
얘기
14
못한
선택
아닌가
##♬밖에
엄청
표현
나왔
##근혜
추가
##문♬에
##이는
예상
##린다
규모
스타
##♬형
운동
쓰레기
##만원
있다고
장관
사람♬들
그♬의
영향
환경
아들
시대
없어
##그램
##의원
아니다
추진
##식♬을
빨리
교수
느낌
##자♬의
아버
대해서
요구
##이스
##려는
앞♬으로
##시다
##가서
드러
한다는
포함
##치는
말♬이
##와대
##화♬를
만든
알아
같다
##나요
♬권
다며
##♬여
##들어
중심
기본
17
결혼
##♬성♬이
입장
##야지
문재앙
##주세요
청와대
##아요
##었는데
구성
노력
등♬을
감사
##됐다
역할
##릭터
##한다고
도시
##했는데
유지
때문이다
마련
전쟁
좌파
장면
지방
##시켜
발전
##하던
##스로
나♬도
되어
##라마
##와서
말고
##스럽
##하겠
##스터
부산
건강
정의
##인♬의
박근혜
소비
##아니
##도♬를
##정♬이
지적
보인다
##이란
##♬요
##위원
##히려
분석
자동
판단
넘어
##는건
상당
해당
##이네
절대
확대
##하지만
우리♬가
고객
##리스
오히려
업체
자연
그게
공부
40
보수
오후
경험
##도♬가
안전
##자리
매우
##하냐
캐릭터
경영
범죄
만큼
기존
##했고
비교
사라
##♬성♬을
##더라
##시고
##음♬을
##이지만
도움
비판
전망
##이라도
솔직
비슷
없고
강화
스스로
##었던
거짓
##이버
시즌
##가고
기회
다르
##사♬는
수♬도
강조
##수♬를
♬자
##스♬를
사람♬은
바이
##스템
그대로
기관
##파트
##이니
##어난
##치♬를
스토리
##명♬이
##디어
##♬께
##♬질
인물
제작
##원♬을
안되
##인♬은
##지않
상승
특별
주변
밝혔다
아직♬도
이루
하는데
##이♬를
거래
원래
공동
대비
##한다는
활용
##영화
미친
구조
대신
연기
능력
##므로
자한
빨갱
##♬대로
##가리
##되었다
프로그램
다만
되고
분명
행복
위험
##인♬을
순간
##드는
##르는
제일
##자기
OOO
그때
시키
치료
##점♬을
라며
##시♬에
##위♬를
인생
21
은행
이♬를
조직
기간
김정
지속
##텐데
##♬야
부족
아무리
제♬가
##스♬가
24
##♬로서
##으면서
##보니
변화
바람
전혀
전부
##이기
##했다고
이♬에
##거지
다니
방식
##이♬는
##♬에선
병원
모습♬을
상품
되었다
저렇게
도록
항상
혼자
적용
인사
집중
비롯
##하니
##무원
가진
##라인
##번♬째
않는다
마스크
##마트
##명♬을
회장
##르고
##정한
주민
##있다
일단
출연
분야
전략
내년
아니면
충분
않았다
지켜
네이버
걱정
♬이나
확실
##♬계
##한데
개선
는데
##겠지만
##동산
뭔가
##었고
##스타
같은데
의견
♬처럼
##수록
대체
##자♬들
##리♬는
공산
##♬뿐
##은행
또는
높은
중앙
분위
##BS
더불
건설
##되면
적극
일♬이
보호
아마
솔직히
##기고
199
받고
나가
문제♬가
이러한
주요
고려
목표
달러
검사
크게
있지만
아님
열린
나오는
직원
우선
어렵
그걸
달리
##제♬를
##려면
##겠네
행사
노래
##건가
##때문♬에
신천
있던
궁금
##스♬는
22
일♬을
느끼
23
시스템
♬여
##을때
##감♬을
나서
##♬이다
드라마
그동안
인해
##더라도
있어서
수출
##되지
##라면
여행
중요한
##이터
아파트
가치
가까
매출
니♬가
의료
부동산
친일
##심히
음악
계약
##아야
다양한
##지지
##시장
실제로
가져
신경
수익
##먹고
##해주
보니
인터넷
정도♬로
##하다고
단체
자신♬이
여기♬서
자식
##기는
현장
##려서
다가
##요일
기분
관계자
출신
못하고
대회
등♬의
업무
그룹
갑자기
##하는게
조작
바라
사과
안보
##운동
각각
여론
##♬용
전♬에
움직
앞서
##에요
오래
##사♬의
유럽
없었다
차지
하면서
선동
영업
우리♬는
세월
##스♬의
생각♬이
##대♬를
##리면
방문
부담
기능
##지마
나라♬가
##해요
##건데
어쩌
##사업
습니다
##드시
가슴
설치
이전
발견
부정
##대한
##성♬을
##조건
저♬는
##사회
##났다
##간다
사망
##물♬을
대단
빨갱이
아닐
따라서
주식
##돼지
##성♬이
##으니까
나이
♬밖에
확보
자동차
들어가
##교육
##새끼
##상♬이
시절
##♬률
모르는
어머니
##내고
외교
회의
지도
총선
주택
언급
##봐라
열심히
먹고
최소
광고
##하였다
사람♬들♬은
새끼
##자인
공감
나와
##른다
통합
공급
##구요
아버지
우려
않을
불법
대응
보험
정확
##오는
전문가
LG
##던데
못하는
##군요
집단
선생
##하라
##억원
비해
인천
##정권
##♬생
##보는
국민♬들
안정
##구만
남편
##거다
##거든
떠나
끝나
있지
처리
##전자
##대표
영국
하다
지구
##러스
##냐고
가는
광주
##8년
싶은
시험
##수♬도
글로
공무원
목적
유명
밝혀
알았
보도
구속
작업
##만♬에
입니다
여러분
##시는
거기
국회의원
자금
사는
바뀌
오전
##♬보다♬는
##이션
##자♬들♬이
나올
##조차
무시
##리즈
본인
단순
##학생
뭐♬가
안타
가서
카드
정당
반응
전화
영화♬를
##대체
대책
갖고
26
##생각
참석
개혁
27
##명♬의
탄핵
##자♬로
여전
##이상
이익
과학
##국민
##어진
##전♬을
글로벌
##수♬는
했는데
시청
##의♬를
나쁜
평균
아베
##난다
사기
의사
지키
라이
괜찮
고민
영상
##이라면
시설
##5년
무서
##간♬에
##까요
보기
##너지
불가
이뤄
##7년
처벌
위치
SK
##9년
##이자
##거야
이♬는
희망
달라
반면
강력
아래
##트♬를
되었
##이어
##없다
선정
제도
28
♬당
##했지만
제외
이동
뉴스
실시
따른
##♬끼
도대체
신고
관광
반드시
공식
##문♬을
있으며
##왔다
주는
훨씬
##세계
브랜드
군대
##선♬을
장기
받은
##제♬가
의해
소설
싸우
어찌
60
진심
♬상
제시
있으면
신천지
거리
잡아
최초
##♬님♬이
프랑
##갔다
##지면
소재
아는
무조건
##당♬이
투표
도입
되면
♬뿐
젊은
아빠
소속
말씀
권력
##♬으로서
평화
하여
좋아요
하늘
##생활
##BC
수♬가
##내는
##듯이
독일
성격
따르면
핵심
##겠다고
TV
##워서
남성
공간
유치
##라서
생각♬을
##6년
##럼프
중소
인식
시행
청소
##준다
등♬이
##하다는
롯데
사람♬을
해라
##지게
많다
사태
♬이라고
생각해
아프
만약
각종
아름
스포
감염
오른
스마트
마치
종교
##받고
불안
##했을
나중♬에
자세
보유
일어나
소개
##일♬이
니♬들
자주
너희
##지역
##단체
##점♬이
가정
심각
통신
느껴
##원♬은
비용
그거
그♬가
##개월
##지♬에
예산
모델
인상
논란
##이크
아니냐
##겠습니다
이젠
증거
##위♬에
사장
##♬쯤
##관계
있게
내부
##수있
##인트
진실
협력
수입
어려운
되지
보통
##겠다는
빠져
독립
점점
센터
싶다
트럼프
방향
연결
##어버
장애
돈♬을
음식
최종
##시민
선보
안나
##림픽
##인♬들
변호
자료
##♬으로써
작은
##♬율
불구
증권
회복
맞는
인권
주제
쉽게
사무
##대♬에
거짓말
공연
감정
애♬들
감소
당연히
##레스
전투
두고
##금♬을
없을
실패
고통
담당
##잖아요
대화
나라♬를
형태
올려
누군
그려
##어들
승리
202
29
여전히
##영♬이
다♬들
신청
##대♬가
대선
이래
행정
미리
제목
전자
##하거나
한심
♬님
##일♬을
출시
청년
국민♬의
방안
##임♬을
##가♬를
##운드
##할때
개념
도와
주고
단계
지금♬까지
김정은
대출
무능
감동
##냈다
마을
♬형
##물♬이
추천
때♬는
시켜
아내
##디오
위원회
##머리
##되었
##여서
##4년
공공
##2년
더불어
들고
사례
업계
있도록
본격
니♬들♬이
플레이
자본
불러
##프로
개돼지
러시아
의혹
##♬로♬는
##♬하고
마찬
않아
진출
관한
오는
1년
주목
정부♬가
국정
##♬으로♬는
##이드
노조
말하는
스트
##수♬의
포기
제기
##조사
소득
국민♬이
자꾸
힘♬을
모양
배댓
있기
나온다
재판
그럴
좋다
조정
타이
좌빨
일으
싫어
가짜
전개
수도
##위원회
당장
이기
강남
합의
지급
##서♬를
차량
##작가
위기
발언
##♬들♬에
수요
교회
그나
70
개최
지금♬은
관계자♬는
자체♬가
이끌
아침
##♬로부터
전환
나타나
참가
하기
못하
##경제
전기
##했다는
제주
사실♬을
##그룹
##일보
살인
##♬별
없었
마찬가지
혐의
인도
조용
응원
국민♬을
바꾸
국민♬들♬이
##대♬의
고용
조성
교통
대형
불쌍
##3년
좋아하는
외국인
##두고
저거
코스
촬영
필요한
하락
##깨문
자산
##♬과♬의
31
##센터
##부♬는
공정
상관
파악
##시면
시리즈
받아들
##져서
##기관
##든지
시간♬이
오랜
만드는
이야기♬를
##체♬가
##마디
유일
부탁
매일
##움♬을
##등학교
##세♬를
조건
자격
아시아
##하였
전달
프리
##라리
기획
##부♬가
##건지
예술
기반
할머니
##민주
##♬와♬의
연출
온라인
이유♬가
힘든
환자
##부♬를
지하
초반
민족
유리
혹은
##장♬에서
##♬꾼
##도♬로
확진
##심♬을
진보
인기
평생
##장♬에
##스코
##원♬의
독재
##고있
대중
##식♬이
##식♬으로
##는거지
##란다
##리기
##하세요
재앙
받는
우승
##어라
충분히
것이라고
논의
동생
불과
##♬조차
자랑
##산업
아예
이사
##다운
그러면
성과
펀드
법무
참고
제한
##반기
##♬들♬만
그저
##뉴스
동시♬에
종합
##함♬을
##르게
대통령♬이
하며
연합
영어
♬별
##리♬에
##것♬이
없다는
경우♬가
이걸
구축
동물
##만한
차이
##지어
##아버
이라
##하기♬도
받을
하자
세월호
##♬라고
으며
분량
인수
했던
##소♬를
성적
전통
가입
이때
실적
쓰는
조치
##기♬의
##리♬의
어디♬서
받았
##분♬에
거나
말♬도
##1년
훈련
##시킨
##많은
관객
재산
##감♬이
보여주
저♬도
완전히
해석
##가♬가
좋겠다
지난달
나머
이유♬는
500
행위
##봐야
비난
##느냐
단지
없다고
안되는
##습니까
##♬이♬가
건물
그랬
생각하는
취업
##스러운
##던가
베뎃
됐다
배경
요청
구매
됩니다
별로
##장♬의
주로
198
최저
해주
##우고
금지
대깨문
##해보
반영
##개♬를
2년
가르
서민
약간
신문
입국
##♬만큼
자살
♬마
♬률
시도
자신♬을
철저
끌어
##것같
##아가
생긴
##였던
복지
##비♬를
개정
검토
화장
설립
특징
##시키는
과연
프랑스
수상
있었던
설정
##들고
##인거
굉장
돌아가
황교
일자리
구체
##회사
##대♬로
대변
차례
강제
##지말고
약속
##어지
##장관
않다
##이든
목소리
이명
봐도
남아
규제
연속
상당히
##가락
차별
##구♬가
어린이
##무리
##씨♬는
##리오
신뢰
##일♬에
80
집♬에
보이는
선발
##겠냐
남북
강한
일정
혁신
그건
생명
애초
혹시
장난
인지
##자♬들♬은
가만
##♬적이고
부문
홍보
##한게
##서♬는
불편
##당♬은
지♬들
토착
달려
##이죠
##웹툰
##롭게
상처
##♬끼리
생겼
정리
##시키고
속♬에서
나무
민간
##문화
쓰고
하는거
##스럽게
귀여
모르고
갈등
##차피
하게
끝♬까지
마음♬을
차라리
있으니
##한다면
피해자
멤버
근무
의심
부르
하이
##드♬를
평소
올리
통일
보다
전라도
덧붙
오빠
사상
상상
##예요
##구♬를
##나게
##겁니다
노무
##랐다
##체♬를
죽은
역할♬을
올림픽
##♬론
##♬과♬는
싸움
소비자
##가요
미사
번♬째
통과
적♬이
작년
##페이지
##려야
내놓
눈♬에
알바
어차피
없애
목숨
저희
위원장
수행
직업
벌써
위♬에
거지
공장
##놈♬들
인터뷰
도로
눈치
분위기
연예
##원♬에
대사
##주♬가
아무♬도
는다
재미있
연재
지지율
군사
것♬처럼
##계♬를
##같은데
##투자
가능♬성♬이
애니
역대
듣고
물어
있음
아닙
영화♬는
##가지고
있어야
분노
한마디
사람♬의
최고♬의
##♬에서♬의
희생
규정
항공
그린
3년
##프트
##싶다
##인줄
##대통령
##하려고
살고
##er
##아라
미세
##위♬가
이르
놓고
##도♬는
이해♬가
##국가
♬계
##인♬들♬이
자기♬가
##먹는
타고
##개발
거부
확산
비중
국방
굉장히
##쳤다
본다
중소기업
문제♬는
제안
##♬만♬이
##♬에♬만
300
##♬다
죽음
모습♬이
많아
충격
어쩔
##지원
##분♬이
심지어
무기
알게
♬째
확정
근거
자한♬당
##하려
일상
우주
##♬에게♬는
##드립
##지♬로
전해
##것♬을
##비♬가
공사
##이♬의
지배
고양
중♬에
##어♬를
그러니까
##바로
##50
여름
못할
이명박
비슷한
다행
엄청난
그림체
이라는
늘어
##사고
니♬네
민주주의
##할수
##신♬이
똑같
##정책
기념
어서
이재
##나는
적폐
10년
##랍니다
마이
질문
##리게
아쉬
##당한
##도♬의
영향♬을
고생
중간
시점
##국♬의
촛불
게다가
4월
부끄
공포
포인트
##셔서
나♬만
예전
##관리
근로
그나마
생기
보면서
분양
향후
말♬은
자녀
##봐도
앞♬에
♬서
혜택
우리♬의
것입니다
이곳
있다면
신규
특수
맨날
졸업
오르
임명
후반
스포츠
통한
에너지
청소년
없어서
비율
##리카
완벽
야당
제조
전시
만족
바꿔
새로
동일
##개혁
이제♬는
저지
##법♬을
당선
수♬밖에
##보기
눈물
뛰어
못했
옛날
된다고
나누
방침
♬용
마음♬이
액션
물건
등록
지식
##기술
정부♬는
##나오
♬두
안♬에
속♬에
등♬에
##위♬로
직장
완성
##아닌
노무현
주도
##은거
바탕
가득
신용
##시지
독자
판결
바보
우수
##져야
##자고
없는데
레이
##하다가
##세대
중단
돌려
있나
##심♬이
진정
##원♬에서
1000
임금
했지만
##씨♬가
##우스
축구
전반
난리
연애
특정
겁니다
보장
데이터
유통
슈퍼
표정
무섭
아닌데
겨울
##시대
경기도
##텐츠
##것♬들
저러
기초
시기
돼지
맞춰
가면
##하신
접근
##문제
불구하고
문제♬를
##해야지
논리
몰아
예정이다
잠시
##다른
따로
있어요
같아요
##것이다
나머지
월드
선물
##우는
분기
##활동
마무리
##가면
##거운
형성
거쳐
벌어
존나
리그
##선거
밝히
윤석
##기♬만
현지
공주
##행♬을
##진♬이
##았는데
매력
시간♬을
앞♬에서
수술
조합
##업체
##퓨터
##았던
##하라고
90
##받는
인구
바다
##♬제
협상
3월
소유
모자
굳이
봐야
기부
재정
##시설
이루어
##것♬은
내일
영화♬가
##가족
##사♬에
멍청
##해진
위안
##환경
##겠죠
##수♬로
##회♬를
나♬의
##신♬을
활성
제출
인한
나경
##연구
##인간
##지♬의
##됩니다
##스러
반복
##석♬이
변경
세대
것♬에
현상
디지
##드♬가
##이기♬도
인간♬이
뒤♬에
대전
비밀
노인
개봉
달창
시각
##10
만들고
있네
똑같은
일베
##는거야
6월
##치♬가
지정
##0년대
위협
##걸로
♬제
체험
KBS
##려라
원칙
##가♬는
결론
##증권
답답
도전
일제
협의
살펴
미안
##사♬로
개월
##온다
##트♬가
이상한
원인
으면
않으면
##케팅
그것♬도
5월
사전
그러니
월급
##분♬들
동네
임대
##마라
된다는
##보자
악플
지분
사법
일본♬이
나♬를
둘러
대박
##방송
믿고
일어
##♬권♬을
가능한
집안
호텔
디자인
##니스
베트
##거같
서울시
꾸준
저기
어른
만드
무대
그♬들♬의
반성
프로젝
가구
##거든요
손♬을
황교안
선언
##리어
##이익
달성
##하려는
수♬는
##도♬에
폭력
안하고
토론
##했습니다
애초♬에
선진
대기업
그♬를
박정
경북
와서
##없고
##♬께서
하시
##개♬의
의식
삼성전자
투입
관심♬을
컴퓨터
##왜구
정주
##♬만♬으로
♬생
초기
##리그
미세먼
계열
창업
##♬와♬는
시작했다
이름♬을
골프
##주♬를
인간♬의
금리
##부♬의
##단♬을
##일까
못했다
총리
사회♬적
##느라
##줘야
##약♬을
지랄
하나님
태양
##만화
##지요
마라
돈♬이
버스
파괴
눈♬을
일♬은
##아지
보였
진정한
9월
##20
##국♬에
짜증
나름
##사건
##나서
보상
비행
측면
어울
##장♬으로
MBC
마법
10월
##♬인
세력
##도시
등♬으로
35
원하는
##국♬이
바이러스
아무것♬도
최악
예방
##♬들♬한테
공유
말해
12월
이미지
##메라
채용
구분
절차
##었다고
잘생
도망
불가능
늘어나
##♬같이
블랙
##거라
사퇴
요소
공수
되는데
7월
♬엔
만♬에
벗어나
##주♬의
드디어
##적♬이
심리
발행
상황♬에서
무역
서울대
미치
하네
##조선
받았다
베트남
##♬감
울산
싫어요
##짜리
수업
운용
##in
어제
무너
하나♬의
외모
##학년
운전
##는가
취급
대우
못해
##시켰
택시
다소
보였다
맞아
조심
##아이
지♬가
##민♬이
중국인
크리스
그만큼
긴장
흔들
동료
##웠다
##마자
##래도
뭐냐
너무나
빠른
##말♬이
바닥
##이었던
온갖
여기♬에
스마트폰
한반
심판
의무
이벤
무리
한국인
같습니다
그렇지
없습니다
##이에요
하나♬도
없음
##부♬에
##하도록
귀엽
##명♬은
아나
있는지
말아
##있는데
스타일
##있고
리더
##♬으로부터
그것♬은
긍정
소녀
놀라
##보단
마케팅
8월
나섰
##이♬에
특성
너♬네
여자♬가
쿠키
향해
노동자
##위♬는
이♬와
동원
소통
##받은
아니라고
하니
문죄
회원
##30
그♬들♬은
주가
1월
거야
것♬과
왔다
##바일
##되면서
정작
미사일
##수준
이번♬에
변호사
##하니까
는지
##말로
방어
##이팅
KT
필요♬가
영웅
경남
확실히
효율
흐름
인제
똑같이
않을까
##주시
이하
그녀♬의
펼쳐
담배
휴대
페미
##친구
아닐까
##하셨
브라
단어
메이
풀어
전년
선생♬님
실험
출발
저녁
000
과정♬에서
##만큼
##관♬이
이성
대답
본부
금액
무식
##그러
극복
자원
##겠네요
데뷔
##주면
##경기
당신♬이
문재인♬이
손해
친일파
생각하고
준다
체계
라면
사회주의
부인
♬율
##사람♬이
##이네요
무료
##♬까지♬는
##세♬가
불리
##하네요
영역
스페
##시오
봤는데
같아
절반
##안♬을
남♬의
##♬보고
고소
##부모
아까
보니까
있었는데
소름
전했
내용♬이
그것♬을
이리
수많은
##선♬이
수십
##on
##달라고
물러
토착왜구
장소
남녀
내용♬을
덕분♬에
##간♬의
적절
모바일
헌법
가고
대상♬으로
죽을
디지털
악마
동의
사형
아냐
위반
이탈
##한국
높이
폭발
##인듯
몰랐
가까운
지금♬도
##규모
매년
위해서♬는
교사
집회
더러운
##라스
상황♬이
먹는
문학
몸♬을
다이
안된다
##나고
법무부
않게
집행
영원
두려
##력♬은
사람♬도
말♬로
그녀♬는
나선
언어
허용
##겼다
자극
##보네
##해지
197
따뜻
##이♬로
##미♬가
한국♬의
통화
깨끗
##니아
대가리
테러
##자♬와
원작
조용히
##우♬가
정치인
외부
전형
##전♬이
매각
이유♬로
##때♬는
유튜
실망
본인♬이
##자♬들♬의
양심
##독교
드립
가만히
미국♬의
너♬는
작용
잘못된
여당
도움♬이
##♬마저
##♬만♬을
보건
사실상
##자♬에
검색
대해서♬는
2월
2차
##문♬이
그것♬이
말♬에
##군♬이
##받아
인증
아름다운
영화♬의
2000
강원
가수
언니
##량♬이
인근
##스토
채권
##단♬이
싶어
일주
누리
예고
##림♬이
##었을
모아
처음♬으로
아닙니다
소송
웃음
##잡고
별점
연금
11월
높아
설명했다
##정보
##거래
수호
부여
연장
프레
하던
##이였
전용
방역
유니
##하러
인데
명예
홍콩
커피
##했으면
하는게
종목
비리
내리
통해서
건축
눈♬이
##면서♬도
사항
##기사
나눠
바랍니다
정부♬의
기여
놈♬들
일본♬의
일본♬은
사이♬에
##카드
들여
이럴
콘텐츠
프로젝트
체제
수용
##플레이
추정
도착
아동
구입
있을까
체결
총장
##화♬가
공수처
##겠어요
##관♬을
폐지
들어오
예♬를
주말
정규
인력
중심♬으로
순수
부모♬님
앉아
##시킬
훌륭
의한
시위
##하는건
이상♬의
걸어
##조작
##돌아
##an
계산
작성
상징
##보험
우한
떠올
이나라
##♬루
진단
반도
##쳐서
##나무
지시
낮은
수정
##대는
제2
식품
뒤집
##건설
애플
축하
##사♬와
소중
카메라
점♬을
보지
국민♬들♬은
정치♬적
잡고
설계
피부
가끔
통제
흘러
신♬의
##나♬는
##이니까
냄새
##하기♬로
##량♬을
팩트
보이지
##리티
##으려고
해야지
기계
배치
삶♬을
5년
다면서
감옥
힘♬이
좋았
##쓰고
36
##영업
##주택
나와서
집♬에서
왠지
##있어
상담
뉴욕
##진짜
간다
부부
케이
##했으며
감안
##실♬을
상황♬을
남자♬가
마음♬에
##길래
##한건
##대♬는
##전♬에서
한나라
뭐라
##위해
합리
생존
##속♬에
내내
맞추
어떠
언제나
에이
있냐
평범
연락
45
봐라
회담
시원
##누리
나타났
없네
스킬
만난
후♬에
이중
51
다면
##리스트
##리며
자한당
예측
글♬을
법률
##가♬의
보자
억울
실천
법인
전했다
어이
##시♬가
##바리
백신
봉사
##세기
새벽
전세계
반일
나갈
##버린
##함♬이
##라니
다녀
비상
##려나
심사
##길♬을
교체
##놓은
정체
뭐야
##질♬을
매국
안타깝
##티브
##로♬를
##상♬에
♬씩
##이라니
##었지만
##드♬의
##라지
개그
##점♬은
화려
##말♬을
모른다
세상♬에
대처
이♬들♬은
밀어
자리♬를
##료♬를
흥미
베이
길♬을
당국
##워크
우연
인재
인간♬들
쏟아
가게
##히는
떨어진
왜이
그렇다고
조국♬이
투쟁
웃기
여부
한다면
정주행
##안♬에
제1
비정
나쁘
할인
자아
##달러
스크
거기♬에
알아서
남은
있으
##경♬이
없지
야구
전날
학습
##원♬으로
집값
##것♬들♬이
데려
라인
##고♬를
관심♬이
불만
기울
정신차
최소한
대로
##하겠다
개소리
내세
사람♬들♬의
마지막♬에
예비
유시민
##본다
쓰러
장비
공산주의
##아치
꾸준히
화면
공모
##대학
##주♬는
한계
먹을
속도
##시길
말할
##사랑
##모리
패션
창조
고위
홈페이지
아니야
##금융
가능♬성
출전
편의
실질
생겨
박정희
아쉽
애♬들♬이
##금지
들어서
주문
미군
적어도
소리♬를
제거
이♬들
간단
1위
탄생
명령
공산당
말한다
정신병
이승
##댓글
이정도
최순
연습
##제품
##쪽♬으로
말한
지♬들♬이
##었습니다
##피소
검은
##일♬부터
상대♬로
##이♬들
윤석열
##되기
사이트
생각한다
원내
##놈♬이
좋을
설마
기독교
태극
##지기
##드♬는
아무런
반도체
##인가요
도덕
##하는지
##회의
부상
##로그
것♬들♬이
신기
기소
가해
공항
##사는
겨우
##리자
##격♬을
이른
창출
것♬들
이슈
생각합니다
나오고
##따라
제정
결코
카페
##임금
챙겨
##바이
##리♬로
##기간
##방♬에
무서운
보게
나왔다
옆♬에
안좋
##거면
##먹을
32
정은
입고
##하시는
전남
혼란
없으면
쇼핑
등등
대통령♬은
가까이
뻔뻔
사랑♬을
집권
강력한
실현
##지마라
상식
채널
체육
다루
이론
통계
소년
안돼
올랐
이혼
이벤트
의도
나오면
##소득
할아버
활약
##질♬이
##대회
수석
가야
알려졌
클럽
##소리♬를
##라♬가
유사
김영
모여
분명히
##야말로
보낸
다음♬화
##서관
##어야지
청문
##자체
##대가리
##진♬을
틀딱
떠오
##이라며
아저
##호♬가
SBS
근본
♬마다
더이상
계획이다
##항공
판사
주사
철학
##유♬의
취소
나경원
유튜브
##범죄
##기♬와
기타
안내
##친다
실력
불매
##메이션
##나가
2015년
물리
느낄
##점♬으로
오픈
억지
작가♬님♬이
못하게
##차♬를
간첩
죽여
압박
##들아
##남불
때♬마다
한화
앨범
않나
현금
##바닥
몰라
지상
가능하다
##까봐
소식
수학
##겠어
상장
##군♬의
칭찬
감성
방해
##구조
##분♬을
##진♬은
##경♬을
그♬들♬이
개입
##19
이외
미술
##거냐
인류
여주
##게임
끝내
애국
초딩
저번
잠깐
이용해
그곳
동시
지수
때려
##일♬까지
최대한
밑♬에
모두♬가
식♬으로
선배
피해♬를
등급
갖추
소환
이름♬이
##♬들♬로
추구
초등
##화점
##정치
오해
모른
##받을
광화
손가락
##상태
만한
미세먼지
2016년
관련된
리얼
가라
처음♬부터
##호♬를
출마
수수
##라우
확률
##평가
괴롭
전면
##던지
일부러
돌아오
##♬보다♬도
단순히
상위
동성
동아
##리트
수능
경우♬에♬는
이달
해소
아니지만
경우♬는
##거고
##♬짜리
뽑아
##회장
##TV
고백
##된다고
미디어
##♬님♬은
확장
당신♬은
복귀
빼고
##♬두
법원
##여자
##서♬가
분리
##럽게
##개♬가
아이템
##먹은
사람♬들♬을
장르
재밌게
없지만
어깨
국토
정도♬의
무한
키우
##기지
##라며
33
다를
##기에
##정♬은
살려
이것♬은
그리스
플랫
국무
##단다
##피스
##당히
##우♬는
주의
고향
증명
것이었다
안철
미국♬이
연계
아르
듯한
대부분♬의
196
##치게
##싶은
##인♬으로
34
##였는데
38
##종♬의
여유
##ar
다리
##없어
##♬화♬를
##♬보단
경쟁력
키워
많은데
청구
차이♬가
기생
감사합니다
에피소
팔아
보여주는
네트
##애♬들
하냐
전력
느낌♬이
니♬들♬은
정보♬를
진지
상호
오지
관람
느낀
평등
자전
종북
설득
오늘♬도
##치지
수원
거듭
##한번
##니깐
##주지
한국♬은
##든가
필요하다
저게
말이다
고발
##아니라
차단
##상♬은
왜냐
어려움
끝난
점♬에서
했고
##방♬을
과제
점검
아니지
##수수
모집
착각
수치
빠르
지옥
깊은
이웃
대놓고
정확히
한데
##상황
##복♬을
부품
한반도
박사
있었고
세상♬을
##거임
인공
99
갈수록
요리
바란다
영혼
갔다
##일♬은
2017년
##♬적이다
##로♬가
##되는데
대만
##♬층
##비아
커플
##로지
교과
##안♬이
참고♬로
진입
##or
힘내
##는거다
대변인
복잡
내고
##카오
청원
재난
##그리
##음♬이
##프라
##져라
♬한테
사실♬은
둘♬이
걸쳐
문빠
라헬
##버리
경우♬도
발사
떨어지
투자자
##적♬을
##시♬는
##어♬가
##긴다
##정♬에
반발
했으나
##♬자♬가
종류
겁나
때♬도
작가♬의
##뮤니
얼굴♬을
부활
뛰어난
국민♬은
성폭
찬성
바른
너♬도
매수
협박
##동생
북한♬이
공천
유도
물고
노출
빨간
대기
여야
분♬들
괜히
##이라서
##노총
보조
##터리
최강
5000
검증
1인
들었다
사귀
아이♬가
고등학교
성능
인가
했다고
지루
발휘
조선일보
##버스
그♬에
2014년
직후
완화
이란
착한
##보내
##배우
##히고
##가♬에
투기
배달
##있네
2018년
원전
00
후회
##사람♬들
##여행
가량
##드리
연구원
배뎃
필수
짱깨
##의식
생각하면
소방
것이라는
기회♬를
김대
할수
경상
줄어들
##장♬과
자영업
지휘
이지
화학
때♬까지
입학
한미
위안부
표시
협회
##그래
##때♬마다
고급
재무
아이디어
♬보고
몰려
##명♬으로
패배
죽어
유료
결제
투명
방사
##슬람
##직원
둘다
어야
##영상
멀리
##단♬의
했으며
##겠는데
인민
육성
KB
철저히
애니메이션
대다
둘째
##공사
손♬에
##되서
올린
##나면
##미터
답변
응답
최순실
내♬로
아닌가요
못한다
국립
중간♬에
그렇고
동기
멋진
비례
고정
##부대
##시절
어요
##줌마
##용♬이
연간
월드컵
이번♬화
배신
가을
제재
지하철
모르겠다
엄마♬가
돌파
거기♬서
##현♬이
법♬을
그러고
양성
다름
현대차
매장
##비♬는
좋지
보인
##♬란
자율
이런거
이것♬이
##피언
♬로부터
중국♬에
##었으면
부대
어릴
맞고
고마
##장면
##향♬이
순위
상황♬에
생각♬은
책임♬을
자존
탈출
날아
실업
##전♬의
얘기♬를
줄어
이탈리아
남한
##전쟁
스테
학원
옹호
##주♬에
조선족
이민
일본♬에
경고
균형
주지
2018
무려
파트
세종
자전거
##상♬의
노예
세워
##였고
##해주는
악화
대학생
감독♬은
##다시
단독
##함♬으로써
방지
##된다는
언젠
검찰개혁
상반기
아울
##NS
이야기♬가
보안
성인
식당
형사
의지
부분♬이
##스♬와
일찍
수단
헤어
그다
##소♬가
책♬을
##점♬에서
대법
##동♬을
것이고
올라가
누구♬나
분류
떨어져
동양
IT
##♬님♬의
신체
씨♬는
##렀다
마주
느꼈
능력♬을
개판
김성
마침
정신♬이
##았고
##미♬를
봅니다
보이고
##연♬이
청문회
대결
##더만
##자나
받지
넘는
수준♬이
텔레
동맹
배려
당사
존경
##스포
안♬에서
한명
삶♬의
얻어
털어
아웃
커뮤니
공약
한정
##데이
모를
기준♬으로
뒤♬로
##이던
##을텐데
##협회
입주
이다
##소리♬가
중인
##하지말고
페이스
##셔야
##스티
400
##년♬이
시나
유명한
들어간
##자산
##시♬를
도움♬을
데리고
새누리
##동♬이
마약
##♬으
비롯한
##연금
2012년
##세력
임시
사용하는
##되며
파워
##수사
고등
하세요
활동♬을
##오고
##자♬도
기다리
긴급
3일
##호♬는
대표♬는
거주
끝♬에
##♬적♬으로♬는
다섯
지내
##보지
##힌다
트위
하는지
##구♬로
##먼트
방법♬을
##차♬가
##하겠다고
그날
##치기
물질
##드립니다
끌고
하반기
한다며
매달
나아
완료
마리
살짝
##으려
출산
##하긴
축제
결과♬를
♬로서
태어나
마찬가지♬로
뭔지
정기
1만
2013년
##총장
되게
시작한
비록
부처
경계
시킨
가난
근처
##♬만♬의
##성장
권리
##품♬을
것인가
스파
걸려
편집
##할까
북한♬에
2015
안타까
소화
무릎
향상
옮겨
머물
취임
나라♬의
주력
대한민국♬의
로봇
수백
모임
보고서
광화문
스피
예능
말하고
##분기
바탕♬으로
##om
두산
원자
##계획
서서
차원
##아도
죽이
##리라
예쁘
##래곤
##낸다
##있게
전두
실수
##했으나
거다
감독♬의
주세요
버섯
##자♬에게
화이팅
네트워크
##너무
##역♬을
중국♬의
고속
검찰♬이
##민지
맞지
대리
하셨
합격
##트♬는
소프트
부채
##버렸
촉구
##조♬가
##가능
사업♬을
빠진
2010년
주관
##♬뿐♬만
분열
##해주세요
작가♬가
많고
이념
압도
뮤지
것인지
스트레스
##럽다
##의회
우린
##가며
##발전
한나라당
##나♬가
##나다
##공업
죄송
치고
곳♬에
열어
##거리는
사랑하는
한국♬에
로맨
소리♬가
꺼내
빼앗
할지
후원
몇몇
신선
내♬로남불
지금♬의
명확
살해
연예인
공통
##♬별♬로
일으키
중♬에서
업종
이자
공직
문♬을
##러워
##단계
능력♬이
##었다는
중이다
##지도
##아아
전설
##조합
추억
##에도
마세요
##치면
최저임금
보일
사람♬들♬에게
도쿄
##하겠다는
이겨
좀비
접촉
##게요
##여야
1차
집♬을
우파
##단♬은
얼굴♬이
선진국
문재인♬은
좋고
양아치
전세
질병
주둥
하였다
##스럽다
아시
##든다
##레이드
##있음
살아남
눌러
##했는지
강해
없으니
한심한
시선
걸린
나타났다
높다
아울러
37
당황
다니는
##증♬을
##목♬을
카카오
짧은
##악한
##메달
호흡
선고
수비
프리미
관계♬를
##연합
자유한국
##모습
2019년
있는거
어쨌
라도
##문학
주인공♬이
요금
##구리
왕자
일어난
미쳤
워낙
55
나오지
대가
상대방
대북
##음♬에
도둑
장사
저항
해요
##♬성♬과
주차
챔피언
종료
1억
##드려
PC
##쪽♬에
어리
##성♬은
유저
죄다
마시
곳곳
당한
##다는게
##웨이
##감독
초대
버티
아이♬를
선호
취재
이라며
##스런
##었어요
한참
권한
특검
##경찰
머리♬를
같네요
과장
지닌
♬께
빠르게
##당♬을
♬하고
다르게
사정
##미디
알았는데
##너스
변신
앞두고
행동♬을
##en
기사♬를
##준♬이
가로
아우
##작가♬님
##분♬의
유학
♬다
##트♬의
##보이
아이돌
뿐이다
전두환
입♬을
원장
익숙
건너
치열
##위♬의
이길
맞춤
기사♬는
법안
2016
축소
사유
아야
##이프
몰입
##버리고
##군♬은
주체
##가라
아깝
그런거
##당♬에
대학교
##복지
맘♬에
개편
##하지않
##애♬가
원내대표
하다가
##대고
데이
시나리오
머리♬가
유일한
##판♬에
귀신
중국♬이
개성
저질
##르면
##제♬는
바뀐
징역
효과♬를
대단한
반박
획득
이래서
때♬가
찾는
##al
솔로
연대
그래야
감시
군인
내용♬은
자리♬에
##구♬는
##만명
##임♬이
하나♬로
스케
##아님
강요
##실♬에서
2014
##사람♬은
여의
##는거냐
한두
결승
##11
한달
특별한
원숭
2017
매국노
##어져
##라운드
단기
1일
##을듯
##사장
♬같이
일♬도
오직
덧붙였
대폭
강조했다
휴재
##♬에게♬도
싫다
발매
문통
52
이쁘
넣어
않습니다
점♬이
마감
자치
신한
150
폭행
태극기
고개♬를
여자♬는
왜곡
바이오
접수
가리
개방
##40
세금♬으로
##가야
가짜뉴스
뿌리
고구
재벌
똑똑
매입
##이었는데
깜짝
##다리
치매
잠재
SNS
점차
##연♬을
##었나
갖춘
하나♬가
##공자
비싸
##도로
아저씨
위♬로
뭐지
오늘♬은
고맙
##드라마
놈♬이
몰라도
시켰
사이다
##하고자
##하면서♬도
자빠
꿈♬을
만남
아프리카
되기
아줌마
노선
타격
과정♬을
배출
누군가
늘어난
##조♬를
정식
김종
##국♬을
레벨
##개♬로
단일
##♬스
그러한
조언
##으신
대충
##업♬을
의견♬을
##력♬으로
앞♬으로♬도
치킨
##♬화된
것이
##력♬과
저리
존중
48
##쓰는
코리아
헛소리
호주
버리고
쉬운
완결
예전♬에
##선수
##보♬를
명♬의
심각한
##겠나
건데
##산물
삭제
의회
함부
해체
안철수
활발
##at
알려진
##되어야
##로스
클래
핸드
결합
##란히
##무♬를
실행
뭐라고
임기
##했네
발굴
##답니다
아마도
오랜만♬에
개별
이딴
사실♬이
##♬들이다
거예요
나아가
호소
우리♬도
##답게
적은
##♬성♬은
##총리
혁명
일이다
시급
##라♬의
문죄인
기록했다
##아♬가
해양
모으
지능
천재
2011년
조기
이스
다운
##♬류
의원♬은
##점♬에
바라보
20대
한국♬이
오랫
토지
##법♬이
감독♬이
##영♬은
서류
##실♬이
##♬까지♬도
만날
친구♬가
무지
41
몸♬이
유엔
##병원
들려
##짓♬을
극장
♬대
39
##한것
##문♬의
좋다고
그럼에도
##자는
믿을
벤처
##st
##내용
격리
##니어
##할듯
출범
##프레
안경
연봉
비즈
해주세요
묘사
♬에선
##하는것
남겨
##라♬는
##조리
밝힌
##서♬에
알려졌다
아기
##이♬도
##권♬을
물가
연말
##봐요
쉴드
않지만
##마♬가
트위터
거죠
했을
♬네
부진
근대
4년
부자
♬만큼
##전♬은
얻을
교류
대통령♬의
##르크
아이♬들♬이
무능한
##이유
##당♬의
관광객
찍어
라디오
죽는
##♬로써
##달라
강의
메르
하나♬는
좋은데
##봤다
해명
천안
이놈
이♬처럼
사이비
지자체
학부모
##자금
##표♬를
##주기
전공
신설
##줄알
만들었다
이유♬를
심장
좀더
연주
객관
김태
끊임
오로지
빨아
한번♬도
있었지만
접종
부장
선임
알지
##우면
같음
주주
형제
재능
방식♬으로
하더라도
아이♬들
보스
인하
중반
이어지
타임
폐기
##지사
동반
유행
형식
##산♬을
베스트
파티
##등급
##같다
일주일
추측
##회♬에
가볍
##구♬의
평범한
매매
어째
##♬부터♬는
##석♬을
##♬만♬은
폐쇄
복합
3000
공원
이틀
베댓♬이
유치원
##이긴
며칠
질환
##어리
효과♬가
김경
혐오
한쪽
2008년
##진핑
##오면
당신♬의
기♬가
쪽바리
하니까
많아서
김치
이모
올바
맞다
깨달
##인♬과
위선
##합시다
사내
댓글♬이
든다
##야한다
사로
자♬가
알려져
만났
없어요
임신
내는
감싸
번역
인성
사진♬을
흔히
65
작품♬을
##줘서
생태
##이었고
##단♬에
사기♬꾼
올렸
42
##소년
집어
공기
주거
의존
백화점
몸♬에
##하♬에
아픈
고양이
무게
포장
물량
느그
보며
있어도
증시
##사태
동성애
##당하고
##었어
세상♬이
독특
뜻♬을
감각
한국♬에서
성향
합류
돈♬으로
개막
그녀♬가
농업
없었던
들어갔
무엇♬보다
나라♬는
편안
이내
그렇다면
예수
추세
면접
정비
이♬들♬이
했습니다
네♬가
##로♬는
이♬들♬의
##했기
취득
위하여
무관
다수
##왔는데
패턴
수립
##판♬을
##이게
##술♬을
무엇♬을
보고싶
내린
##있으면
품질
연구소
코미디
##말♬은
경제♬가
북한♬의
이경
그니까
합병
당연한
깨닫
등♬은
장면♬이
우울
가스
당초
아무래도
무죄
##자마자
AI
철수
하긴
##리♬와
미국♬은
의미♬를
##화♬에
김대중
##이즈
##화♬에서
시간♬에
영입
연관
##좋아
막아
달아
근육
깊이
공화
75
디스
부실
홈런
##과학
동남
영원히
복수
읽어
집계
##♬다가
##이도
구역
수시
##정♬의
2012
차기
제약
난다
요인
최악♬의
조절
최선
오바
비싼
회계
##시기
일방
적당히
##he
##타♬를
##웨어
진심♬으로
매주
세트
입장♬을
황제
##가면서
박원
##으므로
##하더니
2009년
하지말고
영화♬에
##♬들♬이나
맞이
석유
스카
반전
##효과
일하는
##때♬도
비롯해
구간
거론
부패
어려워
조만
재단
어쩌면
기아
##구♬에
2019
신속
##이름
##인물
사건♬을
##본부
디자
용서
텐데
에피소드
다음♬에
법정
정해
표출
충북
걸로
몰래
진영
때♬부터
배제
즐거
♬스
##저히
CJ
이것♬도
20년
##군♬을
오염
붙어
좌우
##훈♬이
거절
즐기
##람♬이
가상
통상
뜨거운
이정
받아야
메인
내게
말하면
주먹
믿는
패러
##정도♬로
##은데
##실♬에
적극♬적♬으로
오프
파업
우리나라♬는
##♬에게서
쉽지
##란드
##기♬까지
매체
##졌네
알리
친환경
이렇
주영♬이
즐길
상업
잔인
국가♬가
##하지♬도
언제♬까지
첫번♬째
##단지
공중
크다
##했어
##시즌
재료
려는
자국민
직전
사용할
죽이고
역사♬를
##필요
가시
자본주의
이끌어
분♬들♬이
지니
##케이션
대한민국♬을
##주인
게이
고자
욕♬을
대표♬적인
타이틀
짓♬을
에휴
개♬가
##했어요
발달
##지말
##통신
할까
개인♬의
두번♬째
##형♬이
##♬률♬이
몬스터
심한
##했지
##차례
##마스
고유
##능력
함부로
보여준다
보러
##♬에겐
허위
##해야한다
##♬성♬에
시진핑
방송된
어휴
##전문
고대
화♬가
##나이
드래곤
게시
한글
풍부
절대로
그러다
##졌고
바람♬에
곳♬이
기업♬의
음주
##보니까
##민주주의
유기
떨어지는
숨겨
전파
단속
중국♬은
대규모
있으나
##으러
출입
쳐다
##대상
범위
안될
휴대폰
운행
##♬한테♬는
김현
무언
##시켰다
오리
오늘날
저건
진화
5일
아니었다
파견
중학교
##았다고
참으로
조만간
##앞♬에
제3
매번
태도
셈이다
명♬이
막말
스토리♬가
부과
##입니까
##시간♬에
44
화재
기분♬이
지사
전원
##올라
##봤는데
미쳐
자고
최초♬로
대안
##석♬은
훌륭한
이른바
##때문
특허
흥행
##하시고
사로잡
허가
기름
재앙♬이
뭔데
인간♬은
표준
##빨리
초청
##후보
##사♬에서
드는
저렴
♬쯤
버리
##그네
받게
##줘라
##어♬로
등장하는
승인
일관
살기
미니
갖다
##르기
##시험
미래♬를
민주♬화
##진♬의
즉시
장악
3개
##금♬이
넘겨
##시마
의미♬가
일♬에
철도
##집단
##겹다
보증
똑바로
장학
음성
보여준
논문
왼쪽
유출
##십니다
남자♬는
아니라는
##작용
반응♬을
##었음
전염
늦게
43
기다려
##제♬로
##하죠
##TA
##만들
갤럭
마시고
##보세요
소수
체포
##이여
멈추
상태♬에서
##하려면
포항
물타
기생충
문자
부서
환율
욕하는
아버지♬가
그렇다
##저리
##때♬부터
지지하는
##서비스
대립
슬프
벌레
수록
오랫동안
##분♬은
더라도
어떠한
##규직
점유
##♬으론
주연
첫째
##펀드
##미♬는
구글
##♬으로♬도
너♬의
되는거
웃음♬을
부족한
##아♬는
조달
##국♬은
##는데♬도
나라♬에서
##마을
##12
##물♬에
##집니다
출판
연령
##쟁이
없게
포스코
시내
그러면서
조금♬씩
##으라고
##♬치
매출액
사건♬이
코♬로
##해주고
붉은
어렵다
195
베댓님
문서
역량
##노동
개인♬적♬으로
##아들
##신♬의
##물♬로
부드
극단
주사파
영양
으나
개♬의
환영
가려
가동
모르겠
휴가
페이스북
##매매
현실♬을
모습♬으로
##니♬가
한거
뮤지컬
CE
##관♬은
##운용
사람♬에게
천만
♬대로
오타
##책♬을
##트리
##해지는
같아서
##성♬의
##자♬들♬을
##가게
없나
##주♬로
##이어서
수도♬권
퇴직
##벌레
은근
무사
생각♬도
김일
##처리
2010
##마리
##다란
##이면서
##서트
무장
원♬을
스위
##선동
##했음
##세♬로
했으면
보냈
선전
죽고
연극
##60
##때♬까지
유발
##놈♬들♬이
이득
레드
선두
무상
##없음
의외
의장
처음♬에
진실♬을
마이크
연합뉴스
##스팅
거두
##♬로서♬의
맞서
아카
##공항
신분
##겠습니까
##으셨
하려고
외환
##함♬에
떡밥
최우
목사
충돌
출근
자연스럽게
덧붙였다
♬조차
47
선사
저축
판타
직무
재밋
곳♬에서
벌금
내면
##소♬에
##하자면
죽일
그렇지만
알았다
##모♬를
은퇴
어쨌든
##주민
기득
식사
##나와
##커녕
전북
##의♬가
10일
4대
194
폭탄
##할지
임원
북미
방법♬이
##해줄
정책♬을
데미
신종
유형
##이너
안다
눈길♬을
입증
##었네
미만
가졌
##싸움
대하여
동영상
취약
비정규직
2020
전교
뒤♬에서
49
##스♬에
사냥
생각나
비서
##없네
적자
각자
강간
##많이
##나간
국가♬의
##법♬은
귀여워
극우
##♬레기
##관광
##♬산
화이트
##로드
놈♬들♬이
고작
이시
##라고요
향한
##사이
두번
붕괴
##해♬를
가깝
##구역
결과♬가
바라는
흡수
한국당
##♬시
쪽♬으로
기업♬이
##테니
##경영
활성♬화
정말로
왜냐하면
##이구나
##검사
##드라
다음♬과
배운
힘들어
2013
했다는
♬루
할아버지
기술♬을
끌려
만들어서
느끼는
##망♬을
멍청한
소련
##아니고
♬감
멀쩡
간호
오브
2007년
##땜♬에
보급
##건가요
동참
읽고
홍준
소장
투수
##티즌
눈빛
급격
자리♬에서
죄♬를
기억♬이
62
목숨♬을
##억원♬을
입♬에
외치
리즈
##공개
대장
##리다
일일
##비용
갤럭시
본질
##80
같고
600
계열사
드러내
끝나고
##♬율♬이
##션♬을
점♬은
국산
어떨
정확한
##더군요
황금
##거라고
2일
##전♬으로
정도♬는
##수♬에
의문
안가
옷♬을
측♬은
부지
있음♬을
드리
몇년
##하라는
나라♬에
##시♬의
##우리
##였습니다
##센트
하나하나
##토록
관측
자라
블록
정수
어느정도
색깔
##마♬를
##해서♬는
듯이
보완
승부
미통
일자
진술
수영
협조
초등학교
열리
비즈니스
가질
##았습니다
인프라
갈아
##함♬과
기존♬의
정상♬적인
입장♬에서
중도
교수♬는
##관♬에서
장치
쓰지
교환
누적
위♬에서
##스테
받는다
부모♬가
사람♬들♬도
명단
씨♬가
잘하고
민생
##리네
캐나다
애♬들♬은
채택
담긴
다르다
##지면서
움직임
##하길
버린
과도
##안하고
한남
##차별
건지
15일
파트너
브라질
서비스♬를
주기
후배
전작
생각할
공략
들어갈
나간
##고♬는
##있지
##저기
타이밍
공짜
넘어서
시달
첨단
마지막♬으로
##해지고
댓글♬을
이번♬엔
평가♬를
세우
연방
해방
##하지마
외면
##이나
마땅
인원
거대한
진중
고집
범죄자
분♬이
챙기
좋게
쓸데
##통합
들어가는
인간♬들♬이
##명한
검찰♬은
죽인
##♬으로♬만
1도
얼굴♬에
##승♬을
엔딩
##아닌가
자는
종종
메시
국민♬들♬의
앞장
프레임
##해질
근로자
##어♬는
민주당♬이
유승
자제
노트
##민족
번호
##결과
그러므로
광역
조각
상영
##지♬에서
##어로
예쁜
항목
##과정
괴물
실시간
남주
오른쪽
캠페
호남
##집♬에
후속
당당
대한민국♬이
##보면서
##아리
특유♬의
##발♬을
정치♬를
여친
입은
실무
##직한
수천
유입
##정♬권
나가는
46
공시
##♬분
##식♬은
4일
##다는거
가치♬를
한일
##씨♬의
20일
가슴♬이
넘게
구라
서초
힘들게
빌려
자림♬이
증상
##호♬의
##구석
애♬가
##가격
##조♬는
수수료
그런지
누나
모르게
##르지
사업자
프리미엄
계기
구현
보세요
##속♬에서
7일
주변♬에
운운
홍준표
명품
##느니
수준♬의
유동
어지
처분
노란
##시스템
태어난
구청
##고기
모습♬은
건가
보아
지점
상대♬적♬으로
거라고
공격♬을
새롭게
제외한
점수
이만
##비♬로
민노총
작전
자신♬들♬의
그야말로
그녀♬를
##는데요
♬론
##해준
침해
##체♬의
##조♬의
착용
##았을
##폐렴
##비♬에
아끼
귀족
한때
##다니는
##타임
달고
각오
들이
마인
표창
##금♬으로
다이어
자국
적합
##수수색
신중
간부
부하
조금♬만
체력
던져
감히
문제인
##신♬은
장점
고교
어떡
말라
이행
지속♬적♬으로
54
재수
나면
##하지♬는
진료
담아
드러나
##교통
양산
보관
예약
##을까요
산다
협약
♬들♬이
##있냐
정신♬을
마스터
느낌♬을
찬양
코스피
실장
할때
돌아온
뿐♬만
후손
서양
##책임
감정♬을
##어지는
어려울
방탄
기다리고
##ou
한국♬을
기어
##치♬는
것♬만
급증
나중
노력♬을
##상품
드루
##♬대
자세히
##라엘
맞게
창원
꿈꾸
지각
##었지
고문
정지
당하고
양반
##았지만
밖♬으로
구멍
않도록
호랑
손실
추석
##동네
일대
모르겠지만
캠프
유닛
시킬
적응
강하게
충실
##♬만♬으로♬도
가벼
##가스
된다면
2개
일시
##버려
일반인
##회담
##십시오
말♬만
금방
인기♬를
아이폰
##대학교
아오
추락
단순한
스페인
끊임없이
경선
붙여
들어온
맡은
##♬님♬들
기원
##내기
사회♬의
급여
곧바로
관계♬가
돈벌
정권♬이
정유
##이브
관찰
하하
어두
계획♬을
거대
변동
줄이
전♬부터
기기
부각
조중
손♬으로
만들어진
넘어가
특이
기대♬를
무서워
IM
요새
##분간
정착
조종
이태
아픔
고기
러브
부분♬을
경찰♬이
일본♬을
##기준
끝날
열고
방사능
날♬이
##되게
종이
즐겁
당해
충남
##명♬에
컬러
1등
재생
민주당♬은
##렸는데
##색♬이
잘하는
##테크
채워
압수수색
너♬가
여겨
커다란
연설
그♬에게
졸라
##되었고
이후♬로
학생♬들♬이
매도
##직♬을
포함한
2011
아가
공작
##업계
지도자
유일하게
##듯한
어케
상당한
블루
부회장
집♬으로
나타난
시사
##후♬에
하는짓
규모♬의
##치♬로
##희♬가
그간
아닌지
14일
논란♬이
국개
이번♬에♬는
##는다고
##언론
##운♬이
무식한
##희♬는
김기
##♬들♬에게♬는
연기♬를
인형
로마
힘들다
##버렸다
##금♬은
이스라엘
생길
끝났
##스키
캡처
정경
지원♬을
처음♬에♬는
배당
신♬의탑
매니
청산
네티즌
여건
##우♬를
한가
해보
에어
##루션
본인♬의
보복
##et
투어
말았다
사이♬에서
♬으로서
##그런
동부
전망이다
테크
감추
##일♬로
##피아
소위
속♬으로
메뉴
메이저
##드♬로
##IA
비핵
##잡아
회견
##줬다
지껄
보여주고
##시켜야
생활♬을
시계
##사항
메시지
바퀴
파리
신입
##회♬에서
답♬이
기구
비하
스럽
감상
국내외
입법
##제한
앞두
김진
##와중♬에
더블
##es
##드러
현행
이름♬으로
트리
않아도
모니
뇌물
기레기
경제♬적
생물
런던
밀려
##보호
##있습니다
##회견
화제
내지
정은♬이
##트♬로
도저히
여기저기
♬으로부터
필리
이해할
개설
경기♬를
##일러
봤다
왕따
파란
밖♬에
물♬을
##it
##갑니다
맞은
화려한
달라고
##♬에서♬만
이영
생일
올바른
공인
전역
있는게
대량
추적
♬으로써
이익♬을
쓰면
##더라구요
##았으면
규칙
훼손
##력♬에
##국♬으로
중요하다
부르는
재건
담겨
청약
##이♬와
기도
변화♬를
늙은
중고
미개
만일
##선♬은
초과
1조
남친
하얀
불가피
수고
안드
설레
##편♬이
하네요
하겠다
##회♬는
홀로
라면서
##했나
고령
분위기♬를
안심
##년간
당부
##년♬을
이전♬에
위로
지출
##이래
윤미
##는것
지어
있다며
스릴
정의당
##움♬이
본래
진상
길♬이
허락
##신문
아가리
머리♬에
확진♬자
나이♬가
59
틀린
자기♬들
##옵니다
GS
##팔♬이
##이요
눈물♬이
시대♬에
선박
기회♬가
브리
신인
##좋은
국민♬들♬을
##소♬는
##럽고
급식
불행
세금♬을
##소한
만들기
##재♬를
##관련
##봤자
##공산
교도
지향
판정
##으시
불매운동
♬야
##15
##봅니다
부분♬은
##하♬의
회장♬은
요즘♬은
구단
트렌
##차♬는
##♬률♬을
##하이
짐승
고쳐
사드
재개
한강
현재♬의
수집
1천
문제♬로
##끼리
명칭
지혜
을까
경비
안쓰
내다
따뜻한
계층
마크
쪽팔
오토
주제♬에
지표
##중인
노사
부당
어르
120
북한♬은
허리
행복한
##버리는
법♬이
##00만
올리는
주최
욕심
##학♬을
이름♬은
##되는거
##심한
하라고
키로
세포
이라고
선출
명백
##자동
동남아
25일
중국♬에서
뒤집어
8일
탈락
걸리
평양
깔끔
같았다
##면♬을
오버
새끼♬들
유가
지진
와중♬에
실내
많네
주장했다
중립
취향
##장애
넣고
부딪
##투표
##모♬가
##겠는가
##산♬이
월요일
보편
성실
##사람♬들♬이
##관♬에
자신♬에게
##민♬은
에스
##라♬를
측정
아파
노후
계속해서
즉각
비디오
자발
편이다
##였지만
욕먹
58
짱개
권력♬을
끔찍
180
상실
얻은
문재앙♬이
귀여운
배워
느냐
기능♬을
시골
태어
화장실
##르트
돼야
강아지
박수
인용
##혀서
약한
경향
##행위
기상
리뷰
##혁명
어둠
##ic
##가는데
##일뿐
이순
저장
##♬성♬의
##계약
싶어서
점이다
유전
견제
##치♬의
##왔던
블로그
완벽한
6일
담보
차♬를
강원도
85
국방부
경력
없기
##공♬을
침묵
##남자
신호
##물고
##♬심
간담
소문
##식♬의
핸드폰
드라이
##경♬은
못생
대거
##법♬에
##체육
창작
이러니
##스♬로
##해진다
장착
찾을
체크
있죠
대화♬를
##지♬와
상무
계좌
중독
2009
기자회견
기♬레기
분쟁
11일
교육♬을
물타기
올랐다
날려
위대한
##리즘
마녀
##이었지만
95
알아야
무시하고
스크린
나설
눈물♬을
이수
있다가
뒤♬를
그♬들♬을
김재
가계
강경
12일
한심하다
##세♬의
봐서
구상
##렸을
썩은
좌좀
듣는
윤리
앞세
13일
결국♬은
지주
##구먼
감당
6개월
실종
##이므로
고수
아름다
뮤직
자유한국당
뚜렷
놓은
기쁨
창의
16일
부러
9일
찍은
##그리고
나오는데
스펙
걸고
##세♬에
줘야
많았다
나섰다
위험한
시청자
주위
물류
나베
입원
비행기
최후
##훈련
##화♬의
인생♬을
문제다
##추행
##선♬에
##으세요
##수있는
간♬의
자체♬를
행태
2008
안들
탄탄
먹어
56
성폭행
방영
가격♬이
고스
입시
##바라
핑계
금메달
곳♬은
지연
##선생
단식
비대
무척
살아라
재미있게
##림♬을
##감정
백성
##정부♬가
코믹
애기
잃어버
편성
CEO
##인♬들♬은
반대♬로
만만
##증♬이
숫자
사안
상태♬로
방치
23일
시끄
공주영
가치♬가
학교♬에서
##회♬가
##욕♬을
커뮤니티
천천
아들♬이
##러리
찾아가
그런가
보내고
콘서트
##리면서
충성
도발
싱글
간접
신♬이
##로우
10점
가족♬이
딱히
##새끼♬들
떨어졌
해고
슬픔
의료진
못하면
돈♬은
웃긴
2주
평점
정도♬가
그지
문제♬에
집착
우리나라♬가
27일
확신
♬보다♬는
화장품
##세♬는
주간
##했냐
전화♬를
어머
마친
도서관
##연히
##쓰레기
싸워
##좌파
불리는
##았네
코너
생각♬보다
제국
대통령♬을
엔진
17일
계급
##부지
특혜
지역♬의
형태♬로
18일
내수
##사진
22일
26일
왜구
한마디♬로
우연히
##이거나
배상
올리고
24일
사무실
거울
엄격
호기
##엄마
게임♬을
##할거
##무기
대법원
그♬들
28일
중대
박살
신발
차원♬에서
뽑은
##도♬에서
열정
어우
21일
##자식
19일
##ST
##재♬가
##즈♬를
오류
천천히
노래♬를
점령
##타고
성남
건립
너같은
려고
##세포
##♬에다
소형
여론조사
태풍
##민♬의
박지
소중한
최선♬을
##잡이
하드
##사무
PD
테스트
##작♬을
##디션
의학
죽음♬을
##소♬에서
없냐
일요일
##통♬을
위장
수리
구미
보라
##사♬들♬이
의뢰
##국제
대대
수준♬으로
설비
한대
일러
##하기♬는
있는가
수주
해군
침체
종사
마누
먹은
구경
영화♬에서
해피
##하실
내렸
전후
##었는지
날씨
##스레
수급
미통♬당
이어질
양국
누굴
귀찮
##아웃
##사실
하야
##물♬의
##사인
상속
사이버
관련해
이용한
518
방법♬은
뇌♬가
않기
##정신
##있나
MC
손님
씨부
대통령♬님
주면
##것♬처럼
제품♬을
모니터
유력
정부♬에서
증언
우리♬를
하도
자존심
어이♬가
##km
##놈♬은
회수
열리는
되찾
키스
불교
##레인
무력
##편♬을
응원합니다
여태
##까진
일어날
##미애
##겨서
호구
모조리
리스크
부추
##내려
##절한
살아가는
박원순
마음♬으로
치는
2006년
기본♬적♬으로
뜯어
코스닥
53
들어와
##보수
테마
녹색
마음♬의
발동
시상
신경쓰
유권
웹툰♬이
##집♬을
##시코
나♬서
막상
##기면
편리
##고♬도
자유민주주의
##민주당
##방♬에서
##브리
엘리
억지로
세운
방향♬으로
경험♬을
##는거임
한국♬당
사모
##프♬를
나♬에게
##했다면
##이었습니다
##있어요
##겟다
전형♬적인
이슬람
플래
김동
꼬라지
하지마
임상
안녕
진중권
크고
농협
납치
이낙
웃고
핑크
지경
##70
##베댓
불쌍한
정권♬을
말라고
원정
##법♬으로
웹툰♬을
##se
충족
##♬이네
미국♬에서
치명
터뜨
득점
마구
입국금지
조국♬을
내♬에서
노릇
세계♬를
버려
보았다
신세계
있었습니다
작곡
잘라
5천
합시다
##리우
시범
##기다
사회♬에
##봐서
유로
사이♬의
보는데
##제♬에
우와
탑재
이제와서
예외
##비♬의
##있을
##선♬의
##ED
##형♬을
되면서
30분
##거리♬가
##한지
미소
진모리
마침내
##제도
##하지마라
##트롤
우리♬에게
##있던
민감
♬에서♬는
별도
##데이트
질투
나갔
유공자
물려
예배
조국♬은
비극
다크
장식
##아니냐
중동
##소설
##고♬가
사령
##순간
하라
도중
끝♬이
비트
우습
2번
일행
##어♬의
않았던
폭망
웹툰♬은
##프로그램
##학♬의
파이
최신
감수
제조업
죄♬가
##정부♬는
프로그램♬을
항의
tv
##자치
이주
64
싸이
되어야
2020년
♬아
푸른
되었고
망가
어색
##해져
구제
인종
##거리♬를
조지
##현♬은
줄여
잡은
##해졌
일본인
싸우는
이종
##아♬의
논쟁
녀석
##했다가
##한거지
추종
연상
차관
##박한
세무
공부♬를
뛰어나
등♬에서
것이라
##살♬을
##이♬들♬이
30일
구체♬적인
일본♬에서
##성♬에
방법♬으로
외♬에♬도
어르신
##통♬이
드루킹
장애인
안하는
##우♬의
미칠
타령
외♬에
않는다는
이후♬에
위치한
##성한
포스터
미국♬에
##편♬에
것이며
라이브
등♬과
질질
일종♬의
##수♬와
주한
서구
나은
##원♬과
고통♬을
장례
##로♬의
피아
##재판
여의도
라운드
싸울
널리
북괴
대상♬이
스튜
한층
단단
길게
스티
영광
손혜
##그만
##시킨다
계시
##상♬으로
대다수
대한민국♬은
##해졌다
국장
##예술
##화♬는
과감
컨설
욕망
플러스
##씨♬를
##lo
두려워
잃은
갑니다
투자♬를
공단
대해서♬도
민심
가자
제압
##운전
##위한
조회
##작품
##전략
30대
##하겠지
##병♬을
벗어
##안전
단행
목격
여자♬를
얼른
담은
##린다고
민중
농촌
##둥이
##혔다
있으니까
목소리♬가
##하는거지
바쁘
##스러워
학년
역전
둘러싼
국세
다룬
시기♬에
##스카
잡을
성추행
청주
써야
새해
♬인
성과♬를
##력♬의
베네
##♬상♬의
5개
위♬의
800
상임
괜찮은
테이
저지른
가르쳐
모색
아서
않아서
혼자♬서
##버그
입♬만
##re
그릇
말투
최초♬의
##지다
##것같다
통보
CC
도심
##크♬가
해운
시선♬을
##조직
용인
대외
지불
발악
떠난
정권♬의
##적♬은
하나♬를
##얼굴
이따
정규직
국정원
그♬와
84
##♬들♬이랑
##패♬를
순식
조중동
살리
충청
확실한
아빠♬가
##이거
화폐
다큐
낮추
해주는
66
입사
놀아
들은
몇번
1번
4개
##페이지♬에
시인
무렵
비유
말이야
##는건데
##스탄
##조정
끌어올
##크♬를
##시티
지적했다
##le
이분
고전
아쉬운
##♬이♬는
##잘못
고등학생
일치
개국
후쿠
성범죄
당일
엔터
방안♬을
##♬로♬만
##테인
##보이는
##물관
의하면
해제
##있는거
##그림
점포
없던
비교♬적
아닙니까
오바마
면역
것♬보다
##나♬의
살아야
승진
이대로
더벨
조사♬를
구별
본사
미국♬과
유아
편하게
##나온
종로
인간♬을
개학
초등학생
멀티
시장♬에
♬치
##섰다
대표♬가
기사입니다
공익
##있다고
아메
선도
1회
공동체
우유
모순
쓰레기♬들
57
잘못♬을
입찰
안고
질문♬에
##지능
총괄
신념
##타령
돌입
##♬만♬도
##립니다
전무
싶지
##놈♬의
보다가
팀장
갈라
##레이션
##부♬와
##하기♬에
버렸
##거같은데
전사
큰일
크루
합법
추가♬로
예의
않았지만
생각했다
하위
##맞고
##올림픽
내♬에
도달
##♬감♬이
##락♬을
##감♬은
어마
##방♬이
인정받
자림
뜬금
운명
1위♬를
하지마라
존재하는
정치♬권
적어
단위
입맛
법♬적
##나보네
나빠
신앙
##있어서
제주도
잡는
다스
앞둔
슬픈
불어
아아
##미♬의
머릿
결의
유대
##♬로♬도
##♬자♬는
써서
막을
##시한
##am
마트
징계
본격♬적♬으로
스탠
##포르
3대
서서히
193
##십니까
이상♬이
임직원
수면
주자
##CD
일반♬적인
##하였고
태양광
지명
안해
맥주
댓글♬에
##보게
바르
##기♬들
태국
법무부장관
인격
##인♬에게
적절한
숨어
##세상
갖게
정도면
안팎
IP
건드
히어로
지은
##았다는
현재♬는
개정안
합쳐
##인데요
##할것
오면
역겨
아이고
##모르
뭐하는
전직
신상
2005년
이야기♬는
탓♬에
이만화
가능♬성♬을
품목
##공간
##고생
어디♬에
들여다
가볍게
88
##연♬은
또라이
##걸까
시작한다
계신
좋아서
느끼고
격려
원숭이
스님
증권사
##그릇
##웠던
생각하지
히로
눈길
늘려
태평
초래
영업이익
소식♬을
##하다니
모은
소모
##고한
##색♬을
보존
##모델
대체로
##제♬의
떨어뜨
생각♬에
업데이트
한숨
63
남부
##빨갱
지나가
탈북
만화♬를
크기
com
싫어하는
교활
캐스팅
는가
##령♬이
작동
##번에
않았고
##학♬과
사라진
##만원♬을
떠들
##18
뛰어넘
건전
언젠가
국민연금
점심
##시스
올릴
##자유
##장한
##이잖아
경찰♬은
이♬쯤
포르
평창
해상
표출된
떠나서
대륙
남탓
필리핀
시체
안나오
목적♬으로
결말
케이스
##바람
##거♬는
목소리♬를
말자
절감
양보
부적
아버지♬의
인턴
경매
전주
소외
저딴
갑♬질
##했으니
이상♬을
##OOO
토요일
캠페인
건조
초월
덕분
속♬이
사랑♬의
밤♬이
주행
당분간
29일
##통수
김민
일진
##는건가
어디♬까지
일반♬적♬으로
짐작
접속
뻔한
극혐
명절
##생명
자위
##이사
행보
##탄♬을
늘리
마르
주어
##였다고
메르스
하수
오오
배♬가
리더십
곳♬으로
##관♬의
##발♬이
민지
다녔
11시
문대통령
72
발생한
용기
##해놓고
넘치는
##돈♬으로
배터리
무엇인지
##건♬을
조롱
풀이
방위
솔루션
기사♬가
술♬을
##등♬을
##독재
어디♬로
하는건
MA
하시는
##속♬으로
플랫폼
충전
케이블
##얘기
되나
##면♬에
##곳♬에
장면♬을
로드
전제
##인데♬도
비전
이것♬을
하더니
30년
2000년
##내야
분위기♬가
어딘
바꿀
##하겠습니다
순환
지나치게
잡혀
회피
##싱턴
안됨
승리♬를
##병♬이
잊지
업그
찌질
강렬
꼴통
유연
독점
주인공♬은
김수
##니즘
않음
지리
##것♬만
있나요
##해온
융합
많지
##살♬이
짓거리
초반♬에
전쟁♬을
얘기♬가
혈액
비하면
##왕♬이
##물♬은
시대♬의
될까
상처♬를
전일
##였어
##♬로서♬는
작중
##것♬들♬은
딸♬이
♬류
미래♬에
2천
섭취
이끄
##으려는
동일한
펼치
자네
과거♬의
유료페이지♬에
청춘
과거♬에
관여
판타지
의원♬이
멸망
쓰레
##즈♬의
##부♬로
수사♬를
예상된다
분♬들♬은
재활
각성
사람♬과
넓은
해준
김상
도박
어쩔수
##공단
엄청나게
##바다
수소
교통사고
뒤늦
##클럽
##가루
극대
도와주
다음주
##지구
아무튼
클라우
정서
엉덩
또다시
사서
##하진
영장
진작
편견
먹으면
다행히
##♬까지♬만
정확하게
##아냐
기본♬적인
때♬의
몰고
바람직
대단하다
그림♬을
낫다
것♬들♬은
남편♬이
일각
##공격
추모
##사람♬들♬은
아니에요
##일듯
##시켜라
이재명
일으킨
누구♬도
남기
유용
##검찰
이천
정답
강행
육아
##렸던
영화♬로
2만
우한폐렴
##대책
있긴
지역♬에
안되고
농민
700
사죄
쫓아
##기능
더더
포스트
대목
절망
역사♬적
데이트
컨셉
려면
##♬계♬의
세계♬에서
##동♬에
상황이다
크리스마스
부작용
트레이
서버
##도♬와
중구
세뇌
성매매
하여간
편의점
스타트
##없다고
받아서
작품♬이
##식♬에
##일으
자신♬은
베이징
안달
갖춰
##적♬으로
문정♬권
같다고
##감♬에
소프트웨어
이미지♬를
합동
하루♬에
시장♬의
##량♬은
동화
##개념
들면
당첨
자회사
넘기
독특한
##♬님♬을
##치♬에
크로
세부
여기♬는
##법인
하지말
전수
윤미향
현황
##활동♬을
방금
촉진
계기♬로
NH
높여
무덤
##즈♬가
대해선
될지
4000
여신
했는지
##PG
이상하게
##릅니다
##와라
##♬화♬가
피고
마디
상환
한방
##그냥
##시네
나이트
떨어질
야권
사회♬가
##들여
변명
소상
IMF
혜택♬을
##구멍
여성♬의
FTA
##♬까진
위조
##내서
의해서
있겠지만
교육청
수구
주장하는
##고속
##인건
자유♬를
##위기
제외하고
##자♬나
타입
낭비
믿음
공♬을
##공원
아닐까요
##스럽고
운영하는
##재산
국민♬에게
사실이다
애♬를
##나가는
음식♬을
정황
넘쳐
발급
철거
돌아가는
경우♬에
연평
화성
나대
##령♬을
##리는게
무섭다
간신
##인♬들♬의
유독
한창
##장♬도
신도
확인할
##트라
1주
##음♬에♬도
기재
잃고
##♬마냥
버전
장군
심화
##스트라
싫은
디스플레이
##담♬을
지원금
누르
하나♬씩
억제
자영업♬자
최적
3번
자문
##열♬이
##애♬들♬이
수습
동작
타자
머리카
##♬으로서♬의
옳은
목표♬로
교과서
힐링
인기♬가
##임♬에♬도
식민지
병사
##시키기
결과♬는
놀이
##어주
##이건
하늘♬을
외계
대부분♬이
오피스
설문
회사♬가
해놓고
##한♬이
정통
그딴
##국♬에서
이룬
박영
##없어서
분량♬이
##소♬의
왜이리
##셨다
##TBC
##로워
##당하는
전라
가속
튀어나
치러
##의자
식물
궁금하다
##♬에서부터
보낼
##현실
찾기
인물♬이
모르지만
상관없이
골목
왤케
경주
느끼게
열린다
하신
추미애
미성
이라크
친중
소요
돈♬도
새롭
민원
공개된
한동안
아이♬들♬을
##스케
되냐
##빠진
시장♬에서
성별
주리
##대출
강연
##영♬의
신화
3개월
쩝쩝
메갈
모험
##되나
맘대로
침략
생겼다
사망자
경제♬를
준우
경찰서
시장♬을
임무
일어났
2004년
유족
##꺼야
모범
대구시
멕시코
##다는건
나가서
##놈♬들♬은
이용하는
운전자
##없는데
빠지
♬마저
상대♬가
시작된
여러가지
##기전♬에
##관계♬를
들어가서
##피탈
주었다
궁극
앞뒤
##하든
듯하다
정성
김지
맛♬이
##마음
올렸다
동해
사고♬를
좋겠습니다
티켓
##사기
어리석
##노조
기후
비중♬이
개웃
NC
부분♬에
시티
##함♬은
조장
다음날
##대문
파는
##타♬가
반려
옆♬에서
조합원
피곤
거냐
많을
입장♬에서♬는
애매
조명
##내♬가
##경북
세계♬의
냉장
인공지능
신라
##중앙
따져
종족
##보며
벌이
##근데
교육부
회사♬의
##리나
여권
창피
자까
민정
암살
##꾸로
##생활♬을
연휴
낮아
##하루
##이지요
일본♬과
작품♬은
엉망
이쁜
후진
##앞♬에서
실정
##ing
##겠지요
인사♬를
이어지는
##일본
##학♬적
거고
77
바꾼
혐의♬로
사랑해
김일성
##♬화♬는
서브
때♬에♬는
놀랍
죽이는
되어서
스트레
##데미
꼬리
시민단체
결심
##시작
대한항공
편입
귀국
##회♬의
정부♬와
전하
##대사
오만
갑작
보소
##자본
##폭력
눈♬으로
놀고
끌어내
##인게
받아들여
즐겨
##♬이란
대주
취지
힘내세요
세상♬에서
##토리
소멸
몸매
재밌는
치유
운동♬을
성공한
바깥
내용♬도
하나같이
히트
##프♬가
##환♬이
여자♬들
절실
파일
지네
40대
나♬한테
정원
기억♬을
박스
이♬들♬을
이적
싶은데
대접
아는데
살아있는
성숙
##TE
토끼
응급
##그라
##가치
스승
1화
주류
독립운동
힘입
바스코
얻고
학과
갖는
워싱턴
작가♬는
줄줄
요약
근접
택배
당하는
뭐니
명분
이정도면
반대하는
시키는
거친
친구♬들
미션
놀러
이해♬를
##자체♬가
후보♬는
살다
메리
##겠니
추경
강제♬로
##셨으면
싶습니다
수령
아침♬에
아샤
##가포르
틀림
##생산
교훈
##참♬에
연인
이쪽
67
##분♬들♬이
가공
저정도
인건
남자♬의
출석
못해서
사라지
중계
남긴
##지방
가해자
##터♬를
하느
##더러
퀄리티
##느낌
환상
국가♬를
벌어진
철회
그러자
##비율
경험♬이
포켓
##어준
커버
상향
변화♬가
살면서
보내는
##인것
##교수
상생
골드
먼지
##가운
급등
##평♬을
천연
준비♬를
아직♬까지
불♬을
98
##파크
##♬률♬은
선제
마사
##우지
김정은♬이
작업♬을
신임
로맨스
##테인먼트
걸렸
2021
##풀이
##약품
서술
총선♬에서
##정당
싱가포르
계약♬을
싶으면
바란
컨트롤
게재
엉뚱
##역시
음료
부끄러운
곤란
사고♬가
빌딩
의견♬이
시작♬으로
♬층
앞장서
성격♬이
연수
제이
않냐
패러디
깨끗한
하려
시장♬이
##가♬로
포트
##판♬이
목표♬를
코로나19
알렉
돌아다니
하여튼
##나♬를
##선♬에서
위축
이해찬
있네요
꺼져
##대♬에서
사람♬으로
찾고
##네시아
금속
성명
##놀이
##보드
##16
경제♬는
CG
내야
언론♬이
##추어
죽창
지인
##하기♬가
중국♬과
##로이드
##없으면
질문♬을
##위원장
있을지
vs
##정♬으로
본인♬은
##야구
##월드
##더라고요
붙잡
카운
생각한
끝나면
패널
미래♬가
세탁
생기는
그다지
비핵화
##빈♬이
##론♬을
구석
IB
조폭
##공화
길거리
##키는
##력♬도
전지
명작
##CC
가벼운
제공하는
1시간
##13
금강
##고♬에
거꾸로
마음대로
이병
등장한다
심상
놈♬들♬은
##즈♬는
2배
학살
##바지
##구니
감정♬이
아이♬들♬은
하나님♬의
추격
##아주
##사이트
시키고
모인
심하게
생생
서해
김용
보좌
##였음
2위
##종일
##대기
##청♬은
68
##컷♬에
납부
##14
위기♬에
방송♬을
##스♬에서
##시죠
사회♬에서
견해
플라
콜라
저작
##지상
1개
##순위
영토
공지
프린
##경쟁
조항
관세
자격♬이
움직이는
하여금
스코
정권♬은
사우
학교♬에
돌아와
김연
2002년
##나오는
##출신
##el
특화
등장한
만화♬가
정신나간
막장
페이
192
지침
74
##되냐
사장♬은
##만♬의
공기업
간♬에
욕하고
##운영
밤♬에
무엇♬이
막고
##니♬는
유전자
경호
##NA
세기
##가다
금요일
##봉사
나름♬대로
##연♬의
하거나
달린
기지
국민♬들♬에게
##인♬에
##둘러
##치료
바쁜
것♬들♬을
사면
경기♬가
즐거운
잔뜩
발목
노하
##알고
공무
##받침
철강
어머니♬가
##♬적이지
동북
컨설팅
##였으면
법칙
특별히
##편♬은
##호텔
시대♬가
100만
셋째
매니저
##중♬에♬도
앞선
##포♬를
같네
삼국
퇴출
인도네시아
말인가
간담회
##공♬이
에라이
걸릴
않았을
##왕♬의
골라
나♬랑
저자
나눔
재미있는
육군
##못해
이용자
전담
그치
별다른
##안되는
맡고
##버릴
##디언
착수
주머니
방학
아니었
과세
69
정면
##집♬에서
봉쇄
재현
##하듯
아이♬의
해줄
서명
##이후
##받지
##서♬의
##시피
##리는데
양쪽
재건축
현역
##동원
채무
유니클
희망♬을
안그
사랑♬이
##패스
실화
만나는
시중
아버지♬는
나서서
비타
확실하게
쓴다
정치♬적♬으로
##래요
##년♬에
##용차
##꺼다
살펴보
##부인
##축구
##인걸
탑승
적지
지나가는
정부♬에
국어
작가♬님♬은
##자리♬에
승객
미스터
아스
스웨
확충
♬경
강남구
말아야
선별
다닌
자료♬를
##이신
개척
납득
있었을
##아파트
내주
순식간♬에
물었다
올라오
##하더라도
아름답
들어왔
##일♬도
##줘요
코♬로♬나
클라우드
표기
##건♬이
저소득
편지
##다는걸
유혹
지역구
우리나라♬의
밴드
대개
어떨까
놀라운
경찰청
잡지
해산
거품
개연
목♬을
2007
미루
되돌
탄압
여동생
클래식
오를
##♬권♬에
일어나는
##♬대♬에
행정부
민폐
원천
누워
어딜
##터♬가
대항
AP
커지
플레이어
OOO♬들
최상
발♬을
##재♬는
권고
시스템♬을
그중
##어마
##시간♬이
징징
##양♬이
습관
포털
##해봐라
곳♬을
##상한
앉아서
##어지고
거♬는
받으면
조카
##미♬로
미리보기
가요
만화♬는
FC
가슴♬에
흥분
용산
와인
죽으면
##저나
힘♬으로
있구나
못했던
발표한
산하
250
협정
번♬도
티비
무엇인가
##하기♬를
##졌는데
자체♬는
##하자는
고딩
본격♬적인
##밀한
아나운
때문입니다
JTBC
##가기
것인데
하나♬만
##액♬을
한게
##100
##설♬을
73
거짓말♬을
사건♬의
##안타
조상
##졌다고
##연한
##대전
##우기
모래
인스타
##런스
##금리
과목
에너
##연맹
브리핑
시비
남는
물♬이
이웹툰
##들이
가이드
충분한
레전
손♬이
유가족
잠수
백만
지는
암튼
만나서
유재
있었다고
##분야
상가
상태♬가
##성♬과
늘어날
사회♬를
##♬라
포지
♬심
요구하는
개헌
##is
개인♬적인
피♬를
순수한
장면♬은
전체♬를
개돼지♬들
이용해서
##내지
심의
추방
캐릭터♬가
광장
생명♬을
##트♬에
워크
##보여
##♬화♬에
안됩니다
피♬가
열었다
보육
표절
측근
다짐
##리포
왔는데
사실♬상
##때♬가
거기♬다
안♬으로
더한
3D
##키지
##부♬에서
##교♬를
과시
화물
##주도
급속
##하고♬도
그대
국적
##양반
2003년
자세한
언제♬부터
##죄♬로
##체계
##천지
##하구
후보♬가
파고
삼성전
##트로
아리
##오빠
역대급
예뻐
신비
##드려요
키우는
전기차
방송♬에서
##마니
고스란히
##미널
바라보는
비로
지키는
지키고
##통일
하필
구름
아트
잘살
##버린다
고개
살게
라이프
순서
##id
조세
##FC
##달라는
드림
##재단
안맞
빛♬을
##어질
걸음
기다렸
주제♬로
결혼♬을
##달아
10대
가방
퇴근
모욕
불평
겨냥
##자료
들을
이낙연
거슬
제임
성립
적극♬적인
여긴
##겠군
임총
없네요
맞을
##밖♬에
##선♬으로
##시요
장수
구성원
##테고
##25
온다
부끄럽
전광
입지
울고
##골♬을
해봐라
예금
##아프
맥락
하는것
금호
초록
시장♬은
프라이
##카페
안산
위성
여파
문씨
89
으면서
읽는
다닐
세계♬적인
##스턴
문정부
행동♬이
##담♬으로
터져
거치
그쪽
수준♬을
##배♬를
##게♬도
국익
슬퍼
분산
병역
코드
##반대
클린
##인사
문가
등판
현직
면적
없는거
했지
저걸
성형
터키
기다리는
탁월
스러운
연료
난민
무작
개소
1점
##♬한테♬도
##테일
76
쌓아
최다
마이너스
소용
##기구
이집
##하자고
처음♬엔
##사리
##♬네♬들
##손♬으로
내릴
엄마♬는
##♬들♬과♬의
자칫
##각♬을
조금이라도
물건♬을
어디♬가
##운♬을
##자면
KIA
서부
##겟지
매력♬을
구원
어렵게
않아요
배웠
망할
오고
##못하는
##자원
##기♬나
##식품
중♬에서♬도
위기♬를
자부
IC
그레이
관종
##피해
##체♬는
포럼
없다면
시대♬를
대통
##일리
지났
모드
##의원♬이
브레이
##되자
속♬의
잘생긴
나불
화♬를
##걸고
여자♬의
슬슬
78
관료
등신
영화제
물♬에
면제
기온
##인척
현장♬에서
##거리고
봤을
독서
##장난
더구나
대학원
감탄
아이♬는
##재앙
재발
##부장
##♬이라도
##르르
클리
유쾌
주년
방침이다
##쇼핑
스토리♬를
내외
이제야
##줘도
학생♬들
원자력
출생
따지
어려움♬을
맙시다
단축
경기♬에서
자한당♬은
##녀♬가
##실험
엑스
호응
##ol
사립
다해
##마크
지켜보
꼼꼼
##이닝
##만♬이
##히지
인정하고
##이오
부디
여행♬을
기쁘
이마트
헤드
주재
어두운
대표팀
레알
영구
유해
##학자
전략♬을
무인
미성년
덕♬에
심심
발표했다
지지자
##걸이
##의♬로
##주얼
연기♬가
업그레이드
나타나는
나란히
차세대
사격
##17
공평
##종♬을
왜이렇게
사라져
뒷받침
안하면
지니고
떳떳
코난
##동♬의
어쩌고
막기
대미
기뻐
무선
전술
김제
같지
여섯
♬랑
농구
내밀
스튜디오
중시
몰랐다
현안
귀엽다
시간♬은
부른
♬커녕
문화재
##지않고
공개했다
자신♬도
##세여
마이클
문제점
본능
일본♬으로
가입자
얼음
고구마
자진
대구경북
납품
훈훈
땅♬을
대행
싫으면
영남
수장
중견
##는건지
비례대표
계절
제로
변태
정치♬에
간절
류현
니들
소지
이용할
기득♬권
##못하고
주장♬을
##♬용♬으로
장학금
무소
이루어진
에이스
사랑♬에
되었습니다
치우
##억원♬으로
##보소
이상♬으로
냄새♬가
젊은이
##♬자♬의
##소♬로
대깨문♬들
이참♬에
##디아
더욱이
전락
너♬를
##듣고
전체♬적♬으로
지목
##시켜서
##24
##수익
영상♬을
아닌듯
##하느라
비로소
소주
##양♬을
10억
보험료
보네
##문♬은
♬질
##냄새
짜증나
##닉스
크레
억압
##내며
##차♬에
이글
불량
##지네
일하고
보유하고
##컨대
##거죠
나리
계기♬가
박탈
이런식♬으로
주일
##기기
어린이집
그러지
침몰
맡아
발생하는
많습니다
##감♬과
##쳐먹
개통
##투자증권
경상도
원활
만약♬에
아깝다
나선다
온몸
##♬들♬보다
##il
없었고
명♬을
않다는
##입고
##권♬이
하는구나
대한민국♬에
담고
아니라면
지킬
##지수
내정
유산
전교조
페이지
트로
개♬를
알파
뭐든
미드
휴식
##♬만큼♬은
저래
아티
잘생겼
이♬로
##실♬로
가져다
수익♬을
공제
생각했는데
머리카락
##전♬부터
안타까운
왕자림
통치
##화학
하느님
땅♬에
##ac
보이는데
##하나요
##머스
##께요
어마어마
##수석
회장♬이
자신♬과
당할
김해
소름돋
##짓거리
없어도
카이
목포
고무
깡패
여기♬까지
한꺼
불쌍하다
이준
##미나
거뒀
##오프
결정♬을
이번♬에♬도
오죽
배정
버튼
##등♬이
녹음
##질러
05
참조
증여
3천
##♬든
##비리
##운다
그나저나
##기자
순이익
드물
범행
오락
복원
##중한
전♬에♬는
해당하는
준수
좌절
목요일
##었냐
둘러싸
1500
망해
##재밌
틀어
데모
일환
6000
##세한
이런게
이어진
한사람
기대하고
자빠졌네
##보인다
했더니
##언♬이
표정♬을
가족♬을
모르나
##번호
출동
기자♬가
##군♬에
무서워서
학대
##♬과♬도
문슬람
들어올
우리나라♬에
사용한
##ion
세계♬에
##뒤♬에
3차
최근♬에
로그
국가♬에서
배울
##부족
스릴러
발전♬을
웃겨
97
기금
아베♬가
일당
홍어
위탁
##가자
##한당
강해효
자한당♬이
스파이
거리♬가
##유럽
진학
조리
강세
시전
볼때♬마다
남을
##경우
##대응
##♬권♬이
주저
##같음
돌리
##라는게
죽어도
규모♬가
포착
마루
수련
##나♬도
존재한다
##전히
지난주
나고
한꺼번에
부천
##소시
MB
줄어든
평소♬에
흑인
일♬로
사랑해요
##아빠
명시
##았어
등장인물
전해졌
##기록
좋겠어요
골든
##지않은
통하여
##겠음
##라시
휘두
네덜
들어갔다
범인
인간♬들♬은
##길♬이
되돌아
##연대
##리우드
##거리며
만들어야
되도록
배급
페르
생계
국무총리
팀♬의
##애♬들♬은
건강한
이런데
드러났
폭풍
96
더더욱
간주
말♬대로
##일지
배틀
날카
베르
섬유
##♬성♬도
없으며
만나게
나옴
82
지고
서로♬를
##지상주의
볼수
##결♬을
부를
이윤
피할
모습♬에
회상
구성된
지소
배우♬들♬의
스키
##중심
피아노
##♬링
##하게♬도
커서
##보♬가
있었다는
##곳♬이
##교회
##쓴다
##기야
돼서
기술♬이
아니죠
차고
두드러
당시♬의
그림체가
사후
##파이어
수험
##청산
생성
무산
형편
##하하
##이시
##준비
경향♬이
시정
##미아
되며
맞춘
한결
놀란
자매
##안♬은
업무♬를
재미♬가
##례♬를
다시♬는
비웃
♬이란
자유롭게
언론♬에
정부♬를
##액♬은
묻고
##형♬은
중순
상한
까닭
수준이다
외교부
##싶어
##거에요
조치♬를
87
냈다
관점
이러면
법조
허무
지극
##서야
##내내
새삼
무거운
##됐고
점♬도
북한♬을
있으므로
불공
만기
만나고
손혜원
##같아
02
부도
##사♬도
##못한
썩어
##집회
풍경
입♬으로
종전
닮은
올해♬는
비정상
계란
##이야기
##트♬와
##타운
총회
놓여
##오♬가
중국♬을
독도
당원
♬산
단편
관행
##이런
육체
♬분
♬뿐♬만
##지노
어딨
몰라서
##나갈
##할려고
##하♬가
옵션
감축
하우스
3만
경유
마누라
##자동차
##빼고
##되기♬도
싶네요
부들
먹여
중재
고시
##역♬이
지우
무효
##자연
성우
긍정♬적인
쇼핑몰
사원
출장
등♬도
대략
끌어들
##ot
♬의미
피해♬가
오늘♬의
가능♬성♬도
이대
자사
좋지만
미치는
말하지
이르는
병행
정밀
##♬화하는
##스트♬를
제2♬의
##예산
아이♬들♬의
마음♬은
##꺼면
한진
있었기
텔레콤
나라냐
##나온다
##♬하고♬는
철저하게
또다른
실태
로스
좋았다
웃는
친절
프라
94
지역♬에서
불렀
적발
유효
행복하게
트럭
경찰♬에
방식♬을
느껴지는
데♬다
오지게
패스
재미♬를
캐릭터♬를
미래♬의
강도
구체♬적♬으로
스페셜
##신고
거래소
전♬까지
##드♬와
이사회
감동♬을
명문
##cm
아들♬을
기반♬으로
넥센
칼♬을
김포
##중간
내비
자기♬의
제정신
운송
나♬뿐
구해
합작
주시
날짜
통증
싶을
79
과일
했으니
10만
선수♬가
박물관
##음악
법무장관
당신♬을
달콤
##라라
찍고
차지하는
배♬를
방탄소년
면세
부정♬적인
역♬을
얻는
태도♬를
시작하는
상태다
꼰대
##하여야
오마
##니까요
##크♬는
방향♬을
측면♬에서
##언♬을
배송
개뿔
##알아
교섭
##렸고
♬짜리
스프
##사업♬을
##는거죠
유머
고구려
날뛰
86
뭐하냐
아이디
개♬나
기대할
##전화
클로
밖♬에서
##으면서♬도
보여줄
가까워
가기
완벽하게
패스트
##합니까
아랫
##겠구나
밑♬에서
##안♬의
열쇠
부탁드립니다
##PC
##저런
되자
##향♬을
##이었다고
##됐다고
나타난다
싶었다
서준
바닷
성분
##줬으면
문재인♬과
사건♬은
노벨
정신병자
출자
명목
높게
정의♬를
##롭고
댓글♬들
친한
반미
가난한
##집♬이
##고♬의
기각
기록한
마치고
어그
태권
선거법
##시♬와
그러는
그러다가
8000
메가
SM
##영웅
##할수있
비타민
지나면
기대감
♬우
즐기는
오프라인
차이♬를
음악♬을
컴백
##억원♬의
나뉘
감지
불꽃
##시리즈
커뮤니케이션
프로듀
작작
기적
역겹다
말입니다
겪고
아시안
고추
섹시
포켓몬
간섭
브로
이은
EU
거리♬를
이재용
적♬도
터진
않는다고
상공
수시로
##인지♬는
##라기
##격♬이
##놨다
던지
타당
노답
불륜
크리
고도
버릴
누군지
죽어나
진짜로
유포
생리
상대♬를
92
##테러
인생♬의
##셔널
시세
2006
현실♬은
##인생
버리는
##혼자
음모
어쩌다
어도
이뻐
신동
##충♬들
여성♬이
테이블
여자♬들♬이
우수한
가사
면허
##석♬의
내보
##셔도
##애♬는
들어오는
손석
원♬의
야마
조화
##과♬를
든든
##되었던
##크로
내용♬의
반♬대로
강사
여부♬를
1명
##코리아
올라온
##공동
응시
질서
바지
국세청
##un
했어요
개무
한지
##모양
애비
가전
소신
##편♬에서
##되니
두루
코치
##대♬와
신부
참석한
유니클로
##표♬가
93
옛날♬에
불러일으
한국어
##기네
성희
그리는
정신♬적
스크롤
##스티벌
딸♬을
상황♬은
꽤♬나
제고
을지
확률♬이
##기획
4차
2회
탄소
클리어
기록♬을
두개
물품
배우고
부른다
면♬에서
왜케
IS
할말
다이어트
##무역
##조♬로
##널리스트
더듬
쳐먹
부수
##액♬이
스타트업
아카데미
작가♬님♬의
오리지
의외♬로
##였다는
##조원
결론♬은
놈♬은
##세트
##취급
##량♬의
##거니
일으켜
##♬선
삶♬이
말하자면
##납니다
태평양
염두
발라
감방
총재
##체인
넘나
와이
열등
유망
헌신
신작
원가
요양
월세
폭로
싸우고
부정선거
비공
여왕
##밀리
무용
하향
카톡
주소
싶어요
일산
나이♬에
제휴
선포
부가
지낸
정의로운
##전환
상품♬을
장갑
어떻게든
저주
국민세
이뤄진
좋겠네요
되서
가중
학술
반란
중♬에♬는
하기♬도
첫날
내달
서로♬의
차지했다
허구
역사♬의
다수♬의
잘해
##톨릭
##묘한
##교사
힘드
모든게
한겨
랭킹
찾은
사태♬가
너희♬들
못된
형태♬의
##♬력
손상
입술
##퍼스
오세
분할
스웨덴
##채♬를
##주자
##케이
아내♬가
보고싶다
##캐피탈
##말♬에
##진흥
##업자
못하면서
요원
분야♬에서
대통령♬과
10분
생각해서
중♬의
새겨
강하
진다
역사♬에
2시간
돌아갈
만다
##지마세요
사단
##경♬의
때♬에
지위
교황
진지하게
너무나♬도
##동♬은
말♬과
##베이터
정준
행위♬를
비판♬을
후쿠시마
청장
자아냈다
시공
##♬율♬을
##받는다
고의
재고
##드릴
나왔는데
대국민
##지라
재배
##아래
##돈♬을
##ve
지지율♬이
팀♬이
##bs
##종합
얼굴♬로
관절
좌익
##아♬를
회사♬를
대단히
적정
평택
##비♬와
##처분
과잉
##이군
자식♬이
온통
애정
기성
추리
빠졌
남자♬들
분당
시점♬에서
살아온
물론이고
버렸다
반응♬이
발♬로
##하던데
10시
새누리♬당
믿어
몇십
날라
적게
##날♬이
일삼
##연재
##는구나
나지
정도다
미워
##하시길
증거♬가
지지♬를
드러난
노블
으니
해주고
190
유죄
불쾌
tvN
##값♬을
국회♬에서
83
같애
잘난
잘한다
##은행♬은
트라우
##국인
식량
##등록
##코인
해킹
무대♬를
전체♬가
전국민
##것입니다
진로
감옥♬에
##현♬의
용역
학생♬이
포함해
집♬이
미소♬를
세상♬의
즐겁게
발언♬을
각국
##농단
참여한
의미한다
##부문
맛♬을
기업♬은
보입니다
검찰♬의
##는거고
참가자
밝은
신혼
##♬권♬의
성희롱
##진한
##알바
자금♬을
죽게
수작
둘♬은
의류
잇따라
위해선
복잡한
##하드
##하는거야
달한다
파크
병원♬에
아사
야외
정우
중개
호랑이
03
이른다
적대
원유
##었으니
놀랐
소원
##식이
다같이
몰락
디자이너
로운
해야한다
소셜
대책♬을
줄일
2명
##으려면
##다음
♬들♬은
##♬자♬들
현실♬이
무뇌
트랙
야간
수요♬가
##일♬의
싶다고
식♬의
지켜야
저격
끼고
비교해
열차
레전드
물러나
임대료
사건♬에
국내♬에서
##리니
원인♬이
##을수
필요하다고
증오
몽골
도구
비♬가
##하므로
대원
살았
##포먼
##받았다
##폭탄
역사♬상
우리집
##경♬에
박근혜♬가
##엘라
음반
되지만
안겨
끌었다
교장
##것같은데
찾아볼
발광
기대된다
위주
급격히
##래기
뭐고
쌍용
관점♬에서
##통♬에
##무지
바닥♬에
공군
바뀔
남자♬를
보유한
할배
학문
특성♬상
닥터
손바닥
양도
사라졌
달라진
축적
유승민
반해
##대한민국
도배
##수저
##름♬을
어울리는
잠♬을
살아가
##90
##망♬이
##스포츠
##투리
##ay
##말♬로
바이러
고사
개시
##년♬은
정글
믿지
전염병
##밀히
신경♬을
연맹
두려움
유상
역♬으로
모여서
힘들고
선택♬을
바둑
##주♬와
##의료
##일랜드
##할게
라이트
##차게
설명♬을
반장
진행된
세련
회전
##산♬의
부양
##르♬의
외모지상주의
2억
걷어
그만하고
북한♬과
##버트
ES
경로
직장인
되는지
건국
재밌다
선보인다
스틸
구도
달하는
잠실
동서
밥♬을
양측
##이용
귀♬를
##있으니
나♬가
##적♬도
악플러
한류
타워
##어어
내렸다
정해진
소매
지워
이별
출국
해설
단장
이니
##하시면
##살아
맞는데
##이라는게
누리꾼
사찰
저♬의
선보인
##♬조차♬도
거라
우습게
상하
적혀
10♬여
이승만
##침♬을
최소한♬의
그러게
##였네
##박스
##♬이가
당내
것일
한번♬에
##방식
약화
하던데
여자친구
##나라♬가
이해하고
들어가면
##넣고
인상♬을
때문이었다
문제지
가격♬은
##이구만
##애♬를
##오지
##덩어리
##살인
이순신
뒤늦게
당뇨
##보았다
##대비
북부
##파이
돌아왔
##입국
막내
받으며
그림♬이
##레벨
그때♬는
떨어지고
까는
자신♬들♬이
##♬자♬를
##켰다
##드리고
##특별
##나올
주유
드러냈다
권위
##♬마저♬도
흡연
않습니까
당사자
말씀♬을
원조
##니당
##파♬가
대작
원리
표현♬을
철저한
않으며
견디
상승세
세계♬가
##가구
수색
##협력
들어와서
##분♬들♬은
자유당
2005
그와중♬에
##만들어
충격♬을
제천
##나니
여수
01
선행
건가요
피로
출현
건네
삼성♬이
여지
관해
진주
뜻♬이
배경♬으로
##린거
##하겠네
저번♬에
불가능한
퍼포먼
##공장
영화다
레오
관중
##하지말
봤습니다
하죠
##워드
자이
학생♬들♬은
오래된
무료♬로
로켓
용어
이사장
유인
2001년
##었기
제외하면
##리냐
들지
성폭력
실력♬을
노총
##크♬의
대표하는
##꼴통
조선시대
##상♬과
2부
것이지
모자라
수요일
최정
대한민국♬에서
9시
##다녀
사연
대지
7000
타이어
그러냐
구나
생각♬으로
기업♬을
최근♬에♬는
##않고
공헌
##거같다
연세대
카리스
중학생
산책
숨♬을
##는다는
고3
사자
안된다고
않나요
댓글♬은
냐는
교육감
기준♬이
##kg
니♬네♬가
오페
부사장
금감
닥치고
손흥
실용
어느새
댄스
##약한
지나지
화해
성취
전당
신장
##같은거
남쪽
##직자
카르
##더냐
##금♬의
결성
편♬이
선택한
안타깝다
트럼프♬가
부사
저희♬가
치료♬를
안할
친척
정세
##더라면
당했
타는
삶♬에
김병
##♬레
##방♬의
이말
##희♬의
벌인
일일이
이노
제법
늘었다
성격♬을
같다는
싶다는
배포
가족♬의
선관
좌파♬들
유감
기아차
이끌고
##릭스
##보는데
##물질
받기
##하는구나
협업
##ig
학생♬들♬의
행사♬를
느낀다
짜고
##해야할
마켓
해안
##세이
가맹
이런걸
빨라
##떨어
##조치
버닝
말해서
장미
모리
회사♬는
부담♬이
더럽
저승
이를
##포인트
##♬도안
같지만
들어간다
거북
##지나
##사용
내리는
영원한
##as
갖추고
마비
##되어서
사람♬들♬과
1분
##상승
복구
##이기에
치면
어머니♬는
잇는
08
130
본다면
언론사
약간♬의
인연
사업♬에
손목
막컷
경기장
많았
약속♬을
##래프트
##브라
마술
상사
바꿨
##받아서
플랜
사과♬를
더럽게
구사
흑자
만들면
##엔터
##마♬의
3명
##공산당
##였을
다른데
한도
제임스
협의회
사물
그정도
인테
알수
당당하게
표면
기업♬들♬이
텔레비
##od
되겠네
주인공♬의
아키
규명
##진영
윌리
자♬는
에어컨
중공업
CD
♬이하
출간
공고
바란다고
##이겠지
죄인
##키로
개조
탈원
##러니
##동물
반짝
거임
##된다면
작품♬의
실체
보인다고
함정
부담♬을
##중공업
성공했다
이인
소재♬로
##보다가
유리한
패거리
위주♬로
추구하는
교실
있잖아
전쟁♬이
준공
##기♬에♬는
메달
부끄러
포기하고
계단
국경
머무
##♬인♬들
님♬들
멈춰
유래
##다보니
##처벌
직면
바람♬이
##먹어
특집
운동♬권
실감
##리는거
시야
자식♬들
뛰어들
삶♬은
그만해라
튼튼
##편♬의
평론
글♬이
방♬에
봤어요
그래픽
수지
국가대표
폐렴
스킨
우려♬가
중공
모티브
##시키지
어우러
실제로♬는
스위스
수준♬에
언더
건들
성장♬을
게이트
대치
##ct
터지
김무
저하
외출
속도♬가
표명
7년
다루는
간단한
##베이
31일
##되네
꼽힌다
##없지
차려
우승♬을
까다
만들지
묻는
##방♬으로
짓고
##돌♬이
카드♬를
##호선
##매도
기사♬에
##조사♬를
다리♬를
##되었으며
수신
우리나라♬에서
수렴
팬티
문화♬를
##드♬에
선♬을
문구
비호
##새키
위생
북♬으로
##준다고
스토리♬는
않다고
벌어지
살면
##지니어
비슷하게
교수♬가
살피
낙태
##사카
##하더라
퍼트
음원
입대
메시지♬를
알면
죽는다
파헤
이러고
숙박
목욕
팀♬을
창립
싹다
어설
구두
##자다
달창♬들
##관♬으로
##독한
DB
석탄
##였으나
현실♬에
밥그릇
앞세워
##서울
백수
씨♬의
쯧쯧
친박
회사♬에
떨어진다
##처♬를
##mm
발암
약물
클릭
기절
스토리♬도
지도부
##23
제목♬이
생각함
저♬를
10개
악역
합성
안보고
빨갱이♬들
계승
형♬님
##셔츠
잡았다
##어머니
가라앉
하려는
##재♬로
악질
존재♬를
백악
이끄는
아랍
무난
너거
우월
보냈다
타협
##됐던
권유
단백
고마워
##NG
##리♬도
##따위
사운드
알려주
어쩜
##방법
피해자♬가
걸까
##줄아
거세
광복
미쳤다
##통합♬당
지역♬을
##린지
현상♬이
기조
베이스
09
동조
동생♬이
##파♬를
조금♬은
파탄
입력
흔한
이상♬은
차지하고
신재
##블릿
개미
##소송
파라
GM
드릴
♬요
한복
배고
4대강
##마♬는
싫어서
일기
살지
##언니
중산
초중
때로♬는
여학생
치료제
##체♬로
내뱉
07
공짜♬로
권리♬를
어머니♬의
어때
늘고
시♬는
지키기
##데요
##이치
않았는데
##수지
이십
이어서
##내♬에
정한
##당시
##된거
낯선
나타내
주무
는다고
공백
썼다
##당할
##PS
원망
사람이다
이명박근혜
진압
아군
네덜란드
##♬까지♬의
감자
이유♬도
것이라며
연동
당신♬들
잘못한
손잡고
예선
거둔
국개의원
공영
요건
횡령
##색♬으로
비용♬을
##타♬의
강릉
수혜
어긋
된장
완공
##파♬의
어쩐
##신청
##주의♬적
개개
주어진
##IC
##라스틱
좁은
십자
하늘♬이
소음
야생
##ed
참모
##트랙
잊혀
##프♬의
링크
격차
천벌
압력
훗날
했었
##해왔다
도약
##건강
다른나라
농담
##걸음
신성
우정
표정♬으로
흐름♬을
간호사
안되지
참전
시켜야
죽어라
##엔딩
시상식
##텔레
천사
문재앙♬은
##이제
사라지고
##하곤
마리아
누구♬를
현실♬적♬으로
##미디어
시가
휘둘
##십시요
포도
여론조작
##들었다
##바이트
일원
목적♬을
##종♬이
무너지
안정♬적인
문제♬의
듣기
황교활
참사
산불
비율♬이
7시
##플러스
화합
유나
구호
생기면
지극히
이러다
지금이라도
##행정
##폴리오
비추
공공기관
는다는
강점
떠오르
여우
주석
있었으면
고지
전개♬가
##말♬도
50대
주부
발효
너무너무
헷갈
대권
이용하여
기동
##일수♬도
하나인
##바뀌
그♬들♬에게
나타날
과정♬이
없애고
소설♬을
쓸데없는
봤던
박그네
파격
존재♬가
춘천
##관계♬가
대상자
다큐멘
천안함
삼각
며느
상용
##정권♬이
한가지
확립
아티스트
김경수
##속♬의
달하
##프♬는
왕♬이
싸움♬을
성적♬을
##요한
리스트
맡았다
재판부
통합♬당
##연구소
##되지만
지원하는
북쪽
없으니까
긴장감
사시
##철♬이
형♬이
자기♬를
##관♬과
후♬에♬는
지속♬적인
양육
조례
헬스
##당♬에서
##타♬는
수송
아버지♬를
##곡♬을
죽음♬의
채♬로
##디스
그만두
범죄♬를
김원
##동맹
베네수
내기
아라
사용하고
고립
제작진
듣지
얼마든지
작가♬님♬도
검찰♬에
지나친
따지면
총♬을
##준♬은
엘리트
##투♬를
지금♬이
이긴
가람♬이
##봉♬이
제도♬를
학교♬를
재학
웹툰♬에
고조
줄이고
보조금
되니
둘이
입구
가득한
단호
죽었다
운영하고
않았나
##♬더러
애널리스트
변해
2층
##도르
불편한
차분
##의사
걸맞
움직이
아니겠지
##급♬으로
석방
가격♬을
꺼져라
세우고
신사
같냐
##안보
##이한
너♬나
정치인♬들
부친
##♬에♬요
마인드
떠났
##년♬의
예언
정직
김광
의결
관련♬이
##리안
니까
체중
간판
가슴♬을
나♬와
조현
내리고
라이벌
찾아서
수아
##행사
맡겨
많다는
마포
감염증
다니고
모르겠네
이제♬부터
##열♬을
국면
둔화
노동조합
갈등♬을
위치♬를
##생♬을
동계
스카이
##판매
##배♬는
안되면
생긴다
선수♬들♬이
되니까
삼아
공정한
사용한다
오리지널
세계♬적♬으로
난이
제어
전성
코스프레
준다고
사나
결혼식
속성
줄줄이
##렸다고
유지하고
죽기
간편
##주셔서
아무렇
침대
초점♬을
답이다
상식♬적♬으로
심정
변형
미개한
뱅크
적립
싸이코
났다
밀고
##♬계♬에
맞다고
제자
구독
##시♬로
가족♬들
재해
이진
900
##교육♬을
##받아야
국채
의하여
##돼야
##마♬에
체감
멀쩡한
##시간♬을
이어졌
##여성
한국영화
##♬든지
얘기♬는
주영
상태♬를
시너지
세상♬은
행진
죄책
##정부♬의
##린♬이
##량한
문의
##가네
교복
##동강
친구♬들♬이
처벌♬을
바위
##타♬로
농가
아부
역설
누릴
염려
안양
궁금해
공연♬을
김준
모지
##차고
##청원
##막♬을
윤석렬
무더
##는지♬도
사례♬가
보석
##하겠지만
부총리
굴러
항공기
인건비
##ER
꾸며
내려오
알면서♬도
단점
포괄
들어선
##았나
하실
많다고
##im
넣은
안좋은
비틀
##주의자
고려대
소금
싸가지
판단♬을
점수♬를
안된
모든걸
것일까
##받게
선보이
##영화♬를
주둔
##♬님♬도
편지♬를
##교♬가
원고
동력
##거♬를
문재인♬을
장면♬에서
사실♬에
박성
##환♬을
정화
아무♬나
콘셉
특권
하트
아니냐는
표♬를
기준♬을
##시키면
유한
6개
##목♬이
안주
데♬는
청와대♬가
##르바
지♬들♬끼리
스테이지
지♬들♬은
빈곤
개념♬이
5분
많아요
##한텐
매치
임진
중장
국가♬에
나오네
입양
##다나
치솟
한국♬과
의혹♬이
밤♬을
실명
무언가
상당수
##하는것♬도
집합
식구
##♬님♬과
3억
선동질
다음♬은
##팀♬이
##선언
표정♬이
##리라고
양념
당기
##싫다
##♬께서♬는
스피드
##♬적이
일까
안들어
케어
여객
조연
접한
기숙
6시
부시
남양
기억♬에
스태
안티
이완
책상
아이♬들♬에게
##태♬가
사이코
토대♬로
##사한
##시장♬에서
날개
사전♬에
삼촌
수♬를
교차
종류♬의
##인권
친북
냉정
외치는
##법♬의
##였나
쓰기
않는다면
##ad
##나지
문명
가는데
##♬화하고
신흥
##타이
MS
FA
의사♬가
사태♬를
##했었다
숨겨진
포지션
##의미
당시♬에
2002
오줌
제공한다
여자애
구리
##♬즈
글고
공직자
감기
##감♬으로
CCTV
허허
나누어
##정말
현재♬까지
위대
좋습니다
모른다는
여담♬으로
하겠지
씨♬를
트레
##군♬과
할수있
##의♬의
미스
##대요
레이저
그토록
미용
우아
##인지♬도
##연구원
후기
##모토
중심♬의
점프
##해주면
오빠♬가
프랜
전신
##치네
판다
지냈
더불어민주당
##베르
##훈♬은
대사♬가
차♬가
은근히
극히
##디♬가
깨어
소속사
된다며
입♬에서
110
욕할
땜♬에
보시면
그걸로
단정
느껴진다
노력♬이
##었으며
##ow
잔잔
부유
자화
이불
모금
돈♬만
이미지♬가
양상
다이아
참신
##방향
늘어났
하려면
##산♬에
의사♬를
##IP
올라갈
장관♬이
실수♬로
은혜
여인
한계♬가
골프장
##르몬
의지♬를
##내면
각자♬의
##쳐도
불황
치열한
아래♬로
하겠다고
공간♬을
이기♬적인
없는게
##했을때
공업
감안하면
결과♬적♬으로
##♬인♬들♬이
양자
이♬로써
아닌거
기대♬가
생애
천지
망설
망하게
##일세
##있다는
##보라
말이죠
04
##당해
##을지
안한다
법♬은
사법부
##하잖아
걱정♬이
송파
##교♬의
##22
주범
휩쓸
1층
##♬성♬으로
암호
자기♬들♬이
그릴
진행할
같으면
브루
신탁
남♬을
인터뷰♬에서
##♬에다가
##간히
옹호하는
떠들어
발음
포토
초콜
너희♬들♬이
높고
전체♬의
후퇴
필요♬는
더해
여배우
행동♬은
총알
보수♬가
뷰티
06
시집
책임♬이
##본♬을
##사냥
얼굴♬은
다르지
2번♬째
맞는말
##는걸
김어준
농산물
##사람♬도
##화♬로
보컬
일정한
좌빨들
문어
자칭
그♬로
독재자
##는다면
전방
##어린
##건♬의
역사♬가
성사
##지금
않을까요
이경우
##히면
리얼미터
흐르는
##가♬도
약♬을
연쇄
두렵
당신♬들♬이
정무
해결할
##주의♬를
##영♬을
##♬권♬은
쪼개
시즌2
##bc
특성♬을
팔고
##데스
##아시아
도모
##도우
##으라
훈련♬을
대마
주식♬을
찐따
##이었으나
회사채
중국몽
어째서
##가는게
##지않나
##불가
서둘러
중점
사리
##접한
능력♬도
미국♬을
에드
##환자
##돈♬이
##모두
걸리면
비참
그랜드
만세
##건♬은
높일
그쳤
입♬이
##♬분♬들
경쟁력♬을
남자♬들♬이
사이♬가
##ch
환경♬을
바꾸고
그렇기
정책♬이
관련한
던진
있었으나
배후
비비
공존
바퀴벌레
##메이
생각♬만
우울증
소규모
##빨갱이
##수도
문재인♬의
##이란게
등교
살림
이닝
이어져
##름♬이
나노
잘못♬이
알고보니
어렸을
아직♬은
##벌이
##즈니
##쳐라
그♬보다
온도
##요웹툰
폭락
나머지♬는
무너뜨
때리고
마블
하차
##간다고
삭발
시신
##되었다고
뿌려
##마귀
뜨겁
옮기
실질♬적인
이뤄질
베어
##확실
나라♬도
피터
베댓♬에
##키♬가
6년
플라스틱
##사회♬의
개념♬을
일곱
##카♬가
부풀
그분
하든
##폭행
박형
시발
##아니다
##되었는데
##졌던
미국인
걸친
잃어버린
우익
의미♬로
포트폴리오
##대가
실리
존재하지
박찬
KBO
##♬쟁이
##하♬를
관할
스쿨
한전
##작업
목적♬이
고장
61
얘♬네
완전한
나왔던
이♬쯤되면
하루하루
그래요
확인하고
##♬부터♬가
##에스
##공무원
이빨
팔♬을
이단
무겁
생각해보면
##위원회♬는
##체♬에
위법
말하는거
##하기♬만
##♬화♬의
세일
화력
드러났다
##퍼센트
신뢰♬를
단말
##미래
줄♬을
치밀
출연한
주가♬가
재밌어요
시청♬률
페스티벌
##♬니
증대
북한♬으로
무작정
쿠베
장성
KBS2
연일
##해봐
안된다는
더러
슬로
많음
재직
소리♬는
낚시
부합
##줘야지
밝히고
고로
일베충
우호
누구♬보다
휩싸
잡아서
저소득층
##과장
언론♬의
##배♬가
파산
무의식
적시
##종♬은
플로
출처
탈퇴
지겹다
검정
##조♬에
2004
건의
태어났
##전사
좋아하고
돼요
현실♬적인
프롤
♬들어
덮어
후임
나가고
가르치
##학원
보려고
파렴
km
부드러운
119
##겁니까
원료
불거
사장♬이
관념
김정일
대고
♬란
채우
인정하는
##진보
느꼈다
퍼뜨
영국♬의
세웠
이세
부모♬의
윌리엄
##돼서
자기♬는
##타는
나와야
아나운서
자리♬가
치르
성공♬을
##투쟁
##주년
문장
1♬로
이만희
공안
보충
조율
상반
##차♬로
아니잖아
##끼고
한양
원♬으로
##피♬를
나눈
멘탈
반납
야기
늦은
지갑
평화♬를
다가오
조건♬을
엑소
191
부위
오너
개돼지♬로
도서
##틀러
참나
웃기는
##판♬에서
벌어지는
관람객
몇개
명심
유흥
연루
##스토리
쟤♬네
##대장
회사♬에서
##미사
##시나
##비♬도
있을까요
##대변
막대한
학력
조작♬질
##키고
폭등
뜻이다
영등
##신다
예민
양극
달래
##랄까
몇명
찾아온
##였어요
##5000
사생활
증가했다
아들♬은
머♬가
포스
항소
기록하며
The
박태
씁쓸
게스트
창문
##에너지
전액
##프리
공학
##는지♬는
##치한
똑같다
깜빵
정도♬를
나라♬로
잊고
##이였다
불과하다
♬만든다
데스
못차
동구
사업장
어머님
엇갈
필요♬로
소극
##설♬이
클라스
##커♬가
침입
오피스텔
곳곳♬에
##여도
복무
##용품
##철도
##시장♬의
방탄소년단
##람회
##감사
제갈
베뎃이
##역♬으로
동행
##머리♬가
##급한
적♬을
고난
빼돌
LA
##마나
못살
사인
과거♬를
##보도
단어♬를
3위
나쁘지
##청♬이
책정
음란
네이
주변♬의
##속♬을
학기
##고요
원래♬는
비서관
임종
외신
활용해
3번♬째
강동
##린다는
사촌
백인
##버스터
구조♬를
##군데
뭘까
지금껏
##겟네
꼬박
토크
##채널
LTE
페미니즘
역임
처형
노리
광우
걸려서
안동
아놔
고성
하는거지
##신도
의혹♬을
악당
진모
니♬들♬도
##석♬에
결과♬에
매월
의약품
주인♬이
보건복지
##마켓
출신♬의
변수
명복♬을
친구♬를
##것다
프레이
유사한
##♬들♬에게♬도
기업♬에
회장♬의
##씨♬와
능력♬은
##먼저
##♬자♬들♬이
모터
판매량
자란
멘토
있겠지
##나왔
대세
안무
끈다
클라
패키지
세제
카라
이데
##ns
설사
재계
##대해
않았다는
##루♬를
##기부
본인♬도
군수
취하
##중♬의
봐요
의도♬가
후계
발레
므로
복용
문득
아바
중복
작정
RD
부분♬에서
웃기네
해수
##갖고
세계관
##갔는데
신축
상인
이산
진동
죽지
고래
레스토
만나면
보전
세번♬째
무단
사고♬로
##가♬에서
반갑
##널드
##론♬이
동정
괜찮아
##♬님♬께서
아마추어
##지는게
군대♬를
##남♬이
강아
분♬은
좋으면
어처
수강
소홀
##발♬로
할일
전체♬적인
개꿀
하는가
밀어붙
##더스
함유
단절
흐르
##근무
트렌드
♬엘
##분양
돌아올
모으고
될듯
차입
사각
레스토랑
##♬꼴
##올레
기능♬이
구청장
##ir
평가♬가
갇혀
상대♬의
하겠습니다
발병
천억
안전한
##떨어진
짧게
길♬로
##함♬으로
삶은
##중♬에서
##았어요
받아들이
##놓는
##곳♬에서
나갔다
##주행
터치
남매
##되거나
이같은
해병
읽을
여자♬들♬은
했냐
프로세
발생할
##배상
##좋다
인식♬이
##운동♬을
##권력
##잡을
무대♬에
중앙일보
매진
부근
중지
오르는
떨어졌다
##호♬와
정당한
따르는
본선
청탁
곳이다
사진♬이
##줄♬은
혈압
다음♬으로
고인
교도소
화요일
5만
그리하여
봉인
공룡
수여
증인
아이러니
재산♬을
똥꼬
악용
세금♬이
스스로♬를
##민♬을
대조
시작해
장관♬은
민식이
있겠다
인생♬이
정권♬에
##초♬에
김학
언덕
##것♬으로
급락
진행되는
처음이다
막는
출연해
##기념
세균
맞음
직접♬적인
노트북
그런데♬도
부럽
##니♬를
국가♬와
##려다
참여하는
짜파
##해야♬만
정복
말레이
내려가
최우선
팬♬들♬의
안되나
##맨♬이
표지
##♬제♬를
동향
하루빨리
슈팅
절차♬를
일방♬적♬으로
시국♬에
##공부
연기♬는
엄마♬의
모두♬를
산림
메이크
토대
전시회
듭니다
처먹
버닝썬
아도
140
종식
살♬이
쫓겨
톡톡
목록
책♬은
##새기
##했다며
꼬라
안지
보이며
터트
준비하고
무기♬를
##크라
갤러리
남기고
##가♬와
##학습
사업♬이
기습
되었는데
예산♬을
이겼
전도
##백화점
당연한거
##♬적이며
##지않는
##투성
1인♬당
##수♬밖에
이루어지
가톨릭
##란♬이
##잔아
감면
리듬
아르바이트
하겠다는
희망♬이
##간♬을
피의자
##졌을
도우
진태
##아내
망신
이래도
노숙
소폭
##었으나
서민♬들
걸레
##채♬로
서울♬에
고려해
##잖어
71
돌아왔다
암시
몸♬으로
인구♬가
보살
맞물
사랑♬은
##할머니
##역사
음주운전
##리한
선거♬에
사주
안죽
##해양
##지며
살아갈
크로스
꼼수
수당
##줄♬을
실효
##오♬는
##중국
알면서
않는데
외무
중화
##니스트
광범
지식♬을
독자♬들♬이
BM
##하는가
토론회
처방
##개♬는
##대신
않았다고
종업
병맛
자식♬을
마냥
잉글
유권자
답♬을
이현
실은
인테리어
##퇴근
진흥
사도
##소녀
기회♬에
내각
오스트
미투
기차
이치
끼워
쓸모
##올려
말이지
퍼져
##과♬의
##체제
바라보고
애써
사라질
##눈♬에
아랑
##셨어요
것이란
보임
아쉬움
보이지만
##FA
##졌다는
학자
##♬율♬은
수성
##계층
김희
인내
##같네
##♬감♬을
했어
갔는데
오라
전문가♬들♬은
백두
##코♬가
취직
##♬한텐
##게이트
언급한
미련
구할
##였으며
##등등
the
서준♬이
먹지
##라이언
보신
##만든
해외여행
풍부한
사람이라면
가능♬성♬은
감찰
사정♬이
배우는
##지인
퀘스트
목소리♬로
많지만
아니니
사흘
##쳐야
저능
##마스크
됐다고
메세
##셔요
##하우스
##유예
가리지
하시고
대공
##팀♬은
##하느냐
운항
각각♬의
니♬는
대부분♬은
벤츠
이었다
생각하게
##스타일
아미
반사
##간첩
사막
우스
가지는
새끼♬가
관계없이
장인
육박
커질
##히게
실력♬이
토로
써라
일주일♬에
처한
때문이라고
대통령♬도
열매
노골
장제
너무♬도
선생♬님♬이
줄기
##되네요
솔까
일♬만
찍소리
시민♬들♬이
작품♬에
천국
##보러
무시하는
##패♬로
엉뚱한
사람♬한테
잘한
큰소리
보태
아메리카
이거♬는
##그마
##끄러
전격
연구♬를
살아서
직권
배우♬가
증정
조국♬의
##투기
신생
##치며
지요
신천지♬가
빠질
비열
이런건
키우고
재미없
##OS
리플
돌아서
누르면
묶어
##오스
##티나
사우디
이루고
짝사랑
만성
아녀
등산
관심♬도
이름♬도
랜드
사람♬만
##번♬에
발전소
뻔뻔한
삭감
이후♬에♬는
##보증
##지대
아이언
버디
지방선거
##엔터테인먼트
해봐
사대
8시
DNA
차트
쥐어
트랜
누군가♬가
##확인
없어져야
##♬들♬과♬는
유투
근본♬적인
##거품
취미
낭만
오페라
##♬들♬처럼
말하며
인하여
사용해
쌓여
##로♬로
습격
당시♬에♬는
##만원♬씩
늑대
활약♬을
##좌빨
그놈♬의
최후♬의
말아먹
증폭
♬끼리
##DP
지분♬을
##선♬과
키운
양식
여주인
낙하
리버
어리석은
##지않아
레이스
저럴
##아니면
것이기
개같은
다시한번
1학년
주차장
이고
하다니
##리케이션
대면
##출산
의미♬에서
임차
체육관
##차이즈
소대가리
발간
차♬에
했나
상주
##진♬과
바뀌었다
모의
##지는데
##오르
수목
뭐하러
쓰여
할거
가졌다
소상공
안되는데
아이스
가죽
아산
##태♬를
강력하게
요소♬가
##♬들♬까지
노동당
아일랜드
접목
개인♬이
내보내
넘은
조조
##오오
비중♬을
부르고
다른사람
숨기고
이언
시작해서
##부들
영등포
스폰
1999년
2030
상금
아그
적♬은
보고♬도
이룰
비용♬이
사람♬에
전월
모양새
##루♬가
카타
##서♬도
##200
of
키울
##질♬의
##이♬한테
우리나라♬도
부회
샤워
아마존
호기심
##여러
죽어서
버릇
##어버리고
저런거
안남
빛♬이
##판♬으로
현장♬에
♬이벤
##즈♬아
##년♬도
##안♬에서
엘리베이터
까고
초콜릿
유세
개장
US
접어들
##있었다
화염
지금♬처럼
##계♬의
##방울
마왕
되풀이
알아보
재원
인쇄
##지주
한자
##숙한
##토♬를
한건
마당♬에
##등♬의
바꾸는
더니
침투
태블릿
##자산운용
걸러
우리국민
얼어
보던
크림
##것이고
통산
없죠
##터♬는
선보일
##련♬의
160
장모
##지않게
이메
분야♬의
##오♬를
노는
벗겨
일이었다
음식점
조속
넘치
아니네
원피스
도시락
없잖아
##야마
수차례
여기♬가
협동
나서는
고리
##48
현실♬에서
3회
만든다
##nd
낸다
간혹
오랜만
해골
##을거
##닫고
지소미아
##값♬이
폭동
어짜
끄덕
동급
되었다고
##할텐데
무엇♬보다♬도
##초♬를
시리즈♬의
##코♬의
지상파
장례식
SP
그립
##토♬가
정보♬가
못보
다시금
베를
##하늘
눈동
##두면
##수호
김영삼
##정책♬을
권력♬의
차이♬는
예매
만주
스캔
##망신
걸리는
이후♬에♬도
청사
탄력
##키스탄
나오게
노잼
강호
##르♬가
##♬화한
선거♬에서
가람
어쩌구
이집트
누가봐도
합리♬적인
정시
말♬로♬만
기운
전진
파생
추첨
##입장
행복♬을
##로움
더욱더
살던
뻔히
됐으며
시리아
딱딱
법♬적♬으로
##보복
20♬여
낫지
대여
부류
안하냐
경영자
열풍
ST
거칠
정교
##유공자
##싫어
개신
수확
편한
이후♬의
비겁
##꼴♬이
약점
영향력
순천
개그맨
원인♬을
단체♬로
##하였으며
한번♬씩
일러스트
시절♬에
모르냐
붙은
신선한
입수
담당자
춤♬을
제대로된
그녀♬에게
모르면
DJ
##평화
쳐맞
받아들일
장담
자기♬네
와우
형석
모아서
외♬에♬는
##나와서
##자라
볼넷
할리우드
##면♬에서
##민♬당
3주
검찰♬을
1997년
결정♬적인
여자♬도
돌고
우회
신약
##해준다
김승
유니폼
속도♬를
##색♬의
걸림
##담당
##오♬의
##영화제
마쳤
나는
표현♬이
상기
맛있는
미뤄
저기♬서
##중이다
##시대♬에
모니터링
##중독
검사♬를
전경
##MC
동아시아
##리포니아
비트코인
##♬행
발탁
막강
선보였다
마당
안성
진행하고
따위
이해하기
##♬치고
역겹
광명
##수산
여럿
예컨대
필요할
화상
억울한
동지
득표
이전♬의
비아
훔쳐
관리♬를
해♬가
똑똑한
방식♬이
##새끼♬가
좃선
주장♬이
댓글♬로
##나♬서
배댓♬이
무사히
##멘트
비판하는
집어넣
내장
정도였다
타락
달달
쓰게
##코♬는
내놓은
##액♬의
##되던
과도한
##순♬이
##형♬의
##올로
키♬가
##는대
없었는데
##무라
##시장♬에
삼성♬은
주위♬에
현명
어떻게♬든
강대
싸게
1998년
같은데요
할려고
##분별
내용♬에
지붕
추신
##정상
미미
기다릴
이원
지킨
나오기
##구려
여사
##투어
##반♬이
##니♬의
속한
일자리♬를
얻기
커지고
전부다
만들어낸
계정
SS
여지♬가
사는데
##유지
##중♬이
세미나
뚱뚱
숨기
##나봐
##♬나마
말라는
공방
동굴
##르♬는
환경부
막판
##기금
OE
모름
같으니
못함
남용
앞♬으로♬는
간신히
얘♬들♬아
##♬들♬끼리
##조트
##로♬에
##26
실패한
있잖아요
최대♬의
지성
생각없이
총기
안해도
소독
레인
친구♬는
유령
미흡
전산
91
경제학
않은데
채소
같기♬도
토마
통장
불♬이
돌이
LH
지령
그림자
청렴
곁♬에
증진
강력히
##린♬은
왔습니다
약국
나루
가족♬과
부분♬도
##능력♬이
불만♬을
사무총장
권력♬에
강렬한
비교하면
역시나
##쓰면
승용차
공화국
##♬경
개혁♬을
##길♬에
##평균
이화
근처♬에
파기
부모♬님♬이
버텨
독자♬들
한계♬를
쥐고
##정권♬은
사랑♬과
##주의♬의
##론♬은
식민
빼면
##것♬에
아요
있어라
박수♬를
##OC
남♬이
부재
분담
양심♬이
탈탈
##겠고
##28
##류♬를
살릴
비춰
##넘어
찢어
지대
손석희
##버리면
##하노
진도
은폐
쪽♬이
코로나♬로
열려
지금♬부터
러닝
안드로이드
천주
쿠팡
쿠데
##us
캘리포니아
9000
##수당
보강
##반♬을
##다며
넘어갈
비닐
적당한
할말♬이
원♬에
누르고
떠날
스토어
나옵니다
##35
##군다나
전송
뭐하나
당하
세력♬이
##그려
목♬에
##하는걸
차장
되었을
심해
배우♬들
##계열
##스피
##ag
중년
자격증
##비한
##느냐고
##체험
하고싶
##져도
##또한
안락
##코드
주목♬을
대입
불사
면담
살펴보면
베네수엘라
##이해
##명♬과
2학년
한국은행
용병
냉장고
대중교통
##판♬은
딸♬은
안먹
##키♬의
##격리
이듬
##순환
타율
게임♬이
깊게
박진
했네
장교
상관없
해임
산♬으로
##혹한
차리
##잡는
훌쩍
상세
빕니다
명확히
신한은행
##DI
##ut
공격력
추이
들었
김주
##청구
손톱
나랏
##메이크
##op
예♬로
##도전
갖췄
도데
눈앞♬에
때리
역겨운
쉽다
죄송합니다
로그인
일제히
불신
##미♬와
모습이다
노하우
일본군
##파티
터널
찾지
데♬서
프랜차이즈
생기고
돈주고
다채
맞습니다
일간
드립니다
##남도
##시위
맞네
12시
건수
악♬의
##파악
열릴
##도는
##변♬을
생각좀
파면
없도록
작품이다
심어
편히
법♬의
수염
##자치단체
방한
벌이고
얻었다
점♬에
주한미
형평
중부
새키
있으면서
엉덩이
좋다는
높이는
기업인
유타
센스
##뉴얼
별거
농사
그땐
관통
끔찍한
##다닌
버그
대상♬을
박주
손쉽
이영화
소집
간단히
시사회
##족♬을
##일베
폐업
족속
##일텐데
하더라
귀엽고
##결정
시간♬과
줄서
갔다가
##국적
등이다
한방♬에
##절로
맞으면
##고사
좋음
알레
일종
##문서
##셨네
분명한
2003
쉬고
부산시
내년♬에
##♬들♬만♬의
오십
##기♬보다♬는
##카♬의
영감
아테
행동♬에
각기
마니
4번
##분열
낳은
♬에이
묵묵
증거♬를
하지않
##왔고
소문♬이
들으면
세입
선택할
##무슨
보는게
말레이시아
##억원♬에
두근
이례
아쉽다
하라는
##모로
도요
##걸리
분배
위치♬에
분해
##♬와♬도
꼬집
1분기
##같으면
드러냈
장병
꼬마
실수♬를
국고
##27
처단
할듯
이랬
##간다는
쓰이는
웃으며
##테이너
있기♬에
##매국
##범♬이
작품♬으로
있는건
SF
젠장
베뎃님
100년
다시는
##쳐먹고
헬조선
선동♬질
추진하고
기둥
##상관
시작할
사랑합니다
디즈니
세븐
##일때
근거♬로
##♬만해도
##요금
##되었다는
알리는
##보♬는
우대
##집행
##버드
##사람♬을
근원
발상
##좋게
오글
##치♬와
당당히
##롭지
##45
있어서♬는
말♬까지
후♬에♬도
찔러
책임자
문♬이
군부
잡으면
##함께
바뀌면
뭐임
이듬해
##위♬에서
호수
학회
세금♬은
##돌이
어짜피
유미
조센
보시
멍멍
북측
고민♬을
상정
알기
심각하게
있거나
유난
##한거야
역사♬는
##광고
비해서
시크
무방
가능할
두뇌
밥먹
1호
썸♬네
3학년
하러
현정부
반격
##구장
할머니♬가
맞는거
낳고
##소연
후보♬로
호감
그다음♬에
사건♬으로
획기
있는것
한해
가관
없다며
손꼽
##실장
빛나는
할것
부착
두들
분노♬를
아르헨
##lose
착공
수많
브라운
약자
##xx
활용할
벗어난
개발한
##업뎃
왕♬의
사람인데
사는게
속도♬로
늘어나고
하청
야이
##려니
장♬을
치워
줄거리
##미술
벽♬에
서울♬에서
##텔레콤
달리는
해보고
##방♬은
##리라는
일상생활
꾸미
##카♬를
국민♬과
전차
주작
시원하게
##모♬는
고객♬의
차가운
한발
터질
매출♬이
##포트
언론♬은
형석♬이
진행된다
사료
일개
##베스트
탈원전
아이콘
좋네요
원화
##스틴
민경
##저축
베댓♬들
노르
주권
24시간
##건♬으로
굶어
기술력
##두리
흥미진
얻게
생김
에너지♬를
제네
정동
남다른
있다니
제공하고
잠정
김형
차질
태워
##그렇
됐고
답했다
앞당
##됐다는
왜냐면
부들부들
현장♬을
대가리♬가
상자
##협의회
청정
전임
밝혀진
##인해
생각하니
일할
두꺼
♬꼴
##TS
남겼
멋대로
되길
주제♬를
베댓♬은
##했었는데
나경원♬이
였다
오징
##게이
벌써♬부터
인천시
밀리
찍는
잔인한
##있는지
벗고
소나
우즈
##♬들♬로부터
##고있네
한번♬만
##♬상♬에서
찾았다
그곳♬에서
꼴♬이
##줄♬이
잇따
더럽고
##MA
반면♬에
양호
##란♬을
소감♬을
##왕♬은
올리면
겁니까
하이브리
짓는
해외♬로
김혜
##시원
##심♬은
집♬은
김선
경우♬에♬도
부부♬가
않았습니다
구걸
몇백
표창장
단백질
펑펑
초보
품고
##수입
해결책
1대
##잇는
시술
##유♬를
취한
색다른
변함
아니더라도
겸손
안한
명성
##편♬으로
##급식
지역♬은
혹시나
경우♬를
용품
헬기
##고등학교
진짜♬로
아이스크
보는거
##슈타
수직
일♬들♬이
##경기♬에서
한걸
다음달
인질
##했더니
올라가는
지나치
민낯
close
##냐는
착취
국내♬에
인맥
미국♬으로
활용한
더군다나
뒤통수
정치♬는
##21
영화입니다
##족♬의
지면
##산♬은
##셨는데
##치킨
주역
##서치
##자찬
의식♬을
꿈꾸는
도데체
책임지
숟가락
81
보도했다
뒤지
바♬가
고객♬이
##한거다
##일수록
분야♬에
대주주
차명
##한가
##임♬은
일본어
이르기♬까지
시바
최하
##플러
종일
나눌
##억달러
궁금해서
영향♬이
끝♬으로
##매김
대수
마나
민족♬의
구하기
성경
연기♬도
구워
스미
##터♬의
대금
낮춰
창고
##있는게
FI
한라
##말라
관계♬에
정신차려라
사탕
장려
조선♬의
##볼까
##하다면
주방
끝♬을
겪는
구출
##르며
##테랑
되기♬도
오르고
일부♬를
##사상
##말아
수년
♬의무
컨텐츠
##친구♬가
어쩐지
장벽
##실♬의
##비디오
기다려야
초기♬에
갓오
이석
길♬에
저절로
비올레
##그렇게
##그룹♬은
동결
마스크♬를
이어졌다
먹고살
주된
내놓고
##절♬을
##시장♬이
수감
잡기
##던거
연다
박지원
##스틱
편향
규모♬는
##저래
인과
##발표
너머
노랑
거점
휘말
자리매김
경쟁♬을
##우며
복사
그러던
가령
국민은행
직원♬이
귀한
가지게
##주었다
##였지
건강♬을
얘기다
경찰관
이리저리
남자♬들♬은
##비드
박상
겪은
##등한
메모리
각본
실점
##어울
특이한
무책임
kt
좋아할
깨알
종로구
최우수
선조
보기♬엔
애♬는
고아
강정
언젠가♬는
후보♬를
##플렉
전철
주전
사업♬은
##이었을
국정농단
도덕♬적
피자
지검
정체♬를
##통제
매력♬적인
안전♬을
민간인
있듯이
갈등♬이
넘어가는
대두
##피♬가
노력하는
자♬들♬이
중국♬으로
리스
자랑하는
분신
도깨
HP
백악관
50년
맞지만
그려졌다
이♬가
이외♬에♬도
외화
역량♬을
##종교
거라는
국회의원♬이
스티븐
##♬질♬을
##능력♬을
##주신
가담
스윙
2인
했다면
얘♬는
##져요
나가면
있느냐
조짐
##이란걸
무개념
증세
내놔
불참
웃기고
이곳♬에
발의
##외교
##♬들♬에겐
##린♬의
비주얼
##공화국
##어내
살인마
##99
맡기
면세점
의상
넉넉
명령♬을
유희
수술♬을
##하자마자
이렇게♬까지
응용
법♬으로
요구♬를
문재인대통령
화살
바이든
소득세
여론♬이
안아
시간♬의
좌표
##전♬과
느껴지
화제♬를
차익
머저리
없구나
마음껏
한겨레
뜨고
신용카드
중2
결단
상권
##나나
열렸
초점
타이거
모른다고
적♬의
면상
##차이
청와대♬는
열면
벌이는
사용하지
된거
진리
##부턴
전범
재개발
##달고
정상회담
가져야
특징이다
다문화
쌍둥이
고요
웃을
합리♬적
광고♬를
이어진다
##환♬은
##하는거냐
생략
필요♬도
바꿔야
♬님♬이
넘어선
현상♬을
불확실
되겠다
의자
LED
저렴한
그리워
추산
추출
##이었다는
올라와
##라이더
비평
우는
출퇴근
문화♬적
즐거움
모르지
##유치
도와주는
##팔아
아까운
##재인
영화관
##레나
한두번
♬시
##걱정
똑같네
대동
##집♬은
##졌으면
##쓰기
##♬님♬께
##물어
제보
정경♬심
##더라고
취해
##♬하♬에
##족♬이
학업
##위해서
싶네
뱀파이어
##♬인♬들♬은
그라
유능
##아는
##간♬이
오프닝
2루
로맨틱
##행동
해먹
깨어나
설명이다
돈♬에
박용
벤치
4천
##덕♬에
##역♬에
하나요
##법♬과
내세워
나누는
인문
##급♬의
김명
동아리
##들게
심장♬이
어렵고
자유로운
요한
이름♬의
##급♬이
주워
##한듯
식사♬를
자화자찬
##OP
##반♬에
##견♬을
##기인
들어왔다
실사
사소한
##자라고
##이♬에게
##북도
종결
##벤처
신곡
모르겠는데
사악한
주경♬이
용감
♬자한당
뚫고
##인원
어디갔
놓인
##았음
앨리스
소식♬이
문제♬도
별도♬로
몰두
간절히
잉글랜드
##배♬로
겪어
참석해
3인
삼십
일본♬도
핵무기
##복♬이
돌연
팍팍
동방
텍사
방패
여러분♬은
##코올
다큐멘터리
##완전
##치면서
일가
오렌
쳐들어
극한
짓밟
노려
##맞은
##대지
둘♬의
업적
그제
채팅
한표
쉬는
조아
##인터
오디션
병원♬에서
누구♬는
##파♬는
견인
펼쳤
##링♬을
이럴때
금강산
낙찰
떠나는
환자♬가
##제발
생선
재밌는데
가져가
싸운
##역♬에서
##병♬으로
단어♬가
비결
후유
역할♬이
기증
주입
보여주기
강성
김무성
##되요
네이버♬에
##이냐고
속속
##묘하게
밀집
##령♬의
주신
##슨♬은
발주
##재♬의
폴리
뒤♬에♬는
속상
메디
##나오면
모두♬에게
15년
##이길
0♬으로
100만원
성공♬적♬으로
힘입어
싶었던
있는데요
깔려
아껴
영향력♬을
바뀌는
유공
##잖은
어그♬로
♬레
##바꾸
##추진
전해졌다
좀처럼
개인♬적
입장♬에선
통행
탄탄한
##카♬는
만났다
해온
##되었을
자기♬도
때문인지
관계♬는
욕구
우상
한중
##변호
여기♬에서
##플레이션
원인♬은
몹시
##일까요
망쳐
폐기물
진행하는
있는거지
한시
##속♬이
하루종일
환호
추잡
해리
##쪽♬에서
절약
##인지라
그런게
이뤘
##병♬에
교양
##팩트
벌여
##중인데
적폐청산
섹스
보여줬
혈세
미처
달라질
안함
확고
시카
엄중
도민
##셀러
이걸로
알겠다
필드
체력♬이
죽을때
##박이
##랍시고
##들면
문죄앙
##ur
담배♬를
반환
유진
강철
폭넓
풀려
실전
어릴때
이뤄지지
해본
황당
##의♬는
흔적
설탕
과정♬에
절친
텍스트
도출
사명
##처먹
##욱♬이
불필요
##페이
럭키
인터뷰♬를
욕설
나타내는
이색
피눈
##그럼
캡쳐
마산
##문제♬를
생각하며
순간♬에
##되는게
병력
면♬이
탐구
간다고
묻자
##함♬의
판결♬을
방송♬에
##자격
##타워
♬도내
중증
돌아오는
인명
유언
재미♬도
외곽
힘든데
용납
##거렸다
김구
##하겠냐
CP
행성
St
엔지니어
##됐지만
일등
지칭
묻어
##됐는데
리메이크
움직일
##정지
##안해
마늘
송도
##학과
내려와
생각하는데
##이었으면
직접♬적♬으로
두는
높이고
막아야
팬♬들♬이
##막고
CN
밤새
이기고
##심♬으로
나비
표현하는
길고
이면
설명♬이
시켜라
바람♬을
타격♬을
##있지만
자동♬으로
치즈
검거
소재♬를
안그래도
녹화
##작♬이
구린
주민♬들♬이
군대♬가
결론♬을
가지가지
봐야지
이루는
이광
프로모
상태♬에
인디
남♬에게
남자친구
진행한다
##놓을
이사람
##DB
##하는거다
이어지고
폭주
쪽♬에
관계♬로
멜로
귀♬에
백제
진실♬이
##개입
산정
등극
영세
##테니까
##용♬을
행운
국가♬는
너희♬가
불태
##올린
베테랑
똘똘
회색
##주의♬에
못지
지지층
복제
##재미
애인
##롭다
##감치
습득
통째
증가한
맞아요
화보
이것저
지저
##기게
입단
재밌고
##재료
대성
##적으로
색히
##듭니다
지긋
정치♬가
새벽♬에
남편♬은
##태♬는
뽑는
학교♬가
##싶은데
시스템♬이
영화♬도
##해봐야
위험♬을
##써서
화제♬가
호르몬
##29
잡힌
쏟아져
전♬의
그네
숨진
##전♬까지
##봅시다
손자
##♬화♬와
##조각
변화♬에
다죽
남았다
역적
이와중♬에
돌봄
불명
기업♬들
그다음
로버트
당했다
보람
쿠폰
2시
해준다
##하듯이
유지하는
됐는데
게시판
알겠는데
설명할
인스타그램
웃으면서
여성♬을
##겨운
벌♬을
##허가
뉴스♬를
깨진
김윤
메일
티셔츠
행동♬으로
못생긴
모르겠고
조직♬의
전반♬적♬으로
##인한
##빠리
미국♬도
##TO
강구
##축제
##바퀴
군데
혼합
폭격
했다가
익숙한
단원
사교육
꿈♬이
##소수
##웠는데
신년
##행위♬를
찌라시
##문♬으로
만원
부정♬적
비자
##과정♬을
미얀
두기
똥♬을
메모
카리스마
교정
구로
히틀러
장마
필요하다는
형상
##0년♬대
외식
책♬이
지었다
장자연
##하단
표현♬의
기세
라인업
필름
몇달
자처
답답한
명백한
다툼
게임♬의
여성부
이력
입소
##학기
##우♬와
일선
정체♬가
베♬도
가산
##만하면
정의♬가
##년♬들
발명
믿는다
취하고
##♬랑♬은
체질
##드백
팀♬은
볼때
##있었는데
남지
원본
##네트
상원
##놓았다
##청♬에
악몽
돌아가신
국회♬에
때♬보다
반기
버는
스트라이
대갈
머리♬는
##질랜드
학생♬들♬을
모습♬과
조원
간지
신세
기껏
글자
여러모로
삼고
설령
##라♬와
밑♬으로
하도록
말아라
##없게
##화♬와
##대원
책임♬은
끝났다
##는지♬를
##해보면
느끼지
인신
말했
성찰
##오리
보았
##의식♬을
일회
영화라고
교원
소아
위상
##연기
##00만원
##면적
##급♬을
##지자
좋아한다
평상
비슷하다
##시장♬을
망치
상해
깨닫게
이데올로
조별
표현한
##방지
기존♬에
싫다고
고고
소리하고
다하고
저러고
극대♬화
##가량
호칭
##신도시
담임
한개
##다♬는
잘했다
##였다면
임영웅
내용♬으로
일명
얼굴♬도
##빈♬은
위태
모습♬도
장기간
##정권♬의
공♬적
단연
압축
진전
자택
무능력
다각
##란한
애완
의지♬가
안방
##대결
하나다
사라졌다
오사카
5억
올리지
코트
윤지
170
모았다
##아버지
재밌어
돕는
영주
자막
1년♬에
대인
월화
말씀드
소망
본다고
고치
길러
##단♬으로
북한♬에서
후예
##진이
실컷
##점♬의
추후
우왕
##줍니다
대사♬를
##주인공
알겠지만
♬보단
재인
정치♬적인
기호
##면♬이
##보유
잘보고
##IS
저질렀
불가능하다
민주주의♬를
퇴임
찍을
예고편
아픔♬을
##찌감치
계획♬이
주♬의
다리♬가
##가는거
생각해요
다를게
벗어날
합니까
도널드
너희♬들♬은
국군
압수
무리♬가
이새끼
##수아
K리그
프로야구
짜파구리
##페이스
망한다
생각했던
하이브리드
##하구나
##부러
수업♬을
사들
교역
테니
공소
박종
크지
클레
산소
인체
왼손
약세
##박♬이
프롤로그
방구석
푸드
속♬을
빠는
용기♬를
##랑♬이
해진
시작된다
작년♬에
기피
거래량
실버
자신♬만♬의
부정부
경기♬에
불공정
이♬들♬에게
정책♬에
똥싸
마르크
탱크
##될듯
모기
문화♬가
황교안♬이
법치
들어야
청와대♬에
##디움
공조
규탄
안좋아
조약
##♬적이라고
단합
##세끼
3분기
미리보
자유대한민국
이것♬들♬은
자립
베를린
등장했다
사라지는
##참여
웃었다
초코
삼진
삼성물
기정♬이
범법
초창
##령♬은
##것같아요
싸지
죽어야
##다녔
장거리
##다닐
##우주
만들려고
아버님
디젤
##♬적♬으로♬도
##수술
추운
막대
번지
배부
##자♬들♬에게
드론
마른
이것저것
생겨서
시간♬도
##글♬을
이뤄졌
반가
##♬자♬들♬은
##들어서
미치지
김문
##오게
##해달라고
조립
무수
##♬으로서♬는
외국어
♬도전
곱게
사직
##곳♬은
##발♬의
##위원회♬가
8년
##배댓
##디♬는
소방관
살자
##강♬을
제시한
육상
##했을까
OST
시켜서
21세기
지친
동원♬이
위험♬이
남편♬의
##댕이
허브
##혁♬이
##후♬의
안♬의
댓글조작
사탄
전통♬적인
ET
열광
어깨♬를
줄곧
양민지
우리나라♬를
조직♬을
##84
번♬씩
##맙시다
##주니
##물♬과
##류♬가
유성
만만치
헤지
눈감
염병
적절히
##아트
편♬을
AB
활짝
넘긴
실존
정형
탈당
전광훈
경쟁♬이
원격
##랭크
삽입
생각난다
생각해도
같은거
자까♬님
희귀
준다는
청와대♬에서
##마다
##과정♬에서
나타나고
따돌
현기
정계
##ent
어른♬이
날카로운
코인
집행유예
공식♬적♬으로
장난감
그곳♬에
드문
##바이러스
뉴질랜드
##ver
아래♬에
이해하는
##♬뿐이다
##광역시
♬의지
적합한
##다르
화웨이
나발
속♬에서♬도
접어
해졌
계곡
수두
캠퍼스
구역♬질
##최고
아내♬의
민주당♬과
##등♬에
##공감
##자리♬를
##생♬이
고르
노동부
시험♬을
보나
##주의♬가
일어나고
마운드
중기
몸♬은
사다
그해
써도
노래♬가
깔아
스물
마법사
##렬한
시한
환장
성적♬이
알코올
했음
준비♬가
방송사
사양
장래
##긴한데
나♬뿐인가
625
도중♬에
대학♬에
♬이해
건설사
소름끼
류현진
예능프로그램
나중♬에♬는
맛있
민주당♬의
##다니고
여유♬가
못한다는
척추
소득주도
전설♬의
##심♬에
눈깔
♬적폐
특정한
##공주
플레이오프
수위
호평
딸기
##아파
20분
앤드
칼♬로
내버려
휴게
차원♬의
핵실험
##날♬을
애플리케이션
고맙다
진지한
바짝
실질♬적♬으로
드라이브
부럽다
선물♬을
실려
눈높
일조
동경
매력♬이
##후♬가
##33
빠지는
동포
검열
성질
돌리고
파악하고
꿀잼
우물
지식인
단단히
캐릭터♬의
쟁점
항공사
따지고
웃음♬이
볼수있
없었을
##규제
##♬자♬로
안간다
한국전
##그룹♬의
##셨습니다
LCD
이런저런
세요
규모♬로
바뀌고
##EC
##키퍼
##부담
##소시엄
애♬들♬도
이해안
부모♬는
노리는
미래♬는
전인
##셨네요
##이라고♬는
가늠
손잡
등록금
알아라
공세
사외
효과♬는
베이비
번♬의
시트
입체
폭스
배트
사이♬로
필연
되도
일으킬
통일부
##겠느냐
얘기하는
##였구나
스티브
##♬에대한
첫사랑
주름
압도♬적인
목♬이
어필
##줄♬도
위원장♬은
씨앗
가족♬들♬이
체인
##탄핵
법인세
마찰
불만♬이
잠♬이
##파괴
학창
모았
대명
상품권
서면
도끼
##찍고
##새♬가
보답
##학♬이
머니
새끼♬들♬이
자세♬를
##곳♬을
짝♬이
늘어나는
아름다움
캠핑
반찬
앉은
옆집
SU
소울
♬별♬로
낙동강
##거워
차♬로
상♬을
##질환
염두♬에
##교♬는
진행되고
학생♬들♬에게
##유♬가
주축
목적♬은
현실♬의
글씨
##상♬에서
##명♬도
딜러
모호
지켜보고
##센터♬에서
##선택
니콜
##구성
##셨나
인식♬을
처참
디테일
잘해서
조국♬과
결국♬엔
자연♬의
##정도♬는
##견♬이
김제동
기안
메이크업
##분석
민주노총
자체♬의
개구리
##오늘
##몬드
빠뜨
손해배상
거래♬를
드러나는
파이팅
호러
줄었다
##넘들
##싶어서
수상한
앞♬을
눈♬은
대부
♬마냥
마신
배분
없으면서
저런게
##작♬으로
인물♬로
손흥민
##내♬에서
오일
사제
재정부
분단
당신♬도
##철♬은
생겼네
보물
내신
전쟁♬의
##업무
##하셨습니다
##인트♬를
펼칠
경제성장
##어버린
당근
##해져서
겹쳐
서정
와이프
관장
데♬에
허나
혐의♬를
HD
인정하지
피어
미술관
유의
##총♬을
##임♬에
미혼
서초구
이기는
마녀사냥
방통
##두는
않은가
분♬들♬도
프리미어
정년
불안한
그만좀
##가르
체류
가격♬에
변호인
등락
##회계
GDP
OECD
##00원
다니면서
##드니
유지할
준비하는
1부
##네여
말장난
##♬인♬을
4만
소감
스태프
건강보험
로또
자취
일으키는
지법
##국민♬이
각별
퇴진
끊어
의미하는
경제♬에
어떡해
되는게
눈치♬를
##림♬의
##론♬의
박근혜♬는
기정
구하
클래스
독일♬의
##일드
##그대로
기♬를
2001
내어
나♬보다
##왔습니다
져야
##라구
암흑
리서치
사례♬를
활동♬에
있었어요
부리
안희
개발♬에
자신감
어린아이
맞나
별도♬의
주변♬에서
호흡♬을
지지합니다
근혜
##주시면
##아저
입점
sns
저질러
##간질
먹어야
매물
##있네요
아들♬의
쓸데없이
휘발
##정♬과
##시브
대표♬의
##학♬은
비난♬을
짓♬이
자질
##아이♬가
쟤♬는
개발♬을
##라면서
##이예요
이왕
시절♬의
대사관
##가♬들♬이
뜻♬으로
모나
번♬에
비단
추상
아버지♬와
구한
배댓님
제안♬을
시점♬에
건담
##시장♬은
투신
우롱
##겠구만
패러다
하이닉스
기자회견♬을
모양이다
##♬만한
메타
트래
##무니
나치
인류♬의
싶다면
표본
일어나지
블라
##ap
마찬가지다
보너스
이곳♬에서
친구♬들♬과
북핵
내♬의
국민♬들♬도
뉴스♬에
컨테이너
반역
안다고
못난
통신사
##처음
초고
백종
엄벌
##무시
받아라
함께하는
미모
마라톤
노력하고
##신탁
버린다
##은행♬의
평생♬을
바랄
베도
크라
부임
##보려고
##하냐고
김정♬은
가문
죽음♬에
안건
싫고
임무♬를
숨쉬
사용하면
중형
회의♬를
일체
챙기는
날아가
동북아
클린턴
배우♬들♬이
##으실
##거려
##논리
지역사회
##주면서
##페미
멋지
##♬당♬은
많으면
재인♬이
소각
없어진
블록체인
감염자
먹거리
웹툰♬으로
말♬처럼
풀고
있었으며
##승리
종사자
##표♬는
전과
통찰
##였기
섬세
##감염
눈♬에♬는
너♬네♬가
동대문
불렀다
그레
##♬이나마
인성♬이
기부금
동창
흉내
가져온
##치다
여경
##군♬으로
수없이
만들었
친근
##♬야말로
소액
삼가
우위
##산♬으로
4강
원수
비방
절벽
해야할
도무지
##한걸
미안해
한편♬으로♬는
보행
나타냈
##림♬은
##해야함
적고
##자리♬에서
##커스
##대왕
햇빛
##♬상♬에
7개
받았던
인물이다
돌아간다
인텔
실적♬을
금감원
직원♬들♬이
수월
좌파♬들♬은
정몽
있습니까
속옷
##았지
##거부
고인♬의
찾아와
댓글창
괴롭히
나왔으면
##소나
살수
난무
뮤직비디오
모두♬들
있을때
방출
##은♬이
##LED
그늘
##봤습니다
이번♬화♬는
##서♬야
다니엘
먹는다
해줘야
사거리
어려웠
연초
안믿
페북
##꼬박
길♬은
##제일
공감♬이
세계♬적
원하
##저스
호전
##수준♬이
법♬과
물고기
##거♬에
주당
오른손
싶었는데
글쎄
따름
##문제♬가
##으니깐
받으면서
##이구
##내요
경기♬는
법제
이국
BMW
##RA
급하게
##토♬는
노블레스
연내
사랑하고
##나오고
쳐도
버프
극단♬적인
##위♬권
##♬적일
##으라는
읽은
해외♬에서
탁월한
일괄
이유다
편파
##서♬와
대통령♬으로
##답시고
옆♬으로
##버리지
350
선명
200만
폭파
전선
##리얼
공범
농림
##틀딱
흑백
나이♬를
소니
컸다
##슬라
발견한
유비
잠♬만
##이었기
높아지고
중딩
산출
10명
시민♬들♬의
##77
실물
##침♬에
가도
언행
양파
실어
하나라도
변이
서두
보좌관
포용
도청
인접
나가야
##장이
SK텔레콤
##고있는데
팽팽
최소♬화
호의
##코스
그리스도
##5천
사용되는
아쉬워
도래
박람회
무술
반지
구조조정
##슨♬이
아니라서
##실♬은
안하
##팀♬을
셔츠
오케
kr
제4
하자고
##라는걸
쾌적
나라다
내란
법♬에
경악
폴란드
##노릇
##52
배우자
수험♬생
가끔♬씩
이식
샤오
##통화
##동♬으로
밝혀졌다
허술
흰색
##기♬에서
소스
전복
##미♬에
묘한
추정된다
헝가리
##두♬로
환불
지적♬이
파주
판♬을
아진짜
##경험
나을
아내♬를
야당♬이
카레
##테이션
여러번
떨고
##졌지만
##나옴
아크
용돈
유예
피지
해대
아니며
##♬만하면
총선때
##가니
술집
운명♬을
저놈
##HO
남♬들
민망
가즈♬아
##리온
2조
##졌어
밝혀라
강좌
혼인
헤이
양♬의
맞았다
##파리
##하니깐
소릴
##받으면
청취
주둥♬이
맺고
##러드
세월♬이
원♬이
아홉
울컥
박멸
저출산
잘♬도
어벤
임용
처지
##나라♬에
##진다면
염색
##아무
유신
8개
나쁜놈
우마
때♬를
스무
드러낸
빌어
하는짓♬이
##원♬도
가족♬은
##36
##토♬의
우기
아이디어♬를
공간♬이
기반♬을
##붙어
동영
##가진
보수♬는
터미널
생색
논술
세웠다
서방
##사퇴
##현♬을
##건만
기자♬는
역동
##약♬이
생명♬의
4명
##♬만하고
좋겠네
슬프다
모두♬의
놀이터
##해줘야
나눴
중소형
저널
대답♬을
하던가
##회복
후지
##오래
강서
돌리는
##되길
다뤄
흘려
뜬금없이
극중
자이언
봅시다
개인정보
처녀
빨개
##슨♬의
적당
지원♬이
중세
엄마♬를
##위원회♬를
##채권
높였
##렸네
일찌감치
낡은
생각♬과
믿음♬이
네이버♬는
그루
##아닐
##되었습니다
선보였
in
한몫
입장♬이
♬에♬는
##철수
세습
##이라면서
기상청
김장
골키퍼
대본
전투기
##않는
##만들고
줄♬은
##줄알고
했기
상처♬가
형식♬으로
##수기
##캐릭터
물어뜯
##인♬도
사업♬의
세이
시청자♬들♬의
♬로써
##해볼
MV
##♬회
없었지만
매너
##거네
개표
정당♬화
연예계
까먹
영어♬로
정국
의무♬를
##깁니다
방관
싸그리
없었습니다
어렵지
189
높였다
무릎♬을
##렉션
증거인
트라우마
##줬는데
쏘아
문제점♬을
웨이
##넘이
입는
권한♬을
북조선
눈♬과
##없지만
여주인공
노리고
딱봐도
그런건
의원♬의
힙합
보건복지부
예전♬부터
후문
누구♬에게
진정♬으로
그후
수두룩
라크
오스트리아
때♬와
변하지
결정했다
경제♬의
설정♬이
자손
##아니야
##노래
가축
##소비
나오냐
인간♬과
##보네요
##키♬는
기용
##다이
말이냐
##중대
싶고
1주일
좋아하는데
루머
고졸
지형
신♬을
마무
정신♬과
##신분
먹기
##주는거
극장♬에서
볼만
총수
심상정
최경
시그
버틸
조승
현명한
##치가
저것♬들
정상♬적♬으로
##로♬와
권장
##시청
용도
건물♬을
과태
올라왔
##해야합니다
##사령
지오
르노
##집권
아빠♬는
##♬에게♬만
듀얼
##황♬을
##PGA
시♬를
##가지♬를
##♬계♬가
##♬게
집구석
다행이다
남♬들♬이
명의
인정할
어렵다는
##율♬을
개도
탈모
크루즈
선한
여성♬은
벗어나지
상시
패치
컨소시엄
커진
글♬은
호위
군림
꼼꼼히
##ri
웹툰♬에서
솔직하게
원자재
박재
##분한
대가리♬에
촬영♬을
##♬화♬로
올려서
##렸지만
달♬에
필요합니다
영혼♬을
영향♬으로
##블리
밤♬은
과자
공동♬으로
옷♬이
교수♬님
재편
안사
모르겠네요
##백만
일본♬한테
♬들♬을
요소♬를
중간중간
감독♬과
전전
시원한
청주시
##라이트
거둬
시선♬이
찾아내
##의식♬이
들어도
오로
유럽♬의
##오염
이하♬의
모자란
시시
##이기♬에
투자하는
##외과
나간다
요시
##슬러
농성
##하셔서
##같아요
답답하다
자각
비스
1995년
##이는데
##LS
유난히
2대
개무♬시
초상
##공학
리드
않았으면
##인간♬들
알렉산
않았을까
뚜껑
##안고
메데이
원주
복수♬를
101
##통♬은
최민
평일
모지리
작화
폭염
상급
않으니
조건♬이
농장
상하이
올레
미친듯이
해변
출제
##으시고
정책♬은
못하겠
3배
대신♬에
##시설♬을
##한♬을
모르면서
3년간
적화
주민♬들♬의
강하다
가정♬을
것이니
피하
근거♬가
나누고
##기계
금전
협상♬을
년♬이
달라지
형태♬를
전략♬적
머물러
##인증
아니란
볼거리
다투
자발♬적♬으로
혈관
해운대
시기♬를
자책
1편
회관
침착
묻혀
남겼다
떠오르는
숫자♬가
원칙♬을
기간♬이
##미야
##무게
##데기
##까리
##고속도로
인물♬을
또래
진작♬에
5번
경영진
##티아
##장군
##캠프
중산♬층
##♬식
기만
독려
작아
자원봉사
타카
아주머니
드레스
퍼포먼스
원주민
꼴보기
블랙리스트
가면서
메이저리그
사회생활
##먹기
##하였습니다
보여주었다
프시
3분
자♬를
방문해
##인거지
늘릴
##여대
못했고
##랄한
이번♬이
##티비
지지자♬들
##위험
여주♬가
말든
살다가
북♬에
유명하다
대학♬을
일으켰
##하였으나
##의♬에
과다
♬이날
##시키며
손해♬를
책임지고
어렸
옆동네
기억하고
잉여
실습
캐릭
임산
뜻하는
##센티브
CGV
본회의
넣는
##들은
어디♬까지♬나
경위
##심사
##읍니다
다친
##♬적이었다
1초
무언가♬를
발령
##대교
분홍
중요하지
##메디
마시는
##놓으면
단골
구슬
그쳤다
이모양
해♬마다
유방
깔끔하게
편♬에
기대감♬을
##GM
하지♬도
귀♬가
동쪽
유병
온실
참여할
네이버♬가
묵묵히
그놈
받았다고
옳고
##속도
##버섯
연애혁명
군단
드레
##주는게
##좋아요
그러는데
달걀
야동
방법이다
경찰♬의
의미♬는
과정♬은
##포♬가
##정도면
새누리당
줘서
이야기♬도
떨어지면
##ro
서식
센서
##이로
심판♬을
문화♬의
이익♬이
환경♬이
총체
##르타
춤추
##♬치♬를
섞여
들어가고
조민
##연하게
눈앞
포함된
급히
시기♬가
덧글
5시
인생♬은
날리
##사무소
자리잡
스트레스♬를
누른
한유
##났는데
맞춰서
자연스러운
##루스
분명하다
##갔고
국당
임진왜
##와이
##기업♬의
##았으니
##훼손
서초동
빅뱅
특히♬나
보궐
자연스레
개관
사쿠
오토바이
##검♬을
치마
지구♬를
아침♬부터
계엄
들러
어머니♬를
##어♬에
엄연히
걷는
##나라♬의
##개선
불리한
되야
신도시
경신
마이너
자신감♬을
치부
##베뎃
근절
냉동
일단♬은
던지는
어려움♬이
부러워
##내라
위험♬에
개정♬은
재차
승무원
신하
후진국
##퓰리즘
낮게
기저
남자♬와
보내야
무심
유관
부상♬을
문재앙♬과
##34
대화♬가
한껏
군산
타인
인센티브
전적♬으로
##어♬와
##겠다며
##직♬에
되었다는
어땠
이러면서
정유라
평론가
때♬만
이렇듯
대표♬적
개수
##이란다
UN
##측♬은
우편
차마
루이스
##노스
앵커
학계
원금
남조선
##장사
부인♬이
포르투
##팀♬의
##뱅크
##례♬가
##씨♬도
명동
배경♬이
##색히
병신
##것인가
작고
학위
##았냐
우체
박쥐
##었죠
중요하다고
단행본
##장치
안녕하세요
##해보자
##귀♬를
한국당♬이
다정
나와도
유익
세이브
좋아해서
##DA
학교♬는
강조하는
미래♬에셋
끝나♬는
드러내는
되잖아
피고인
앞♬으로♬의
이마
두둔
##밑♬에
미네
서울♬의
싱크
불합
##무장
소송♬을
될수
없는지
사무소
##가능한
##이어야
회생
##거♬가
아이템♬을
뿌듯
시가총
업소
축복
방송국
사신
##맞는
목표♬는
좌파♬는
원동
수분
전국♬에
했을까
##소재
마련해
자유♬가
모자이크
후보♬의
##♬인♬이
거침
아니기
##한사람
##료♬가
##왕♬을
결말♬이
백지
치과
미야
##죄♬를
스프링
발산
##김없이
불펜
모시
상대방♬의
말려
왔던
파도
제목♬을
통째♬로
천막
레이더
현수
##ak
고가
##중♬을
말♬로♬는
##엇는데
빨강
마음♬도
와닿
별점♬이
멋있다
때리는
##덩이
20만
40년
문건
##라미
감사원
##역할
지위♬를
간직
풍요
못한다고
증자
세계♬로
##었네요
찾아보
신나게
##할수♬도
어처구니
인생♬에
맞춤♬형
참여해
오른다
사살
후보♬자
질주
일♬들♬을
짜증난다
원장♬은
이벤트♬를
싸고
치안
출구
##이유♬가
걸어서
죽이지
진실♬은
입맛♬에
상류
전대
##같고
리조트
정치하는
원시
정재
있다는게
##화폐
있단
♬이동
오세훈
재검
##드네
주파
지름
자폭
과천
이룩
김유
저♬가
추악한
##만원♬에
방♬을
서쪽
KTX
##났네
관련해서
루시
친구♬의
이득♬을
적을
절제
박영선
옮긴
곡♬을
##풍♬을
번♬째♬로
내역
##될지
제품♬의
집필
태클
사재
##댄다
흥미♬를
여가
##란♬의
통하는
우세
##전지
##스톤
결과♬로
영문
모르는데
이♬보다
##끼는
외형
사세요
줘라
없었다고
동상
달인
트집
타운
##인상
밀양
##해하는
무적
떨어져서
##고루
좌석
할매
키보드
순차
##사정
증상♬이
있었다면
##항♬을
먹어도
내려다
##인민
가야지
떠넘
필립
미성년자
워터
##병♬은
최고다
힘♬은
치사
뭔가♬를
모독
퍼센트
맑은
##설명
따라가
##업♬이
어느나라
한없이
##제국
선수단
만화♬에
시작하면
해피엔딩
수산
마쳤다
웃긴다
대하는
가깝다
민정수석
너그
##원♬들♬이
장점♬이
우산
##혜택
조그만
관건
AR
개돼
사람입니다
##실점
빵터
고액
분석했다
조센징
펼치고
##가슴
전반♬적인
셀프
가능하게
##노♬가
##주는데
1996년
빈번
온전히
##차기
소리♬로
100♬여
아이♬들♬과
재활용
##법♬도
오렌지
붙인
민영화
싸움♬이
자현♬이
디스크
해지
재혼
##부르크
탐욕
잘했다고
1990년
##책♬으로
환경♬에
정립
##퍼니
들먹
냐고
##위반
본질♬을
움직임♬을
짜릿
##전형
검출
♬링
취할
망언
윤총장
농어
주장하고
광주시
가져오
킬러
숙청
연구개발
##해야하는
부끄러워
버티고
##은행♬이
후려
대피
정수기
지부
텍사스
알지만
EX
여성♬들♬이
비치
나라♬와
##부채
변한
##소서
여대
##학규
환승
##협상
빚♬을
##머리♬를
##할꺼
사령관
진부
조건♬으로
승계
##할때♬는
배구
주희
위임
과반
이끈
좌파♬가
##준호
##어디
티저
##릴라
포기한
빠지게
##♬부턴
항암
행사♬에
자궁
못하도록
쩐다
저조
했었다
감금
어둡
아니니까
사망한
비중♬은
열렸다
복권
하원
##는거♬랑
없었으면
##차량
외국♬에서
병♬을
있기♬는
안일
관리하는
실린
다물
타인♬의
에릭
올라간
안간
##홈런
##감♬도
##실히
지음
저능아
##식♬과
아르헨티나
##생각♬을
도착한
받았고
##준♬의
느린
말고♬는
성동
줄이는
##여름
딸♬의
##수리
30♬여
애쓴다
보낸다
연락♬을
##이미
##계획♬을
특별법
팔레
예전♬에♬는
영상♬이
교주
하고싶은
쪽♬은
교육♬의
매트
몸♬의
실드
##열♬에
낙관
##길♬로
표현할
##넘♬들
지난번
결정하는
더빙
텔레비전
감독♬을
보증금
할머니♬들
간단하게
##햇는데
보기♬에♬는
담당하는
망하는
절로
기사♬로
손절
##하기♬에♬는
##오니
비교할
운♬이
확진♬자♬가
미달
##보스
닫고
잘못♬은
시국
들통
희생자
##소프트
길어
흥미진진
컨디션
기밀
##관념
평가했다
안전하게
준비해
사지
느낌♬은
아지
제품♬은
##♬계♬는
하노
돌아가고
캐리
무늬
2♬의
마지막컷
까발
##기대
대회♬에서
항만
회동
할까요
미얀마
환수
이방
바라보며
들었는데
준비한
동호
##으시면
##냅니다
##풍♬이
가다
##건물
신제품
깨닫고
서운
모델♬로
직원♬들
손♬님
토록
불린다
유튜버
##제도♬를
하는거야
가드
##레이터
기업가
##티♬를
심지어♬는
약탈
공정거래
전망된다
불이익
시속
내몰
##되도록
비밀♬을
어울리
##심♬과
##티♬가
어느날
것이죠
감성팔♬이
사과하고
제국♬의
남편♬을
입건
먼가
케이크
특징♬을
우방
항복
선수♬들♬의
8강
##일기
필터
노태
난이도
오게
아영♬이
치른
누구냐
통계청
야스
승차
이외♬의
일어나서
##싶네
먹이
100억
개성공단
적힌
개♬는
##북한
삶♬과
보이콧
참을
떠오른
아비
일이라고
##한다며
며느리
##기관♬의
여론♬을
더불당
##OU
북구
kg
헤아
되었던
권력♬이
서른
##지긋
모르니
금연
꼼짝
##55
##졌습니다
선착
현실♬과
그닥
앞♬의
산타
끼어
##시대♬의
유적
나라망
넘겼
내구
아닥
충고
아무말
##되니까
##스텔
사야
하루♬가
극찬
가파
##포♬로
대강
카피
##센터♬를
90년대
발악♬을
뚜렷한
해♬를
이렇다
일부♬는
##해주지
아가씨
##EA
하천
##시네요
##층♬이
예쁘고
예술가
무기징
이시국♬에
##나가고
달라는
선교
수준♬은
아이스크림
살리는
잡아야
##밀하게
간다는
찌그러
##버려라
회원국
할줄
웬만한
데미지
금수저
##나라♬는
미나
꼬박꼬박
가맹점
살리기
PS
아닌것
칼럼
관리자
장본
양♬이
줬다
쉬워
바라고
정도♬에
사라져야
오름
남짓
관객♬을
강북
##힘♬을
승부♬를
##처♬가
것임
표방
멸종
##하던가
##♬생♬이
##투스
##빌리티
선거♬를
것임♬을
용사
##미네
##이었으며
타다
능가
KO
##만원♬으로
배추
해달라고
##해♬가
메카
##산업♬의
##회의♬를
피우
한명♬이
##타자
##끈한
매직
##었다가
공감♬을
3시
##때매
카카오톡
알리고
##하시네
연평균
공격하는
벌어질
유투브
필살
합계
##것♬이다
리♬가
##유리
기♬도
걱정하는
고마운
##기술♬을
##♬로♬의
##피니
균형♬을
콜라보
용이
##대면
드러난다
중요♬성♬을
못알아
3연
배우♬의
사회♬는
##전♬에♬는
한우
한잔
조사한
##원인
진출♬을
이♬의
알지♬도
업뎃
##할수있는
나오는거
섞인
김정숙
고객♬을
가루
요구했다
우덜
##할만한
##이라는데
##독립
##렸다는
80년대
박병
놀랐다
하진
끄는
알아차
정부♬도
첨♬부터
##음♬은
말하는데
##쪽♬이
지키지
단말기
복선
장외
가르치는
아프다
##판♬의
구형
낙선
돌대가리
##전♬에서♬는
쌓인
##버림
천주교
하나님♬이
모듈
묻은
인권♬을
공론
대림
공정위
곳♬도
자체♬에
스파이더
##지역♬에
말♬의
발전♬에
오죽하면
방식♬은
것이냐
걸그룹
완자
유착
못하지
##둬라
행위♬는
맞췄
챔피언십
##안한
수명
인문학
파이터
개똥
##주며
이나라♬가
광우병
손학규
##지랄
한국♬으로
##바♬가
보여줬다
쇄신
기업♬과
섞어
맹목
##날♬에
선거구
##크스
##파♬에
했었는데
##전선
신조
한수
세력♬을
않으면서
집사
비판♬이
왕국
본인♬들♬이
밤♬의
##한거고
달러♬를
시♬가
핵♬을
##먹으면
랜덤
위하는
##우니
펼쳐진다
##오른
펼쳤다
뿐이었다
했어야
차려라
눈부
하인
##결♬에
비판했다
오우
한국인♬이
데이비드
수단♬으로
카운터
두들겨
##나라♬를
##급여
바다♬에
할텐데
##화장
줘도
손수
이브
##주식
너희♬는
##못할
모를까
##스러울
격투
몇일
코어
##부리
잃지
별명
전국♬의
##장구
##당했다
##세기♬에
##두지
인해서
쓰러져
##란시
아세
기업♬들♬은
내용♬과
판매하는
쓰면서
1200
남발
의문♬을
물어보
주변♬을
통틀
지켰
##부정
스킬♬을
##여러분
어드
사진♬은
조석
##유♬는
승점
##이♬만
방송인
스캔들
거에요
원로
##창♬을
자♬들
이해하지
소수♬의
##교육청
눈썹
해봐야
막혀
들리
한녀
##눌러
##스쿨
주장♬은
##♬에서♬나
##봉♬을
돋보
브레이크
골고루
손실♬을
모셔
선관위
##사업♬에
일제시대
엄정
전동
차리고
중대한
##신저
그외
교육♬이
##했죠
##반응
아담
##을때♬는
본토
쳐먹고
##인지♬를
못했지만
유물
브래
제도♬가
불어넣
인♬적
국한
##이었어요
식탁
거시
대책♬이
쿠베라
자행
주춤
AT
효과♬적♬으로
다들
트리플
버림
있던데
##이군요
##자꾸
##천만
밝힐
세수
##버거
떼어
채취
기간♬에
##♬력♬이
프로모션
죽었
순♬으로
##세서
##해지면
태도♬가
측♬이
검찰총장
데미지♬를
##영향
많으니
급한
원더
수동
##엑스
이루어지는
잘하면
검♬을
##궁금
상륙
##♬형♬으로
탈♬을
모델♬을
틀딱♬들
무섭게
동거
불러서
입금
##치♬도
타고난
##포기
정진
절라도
걸린다
쉽고
##타이어
SC
못하니
일정♬을
##의장
##보건
##모르고
불안감
재열♬이
패밀리
영역♬을
박혀
팬♬들♬은
온천
##바닥♬에
4시
상대♬는
모시고
##♬적이라
##꺼이
##결♬이
병♬이
의대
타석
좋아하지
##왔다고
##생겼
변질
없어지
때린
친화
복싱
슬쩍
하늘♬에서
벽♬을
추진하는
진한
독보
이송
오가
면모♬를
이르러
##효율
##조절
제외하고♬는
무한도전
♬께서
입장이다
사업비
바로잡
주인공♬을
것♬만♬으로♬도
치명♬적인
주경
활동♬이
당♬이
영리
##노트
##급적
ICT
내세운
영수
가져올
##격♬으로
모스크
캐릭터♬로
다른건
소유자
애미
##해보고
드럽게
소리지
아내♬와
주인공인
##민♬과
끝내고
##이였는데
인종차별
주장한다
특기
##돈♬은
이나라♬는
운반
사이♬를
하나♬에
실시한
뛰는
다양하게
판♬에
##렸으면
김창
##발언
아내♬는
누구♬의
풍자
규모♬를
발자
다신
그라운드
양심♬도
남해
##십자
##커♬를
시어머니
신원
타임스
못믿
마일
광신도
페널
논란♬을
한국당은
때면
재임
석사
##♬화되고
울트라
##하되
소리♬에
군복
곤충
찾아오
##꼬리
희대♬의
한번♬쯤
##고리
xx
횡단
한마디♬도
보드
남미
동아일보
시합
창설
되죠
똘마니
귀환
응징
포퓰리즘
선비
내걸
공허
##없나
로비
재능♬을
별개♬로
##베이션
선수♬는
##성♬으로
미생
자세♬로
논리♬가
경과
##달♬이
다르고
해봤
보상♬을
그것♬에
드나
시작되는
아이♬에게
창단
배럴
사학
##마지막
##퍼런스
##엇다
##려다가
흥미로운
학부
##써라
웃어
##이유♬는
폭력♬을
PB
타깃
오신
##줄게
##진행
올라서
##외선
##부부
시♬에
##신경
지원하고
##판사
##익♬을
요괴
##37
원거리
의사소
##혁♬은
사회♬적♬으로
시련
##갈등
여기♬도
##것같아
부정부패
##매일
문닫
제왕
박명
##은게
원치
##초♬가
닮았다
##단말
##한것♬도
뒤져
반문
악수
##주라
집값♬이
##구♬와
자♬의
자산운용
벨기에
상식♬이
종업원
고서
요리♬를
않았기
##기업♬이
팔아먹
##품♬이
##가♬서
필요없다
찾아야
##가나
산재
상습
충당
방송된다
##되었지만
깨고
공포영화
무리한
되나요
위해서라도
태어나서
전향
안쓰고
문제♬와
숙제
발견하고
치아
몰리
퍼부
공무원♬이
나뭇
##ID
EBS
팔♬이
사임
이지경
##스님
빠져서
##없으니
##이었어
##업♬에
사설
빠르고
##vs
기술♬은
##보장
##충이
안걸
뭐라도
##버려야
민사
해치
##소♬와
조사해서
책♬의
좌파♬들♬이
##위원♬은
2분
##커플
##레오
##하기♬까지
대학♬의
나온다고
좋겠
라스
##지역♬의
##자♬로서
속내
5명
댓글♬도
##용♬은
국제사회
빵빵
악의
##책♬이
갖는다
대형마트
##인정
이름♬만
돌진
때로
깊숙
환원
연합회
온전
장동
지긋지긋
##당초
분노♬가
개구
망치고
도시♬의
무너진
##차♬의
단위♬로
신뢰♬가
실업자
##했어야
상대방♬이
정하
현혹
방위비
오리온
##프라이
탈취
평점♬이
버리지
##겨라
##들지
그때♬부터
사회복지
소재♬가
가나
오산
입문
잡히
이소
웨딩
친정
##저러
스트리
하버드
신영
바빠
작살
해볼
놀랄
증가하고
김남
반일감정
우량
경희
##um
##역♬의
자유주의
포함되어
무자
프랑스♬의
거리♬에
생각나는
신용등급
탐사
문화예술
공부하고
나오면서
헌법재판
이놈♬의
넓혀
뽀뽀
신고♬를
##저우
그램
대담
꿈♬도
##연수
굴욕
기록♬이
##기억
캡틴
일련♬의
##즈♬와
천문학
재선
##모르는
남북한
강수
날♬을
검사♬가
설명하는
가로막
##없다는
얼마전
넷플
♬적♬으로
##♬만큼♬이나
시작하고
네이버♬에서
양승
오세요
사육
친문
남아있는
외계인
괴로워
드네요
연이
##삼아
잡아먹
##보상
##개♬에
예견
이메일
즐기고
급감
인터넷♬에
##지♬도않
선점
##려구
부려
황정
볼수록
새끼♬들♬은
기록하고
오늘♬부터
60대
고속도로
벼슬
각인
오징어
책임질
소나무
재테크
새끼야
쓰레기♬가
발송
##지검
해주면
캐릭터♬는
내부♬의
진행했다
##은♬은
##생♬의
무궁
경인
스스로♬가
검진
없나요
새우
비리♬가
##는디
양해
##IT
##가인
##88
##스킬
##ew
ESG
감♬이
5회
##아픈
느냐는
침공
2♬로
위헌
주민♬들♬은
수사♬가
화두
##유산
##렸습니다
공무원♬들
카지노
잊을
기법
##창출
제대
용량
나가지
심리♬적
위함
나팔
##65
홍수
다듬
의식♬이
##몰라
##인간♬이
##골프
일깨
제공할
쓰인다
마실
등재
##없습니다
##아닌가요
긍정♬적♬으로
레저
##넘은
##em
이외♬에
불쌍해
여느
##했네요
##액션
##같아서
있었는지
##각♬이
##이었음
##기♬엔
##보라고
끝장
귀신♬이
보름
있어야지
호박
##도와
##오던
##심♬의
##지말자
갑옷
1990년대
3시간
##녀♬의
꾸려
##까고
센트
##복합
서슴
워킹
글구
감행
##라나
지역♬이
빛♬의
##제철
활력
##th
종자
통수
콘셉트
요금제
##때로
##희♬를
가리고
한국♬도
주한미군
##에르
부끄럽다
프렌
내놨
합의♬를
♬에어
판사♬가
##대변인
광해
라시
이해♬는
기체
가뜩
시카고
갖지
어쩌라고
삼성물산
메탈
김두
IPO
규정하고
성인♬이
##경제♬가
확인한
우동
##기위해
헤어지
조준
빨고
있는듯
트레이드
##티스
##계속
전념
신청♬을
요구하고
112
이야기♬로
##국장
##그래서
중국♬산
자극♬적인
사라진다
대위
펼친
암울
##밥♬을
떠올랐다
국제♬적
죄없는
##비슷
##집어
거창
생각나네
피난
4회
##백♬을
달랐
성공할
동점
정치인♬들♬이
##베이스
법령
직결
넘어섰
생산하는
샌드
##내자
##독♬이
♬이내
무능하고
##베스
심히
직전♬에
##인드
테이프
보훈
나니
##하♬는
##폭망
비리♬를
정해져
##폐기
판단♬이
이루어져
재킷
신학
견찰
논리♬로
무너져
의정부
쓰는데
##이었다면
가뭄
공판
기분나
##오롱
사표
쓸쓸
경부
짐♬을
##보내고
새기
안보면
##없을
1994년
맛집
있었나
간과
많기
##셀로나
실세
올인
다루고
각광
흡사
들었습니다
##둘♬이
##궁창
특징♬은
##본데
할아버지♬가
좋았던
대다수♬의
방면
이뤄지는
##개국
망한
발렌
데려다
자작
##♬력♬을
##라는거
얘기♬도
##키아
마지막♬까지
일인
버려야
여덟
이뤄지고
멋지게
한인
##방해
탐색
말야
처치
##♬엘
예산안
보라고
##런트
여름철
축산
지방자치단체
일어났다
법♬도
##후군
1990
시작했고
승강
피해♬는
##노♬의
도깨비
송금
돈♬과
프시케
##해본
♬이벤트
갈색
자신♬에
거덜
정신좀
의문♬이
차림
체제♬를
떠났다
진행될
확률♬로
##죽이고
반항
근거♬를
축하드려요
미안하다
호조
##립시다
골라서
##시게
##라는데
영화였다
거뒀다
팔아서
##로울
있음♬에♬도
법대♬로
운영♬을
다가오는
##맘대로
모릅니다
지나고
붙잡고
##평등
1화♬부터
누군가♬의
급기야
##대행
다녀온
##함♬도
##좋고
언론인
그까
주면서
시즌1
근본♬적♬으로
조류
##당해서
부스
##티콘
우라
보여서
남구
16강
보기♬에
애정♬을
만들어라
##것네
봤으면
썸♬네일
##단♬과
##낭비
대출♬을
해서♬는
##는것♬도
중국어
역학
선량한
프로듀서
상의
번♬이나
파이어
가뜩이나
내재
불로
죽여야
먹었다
꼽히
##혁신
정치인♬이
낯설
##박혀
빠지고
최태
출신♬으로
속♬에♬는
보이네
달콤한
몰라요
이창
포르투갈
무기♬로
최애
어울리지
민심♬을
지내는
글♬로
은데
제품♬이
##부분♬이
듣게
##인식
한다면서
공부하는
시행령
그전♬에
잠잠
개웃기네
서울시장
좋네
짓♬은
개신교
시민♬이
CF
##드림
내며
만료
어려서
트윈
안되서
##이렇게
##자♬들♬에
가세요
올스타
규범
위선자
명확한
국민청원
지역감정
늘리고
##주네
##반♬의
##♬적이라는
지나간
##놔라
살인♬을
만점
##94
발생한다
전국민♬이
김우
이해관계
않았다면
##살이
못하다
울려
칼라
##♬가♬를
의도♬적♬으로
태극기부대
득실
직업♬을
금품
##시계
성공♬적인
집단♬이
중요하지만
교통부
데이터♬를
이것♬들♬이
선대
##해보지
실적♬이
극장판
파멸
이상하다
수익♬률
삼성그룹
굴복
##주제♬에
일자리♬가
존엄
멋지다
##♬뿐인
저♬만
##그래도
2분기
##살♬에
DM
당♬의
네오
김씨
##IG
##웠고
##층♬의
##역♬은
엘지
예쁘게
장남
망상
보지♬도
특수한
##한거냐
안되냐
어용
##성향
스스로♬의
주영♬이♬가
느껴질
공장♬을
비꼬
##면허
애쓰
유키
드라마♬를
견뎌
사이클
규제♬를
최저시
이야기하는
남는다
참여♬를
쿠키♬를
##아나
##네임
시민♬의
말♬도안되는
게임♬에
##만나
과학자
사마
자르
환자♬의
사옥
기숙사
##대♬도
부지런
이것♬들
유교
증거인멸
쪽♬에서
광산
오기
언론♬에서
어이없는
도미
사이즈
특급
금융감독
보면은
##갈이
타결
##누구
모친
스노
특례
##공연
넘버
여기♬서♬는
##세금
메이커
효과♬적인
싶어도
저택
제조사
잊어버
##버리네
지쳐
사이드
기에
존잘
태세
피드백
개돼지♬들♬이
의아
##딩스
진성♬이
##시픽
지문
우리♬들♬의
##♬도♬는
지원해
관습
무소속
스톤
##장인
기한
##갔다가
##가냐
##딩♬이
수상자
5대
알려주는
되네요
회식
미팅
관련하여
꽃♬을
일어서
##♬라도
어마어마한
이야기♬의
장중
라이온
##♬권♬과
##주냐
씹어
##욕♬이
##티어
##린데
몸무게
##oo
##양♬의
##없어요
##ul
문제지만
자살♬을
질러
썩을
인조
##거같음
제작한
넣어서
##상담
답변♬을
임진왜란
김미
냄비
##제작
##보♬의
AS
바꿔서
하다하다
##했구나
##멋대로
블룸
##고시
이케
원형
정식♬으로
##31
##여겨
수박
이병헌
##세력♬이
##장비
##AR
장편
##벗고
보이게
엄마♬한테
낮다
##곳♬으로
응답자
공격♬이
쓰나
##찮은
첨가
10만원
##햇다
##티드
위주♬의
##위원회♬의
수거
기꺼이
2기
망하고
베풀
서기
민주당♬에
신천지♬는
없이♬는
엄격한
납입
##율♬은
차지한
음식물
##이득
##75
##되야
조회수
2세
자수
##협정
그런말
학생♬은
남자♬도
가증
MP
방법♬도
##에이
루트
도라
##됨♬에
고심
공사♬를
뜻♬은
밸런스
밝히는
방문한
##사다
구구
거래일
##센스
##할수록
제시했다
아시아나
잃게
누르는
가급적
대역
선수♬를
방울
애♬들♬아
##불♬을
바가지
굳건
레지
공산국가
벚꽃
##탄♬이
루이
♬가짜
살린
넣을
흔들어
되기♬를
언제♬쯤
드라이버
##♬들♬에서
징수
시아
까불
있거든요
공표
♬회
이야기다
어버
입각
동요
인위
개선♬을
리모
사기♬를
돌아간
금액♬을
방과
인플
##것♬보다
PE
트럼프♬는
##사관
김종인
돼지고
현실이다
국외
웃김
전반♬에
과학기술
##될까
터지는
쿠데타
몰카
밟고
재열
악마♬의
생각된다
어렵다고
불필요한
이쁘다
연기력
정전
##미사일
가지♬를
무분별
앞♬에서♬는
사춘
##올리
##츠♬가
논평
수다
##AS
비어
조언♬을
민자
##예정
CBS
잠수함
거제
##의혹
##마일
김세
선호하는
휴일
마련이다
전멸
중요하게
##잔데
##맨♬의
챙기고
##대며
빠졌다
##가던
남자애
아팠
전력♬을
민감한
투자♬가
MVP
##근♬이
이상해
프로그램♬이
혼란♬을
견딜
통쾌
교보
늘어났다
전투♬를
##어떻
기자♬들
인삼
##맞아
오승
스리
개한
부역
주목된다
지겹
전세계♬가
김부
속이고
무의미
바나나
신♬은
실리콘
시흥
영하
##다니며
황태
##그린
##거리면서
이야기♬에
3점
##결혼
못하는데
교회♬가
##크리트
변하는
지역♬으로
코오롱
파운드
##부장관
집중♬적♬으로
##모♬의
글쓴
##토론
알뜰
파렴치한
##무새
상상♬도
작곡가
제의
발생했다
BB
만하다
##여친
##말♬의
##영♬과
바르셀로나
할게
맞벌이
문제라고
♬롤
마틴
##하기전♬에
장현
꼴♬을
능동
1980년
주유소
높았다
##신거
##인력
산업단지
음악♬이
##진거
쓰러뜨
전쟁♬에
골♬로
##♬차
일입니다
결집
구하는
##그레
##00♬여
##통♬의
오키
박힌
스토커
서열
현충
주리♬가
##ce
권영
있겠냐
활용하는
놓아
프레스
안중♬에♬도
욕심♬이
대통령♬에
1사
검은색
차원♬이
세끼
방♬에서
열기
##♬이야
톡톡히
괜찮다
기운♬이
중국♬도
핵심♬은
뭔소리
##었구나
천하
##으리라
생체
##카이
뽑을
이루어질
인간♬도
지구♬의
현정권
진성
20세기
구성되어
##다보면
덴마크
한것
원산
공매도
##배기
하면서♬도
걷고
빌리
떡볶
##인양
##나는데
##남용
대표♬를
매운
싶어하는
##좀해라
사채
사극
직선
국회♬의
##넘게
총선♬에
위키
거둘
시일
카타르
의도♬를
지체
##수출
앞잡이
다가가
편안한
말♬이나
어딘가
##표현
##러브
선보여
##위♬와
횟수
연산
##불리
##시킴
##줍시다
##없냐
허벅
비선
맞물려
##층♬에
곳곳♬에서
흐뭇
♬의심
시절♬부터
올드
##처먹고
##됐으며
속아
##란시스코
##회관
이런말
궁금한
##찬♬이
다음♬에♬는
아쿠
벌어지고
홍대
번개
애♬도
말미
모방
현대건설
독창
조사하고
##내리
거미
종교♬적
댓글달
세울
활기
증설
##부탁
권리♬가
광범위
페미니스트
놀라게
거느
지날
##보임
##디♬의
도♬를
##마시고
에이즈
정찰
##♬껏
토니
3분♬의
막♬을
가는게
나서고
##안돼
VIP
##39
잘♬만
우두
당신♬들♬은
탄도
##앉아
고독
게임♬은
매출♬을
어벤져
##여자♬가
기업♬들♬의
정류
시♬의
LS
##누나
##00억
성균
제2차
에코
##디♬를
장단
하룻
못하냐
하늘♬의
전♬까지♬는
##66
##사이♬에
걸었다
논리♬를
개빡
##손가락
저희♬는
높이기
##쿼터
마법♬을
##네스
광양
시민♬들
쓰인
성♬을
할지라도
##귀여
활발한
행위♬가
##추천
##훈♬의
##수요
매출♬은
와라
좋았는데
제천대
상상♬을
##인구
내려온
##이♬네
교수♬의
반성하고
수출입
##벨트
내세우
##인베스트
던지고
자정
드립♬이
유격
어울려
파인
##사자
단숨
##ab
반대♬를
갑시다
고기♬를
총리♬가
오이
카메라♬를
신랑
넘길
소리♬만
부모♬를
나락
목숨걸고
품격
YG
최성
전국♬적♬으로
♬뿐이다
연도
철폐
그랬는데
오마이
자면
궁금하네
생산량
펼치는
##만♬을
##공♬의
컷♬에
벌였
못했을
##박살
하태
##화면
문희
잘못하면
전이
안봐도
##저♬는
상황♬에서♬도
은하
##38
##듣는
##할래
##사라
##탈출
부리는
주의♬를
거리는
정관
아재
옥수수
서로♬가
녹아
포상
줄♬도
김건
말씀하신
모텔
스페이스
##VD
##과♬는
바닥♬을
대하
막론
삼성증권
저마다
설명해
중♬에서♬는
교감
##임대
가출
사람이라고
거잖아
플레
##데레
납세
미녀
납니다
상표
담담
##2000
발전♬이
분석♬을
부자♬가
중요한건
망치는
밝혀졌
키즈
못배
알아보고
승격
일인데
보여주며
##츠♬는
놓치지
될것
자금♬이
손쉽게
##치는데
안♬을
##료♬는
시궁창
높다고
노래방
##귀신
멋있
도둑♬질
단숨에
출연했다
##GA
맘♬이
스러
2000년대
출력
닮아
더러워
##같지
힘들다고
환생
스텔
##중학교
여서
##양♬은
잘사는
보이기
내려놓
사정♬을
테니까
##주년♬을
활동하고
##병♬의
##증♬에
##음식
해결하기
자초
이용하고
나뉜
전망했다
##♬계♬에서
하락세
관심♬과
건축물
##많아
왔다갔다
올라오는
디아
##해결
들리는
보내라
여러분♬들
##무사
유보
왕복
들어가지
##모♬로
유선
##근로
참여했다
특징♬이
연체
##업소
명명
##십쇼
##금속
거기♬다가
문정
##값♬은
기술♬의
##껀데
떠드는
산학
조심스럽게
성지
정의♬는
##꼬라지
##투수
버섯♬은
달빛
속하는
##만달러
결정할
70년
##♬론♬을
해질
복면
당대표
즈음
##도서관
사모펀드
프로젝트♬를
##루♬의
정책♬으로
##포터
대응♬을
##♬들이
시킨다
##강♬이
핑계♬로
##화♬에서♬는
##도어
받아들이는
드리고
쓰던
건강하게
올라간다
휴대전화
헤매
들었던
당선인
생각하나
일본여행
##♬업뎃
사치
여타
아저씨♬가
밀착
##준거
##기관♬이
문신
##쪽♬은
시즌♬을
이제서야
##오르는
연기♬에
SUV
늘리는
하겠지만
##만족
띄워
페어
주고받
초반♬부터
아시아나항공
무당
안하지
작업♬이
전정권
깨끗하게
##별♬이
퍼주고
매개
여태♬까지
짖어
최장
##주사
밖♬의
눈여겨
3가지
##DS
생활♬에
##문제♬는
런닝
##♬제♬로
판문
빅토
아니잖아요
##부르
탈세
대표♬로
조용한
세계♬는
카즈
연승
한판
##os
중앙은행
지나가던
KCC
말안
바래
쓸어
##자너
임마
낙하산
속보
바리
빨래
불과한
먹어서
몇천
싶지만
가세
##천군
행동하는
언급♬이
그♬도
노린
가혹
데일리
분포
나열
##이동
간다르바
##도♬도
키움
CS
높다는
반칙
경제♬적♬으로
##전시
파급
엑스트라
멀어
##원칙
호황
않겠다
정체♬성♬을
국가♬적
과학♬적
##만원♬의
5배
있지요
심야
이선
건설업
다운로드
유무
양현
스토리♬에
인물♬은
##글♬이
사냐
##드레
##드래곤
아끼지
연고
걱정♬을
되려
둘♬이♬서
본인♬들
살았던
##코로나
민경욱
감격
총력
##소개
##한거임
거든
안되니
긍정♬적
내년도
##진다고
##공사♬는
##놈♬을
못가
산악
쿠바
공격♬에
필요♬성♬을
말리
##대서
##데이터
남편♬과
말아먹고
학생♬의
힘없는
그림♬은
##신용
503
퇴장
1998
너♬만
ETF
##뜨고
안볼
매화
##취업
공모전
의견♬도
관대
과격
선원
다음편
##♬씩♬이나
숭배
##바탕
장제원
서로♬에게
안중
보이면
구조♬가
불려
미티
번갈
후안
제사
##무서
자하
##주로
도마
##된게
삼국지
화가
105
한숨♬을
블로
혀♬를
##봤어요
구급
2연
업체♬가
사상♬을
출신인
빨간색
올림
뽑아서
배♬에
의심♬이
국민♬들♬한테
미드필
타점
보니깐
언니♬가
##플래
##맞추
막지
##베리
##센터♬는
VS
번쩍
19금
##그나
선택하는
어떤지
못합니다
들어오면
합창
선글
##사♬들♬은
마포구
##♬쯤♬에
고양시
노조♬가
##강간
평♬을
띄는
라이언
때문♬이
무고
1시
묶여
끝판
에버
제치고
찾아가는
EM
##거릴
남성♬이
##회사♬의
지루한
맡게
테니스
휴지
##살다
이목
재빨리
사용♬자
나름♬의
맞붙
##징금
저정도면
이성♬을
정정
맞죠
##안되
산업은행
아쉬움♬이
생활비
##카♬와
##치는거
되살
##파탄
오타쿠
##형♬님
연패
움직임♬이
있겠
보자마자
중얼
총무
불출
자체♬도
코레
쳐서
카사
##록♬을
##하지마세요
이슈♬가
##되는지
흘리
있었지
데♬도
##브랜드
##스타인
##세우
최강♬의
무례
해결♬을
달리고
피눈물
표적
##야할
방식♬의
##가시
##라든가
##셨던
아닠
##홀♬에서
##한다는게
놓았다
충실히
백퍼
##통상
##마드
하자는
##러지
알았네
주말♬에
정리해
##당한다
덕후
##등장
엄지
##무진
##났다고
언론♬을
보기싫
힘♬의
포기하지
혼돈
저러면
풍성
대비해
어린애
저지르고
##매♬를
코르
##경제♬를
대우건설
봐주
해보자
##오라
관제
인정♬을
##입은
환경♬에서
다룰
소설가
전승
서사
다르다고
##아닌데
권총
부당한
지시♬를
야근
내륙
과태료
##받았
푸틴
건다
##란♬은
##형제
##진다는
인플레이션
넷째
홈런♬을
커리어
##거♬나
관리♬가
##객♬이
하늘♬에
깨우
서장
##주주
##44
##극장
수평
교회♬의
붙이고
생활♬이
관내
있는데♬도
비난하는
에르
군대♬는
##나타
##급♬은
##시스트
실체♬를
##기♬보다
미끄러
대포
복붙
##다시피
년간
해경
##환♬의
손♬님♬이
나타냈다
##부진
방♬으로
##등♬으로
문어벙
도매
피의
단언
##션♬이
재래
수법
레즈
##♬들인데
처먹고
유럽연합
한국♬에서♬는
순위♬가
누군가♬를
4개월
빠져나가
자식♬은
##결제
##드만
사천
##새끼♬들♬이
##바이오
속출
의구
필자
##이라는걸
##igh
시뮬
인간♬들♬아
##기때문♬에
##영화♬가
것♬과♬는
생각안
##셔야죠
시네
몰랐던
이같이
시설♬을
꺼지
제5
보건소
지원할
마스크♬도
알릴
영혼♬이
월간
맞춤법
대가♬로
##95
##번♬을
좋은거
파이널
##귀엽
투자한
어디♬다
술♬에
요정
##인건가
카트
확인해
##공♬은
개체
직업♬이
명회
##안♬으로
간식
절단
걸렸다
이땅
##산다
현실♬적
명♬은
유나이
##GB
좀♬만
마련했다
끝나지
페널티
앉혀
여당♬이
김호
끝난다
##앨범
360
기♬가막
대안♬을
생명♬이
대통령♬에게
##뭐야
들게
프로토
배드
##내면서
종속
그랬다
잔치
부칸
##가정
골수
도와줄
예정인
4번♬째
정권잡
이번주
국악
아시는
공격수
대검
덩어리
만난다
악재
생각하
성장세
정의♬의
호도
지녔
##왔지만
할당
부르며
아는게
스타디움
총살
프로그램♬에
되는거지
이제♬까지
중심♬에
##택시
##트릭
1980년대
창당
Ch
보호♬를
##라든지
태그
##답다
연중
나오나
남동생
집♬도
바꾸어
존슨
존재♬로
##죄♬가
팬덤
올라갔
##다♬가
빼고♬는
귀걸이
경제♬도
##밴드
기고
이언주
아니냐고
베댓아
공개됐다
감싸고
기어나
살았다
익명
사위
키웠
##ter
##하였는데
왔다고
더듬어
##윤♬이
5년간
수료
살인사건
3초
탈북자
수구꼴통
국영
신차
감정♬에
미분양
##수업
부엌
스포일러
보이냐
##런지
##러♬가
롯데마트
살아있
##국♬과
김연아
비관
코코
보수♬를
선생♬이
것이지만
언급했다
이쁘고
함♬으로써
결산
노인♬네
짜장면
긴장감♬을
##주의♬는
##보안
누리고
해답
##작♬의
##거라는
피카
##가와
대상♬은
안타까워
참담
DC
사람♬마다
♬꾼
정문
사용하여
만회
쿵쾅
조직♬이
##갈때
섭외
망명
##번♬은
인간♬에게
커졌
WHO
악취
난감
털어놓
전망♬이
이따위
엔터테인먼트
컬렉션
##준다는
일년
##창♬이
##♬들♬하고
토트
평가하는
떠올랐
들린다
연출♬이
몽땅
##♬화할
밝혀야
##가입
##스러움
분석이다
메신저
있을텐데
투기꾼
설명하고
알고있
객관♬적인
송파구
저서
스탈
김진태
거면
300만
세인트
조두
##맞춰
김소
없어질
안쪽
가미
정세균
짧아
좋아해
붙이
빨갱이♬들♬이
##사원
인재♬를
상위♬권
벌였다
해적
플래그
만드네
세게
뒷통수
다중
갈비
지식♬이
연구원♬은
활동하는
맥도
터무니
항구
돌릴
SW
기하
##♬만♬이라도
##받기
새정치
♬이상
대머리
저런걸
개독
골♬을
남주♬가
생각됩니다
♬도주
일부♬가
붙어서
한민족
오지랖
OLED
설렘
##크루
흥국
문천지
되겠지
좌파♬의
박은
최선♬의
내포
이곳♬은
##피셜
저♬에게
명목♬으로
선정된
##영장
누♬가
토막
종교♬의
아파트♬를
하남
##제약
싫어요족
담화
등기
도시♬를
##츠♬의
##이라곤
##비어
국회♬가
##구조♬를
알라
김성태
급급
구직
주위♬를
않네요
심하다
##바꿈
##하시네요
장기♬적♬으로
4위
바뀐다
예쁘다
거스
##룡♬이
##진구
나오니
##강점
놈♬을
스며
아모
교육♬과
##♬덜
소득♬이
다다
##그룹♬이
인물♬의
맺은
살리고
당뇨병
참석했다
초라
강용
소진
만드는데
예상되는
도리
뻔뻔하게
##당♬과
명예훼손
인피니
시작♬부터
##기분
외치고
알렸다
취급♬을
베타
##모습♬을
이토록
##이♬들♬은
교회♬는
정신승리
않던
##자료♬를
실험♬을
붕어
##애애
6천
규정♬을
##것♬과
논의♬를
쓰다
서울♬로
비싸게
자하드
순조
갔을
맞냐
떠나고
미라
지뢰
콘크리트
##불쌍
잠재♬적
##♬화되어
이후♬로♬는
장비♬를
영어♬를
빨갱이♬가
만화♬의
##들어가
박경
이효
에반
회고
자♬들♬은
벌어들
제정신♬이
브랜드♬를
던전
기간♬을
##긴데
수칙
로고
소개했다
##맛♬을
##음♬의
방송되는
벌고
진행한
##됐을
##하♬에서
##집♬으로
정령
188
뒤♬로♬는
##렸어
##내셔널
대변인♬은
독감
##봐야지
고객♬에게
밑바닥
투구
워너
조져
상태였다
있었음
꿈♬은
고질
기다린
##리칸
유가증권
상회
레몬
써먹
돌렸다
배수
죽음♬으로
판교
박해
몰아가
차량♬을
손오
##나라♬로
이러다가
제작사
안희정
비현실
19세기
국민세금
평가♬는
궁금증♬을
한경
쳤다
팬♬들
쇠고기
압도♬적♬으로
##계♬가
공채
짙은
##온♬이
다니며
##박고
꿈♬에
거래♬가
스타일♬을
동문
홍성
지르
모르겠습니다
재미♬는
권익
평화♬가
고만
오해♬를
효성
모토
주제♬가
공과
뭉클
비율♬은
##청사
##파♬로
♬에게서
##조심
상징하는
##나기
하루♬를
좋을듯
진격
휴양
브레
##조금
중심♬이
구절
창구
##선수♬권
땅♬이
전적
강화♬를
프로필
양키
인간♬으로
위력
효능
가능하며
개봉한
##했어도
##방위
##초등학교
OOO♬들♬아
3부
##♬서♬도
♬력
##짓♬은
성향♬이
봉사활동
여혐
##부품
사고방
사장♬님
단결
끼리
종영
유재석
부정하는
♬이용
강의♬를
2년간
파키스탄
1박
안정♬을
##상태♬가
원하지
##목적
##and
##대도
반♬으로
후♬의
지지하고
꼽았다
##♬인♬들♬의
좋았고
선장
1980
##뿐이다
추진할
발♬이
월화드라마
빡빡
##녀석
##모니
일환♬으로
수질
##♬상♬으로
##금액
KA
택지
건전한
합산
쏟아지
편가
욕하지
불빛
##보지♬도
일부♬로
##걸린
너♬와
##타리
지내고
다닌다
나발이고
♬니
불길
역할♬은
지을
수만
불안해
이장
##치자
곤두
그당시
역사♬와
목표♬가
총액
남학생
SKT
측♬의
##정의
팀원
##사키
휘발유
보리
누리꾼♬들♬은
모양♬의
외상
팬♬들♬에게
##신♬으로
에디
편안하게
무협
드라
매몰
르네
엿볼
108
안하는데
욕♬만
1위♬에
##링♬이
저랬
미사일♬을
불문
드뎌
모태
큐브
열흘
##하던지
##클래
##거같아요
군대♬도
띈다
##들갑
♬에서부터
##ip
좋냐
주니어
지팡
목동
깎아
결과물
깔고
여러분♬이
민주당♬을
조문
반응♬은
강제징
살려고
아인
##린♬을
격파
트레이닝
될까요
개연♬성
남았
다음♬화♬에
산♬을
열일
가둬
##바위
공개♬적♬으로
역사♬적♬으로
말하기
##청♬을
심사위원
##나라♬에서
실로
한국경제
##발♬에
않겠다는
꼴찌
되었으면
성과♬가
도장
민주♬화운동
##저럭
쇼트
##호흡
장점♬을
##작전
클러
순진
뭔지♬도
작품♬에서
대표이
##규칙
않네
시위♬를
활발히
어설픈
개검
소름♬이
군♬은
##도리
위♬를
있겠는가
수반
강변
##조국
의심♬을
##졌어요
리처
천황
풀이된다
나라꼴♬이
확인됐다
♬성폭행
##바꿔
##교도
제철
체납
땅볼
##생각♬이
건강♬에
공대
##♬도아니고
언제고
바늘
헨리
꿈♬과
미래통합♬당
직시
뿐입니다
##공급
나온거
비위
명중
쓰레기같은
교민
훈장
안개
욕하면
트롤
느낌이다
범위♬를
밀접
##구♬만
척결
주상
누구든
뛰쳐
안면
잃어
다른거
가능하다는
것♬의
펼친다
숨어서
소리♬도
매춘
과언♬이
애교
그럭
인식하고
##맛♬이
응모
##이러
아작
찾아가서
거들
이런일♬이
전제♬로
찌푸
##루미
##케미
##♬짜
나왔을
시가총액
소비자♬가
돋보이는
결혼한
어플
##찾아
특유
뿌리♬를
전♬에♬도
1기
구체♬적
되네
막걸리
때♬에♬도
즐거움♬을
기침
속해
날♬은
연습♬을
하겠냐
##많다
그러고♬도
과실
##위치
렌즈
좌파♬들♬의
취재진
갱신
##목♬으로
변화♬는
##일지♬도
##지니
친하게
생각하냐
학생♬을
숙소
여자♬와
##못하게
대학♬에서
책♬으로
알았지
울음
성균관
수산물
어른♬들♬이
마리오
관악
대깨문♬들♬은
조화♬를
헬퍼
발견된
충격♬적인
샌프
결여
기승
업로드
학교♬의
위협♬을
제자리
누워서
기술♬로
화산
거머
영동
나무♬를
버블
달라진다
우연♬이
열폭
싫지만
약정
추억♬을
##선생♬님
사람♬들♬한테
실화냐
지금♬보다
조속히
없애라
조영
무슬
똥개
여기고
억울하게
올린다
코메디
것♬이나
##빈♬의
싸구려
♬기
적다
##나♬와
##다니면서
열♬을
2개월
투여
##할땐
생각하기
보스턴
김천
9회
나르
##녀♬는
통일♬을
구조조
##내어
전장
아슬
발부
끝없이
4억
삼겹
움직이지
정대
조국딸
세종시
뿐이지
정례
한가운데
포인트♬를
남성♬의
##쩌고
##한태
뜻대로
못하네
##회사♬가
뭉쳐
해결하는
도움♬으로
카드♬가
##려도
##옆♬에
모자♬를
세라
울릉
출혈
명예♬를
낙인
다카
스터
자격♬을
포드
할수있는
소녀♬의
##출연
어치
중국발
고충
레시피
받아들이고
친구♬들♬은
##많고
VR
##효과♬를
##점♬과
파일럿
라틴
무마
재판♬을
##수있게
치켜
후원금
호날
다하는
병원♬을
##증♬으로
헤쳐
##해줘
성장한
호평♬을
시작됐다
볼까
안습
거슬러
부족하다
둘♬을
##파워
강냉
되돌려
가지♬가
이건희
##국회
하는것♬도
꾸준한
결국♬에♬는
의미♬의
##로리
담주
나폴
좋겠다고
##시키려는
##두기
STX
##용지
사귄
감염병
마련한
익히
##주의♬와
검토하고
통영
##BA
캄보
느껴졌다
##놈♬들♬아
##야♬가
재회
텃밭
제명
퀴즈
최재
강하고
갤러
크기♬가
남경
당♬을
편법
일어난다
경연
전속
그랜
호들갑
민좃
##규♬는
여론몰
바♬와
##여론
순찰
몰아넣
휠체
유화
개고생
바다♬를
명확하게
##주길
##유기
해병대
학창시절
인연♬을
##야♬의
말인데
돕고
한줄
주둥아리
않지
##나갔
##것같네요
더♬는
예산♬이
없어야
건보
산업♬의
헤어진
국민♬에
태어날
논리♬적♬으로
고혈
원한다
##기간♬이
감고
청계
진행♬이
아람
뺏어
보아야
기분♬을
##전개
침범
서지
전체♬에
무주택
북극
살길
##시간♬은
성능♬을
댓글부대
근래
일컫
감사해요
무엇일까
1999
이질
##지원금
썩어빠진
1992년
##정리
라헬♬이
예비후보
받았는데
##생♬에
댓글알바
선거운동
엘리자
사람♬이나
자♬가격리
##천♬이
공권
두드
##다가♬도
언제든
넣으면
쓰러진
##만드
##대회♬에서
##64
개돼지♬들♬은
나카
괜찮다고
##스트♬가
충무
노가다
계획이라고
훈훈한
유우
덧붙여
뽑고
날리고
어둠♬의
군주
바이러스♬가
라임
어휘
맞는다
##교체
만찬
장시간
남♬한테
협력♬을
다이아몬드
##힘들
##하는거임
듯했다
털고
빛나
##경기♬에
한달♬에
겨울철
부부♬는
보험금
끈질
##마리♬가
비아냥
야채
##진않
돌격
##느냐♬에
토해
빠짐
쟤♬가
지금♬이나
상대방♬을
한걸레
모스크바
펼쳐진
어렸을때
국회의원♬들
안♬에♬는
지겨
가짜뉴
책임져야
##전문가
소상공인
죽을때♬까지
넘이
미드필더
엄마♬랑
시리즈♬를
머지
문제야
##세♬와
##되도
어지간
샌프란시스코
칼♬업뎃
전가
##먼지
우주♬의
##다니엘
패스트트랙
심혈
회귀
올해♬도
넘는다
수사♬에
##노♬는
넘♬들
양대
##서스
터지고
해결해
간만
##같네요
땅♬에서
내심
명♬에
PR
뒤덮
추가된
그런걸
분양♬가
보수♬의
##주려고
극심한
승리♬로
벌어졌
정신차리
감동♬적인
4인
두어
재즈
높을
미쓰
10년간
##실한
문재인정부
##리에
멀리서
저번♬화
할수록
##이니깐
청각
##하군
조금♬도
분석한
제목♬은
과거사
두지
쓰레기♬들♬이
무승
열정♬을
생각해봐라
문통♬이
대문
살포
투표♬를
되었으며
안본
##중계
##해선
비둘
##녀♬를
##증♬은
임산부
##필드
닷컴
쓰리
아플
바뀌어
명백히
중진
싶음
맞아야
##미리
TK
이러는
절대♬적인
노회
범죄♬가
정상♬이
밸런
인치
문재인♬도
##ON
최고♬로
정산
##♬들인
끼리끼리
분석♬이
몰린
제니
순정
어쨋
그럭저럭
##LC
##♬도없고
날리는
진행됐다
위치♬가
##문제♬로
오크
자식♬들♬이
맛있게
총동원
정신차리고
모자랄
12년
##나오네
지능♬이
##학♬에
처장
없애야
깨끗이
♬의전
공개한
산군
전하는
하정
그려진
후반부
##률♬이
징용
아파서
나왓
##반도
##계약♬을
##되었으나
kbs
정신♬적♬으로
이강
거짓♬으로
##art
마귀
##작용♬이
때려잡
기획재
##위원장♬은
일본제품
용지
노태우
##잔치
애♬들♬한테
이연
챙긴
호날두
##벌♬을
##하고있
프란
내용이다
##진♬에
뭡니까
돈받고
쿼터
##믿고
파랑
제게
강화하고
세금♬만
언론♬과
뛰고
멈춘
##베트
##류♬의
선동♬에
엉엉
즐거워
상관없는
수♬의
##시키려고
자랑한다
##였는지
색상
기달
가릴
오셨
감소했다
피♬의
봤지만
씨♬와
5G
##과♬에
No
못해도
쪽♬을
일제강점
매립
##게♬는
정석
##화♬까지
달♬이
부엉
노원
정신줄
만들어놓고
##자니
야심
2500
돌보
숙련
##프레임
본편
불구속
바라보았다
있을듯
김은
희미
데려가
늘어난다
너♬한테
보병
##기반
금고
마마
##난리
##발전소
수순
##누르
통합진보
안정♬적♬으로
##김♬에
선택♬이
##식한
사전투표
##싶으면
이르렀다
240
크다고
##아닙
##거잖아
바♬에
##이번
부상♬으로
에프
졸업하고
##버는
시달리
찬반
♬이랑
리우
대회♬를
한마리
보류
##했겠지
베스트셀러
##♬여명♬이
듣보
##건♬에
##삼성
XX
틈♬을
매스
팝콘
똑같아
##극♬을
사실이라면
배워야
##85
1993년
걸림돌
##수있다
주목할
심층
장소♬를
죽어가는
DS
##30분
세분
단발
##자랑
우리♬와
##라인♬을
실시간♬으로
드러내고
테라
더럽다
이만큼
하시면
넘을
##노예
기인
텐트
하드웨어
중국♬한테
##여기
엉터리
기쁨♬을
쓰레기♬를
포즈
한국전쟁
개량
하던지
##벤션
돌아갔
아따
알아요
김한
##다오
생각이다
많은지
느냐고
##박♬을
##어떻게
##ec
머릿속♬에
##전용
##지키
기관총
##제♬와
##부처
##러블
청와대♬와
##인대
##커♬의
반등
해줬
출하
##♬따
도적
발목♬을
논의♬가
남동
신속히
##체스터
##IN
디자인♬을
반♬은
마이크♬로
죽이면
입다
##청문
몰살
박인
##눈썹
##사이다
자랐
인터넷♬을
괴수
상황♬과
파울
퍼스트
로즈
자가
익스
칭송
쪽빠리
선풍
안해서
일♬과
노란색
CNN
여고생
탐험
##문화♬를
국비
펭귄
가지♬로
세르
뜻한다
안부
기울이
도요타
일으키고
인자
이전♬에♬는
마요
촉발
도울
끊고
##망정
아베♬는
발견할
플레이♬를
햇볕
##워즈
지배하는
만나러
제지
돌♬을
수꼴
수식
강조하고
##♬만♬으로♬는
의료보험
초토
##공♬에
마을♬에
경보
안되요
생각하면서
부르짖
릴레이
나올때
많았던
인물♬들♬이
신지
봤을때
선수♬들
##티♬는
급변
그따
성당
윤석열♬이
흐름♬이
깜빡
감사♬를
심하
##을까봐
##타입
택시기사
시작♬을
##브레이
잘한다고
속한다
해줘
영화♬와
베댓이
##더기
시멘트
않는가
당부했다
이거♬보고
추궁
전투♬에서
##노인
정책♬의
인정한
기업♬으로
지적이다
헌재
잔혹
커피♬를
종북좌파
막히
정상♬화
저여자
판단할
고뇌
마을♬을
잘먹고
전학
확인하는
##타점
##첨단
TF
오디오
대국
접대
여운♬이
조형
부평
대다수♬가
경직
넘어간
##무늬
넣었다
일본♬에게
새끼♬는
성장할
하마
드래곤볼
전달하는
무대♬에서
성금
무제한
분위기♬는
##물며
##다♬의
커져
##탈♬을
한명♬도
찍소리♬도
##안하면
정상인
당대
그만두고
싸다
황당한
행사♬가
올해♬의
♬에겐
토트넘
피트
토마토
토종
한자리
죽이기
##거같아
호재
연기한
##비행
시절♬을
임인
기울여
개탄
바디
만남♬을
맞추어
놓치
##자라는
다국적
못한다면
국민♬의당
##5일
##청장
발표♬를
##리아♬의
칠레
##돌아가
작업♬에
좌빨♬들♬은
232
일고
규정♬에
마땅히
쓰는거
##오카
변호사♬가
미끼
제출한
파손
온실가스
얼룩
없었다는
##계좌
안봤
기대해
물어야
##67
뭘로
재밌어서
국감
폄하
죽었는데
방황
높인
알바♬들
스코어
##와야
##파는
사투
##부림
있는지♬를
DVD
외♬의
소설♬의
7회
맞출
항해
가정♬의
##리지말고
박사♬는
##나네
바꾸면
상승했다
흡입
##일♬과
생겼는데
강민
##가수
이도
국가♬로
여기♬서♬도
시키면
설치된
달했
국민♬도
판단하고
메이플
##회의♬에서
막강한
살아가고
편♬은
내시
특강
유쾌한
박보
새퀴
##심판
이년
동명
오르면
주어야
하룻밤
##마이
그래놓고
놈♬의
몰수
맥스
6회
##하지않고
AA
국공
공주영♬이
우리♬한테
앓고
분과
##아아아
국수
뒤질
##소리♬는
사건♬과
##총장♬이
신경쓰지
월등
키트
참가한
##안하는
능력♬과
가꾸
임종석
나이♬는
눌렀
염증
환기
나요
##♬쟁
쇼♬를
##미친
##저지
사람♬으로서
충주
정부탓
##빌딩
##퀘어
##000원
장관♬을
125
수십억
종건
선우
##카운
판매♬를
셰프
필사
##것임
박세
##순간♬에
##상가
##막♬이
동선
주며
조씨
분량♬도
이말년
##기소
애매한
##효과♬가
잠복
##것같은
광대
생각한다면
##oc
정치검찰
부분이다
두가지
무색
믹스
무섭고
약점♬을
하아
하는건지
계획♬은
봉투
##무♬가
어찌보면
가위
##이잖아요
선거때
가치♬는
구자
망친
개♬나소나
잡혔
싸웠
감빵
상관♬이
징그
##가족♬이
판결♬이
총리♬는
삼성♬의
난리♬를
몸♬과
중요한게
얘기하고
##시안
##미♬도
돌아온다
막힌
제목♬으로
누구♬한테
##랑께
허위사실
감독원
500만
날♬로
옳다고
기준♬에
둔갑
떠들고
넥슨
예기
관하여
완벽히
창업자
개혁♬이
했어도
버젓
문체
여는
벌일
불투
##것이지
마드리
눈치채
당선자
피력
생기지
도피
유시민♬이
욕♬도
##있다가
초반♬에♬는
##덕♬이
알아야지
스텝
심부
##수라
쓰이
##니스탄
피해자♬는
과거♬와
##천♬의
베댓♬을
자유♬와
국민세금♬으로
극심
##간담
기자♬님
##테면
콘텐츠♬를
##저♬도
게임♬에서
예요
나중♬엔
##이었지
특위
##으니까요
망각
할짓
부부♬의
##프리카
##나리
녹취
재일
하기♬로
먹으면서
언어♬를
##이여서
##규♬가
종교♬가
현주
투명하게
##좋겠다
##tbc
피해자♬의
##킨다
이즈
지방♬의
##비치
영화관♬에서
순진한
정도♬만
도는
설정♬을
자체♬로
##난다고
내부♬에서
실상
불허
##상태♬로
상담♬을
많았고
과대
최전
존재감
친구♬도
못받
욕먹을
원소
100명
이르면
##시즘
한채
안통
가는거
금세
50만
관객♬들♬의
행보♬를
발끈
##스♬도
불타
단체장
없으나
꽃♬이
글쓰
##무시한
##소니
내려와라
한기
##경기♬를
연락♬이
접할
사나이
박준
##32
##볼때
##ation
##더♬가
찍어서
분비
##블로
참여하고
##버전
##많네
구치
님♬들♬아
##라는건
순간♬을
비열한
활성♬화♬를
때릴
세우는
보도♬를
##주차
있기♬를
##모아
위치해
일상♬을
다음주♬에
하는걸
하민♬이
고민♬이
관철
웃기다
그룹♬의
하민
없어지고
아무생각
##터♬로
성능♬이
##공사♬가
국왕
정보통신
서민♬들♬은
##작가♬가
부응
점거
##부동산
떠난다
바람직한
김신
세련된
주장♬에
##정보♬를
남측
자괴
쪽발
영웅♬이
##net
송강
지탱
블룸버그
깨달았다
##터♬에
남이
소변
할머니♬는
3층
일한
뮤지션
구타
30만
애틋
BBC
##것♬들♬아
배경♬을
##기회♬에
선착순
과감히
믿음♬을
보여줘야
다가올
부적절
유부
##클리
♬이사장
닥쳐
한신
위기♬가
##구정
어느덧
##♬론♬이
노력♬은
증액
##자키
##득점
##등♬은
강압
##오피스
들어왔는데
내♬는
기준♬은
있었어
백번
##해지면서
해법
놓는
안타깝네요
열악
게으
아니었나
##올리고
##르♬를
450
##가짐
##터진
사투리
2편
114
방문객
향수
##했듯이
있었네
아사히
간만에
♬들♬아
관광지
오지네
리비아
##상수
##행♬이
산다는
건강♬이
황후
##부상
일해
실정이다
##짓는
안가고
내편
##노무
##공작
외국♬에
움직여
신문사
좋았어요
##명령
말기
하이라
##투데이
담합
무게♬를
당한다
대결♬을
연출♬을
겨울♬이
천년
훠훠
##이론
##희♬와
##표정
차갑
끓여
팀♬에
방송♬이
농어촌
가던
숨♬이
자판
##것같음
##운♬의
역♬의
성향♬을
인간♬적인
기사♬도
##심리
##공제
대리점
##구속
밟아
가진다
됐을
##왔다는
살아남은
##ee
여성♬들♬의
힘써
##영화♬는
행사♬는
태영
별점테러
색♬이
국책
어김없이
못했다는
정은♬이♬가
평가다
얻지
알았던
순실♬이
오스
감옥♬에서
해효
블록버스터
미카
평상시
고양이♬가
비교♬가
완치
수행하는
##려요
##회♬와
자선
##현대
한적
허물
##파업
##ia
엄한
저것♬도
우리은행
##부분♬에
슬기
탈바꿈
패륜
무상급식
##하우
##거늘
##포럼
사용♬을
##이기♬는
게이머
아람♬이
털어서
판정♬을
믿습니다
##겠소
##두♬를
##저♬가
파란색
전국♬에서
잘할
착륙
##서비스♬를
드럼
되요
넘♬들♬이
사용♬이
명성♬을
유류
사상♬이
노인♬들
대구♬는
안재
안돼요
무혐
포위
다주택
모씨
믿기
만들어내는
선수♬들♬은
두세
확대해
늙어
이정권
충동
##마루
여자♬로
복직
천명
맞추고
선택♬의
연속♬으로
안착
얘♬가
요인♬이
##지급
SA
설립된
잔디
##골♬이
양민
##공♬으로
봄♬이
##박사
일♬이나
찍었다
##레♬를
4분기
치를
없었기
거지같은
털어놨다
공영방송
유치한
세액
아동학
##중♬은
지켜보는
발언♬은
사람♬들♬만
하수인
수치다
줄어들고
의원♬들
쳐넣
현상♬은
EC
들으며
##새끼♬는
##카드♬를
색출
주는데
급속히
판다독
##가치♬가
싫음
##만드는
퍼붓
##율♬이
##는건가요
심리학
조사♬가
알았어
##HD
수백만
집계됐다
항소심
공포♬를
모이
##상황♬에
고영
##펙트
든든한
학사
##넘♬들♬이
15분
즉석
결말♬을
솟아
##음♬과
##설♬에
졸업한
미인
삽질
강추
공지영
있기♬도
포크
장면♬도
1997
실검
##아저씨
요구♬에
래퍼
향했다
학폭
교사♬가
웨스트
중후
통역
##글로
볼만한
얼굴♬만
여름♬에
툭하면
가능하다고
기대되는
테슬라
##모드
##없는거
않더라도
##거지♬로
무너지고
##품♬으로
리모델
공♬이
다자
기쁜
될거
##담♬이
아휴
방식이다
종교♬를
저♬랑
##안정
머물렀
당신♬에게
과거♬에♬는
미주
싸우면
뛰어넘는
만화♬에서
상점
아기♬를
몸통
류승
남산
##자신
문턱
##못차
베댓보고
##셨나요
꼭두
광화문♬에
이산화
삼성전자♬는
로열
2021년
잃을
3루
패러다임
과열
##스♬에게
니♬도
##지우지
영위
##무가
엄마♬도
누군가♬는
##틀랜드
동원해서
초창기
말그대로
반감
AM
부속
##♬자♬들♬의
♬스포
궁리
뒤흔
사고♬는
협동조합
소명
##유공
김도
존재할
호응♬을
해석♬이
늦추
커머스
같애요
일렉
물결
##데로
기대한다
연구♬에
쓸어버
읽기
##습♬을
##패드
차이♬로
2사
프라임
정♬이
원흉
해결될
욕망♬을
##동♬에서
##핑크
패권
가능하고
차근
한말
뭉가
유학♬생
너♬랑
동안♬의
얘길
##느끼
솔직한
김여
이승엽
대중♬의
괜찮고
아름답게
놔두고
당연하지
##시키려
공간♬에서
보여주지
챔피언스
변호사♬는
사실이지만
피하기
호불
시작♬은
트루
그리도
##와♬의
##아♬와
대구♬에서
현존
제시하고
안나온다
역세
모델♬이
플래시
##증상
공청
밥♬은
넘지
##하십니다
근무하는
홈플러스
##단위
누구인지
입당
##례♬로
가문♬의
외쳐
자리♬는
##OR
유능한
최순실♬이
무지한
통하지
고찰
투자♬에
재미♬로
한국전력
##수급
##언스
못쓰
##무♬는
우리♬들
##일♬만
내부♬에
아메리칸
##망이
##매♬가
다르지만
소소한
철면
##바겐
정권♬에서
플레이어♬가
1년간
신주
공정하게
카메
##세용
##est
있었기♬에
두명
잔잔한
맞아서
짝퉁
개발자
국민혈
교훈♬을
북한♬도
가다가
8회
지원자
모르겠음
##68
##였냐
##먹어서
저것
수비수
말♬들♬이
본거
더운
케빈
공통점
으므로
##킬로
욕♬이
다른게
극도♬로
응원하고
생활♬의
때론
무성
or
먹게
정조
하반
##하는것♬이
##악♬을
일방♬적인
못하나
어지간히
##야♬만
두께
3명♬이
거니까
벌어졌다
##랗게
처벌♬이
##1위
엄마♬와
생방송
최영
터졌
서강
무모
열렙
Lv
군대♬에서
애♬들♬을
고려하면
안찍
이간질
피하고
하하하
##체크
##주시고
출고
세로
사람♬처럼
##크래프트
뜨는
측면♬이
##그랬
골퍼
선심
멈추고
하얗
##주의♬로
유학생
##없애
##원장
저지르
선봉
승승
동메달
##냅시다
##하다며
울면서
##목사
멤버♬들♬이
내서
밀가루
보아도
달려가
##ea
##총선
왜놈
발발
칼리
유린
##변♬에
잦은
가네
##라♬도
상응
신의
지♬는
##화물
삼청
우릴
등장해
못사
모형
##안된다
수원시
뉴딜
영재
##장애인
##주시길
둘러싸고
박아
빈틈
남게
후반♬에
선물♬로
소비자♬의
작사
경쟁사
##친일
##있어야
비율♬을
일식
##LL
건물♬이
말하지만
안되네
책♬에
혐한
두꺼운
뒤진
비켜
힘♬에
되었지만
일지
인가요
그려져
##짓고
모르네
공신
지구♬가
사항♬을
##슬링
열연
캄보디아
조심해야
됐으면
방화
퍼주
이런데♬도
지♬들♬도
##한건데
##♬투성
환자♬를
##ra
연구♬가
전쟁♬은
mm
##영화♬의
조사♬에
그사람
그러는거
신봉
##오면서
많았는데
없었다면
##지역♬에서
법관
부탁♬을
방심
적나라
어깨♬에
설득력
앞뒤♬가
환급
##았으며
3조
동일하게
##설계
저녁♬에
숙명
경사
배척
##안다
재기
저렇
상속세
모이는
뉴스♬가
아름답고
단군
안했는데
##나가서
타겟
학점
선동하는
인력♬을
##묻은
민주통합♬당
포천
기업체
무릅
약혼
빌라
발생하고
측♬에서
무비
슬라이
##호♬에
아프고
눈가
머리♬로
갖은
키워드
대사♬는
일찍이
효율♬적♬으로
##맨♬은
없겠지만
지켜봐야
헌터
수목드라마
착하고
기술♬과
검찰♬과
##각각
##어졌다
입을
##인줄알
대답했다
단점♬이
불화
차츰
징글
배뎃이
일쑤
글♬에
##악♬의
모처럼
좃국
금성
##♬들이지
전편
다음♬엔
나왔다고
향기
판도
우려♬를
강자
한은
대표♬적♬으로
한눈♬에
시너
여포
필요해
우뚝
##이노
윤종
##슬♬이
치중
♬끼
힘들어서
좋아요♬를
외제
출판사
공간♬에
##보낸
새로고
##내♬로
별개
단가
무신
챙길
사실♬과
매뉴얼
미숙
멤버♬들♬은
줍니다
죽이려
자릿
현실♬로
저자♬는
걸리고
않겠다고
여겼
##현♬과
##익♬이
흘리며
최상위
만들자
능력♬으로
댓글♬들♬이
주인공♬으로
이나
것이므로
금메달♬을
지장
밥♬도
조인
##이던데
돌아와서
꼽히는
CB
지으며
보이기♬도
##74
계약서
연결되어
땀♬을
영화인
닦아
모은다
LG전
정하는
##극혐
##같지♬도
그♬들♬과
재밌음
고모
보기♬도
좋았을
왜그러
찾으러
얼어붙
저쪽
보이스
알수있
##로로
##불러
운동♬이
연관♬이
연애♬를
잠깐♬만
저따
처해
대우♬를
서비스♬가
신♬과
##팔이
##스트리트
서대문
여러분♬의
교활한
경각
분주
##하였던
작전♬을
자세♬가
##직♬으로
세금♬도
리본
제때
미필
##단♬에서
까다로운
될텐데
2위♬를
팩트는
##언제
만화♬로
다니던
♬선
##♬기
거부하고
##카메라
너♬에게
##코♬를
신속하게
안마
달했다
뭐죠
거♬를
줄고
무시한
##웃음
끼어들
현관
1991년
플랜트
열애
##하셨어요
##박물관
살아나
수입♬이
감사♬의
공식♬적인
기점♬으로
죽이려고
냉전
바치
끝♬도
다르다는
##폰♬을
좋아하
장♬의
토너
내쉬
원대
##할줄
국민♬적
한푼
글♬과
##관리♬를
일보
##판결
무리하게
##잇다
##푸드
개념♬은
##제공
독자♬가
범인♬이
내다봤다
순실
불통
의원♬을
다이스
##들인
몰랐는데
대부분♬을
삼천
##미세
동의♬를
기본♬으로
비키
욕♬은
##대우
순간♬이
##야♬는
##또는
##서니
보이네요
스쳐
어머니♬와
뇌♬에
임의
조사해
##팅♬을
굶주
한상
##서로
현대중공업
##데♬로
박원숭
선입
220
개소리♬를
##내♬는
옮겼
벌벌
왕조
대구♬에
정권바뀌
초♬에
##말♬대로
외고
오아
나쁘게
사실♬로
떠돌
##이라는거
##뭐냐
##작은
못봤
퇴사
애초♬부터
아바타
김학♬의
##입학
하시길
##미안
포격
농락
꽃길
바보♬가
날린
부흥
대표이사
맞추는
위협하는
무기징역
신기한
##오는데
##반하
로리
여자♬랑
나날
했을때
안되는거
목욕탕
녀석♬이
한결같이
웅진
정준영
높아지
수익♬률♬을
차례♬로
틀니
향하는
재밌네요
발톱
##실점♬으로
케미
줄인
본적♬이
바꿔라
선천
프로그램♬은
##놔서
캐시
음향
발표된
피부♬에
편♬의
한식
는다면
비교♬를
검색어
아이♬와
느낌♬의
곧장
동양대
직원♬들♬의
##살고
##야당
##인디
많네요
전쟁♬에서
나왔고
##선다
##정도♬의
대도시
빠지지
법학
압승
천둥
##래♬가
##턴트
프로그램♬의
80년
랭크
정보♬는
신진
추기
따라잡
틈새
##퍼드
예상하고
##몰라라
농축
##그♬가
##위원회♬에
경산
이철
정하고
뿌린
##있어도
생각해야
##♬자인
초기♬에♬는
다케
매달려
낫다고
선거♬가
거주하는
충분하다
미화
분식
##시키자
##마블
##바랍니다
8천
느려
##라고♬는
가격♬으로
못했다고
공개하고
사십
##것지
교대
##되는건
9년
##키♬를
걔♬네
차♬는
좌지우지
전략♬이
고민하고
##실패
도리어
않자
전해진다
배♬로
안그러
작가양반
예상치
취급하는
시대♬적
보이나
열람
안받
##온♬은
반말
자민♬당
##언정
러시아♬의
꼬라지♬가
적법
##레♬가
##하시죠
파동
망가뜨
덤벼
##기본
있고요
알고♬도
차이♬나
형태♬가
자녀♬를
리틀
휴먼
AC
열받
##물♬도
받기♬도
암만
챌린지
감성♬을
##두근
한탄
야쿠
맘충
갖가지
필요없고
한성
동원해
최저시급
쓰냐
한번♬은
##짜고
여행객
실패♬를
##나이트
1라운드
에요
해석♬을
##이♬처럼
왔을
불법♬으로
끝♬은
##공헌
데♬다가
막막
살균
6만
증말
방북
##니지
부산대
미지수
섬뜩
통틀어
##고객
허탈
능력♬에
지도자♬가
##라노
비누
보고싶은
자자
나올까
담보♬로
댓글다는
보는내내
대의원
##나르
그려주세요
##수다
쓰래기
유상증
때♬나
오케스트라
##질서
증가세
포즈♬를
알렸
차별♬화된
노스
다치
정차
##형태
##여행♬을
의원♬들♬이
##할거다
##월드컵
면♬을
아이유
심재
시나리오♬를
##츠♬를
허리♬를
말한마디
점진
참석자
##대가리♬가
순간♬부터
미터
폐간
공손
혜택♬이
##결승
그렸
초조
비서실
제목♬의
각계
부드럽게
##을려고
안들면
##터미널
##곡♬이
분명하게
많냐
책임지는
지호
싹쓸
##석♬으로
표현♬은
프로그래
이어가고
미친거
있니
객실
김밥
송중
실증
오메
힘♬도
워크숍
높지
##시나요
성격♬의
##법♬상
##재해
##쳤던
##업체인
##말자
##시키면서
상황인데
되어버린
말이에요
기념식
바보♬로
##달♬을
차차
##아침♬에
영유
그랬던
수라
정과장
##석♬과
멈췄
퇴직금
듣는다
줄리
나와요
알아볼
생각해보니
법규
결정한
받아들이지
안가는
##잔♬을
자체♬적♬으로
노부
하이라이트
##열차
아쉬움♬을
##일어나
방귀
성역
고유정
객관♬적
바꼈
짧고
친구♬와
허세
궁금증
7천
그돈
다변
조구
주문♬을
없는듯
##스트♬는
준우승
##문♬에서
##관계♬에
GP
임금♬을
위엄
##커♬는
말하는게
있겠죠
헌금
##♬마는
모른척
직속
호화
나타나서
군생활
♬의미♬가
##로움♬을
##만하다
오덕
일차
당신같은
라니
반공
전라도♬는
##끝나고
추신수
조사됐다
변하
마셔
##철♬의
당하지
모던
병♬에
자발♬적
##벌♬이
강타
효율♬적인
보실
보상금
비명
무너지는
집안♬의
이쪽♬은
핵무
업계♬에
가히
답♬은
덩치
사람인
1♬의
면치
출연진
동국
영화라
불과했다
결혼하고
판단하는
확대♬를
##상황♬을
수익♬이
싸워서
전성기
인간♬아
무기력
겉♬으로
마오
웨어
##너♬는
부♬가
어디♬에♬도
휴전
##구조♬가
없음♬을
##리♬에서
##질않
♬이사
목숨♬이
내성
정숙
들으면서
제시하는
생각해보
##보♬로
##구녕
장하
태권♬도
하잖아
동안♬에
##달창
##혜진
우위♬를
확보하고
고소득
청담
무고한
##♬화될
묻히
지랄♬을
터라
1988년
젠더
비용♬은
아싸
감동♬이
환경단체
꿰뚫
새마을
지울
##했잖아
활동가
비만
##98
카자
전현
도와주고
민족주의
변화♬의
가족♬들♬은
태도♬는
무기♬가
막론하고
잃었다
포수
퍼즐
중점♬을
##요소
##탄압
하시지
자백
나와라
밝고
일이지만
존재♬의
고종
군♬의
이과
1987년
목소리♬는
멋있어
복종
##재밋
한번더
##수없는
경우♬엔
리베
노조♬는
안생
히아
##리스♬가
선수♬의
시민♬들♬은
매크로
떨거지
메이드
수치♬가
전한다
리콜
##사항♬을
바르게
종특
계획♬에
나온다는
기자♬들♬이
펀드♬를
##음♬으로
괴롭히는
##빨아
쓰라고
받아도
결승전
내셔널
열악한
진흙
친구♬랑
끊이지
묘하게
##bp
있을지♬도
결정♬이
선정됐다
대일
대구시민
도지사
##사회♬에서
대가♬를
이쁘게
성남시
우루
나아갈
만지
찍힌
##시설♬이
주인♬은
작게
북유럽
자재
추한
민속
눈알
##마당
여군
그런다고
공부♬도
주먹♬을
라이더
##맞춤
힘들지
싫은데
한국인♬들
계속되는
미남
탄핵♬이
데드
대대♬적인
날씨♬가
신병
나는데
##박하고
당연하다
기억해
서점
올려야
흘리는
싶냐
거♬에
출연하는
맞대결
GT
##난거
동생♬을
##변호사
노르웨이
황제♬의
구분♬이
##범♬은
덮고
이것♬만
##었더니
암컷
##마케팅
노골♬적♬으로
악기
힘쓰
여파♬로
동등
등지
모양♬이
말하자
##인거야
재미있고
##앗다
나게
##기도
집단♬의
평♬이
콜로
체력♬을
정선
말았
수갑
성장하는
중♬에♬도
유영
넘었다
와중♬에♬도
하나님♬을
하겠네
##폭♬이
오빠♬는
죽음♬이
##락♬이
주저앉
##높은
##우파
왕창
##머리♬는
파문
따뜻하게
조금♬이나마
수긍
##라카
제안했다
시체♬를
##구매
웹툰♬의
차등
##합의
파우
패시브
##버둥
전화♬가
태양♬이
가든
악어
괜찮은데
대깨
올라가고
##도둑
코끼리
##권♬에서
죽인다
##자재
틀리
지주회사
따지는
후반기
정말이지
이모티콘
마다
보라색
##나갔다
간접♬적♬으로
두려운
양♬을
얽힌
조사해라
관상
의리
우째
파이프
체계♬를
외래
반대하고
양도세
반전♬이
벽돌
##발생
##케이스
교육♬에
##플렉스
##대통령♬이
보통♬은
맡기고
아씨
사업♬으로
최근♬의
주가♬는
##시리
잘어울
그때♬도
쓰레기♬는
채우고
강등
노년
인간♬적♬으로
난이도♬가
자꾸♬만
외치며
##스럽지
7억
♬님♬들
디바
사용했다
네이버웹툰
##었을까
내려야
벨트
##짜증
하는말
합당
따를
독재정권
운동장
##전기
##하마
격추
행위♬에
##청♬의
휴식♬을
무얼
내려놓고
##황♬이
넘들
9개
##창♬에
중상
속초
치료비
안민
엑스포
##류♬에
한유총
##스럽습니다
위촉
나타나지
하는거다
##사업♬은
낳아
따질
##증명
수익♬성
항일
직원♬들♬은
이때♬까지
인천공항
담배피
##버려서
1970
PP
##해지기
소리하네
비롯된
보금
적반하
캐주얼
##분명
도태
트윗
냉철
저사람
##입♬을
##제재
언플
기르
경리
FIFA
정체♬는
보지마
의무♬가
정신차려
##놨네
넘어갔
사태♬에
##수고
선생♬님♬은
핀테크
별♬이
중남
##취소
이정부
##테이
##타로
마을♬의
존재하고
잘해라
##애니
##워야
피부♬를
조두순
흘리고
2022
관객♬의
##♬인♬의
베리
일시♬적♬으로
아들♬과
여부♬에
##누가
무차별
좋겠다는
됩니까
저러니
콤보
폭♬이
이를테면
WTO
중요♬시
기대하는
시립
햄버거
환산
흥원
시대♬는
후보♬에
좋았습니다
분야♬를
만져
오가는
단어♬는
네임
민좃♬당
##청정
감추고
지게
결과다
대법관
##가도
맹활
고품
중추
총격
뿌리고
윤성
유지하기
종부
쓰는게
##덕분♬에
말해도
아쉽네요
대표♬와
꿈♬의
진정♬성
푸르
미친다
몽둥
저♬들♬이
황교안♬은
만끽
##협약
확보한
응원하는
발족
금융기관
사슴
조치♬가
주장한
##국가♬가
정당♬이
끝낸
미스터리
시작하면서
1989년
희한
천하♬의
거든요
의제
민심♬이
헬리
##♬한테♬만
것♬이다
간장
##길♬은
스즈
떠나라
서울중앙
신경써
누나♬가
##가드
마우스
됐습니다
종신
##현상
##오픈
양평
보편♬적
일♬의
인연♬이
입장♬은
공격♬적인
치루
냉정하게
쌓은
청량
멈추지
졸귀
나오니까
##체계♬를
##요원
흔들리
샘플
얘♬들
##무실
개념없는
전수조사
관객♬이
시군
틀♬을
1순위
대서
성우♬는
박근혜때
관심♬은
임창
##티지
김문수
기발
##값♬에
마니아
##먹지
그러니깐
씌우
경찰♬을
비판하고
기다렸다
됐다는
교직원
음식♬이
하물며
##줄알았는데
송영
##텍스
시작되었다
동갑
여기저기♬서
##빠는
속셈
빌런
플라이
풍력
예정된
과거♬로
##만장
##시는데
겉♬으로♬는
이스트
187
유유
참패
##구♬에서
관심사
종자♬들
바램
##창조
바른미래
더민주
대졸
반가운
판문점
예정이라고
나루토
트위터♬에
덤♬으로
없을까
##프♬와
##같은게
말씀♬이
말해주
적용되는
눈♬도
115
##우먼
존경하는
##것같습니다
김보
서울역
공부♬는
포로
행태♬를
인줄
존재♬는
감동♬적
찝찝
원룸
교육♬은
백억
쏘는
##이♬들♬아
교회♬를
자녀♬가
우체국
피겨
##이다가
금년
##놈♬도
찌르
기록해
테일
기운♬을
정쟁
영업♬을
중성
##암동
경영♬권
이회
##분♬들♬도
거센
받는데
촛불♬을
구성하는
안보여
LNG
##균형
측♬에
##수단
##아슬
추정되는
시동
인원♬이
치자
여실히
풀리
합친
##자리♬가
카더라
##BI
주니
파악할
서너
##매출
펼쳐지는
이꼴
쿤♬이
신정
못하지만
것♬에서
정신못차
치졸
생각나서
차종
젊은이♬들♬이
##슬쩍
조경
##♬틱
물건♬이
사범
비준
수준♬에서
나이♬도
##타수
미래♬에서
값♬이
산♬에
사랑스러운
불릴
##♬끼♬들
발가락
##해보세요
동탄
미치겠다
섬세한
피식
강조한
사과♬는
##러♬는
기원전
독자♬들♬은
삼척
우발
옳지
찾는다
##재정
영화였습니다
상승세♬를
자외선
주파수
성실히
결정♬에
생전
영향력♬이
정확히♬는
##케미칼
수제
##드름
##마법
직장♬을
미세먼지♬가
아낙
##손실
무슬림
스케줄
동물♬을
##억원♬이
지낼
편협
질♬이
푸는
종양
부르지
계십니다
그림♬도
##됐네
##드린다
못사는
결론♬이
한통
##새끼♬들♬은
정중
속♬은
수컷
패고
지역경제
##반♬은
##테르
##위병
손가락♬을
던졌다
상고
##벽♬을
설쳐
단추
비공개
홈페이지♬를
강제징용
저러는
국뽕
반♬쯤
##ill
발버둥
중국♬인♬들
죽었다고
예보
##헌날
버스♬를
##랑이
##였으니
말해라
불♬에
##♬들어
모닝
이상♬적인
확연히
##려던
무명
승승장구
##마스터
##구치
개원
다물고
스피커
##내용♬을
마취
다가온
질서♬를
사귀는
나뉜다
설리
##겠군요
껍질
그렇기에
번♬째♬는
우드
시위대
구장
출루
##전투
마진
넘어가면
말♬이되냐
##소유
##재난
그래서인지
40분
들어온다
파르
고민정
##밖♬의
울부
원작♬을
##잖냐
황제♬가
농단
IBK
있으신
적♬에게
##oT
투자할
##이름♬이
옥상
##사업♬의
이끌었다
##눈♬이
##ie
두부
당혹
자생
주옥
운수
개거품
##처♬는
##예♬를
##화♬부터
고군
괴롭힘
##ove
버젓이
소행
##만♬은
버금
좌빨♬들♬이
메데이아
각오♬를
##업계♬에
맡긴
조선인
##새끼야
A씨♬는
이준석
직격
뭐래
##하리
건넸
##도한
알레르기
물음
받쳐
##기한
그리기
B♬형
든지
세컨
구인
놓지
발판
아프간
##전설
있는거야
##깊은
궁금하네요
19세
안올라
섭섭
마리♬가
노래♬는
##TT
제발좀
돈♬의
##오세요
타선
있더라도
권역
규격
##체♬와
취업자
복지부
했죠
계집
##방안
정제
의자♬에
##나쁜
장로
공산당♬이
이천십
핀란드
흉기
##릴때
김씨♬는
존경합니다
인터넷♬에서
리라
배터
##어버리는
않으
도망가
안락사
고른
##이하
달라서
##체제♬를
소품
##OA
##과세
탈피
사용된
훔친
언급♬을
용의자
##대회♬를
차량♬이
##ight
가부장
지켜볼
자림♬이가
하지마세요
나흘
없으므로
이때♬부터
허가♬를
별반
##게이머
하소연
전한
보내서
한순간
말하면서
##이탈
인상♬이
to
볼♬만
적성
감추지
##합♬을
발인
단련
##오♬와
촉구했다
없겠지
##지옥
##점유
재능♬이
##천♬을
못들어
요동
퇴원
##후♬는
아웅
할꺼
자산♬을
IBM
##차근
희생♬을
객관적으로
맞는지
자비
##심♬도
남고
간사
##모임
칭찬♬을
##따리
블로그♬에
전경련
순회
이제라도
부문♬에서
##제이
♬님♬은
공립
의외로
웅장
유용한
##축구연맹
제품♬에
불거진
가치관
변환
수첩
일본가서
##맥스
##쾌한
하지♬는
대상♬에
##씨♬에게
성북
빼앗아
적용해
패드립
용의
마피아
팩트♬를
선뜻
##♬여명♬의
인근♬에
어벤져스
농도
상큼
##스트♬의
##채♬가
동전
채찍
행복해
하와이
황대표
셔틀
##놈♬아
업고
밀레
조선♬이
올리브
랍스타
전업
##불♬이
##진출
아슬아슬
요청♬을
꼭두각
##TI
##고있어
봐서♬는
트라이
금융위
2단계
고속도
분위기♬에
슈퍼스타
노예♬로
드라마♬로
##남♬의
강대국
거쳐야
백년
탐지
해외♬에
심장♬을
##시스템♬을
정의연
노비
이견
수억
지휘관
##겠냐고
##바운드
철면피
떠는
북한군
경쟁력♬이
촉촉
일이
정자
문빠♬들
##ES
몇주
공산♬화
경험한
전문가♬들♬이
##69
압력♬을
##퍼센
이번기회♬에
마스크♬가
장르♬의
물러서
최진
이호
♬에다
##제목
처리할
##사회♬에
이때♬는
습니까
##결한
들아
왜♬들
동맹국
열혈
먹고사는
##의견
캐릭터♬들♬이
문준
민선
홍영
성격♬은
양천
##댔다
갓오하
두달
약품
내면서
제동
업자
서비스업
잘못한거
값♬을
이며
다니지
이나라♬를
확보할
루카
미운
우측
##요미
원작♬의
사연♬을
정리하고
올라가면
자빠졌
알려지지
절대♬적♬으로
##물론
협의♬를
순매도
로스쿨
여튼
재앙♬아
무한한
난방
완수
매끄
있다는걸
뭔가요
조이
포함해서
늘어놓
가디언
삼는
2명♬이
##유통
##느냐는
아토
##직업
월급♬을
버락
자전거♬를
##유학
시연
꼬투리
끝낼
##회원
대왕
집안♬에
##콘서트
전세계♬에
##권분
##히트
돌아갔다
##하시오
이희
역할♬에
소홀히
##하더만
♬울
##속도♬가
##모든
야만
##로봇
대회♬에
보고서♬를
살♬을
##사단
동생♬은
국무부
자산관리
감사드립니다
일어나면
나왔네
부산♬의
모가지
뒤♬에♬도
밀접한
공수처♬가
넓게
세비
##퍼♬가
##말든
찾게
만나지
입술♬을
실패했다
교회♬에
##해야된다
노선♬을
AF
##수정
실수요
##범♬을
방사선
버려진
악한
##서♬로
괴물♬이
민주당♬도
참지
리즈♬가
정의♬와
복장
손녀
입지♬를
관해서
왔어요
설립한
줄어드는
해당한다
논리♬는
독립♬을
아무렇지
불행한
##게더
미안한
정면♬으로
상경
민우
이래저래
어선
멈출
거란
##하는건데
거시기
극♬적인
깃발
##티♬의
무법
굳게
##♬데로
♬성♬과
포진
##가져
재산♬이
책♬에서
##했기♬에
모션
보내면
적절하게
##78
작성한
성모
마스크♬는
##분투
분♬의
휴가♬를
헤르
##이었네
조력
보시는
##침♬이
하루♬도
차근차근
출품
##스러웠
이론♬을
정도♬껏
사법개혁
무지개
동남아시아
것이라면
자르고
##탄소
기대♬에
##지부
빈부
흔적♬이
박일
코카
반영한
이문
기회♬로
고유♬의
국보
##세다
공용
날♬에
31번
네요
OS
고갈
고려할
##하기♬엔
시장경제
BGM
세번
해독
베드
소중히
##욕장
사항♬은
##거리♬로
뇌♬를
애국자
##원수
거♬랑
느끼며
심각하다
내린다
보더라도
##점♬도
파이낸
In
범위♬가
냄새♬를
여운
##해주셔서
##원♬짜리
##ctv
떡밥♬이
머릿속
보였던
교재
5개월
꼬리♬를
성주
카테고
유동♬성
안도
##상공
조국♬도
어설프
음주운
받았을
돌린
감정♬의
욕구♬를
살살
홍익
##입♬으로
이규
들어가게
##500
상황이었다
효과♬도
시끄럽게
총장♬이
##보는거
##안됨
지원한다
##머님
토론♬을
졸업♬생
당당한
여기♬에♬는
##직♬은
잔여
세계대전
##은혜
뒤따
행렬
공감대
증후군
전하고
##크림
배꼽
줄이기
공휴
##OD
##그마한
정적
국유
##현장
걱정된다
밖♬에♬도
양손
달할
신념♬을
문재앙♬의
♬쫌
좁혀
긁어
거짓말♬로
섰다
이용하면
##마련
성태
와일드
1승
♬가해
국회♬를
안뽑
박정희♬가
시내버스
##교과
출시된
처리하는
남자♬로
양사
##눈치
정치♬의
흡혈
맡길
슬픔♬을
203
##사회♬를
광부
OC
이러니까
참된
표현하고
들어설
지금♬까지♬의
아까워
기회♬는
내일♬은
##말♬만
돋보이
마지
법원♬이
연소
마땅한
선보이는
오디
있는걸
돌아오지
고생♬이
선후
야당♬은
이아
둘중
부족해서
콘서
##네♬가
홍진
해결해야
성조
긴장♬을
다쳤
팔찌
채울
화면♬에
진모리♬가
##타♬와
##모비스
예전♬의
이룬다
발언♬이
경제♬적인
의거
박차
신우
마도
풍선
##처♬에
돌아보
극복하고
로이터
이태원
붙이는
체온
##감각
나서야
낮고
장르♬가
먼저다
##자전
##연예
원한
첨부
해금
매일매일
##가는구나
고통♬이
결정♬적
움직이고
군대♬에
멜♬로
##했음♬에♬도
you
출소
##리스♬는
실시하고
##판♬에서♬는
먹먹
증가하는
몰아붙
##쇼♬를
들어오고
가이드라인
줄어드
##og
귀여움
와중
떨어지지
##까는
압구정
연결하는
투명한
첩보
조공
##엄마♬가
##칭♬을
##♬우
사회♬적인
접근성
##대학원
덤비
사실♬도
NPC
가깝게
출세
안하나
이루어지지
인디언
흐른
재촉
점♬과
지롤
팬♬이
##기며
##랄까봐
가정♬에서
열망
가오
배기
조선♬은
이기면
사귀고
동물♬의
##사♬들♬의
팔레스타인
##매수
##리는건
다우
이한
채운
##인베스트먼트
장차
시각♬을
회의실
점유♬율
기자야
던질
벼랑
자연♬을
##권♬은
##의원♬은
##if
박사모
소고기
만나기
미♬화
이곳♬을
##인격
마츠
멋있는
뭐해
출격
##하시지
무력♬화
##♬들이라
실질♬적
그♬들♬만♬의
다분
스타일♬이
##ang
하는건데
다름없
산다고
##학년도
증발
##작인
있더라
자원♬을
대용
##민주♬화
듣보잡
눈먼
콜롬
##이리
결핍
1000만
##너♬가
승소
인류♬가
삼겹살
무시할
있다면서
지나서
원칙♬에
소통♬을
개꿀잼
민주주의♬의
급격한
강기
선보이며
안나왔
깜놀
##릴듯
합리♬화
노하우♬를
외교♬를
##교류
##버릇
아난
계몽
사회공헌
선수♬들♬을
##바르
부녀
토벌
데미지♬가
놓친
##터♬에서
옳다
##사과
주진
##쩝쩝
캐릭터♬에
따위♬는
그러면서♬도
주려고
아프가
뭐여
선수♬로
살펴볼
##이가
##청년
왔다는
##량♬으로
찰스
##동♬과
실형
없거나
스케일
##토막
♬치고
한컷
분수
##그제
부족해
##인치
##킹♬을
이루어지고
해커
과제♬를
데리
##부분♬을
안나와
성대
알겠네
강다니엘
손바닥♬으로
##떨어지
대♬를
사악
성수
돌이켜
활발하게
집회♬를
신중하게
안보는
다방
성♬은
모모
##조♬와
신기하다
동감
본다는
비롯하여
##경♬과
반쪽
셋♬이
주♬를
광역시
양주
시도♬를
진영♬이
##♬별♬로♬는
새로고침
발현
터지면
고속도♬로
##IST
보구
관련자
올려놓고
대내
민병
안정된
뾰족
서적
잠들
새끼♬들♬아
움켜
##노잼
구동
수십년
풀어나
일각♬에서♬는
알린
수사♬는
부인♬은
##해줬
공명
문성
##TN
병원♬으로
공약♬을
제작된
견해♬를
♬하고♬는
어쩌냐
유태
그녀♬와
유기농
##용♬의
넷플릭스
관객♬들♬에게
스타일♬의
##할게요
♬화♬가
주셔서
##하다보니
저감
보시고
컴퍼니
##화♬도
일탈
##일가
의도♬는
트랜스
아기♬가
아는척
월스트리트
##기업♬에
결혼해서
♬의미♬를
통하
하고자
유정
##식당
존속
소총
너♬네♬는
학생부
하는거냐
##원지
구하고
사랑♬으로
##고발
##국♬당
개발♬이
창궐
전폭
조망
고위급
어디♬에서
재조
##디다
이누
보여주세요
LG전자
사람이
마음속♬에
선동하고
현대모비스
두면
안젤
일류
기웃
현대♬의
리버풀
출신♬이
대꾸
험한
10배
탄생한
사람♬들♬에
독립운동가
한솔
호가
##잡아서
컴퓨터♬를
##협의
느낌♬으로
개발해
고위공
##워치
못참
넘기는
신쿠
편♬에서
급진
중고차
손익
군사♬적
똥인지
##♬풍
아쉬웠
액세서
작가♬도
경제정책
왕♬은
동성애자
박스오피스
울나라
나스
더라
경관
엔젤
사업가
줄어든다
경감
것♬보다♬는
굽신
신빙
##합♬이
고민하는
##할거면
위상♬을
##서♬에서
실상♬은
주는게
질의
##하기♬보다♬는
머냐
되었는지
그치지
애착
진행♬을
경험♬과
거부하는
이어갔다
아무렇지♬도
##안나
결사
때문일
장소♬에
저작♬권
추월
금융당
성숙한
다채로운
리처드
바라볼
뻔하다
영화이다
##바♬는
수상했다
외국인♬이
위배
노회찬
##버렸네
가려고
##베리아
따까리
씻고
궤변
명실
제기한
오래오래
심신
##선진
멋져
이번편
그돈♬으로
##하려다
문헌
##포지
화면♬을
##49
이제껏
가전제품
##좋아하는
오정
첨♬에
서태
서인
우리♬보다
재판부♬는
외환은행
슬리
홧팅
##쩌구
달랐다
##마♬와
깔끔한
##고♬로
##출동
냉각
##호♬로
충실한
##바른
연구♬는
평온
늦어도
수류
외교관
김인
쓴다고
##거린다
##♬권♬에서
오시
##천♬은
참배
연행
적금
박무
##군사
한미동맹
상대♬에게
표결
1970년대
강화하는
##문제♬에
발열
필기
날♬마다
블♬루
##가로
중인데
들어가야
##앤젤
Re
연습생
번거
저것♬들♬은
사냥♬꾼
가창
EP
양♬은
창원시
전문가♬가
조선일보♬는
유대인
##민♬들
여중
피하는
##닷컴
시선♬으로
보호하는
감춰
어릴적
유급
##언더
욕하면서
선생♬님♬의
##해야죠
병력♬을
대신해
민주주의♬가
떡볶이
지켜본
블랙홀
이뤄져야
##곡동
##VE
감당할
통로
용도♬로
##ho
합격자
##네스코
자격♬도
물리♬적
입성
##박질
없을듯
##생긴
아련
이름♬에
처우
토요
할애
##오냐
약해
브라이언
다음♬의
보자면
살다살다
공교
높아졌다
수중
호흡기
갇힌
누드
체코
할거면
최고경영
공로
아빠♬를
##는거♬는
평행
예술♬의
가리키
진태진
멘붕
##우유
드러운
방침♬을
못지않게
클라이
밝히지
갔던
브랜
불복
상황♬으로
상승한
미러
구태
수퍼
없이♬도
아날
사사
기사♬화
계시는
##혁♬의
수필
이유없이
##키♬와
##청소
엘프
없어지는
##림♬에
박기
무너질
##음료
발견했다
세대♬가
가라고
번식
저♬와
생각이
##꾸라지
한태
틀림없다
방법♬에
##대면서
맞선
막무가
부모♬도
아세요
자연히
인사♬가
##엘♬이
아래♬에서
안치
지나♬도
휴직
마력
유라
회화
어벙
조우
전례
##1000
나야
신경안
주술
##의학
쓰네
아니게
끝판왕
철새
배임
패턴♬이
압류
기종
북방
태생
요청했다
짜여
결렬
영화♬나
##거♬로
코스트
마음가짐
밤낮
말고♬도
국격
허수아
강진
비전♬을
##기라도
누락
제작진♬은
##마리♬를
잘생겼다
당기순
빡대가리
##갈수록
IoT
설치는
##차원♬에서
부패한
성장률
연결된
답다
##아직
구봉
우여
4시간
102
내지♬는
반♬도
##가격♬이
국익♬을
택한
영화♬에서♬는
그만해
성장♬이
수준인
##안함
명♬으로
##♬님♬들♬이
##불능
고운
탐정
구비
폐암
고귀
구제역
모로
##사회♬가
불법♬을
##남기
유모
##다니다
매혹
##발전♬을
당해서
현저히
5위
##욱♬은
##책♬에
했잖아
회장♬을
거인
##습니
##밤♬에
##♬으로♬의
하였고
제공해
하느라
그랑
선♬에서
팬♬들♬을
##보이고
이상인
부숴
##대구
이르게
##간접
해야하는
수락
바그
##이었나
##3000
깊숙이
바랬
흐르고
게이지
했어야지
##수용
로스앤젤
한옥
하우
걸까요
여정
##종일관
모양♬으로
##싶네요
##렐라
역사♬적인
되살아
아니까
경계♬를
평화♬의
실패♬로
##루미늄
이것♬들♬아
##루♬는
##들♬을
한국인♬의
사랑한다
##모습♬이
##생각♬은
공장♬에서
##르륵
쉴드치는
##어서♬는
혈안♬이
##든데
단계♬에
오라고
바뀌지
친다
##것냐
아님♬을
##예금
한편♬으로
이미지♬로
커졌다
##사업♬이
부메
불♬의
##전♬도
임명한
##비용♬을
##비판
한번♬이라도
구멍♬이
은지
퍼지
말살
결혼♬은
연명
대나무
##달♬에
아리랑
알아듣
##루엣
불상
사진♬에
##귀♬가
태양♬의
인정해
티♬가
초인
##담보
니코
욕심♬을
수사관
맨체스터
자멸
주십시오
들어요
오스카
지적♬을
들어가기
정장
정치인♬들♬은
직원♬을
촛불집회
자마자
치며
52시간
씨티
5만원
##문♬과
잠입
남궁
딸♬과
♬하
곰팡
지도♬를
미쳤네
##매장
취하는
준결승
되므로
기♬레기♬들
##보고싶다
벌인다
미르
##죽일
길드
앉았다
##절차
##♬대로라면
저♬들♬은
좋아하는거
위♬와
그런식♬으로
##슈누
직종
종말
##하고있다
전♬과
그러고보니
##디자인
심플
##저♬의
만능
으아
기관♬이
웃는다
살고있
지지한다
꺾고
♬하♬에
분♬을
OK
변모
미수
불우
##리조
녹여
내려서
40♬여
술먹고
이네
올라가서
이상하지
공급♬이
인정한다
쌍욕
히든
주민♬들
##차지
통합진보당
마동
사수
##수염
이루어진다
##구장창
해태
##꺼라
격렬
개발하고
노력♬으로
##자금♬을
흔들리는
산물
찍으면
각색
##플라
리사
아세안
모든것♬을
인상♬적인
##공동체
팔꿈
테러리스트
금융위기
부산♬에서
노화
##침해
그친
진열
미군♬이
색깔♬이
플로리다
신데
##내리는
##더♬는
시종일관
말합니다
미국♬이나
걸리지
돼지♬가
186
크다는
대우조선
리츠
파병
미묘한
자주국
찬양하는
보유세
사장♬의
꼬우면
과감하게
기록♬은
##보이는데
길이다
주황
목소리♬도
장본인
양♬도
당정
유로존
NHN
##다섯
시기♬는
인민재판
경험하지
기분탓
유력한
과거♬가
법한
안감
##제도♬가
제목♬만
참견
저년
##있죠
##링크
본보
감정♬적♬으로
대기업♬이
화랑
차선
줄여야
##권분립
허영
군인♬들
개연♬성♬이
##국수
##하고있네
중장기
시각♬이
아샤♬가
느리
##되므로
##전인
프로세스
개봉♬을
##자한
언젠간
생각난
건물주
서리
하루만♬에
떠받
##나왔다
합쳐서
##ame
안했다
##리스타
신성한
##느껴
결별
뿐♬더러
##이라고♬도
파나
시네마
고맙습니다
유네스코
##치던
여자♬한테
저지르는
싣고
형량
순수하게
뉘앙
길♬에서
세일즈
몸소
동반자
##단체♬가
자살한
AK
명박
하나이다
답게
무형
그동안♬의
세심
옛날♬부터
전화♬로
이정도♬로
승인♬을
욕먹는
집결
##리스♬의
2라운드
니♬네♬들
발생하지
김홍
아프가니스탄
쟁취
기자간담
이혜
한주
방송♬에서♬는
개천
##권♬의
##내용♬이
자국♬의
흐름♬에
속여
인물♬들♬의
자식♬들♬은
우르르
굶어죽
몸담
내려오는
장소♬에서
어떨지
##주니까
이냐
받았다는
##겄다
무슨일
허니
이목♬을
이유♬에서
일본♬이랑
경품
웹툰♬도
고혈압
10초
독재♬를
사고방식
던졌
신촌
아네
울부짖
변하고
반증
이전♬부터
##♬층♬이
##룡♬의
맡았던
깔깔
끼친
##여자♬는
##♬형♬의
아테네
다니면
요구한
##나봐요
강국
빼박
비축
##왕자
받아야지
유저♬들♬이
연예인♬들
침대♬에
안써
뽑아야
여♬가
초선
##농구
지저분
피부♬가
수요♬를
안되나요
유방암
가래
##자♬들♬과
임금♬이
국론
내놓았다
남아서
백날
놓을
##학회
100개
가져와
커넥
만년
##국가♬로
##학력
비대위
##린게
모빌리티
사이코패스
소식통
강박
점수♬가
##가을
광복절
드라마♬가
##앗는데
나쁘다
팔리
##목♬에
타이틀곡
계실
백작
업무♬에
저기♬에
사례♬는
임팩트
수뇌
##파서
깨지
최첨단
해당되는
처절
역활
담았다
뒷북
홈쇼핑
잘생겨
고칠
10번
주인♬을
##달러♬를
윤지오
##예측
##나물
포르노
봤더니
공격할
흐트
지지율♬은
##♬론♬적
사토
궤도
##난♬이
문제임
부통령
리얼리티
##대국
##좋은데
우러
없앤
##연장
##♬선가
이거지
만두
1군
대남
##기간♬을
굉장한
원한다면
##47
웃긴게
얼핏
##브♬를
##딱지
버거
못했는데
저♬한테
생각하지만
봐줄
포커
##나♬네
조윤
공권력
용기♬가
안됐
누군가♬에게
계략
생각해라
탐방
빙의
상품♬이
토착왜구♬들
OOO♬이
부리고
이지만
예비군
서울♬은
반반
금액♬이
속삭
럭키짱
카를
파격♬적인
납득♬이
차력
거실
과외
앞머리
짤라
밥상
##거♬랑
논문♬을
##포스
하프
명언
가마
미스테
##인다고
말씀하셨
자료♬가
##AC
언뜻
집요
##좀비
압박♬을
연기♬로
##자♬만
##행복
포기할
재밋게
양재
##업체♬가
##냈고
겪게
바비
광고♬가
좋아한다고
##건설♬은
브릴
오키나와
##변화
나왔습니다
OOO아
##회사♬를
##♬들♬한테♬는
우여곡
##오버
뭐하고
분별
##MBC
##을수♬도
용서♬를
스토리♬와
간병
자존심♬을
화끈
##로남불
볼트
펀드♬는
됐지
임박
입어
누님
사람이면
될것이다
보고♬를
##레인지
##버튼
요번
사진찍
예전♬엔
##해짐
법대
악마♬가
##았으나
이화여대
소설♬은
얽혀
탈레
##이구요
씌워
##PM
부♬를
산지
세율
겨울♬에
잖아
이사♬를
인권♬이
금리♬를
##보♬에
##곳♬의
##시키는데
고군분투
참아
##조장
떠드
돕기
단체♬가
천장
웃돌
당하면
레이싱
선언했다
말없이
걸음♬을
입었다
##게♬요
보직
II
되는거야
나타낸
##중지
##총장♬은
레이디
강탈
헬멧
나기
주구장창
##면♬의
인생♬에서
독♬도
총장♬은
등장할
보디
아직♬까지♬도
등장하고
이르렀
공평하게
부작용♬이
##았기
사람♬보다
##마시
설명한다
최종♬적♬으로
노인♬이
낱낱
한순간♬에
끝나는
허구헌날
##을것
어쨋든
금리♬가
##oy
느그♬들
힘겹
넘기고
친일매국
친구♬로
##다는데
과감한
##선물
보았습니다
##열면
최상♬의
싸워야
일축
현수막
물갈이
봤나
##아라비아
시절♬에♬는
기자♬의
##2천
형♬을
여성♬들♬은
아역
채널♬을
135
당선된
##겠다는데
생명체
사러
지향하는
부모♬와
##부분♬은
설날
##빠지게
먹여살
의사♬는
##pg
일해서
##니카
실루엣
볼륨
공격력♬이
무릎꿇
20억
올려라
스팀
전단
있는거다
진출한
사칭
##때문이다
##싶어요
돼지고기
230
독자♬적인
머신
사춘기
죽자
그칠
무관심
압니다
턱없이
##사이드
못본
자리잡고
나주
면모
봤어
쫒아
개누리
교내
데♬가
제스
##우니까
##터널
출연♬을
럭셔
장신
진솔
서류♬를
1위♬로
일인가
부탁해
3컷
남로
##46
이런기사
나오는지
이관
스코틀랜드
설문조사
있냐고
이뤄졌다
##징글
궁금합니다
어색한
달라붙
자슥
들었을
나경원♬은
##구야
##대니
마사지
보네요
내뿜
♬에서♬도
##더미
##구름
유서
질타
요코
범죄자♬가
##대갈
##칩니다
기수
알루미늄
제기되고
조재
##민♬들♬이
경질
말좀
갑작스런
물♬의
쓰일
운영♬에
##먹는다
확보♬를
Mnet
##란트
연차
여하
보인다는
빨대
웨이브
받았지만
##휴가
식상
이랜드
나인
호구♬로
그리고♬는
정반대
시키지
미츠
저런식♬으로
드러날
재밌네
##모르게
##챙겨
이바지
시크릿
##간지
타서
##세스
끊이
미역
레벨♬이
때때로
떴다
외압
윤곽
가두
해주지
달라졌
##활동♬에
킬링
해선
여자♬에게
##밖♬으로
선거♬는
낙후
발걸
농지
뇌피셜
느라
본연♬의
##지은
정신♬적인
##죽여
고분
검찰♬에서
아닐텐데
2등
격상
##유출
느슨
##RI
##♬거나
보여야
##문화♬의
##♬화해
5초
감각♬을
힘♬과
재앙♬이가
피해자♬를
##받아라
계파
산♬이
2달
어우러져
##방법♬을
머리♬도
심도
프랭
##하고있는
주민등록
거장
6억
##면♬으로
투자해
기사♬의
반정부
정치♬꾼
##읍시다
로렌
BL
##맞게
##사실♬을
뒷담
예상했다
뭉개
##살♬의
##당♬으로
##걸요
액션♬을
작품♬도
비굴
말♬부터
후세
반복되는
민주당♬만
모양♬을
사우디아라비아
##방어
##덩어
못하는게
가방♬을
다지
짱짱
여친♬이
문재인♬이♬가
비판♬은
삥뜯
잖아요
연비
##옷♬을
##♬여명
경험해보지
주위♬의
이미지♬는
185
NO
##더♬를
상봉
손아
예년
쇼크
혼내
설치해
크리스탈
초대♬형
스토리♬로
까마귀
않으려고
연안
증강
따라서♬는
감사하고
차릴
축하드립니다
방콕
##계산
아이♬들♬도
##본부♬는
연기자
방안♬이
##퇴직
고생♬을
자신♬감
지구♬에
분량♬을
주어진다
만행
아프게
리치
##항♬에
이야기하고
제공한
박현
담론
높아질
할래
의원♬들♬은
본질♬은
000원
자신♬들♬을
형♬은
##설치
드린
나부
왕실
저축은행
예상♬을
##원♬들
코♬가
운동♬은
님♬이
##되지♬는
개박살
일본♬에서♬는
쩝쩝이
##매한
전통♬을
수단♬을
클리셰
##보이지
##강화
넘으면
되는건가
노릇♬을
유럽♬에서
서영
넓고
장기♬적인
통지
논란♬에
엎드려
바른말
뜨거
##이더라
무도
사뭇
돌려서
모으는
위해서다
##저♬를
이내♬에
숨지
##기관♬에
와야
얘기할
빠진다
##리케
##랭이
당나라
##하셔야
인간♬에
##바라기
먹었
컨벤션
##배♬의
어미
중심♬을
아랑곳
스파이더맨
무책임한
액수
마린
중시하는
반포
번영
불순
공연장
인물♬들
물♬로
사연♬이
##번호♬를
##사고♬가
학교폭력
보고♬는
##오네
없애는
배트맨
##커니즘
송구
개돼지♬들♬아
갔으면
비상식
보냐
맘카페
흩어져
막은
표현해
영업이익♬은
##이이
연임
외노
##거진
원상
사재기
##있다면
일이고
고스톱
안중근
사용하기
머라
##ate
한양대
도구♬로
##일자리
정과
따온
죄책감
하락했다
장영
지식♬과
고루
##♬도없는
ELS
##투사
돌아가서
침♬을
필요♬성♬이
것♬까지
사귈
홍석
##소시효
델타
뒤♬의
소원♬을
수사♬권
무시무시한
강조한다
해왔
커리
확고한
디자인♬이
약사
##들리
적자♬를
##오일
폭스바겐
교부
상품♬의
귀가
장면♬에
##드로
하길
##마세요
않거나
편하
저해
결함
##잇는데
123
종가
형성된
사이♬에♬는
필라
##계♬는
토왜
날조
1단계
막판♬에
수단♬이
옮길
가해자♬가
일본♬산
##인터넷
분석해
경력♬이
##거리지
직영
무소불
상여
조동
순간♬적♬으로
퇴치
꾸민
##할수♬가
부위원장
꿈♬에서
절박
사고♬의
슈퍼맨
##탱크
진급
보여줘
군♬이
이학
당면
나오는게
흘린
사태♬로
허덕
이어나
입니까
젖어
어학
외로운
제재♬를
함께한
5점
데♬에♬는
##♬롤
신음
꼬맹
##이였던
분♬들♬을
개개인♬의
드랍
이공
대니
기술♬적
때문이라는
##플랜
다져
상술
일리
랭커
와도
멀다
이어폰
분량♬은
어지럽
김모
담당하고
성서
##데♬다
떠오른다
간격
##레스테
방향♬이
투사
대학♬이
동영상♬을
♬에효
폭발♬적인
##입장♬에서
##마르
이런일
남아공
아웃도어
팔려
면밀히
신나
##량♬에
##하시는데
##고♬와
정도이다
##종자
##파♬와
약속한
128
사회악
보통♬의
그깟
말년
jtbc
명소
##카와
서포터
연이어
3개♬의
##커피
위력♬을
##진♬으로
##ack
이윽
달성했다
소식♬에
사람이라
앨런
##되기♬를
##설♬은
눈♬에서
똥♬만
긴축
호출
경영학
아날로그
##았는지
문법
바울
생겨난
묘사♬가
연신
사진S
있을거
하사
어따
자료♬에
하루아침♬에
##all
일으켰다
##97
##움♬과
빠짐없이
손가락♬으로
제한♬이
##이랍시고
필자♬는
올려주세요
나눠서
편가르기
##훈련♬을
7만
##가치♬를
수입♬을
##던데요
##코♬와
아레나
나가라
할말♬은
아쉽지만
그때♬까지
백두산
진해
악성
##보겠습니다
추악
공소시효
행적
##백♬이
##찮게
아깝지
그거♬는
되지않
보편♬적인
내려앉
##TC
꺼려
판매♬가
기괴
소리♬나
그러기
갈구
♬에♬도
4가지
안한다고
분노♬의
친인척
자본금
숫자♬를
챙겼
##망♬에
정보♬의
부탁드려요
안읽
두껍
강♬을
간소
골치
아니면서
버튼♬을
##지역♬은
세탁기
궁금한게
속지
짓거리♬를
문서♬를
##하기위해
뒤섞
인재♬가
에로
일품
흠집
##연애
비자금
선택♬은
아유
통통
후드
##말종
오늘날♬의
LP
보도♬가
물량♬이
청순
아낌
오찬
가면♬을
고공
정태
##작가♬님♬이
안경♬을
체계♬적인
알겠지
방식♬에
##난♬을
소개하는
카나
완장
##로♬에서
1994
주체♬가
##가동
cctv
가정♬이
이상한거
재검토
댓글♬만
여고
좋겠는데
놀랍다
태우
워커
화제다
것♬뿐
홍삼
장세
말지
의미다
##복♬은
해저
여적
부정하고
태도♬로
##든다고
저금리
돼지♬로
어업
이분♬은
슬프고
앵무새
지중
##거면서
아모레
##분♬도
바다♬로
##공포
자동차♬를
sk
교인
학급
좌측
##동기
중국♬이나
올리며
초록색
이새
존나게
발휘할
확실하다
옮기는
놓으면
헌정
A♬형
싸우지
국내♬에서♬는
경희대
많구나
##버리자
승려
똑똑히
온다고
##교육♬이
##tv
경이
##상♬도
사람♬에게♬는
유리하게
못마
진천
아파트♬가
놔두
친구♬들♬을
##절♬이
##끼야
매칭
안나온
신문♬에
심사♬를
끊임없는
##이랄까
노무현♬이
st
경멸
슬레이
싸늘
일본♬보다
대선후보
다니다
수치♬를
조직♬에
고퀄
놀라서
흔드는
##2일
##운♬은
추진해
##되었기
낄낄
우리♬들♬은
콩밥
물어보고
레어
박차♬를
##정비
외모♬가
##간거
공간♬으로
나자
때리면
뒤틀
##카르
##농협
문화♬와
돌아섰
법안♬을
##없네요
♬도와
##이라지만
문경
대유
##호식
구속수사
도전하는
토마스
##기사♬가
##이어도
아니어도
흑흑
##미는
있구만
행장
박유
##방안♬을
잔류
##일수
테크놀
이북
각하
퍼시픽
버리면
##끝♬에
발각
본점
##시♬에서
싸움♬에서
변기
##개정
##족♬은
남자♬에게
걱정이다
##뚜기
땅콩
장♬이
##락♬에
돌발
뒤돌아
재료♬를
##명♬이나
장르♬를
##매체
##레옹
그♬로부터
되새
악♬을
시뮬레이션
부끄럽지
잡는다
##손♬이
허다
대는
##겟냐
나오자
후유증
지잡
대대로
##가야지
오도
##일치
있어서♬도
빠지면
##줄까
공무원♬은
##양아치
체인지
##수선
이기지
놀래
##답지
명분♬이
편인데
##센터♬가
품♬에
돌봐
법이다
고정관념
##디스크
아끼는
이윽고
##합리
공사♬가
아닌게
멤버♬들♬의
봉준호
장사♬를
닌텐
토익
열중
내전
단독♬으로
굵은
##리아♬는
높아서
용접
도전♬을
##질♬은
좋으
##데♬가
##보던
##면제
##지향
##ne
답답해
광화문♬에서
##소환
호감♬을
확인했다
보았던
못생겼
올라갔다
달해
계기♬를
모녀
##투자♬를
##겟지만
추종하는
공기♬가
수행할
김규
것이지요
평가할
유튜브♬에
##ess
##번♬의
##이트♬를
풋풋
##네트워크
박민
눈빛♬이
소설♬이
승률
##고양
어떨까♬요
뉘우
한들
교묘하게
긴장감♬이
작중♬에서
누비
마법♬의
음악♬과
말아주세요
만연
##혐오
##경♬으로
##♬권♬으로
영감♬을
기억하는
얘기♬만
추천한다
베댓되면
문자♬를
주총
한국사람
##케이드
##토끼
##퍼♬를
작가♬의말
하셨는데
##실업
생각하는게
아시죠
따스
모티브♬로
##해야하는데
정기♬적♬으로
##중단
하도급
이노베이션
달려들
바이어
데이빗
로스앤젤레스
##걸려
하느냐
불완전
##명이다
##배치
남녀노
반값
##대네
감염된
자부심
줄여서
시부
아파트♬는
확정된
거니
대출금
##안♬과
##운동♬의
동인
자의
##구♬도
##독자
##떨어지는
개념♬으로
기억♬은
싸움♬에
안토
지구촌
검찰개혁♬을
만났을
##♬울
꽁꽁
관전
##업체♬의
어울린다
##더♬의
자민
##식♬에서
증거♬도
열리고
거리♬에서
내년♬부터
원인♬으로
코엑스
##표♬로
##포함
##개인
신한금융
선생♬의
영화라는
여부♬는
짬뽕
##정책♬에
분석하고
말던가
가평
동계올림픽
##입♬이
ID
안막
높아진
테크노
코♬를
하다못해
대변하는
외야
못하겠다
할줄아
아실
그렇게♬도
##날♬은
##고용
소녀시대
끝없는
주접
##났고
##촬영
호아
조국수호
##는거보면
##기사♬를
가리는
범인♬을
시끄러
흘렀
보탬
자서
##윤리
##♬론♬의
##♬층♬을
짐작할
위원장♬이
변화♬와
##나도
이유♬에
필요하지
나뉘어
우선♬적♬으로
질문♬이
에너지♬가
박희
도시♬로
웰빙
영상♬은
토목
튀는
서울특별
잊은
아무말♬도
##숭아
두터
현대자동차
울리
정반
##저거
오른팔
나서지
인정받고
##하는거고
세미
최연
자유♬의
과징금
급성장
스폰서
구성♬을
땅♬의
즉위
##이거든요
##싫어요
내다봤
공포♬에
무공
처리♬를
크레딧
지속될
죄수
##웅♬이
##질♬에
경영♬을
##ine
존재감♬을
피라미
잘생기고
식용
##위원회♬에서
경상북도
한미일
업계♬의
찌질한
대타
##신기
##하는데♬도
스콧
단기간
곳♬의
차용
직관
거짓♬과
사건♬도
##병우
생물학
제트
##지식
##신♬과
작가♬를
받았습니다
##팀♬에
활동♬은
부모♬들♬이
##0년♬대♬에
르네상
애낳
좌파정권
MOU
수줍
장애♬인
고맙다고
하급
왜자꾸
일반♬화
사무국
매장♬을
필요한데
##센터♬에
밀린
접전
단계♬에서
영등포구
##내는데
배워서
##따로
##패♬가
무림
브로드
참신한
꽂아
정인
##ue
선전선동
만화책
MM
지금♬까지♬도
##점검
##망♬의
##열♬의
모습♬에서
중2병
사♬적인
속시원
심쿵
입국금
대응할
박지성
##사는데
돌아다니는
##콘텐츠
아니요
##래♬의
문재인정권
하락한
어찌나
삼일
이밖♬에
십상
싸우게
너거들
블라인
괜한
소리♬와
완성된
유토
안대
각국♬의
##아줌마
##바♬의
##ard
면죄
정점
♬투성
장치♬를
심정♬을
##결과♬를
목사♬가
임대차
단번에
수인
역쉬
귀여워♬요
##방학
##겨울
대안♬이
##었을때
설치하고
##시도
특공
허접
##대박
신상공개
우선시
쇠퇴
크라이
104
입장♬에
선보이고
진심♬을
욕먹고
비빔
##해제
##주실
유료♬화
질본
##홍보
##듯하다
후안무
소피
양정
방문♬을
서재
##이겠지만
빚어
##키♬들
달라지는
품위
##목숨
뿐인데
잘그리
풀린
연우
##작업♬을
닭그네
때문이지
나이스
참여연대
방해하는
휘청
##기름
절반♬이
아빠♬의
##얼마나
장면♬들♬이
감방♬에
오늘♬이
정신차리지
##부여
사용된다
낯짝
두근두근
##너♬의
포함돼
호투
##현동
입혀
지껄이는
가치♬도
##거림
깨달은
침수
토르
재앙이♬는
누군데
##방문
도우미
이데올로기
##오기
노력한
위해서라면
형국
##상황♬이
뜨겁게
##리시
그림체도
것♬들♬아
샀다
##업자득
어울릴
행방
조양
##량♬과
##♬님아
처벌해야
아이♬도
##활성
모성
승자
##메이드
눈치보
발사체
##사건♬을
패턴♬을
아찔
나이트런
이완용
탄핵♬을
느꼈던
연기하는
##데♬도
보긴
강냉이
##란말
국회의원♬은
예수♬의
치닫
팔면
동그
징글징글
2호
원래♬부터
고위직
뻗어
현실♬성
승마
말까
삐뚤
홈페이지♬에
매듭
주제♬는
##기면서
2점
##느라고
가격♬도
##갑시다
##시♬에♬는
전재산
여행사
박근
역부족
시절♬이
쩔어
있는건가
##지마시고
먹어라
불♬만
신안
요란
##술♬이
270
적임
분탕
안했으면
영혼♬의
전문의
니미
지역주민
괜찮아요
우리동네
계약♬이
훈남
사카
국물
요인♬으로
자위대
죄인♬이
치료♬가
표현했다
독자♬들♬의
AD
엄청나
옷차
업주
번♬은
선생♬은
##정상회담
앞장서서
새겨진
##셨을
데이터베이스
알림
사관
최정우
국회♬는
##라니까
진보♬가
있었을까
부조
##곡♬으로
##그때
담백
##리언
주식회사
공관
해야♬만
보내지
모건
공산주의자
블레이
맛볼
15세
파장
사퇴하고
3♬으로
트러블
깽판
없잖아요
뉴스♬는
스토리♬의
##브♬가
증여세
갈고
전문점
후보자
##발광
직권남용
##GC
다이빙
노망
물러나라
좋겟다
##ive
이름♬과
103
자치구
##배♬에
사람♬들♬로
##히기
가리키는
##아니라고
##분♬으로
츤데레
만들어주세요
일생
범죄자♬를
내준
##알려
최적♬의
인터내셔널
베도♬에서
##측♬이
그때♬의
스카우
##아깝
플러
무거
싸움♬은
##청소년
편이라
사람♬들이다
1일♬부터
신문♬을
부어
소비자♬들♬이
수영장
몸♬도
출연한다
뭐♬만
합치면
함양
사우스
일사
YTN
##광장
벼락
질병관리
나네요
JY
신탑
성적♬은
##터♬와
넣어야
문화♬에
##이념
마음♬과
수익♬률♬이
부가가치
##그♬를
안타♬를
했겠지
개인♬적♬으로♬는
스트리트
유추
##직히
역행
힘들다는
눈높이
떠서
전문♬적인
그제야
혁신♬을
흔적♬을
가르침
세워진
검사♬는
결재
방호
우리민족
뒤통
분♬도
시설물
어이없네
100프로
12개
가식
의원♬과
질♬을
옮겼다
이청
있는건지
추가되었다
하였습니다
대응하는
쓸모없는
상임위
떠올리
##4000
##산업♬이
등장하지
클러스터
못받고
홍위병
하듯
안팔
방송♬은
천벌♬을
부끄러운줄
무서울
##지역♬으로
할부
평범하게
극♬에
배워라
썼는데
생각없는
NS
신형
환자♬는
후후
사는거
조작♬이
##할때♬도
머금
어음
##탐정
개명
할머니♬의
뚫어
느긋
와이파이
소비자♬들♬의
부총
지방♬에
몰아서
제국주의
기형
오늘따라
잠식
모르겠어요
울리는
##58
때문인
유수
특성♬이
프로그램♬으로
위스키
수요자
위해서♬도
지회
피땀
덜어
비슈누
미시
국토교통
타지
않았으며
관객♬들♬이
살아도
됐네
자릿수
##버♬가
최하위
인증샷
##놓은거
연달아
튀어
로드맵
펼쳐질
세종대왕
어우러진
화답
체계♬적♬으로
뚱뚱한
이직
미셸
계약직
국기
공개해
절대♬적
정권♬과
에라
##동포
일주일♬을
##로이
##올랐
하나하나♬가
민영
안하네
JP
인신공격
커플♬이
##존재
##군인
배뎃님
직장♬에서
부동
말종
빤스
전량
환매
스모
벌려
마련할
역시♬나
타격♬이
헐뜯
구입할
포화
##지역♬을
볼♬을
지정된
받던
중위
감내
다급
##서는
경전
도와준
##세탁
자업자득
평면
##체류
전환♬을
전♬보다
나폴레옹
뮌헨
짚어
국밥
심리♬를
##많은데
경찰♬과
17년
내꺼
손주
라서
쏟아지는
파악하는
실재
##중요
한대위
앞당겨
##교육♬의
소유하고
##적폐
놀라고
인양
말아야지
##하는사람
세워야
재치
필요하고
pc
박형석
돌연변
별세
##윤♬은
업적♬을
종시
내쫓
똑같음
##매치
교사♬는
세월♬을
어이없다
##옵션
드는데
배신자
원만
에피소드♬가
먹는거
분♬들♬의
##순히
##블록
##정책♬이
공화♬당
지사♬는
이만화♬는
당직
맥도날
외관
신태
##짓♬이
50♬여
##법원
선방
번복
소리냐
im
신사업
우리학교
블라디
이타
시작하여
##기업♬을
##ong
젖은
달러화
치욕
김효
총♬으로
일반♬적
최한
불면
이긴다
귀찮아서
열두
하고있
반기문
전기♬를
감동♬도
뛰어든
가면라이더
##범♬의
모습이었다
끼치는
##뿌리
##질♬로
하는데요
보겠습니다
##잖니
##주머니
차이나
직원♬은
센트럴
마련된
스톡
월남
이보
연기♬와
아틀
온국민♬이
간략
다수♬가
##워라
지리산
##주시는
그림♬에
히어로즈
고참
##국어
농부
양복
이온
3단계
날개♬를
고령화
설교
옷♬은
세자
식당♬에서
빼앗긴
##시대♬를
재미없다
외국♬으로
##♬한테서
##밸리
착하게
공문
##했음♬을
이성애
이런것
기본♬이
##치않
##우면서
문재앙♬을
윈도
안타깝지만
직행
달렸
주도하는
적화통일
흉악
드립♬을
##열♬은
##76
##왕조
법사
회의♬에서
##야♬를
여유♬를
백색
윤상
타도
스킬♬이
다녀오
커밍
마지막♬화
정사
생필
정현
##측♬의
마음속
##던게
##까♬요
사회♬와
강서구
캐치
몸♬에서
사케
##지않다
젊고
대법원장
뚫린
##폐지
##잇어
여간
라시현
##과제
시각♬으로
해야합니다
원내대표♬는
더하면
무서웠
찬스
판단♬에
부르면
##러♬의
불출마
수녀
알았더니
경협
취업률
무안
모죠
##엄청
벤처캐피탈
##쳤는데
전두환♬이
CM
무케
아니랄까봐
조사♬는
##인형
격차♬가
현재♬도
김관
이어갈
하시는데
너무하네
기여할
트로피
정신♬들
운운하는
##산업♬은
게르
홀딩스
설명♬은
총독
현대캐피탈
중남미
시력
블레이드
아베♬의
바쿠
##쿠버
송혜
##믹스
이하♬로
없는것
##대접
##글♬에
채색
하늘♬로
스타일링
장악하고
가냐
##왔어요
액티브
가까스로
제품♬으로
개교
필요없는
주의해야
놀아나는
전쟁나면
기다린다
진상규
런닝맨
재보
후폭
전세계♬에서
규제♬가
남길
아드
안하는게
핵폭탄
엑시
##6000
어려운데
배움
죄♬는
##검색
뇌졸
라미
기대합니다
2TV
다저스
시초
대단해
파렴치
문학♬의
남녀♬가
올라왔다
##태평
난장
제소
어디♬가서
해결♬이
도♬가
올리기
들어라
안되는게
사망자♬가
##대리
##패거리
##머♬가
포기하는
북한♬한테
은근슬쩍
변할
가족♬들♬과
상당♬의
되어도
연탄
##곡히
선글라스
109
글래
그것♬보다
1988
차입금
##레스트
향하
리뷰♬를
##대상♬이
제네시스
추하다
감정♬은
##변♬의
뭐♬든지
사생
별명♬이
##넘♬들♬은
단순하게
답답하고
원리♬를
네트워크♬를
불고
##사유
연필
아이언맨
반성해라
아름다움♬을
성♬의
나오며
##빨고
##메리카
이상황
부회장♬은
데스크
비참한
일반인♬이
##더군
##에몽
드라마♬의
모노
산부인
원하고
내리면
##LB
##♬화되는
이산가족
겨루
고비
군인♬이
##해보험
양승태
##덱스
되는건
때♬처럼
아니었지만
크리스토
배타
보금자리
컨퍼런스
집중하고
##레♬는
비주
##머리♬에
얽매
우크라
조업
성격♬도
