{"version":"1.0","truncation":null,"padding":null,"added_tokens":[{"id":0,"special":true,"content":"<s>","single_word":false,"lstrip":false,"rstrip":false,"normalized":false},{"id":1,"special":true,"content":"<pad>","single_word":false,"lstrip":false,"rstrip":false,"normalized":false},{"id":2,"special":true,"content":"</s>","single_word":false,"lstrip":false,"rstrip":false,"normalized":false},{"id":3,"special":true,"content":"<unk>","single_word":false,"lstrip":false,"rstrip":false,"normalized":false},{"id":4,"special":true,"content":"<mask>","single_word":false,"lstrip":false,"rstrip":false,"normalized":false},{"id":5,"special":true,"content":"[UNK0]","single_word":false,"lstrip":false,"rstrip":false,"normalized":false},{"id":6,"special":true,"content":"[UNK1]","single_word":false,"lstrip":false,"rstrip":false,"normalized":false},{"id":7,"special":true,"content":"[UNK2]","single_word":false,"lstrip":false,"rstrip":false,"normalized":false},{"id":8,"special":true,"content":"[UNK3]","single_word":false,"lstrip":false,"rstrip":false,"normalized":false},{"id":9,"special":true,"content":"[UNK4]","single_word":false,"lstrip":false,"rstrip":false,"normalized":false},{"id":10,"special":true,"content":"[UNK5]","single_word":false,"lstrip":false,"rstrip":false,"normalized":false},{"id":11,"special":true,"content":"[UNK6]","single_word":false,"lstrip":false,"rstrip":false,"normalized":false},{"id":12,"special":true,"content":"[UNK7]","single_word":false,"lstrip":false,"rstrip":false,"normalized":false},{"id":13,"special":true,"content":"[UNK8]","single_word":false,"lstrip":false,"rstrip":false,"normalized":false},{"id":14,"special":true,"content":"[UNK9]","single_word":false,"lstrip":false,"rstrip":false,"normalized":false},{"id":15,"special":true,"content":"[unused0]","single_word":false,"lstrip":false,"rstrip":false,"normalized":false},{"id":16,"special":true,"content":"[unused1]","single_word":false,"lstrip":false,"rstrip":false,"normalized":false},{"id":17,"special":true,"content":"[unused2]","single_word":false,"lstrip":false,"rstrip":false,"normalized":false},{"id":18,"special":true,"content":"[unused3]","single_word":false,"lstrip":false,"rstrip":false,"normalized":false},{"id":19,"special":true,"content":"[unused4]","single_word":false,"lstrip":false,"rstrip":false,"normalized":false},{"id":20,"special":true,"content":"[unused5]","single_word":false,"lstrip":false,"rstrip":false,"normalized":false},{"id":21,"special":true,"content":"[unused6]","single_word":false,"lstrip":false,"rstrip":false,"normalized":false},{"id":22,"special":true,"content":"[unused7]","single_word":false,"lstrip":false,"rstrip":false,"normalized":false},{"id":23,"special":true,"content":"[unused8]","single_word":false,"lstrip":false,"rstrip":false,"normalized":false},{"id":24,"special":true,"content":"[unused9]","single_word":false,"lstrip":false,"rstrip":false,"normalized":false},{"id":25,"special":true,"content":"[unused10]","single_word":false,"lstrip":false,"rstrip":false,"normalized":false},{"id":26,"special":true,"content":"[unused11]","single_word":false,"lstrip":false,"rstrip":false,"normalized":false},{"id":27,"special":true,"content":"[unused12]","single_word":false,"lstrip":false,"rstrip":false,"normalized":false},{"id":28,"special":true,"content":"[unused13]","single_word":false,"lstrip":false,"rstrip":false,"normalized":false},{"id":29,"special":true,"content":"[unused14]","single_word":false,"lstrip":false,"rstrip":false,"normalized":false},{"id":30,"special":true,"content":"[unused15]","single_word":false,"lstrip":false,"rstrip":false,"normalized":false},{"id":31,"special":true,"content":"[unused16]","single_word":false,"lstrip":false,"rstrip":false,"normalized":false},{"id":32,"special":true,"content":"[unused17]","single_word":false,"lstrip":false,"rstrip":false,"normalized":false},{"id":33,"special":true,"content":"[unused18]","single_word":false,"lstrip":false,"rstrip":false,"normalized":false},{"id":34,"special":true,"content":"[unused19]","single_word":false,"lstrip":false,"rstrip":false,"normalized":false},{"id":35,"special":true,"content":"[unused20]","single_word":false,"lstrip":false,"rstrip":false,"normalized":false},{"id":36,"special":true,"content":"[unused21]","single_word":false,"lstrip":false,"rstrip":false,"normalized":false},{"id":37,"special":true,"content":"[unused22]","single_word":false,"lstrip":false,"rstrip":false,"normalized":false},{"id":38,"special":true,"content":"[unused23]","single_word":false,"lstrip":false,"rstrip":false,"normalized":false},{"id":39,"special":true,"content":"[unused24]","single_word":false,"lstrip":false,"rstrip":false,"normalized":false},{"id":40,"special":true,"content":"[unused25]","single_word":false,"lstrip":false,"rstrip":false,"normalized":false},{"id":41,"special":true,"content":"[unused26]","single_word":false,"lstrip":false,"rstrip":false,"normalized":false},{"id":42,"special":true,"content":"[unused27]","single_word":false,"lstrip":false,"rstrip":false,"normalized":false},{"id":43,"special":true,"content":"[unused28]","single_word":false,"lstrip":false,"rstrip":false,"normalized":false},{"id":44,"special":true,"content":"[unused29]","single_word":false,"lstrip":false,"rstrip":false,"normalized":false},{"id":45,"special":true,"content":"[unused30]","single_word":false,"lstrip":false,"rstrip":false,"normalized":false},{"id":46,"special":true,"content":"[unused31]","single_word":false,"lstrip":false,"rstrip":false,"normalized":false},{"id":47,"special":true,"content":"[unused32]","single_word":false,"lstrip":false,"rstrip":false,"normalized":false},{"id":48,"special":true,"content":"[unused33]","single_word":false,"lstrip":false,"rstrip":false,"normalized":false},{"id":49,"special":true,"content":"[unused34]","single_word":false,"lstrip":false,"rstrip":false,"normalized":false},{"id":50,"special":true,"content":"[unused35]","single_word":false,"lstrip":false,"rstrip":false,"normalized":false},{"id":51,"special":true,"content":"[unused36]","single_word":false,"lstrip":false,"rstrip":false,"normalized":false},{"id":52,"special":true,"content":"[unused37]","single_word":false,"lstrip":false,"rstrip":false,"normalized":false},{"id":53,"special":true,"content":"[unused38]","single_word":false,"lstrip":false,"rstrip":false,"normalized":false},{"id":54,"special":true,"content":"[unused39]","single_word":false,"lstrip":false,"rstrip":false,"normalized":false},{"id":55,"special":true,"content":"[unused40]","single_word":false,"lstrip":false,"rstrip":false,"normalized":false},{"id":56,"special":true,"content":"[unused41]","single_word":false,"lstrip":false,"rstrip":false,"normalized":false},{"id":57,"special":true,"content":"[unused42]","single_word":false,"lstrip":false,"rstrip":false,"normalized":false},{"id":58,"special":true,"content":"[unused43]","single_word":false,"lstrip":false,"rstrip":false,"normalized":false},{"id":59,"special":true,"content":"[unused44]","single_word":false,"lstrip":false,"rstrip":false,"normalized":false},{"id":60,"special":true,"content":"[unused45]","single_word":false,"lstrip":false,"rstrip":false,"normalized":false},{"id":61,"special":true,"content":"[unused46]","single_word":false,"lstrip":false,"rstrip":false,"normalized":false},{"id":62,"special":true,"content":"[unused47]","single_word":false,"lstrip":false,"rstrip":false,"normalized":false},{"id":63,"special":true,"content":"[unused48]","single_word":false,"lstrip":false,"rstrip":false,"normalized":false},{"id":64,"special":true,"content":"[unused49]","single_word":false,"lstrip":false,"rstrip":false,"normalized":false},{"id":65,"special":true,"content":"[unused50]","single_word":false,"lstrip":false,"rstrip":false,"normalized":false},{"id":66,"special":true,"content":"[unused51]","single_word":false,"lstrip":false,"rstrip":false,"normalized":false},{"id":67,"special":true,"content":"[unused52]","single_word":false,"lstrip":false,"rstrip":false,"normalized":false},{"id":68,"special":true,"content":"[unused53]","single_word":false,"lstrip":false,"rstrip":false,"normalized":false},{"id":69,"special":true,"content":"[unused54]","single_word":false,"lstrip":false,"rstrip":false,"normalized":false},{"id":70,"special":true,"content":"[unused55]","single_word":false,"lstrip":false,"rstrip":false,"normalized":false},{"id":71,"special":true,"content":"[unused56]","single_word":false,"lstrip":false,"rstrip":false,"normalized":false},{"id":72,"special":true,"content":"[unused57]","single_word":false,"lstrip":false,"rstrip":false,"normalized":false},{"id":73,"special":true,"content":"[unused58]","single_word":false,"lstrip":false,"rstrip":false,"normalized":false},{"id":74,"special":true,"content":"[unused59]","single_word":false,"lstrip":false,"rstrip":false,"normalized":false},{"id":75,"special":true,"content":"[unused60]","single_word":false,"lstrip":false,"rstrip":false,"normalized":false},{"id":76,"special":true,"content":"[unused61]","single_word":false,"lstrip":false,"rstrip":false,"normalized":false},{"id":77,"special":true,"content":"[unused62]","single_word":false,"lstrip":false,"rstrip":false,"normalized":false},{"id":78,"special":true,"content":"[unused63]","single_word":false,"lstrip":false,"rstrip":false,"normalized":false},{"id":79,"special":true,"content":"[unused64]","single_word":false,"lstrip":false,"rstrip":false,"normalized":false},{"id":80,"special":true,"content":"[unused65]","single_word":false,"lstrip":false,"rstrip":false,"normalized":false},{"id":81,"special":true,"content":"[unused66]","single_word":false,"lstrip":false,"rstrip":false,"normalized":false},{"id":82,"special":true,"content":"[unused67]","single_word":false,"lstrip":false,"rstrip":false,"normalized":false},{"id":83,"special":true,"content":"[unused68]","single_word":false,"lstrip":false,"rstrip":false,"normalized":false},{"id":84,"special":true,"content":"[unused69]","single_word":false,"lstrip":false,"rstrip":false,"normalized":false},{"id":85,"special":true,"content":"[unused70]","single_word":false,"lstrip":false,"rstrip":false,"normalized":false},{"id":86,"special":true,"content":"[unused71]","single_word":false,"lstrip":false,"rstrip":false,"normalized":false},{"id":87,"special":true,"content":"[unused72]","single_word":false,"lstrip":false,"rstrip":false,"normalized":false},{"id":88,"special":true,"content":"[unused73]","single_word":false,"lstrip":false,"rstrip":false,"normalized":false},{"id":89,"special":true,"content":"[unused74]","single_word":false,"lstrip":false,"rstrip":false,"normalized":false},{"id":90,"special":true,"content":"[unused75]","single_word":false,"lstrip":false,"rstrip":false,"normalized":false},{"id":91,"special":true,"content":"[unused76]","single_word":false,"lstrip":false,"rstrip":false,"normalized":false},{"id":92,"special":true,"content":"[unused77]","single_word":false,"lstrip":false,"rstrip":false,"normalized":false},{"id":93,"special":true,"content":"[unused78]","single_word":false,"lstrip":false,"rstrip":false,"normalized":false},{"id":94,"special":true,"content":"[unused79]","single_word":false,"lstrip":false,"rstrip":false,"normalized":false},{"id":95,"special":true,"content":"[unused80]","single_word":false,"lstrip":false,"rstrip":false,"normalized":false},{"id":96,"special":true,"content":"[unused81]","single_word":false,"lstrip":false,"rstrip":false,"normalized":false},{"id":97,"special":true,"content":"[unused82]","single_word":false,"lstrip":false,"rstrip":false,"normalized":false},{"id":98,"special":true,"content":"[unused83]","single_word":false,"lstrip":false,"rstrip":false,"normalized":false},{"id":99,"special":true,"content":"[unused84]","single_word":false,"lstrip":false,"rstrip":false,"normalized":false},{"id":100,"special":true,"content":"[unused85]","single_word":false,"lstrip":false,"rstrip":false,"normalized":false},{"id":101,"special":true,"content":"[unused86]","single_word":false,"lstrip":false,"rstrip":false,"normalized":false},{"id":102,"special":true,"content":"[unused87]","single_word":false,"lstrip":false,"rstrip":false,"normalized":false},{"id":103,"special":true,"content":"[unused88]","single_word":false,"lstrip":false,"rstrip":false,"normalized":false},{"id":104,"special":true,"content":"[unused89]","single_word":false,"lstrip":false,"rstrip":false,"normalized":false},{"id":105,"special":true,"content":"[unused90]","single_word":false,"lstrip":false,"rstrip":false,"normalized":false},{"id":106,"special":true,"content":"[unused91]","single_word":false,"lstrip":false,"rstrip":false,"normalized":false},{"id":107,"special":true,"content":"[unused92]","single_word":false,"lstrip":false,"rstrip":false,"normalized":false},{"id":108,"special":true,"content":"[unused93]","single_word":false,"lstrip":false,"rstrip":false,"normalized":false},{"id":109,"special":true,"content":"[unused94]","single_word":false,"lstrip":false,"rstrip":false,"normalized":false},{"id":110,"special":true,"content":"[unused95]","single_word":false,"lstrip":false,"rstrip":false,"normalized":false},{"id":111,"special":true,"content":"[unused96]","single_word":false,"lstrip":false,"rstrip":false,"normalized":false},{"id":112,"special":true,"content":"[unused97]","single_word":false,"lstrip":false,"rstrip":false,"normalized":false},{"id":113,"special":true,"content":"[unused98]","single_word":false,"lstrip":false,"rstrip":false,"normalized":false},{"id":114,"special":true,"content":"[unused99]","single_word":false,"lstrip":false,"rstrip":false,"normalized":false},{"id":115,"special":true,"content":"[unused100]","single_word":false,"lstrip":false,"rstrip":false,"normalized":false},{"id":116,"special":true,"content":"[unused101]","single_word":false,"lstrip":false,"rstrip":false,"normalized":false},{"id":117,"special":true,"content":"[unused102]","single_word":false,"lstrip":false,"rstrip":false,"normalized":false},{"id":118,"special":true,"content":"[unused103]","single_word":false,"lstrip":false,"rstrip":false,"normalized":false},{"id":119,"special":true,"content":"[unused104]","single_word":false,"lstrip":false,"rstrip":false,"normalized":false},{"id":120,"special":true,"content":"[unused105]","single_word":false,"lstrip":false,"rstrip":false,"normalized":false},{"id":121,"special":true,"content":"[unused106]","single_word":false,"lstrip":false,"rstrip":false,"normalized":false},{"id":122,"special":true,"content":"[unused107]","single_word":false,"lstrip":false,"rstrip":false,"normalized":false},{"id":123,"special":true,"content":"[unused108]","single_word":false,"lstrip":false,"rstrip":false,"normalized":false},{"id":124,"special":true,"content":"[unused109]","single_word":false,"lstrip":false,"rstrip":false,"normalized":false},{"id":125,"special":true,"content":"[unused110]","single_word":false,"lstrip":false,"rstrip":false,"normalized":false},{"id":126,"special":true,"content":"[unused111]","single_word":false,"lstrip":false,"rstrip":false,"normalized":false},{"id":127,"special":true,"content":"[unused112]","single_word":false,"lstrip":false,"rstrip":false,"normalized":false},{"id":128,"special":true,"content":"[unused113]","single_word":false,"lstrip":false,"rstrip":false,"normalized":false},{"id":129,"special":true,"content":"[unused114]","single_word":false,"lstrip":false,"rstrip":false,"normalized":false},{"id":130,"special":true,"content":"[unused115]","single_word":false,"lstrip":false,"rstrip":false,"normalized":false},{"id":131,"special":true,"content":"[unused116]","single_word":false,"lstrip":false,"rstrip":false,"normalized":false},{"id":132,"special":true,"content":"[unused117]","single_word":false,"lstrip":false,"rstrip":false,"normalized":false},{"id":133,"special":true,"content":"[unused118]","single_word":false,"lstrip":false,"rstrip":false,"normalized":false},{"id":134,"special":true,"content":"[unused119]","single_word":false,"lstrip":false,"rstrip":false,"normalized":false},{"id":135,"special":true,"content":"[unused120]","single_word":false,"lstrip":false,"rstrip":false,"normalized":false},{"id":136,"special":true,"content":"[unused121]","single_word":false,"lstrip":false,"rstrip":false,"normalized":false},{"id":137,"special":true,"content":"[unused122]","single_word":false,"lstrip":false,"rstrip":false,"normalized":false},{"id":138,"special":true,"content":"[unused123]","single_word":false,"lstrip":false,"rstrip":false,"normalized":false},{"id":139,"special":true,"content":"[unused124]","single_word":false,"lstrip":false,"rstrip":false,"normalized":false},{"id":140,"special":true,"content":"[unused125]","single_word":false,"lstrip":false,"rstrip":false,"normalized":false},{"id":141,"special":true,"content":"[unused126]","single_word":false,"lstrip":false,"rstrip":false,"normalized":false},{"id":142,"special":true,"content":"[unused127]","single_word":false,"lstrip":false,"rstrip":false,"normalized":false},{"id":143,"special":true,"content":"[unused128]","single_word":false,"lstrip":false,"rstrip":false,"normalized":false},{"id":144,"special":true,"content":"[unused129]","single_word":false,"lstrip":false,"rstrip":false,"normalized":false},{"id":145,"special":true,"content":"[unused130]","single_word":false,"lstrip":false,"rstrip":false,"normalized":false},{"id":146,"special":true,"content":"[unused131]","single_word":false,"lstrip":false,"rstrip":false,"normalized":false},{"id":147,"special":true,"content":"[unused132]","single_word":false,"lstrip":false,"rstrip":false,"normalized":false},{"id":148,"special":true,"content":"[unused133]","single_word":false,"lstrip":false,"rstrip":false,"normalized":false},{"id":149,"special":true,"content":"[unused134]","single_word":false,"lstrip":false,"rstrip":false,"normalized":false},{"id":150,"special":true,"content":"[unused135]","single_word":false,"lstrip":false,"rstrip":false,"normalized":false},{"id":151,"special":true,"content":"[unused136]","single_word":false,"lstrip":false,"rstrip":false,"normalized":false},{"id":152,"special":true,"content":"[unused137]","single_word":false,"lstrip":false,"rstrip":false,"normalized":false},{"id":153,"special":true,"content":"[unused138]","single_word":false,"lstrip":false,"rstrip":false,"normalized":false},{"id":154,"special":true,"content":"[unused139]","single_word":false,"lstrip":false,"rstrip":false,"normalized":false},{"id":155,"special":true,"content":"[unused140]","single_word":false,"lstrip":false,"rstrip":false,"normalized":false},{"id":156,"special":true,"content":"[unused141]","single_word":false,"lstrip":false,"rstrip":false,"normalized":false},{"id":157,"special":true,"content":"[unused142]","single_word":false,"lstrip":false,"rstrip":false,"normalized":false},{"id":158,"special":true,"content":"[unused143]","single_word":false,"lstrip":false,"rstrip":false,"normalized":false},{"id":159,"special":true,"content":"[unused144]","single_word":false,"lstrip":false,"rstrip":false,"normalized":false},{"id":160,"special":true,"content":"[unused145]","single_word":false,"lstrip":false,"rstrip":false,"normalized":false},{"id":161,"special":true,"content":"[unused146]","single_word":false,"lstrip":false,"rstrip":false,"normalized":false},{"id":162,"special":true,"content":"[unused147]","single_word":false,"lstrip":false,"rstrip":false,"normalized":false},{"id":163,"special":true,"content":"[unused148]","single_word":false,"lstrip":false,"rstrip":false,"normalized":false},{"id":164,"special":true,"content":"[unused149]","single_word":false,"lstrip":false,"rstrip":false,"normalized":false},{"id":165,"special":true,"content":"[unused150]","single_word":false,"lstrip":false,"rstrip":false,"normalized":false},{"id":166,"special":true,"content":"[unused151]","single_word":false,"lstrip":false,"rstrip":false,"normalized":false},{"id":167,"special":true,"content":"[unused152]","single_word":false,"lstrip":false,"rstrip":false,"normalized":false},{"id":168,"special":true,"content":"[unused153]","single_word":false,"lstrip":false,"rstrip":false,"normalized":false},{"id":169,"special":true,"content":"[unused154]","single_word":false,"lstrip":false,"rstrip":false,"normalized":false},{"id":170,"special":true,"content":"[unused155]","single_word":false,"lstrip":false,"rstrip":false,"normalized":false},{"id":171,"special":true,"content":"[unused156]","single_word":false,"lstrip":false,"rstrip":false,"normalized":false},{"id":172,"special":true,"content":"[unused157]","single_word":false,"lstrip":false,"rstrip":false,"normalized":false},{"id":173,"special":true,"content":"[unused158]","single_word":false,"lstrip":false,"rstrip":false,"normalized":false},{"id":174,"special":true,"content":"[unused159]","single_word":false,"lstrip":false,"rstrip":false,"normalized":false},{"id":175,"special":true,"content":"[unused160]","single_word":false,"lstrip":false,"rstrip":false,"normalized":false},{"id":176,"special":true,"content":"[unused161]","single_word":false,"lstrip":false,"rstrip":false,"normalized":false},{"id":177,"special":true,"content":"[unused162]","single_word":false,"lstrip":false,"rstrip":false,"normalized":false},{"id":178,"special":true,"content":"[unused163]","single_word":false,"lstrip":false,"rstrip":false,"normalized":false},{"id":179,"special":true,"content":"[unused164]","single_word":false,"lstrip":false,"rstrip":false,"normalized":false},{"id":180,"special":true,"content":"[unused165]","single_word":false,"lstrip":false,"rstrip":false,"normalized":false},{"id":181,"special":true,"content":"[unused166]","single_word":false,"lstrip":false,"rstrip":false,"normalized":false},{"id":182,"special":true,"content":"[unused167]","single_word":false,"lstrip":false,"rstrip":false,"normalized":false},{"id":183,"special":true,"content":"[unused168]","single_word":false,"lstrip":false,"rstrip":false,"normalized":false},{"id":184,"special":true,"content":"[unused169]","single_word":false,"lstrip":false,"rstrip":false,"normalized":false},{"id":185,"special":true,"content":"[unused170]","single_word":false,"lstrip":false,"rstrip":false,"normalized":false},{"id":186,"special":true,"content":"[unused171]","single_word":false,"lstrip":false,"rstrip":false,"normalized":false},{"id":187,"special":true,"content":"[unused172]","single_word":false,"lstrip":false,"rstrip":false,"normalized":false},{"id":188,"special":true,"content":"[unused173]","single_word":false,"lstrip":false,"rstrip":false,"normalized":false},{"id":189,"special":true,"content":"[unused174]","single_word":false,"lstrip":false,"rstrip":false,"normalized":false},{"id":190,"special":true,"content":"[unused175]","single_word":false,"lstrip":false,"rstrip":false,"normalized":false},{"id":191,"special":true,"content":"[unused176]","single_word":false,"lstrip":false,"rstrip":false,"normalized":false},{"id":192,"special":true,"content":"[unused177]","single_word":false,"lstrip":false,"rstrip":false,"normalized":false},{"id":193,"special":true,"content":"[unused178]","single_word":false,"lstrip":false,"rstrip":false,"normalized":false},{"id":194,"special":true,"content":"[unused179]","single_word":false,"lstrip":false,"rstrip":false,"normalized":false},{"id":195,"special":true,"content":"[unused180]","single_word":false,"lstrip":false,"rstrip":false,"normalized":false},{"id":196,"special":true,"content":"[unused181]","single_word":false,"lstrip":false,"rstrip":false,"normalized":false},{"id":197,"special":true,"content":"[unused182]","single_word":false,"lstrip":false,"rstrip":false,"normalized":false},{"id":198,"special":true,"content":"[unused183]","single_word":false,"lstrip":false,"rstrip":false,"normalized":false},{"id":199,"special":true,"content":"[unused184]","single_word":false,"lstrip":false,"rstrip":false,"normalized":false},{"id":200,"special":true,"content":"[unused185]","single_word":false,"lstrip":false,"rstrip":false,"normalized":false},{"id":201,"special":true,"content":"[unused186]","single_word":false,"lstrip":false,"rstrip":false,"normalized":false},{"id":202,"special":true,"content":"[unused187]","single_word":false,"lstrip":false,"rstrip":false,"normalized":false},{"id":203,"special":true,"content":"[unused188]","single_word":false,"lstrip":false,"rstrip":false,"normalized":false},{"id":204,"special":true,"content":"[unused189]","single_word":false,"lstrip":false,"rstrip":false,"normalized":false},{"id":205,"special":true,"content":"[unused190]","single_word":false,"lstrip":false,"rstrip":false,"normalized":false},{"id":206,"special":true,"content":"[unused191]","single_word":false,"lstrip":false,"rstrip":false,"normalized":false},{"id":207,"special":true,"content":"[unused192]","single_word":false,"lstrip":false,"rstrip":false,"normalized":false},{"id":208,"special":true,"content":"[unused193]","single_word":false,"lstrip":false,"rstrip":false,"normalized":false},{"id":209,"special":true,"content":"[unused194]","single_word":false,"lstrip":false,"rstrip":false,"normalized":false},{"id":210,"special":true,"content":"[unused195]","single_word":false,"lstrip":false,"rstrip":false,"normalized":false},{"id":211,"special":true,"content":"[unused196]","single_word":false,"lstrip":false,"rstrip":false,"normalized":false},{"id":212,"special":true,"content":"[unused197]","single_word":false,"lstrip":false,"rstrip":false,"normalized":false},{"id":213,"special":true,"content":"[unused198]","single_word":false,"lstrip":false,"rstrip":false,"normalized":false},{"id":214,"special":true,"content":"[unused199]","single_word":false,"lstrip":false,"rstrip":false,"normalized":false}],"normalizer":{"type":"BertNormalizer","clean_text":true,"handle_chinese_chars":true,"strip_accents":false,"lowercase":false},"pre_tokenizer":{"type":"BertPreTokenizer"},"post_processor":null,"decoder":{"type":"WordPiece","prefix":"##","cleanup":true},"model":{"type":"WordPiece","unk_token":"[UNK]","continuing_subword_prefix":"##","max_input_chars_per_word":100,"vocab":{"<s>":0,"<pad>":1,"</s>":2,"<unk>":3,"<mask>":4,"[UNK0]":5,"[UNK1]":6,"[UNK2]":7,"[UNK3]":8,"[UNK4]":9,"[UNK5]":10,"[UNK6]":11,"[UNK7]":12,"[UNK8]":13,"[UNK9]":14,"[unused0]":15,"[unused1]":16,"[unused2]":17,"[unused3]":18,"[unused4]":19,"[unused5]":20,"[unused6]":21,"[unused7]":22,"[unused8]":23,"[unused9]":24,"[unused10]":25,"[unused11]":26,"[unused12]":27,"[unused13]":28,"[unused14]":29,"[unused15]":30,"[unused16]":31,"[unused17]":32,"[unused18]":33,"[unused19]":34,"[unused20]":35,"[unused21]":36,"[unused22]":37,"[unused23]":38,"[unused24]":39,"[unused25]":40,"[unused26]":41,"[unused27]":42,"[unused28]":43,"[unused29]":44,"[unused30]":45,"[unused31]":46,"[unused32]":47,"[unused33]":48,"[unused34]":49,"[unused35]":50,"[unused36]":51,"[unused37]":52,"[unused38]":53,"[unused39]":54,"[unused40]":55,"[unused41]":56,"[unused42]":57,"[unused43]":58,"[unused44]":59,"[unused45]":60,"[unused46]":61,"[unused47]":62,"[unused48]":63,"[unused49]":64,"[unused50]":65,"[unused51]":66,"[unused52]":67,"[unused53]":68,"[unused54]":69,"[unused55]":70,"[unused56]":71,"[unused57]":72,"[unused58]":73,"[unused59]":74,"[unused60]":75,"[unused61]":76,"[unused62]":77,"[unused63]":78,"[unused64]":79,"[unused65]":80,"[unused66]":81,"[unused67]":82,"[unused68]":83,"[unused69]":84,"[unused70]":85,"[unused71]":86,"[unused72]":87,"[unused73]":88,"[unused74]":89,"[unused75]":90,"[unused76]":91,"[unused77]":92,"[unused78]":93,"[unused79]":94,"[unused80]":95,"[unused81]":96,"[unused82]":97,"[unused83]":98,"[unused84]":99,"[unused85]":100,"[unused86]":101,"[unused87]":102,"[unused88]":103,"[unused89]":104,"[unused90]":105,"[unused91]":106,"[unused92]":107,"[unused93]":108,"[unused94]":109,"[unused95]":110,"[unused96]":111,"[unused97]":112,"[unused98]":113,"[unused99]":114,"[unused100]":115,"[unused101]":116,"[unused102]":117,"[unused103]":118,"[unused104]":119,"[unused105]":120,"[unused106]":121,"[unused107]":122,"[unused108]":123,"[unused109]":124,"[unused110]":125,"[unused111]":126,"[unused112]":127,"[unused113]":128,"[unused114]":129,"[unused115]":130,"[unused116]":131,"[unused117]":132,"[unused118]":133,"[unused119]":134,"[unused120]":135,"[unused121]":136,"[unused122]":137,"[unused123]":138,"[unused124]":139,"[unused125]":140,"[unused126]":141,"[unused127]":142,"[unused128]":143,"[unused129]":144,"[unused130]":145,"[unused131]":146,"[unused132]":147,"[unused133]":148,"[unused134]":149,"[unused135]":150,"[unused136]":151,"[unused137]":152,"[unused138]":153,"[unused139]":154,"[unused140]":155,"[unused141]":156,"[unused142]":157,"[unused143]":158,"[unused144]":159,"[unused145]":160,"[unused146]":161,"[unused147]":162,"[unused148]":163,"[unused149]":164,"[unused150]":165,"[unused151]":166,"[unused152]":167,"[unused153]":168,"[unused154]":169,"[unused155]":170,"[unused156]":171,"[unused157]":172,"[unused158]":173,"[unused159]":174,"[unused160]":175,"[unused161]":176,"[unused162]":177,"[unused163]":178,"[unused164]":179,"[unused165]":180,"[unused166]":181,"[unused167]":182,"[unused168]":183,"[unused169]":184,"[unused170]":185,"[unused171]":186,"[unused172]":187,"[unused173]":188,"[unused174]":189,"[unused175]":190,"[unused176]":191,"[unused177]":192,"[unused178]":193,"[unused179]":194,"[unused180]":195,"[unused181]":196,"[unused182]":197,"[unused183]":198,"[unused184]":199,"[unused185]":200,"[unused186]":201,"[unused187]":202,"[unused188]":203,"[unused189]":204,"[unused190]":205,"[unused191]":206,"[unused192]":207,"[unused193]":208,"[unused194]":209,"[unused195]":210,"[unused196]":211,"[unused197]":212,"[unused198]":213,"[unused199]":214,"!":215,"\"":216,"%":217,"'":218,",":219,"-":220,".":221,"/":222,"0":223,"1":224,"2":225,"3":226,"4":227,"5":228,"6":229,"7":230,"8":231,"9":232,":":233,"?":234,"@":235,"A":236,"B":237,"C":238,"D":239,"E":240,"F":241,"G":242,"H":243,"I":244,"J":245,"K":246,"L":247,"M":248,"N":249,"O":250,"P":251,"Q":252,"R":253,"S":254,"T":255,"U":256,"V":257,"W":258,"X":259,"Y":260,"Z":261,"a":262,"b":263,"c":264,"d":265,"e":266,"f":267,"g":268,"h":269,"i":270,"j":271,"k":272,"l":273,"m":274,"n":275,"o":276,"p":277,"q":278,"r":279,"s":280,"t":281,"u":282,"v":283,"w":284,"x":285,"y":286,"z":287,"~":288,"·":289,"♬":290,"가":291,"각":292,"갂":293,"갃":294,"간":295,"갅":296,"갆":297,"갇":298,"갈":299,"갉":300,"갊":301,"갋":302,"갌":303,"갍":304,"갎":305,"갏":306,"감":307,"갑":308,"값":309,"갓":310,"갔":311,"강":312,"갖":313,"갗":314,"갘":315,"같":316,"갚":317,"갛":318,"개":319,"객":320,"갞":321,"갟":322,"갠":323,"갢":324,"갣":325,"갤":326,"갥":327,"갧":328,"갩":329,"갫":330,"갬":331,"갭":332,"갮":333,"갯":334,"갰":335,"갱":336,"갲":337,"갳":338,"갴":339,"갵":340,"갶":341,"갷":342,"갸":343,"갹":344,"갺":345,"갼":346,"갿":347,"걀":348,"걁":349,"걃":350,"걆":351,"걇":352,"걈":353,"걉":354,"걊":355,"걋":356,"걌":357,"걍":358,"걎":359,"걐":360,"걑":361,"걒":362,"걓":363,"걔":364,"걕":365,"걖":366,"걘":367,"걜":368,"걤":369,"걥":370,"걧":371,"걨":372,"걩":373,"걬":374,"걭":375,"거":376,"걱":377,"걲":378,"걳":379,"건":380,"걵":381,"걶":382,"걷":383,"걸":384,"걹":385,"걺":386,"걻":387,"걼":388,"걽":389,"걾":390,"걿":391,"검":392,"겁":393,"겂":394,"것":395,"겄":396,"겅":397,"겆":398,"겇":399,"겈":400,"겉":401,"겊":402,"겋":403,"게":404,"겍":405,"겎":406,"겏":407,"겐":408,"겒":409,"겓":410,"겔":411,"겕":412,"겗":413,"겙":414,"겚":415,"겛":416,"겜":417,"겝":418,"겞":419,"겟":420,"겠":421,"겡":422,"겢":423,"겣":424,"겤":425,"겥":426,"겦":427,"겧":428,"겨":429,"격":430,"겪":431,"겫":432,"견":433,"겭":434,"겮":435,"겯":436,"결":437,"겱":438,"겲":439,"겳":440,"겴":441,"겵":442,"겷":443,"겸":444,"겹":445,"겺":446,"겻":447,"겼":448,"경":449,"겾":450,"겿":451,"곀":452,"곁":453,"곂":454,"곃":455,"계":456,"곅":457,"곆":458,"곈":459,"곋":460,"곌":461,"곔":462,"곕":463,"곖":464,"곗":465,"곘":466,"곙":467,"곚":468,"곛":469,"곜":470,"곝":471,"곟":472,"고":473,"곡":474,"곢":475,"곣":476,"곤":477,"곥":478,"곧":479,"골":480,"곩":481,"곪":482,"곫":483,"곬":484,"곭":485,"곮":486,"곯":487,"곰":488,"곱":489,"곲":490,"곳":491,"곴":492,"공":493,"곶":494,"곷":495,"곸":496,"곹":497,"곺":498,"곻":499,"과":500,"곽":501,"관":502,"괁":503,"괂":504,"괃":505,"괄":506,"괅":507,"괌":508,"괍":509,"괏":510,"괐":511,"광":512,"괒":513,"괓":514,"괔":515,"괕":516,"괖":517,"괗":518,"괘":519,"괙":520,"괜":521,"괝":522,"괞":523,"괠":524,"괨":525,"괫":526,"괬":527,"괭":528,"괴":529,"괵":530,"괸":531,"괺":532,"괼":533,"굄":534,"굅":535,"굇":536,"굈":537,"굉":538,"굌":539,"굎":540,"교":541,"굑":542,"굔":543,"굗":544,"굘":545,"굚":546,"굠":547,"굡":548,"굣":549,"굤":550,"굥":551,"굦":552,"굧":553,"굨":554,"굩":555,"굪":556,"굫":557,"구":558,"국":559,"굮":560,"굯":561,"군":562,"굱":563,"굲":564,"굳":565,"굴":566,"굵":567,"굶":568,"굷":569,"굺":570,"굻":571,"굼":572,"굽":573,"굾":574,"굿":575,"궀":576,"궁":577,"궂":578,"궃":579,"궄":580,"궅":581,"궆":582,"궇":583,"궈":584,"궉":585,"권":586,"궍":587,"궏":588,"궐":589,"궑":590,"궓":591,"궘":592,"궙":593,"궛":594,"궜":595,"궝":596,"궠":597,"궤":598,"궥":599,"궨":600,"궬":601,"궭":602,"궮":603,"궯":604,"궲":605,"궳":606,"궵":607,"궷":608,"궸":609,"궹":610,"귀":611,"귁":612,"귄":613,"귇":614,"귈":615,"귐":616,"귑":617,"귓":618,"귔":619,"귕":620,"귖":621,"귘":622,"귛":623,"규":624,"귝":625,"균":626,"귣":627,"귤":628,"귥":629,"귦":630,"귬":631,"귭":632,"귯":633,"귱":634,"귴":635,"귷":636,"그":637,"극":638,"귺":639,"귻":640,"근":641,"귽":642,"귾":643,"귿":644,"글":645,"긁":646,"긂":647,"긃":648,"긄":649,"긆":650,"긇":651,"금":652,"급":653,"긊":654,"긋":655,"긌":656,"긍":657,"긎":658,"긏":659,"긐":660,"긑":661,"긒":662,"긓":663,"긔":664,"긕":665,"긘":666,"긛":667,"긜":668,"긞":669,"긤":670,"긥":671,"긧":672,"긩":673,"긪":674,"긬":675,"긯":676,"기":677,"긱":678,"긲":679,"긴":680,"긵":681,"긶":682,"긷":683,"길":684,"긹":685,"긺":686,"긻":687,"긼":688,"긿":689,"김":690,"깁":691,"깂":692,"깃":693,"깄":694,"깅":695,"깆":696,"깇":697,"깈":698,"깉":699,"깊":700,"깋":701,"까":702,"깍":703,"깎":704,"깐":705,"깑":706,"깒":707,"깓":708,"깔":709,"깕":710,"깖":711,"깗":712,"깛":713,"깜":714,"깝":715,"깞":716,"깟":717,"깠":718,"깡":719,"깢":720,"깣":721,"깤":722,"깥":723,"깦":724,"깧":725,"깨":726,"깩":727,"깪":728,"깬":729,"깯":730,"깰":731,"깱":732,"깵":733,"깸":734,"깹":735,"깺":736,"깻":737,"깼":738,"깽":739,"깾":740,"꺀":741,"꺄":742,"꺅":743,"꺆":744,"꺈":745,"꺊":746,"꺋":747,"꺌":748,"꺍":749,"꺏":750,"꺓":751,"꺔":752,"꺕":753,"꺗":754,"꺘":755,"꺙":756,"꺚":757,"꺜":758,"꺟":759,"꺠":760,"꺢":761,"꺤":762,"꺨":763,"꺰":764,"꺳":765,"꺴":766,"꺵":767,"꺼":768,"꺽":769,"꺾":770,"껀":771,"껃":772,"껄":773,"껅":774,"껇":775,"껌":776,"껍":777,"껏":778,"껐":779,"껑":780,"껒":781,"껓":782,"껔":783,"껕":784,"껗":785,"께":786,"껙":787,"껚":788,"껜":789,"껠":790,"껨":791,"껩":792,"껫":793,"껬":794,"껭":795,"껰":796,"껳":797,"껴":798,"껵":799,"껶":800,"껸":801,"껼":802,"꼄":803,"꼅":804,"꼇":805,"꼈":806,"꼉":807,"꼊":808,"꼌":809,"꼍":810,"꼏":811,"꼐":812,"꼣":813,"꼤":814,"꼥":815,"꼨":816,"꼬":817,"꼭":818,"꼮":819,"꼰":820,"꼲":821,"꼳":822,"꼴":823,"꼵":824,"꼶":825,"꼷":826,"꼹":827,"꼻":828,"꼼":829,"꼽":830,"꼿":831,"꽀":832,"꽁":833,"꽂":834,"꽃":835,"꽄":836,"꽅":837,"꽆":838,"꽇":839,"꽈":840,"꽉":841,"꽊":842,"꽌":843,"꽐":844,"꽑":845,"꽘":846,"꽙":847,"꽛":848,"꽜":849,"꽝":850,"꽠":851,"꽤":852,"꽥":853,"꽦":854,"꽨":855,"꽭":856,"꽳":857,"꽴":858,"꽹":859,"꽼":860,"꾀":861,"꾁":862,"꾄":863,"꾈":864,"꾐":865,"꾕":866,"꾜":867,"꾝":868,"꾠":869,"꾤":870,"꾬":871,"꾭":872,"꾱":873,"꾳":874,"꾸":875,"꾹":876,"꾺":877,"꾼":878,"꾾":879,"꾿":880,"꿀":881,"꿁":882,"꿂":883,"꿃":884,"꿄":885,"꿇":886,"꿈":887,"꿉":888,"꿋":889,"꿌":890,"꿍":891,"꿎":892,"꿏":893,"꿐":894,"꿑":895,"꿓":896,"꿔":897,"꿕":898,"꿘":899,"꿜":900,"꿝":901,"꿤":902,"꿥":903,"꿧":904,"꿨":905,"꿩":906,"꿬":907,"꿯":908,"꿰":909,"꿱":910,"꿲":911,"꿴":912,"꿸":913,"꿹":914,"꿻":915,"꿿":916,"뀀":917,"뀃":918,"뀄":919,"뀅":920,"뀈":921,"뀌":922,"뀍":923,"뀐":924,"뀔":925,"뀜":926,"뀝":927,"뀟":928,"뀠":929,"뀡":930,"뀤":931,"뀨":932,"뀩":933,"뀪":934,"뀬":935,"뀰":936,"뀱":937,"뀳":938,"뀷":939,"뀸":940,"뀹":941,"뀻":942,"뀽":943,"끀":944,"끄":945,"끅":946,"끆":947,"끈":948,"끉":949,"끊":950,"끋":951,"끌":952,"끍":953,"끎":954,"끏":955,"끐":956,"끓":957,"끔":958,"끕":959,"끗":960,"끘":961,"끙":962,"끚":963,"끛":964,"끜":965,"끝":966,"끞":967,"끟":968,"끠":969,"끡":970,"끤":971,"끨":972,"끯":973,"끰":974,"끵":975,"끸":976,"끼":977,"끽":978,"끾":979,"낀":980,"낂":981,"낃":982,"낄":983,"낅":984,"낋":985,"낌":986,"낍":987,"낎":988,"낏":989,"낐":990,"낑":991,"낒":992,"낓":993,"낔":994,"낕":995,"낗":996,"나":997,"낙":998,"낚":999,"낛":1000,"난":1001,"낝":1002,"낞":1003,"낟":1004,"날":1005,"낡":1006,"낢":1007,"낣":1008,"낤":1009,"낥":1010,"낧":1011,"남":1012,"납":1013,"낪":1014,"낫":1015,"났":1016,"낭":1017,"낮":1018,"낯":1019,"낰":1020,"낱":1021,"낲":1022,"낳":1023,"내":1024,"낵":1025,"낶":1026,"낸":1027,"낻":1028,"낼":1029,"냄":1030,"냅":1031,"냇":1032,"냈":1033,"냉":1034,"냊":1035,"냋":1036,"냌":1037,"냍":1038,"냎":1039,"냏":1040,"냐":1041,"냑":1042,"냒":1043,"냔":1044,"냗":1045,"냘":1046,"냙":1047,"냠":1048,"냡":1049,"냣":1050,"냤":1051,"냥":1052,"냦":1053,"냧":1054,"냨":1055,"냩":1056,"냪":1057,"냫":1058,"냬":1059,"냰":1060,"냴":1061,"냼":1062,"냿":1063,"넀":1064,"넁":1065,"넄":1066,"너":1067,"넉":1068,"넊":1069,"넋":1070,"넌":1071,"넎":1072,"넏":1073,"널":1074,"넑":1075,"넒":1076,"넓":1077,"넔":1078,"넖":1079,"넗":1080,"넘":1081,"넙":1082,"넚":1083,"넛":1084,"넜":1085,"넝":1086,"넞":1087,"넟":1088,"넠":1089,"넡":1090,"넢":1091,"넣":1092,"네":1093,"넥":1094,"넦":1095,"넧":1096,"넨":1097,"넫":1098,"넬":1099,"넭":1100,"넴":1101,"넵":1102,"넶":1103,"넷":1104,"넸":1105,"넹":1106,"넺":1107,"넻":1108,"넼":1109,"넽":1110,"넾":1111,"넿":1112,"녀":1113,"녁":1114,"녂":1115,"년":1116,"녅":1117,"녆":1118,"녇":1119,"녈":1120,"념":1121,"녑":1122,"녓":1123,"녔":1124,"녕":1125,"녖":1126,"녗":1127,"녘":1128,"녙":1129,"녚":1130,"녛":1131,"녜":1132,"녝":1133,"녟":1134,"녠":1135,"녤":1136,"녬":1137,"녭":1138,"녯":1139,"녰":1140,"녱":1141,"녴":1142,"노":1143,"녹":1144,"녺":1145,"녻":1146,"논":1147,"녽":1148,"녾":1149,"녿":1150,"놀":1151,"놁":1152,"놂":1153,"놃":1154,"놇":1155,"놈":1156,"놉":1157,"놊":1158,"놋":1159,"놌":1160,"농":1161,"놎":1162,"놏":1163,"놐":1164,"놑":1165,"높":1166,"놓":1167,"놔":1168,"놕":1169,"놖":1170,"놘":1171,"놛":1172,"놜":1173,"놝":1174,"놤":1175,"놥":1176,"놧":1177,"놨":1178,"놩":1179,"놪":1180,"놬":1181,"놯":1182,"놰":1183,"놴":1184,"놸":1185,"뇀":1186,"뇁":1187,"뇄":1188,"뇅":1189,"뇌":1190,"뇍":1191,"뇐":1192,"뇔":1193,"뇜":1194,"뇝":1195,"뇟":1196,"뇠":1197,"뇡":1198,"뇤":1199,"뇨":1200,"뇩":1201,"뇬":1202,"뇰":1203,"뇸":1204,"뇹":1205,"뇻":1206,"뇽":1207,"눀":1208,"눂":1209,"눃":1210,"누":1211,"눅":1212,"눈":1213,"눉":1214,"눋":1215,"눌":1216,"눍":1217,"눓":1218,"눔":1219,"눕":1220,"눗":1221,"눙":1222,"눚":1223,"눛":1224,"눜":1225,"눝":1226,"눞":1227,"눟":1228,"눠":1229,"눤":1230,"눨":1231,"눰":1232,"눳":1233,"눴":1234,"눵":1235,"눸":1236,"눹":1237,"눼":1238,"눽":1239,"뉀":1240,"뉄":1241,"뉅":1242,"뉌":1243,"뉍":1244,"뉑":1245,"뉔":1246,"뉘":1247,"뉙":1248,"뉜":1249,"뉠":1250,"뉨":1251,"뉩":1252,"뉫":1253,"뉬":1254,"뉭":1255,"뉰":1256,"뉴":1257,"뉵":1258,"뉸":1259,"뉼":1260,"늄":1261,"늅":1262,"늇":1263,"늉":1264,"늌":1265,"늎":1266,"늏":1267,"느":1268,"늑":1269,"늒":1270,"늓":1271,"는":1272,"늕":1273,"늖":1274,"늗":1275,"늘":1276,"늙":1277,"늚":1278,"늛":1279,"늜":1280,"늟":1281,"늠":1282,"늡":1283,"늣":1284,"늤":1285,"능":1286,"늦":1287,"늧":1288,"늨":1289,"늩":1290,"늪":1291,"늫":1292,"늬":1293,"늭":1294,"늰":1295,"늴":1296,"늼":1297,"늽":1298,"늿":1299,"닁":1300,"닄":1301,"니":1302,"닉":1303,"닊":1304,"닋":1305,"닌":1306,"닍":1307,"닏":1308,"닐":1309,"닑":1310,"닒":1311,"닗":1312,"님":1313,"닙":1314,"닚":1315,"닛":1316,"닜":1317,"닝":1318,"닞":1319,"닟":1320,"닠":1321,"닡":1322,"닢":1323,"닣":1324,"다":1325,"닥":1326,"닦":1327,"닧":1328,"단":1329,"닩":1330,"닪":1331,"닫":1332,"달":1333,"닭":1334,"닮":1335,"닯":1336,"닰":1337,"닱":1338,"닲":1339,"닳":1340,"담":1341,"답":1342,"닶":1343,"닷":1344,"닸":1345,"당":1346,"닺":1347,"닻":1348,"닼":1349,"닽":1350,"닾":1351,"닿":1352,"대":1353,"댁":1354,"댂":1355,"댄":1356,"댇":1357,"댈":1358,"댉":1359,"댏":1360,"댐":1361,"댑":1362,"댓":1363,"댔":1364,"댕":1365,"댖":1366,"댗":1367,"댘":1368,"댙":1369,"댚":1370,"댛":1371,"댜":1372,"댝":1373,"댠":1374,"댣":1375,"댤":1376,"댥":1377,"댦":1378,"댬":1379,"댭":1380,"댯":1381,"댰":1382,"댱":1383,"댲":1384,"댴":1385,"댷":1386,"댸":1387,"댼":1388,"덀":1389,"덈":1390,"덋":1391,"덌":1392,"덍":1393,"더":1394,"덕":1395,"덖":1396,"덗":1397,"던":1398,"덙":1399,"덛":1400,"덜":1401,"덝":1402,"덞":1403,"덟":1404,"덢":1405,"덣":1406,"덤":1407,"덥":1408,"덦":1409,"덧":1410,"덨":1411,"덩":1412,"덪":1413,"덫":1414,"덬":1415,"덭":1416,"덮":1417,"덯":1418,"데":1419,"덱":1420,"덲":1421,"덴":1422,"덷":1423,"델":1424,"덹":1425,"뎀":1426,"뎁":1427,"뎂":1428,"뎃":1429,"뎄":1430,"뎅":1431,"뎆":1432,"뎇":1433,"뎈":1434,"뎉":1435,"뎊":1436,"뎋":1437,"뎌":1438,"뎍":1439,"뎐":1440,"뎓":1441,"뎔":1442,"뎜":1443,"뎝":1444,"뎟":1445,"뎠":1446,"뎡":1447,"뎤":1448,"뎦":1449,"뎧":1450,"뎨":1451,"뎬":1452,"뎻":1453,"뎽":1454,"도":1455,"독":1456,"돆":1457,"돇":1458,"돈":1459,"돉":1460,"돋":1461,"돌":1462,"돍":1463,"돎":1464,"돏":1465,"돐":1466,"돒":1467,"돓":1468,"돔":1469,"돕":1470,"돖":1471,"돗":1472,"돘":1473,"동":1474,"돚":1475,"돛":1476,"돜":1477,"돝":1478,"돞":1479,"돟":1480,"돠":1481,"돡":1482,"돤":1483,"돨":1484,"돩":1485,"돰":1486,"돱":1487,"돳":1488,"돴":1489,"돵":1490,"돸":1491,"돻":1492,"돼":1493,"돽":1494,"돾":1495,"됀":1496,"됃":1497,"됄":1498,"됌":1499,"됍":1500,"됏":1501,"됐":1502,"됑":1503,"됒":1504,"됔":1505,"됗":1506,"되":1507,"됙":1508,"됚":1509,"된":1510,"됝":1511,"됟":1512,"될":1513,"됡":1514,"됢":1515,"됤":1516,"됥":1517,"됧":1518,"됨":1519,"됩":1520,"됫":1521,"됬":1522,"됭":1523,"됮":1524,"됰":1525,"됱":1526,"됳":1527,"됴":1528,"됵":1529,"됸":1530,"됻":1531,"됼":1532,"둄":1533,"둅":1534,"둇":1535,"둉":1536,"둊":1537,"둋":1538,"둌":1539,"둏":1540,"두":1541,"둑":1542,"둒":1543,"둔":1544,"둗":1545,"둘":1546,"둙":1547,"둚":1548,"둛":1549,"둞":1550,"둟":1551,"둠":1552,"둡":1553,"둣":1554,"둥":1555,"둦":1556,"둧":1557,"둨":1558,"둩":1559,"둪":1560,"둫":1561,"둬":1562,"둭":1563,"둰":1564,"둴":1565,"둼":1566,"둽":1567,"둿":1568,"뒀":1569,"뒁":1570,"뒄":1571,"뒇":1572,"뒈":1573,"뒌":1574,"뒐":1575,"뒑":1576,"뒓":1577,"뒘":1578,"뒙":1579,"뒛":1580,"뒜":1581,"뒝":1582,"뒞":1583,"뒠":1584,"뒤":1585,"뒥":1586,"뒨":1587,"뒫":1588,"뒬":1589,"뒴":1590,"뒵":1591,"뒷":1592,"뒸":1593,"뒹":1594,"뒺":1595,"뒼":1596,"듀":1597,"듁":1598,"듄":1599,"듇":1600,"듈":1601,"듐":1602,"듑":1603,"듓":1604,"듕":1605,"듘":1606,"드":1607,"득":1608,"듞":1609,"듟":1610,"든":1611,"듡":1612,"듢":1613,"듣":1614,"들":1615,"듥":1616,"듦":1617,"듧":1618,"듨":1619,"듩":1620,"듪":1621,"듫":1622,"듬":1623,"듭":1624,"듯":1625,"듰":1626,"등":1627,"듲":1628,"듳":1629,"듴":1630,"듵":1631,"듶":1632,"듷":1633,"듸":1634,"듹":1635,"듼":1636,"딀":1637,"딈":1638,"딉":1639,"딋":1640,"딍":1641,"디":1642,"딕":1643,"딖":1644,"딘":1645,"딛":1646,"딜":1647,"딝":1648,"딞":1649,"딣":1650,"딤":1651,"딥":1652,"딧":1653,"딨":1654,"딩":1655,"딪":1656,"딫":1657,"딬":1658,"딭":1659,"딮":1660,"딯":1661,"따":1662,"딱":1663,"딲":1664,"딳":1665,"딴":1666,"딷":1667,"딸":1668,"딹":1669,"딺":1670,"딻":1671,"딿":1672,"땀":1673,"땁":1674,"땃":1675,"땄":1676,"땅":1677,"땆":1678,"땈":1679,"땉":1680,"땋":1681,"때":1682,"땍":1683,"땎":1684,"땐":1685,"땓":1686,"땔":1687,"땜":1688,"땝":1689,"땟":1690,"땠":1691,"땡":1692,"땢":1693,"땣":1694,"땤":1695,"땦":1696,"땧":1697,"땨":1698,"땩":1699,"땬":1700,"땰":1701,"땸":1702,"땽":1703,"떄":1704,"떅":1705,"떈":1706,"떌":1707,"떔":1708,"떗":1709,"떘":1710,"떙":1711,"떠":1712,"떡":1713,"떢":1714,"떣":1715,"떤":1716,"떥":1717,"떦":1718,"떧":1719,"떨":1720,"떩":1721,"떪":1722,"떫":1723,"떮":1724,"떯":1725,"떰":1726,"떱":1727,"떳":1728,"떴":1729,"떵":1730,"떶":1731,"떷":1732,"떸":1733,"떹":1734,"떺":1735,"떻":1736,"떼":1737,"떽":1738,"떾":1739,"뗀":1740,"뗄":1741,"뗌":1742,"뗍":1743,"뗏":1744,"뗐":1745,"뗑":1746,"뗔":1747,"뗗":1748,"뗘":1749,"뗙":1750,"뗜":1751,"뗠":1752,"뗨":1753,"뗫":1754,"뗬":1755,"뗭":1756,"뗳":1757,"뗴":1758,"뗵":1759,"뗸":1760,"뗼":1761,"똇":1762,"똈":1763,"또":1764,"똑":1765,"똒":1766,"똔":1767,"똗":1768,"똘":1769,"똙":1770,"똚":1771,"똝":1772,"똟":1773,"똠":1774,"똡":1775,"똣":1776,"똥":1777,"똦":1778,"똧":1779,"똨":1780,"똩":1781,"똫":1782,"똬":1783,"똭":1784,"똮":1785,"똰":1786,"똴":1787,"똵":1788,"똷":1789,"똻":1790,"똼":1791,"똽":1792,"똿":1793,"뙀":1794,"뙁":1795,"뙄":1796,"뙇":1797,"뙈":1798,"뙌":1799,"뙓":1800,"뙛":1801,"뙜":1802,"뙝":1803,"뙤":1804,"뙥":1805,"뙨":1806,"뙬":1807,"뙴":1808,"뙷":1809,"뙸":1810,"뙹":1811,"뙿":1812,"뚀":1813,"뚁":1814,"뚄":1815,"뚈":1816,"뚊":1817,"뚕":1818,"뚜":1819,"뚝":1820,"뚞":1821,"뚠":1822,"뚢":1823,"뚣":1824,"뚤":1825,"뚥":1826,"뚦":1827,"뚧":1828,"뚨":1829,"뚫":1830,"뚬":1831,"뚭":1832,"뚯":1833,"뚱":1834,"뚴":1835,"뚵":1836,"뚷":1837,"뚸":1838,"뚹":1839,"뚼":1840,"뛀":1841,"뛃":1842,"뛋":1843,"뛌":1844,"뛍":1845,"뛓":1846,"뛔":1847,"뛕":1848,"뛝":1849,"뛟":1850,"뛣":1851,"뛥":1852,"뛧":1853,"뛨":1854,"뛰":1855,"뛱":1856,"뛴":1857,"뛸":1858,"뜀":1859,"뜁":1860,"뜃":1861,"뜄":1862,"뜅":1863,"뜌":1864,"뜍":1865,"뜐":1866,"뜔":1867,"뜛":1868,"뜜":1869,"뜝":1870,"뜡":1871,"뜨":1872,"뜩":1873,"뜪":1874,"뜬":1875,"뜮":1876,"뜯":1877,"뜰":1878,"뜱":1879,"뜳":1880,"뜷":1881,"뜸":1882,"뜹":1883,"뜻":1884,"뜼":1885,"뜽":1886,"뜾":1887,"뜿":1888,"띀":1889,"띁":1890,"띃":1891,"띄":1892,"띅":1893,"띈":1894,"띌":1895,"띔":1896,"띕":1897,"띙":1898,"띟":1899,"띠":1900,"띡":1901,"띤":1902,"띧":1903,"띨":1904,"띰":1905,"띱":1906,"띳":1907,"띴":1908,"띵":1909,"띶":1910,"띸":1911,"띻":1912,"라":1913,"락":1914,"띾":1915,"띿":1916,"란":1917,"랁":1918,"랂":1919,"랃":1920,"랄":1921,"랅":1922,"랆":1923,"랇":1924,"랈":1925,"랉":1926,"랊":1927,"랋":1928,"람":1929,"랍":1930,"랎":1931,"랏":1932,"랐":1933,"랑":1934,"랒":1935,"랓":1936,"랔":1937,"랕":1938,"랖":1939,"랗":1940,"래":1941,"랙":1942,"랚":1943,"랜":1944,"랟":1945,"랠":1946,"랡":1947,"램":1948,"랩":1949,"랫":1950,"랬":1951,"랭":1952,"랮":1953,"랯":1954,"랰":1955,"랱":1956,"랲":1957,"랳":1958,"랴":1959,"략":1960,"랸":1961,"랺":1962,"랻":1963,"랼":1964,"럄":1965,"럅":1966,"럇":1967,"럈":1968,"량":1969,"럊":1970,"럌":1971,"럎":1972,"럏":1973,"럐":1974,"럑":1975,"럔":1976,"럗":1977,"럘":1978,"럠":1979,"럣":1980,"럤":1981,"럥":1982,"러":1983,"럭":1984,"럮":1985,"럯":1986,"런":1987,"럱":1988,"럲":1989,"럳":1990,"럴":1991,"럵":1992,"럶":1993,"럷":1994,"럸":1995,"럻":1996,"럼":1997,"럽":1998,"럾":1999,"럿":2000,"렀":2001,"렁":2002,"렂":2003,"렃":2004,"렄":2005,"렅":2006,"렆":2007,"렇":2008,"레":2009,"렉":2010,"렊":2011,"렋":2012,"렌":2013,"렏":2014,"렐":2015,"렑":2016,"렓":2017,"렗":2018,"렘":2019,"렙":2020,"렚":2021,"렛":2022,"렜":2023,"렝":2024,"렞":2025,"렠":2026,"렡":2027,"렢":2028,"렣":2029,"려":2030,"력":2031,"렦":2032,"렧":2033,"련":2034,"렩":2035,"렪":2036,"렫":2037,"렬":2038,"렭":2039,"렴":2040,"렵":2041,"렷":2042,"렸":2043,"령":2044,"렺":2045,"렻":2046,"렼":2047,"렽":2048,"렾":2049,"렿":2050,"례":2051,"롁":2052,"롄":2053,"롈":2054,"롐":2055,"롑":2056,"롓":2057,"롔":2058,"롕":2059,"롘":2060,"로":2061,"록":2062,"롞":2063,"론":2064,"롡":2065,"롣":2066,"롤":2067,"롥":2068,"롫":2069,"롬":2070,"롭":2071,"롮":2072,"롯":2073,"롰":2074,"롱":2075,"롲":2076,"롳":2077,"롴":2078,"롵":2079,"롶":2080,"롷":2081,"롸":2082,"롹":2083,"롻":2084,"롼":2085,"뢀":2086,"뢁":2087,"뢈":2088,"뢉":2089,"뢋":2090,"뢌":2091,"뢍":2092,"뢐":2093,"뢓":2094,"뢔":2095,"뢕":2096,"뢘":2097,"뢜":2098,"뢥":2099,"뢨":2100,"뢩":2101,"뢰":2102,"뢱":2103,"뢴":2104,"뢸":2105,"룀":2106,"룁":2107,"룃":2108,"룄":2109,"룅":2110,"룈":2111,"료":2112,"룍":2113,"룐":2114,"룔":2115,"룜":2116,"룝":2117,"룟":2118,"룠":2119,"룡":2120,"룢":2121,"룤":2122,"룧":2123,"루":2124,"룩":2125,"룪":2126,"룬":2127,"룯":2128,"룰":2129,"룱":2130,"룷":2131,"룸":2132,"룹":2133,"룻":2134,"룽":2135,"룾":2136,"룿":2137,"뤀":2138,"뤁":2139,"뤂":2140,"뤃":2141,"뤄":2142,"뤅":2143,"뤈":2144,"뤌":2145,"뤔":2146,"뤕":2147,"뤗":2148,"뤘":2149,"뤙":2150,"뤜":2151,"뤟":2152,"뤠":2153,"뤡":2154,"뤤":2155,"뤨":2156,"뤩":2157,"뤫":2158,"뤰":2159,"뤱":2160,"뤳":2161,"뤵":2162,"뤸":2163,"뤼":2164,"뤽":2165,"륀":2166,"륄":2167,"륌":2168,"륍":2169,"륏":2170,"륐":2171,"륑":2172,"륔":2173,"류":2174,"륙":2175,"륜":2176,"륟":2177,"률":2178,"륨":2179,"륩":2180,"륫":2181,"륭":2182,"륮":2183,"륰":2184,"륲":2185,"륳":2186,"르":2187,"륵":2188,"륶":2189,"른":2190,"륹":2191,"륻":2192,"를":2193,"륽":2194,"륾":2195,"륿":2196,"릀":2197,"릁":2198,"릂":2199,"릃":2200,"름":2201,"릅":2202,"릇":2203,"릈":2204,"릉":2205,"릊":2206,"릋":2207,"릌":2208,"릍":2209,"릎":2210,"릏":2211,"릐":2212,"릑":2213,"릔":2214,"릘":2215,"릠":2216,"릡":2217,"릣":2218,"릥":2219,"릫":2220,"리":2221,"릭":2222,"릮":2223,"린":2224,"릱":2225,"릲":2226,"릳":2227,"릴":2228,"릵":2229,"릶":2230,"릷":2231,"릸":2232,"릹":2233,"릻":2234,"림":2235,"립":2236,"릾":2237,"릿":2238,"맀":2239,"링":2240,"맂":2241,"맃":2242,"맄":2243,"맅":2244,"맆":2245,"맇":2246,"마":2247,"막":2248,"맊":2249,"맋":2250,"만":2251,"맍":2252,"많":2253,"맏":2254,"말":2255,"맑":2256,"맒":2257,"맓":2258,"맔":2259,"맕":2260,"맖":2261,"맗":2262,"맘":2263,"맙":2264,"맚":2265,"맛":2266,"맜":2267,"망":2268,"맞":2269,"맟":2270,"맠":2271,"맡":2272,"맢":2273,"맣":2274,"매":2275,"맥":2276,"맨":2277,"맩":2278,"맪":2279,"맫":2280,"맬":2281,"맴":2282,"맵":2283,"맷":2284,"맸":2285,"맹":2286,"맺":2287,"맻":2288,"맼":2289,"맽":2290,"맿":2291,"먀":2292,"먁":2293,"먄":2294,"먆":2295,"먇":2296,"먈":2297,"먐":2298,"먑":2299,"먓":2300,"먕":2301,"먖":2302,"먗":2303,"먘":2304,"먛":2305,"먜":2306,"먠":2307,"먤":2308,"먱":2309,"머":2310,"먹":2311,"먺":2312,"먻":2313,"먼":2314,"먽":2315,"먾":2316,"먿":2317,"멀":2318,"멁":2319,"멂":2320,"멈":2321,"멉":2322,"멊":2323,"멋":2324,"멌":2325,"멍":2326,"멎":2327,"멏":2328,"멐":2329,"멑":2330,"멒":2331,"멓":2332,"메":2333,"멕":2334,"멘":2335,"멛":2336,"멜":2337,"멤":2338,"멥":2339,"멧":2340,"멨":2341,"멩":2342,"멪":2343,"멫":2344,"멬":2345,"멭":2346,"멮":2347,"멯":2348,"며":2349,"멱":2350,"멲":2351,"면":2352,"멵":2353,"멶":2354,"멷":2355,"멸":2356,"멿":2357,"몀":2358,"몁":2359,"몃":2360,"몄":2361,"명":2362,"몆":2363,"몇":2364,"몈":2365,"몉":2366,"몊":2367,"몋":2368,"몌":2369,"몐":2370,"몔":2371,"몟":2372,"몡":2373,"몢":2374,"몣":2375,"모":2376,"목":2377,"몪":2378,"몫":2379,"몬":2380,"몮":2381,"몯":2382,"몰":2383,"몱":2384,"몲":2385,"몴":2386,"몷":2387,"몸":2388,"몹":2389,"몺":2390,"못":2391,"몼":2392,"몽":2393,"몾":2394,"몿":2395,"뫀":2396,"뫁":2397,"뫂":2398,"뫃":2399,"뫄":2400,"뫅":2401,"뫈":2402,"뫌":2403,"뫔":2404,"뫕":2405,"뫗":2406,"뫘":2407,"뫙":2408,"뫚":2409,"뫜":2410,"뫠":2411,"뫤":2412,"뫼":2413,"뫽":2414,"묀":2415,"묄":2416,"묏":2417,"묑":2418,"묘":2419,"묙":2420,"묜":2421,"묠":2422,"묨":2423,"묫":2424,"묭":2425,"묯":2426,"무":2427,"묵":2428,"묶":2429,"묷":2430,"문":2431,"묹":2432,"묺":2433,"묻":2434,"물":2435,"묽":2436,"묾":2437,"묿":2438,"뭀":2439,"뭁":2440,"뭃":2441,"뭄":2442,"뭅":2443,"뭇":2444,"뭈":2445,"뭉":2446,"뭊":2447,"뭋":2448,"뭌":2449,"뭍":2450,"뭎":2451,"뭏":2452,"뭐":2453,"뭑":2454,"뭔":2455,"뭕":2456,"뭗":2457,"뭘":2458,"뭙":2459,"뭚":2460,"뭟":2461,"뭠":2462,"뭡":2463,"뭣":2464,"뭤":2465,"뭥":2466,"뭦":2467,"뭧":2468,"뭨":2469,"뭩":2470,"뭫":2471,"뭬":2472,"뭭":2473,"뭰":2474,"뭴":2475,"뭵":2476,"뭷":2477,"뭽":2478,"뭿":2479,"뮁":2480,"뮈":2481,"뮉":2482,"뮌":2483,"뮏":2484,"뮐":2485,"뮘":2486,"뮙":2487,"뮛":2488,"뮜":2489,"뮝":2490,"뮤":2491,"뮥":2492,"뮦":2493,"뮨":2494,"뮫":2495,"뮬":2496,"뮴":2497,"뮷":2498,"뮹":2499,"뮻":2500,"뮼":2501,"므":2502,"믁":2503,"믂":2504,"믄":2505,"믆":2506,"믇":2507,"믈":2508,"믉":2509,"믌":2510,"믏":2511,"믐":2512,"믑":2513,"믓":2514,"믕":2515,"믖":2516,"믘":2517,"믙":2518,"믛":2519,"믜":2520,"믝":2521,"믠":2522,"믣":2523,"믤":2524,"믬":2525,"믯":2526,"믰":2527,"믱":2528,"미":2529,"믹":2530,"믺":2531,"믻":2532,"민":2533,"믽":2534,"믾":2535,"믿":2536,"밀":2537,"밁":2538,"밂":2539,"밇":2540,"밈":2541,"밉":2542,"밊":2543,"밋":2544,"밌":2545,"밍":2546,"밎":2547,"및":2548,"밐":2549,"밑":2550,"밒":2551,"밓":2552,"바":2553,"박":2554,"밖":2555,"밗":2556,"반":2557,"밙":2558,"밚":2559,"받":2560,"발":2561,"밝":2562,"밞":2563,"밟":2564,"밠":2565,"밡":2566,"밢":2567,"밣":2568,"밤":2569,"밥":2570,"밦":2571,"밧":2572,"밨":2573,"방":2574,"밪":2575,"밫":2576,"밬":2577,"밭":2578,"밮":2579,"밯":2580,"배":2581,"백":2582,"밲":2583,"밳":2584,"밴":2585,"밷":2586,"밸":2587,"밹":2588,"밿":2589,"뱀":2590,"뱁":2591,"뱃":2592,"뱄":2593,"뱅":2594,"뱆":2595,"뱇":2596,"뱈":2597,"뱉":2598,"뱊":2599,"뱋":2600,"뱌":2601,"뱍":2602,"뱎":2603,"뱐":2604,"뱓":2605,"뱔":2606,"뱕":2607,"뱗":2608,"뱛":2609,"뱜":2610,"뱝":2611,"뱟":2612,"뱡":2613,"뱤":2614,"뱥":2615,"뱨":2616,"뱩":2617,"뱬":2618,"뱰":2619,"뱸":2620,"뱽":2621,"벁":2622,"버":2623,"벅":2624,"벆":2625,"번":2626,"벉":2627,"벊":2628,"벋":2629,"벌":2630,"벍":2631,"벎":2632,"벏":2633,"벐":2634,"벑":2635,"벓":2636,"범":2637,"법":2638,"벖":2639,"벗":2640,"벘":2641,"벙":2642,"벚":2643,"벛":2644,"벜":2645,"벝":2646,"벞":2647,"벟":2648,"베":2649,"벡":2650,"벤":2651,"벧":2652,"벨":2653,"벩":2654,"벫":2655,"벯":2656,"벰":2657,"벱":2658,"벲":2659,"벳":2660,"벴":2661,"벵":2662,"벶":2663,"벷":2664,"벸":2665,"벹":2666,"벺":2667,"벻":2668,"벼":2669,"벽":2670,"벾":2671,"변":2672,"볁":2673,"볂":2674,"볃":2675,"별":2676,"볅":2677,"볆":2678,"볇":2679,"볈":2680,"볋":2681,"볌":2682,"볍":2683,"볎":2684,"볏":2685,"볐":2686,"병":2687,"볒":2688,"볓":2689,"볔":2690,"볕":2691,"볖":2692,"볗":2693,"볘":2694,"볜":2695,"볠":2696,"볫":2697,"볭":2698,"보":2699,"복":2700,"볶":2701,"볷":2702,"본":2703,"볹":2704,"볻":2705,"볼":2706,"볽":2707,"볾":2708,"봀":2709,"봁":2710,"봃":2711,"봄":2712,"봅":2713,"봆":2714,"봇":2715,"봈":2716,"봉":2717,"봊":2718,"봋":2719,"봌":2720,"봍":2721,"봎":2722,"봏":2723,"봐":2724,"봑":2725,"봒":2726,"봔":2727,"봗":2728,"봘":2729,"봙":2730,"봟":2731,"봠":2732,"봡":2733,"봣":2734,"봤":2735,"봥":2736,"봦":2737,"봨":2738,"봩":2739,"봫":2740,"봬":2741,"봭":2742,"봰":2743,"봴":2744,"봵":2745,"봽":2746,"봿":2747,"뵀":2748,"뵁":2749,"뵈":2750,"뵉":2751,"뵌":2752,"뵏":2753,"뵐":2754,"뵑":2755,"뵘":2756,"뵙":2757,"뵛":2758,"뵜":2759,"뵝":2760,"뵞":2761,"뵠":2762,"뵤":2763,"뵥":2764,"뵨":2765,"뵬":2766,"뵴":2767,"뵵":2768,"뵷":2769,"뵹":2770,"뵺":2771,"부":2772,"북":2773,"붂":2774,"붃":2775,"분":2776,"붅":2777,"붆":2778,"붇":2779,"불":2780,"붉":2781,"붊":2782,"붋":2783,"붌":2784,"붍":2785,"붎":2786,"붏":2787,"붐":2788,"붑":2789,"붓":2790,"붔":2791,"붕":2792,"붖":2793,"붗":2794,"붘":2795,"붙":2796,"붚":2797,"붛":2798,"붜":2799,"붝":2800,"붠":2801,"붤":2802,"붥":2803,"붬":2804,"붭":2805,"붯":2806,"붰":2807,"붱":2808,"붴":2809,"붸":2810,"붹":2811,"붼":2812,"뷀":2813,"뷁":2814,"뷃":2815,"뷇":2816,"뷉":2817,"뷋":2818,"뷍":2819,"뷐":2820,"뷔":2821,"뷕":2822,"뷘":2823,"뷜":2824,"뷤":2825,"뷥":2826,"뷧":2827,"뷩":2828,"뷮":2829,"뷰":2830,"뷱":2831,"뷴":2832,"뷷":2833,"뷸":2834,"뷹":2835,"븀":2836,"븁":2837,"븂":2838,"븃":2839,"븅":2840,"븈":2841,"븉":2842,"븋":2843,"브":2844,"븍":2845,"븎":2846,"븏":2847,"븐":2848,"븓":2849,"블":2850,"븕":2851,"븛":2852,"븜":2853,"븝":2854,"븞":2855,"븟":2856,"븡":2857,"븢":2858,"븤":2859,"븥":2860,"븦":2861,"븧":2862,"븨":2863,"븩":2864,"븬":2865,"븰":2866,"븸":2867,"븹":2868,"븻":2869,"븽":2870,"빂":2871,"비":2872,"빅":2873,"빆":2874,"빇":2875,"빈":2876,"빋":2877,"빌":2878,"빍":2879,"빎":2880,"빏":2881,"빓":2882,"빔":2883,"빕":2884,"빖":2885,"빗":2886,"빘":2887,"빙":2888,"빚":2889,"빛":2890,"빜":2891,"빝":2892,"빞":2893,"빟":2894,"빠":2895,"빡":2896,"빢":2897,"빣":2898,"빤":2899,"빧":2900,"빨":2901,"빩":2902,"빪":2903,"빫":2904,"빬":2905,"빭":2906,"빯":2907,"빰":2908,"빱":2909,"빳":2910,"빴":2911,"빵":2912,"빶":2913,"빷":2914,"빸":2915,"빹":2916,"빺":2917,"빻":2918,"빼":2919,"빽":2920,"빾":2921,"뺀":2922,"뺃":2923,"뺄":2924,"뺅":2925,"뺌":2926,"뺍":2927,"뺏":2928,"뺐":2929,"뺑":2930,"뺒":2931,"뺓":2932,"뺔":2933,"뺕":2934,"뺗":2935,"뺘":2936,"뺙":2937,"뺚":2938,"뺜":2939,"뺠":2940,"뺡":2941,"뺨":2942,"뺩":2943,"뺫":2944,"뺭":2945,"뺴":2946,"뺵":2947,"뺶":2948,"뺸":2949,"뺼":2950,"뻁":2951,"뻄":2952,"뻇":2953,"뻈":2954,"뻉":2955,"뻐":2956,"뻑":2957,"뻒":2958,"뻔":2959,"뻕":2960,"뻖":2961,"뻗":2962,"뻘":2963,"뻙":2964,"뻠":2965,"뻡":2966,"뻣":2967,"뻤":2968,"뻥":2969,"뻦":2970,"뻨":2971,"뻩":2972,"뻪":2973,"뻫":2974,"뻬":2975,"뻭":2976,"뻰":2977,"뻴":2978,"뻼":2979,"뻿":2980,"뼀":2981,"뼁":2982,"뼈":2983,"뼉":2984,"뼊":2985,"뼌":2986,"뼏":2987,"뼐":2988,"뼑":2989,"뼘":2990,"뼙":2991,"뼛":2992,"뼜":2993,"뼝":2994,"뼠":2995,"뼡":2996,"뼤":2997,"뼬":2998,"뽀":2999,"뽁":3000,"뽂":3001,"뽄":3002,"뽇":3003,"뽈":3004,"뽐":3005,"뽑":3006,"뽓":3007,"뽕":3008,"뽖":3009,"뽘":3010,"뽚":3011,"뽛":3012,"뽜":3013,"뽝":3014,"뽞":3015,"뽠":3016,"뽤":3017,"뽥":3018,"뽫":3019,"뽬":3020,"뽭":3021,"뽯":3022,"뽰":3023,"뽱":3024,"뽴":3025,"뽷":3026,"뽸":3027,"뽹":3028,"뾀":3029,"뾃":3030,"뾔":3031,"뾥":3032,"뾰":3033,"뾱":3034,"뾲":3035,"뾴":3036,"뾸":3037,"뿁":3038,"뿃":3039,"뿅":3040,"뿌":3041,"뿍":3042,"뿎":3043,"뿐":3044,"뿑":3045,"뿓":3046,"뿔":3047,"뿕":3048,"뿛":3049,"뿜":3050,"뿝":3051,"뿟":3052,"뿠":3053,"뿡":3054,"뿤":3055,"뿥":3056,"뿧":3057,"뿨":3058,"뿩":3059,"뿬":3060,"뿰":3061,"뿱":3062,"뿳":3063,"뿹":3064,"뿽":3065,"쀀":3066,"쀄":3067,"쀅":3068,"쀈":3069,"쀌":3070,"쀍":3071,"쀏":3072,"쀒":3073,"쀓":3074,"쀠":3075,"쀡":3076,"쀨":3077,"쀳":3078,"쀵":3079,"쀼":3080,"쀽":3081,"쀾":3082,"쁀":3083,"쁄":3084,"쁌":3085,"쁍":3086,"쁏":3087,"쁐":3088,"쁑":3089,"쁘":3090,"쁙":3091,"쁜":3092,"쁝":3093,"쁟":3094,"쁠":3095,"쁨":3096,"쁩":3097,"쁫":3098,"쁭":3099,"쁮":3100,"쁰":3101,"쁴":3102,"쁸":3103,"쁼":3104,"삉":3105,"삐":3106,"삑":3107,"삒":3108,"삔":3109,"삗":3110,"삘":3111,"삠":3112,"삡":3113,"삣":3114,"삤":3115,"삥":3116,"삦":3117,"삧":3118,"삨":3119,"삫":3120,"사":3121,"삭":3122,"삮":3123,"삯":3124,"산":3125,"삱":3126,"삲":3127,"삳":3128,"살":3129,"삵":3130,"삶":3131,"삷":3132,"삸":3133,"삹":3134,"삺":3135,"삻":3136,"삼":3137,"삽":3138,"삾":3139,"삿":3140,"샀":3141,"상":3142,"샂":3143,"샃":3144,"샄":3145,"샅":3146,"샆":3147,"샇":3148,"새":3149,"색":3150,"샊":3151,"샋":3152,"샌":3153,"샎":3154,"샏":3155,"샐":3156,"샑":3157,"샒":3158,"샓":3159,"샔":3160,"샕":3161,"샗":3162,"샘":3163,"샙":3164,"샚":3165,"샛":3166,"샜":3167,"생":3168,"샞":3169,"샟":3170,"샠":3171,"샡":3172,"샢":3173,"샣":3174,"샤":3175,"샥":3176,"샦":3177,"샨":3178,"샫":3179,"샬":3180,"샮":3181,"샴":3182,"샵":3183,"샷":3184,"샸":3185,"샹":3186,"샼":3187,"샽":3188,"샾":3189,"샿":3190,"섀":3191,"섁":3192,"섂":3193,"섄":3194,"섈":3195,"섉":3196,"섊":3197,"섐":3198,"섑":3199,"섓":3200,"섔":3201,"섕":3202,"섘":3203,"서":3204,"석":3205,"섞":3206,"섟":3207,"선":3208,"섡":3209,"섢":3210,"섣":3211,"설":3212,"섥":3213,"섦":3214,"섧":3215,"섨":3216,"섩":3217,"섪":3218,"섫":3219,"섬":3220,"섭":3221,"섮":3222,"섯":3223,"섰":3224,"성":3225,"섲":3226,"섳":3227,"섴":3228,"섵":3229,"섶":3230,"섷":3231,"세":3232,"섹":3233,"섺":3234,"섻":3235,"센":3236,"섽":3237,"섿":3238,"셀":3239,"셁":3240,"셂":3241,"셃":3242,"셆":3243,"셇":3244,"셈":3245,"셉":3246,"셋":3247,"셌":3248,"셍":3249,"셎":3250,"셏":3251,"셐":3252,"셑":3253,"셒":3254,"셓":3255,"셔":3256,"셕":3257,"셖":3258,"션":3259,"셛":3260,"셜":3261,"셟":3262,"셤":3263,"셥":3264,"셧":3265,"셨":3266,"셩":3267,"셫":3268,"셬":3269,"셭":3270,"셮":3271,"셯":3272,"셰":3273,"셱":3274,"셲":3275,"셴":3276,"셸":3277,"솀":3278,"솁":3279,"솃":3280,"솄":3281,"솅":3282,"솈":3283,"솉":3284,"솊":3285,"소":3286,"속":3287,"솎":3288,"솏":3289,"손":3290,"솑":3291,"솒":3292,"솓":3293,"솔":3294,"솕":3295,"솖":3296,"솛":3297,"솜":3298,"솝":3299,"솟":3300,"솠":3301,"송":3302,"솢":3303,"솣":3304,"솤":3305,"솥":3306,"솦":3307,"솧":3308,"솨":3309,"솩":3310,"솬":3311,"솰":3312,"솸":3313,"솹":3314,"솻":3315,"솼":3316,"솽":3317,"쇀":3318,"쇄":3319,"쇅":3320,"쇆":3321,"쇈":3322,"쇌":3323,"쇔":3324,"쇗":3325,"쇘":3326,"쇙":3327,"쇜":3328,"쇟":3329,"쇠":3330,"쇡":3331,"쇣":3332,"쇤":3333,"쇨":3334,"쇱":3335,"쇳":3336,"쇵":3337,"쇸":3338,"쇼":3339,"쇽":3340,"숀":3341,"숄":3342,"숌":3343,"숍":3344,"숏":3345,"숐":3346,"숑":3347,"숔":3348,"숖":3349,"숗":3350,"수":3351,"숙":3352,"숚":3353,"순":3354,"숝":3355,"숟":3356,"술":3357,"숡":3358,"숢":3359,"숤":3360,"숧":3361,"숨":3362,"숩":3363,"숪":3364,"숫":3365,"숬":3366,"숭":3367,"숮":3368,"숯":3369,"숰":3370,"숱":3371,"숲":3372,"숳":3373,"숴":3374,"숵":3375,"숶":3376,"숸":3377,"숼":3378,"쉄":3379,"쉅":3380,"쉇":3381,"쉈":3382,"쉉":3383,"쉌":3384,"쉐":3385,"쉑":3386,"쉒":3387,"쉓":3388,"쉔":3389,"쉗":3390,"쉘":3391,"쉙":3392,"쉚":3393,"쉛":3394,"쉜":3395,"쉞":3396,"쉟":3397,"쉠":3398,"쉡":3399,"쉣":3400,"쉤":3401,"쉥":3402,"쉧":3403,"쉨":3404,"쉩":3405,"쉪":3406,"쉫":3407,"쉬":3408,"쉭":3409,"쉮":3410,"쉰":3411,"쉲":3412,"쉳":3413,"쉴":3414,"쉻":3415,"쉼":3416,"쉽":3417,"쉾":3418,"쉿":3419,"슀":3420,"슁":3421,"슂":3422,"슄":3423,"슅":3424,"슆":3425,"슇":3426,"슈":3427,"슉":3428,"슌":3429,"슏":3430,"슐":3431,"슘":3432,"슙":3433,"슛":3434,"슝":3435,"슞":3436,"슟":3437,"슠":3438,"슢":3439,"스":3440,"슥":3441,"슦":3442,"슧":3443,"슨":3444,"슩":3445,"슫":3446,"슬":3447,"슭":3448,"슮":3449,"슯":3450,"슰":3451,"슲":3452,"슳":3453,"슴":3454,"습":3455,"슶":3456,"슷":3457,"슸":3458,"승":3459,"슺":3460,"슻":3461,"슼":3462,"슽":3463,"슾":3464,"슿":3465,"싀":3466,"싁":3467,"싄":3468,"싅":3469,"싆":3470,"싇":3471,"싈":3472,"싐":3473,"싑":3474,"싓":3475,"싕":3476,"싖":3477,"싘":3478,"싙":3479,"싚":3480,"시":3481,"식":3482,"싞":3483,"싟":3484,"신":3485,"싡":3486,"싢":3487,"싣":3488,"실":3489,"싥":3490,"싦":3491,"싧":3492,"싨":3493,"싩":3494,"싪":3495,"싫":3496,"심":3497,"십":3498,"싮":3499,"싯":3500,"싰":3501,"싱":3502,"싲":3503,"싳":3504,"싴":3505,"싵":3506,"싶":3507,"싷":3508,"싸":3509,"싹":3510,"싺":3511,"싻":3512,"싼":3513,"싾":3514,"싿":3515,"쌀":3516,"쌂":3517,"쌇":3518,"쌈":3519,"쌉":3520,"쌋":3521,"쌌":3522,"쌍":3523,"쌎":3524,"쌐":3525,"쌑":3526,"쌒":3527,"쌓":3528,"쌔":3529,"쌕":3530,"쌖":3531,"쌗":3532,"쌘":3533,"쌛":3534,"쌜":3535,"쌞":3536,"쌟":3537,"쌤":3538,"쌥":3539,"쌧":3540,"쌨":3541,"쌩":3542,"쌬":3543,"쌯":3544,"쌰":3545,"쌱":3546,"쌴":3547,"쌸":3548,"쌻":3549,"썀":3550,"썁":3551,"썃":3552,"썄":3553,"썅":3554,"썋":3555,"썌":3556,"썍":3557,"썎":3558,"썐":3559,"썔":3560,"썖":3561,"썜":3562,"썝":3563,"썟":3564,"썠":3565,"썡":3566,"써":3567,"썩":3568,"썪":3569,"썫":3570,"썬":3571,"썯":3572,"썰":3573,"썱":3574,"썳":3575,"썸":3576,"썹":3577,"썻":3578,"썼":3579,"썽":3580,"썾":3581,"쎀":3582,"쎁":3583,"쎂":3584,"쎃":3585,"쎄":3586,"쎅":3587,"쎆":3588,"쎇":3589,"쎈":3590,"쎌":3591,"쎍":3592,"쎓":3593,"쎔":3594,"쎕":3595,"쎗":3596,"쎘":3597,"쎙":3598,"쎜":3599,"쎝":3600,"쎟":3601,"쎠":3602,"쎡":3603,"쎤":3604,"쎨":3605,"쎰":3606,"쎱":3607,"쎳":3608,"쎴":3609,"쎵":3610,"쎼":3611,"쎽":3612,"쎾":3613,"쏀":3614,"쏃":3615,"쏄":3616,"쏌":3617,"쏏":3618,"쏐":3619,"쏔":3620,"쏖":3621,"쏘":3622,"쏙":3623,"쏚":3624,"쏜":3625,"쏟":3626,"쏠":3627,"쏨":3628,"쏩":3629,"쏫":3630,"쏬":3631,"쏭":3632,"쏮":3633,"쏰":3634,"쏱":3635,"쏳":3636,"쏴":3637,"쏵":3638,"쏸":3639,"쏼":3640,"쐄":3641,"쐅":3642,"쐇":3643,"쐈":3644,"쐉":3645,"쐌":3646,"쐏":3647,"쐐":3648,"쐑":3649,"쐒":3650,"쐣":3651,"쐤":3652,"쐥":3653,"쐨":3654,"쐬":3655,"쐭":3656,"쐰":3657,"쐴":3658,"쐼":3659,"쐽":3660,"쐿":3661,"쑀":3662,"쑈":3663,"쑉":3664,"쑌":3665,"쑐":3666,"쑙":3667,"쑛":3668,"쑝":3669,"쑤":3670,"쑥":3671,"쑦":3672,"쑨":3673,"쑫":3674,"쑬":3675,"쑴":3676,"쑵":3677,"쑷":3678,"쑹":3679,"쑻":3680,"쑼":3681,"쒀":3682,"쒁":3683,"쒂":3684,"쒄":3685,"쒈":3686,"쒐":3687,"쒑":3688,"쒓":3689,"쒔":3690,"쒕":3691,"쒘":3692,"쒜":3693,"쒝":3694,"쒞":3695,"쒠":3696,"쒤":3697,"쒥":3698,"쒧":3699,"쒫":3700,"쒭":3701,"쒯":3702,"쒰":3703,"쒱":3704,"쒴":3705,"쒵":3706,"쒸":3707,"쒹":3708,"쒼":3709,"쓀":3710,"쓃":3711,"쓈":3712,"쓉":3713,"쓊":3714,"쓋":3715,"쓌":3716,"쓍":3717,"쓐":3718,"쓑":3719,"쓒":3720,"쓔":3721,"쓕":3722,"쓘":3723,"쓜":3724,"쓤":3725,"쓥":3726,"쓧":3727,"쓩":3728,"쓰":3729,"쓱":3730,"쓲":3731,"쓴":3732,"쓷":3733,"쓸":3734,"쓹":3735,"쓺":3736,"쓿":3737,"씀":3738,"씁":3739,"씂":3740,"씃":3741,"씄":3742,"씅":3743,"씆":3744,"씇":3745,"씈":3746,"씉":3747,"씊":3748,"씋":3749,"씌":3750,"씍":3751,"씐":3752,"씔":3753,"씗":3754,"씜":3755,"씝":3756,"씞":3757,"씟":3758,"씡":3759,"씤":3760,"씥":3761,"씦":3762,"씧":3763,"씨":3764,"씩":3765,"씪":3766,"씬":3767,"씮":3768,"씯":3769,"씰":3770,"씱":3771,"씳":3772,"씶":3773,"씷":3774,"씸":3775,"씹":3776,"씺":3777,"씻":3778,"씼":3779,"씽":3780,"씾":3781,"씿":3782,"앀":3783,"앁":3784,"앂":3785,"앃":3786,"아":3787,"악":3788,"앆":3789,"앇":3790,"안":3791,"앉":3792,"않":3793,"앋":3794,"알":3795,"앍":3796,"앎":3797,"앏":3798,"앐":3799,"앑":3800,"앒":3801,"앓":3802,"암":3803,"압":3804,"앖":3805,"앗":3806,"았":3807,"앙":3808,"앚":3809,"앛":3810,"앜":3811,"앝":3812,"앞":3813,"앟":3814,"애":3815,"액":3816,"앢":3817,"앣":3818,"앤":3819,"앦":3820,"앧":3821,"앨":3822,"앩":3823,"앰":3824,"앱":3825,"앲":3826,"앳":3827,"앴":3828,"앵":3829,"앶":3830,"앷":3831,"앸":3832,"앹":3833,"앺":3834,"앻":3835,"야":3836,"약":3837,"앾":3838,"앿":3839,"얀":3840,"얁":3841,"얂":3842,"얃":3843,"얄":3844,"얅":3845,"얆":3846,"얇":3847,"얉":3848,"얊":3849,"얋":3850,"얌":3851,"얍":3852,"얎":3853,"얏":3854,"얐":3855,"양":3856,"얒":3857,"얓":3858,"얔":3859,"얕":3860,"얖":3861,"얗":3862,"얘":3863,"얙":3864,"얜":3865,"얠":3866,"얨":3867,"얩":3868,"얪":3869,"얫":3870,"얬":3871,"얭":3872,"얮":3873,"얰":3874,"얳":3875,"어":3876,"억":3877,"얶":3878,"얷":3879,"언":3880,"얹":3881,"얺":3882,"얻":3883,"얼":3884,"얽":3885,"얾":3886,"얿":3887,"엀":3888,"엁":3889,"엂":3890,"엃":3891,"엄":3892,"업":3893,"없":3894,"엇":3895,"었":3896,"엉":3897,"엊":3898,"엋":3899,"엌":3900,"엍":3901,"엎":3902,"엏":3903,"에":3904,"엑":3905,"엒":3906,"엓":3907,"엔":3908,"엕":3909,"엗":3910,"엘":3911,"엙":3912,"엜":3913,"엞":3914,"엠":3915,"엡":3916,"엢":3917,"엣":3918,"엤":3919,"엥":3920,"엦":3921,"엧":3922,"엨":3923,"엩":3924,"엪":3925,"엫":3926,"여":3927,"역":3928,"엮":3929,"엯":3930,"연":3931,"엱":3932,"엲":3933,"엳":3934,"열":3935,"엵":3936,"엶":3937,"엷":3938,"엸":3939,"엹":3940,"엻":3941,"염":3942,"엽":3943,"엾":3944,"엿":3945,"였":3946,"영":3947,"옂":3948,"옃":3949,"옄":3950,"옅":3951,"옆":3952,"옇":3953,"예":3954,"옉":3955,"옌":3956,"옐":3957,"옘":3958,"옙":3959,"옛":3960,"옜":3961,"옝":3962,"옞":3963,"옟":3964,"옠":3965,"옢":3966,"옣":3967,"오":3968,"옥":3969,"옦":3970,"옧":3971,"온":3972,"옩":3973,"옪":3974,"옫":3975,"올":3976,"옭":3977,"옮":3978,"옯":3979,"옰":3980,"옱":3981,"옲":3982,"옳":3983,"옴":3984,"옵":3985,"옶":3986,"옷":3987,"옸":3988,"옹":3989,"옺":3990,"옻":3991,"옼":3992,"옽":3993,"옾":3994,"옿":3995,"와":3996,"왁":3997,"왂":3998,"완":3999,"왅":4000,"왆":4001,"왇":4002,"왈":4003,"왉":4004,"왐":4005,"왑":4006,"왓":4007,"왔":4008,"왕":4009,"왖":4010,"왗":4011,"왘":4012,"왙":4013,"왚":4014,"왛":4015,"왜":4016,"왝":4017,"왠":4018,"왡":4019,"왢":4020,"왤":4021,"왥":4022,"왬":4023,"왭":4024,"왯":4025,"왰":4026,"왱":4027,"왲":4028,"왳":4029,"왴":4030,"왶":4031,"왷":4032,"외":4033,"왹":4034,"왼":4035,"욀":4036,"욈":4037,"욉":4038,"욋":4039,"욌":4040,"욍":4041,"욎":4042,"욐":4043,"욓":4044,"요":4045,"욕":4046,"욖":4047,"욗":4048,"욘":4049,"욛":4050,"욜":4051,"욝":4052,"욣":4053,"욤":4054,"욥":4055,"욧":4056,"욨":4057,"용":4058,"욪":4059,"욫":4060,"욬":4061,"욭":4062,"욮":4063,"욯":4064,"우":4065,"욱":4066,"욲":4067,"욳":4068,"운":4069,"욵":4070,"욷":4071,"울":4072,"욹":4073,"욺":4074,"욻":4075,"욼":4076,"욽":4077,"욾":4078,"욿":4079,"움":4080,"웁":4081,"웂":4082,"웃":4083,"웄":4084,"웅":4085,"웆":4086,"웇":4087,"웈":4088,"웉":4089,"웊":4090,"웋":4091,"워":4092,"웍":4093,"웎":4094,"원":4095,"웑":4096,"웒":4097,"웓":4098,"월":4099,"웕":4100,"웖":4101,"웗":4102,"웘":4103,"웙":4104,"웚":4105,"웛":4106,"웜":4107,"웝":4108,"웞":4109,"웟":4110,"웠":4111,"웡":4112,"웢":4113,"웣":4114,"웤":4115,"웥":4116,"웦":4117,"웧":4118,"웨":4119,"웩":4120,"웪":4121,"웬":4122,"웯":4123,"웰":4124,"웱":4125,"웳":4126,"웸":4127,"웹":4128,"웻":4129,"웼":4130,"웽":4131,"웾":4132,"윀":4133,"윁":4134,"윂":4135,"위":4136,"윅":4137,"윈":4138,"윋":4139,"윌":4140,"윔":4141,"윕":4142,"윖":4143,"윗":4144,"윘":4145,"윙":4146,"윚":4147,"윜":4148,"윝":4149,"윟":4150,"유":4151,"육":4152,"윢":4153,"윣":4154,"윤":4155,"윥":4156,"윧":4157,"율":4158,"윩":4159,"윯":4160,"윰":4161,"윱":4162,"윳":4163,"융":4164,"윶":4165,"윷":4166,"윸":4167,"윹":4168,"윺":4169,"윻":4170,"으":4171,"윽":4172,"윾":4173,"윿":4174,"은":4175,"읁":4176,"읂":4177,"읃":4178,"을":4179,"읅":4180,"읆":4181,"읇":4182,"읈":4183,"읉":4184,"읊":4185,"읋":4186,"음":4187,"읍":4188,"읎":4189,"읏":4190,"읐":4191,"응":4192,"읒":4193,"읓":4194,"읔":4195,"읕":4196,"읖":4197,"읗":4198,"의":4199,"읙":4200,"읜":4201,"읟":4202,"읠":4203,"읨":4204,"읩":4205,"읪":4206,"읫":4207,"읬":4208,"읭":4209,"읮":4210,"읯":4211,"읰":4212,"읱":4213,"읲":4214,"읳":4215,"이":4216,"익":4217,"읶":4218,"읷":4219,"인":4220,"읹":4221,"읺":4222,"읻":4223,"일":4224,"읽":4225,"읾":4226,"읿":4227,"잀":4228,"잁":4229,"잂":4230,"잃":4231,"임":4232,"입":4233,"잆":4234,"잇":4235,"있":4236,"잉":4237,"잊":4238,"잋":4239,"잌":4240,"잍":4241,"잎":4242,"잏":4243,"자":4244,"작":4245,"잒":4246,"잓":4247,"잔":4248,"잕":4249,"잖":4250,"잗":4251,"잘":4252,"잙":4253,"잚":4254,"잛":4255,"잜":4256,"잝":4257,"잞":4258,"잟":4259,"잠":4260,"잡":4261,"잢":4262,"잣":4263,"잤":4264,"장":4265,"잦":4266,"잧":4267,"잨":4268,"잩":4269,"잪":4270,"잫":4271,"재":4272,"잭":4273,"잮":4274,"잰":4275,"잲":4276,"잳":4277,"잴":4278,"잼":4279,"잽":4280,"잿":4281,"쟀":4282,"쟁":4283,"쟂":4284,"쟃":4285,"쟄":4286,"쟅":4287,"쟆":4288,"쟇":4289,"쟈":4290,"쟉":4291,"쟊":4292,"쟌":4293,"쟎":4294,"쟏":4295,"쟐":4296,"쟘":4297,"쟙":4298,"쟛":4299,"쟜":4300,"쟝":4301,"쟞":4302,"쟟":4303,"쟠":4304,"쟡":4305,"쟣":4306,"쟤":4307,"쟥":4308,"쟨":4309,"쟬":4310,"쟴":4311,"쟸":4312,"쟹":4313,"쟼":4314,"저":4315,"적":4316,"젂":4317,"젃":4318,"전":4319,"젅":4320,"젆":4321,"젇":4322,"절":4323,"젉":4324,"젊":4325,"젋":4326,"젌":4327,"젍":4328,"젎":4329,"젏":4330,"점":4331,"접":4332,"젒":4333,"젓":4334,"젔":4335,"정":4336,"젖":4337,"젗":4338,"젘":4339,"젙":4340,"젚":4341,"젛":4342,"제":4343,"젝":4344,"젞":4345,"젠":4346,"젡":4347,"젣":4348,"젤":4349,"젬":4350,"젭":4351,"젯":4352,"젰":4353,"젱":4354,"젲":4355,"젳":4356,"젴":4357,"젵":4358,"젶":4359,"젷":4360,"져":4361,"젹":4362,"젺":4363,"젼":4364,"젾":4365,"젿":4366,"졀":4367,"졂":4368,"졈":4369,"졉":4370,"졋":4371,"졌":4372,"졍":4373,"졎":4374,"졏":4375,"졐":4376,"졑":4377,"졒":4378,"졓":4379,"졔":4380,"졘":4381,"졜":4382,"졨":4383,"졩":4384,"조":4385,"족":4386,"졲":4387,"졳":4388,"존":4389,"졵":4390,"졶":4391,"졷":4392,"졸":4393,"졹":4394,"졺":4395,"졻":4396,"졽":4397,"졿":4398,"좀":4399,"좁":4400,"좂":4401,"좃":4402,"좄":4403,"종":4404,"좆":4405,"좇":4406,"좈":4407,"좉":4408,"좊":4409,"좋":4410,"좌":4411,"좍":4412,"좎":4413,"좐":4414,"좒":4415,"좓":4416,"좔":4417,"좜":4418,"좝":4419,"좟":4420,"좠":4421,"좡":4422,"좢":4423,"좣":4424,"좤":4425,"좥":4426,"좦":4427,"좧":4428,"좨":4429,"좩":4430,"좬":4431,"좭":4432,"좮":4433,"좯":4434,"좰":4435,"좱":4436,"좸":4437,"좼":4438,"좽":4439,"죄":4440,"죅":4441,"죈":4442,"죌":4443,"죔":4444,"죕":4445,"죗":4446,"죘":4447,"죙":4448,"죚":4449,"죜":4450,"죝":4451,"죠":4452,"죡":4453,"죢":4454,"죣":4455,"죤":4456,"죥":4457,"죧":4458,"죨":4459,"죰":4460,"죱":4461,"죳":4462,"죴":4463,"죵":4464,"죶":4465,"죷":4466,"죸":4467,"죹":4468,"죺":4469,"죻":4470,"주":4471,"죽":4472,"죾":4473,"죿":4474,"준":4475,"줁":4476,"줂":4477,"줃":4478,"줄":4479,"줅":4480,"줆":4481,"줈":4482,"줉":4483,"줊":4484,"줋":4485,"줌":4486,"줍":4487,"줎":4488,"줏":4489,"줐":4490,"중":4491,"줒":4492,"줓":4493,"줔":4494,"줕":4495,"줖":4496,"줗":4497,"줘":4498,"줙":4499,"줚":4500,"줜":4501,"줝":4502,"줟":4503,"줠":4504,"줨":4505,"줩":4506,"줫":4507,"줬":4508,"줭":4509,"줮":4510,"줯":4511,"줰":4512,"줱":4513,"줳":4514,"줴":4515,"줵":4516,"줸":4517,"줼":4518,"쥄":4519,"쥅":4520,"쥇":4521,"쥈":4522,"쥉":4523,"쥐":4524,"쥑":4525,"쥔":4526,"쥘":4527,"쥠":4528,"쥡":4529,"쥣":4530,"쥤":4531,"쥥":4532,"쥦":4533,"쥨":4534,"쥫":4535,"쥬":4536,"쥭":4537,"쥰":4538,"쥳":4539,"쥴":4540,"쥼":4541,"쥽":4542,"쥿":4543,"즁":4544,"즂":4545,"즄":4546,"즇":4547,"즈":4548,"즉":4549,"즋":4550,"즌":4551,"즎":4552,"즏":4553,"즐":4554,"즑":4555,"즘":4556,"즙":4557,"즛":4558,"즜":4559,"증":4560,"즞":4561,"즟":4562,"즠":4563,"즡":4564,"즣":4565,"즤":4566,"즥":4567,"즨":4568,"즬":4569,"즴":4570,"즵":4571,"즷":4572,"즹":4573,"즺":4574,"즼":4575,"지":4576,"직":4577,"짂":4578,"짃":4579,"진":4580,"짅":4581,"짆":4582,"짇":4583,"질":4584,"짉":4585,"짊":4586,"짋":4587,"짌":4588,"짍":4589,"짎":4590,"짏":4591,"짐":4592,"집":4593,"짒":4594,"짓":4595,"짔":4596,"징":4597,"짖":4598,"짗":4599,"짘":4600,"짙":4601,"짚":4602,"짛":4603,"짜":4604,"짝":4605,"짞":4606,"짠":4607,"짢":4608,"짣":4609,"짤":4610,"짥":4611,"짦":4612,"짧":4613,"짪":4614,"짫":4615,"짬":4616,"짭":4617,"짮":4618,"짯":4619,"짰":4620,"짱":4621,"짲":4622,"짳":4623,"짴":4624,"짵":4625,"짶":4626,"짷":4627,"째":4628,"짹":4629,"짺":4630,"짼":4631,"짾":4632,"짿":4633,"쨀":4634,"쨈":4635,"쨉":4636,"쨋":4637,"쨌":4638,"쨍":4639,"쨎":4640,"쨐":4641,"쨓":4642,"쨔":4643,"쨕":4644,"쨖":4645,"쨘":4646,"쨚":4647,"쨜":4648,"쨟":4649,"쨤":4650,"쨥":4651,"쨧":4652,"쨨":4653,"쨩":4654,"쨬":4655,"쨰":4656,"쨱":4657,"쨲":4658,"쨴":4659,"쩀":4660,"쩁":4661,"쩃":4662,"쩄":4663,"쩅":4664,"쩌":4665,"쩍":4666,"쩎":4667,"쩐":4668,"쩑":4669,"쩓":4670,"쩔":4671,"쩕":4672,"쩖":4673,"쩗":4674,"쩘":4675,"쩛":4676,"쩜":4677,"쩝":4678,"쩟":4679,"쩠":4680,"쩡":4681,"쩢":4682,"쩣":4683,"쩤":4684,"쩦":4685,"쩧":4686,"쩨":4687,"쩩":4688,"쩬":4689,"쩰":4690,"쩸":4691,"쩹":4692,"쩻":4693,"쩼":4694,"쩽":4695,"쪄":4696,"쪅":4697,"쪈":4698,"쪌":4699,"쪔":4700,"쪕":4701,"쪗":4702,"쪘":4703,"쪙":4704,"쪚":4705,"쪜":4706,"쪟":4707,"쪠":4708,"쪵":4709,"쪹":4710,"쪻":4711,"쪼":4712,"쪽":4713,"쪾":4714,"쪿":4715,"쫀":4716,"쫂":4717,"쫃":4718,"쫄":4719,"쫅":4720,"쫌":4721,"쫍":4722,"쫏":4723,"쫐":4724,"쫑":4725,"쫒":4726,"쫓":4727,"쫔":4728,"쫕":4729,"쫖":4730,"쫗":4731,"쫘":4732,"쫙":4733,"쫚":4734,"쫛":4735,"쫜":4736,"쫟":4737,"쫠":4738,"쫨":4739,"쫩":4740,"쫫":4741,"쫭":4742,"쫰":4743,"쫴":4744,"쫵":4745,"쬈":4746,"쬎":4747,"쬐":4748,"쬑":4749,"쬔":4750,"쬘":4751,"쬠":4752,"쬡":4753,"쬥":4754,"쬬":4755,"쬭":4756,"쬮":4757,"쬰":4758,"쬲":4759,"쬴":4760,"쬼":4761,"쬽":4762,"쬿":4763,"쭀":4764,"쭁":4765,"쭂":4766,"쭃":4767,"쭄":4768,"쭅":4769,"쭈":4770,"쭉":4771,"쭊":4772,"쭌":4773,"쭏":4774,"쭐":4775,"쭕":4776,"쭘":4777,"쭙":4778,"쭛":4779,"쭝":4780,"쭞":4781,"쭟":4782,"쭠":4783,"쭤":4784,"쭥":4785,"쭨":4786,"쭬":4787,"쭭":4788,"쭵":4789,"쭷":4790,"쭸":4791,"쭹":4792,"쭻":4793,"쮀":4794,"쮁":4795,"쮇":4796,"쮉":4797,"쮑":4798,"쮓":4799,"쮔":4800,"쮕":4801,"쮜":4802,"쮝":4803,"쮠":4804,"쮤":4805,"쮭":4806,"쮱":4807,"쮸":4808,"쮹":4809,"쮼":4810,"쯀":4811,"쯈":4812,"쯉":4813,"쯋":4814,"쯍":4815,"쯎":4816,"쯔":4817,"쯕":4818,"쯘":4819,"쯛":4820,"쯜":4821,"쯤":4822,"쯥":4823,"쯧":4824,"쯨":4825,"쯩":4826,"쯪":4827,"쯫":4828,"쯰":4829,"쯱":4830,"쯴":4831,"찁":4832,"찅":4833,"찌":4834,"찍":4835,"찎":4836,"찏":4837,"찐":4838,"찓":4839,"찔":4840,"찗":4841,"찜":4842,"찝":4843,"찟":4844,"찠":4845,"찡":4846,"찢":4847,"찣":4848,"찤":4849,"찥":4850,"찦":4851,"찧":4852,"차":4853,"착":4854,"찪":4855,"찫":4856,"찬":4857,"찭":4858,"찮":4859,"찯":4860,"찰":4861,"찱":4862,"찲":4863,"찳":4864,"찴":4865,"찷":4866,"참":4867,"찹":4868,"찻":4869,"찼":4870,"창":4871,"찾":4872,"찿":4873,"챀":4874,"챁":4875,"챂":4876,"챃":4877,"채":4878,"책":4879,"챈":4880,"챊":4881,"챋":4882,"챌":4883,"챔":4884,"챕":4885,"챗":4886,"챘":4887,"챙":4888,"챚":4889,"챜":4890,"챝":4891,"챠":4892,"챡":4893,"챤":4894,"챦":4895,"챨":4896,"챫":4897,"챰":4898,"챱":4899,"챳":4900,"챴":4901,"챵":4902,"챶":4903,"챷":4904,"챸":4905,"챺":4906,"챻":4907,"챼":4908,"챽":4909,"첑":4910,"처":4911,"척":4912,"천":4913,"첝":4914,"첞":4915,"첟":4916,"철":4917,"첡":4918,"첢":4919,"첣":4920,"첤":4921,"첦":4922,"첧":4923,"첨":4924,"첩":4925,"첪":4926,"첫":4927,"첬":4928,"청":4929,"첮":4930,"첯":4931,"첰":4932,"첱":4933,"첲":4934,"첳":4935,"체":4936,"첵":4937,"첸":4938,"첻":4939,"첼":4940,"쳄":4941,"쳅":4942,"쳇":4943,"쳈":4944,"쳉":4945,"쳊":4946,"쳋":4947,"쳌":4948,"쳍":4949,"쳏":4950,"쳐":4951,"쳑":4952,"쳒":4953,"쳔":4954,"쳗":4955,"쳘":4956,"쳠":4957,"쳡":4958,"쳢":4959,"쳣":4960,"쳤":4961,"쳥":4962,"쳦":4963,"쳧":4964,"쳨":4965,"쳫":4966,"쳬":4967,"쳭":4968,"쳰":4969,"쳴":4970,"촀":4971,"초":4972,"촉":4973,"촌":4974,"촏":4975,"촐":4976,"촔":4977,"촘":4978,"촙":4979,"촛":4980,"촜":4981,"총":4982,"촞":4983,"촟":4984,"촠":4985,"촡":4986,"촣":4987,"촤":4988,"촥":4989,"촨":4990,"촪":4991,"촬":4992,"촴":4993,"촵":4994,"촷":4995,"촹":4996,"촺":4997,"촼":4998,"쵀":4999,"쵁":5000,"쵕":5001,"최":5002,"쵝":5003,"쵠":5004,"쵤":5005,"쵭":5006,"쵮":5007,"쵯":5008,"쵱":5009,"쵴":5010,"쵸":5011,"쵹":5012,"쵼":5013,"쵿":5014,"춀":5015,"춈":5016,"춉":5017,"춋":5018,"춌":5019,"춍":5020,"춎":5021,"춏":5022,"춐":5023,"추":5024,"축":5025,"춘":5026,"춚":5027,"춛":5028,"출":5029,"춝":5030,"춞":5031,"춟":5032,"춠":5033,"춡":5034,"춣":5035,"춤":5036,"춥":5037,"춧":5038,"충":5039,"춪":5040,"춫":5041,"춬":5042,"춭":5043,"춮":5044,"춯":5045,"춰":5046,"춱":5047,"춴":5048,"춸":5049,"췁":5050,"췃":5051,"췄":5052,"췅":5053,"췆":5054,"췈":5055,"췌":5056,"췍":5057,"췐":5058,"췔":5059,"췕":5060,"췜":5061,"췝":5062,"췟":5063,"췡":5064,"췤":5065,"취":5066,"췩":5067,"췬":5068,"췰":5069,"췸":5070,"췹":5071,"췻":5072,"췼":5073,"췽":5074,"츀":5075,"츄":5076,"츅":5077,"츈":5078,"츌":5079,"츔":5080,"츕":5081,"츗":5082,"츙":5083,"츛":5084,"츜":5085,"츞":5086,"츠":5087,"측":5088,"츤":5089,"츧":5090,"츨":5091,"츰":5092,"츱":5093,"츳":5094,"층":5095,"츶":5096,"츷":5097,"츸":5098,"츹":5099,"츼":5100,"츽":5101,"칀":5102,"칄":5103,"칌":5104,"칍":5105,"칑":5106,"칔":5107,"치":5108,"칙":5109,"친":5110,"칝":5111,"칞":5112,"칟":5113,"칠":5114,"칡":5115,"칢":5116,"칤":5117,"칧":5118,"침":5119,"칩":5120,"칫":5121,"칬":5122,"칭":5123,"칮":5124,"칯":5125,"칰":5126,"칱":5127,"칲":5128,"칳":5129,"카":5130,"칵":5131,"칶":5132,"칸":5133,"칻":5134,"칼":5135,"칽":5136,"캄":5137,"캅":5138,"캆":5139,"캇":5140,"캈":5141,"캉":5142,"캊":5143,"캋":5144,"캌":5145,"캍":5146,"캎":5147,"캏":5148,"캐":5149,"캑":5150,"캔":5151,"캘":5152,"캙":5153,"캠":5154,"캡":5155,"캢":5156,"캣":5157,"캤":5158,"캥":5159,"캨":5160,"캩":5161,"캪":5162,"캬":5163,"캭":5164,"캮":5165,"캰":5166,"캴":5167,"캵":5168,"캼":5169,"캽":5170,"캿":5171,"컀":5172,"컁":5173,"컄":5174,"컅":5175,"컇":5176,"컈":5177,"커":5178,"컥":5179,"컦":5180,"컨":5181,"컫":5182,"컬":5183,"컭":5184,"컯":5185,"컴":5186,"컵":5187,"컷":5188,"컸":5189,"컹":5190,"컺":5191,"컼":5192,"컽":5193,"컾":5194,"컿":5195,"케":5196,"켁":5197,"켄":5198,"켇":5199,"켈":5200,"켉":5201,"켐":5202,"켑":5203,"켓":5204,"켔":5205,"켕":5206,"켘":5207,"켙":5208,"켚":5209,"켛":5210,"켜":5211,"켝":5212,"켞":5213,"켠":5214,"켤":5215,"켬":5216,"켭":5217,"켯":5218,"켰":5219,"켱":5220,"켲":5221,"켴":5222,"켵":5223,"켷":5224,"켸":5225,"켼":5226,"콋":5227,"콌":5228,"코":5229,"콕":5230,"콘":5231,"콛":5232,"콜":5233,"콤":5234,"콥":5235,"콧":5236,"콩":5237,"콪":5238,"콫":5239,"콬":5240,"콭":5241,"콮":5242,"콯":5243,"콰":5244,"콱":5245,"콲":5246,"콴":5247,"콸":5248,"쾀":5249,"쾃":5250,"쾅":5251,"쾈":5252,"쾌":5253,"쾍":5254,"쾐":5255,"쾡":5256,"쾤":5257,"쾨":5258,"쾩":5259,"쾬":5260,"쾰":5261,"쾽":5262,"쿄":5263,"쿅":5264,"쿈":5265,"쿌":5266,"쿔":5267,"쿗":5268,"쿙":5269,"쿜":5270,"쿠":5271,"쿡":5272,"쿢":5273,"쿤":5274,"쿧":5275,"쿨":5276,"쿩":5277,"쿫":5278,"쿯":5279,"쿰":5280,"쿱":5281,"쿳":5282,"쿵":5283,"쿸":5284,"쿹":5285,"쿺":5286,"쿻":5287,"쿼":5288,"쿽":5289,"퀀":5290,"퀄":5291,"퀌":5292,"퀏":5293,"퀐":5294,"퀑":5295,"퀔":5296,"퀘":5297,"퀙":5298,"퀜":5299,"퀠":5300,"퀡":5301,"퀫":5302,"퀭":5303,"퀰":5304,"퀴":5305,"퀵":5306,"퀸":5307,"퀻":5308,"퀼":5309,"큄":5310,"큅":5311,"큇":5312,"큉":5313,"큌":5314,"큐":5315,"큑":5316,"큔":5317,"큘":5318,"큠":5319,"큡":5320,"큣":5321,"큥":5322,"큨":5323,"큩":5324,"큪":5325,"크":5326,"큭":5327,"큮":5328,"큰":5329,"큲":5330,"큳":5331,"클":5332,"큵":5333,"큷":5334,"큻":5335,"큼":5336,"큽":5337,"큿":5338,"킀":5339,"킁":5340,"킂":5341,"킄":5342,"킅":5343,"킆":5344,"킇":5345,"킈":5346,"킉":5347,"킌":5348,"킐":5349,"킘":5350,"킝":5351,"킠":5352,"키":5353,"킥":5354,"킦":5355,"킨":5356,"킫":5357,"킬":5358,"킴":5359,"킵":5360,"킶":5361,"킷":5362,"킸":5363,"킹":5364,"킺":5365,"킼":5366,"킽":5367,"킾":5368,"킿":5369,"타":5370,"탁":5371,"탂":5372,"탄":5373,"탅":5374,"탆":5375,"탇":5376,"탈":5377,"탉":5378,"탊":5379,"탍":5380,"탏":5381,"탐":5382,"탑":5383,"탓":5384,"탔":5385,"탕":5386,"탖":5387,"탗":5388,"탘":5389,"탙":5390,"탚":5391,"탛":5392,"태":5393,"택":5394,"탞":5395,"탟":5396,"탠":5397,"탣":5398,"탤":5399,"탬":5400,"탭":5401,"탯":5402,"탰":5403,"탱":5404,"탲":5405,"탴":5406,"탵":5407,"탶":5408,"탷":5409,"탸":5410,"탹":5411,"탼":5412,"턀":5413,"턈":5414,"턉":5415,"턋":5416,"턍":5417,"턐":5418,"턑":5419,"턔":5420,"턕":5421,"턘":5422,"턩":5423,"터":5424,"턱":5425,"턴":5426,"턷":5427,"털":5428,"턹":5429,"턺":5430,"텀":5431,"텁":5432,"텂":5433,"텃":5434,"텄":5435,"텅":5436,"텆":5437,"텇":5438,"텈":5439,"텉":5440,"텊":5441,"텋":5442,"테":5443,"텍":5444,"텐":5445,"텓":5446,"텔":5447,"템":5448,"텝":5449,"텟":5450,"텠":5451,"텡":5452,"텢":5453,"텣":5454,"텤":5455,"텥":5456,"텦":5457,"텧":5458,"텨":5459,"텩":5460,"텬":5461,"텰":5462,"텸":5463,"텹":5464,"텻":5465,"텼":5466,"텽":5467,"톀":5468,"톃":5469,"톄":5470,"톅":5471,"톈":5472,"톌":5473,"톔":5474,"토":5475,"톡":5476,"톢":5477,"톤":5478,"톧":5479,"톨":5480,"톩":5481,"톪":5482,"톰":5483,"톱":5484,"톳":5485,"통":5486,"톶":5487,"톷":5488,"톸":5489,"톹":5490,"톺":5491,"톻":5492,"톼":5493,"톽":5494,"퇀":5495,"퇄":5496,"퇌":5497,"퇍":5498,"퇏":5499,"퇑":5500,"퇔":5501,"퇘":5502,"퇙":5503,"퇜":5504,"퇧":5505,"퇫":5506,"퇬":5507,"퇭":5508,"퇮":5509,"퇴":5510,"퇵":5511,"퇶":5512,"퇸":5513,"퇼":5514,"툄":5515,"툅":5516,"툇":5517,"툈":5518,"툉":5519,"툊":5520,"툌":5521,"툐":5522,"툑":5523,"툠":5524,"툥":5525,"툨":5526,"툩":5527,"투":5528,"툭":5529,"툰":5530,"툱":5531,"툲":5532,"툳":5533,"툴":5534,"툻":5535,"툼":5536,"툽":5537,"툿":5538,"퉁":5539,"퉂":5540,"퉄":5541,"퉅":5542,"퉆":5543,"퉈":5544,"퉉":5545,"퉌":5546,"퉐":5547,"퉛":5548,"퉜":5549,"퉝":5550,"퉤":5551,"퉥":5552,"퉨":5553,"퉬":5554,"퉵":5555,"퉷":5556,"퉸":5557,"퉹":5558,"퉼":5559,"퉽":5560,"퉾":5561,"튀":5562,"튁":5563,"튄":5564,"튈":5565,"튐":5566,"튑":5567,"튓":5568,"튔":5569,"튕":5570,"튘":5571,"튜":5572,"튝":5573,"튠":5574,"튤":5575,"튬":5576,"튭":5577,"튱":5578,"튴":5579,"튵":5580,"튶":5581,"트":5582,"특":5583,"튺":5584,"튻":5585,"튼":5586,"튽":5587,"튿":5588,"틀":5589,"틁":5590,"틂":5591,"틅":5592,"틇":5593,"틈":5594,"틉":5595,"틊":5596,"틋":5597,"틍":5598,"틎":5599,"틏":5600,"틐":5601,"틑":5602,"틒":5603,"틓":5604,"틔":5605,"틕":5606,"틘":5607,"틜":5608,"틤":5609,"틧":5610,"틩":5611,"티":5612,"틱":5613,"틳":5614,"틴":5615,"틷":5616,"틸":5617,"팀":5618,"팁":5619,"팃":5620,"팄":5621,"팅":5622,"팆":5623,"팈":5624,"팉":5625,"팊":5626,"파":5627,"팍":5628,"팎":5629,"팏":5630,"판":5631,"팑":5632,"팒":5633,"팓":5634,"팔":5635,"팕":5636,"팖":5637,"팗":5638,"팘":5639,"팙":5640,"팚":5641,"팛":5642,"팜":5643,"팝":5644,"팟":5645,"팠":5646,"팡":5647,"팢":5648,"팣":5649,"팤":5650,"팥":5651,"팦":5652,"팧":5653,"패":5654,"팩":5655,"팬":5656,"팯":5657,"팰":5658,"팸":5659,"팹":5660,"팻":5661,"팼":5662,"팽":5663,"퍀":5664,"퍁":5665,"퍄":5666,"퍅":5667,"퍈":5668,"퍌":5669,"퍔":5670,"퍙":5671,"퍝":5672,"퍞":5673,"퍠":5674,"퍡":5675,"퍤":5676,"퍵":5677,"퍼":5678,"퍽":5679,"퍾":5680,"펀":5681,"펃":5682,"펄":5683,"펅":5684,"펌":5685,"펍":5686,"펏":5687,"펐":5688,"펑":5689,"펒":5690,"펔":5691,"펕":5692,"펖":5693,"펗":5694,"페":5695,"펙":5696,"펜":5697,"펟":5698,"펠":5699,"펨":5700,"펩":5701,"펫":5702,"펭":5703,"펰":5704,"펲":5705,"펴":5706,"펵":5707,"편":5708,"펹":5709,"펺":5710,"펻":5711,"펼":5712,"폄":5713,"폅":5714,"폇":5715,"폈":5716,"평":5717,"폌":5718,"폐":5719,"폑":5720,"폔":5721,"폘":5722,"폠":5723,"폡":5724,"폣":5725,"폥":5726,"폨":5727,"포":5728,"폭":5729,"폯":5730,"폰":5731,"폳":5732,"폴":5733,"폼":5734,"폽":5735,"폿":5736,"퐁":5737,"퐂":5738,"퐄":5739,"퐅":5740,"퐆":5741,"퐇":5742,"퐈":5743,"퐉":5744,"퐌":5745,"퐐":5746,"퐑":5747,"퐘":5748,"퐙":5749,"퐛":5750,"퐜":5751,"퐝":5752,"퐠":5753,"퐣":5754,"퐤":5755,"퐥":5756,"퐨":5757,"푀":5758,"푁":5759,"푄":5760,"푈":5761,"푕":5762,"표":5763,"푝":5764,"푠":5765,"푤":5766,"푬":5767,"푭":5768,"푯":5769,"푱":5770,"푲":5771,"푴":5772,"푶":5773,"푷":5774,"푸":5775,"푹":5776,"푼":5777,"푿":5778,"풀":5779,"풁":5780,"풂":5781,"풃":5782,"풇":5783,"품":5784,"풉":5785,"풋":5786,"풍":5787,"풎":5788,"풏":5789,"풐":5790,"풑":5791,"풒":5792,"풓":5793,"풔":5794,"풕":5795,"풘":5796,"풜":5797,"풩":5798,"풬":5799,"풰":5800,"풱":5801,"풴":5802,"풸":5803,"풹":5804,"퓅":5805,"퓌":5806,"퓍":5807,"퓐":5808,"퓔":5809,"퓟":5810,"퓡":5811,"퓨":5812,"퓩":5813,"퓬":5814,"퓰":5815,"퓸":5816,"퓹":5817,"퓻":5818,"퓽":5819,"퓿":5820,"픀":5821,"픂":5822,"픃":5823,"프":5824,"픅":5825,"픈":5826,"픋":5827,"플":5828,"픍":5829,"픎":5830,"픓":5831,"픔":5832,"픕":5833,"픗":5834,"픙":5835,"픚":5836,"픜":5837,"픝":5838,"픞":5839,"픟":5840,"픠":5841,"픤":5842,"픨":5843,"픵":5844,"픹":5845,"피":5846,"픽":5847,"핀":5848,"핃":5849,"필":5850,"핆":5851,"핋":5852,"핌":5853,"핍":5854,"핏":5855,"핐":5856,"핑":5857,"핒":5858,"핓":5859,"핔":5860,"핕":5861,"핖":5862,"핗":5863,"하":5864,"학":5865,"핚":5866,"핛":5867,"한":5868,"핝":5869,"핞":5870,"핟":5871,"할":5872,"핡":5873,"핢":5874,"핣":5875,"핤":5876,"핥":5877,"핦":5878,"핧":5879,"함":5880,"합":5881,"핪":5882,"핫":5883,"핬":5884,"항":5885,"핮":5886,"핯":5887,"핰":5888,"핱":5889,"핲":5890,"핳":5891,"해":5892,"핵":5893,"핶":5894,"핷":5895,"핸":5896,"핺":5897,"핻":5898,"핼":5899,"핽":5900,"햄":5901,"햅":5902,"햇":5903,"했":5904,"행":5905,"햊":5906,"햋":5907,"햌":5908,"햍":5909,"햎":5910,"햏":5911,"햐":5912,"햑":5913,"햔":5914,"햘":5915,"햙":5916,"햚":5917,"햛":5918,"햝":5919,"햟":5920,"햠":5921,"햡":5922,"햣":5923,"햤":5924,"향":5925,"햨":5926,"햩":5927,"햫":5928,"햬":5929,"햭":5930,"햰":5931,"햿":5932,"헀":5933,"헁":5934,"허":5935,"헉":5936,"헊":5937,"헋":5938,"헌":5939,"헍":5940,"헏":5941,"헐":5942,"헑":5943,"헒":5944,"헓":5945,"헔":5946,"헕":5947,"헗":5948,"험":5949,"헙":5950,"헚":5951,"헛":5952,"헜":5953,"헝":5954,"헞":5955,"헟":5956,"헠":5957,"헡":5958,"헢":5959,"헣":5960,"헤":5961,"헥":5962,"헦":5963,"헧":5964,"헨":5965,"헫":5966,"헬":5967,"헭":5968,"헯":5969,"헰":5970,"헱":5971,"헲":5972,"헳":5973,"헴":5974,"헵":5975,"헶":5976,"헷":5977,"헸":5978,"헹":5979,"헼":5980,"헽":5981,"헾":5982,"헿":5983,"혀":5984,"혁":5985,"혂":5986,"혃":5987,"현":5988,"혅":5989,"혆":5990,"혇":5991,"혈":5992,"혉":5993,"혐":5994,"협":5995,"혒":5996,"혓":5997,"혔":5998,"형":5999,"혖":6000,"혘":6001,"혙":6002,"혚":6003,"혛":6004,"혜":6005,"혝":6006,"혠":6007,"혤":6008,"혬":6009,"혭":6010,"혯":6011,"혰":6012,"혱":6013,"혲":6014,"혴":6015,"혷":6016,"호":6017,"혹":6018,"혺":6019,"혻":6020,"혼":6021,"혽":6022,"혾":6023,"혿":6024,"홀":6025,"홁":6026,"홅":6027,"홇":6028,"홈":6029,"홉":6030,"홋":6031,"홍":6032,"홎":6033,"홐":6034,"홑":6035,"홒":6036,"홓":6037,"화":6038,"확":6039,"홖":6040,"홗":6041,"환":6042,"홙":6043,"홛":6044,"활":6045,"홝":6046,"홟":6047,"홡":6048,"홣":6049,"홤":6050,"홥":6051,"홧":6052,"홨":6053,"황":6054,"홪":6055,"홫":6056,"홬":6057,"홭":6058,"홮":6059,"홯":6060,"홰":6061,"홱":6062,"홴":6063,"횃":6064,"횄":6065,"횅":6066,"회":6067,"획":6068,"횐":6069,"횓":6070,"횔":6071,"횜":6072,"횝":6073,"횟":6074,"횠":6075,"횡":6076,"횢":6077,"횤":6078,"횧":6079,"효":6080,"횩":6081,"횬":6082,"횰":6083,"횸":6084,"횹":6085,"횻":6086,"횽":6087,"훀":6088,"훃":6089,"후":6090,"훅":6091,"훈":6092,"훉":6093,"훊":6094,"훋":6095,"훌":6096,"훍":6097,"훏":6098,"훑":6099,"훓":6100,"훔":6101,"훕":6102,"훗":6103,"훙":6104,"훚":6105,"훛":6106,"훜":6107,"훝":6108,"훞":6109,"훟":6110,"훠":6111,"훡":6112,"훤":6113,"훨":6114,"훯":6115,"훰":6116,"훱":6117,"훳":6118,"훵":6119,"훸":6120,"훻":6121,"훼":6122,"훽":6123,"휀":6124,"휄":6125,"휅":6126,"휇":6127,"휍":6128,"휏":6129,"휐":6130,"휑":6131,"휔":6132,"휗":6133,"휘":6134,"휙":6135,"휜":6136,"휠":6137,"휨":6138,"휩":6139,"휫":6140,"휭":6141,"휰":6142,"휲":6143,"휳":6144,"휴":6145,"휵":6146,"휸":6147,"휼":6148,"흄":6149,"흅":6150,"흇":6151,"흉":6152,"흊":6153,"흌":6154,"흎":6155,"흏":6156,"흐":6157,"흑":6158,"흒":6159,"흓":6160,"흔":6161,"흗":6162,"흘":6163,"흙":6164,"흚":6165,"흛":6166,"흜":6167,"흝":6168,"흟":6169,"흠":6170,"흡":6171,"흣":6172,"흤":6173,"흥":6174,"흦":6175,"흨":6176,"흩":6177,"흪":6178,"흫":6179,"희":6180,"흭":6181,"흰":6182,"흳":6183,"흴":6184,"흵":6185,"흼":6186,"흽":6187,"흿":6188,"힁":6189,"힂":6190,"힄":6191,"힇":6192,"히":6193,"힉":6194,"힊":6195,"힌":6196,"힏":6197,"힐":6198,"힑":6199,"힒":6200,"힕":6201,"힗":6202,"힘":6203,"힙":6204,"힛":6205,"힜":6206,"힝":6207,"힞":6208,"힟":6209,"힠":6210,"힡":6211,"힢":6212,"힣":6213,"％":6214,"##보":6215,"##절":6216,"##기":6217,"##♬":6218,"##에":6219,"##던":6220,"##하":6221,"##단":6222,"##가":6223,"##능":6224,"##한":6225,"##거":6226,"##자":6227,"##나":6228,"##1":6229,"##년":6230,"##6":6231,"##개":6232,"##월":6233,"##을":6234,"##곤":6235,"##셨":6236,"##군":6237,"##주":6238,"##겠":6239,"##지":6240,"##구":6241,"##중":6242,"##계":6243,"##는":6244,"##친":6245,"##격":6246,"##의":6247,"##뿌":6248,"##렷":6249,"##네":6250,"##화":6251,"##관":6252,"##이":6253,"##었":6254,"##어":6255,"##요":6256,"##로":6257,"##터":6258,"##톤":6259,"##입":6260,"##니":6261,"##다":6262,"##만":6263,"##인":6264,"##더":6265,"##집":6266,"##같":6267,"##은":6268,"##스":6269,"##토":6270,"##리":6271,"##벌":6272,"##레":6273,"##들":6274,"##잼":6275,"##오":6276,"##늘":6277,"##처":6278,"##음":6279,"##일":6280,"##를":6281,"##민":6282,"##국":6283,"##역":6284,"##사":6285,"##봐":6286,"##도":6287,"##홍":6288,"##본":6289,"##달":6290,"##고":6291,"##있":6292,"##정":6293,"##했":6294,"##부":6295,"##8":6296,"##0":6297,"##4":6298,"##2":6299,"##5":6300,"##벨":6301,"##서":6302,"##캎":6303,"##섬":6304,"##으":6305,"##봄":6306,"##전":6307,"##무":6308,"##죄":6309,"##분":6310,"##목":6311,"##님":6312,"##신":6313,"##노":6314,"##총":6315,"##교":6316,"##조":6317,"##참":6318,"##연":6319,"##변":6320,"##쭘":6321,"##함":6322,"##까":6323,"##대":6324,"##장":6325,"##급":6326,"##걸":6327,"##방":6328,"##시":6329,"##라":6330,"##명":6331,"##된":6332,"##현":6333,"##할":6334,"##것":6335,"##습":6336,"##통":6337,"##렁":6338,"##산":6339,"##유":6340,"##콩":6341,"##버":6342,"##와":6343,"##면":6344,"##크":6345,"##핳":6346,"##옥":6347,"##마":6348,"##람":6349,"##꼬":6350,"##드":6351,"##겨":6352,"##데":6353,"##모":6354,"##과":6355,"##바":6356,"##뒤":6357,"##덮":6358,"##야":6359,"##동":6360,"##똥":6361,"##추":6362,"##종":6363,"##엽":6364,"##곸":6365,"##흐":6366,"##래":6367,"##엑":6368,"##비":6369,"##해":6370,"##발":6371,"##u":6372,"##d":6373,"##g":6374,"##n":6375,"##9":6376,"##7":6377,"##수":6378,"##악":6379,"##선":6380,"##둔":6381,"##갑":6382,"##찌":6383,"##좋":6384,"##x":6385,"##키":6386,"##잇":6387,"##엇":6388,"##승":6389,"##잖":6390,"##아":6391,"##편":6392,"##행":6393,"##웹":6394,"##툰":6395,"##짱":6396,"##초":6397,"##려":6398,"##너":6399,"##꿔":6400,"##논":6401,"##결":6402,"##제":6403,"##성":6404,"##올":6405,"##갈":6406,"##때":6407,"##미":6408,"##캐":6409,"##럿":6410,"##용":6411,"##닐":6412,"##애":6413,"##순":6414,"##규":6415,"##둘":6416,"##린":6417,"##켜":6418,"##며":6419,"##론":6420,"##양":6421,"##말":6422,"##치":6423,"##솔":6424,"##표":6425,"##썸":6426,"##트":6427,"##럼":6428,"##런":6429,"##우":6430,"##란":6431,"##닌":6432,"##호":6433,"##상":6434,"##살":6435,"##게":6436,"##랏":6437,"##활":6438,"##파":6439,"##싸":6440,"##움":6441,"##낭":6442,"##맙":6443,"##됫":6444,"##즙":6445,"##위":6446,"##직":6447,"##녀":6448,"##듯":6449,"##건":6450,"##물":6451,"##머":6452,"##않":6453,"##았":6454,"##3":6455,"##L":6456,"##림":6457,"##차":6458,"##혔":6459,"##온":6460,"##르":6461,"##여":6462,"##랑":6463,"##균":6464,"##형":6465,"##적":6466,"##랬":6467,"##경":6468,"##팔":6469,"##넘":6470,"##겼":6471,"##죽":6472,"##글":6473,"##빨":6474,"##진":6475,"##짜":6476,"##렸":6477,"##꾹":6478,"##많":6479,"##청":6480,"##세":6481,"##히":6482,"##운":6483,"##뭔":6484,"##캥":6485,"##소":6486,"##내":6487,"##볼":6488,"##엄":6489,"##안":6490,"##왔":6491,"##속":6492,"##챙":6493,"##증":6494,"##테":6495,"##검":6496,"##텐":6497,"##T":6498,"##X":6499,"##융":6500,"##합":6501,"##학":6502,"##원":6503,"##두":6504,"##될":6505,"##릭":6506,"##깟":6507,"##좌":6508,"##빈":6509,"##센":6510,"##권":6511,"##씨":6512,"##송":6513,"##품":6514,"##뷰":6515,"##폭":6516,"##햇":6517,"##간":6518,"##혜":6519,"##누":6520,"##룩":6521,"##강":6522,"##울":6523,"##잡":6524,"##짓":6525,"##뭐":6526,"##되":6527,"##죠":6528,"##흠":6529,"##불":6530,"##회":6531,"##층":6532,"##냐":6533,"##탓":6534,"##였":6535,"##틸":6536,"##컷":6537,"##식":6538,"##피":6539,"##예":6540,"##환":6541,"##쓸":6542,"##필":6543,"##없":6544,"##생":6545,"##충":6546,"##답":6547,"##김":6548,"##궁":6549,"##축":6550,"##농":6551,"##천":6552,"##그":6553,"##룹":6554,"##굶":6555,"##긋":6556,"##실":6557,"##귀":6558,"##깨":6559,"##문":6560,"##알":6561,"##줄":6562,"##등":6563,"##덕":6564,"##포":6565,"##익":6566,"##왕":6567,"##곁":6568,"##력":6569,"##메":6570,"##느":6571,"##러":6572,"##텔":6573,"##먼":6574,"##약":6575,"##근":6576,"##새":6577,"##끼":6578,"##k":6579,"##b":6580,"##영":6581,"##감":6582,"##쟁":6583,"##립":6584,"##묘":6585,"##투":6586,"##율":6587,"##떳":6588,"##왓":6589,"##후":6590,"##류":6591,"##든":6592,"##석":6593,"##r":6594,"##억":6595,"##채":6596,"##놈":6597,"##썩":6598,"##옵":6599,"##각":6600,"##디":6601,"##뢰":6602,"##액":6603,"##션":6604,"##빤":6605,"##틀":6606,"##닭":6607,"##착":6608,"##왜":6609,"##졌":6610,"##당":6611,"##곡":6612,"##눌":6613,"##셔":6614,"##폐":6615,"##설":6616,"##록":6617,"##읽":6618,"##뇌":6619,"##작":6620,"##흡":6621,"##쩔":6622,"##공":6623,"##댓":6624,"##령":6625,"##P":6626,"##M":6627,"##S":6628,"##술":6629,"##임":6630,"##금":6631,"##꺼":6632,"##특":6633,"##업":6634,"##놓":6635,"##탄":6636,"##른":6637,"##배":6638,"##줌":6639,"##밖":6640,"##외":6641,"##큼":6642,"##획":6643,"##득":6644,"##태":6645,"##휴":6646,"##횟":6647,"##질":6648,"##긴":6649,"##풍":6650,"##맞":6651,"##썅":6652,"##복":6653,"##꾼":6654,"##몸":6655,"##철":6656,"##넼":6657,"##놀":6658,"##밌":6659,"##받":6660,"##륙":6661,"##됐":6662,"##잉":6663,"##재":6664,"##취":6665,"##뿜":6666,"##매":6667,"##랜":6668,"##탁":6669,"##팀":6670,"##붕":6671,"##량":6672,"##협":6673,"##카":6674,"##셰":6675,"##팍":6676,"##판":6677,"##먹":6678,"##져":6679,"##념":6680,"##책":6681,"##골":6682,"##박":6683,"##츌":6684,"##쳐":6685,"##름":6686,"##렘":6687,"##탰":6688,"##퍼":6689,"##베":6690,"##뎃":6691,"##별":6692,"##꾸":6693,"##뿐":6694,"##프":6695,"##얼":6696,"##심":6697,"##뎈":6698,"##엉":6699,"##덩":6700,"##쪽":6701,"##난":6702,"##료":6703,"##페":6704,"##체":6705,"##잎":6706,"##냄":6707,"##콜":6708,"##밑":6709,"##o":6710,"##l":6711,"##쓰":6712,"##떡":6713,"##밥":6714,"##끝":6715,"##번":6716,"##향":6717,"##랴":6718,"##릴":6719,"##코":6720,"##밟":6721,"##y":6722,"##p":6723,"##t":6724,"##w":6725,"##a":6726,"##c":6727,"##h":6728,"##남":6729,"##킨":6730,"##락":6731,"##날":6732,"##갔":6733,"##께":6734,"##냈":6735,"##엔":6736,"##촌":6737,"##I":6738,"##뱃":6739,"##돌":6740,"##길":6741,"##찜":6742,"##칠":6743,"##륵":6744,"##옹":6745,"##O":6746,"##G":6747,"##둥":6748,"##타":6749,"##렌":6750,"##못":6751,"##험":6752,"##돈":6753,"##허":6754,"##딴":6755,"##덤":6756,"##언":6757,"##Y":6758,"##N":6759,"##저":6760,"##항":6761,"##A":6762,"##밀":6763,"##찰":6764,"##쁘":6765,"##섹":6766,"##따":6767,"##갚":6768,"##망":6769,"##멋":6770,"##반":6771,"##졸":6772,"##슨":6773,"##높":6774,"##괴":6775,"##쩐":6776,"##삭":6777,"##족":6778,"##킬":6779,"##셈":6780,"##례":6781,"##준":6782,"##윈":6783,"##창":6784,"##암":6785,"##케":6786,"##컨":6787,"##팅":6788,"##막":6789,"##평":6790,"##m":6791,"##s":6792,"##츠":6793,"##푼":6794,"##i":6795,"##춰":6796,"##털":6797,"##완":6798,"##뭘":6799,"##K":6800,"##련":6801,"##풀":6802,"##냥":6803,"##뽀":6804,"##앵":6805,"##틴":6806,"##넌":6807,"##법":6808,"##패":6809,"##e":6810,"##북":6811,"##몽":6812,"##객":6813,"##널":6814,"##또":6815,"##최":6816,"##맨":6817,"##틱":6818,"##긔":6819,"##딩":6820,"##덴":6821,"##극":6822,"##찍":6823,"##잣":6824,"##값":6825,"##윤":6826,"##뒀":6827,"##팸":6828,"##넹":6829,"##응":6830,"##힘":6831,"##척":6832,"##랄":6833,"##낫":6834,"##잔":6835,"##돼":6836,"##램":6837,"##탑":6838,"##깃":6839,"##쫄":6840,"##긧":6841,"##첩":6842,"##떨":6843,"##삼":6844,"##겁":6845,"##벽":6846,"##얘":6847,"##광":6848,"##십":6849,"##촥":6850,"##멍":6851,"##욕":6852,"##믿":6853,"##듬":6854,"##즌":6855,"##놔":6856,"##콘":6857,"##꼴":6858,"##욯":6859,"##출":6860,"##즈":6861,"##쑤":6862,"##쇼":6863,"##워":6864,"##쯤":6865,"##염":6866,"##잘":6867,"##담":6868,"##백":6869,"##쳤":6870,"##봤":6871,"##병":6872,"##혼":6873,"##쁜":6874,"##몇":6875,"##겟":6876,"##끔":6877,"##효":6878,"##륜":6879,"##닫":6880,"##싶":6881,"##앉":6882,"##힐":6883,"##릇":6884,"##희":6885,"##셧":6886,"##칩":6887,"##삽":6888,"##점":6889,"##클":6890,"##닝":6891,"##햐":6892,"##됨":6893,"##황":6894,"##닼":6895,"##열":6896,"##빙":6897,"##웠":6898,"##엥":6899,"##났":6900,"##훈":6901,"##뉴":6902,"##앞":6903,"##닥":6904,"##낚":6905,"##겅":6906,"##됬":6907,"##맷":6908,"##씩":6909,"##혁":6910,"##긍":6911,"##뮤":6912,"##커":6913,"##닉":6914,"##죡":6915,"##밸":6916,"##럴":6917,"##짖":6918,"##몬":6919,"##칸":6920,"##땜":6921,"##좀":6922,"##줫":6923,"##껄":6924,"##헌":6925,"##숲":6926,"##윾":6927,"##싀":6928,"##낼":6929,"##됩":6930,"##줍":6931,"##땐":6932,"##궐":6933,"##줬":6934,"##맛":6935,"##캔":6936,"##콤":6937,"##뷔":6938,"##욱":6939,"##펙":6940,"##욥":6941,"##쫌":6942,"##견":6943,"##찬":6944,"##쉬":6945,"##줘":6946,"##웃":6947,"##롭":6948,"##걱":6949,"##왠":6950,"##붙":6951,"##왈":6952,"##루":6953,"##핀":6954,"##범":6955,"##렉":6956,"##늠":6957,"##멜":6958,"##빵":6959,"##듣":6960,"##똑":6961,"##떤":6962,"##괄":6963,"##벗":6964,"##렴":6965,"##롬":6966,"##짤":6967,"##푸":6968,"##퀴":6969,"##럽":6970,"##칭":6971,"##떼":6972,"##랫":6973,"##링":6974,"##촬":6975,"##R":6976,"##뜸":6977,"##봉":6978,"##쏟":6979,"##먘":6980,"##독":6981,"##싱":6982,"##턴":6983,"##짝":6984,"##찐":6985,"##떠":6986,"##슬":6987,"##C":6988,"##롤":6989,"##읍":6990,"##뜨":6991,"##블":6992,"##빠":6993,"##픽":6994,"##큰":6995,"##찾":6996,"##닙":6997,"##빌":6998,"##멘":6999,"##므":7000,"##랭":7001,"##꽁":7002,"##손":7003,"##흥":7004,"##펑":7005,"##엿":7006,"##굴":7007,"##벤":7008,"##겸":7009,"##붉":7010,"##눈":7011,"##쥬":7012,"##뽑":7013,"##랩":7014,"##췰":7015,"##v":7016,"##믹":7017,"##싢":7018,"##겄":7019,"##눠":7020,"##쿠":7021,"##첵":7022,"##헬":7023,"##낳":7024,"##쩡":7025,"##댕":7026,"##즤":7027,"##듕":7028,"##택":7029,"##티":7030,"##켓":7031,"##탈":7032,"##뻘":7033,"##갱":7034,"##렇":7035,"##뀐":7036,"##슴":7037,"##싫":7038,"##끈":7039,"##j":7040,"##벼":7041,"##켰":7042,"##색":7043,"##플":7044,"##W":7045,"##H":7046,"##쓴":7047,"##낸":7048,"##녁":7049,"##힌":7050,"##웟":7051,"##째":7052,"##껀":7053,"##납":7054,"##쌘":7055,"##젹":7056,"##압":7057,"##옴":7058,"##둑":7059,"##닷":7060,"##깐":7061,"##칼":7062,"##써":7063,"##깔":7064,"##혈":7065,"##빽":7066,"##믁":7067,"##존":7068,"##럭":7069,"##딘":7070,"##델":7071,"##징":7072,"##뭇":7073,"##넷":7074,"##촘":7075,"##끠":7076,"##킹":7077,"##눕":7078,"##혀":7079,"##브":7080,"##얍":7081,"##썁":7082,"##넣":7083,"##템":7084,"##찔":7085,"##욧":7086,"##측":7087,"##갤":7088,"##갖":7089,"##랙":7090,"##확":7091,"##껍":7092,"##컵":7093,"##뛰":7094,"##묻":7095,"##침":7096,"##핍":7097,"##꿀":7098,"##펀":7099,"##밍":7100,"##룰":7101,"##육":7102,"##쟈":7103,"##숭":7104,"##섯":7105,"##뮬":7106,"##즘":7107,"##픈":7108,"##뎅":7109,"##툭":7110,"##f":7111,"##쩌":7112,"##섭":7113,"##숙":7114,"##헤":7115,"##탐":7116,"##낀":7117,"##빅":7118,"##쿨":7119,"##눜":7120,"##접":7121,"##힝":7122,"##딥":7123,"##츼":7124,"##앙":7125,"##랐":7126,"##짐":7127,"##놧":7128,"##웅":7129,"##빛":7130,"##켯":7131,"##겡":7132,"##팩":7133,"##멸":7134,"##튀":7135,"##긱":7136,"##롱":7137,"##꽂":7138,"##빚":7139,"##꿍":7140,"##쟤":7141,"##폰":7142,"##젠":7143,"##곳":7144,"##럥":7145,"##팬":7146,"##흘":7147,"##렀":7148,"##팁":7149,"##잊":7150,"##딸":7151,"##냅":7152,"##깈":7153,"##맥":7154,"##밋":7155,"##뿅":7156,"##촉":7157,"##씀":7158,"##뱅":7159,"##F":7160,"##퇴":7161,"##멤":7162,"##곱":7163,"##렵":7164,"##놨":7165,"##옆":7166,"##냨":7167,"##슈":7168,"##엮":7169,"##껏":7170,"##뜰":7171,"##쀼":7172,"##쮸":7173,"##꺄":7174,"##옌":7175,"##땀":7176,"##벅":7177,"##J":7178,"##즉":7179,"##폿":7180,"##꿉":7181,"##렬":7182,"##췄":7183,"##빗":7184,"##탕":7185,"##낮":7186,"##률":7187,"##몰":7188,"##냠":7189,"##퉁":7190,"##껴":7191,"##쌉":7192,"##쉐":7193,"##퉄":7194,"##B":7195,"##찢":7196,"##잠":7197,"##꽃":7198,"##큌":7199,"##엌":7200,"##룸":7201,"##뱀":7202,"##폴":7203,"##랍":7204,"##뼘":7205,"##릿":7206,"##쉽":7207,"##E":7208,"##큐":7209,"##삐":7210,"##햄":7211,"##쥐":7212,"##및":7213,"##혹":7214,"##짚":7215,"##롸":7216,"##츄":7217,"##욬":7218,"##헐":7219,"##U":7220,"##략":7221,"##Q":7222,"##맹":7223,"##홀":7224,"##웰":7225,"##엘":7226,"##졐":7227,"##앤":7228,"##쌤":7229,"##쇠":7230,"##훔":7231,"##믄":7232,"##D":7233,"##얏":7234,"##츨":7235,"##낰":7236,"##셜":7237,"##숫":7238,"##끄":7239,"##쓍":7240,"##봣":7241,"##딜":7242,"##넠":7243,"##뚫":7244,"##샷":7245,"##첸":7246,"##떄":7247,"##헨":7248,"##튼":7249,"##뺐":7250,"##V":7251,"##땡":7252,"##앗":7253,"##붐":7254,"##칙":7255,"##겻":7256,"##섰":7257,"##낌":7258,"##숀":7259,"##겦":7260,"##쿡":7261,"##겜":7262,"##펴":7263,"##몿":7264,"##엨":7265,"##겹":7266,"##떻":7267,"##멀":7268,"##땅":7269,"##볕":7270,"##닦":7271,"##톡":7272,"##앨":7273,"##엠":7274,"##뜻":7275,"##쿵":7276,"##컴":7277,"##빡":7278,"##냔":7279,"##뻥":7280,"##곰":7281,"##쟎":7282,"##샘":7283,"##꽈":7284,"##벙":7285,"##곶":7286,"##삡":7287,"##뺩":7288,"##텨":7289,"##쌍":7290,"##먕":7291,"##뜩":7292,"##릐":7293,"##샤":7294,"##킷":7295,"##뇬":7296,"##팡":7297,"##읁":7298,"##녕":7299,"##졓":7300,"##냉":7301,"##둬":7302,"##덪":7303,"##씹":7304,"##낙":7305,"##쀨":7306,"##맘":7307,"##챴":7308,"##묵":7309,"##굥":7310,"##꼼":7311,"##얌":7312,"##혐":7313,"##쿤":7314,"##팻":7315,"##귄":7316,"##뽕":7317,"##홉":7318,"##겔":7319,"##쏴":7320,"##럠":7321,"##팽":7322,"##돠":7323,"##맡":7324,"##펜":7325,"##밴":7326,"##챔":7327,"##뤄":7328,"##뀜":7329,"##얀":7330,"##칰":7331,"##딪":7332,"##븐":7333,"##왘":7334,"##쇄":7335,"##쩍":7336,"##딱":7337,"##썻":7338,"##볍":7339,"##춤":7340,"##줏":7341,"##셉":7342,"##붸":7343,"##뀌":7344,"##폄":7345,"##꼽":7346,"##찮":7347,"##톱":7348,"##쩦":7349,"##핑":7350,"##끗":7351,"##봅":7352,"##뀔":7353,"##겋":7354,"##쁠":7355,"##씻":7356,"##됏":7357,"##늨":7358,"##뫽":7359,"##숨":7360,"##깎":7361,"##빼":7362,"##졋":7363,"##튜":7364,"##q":7365,"##z":7366,"##낄":7367,"##춘":7368,"##킈":7369,"##쌀":7370,"##읶":7371,"##겎":7372,"##갇":7373,"##첨":7374,"##벋":7375,"##꿈":7376,"##뚜":7377,"##눔":7378,"##궈":7379,"##뙈":7380,"##펫":7381,"##뻐":7382,"##쳑":7383,"##롯":7384,"##룬":7385,"##펏":7386,"##겐":7387,"##띨":7388,"##굿":7389,"##펼":7390,"##옷":7391,"##젓":7392,"##벡":7393,"##짴":7394,"##뒵":7395,"##휘":7396,"##궤":7397,"##핵":7398,"##봇":7399,"##딹":7400,"##뚝":7401,"##갘":7402,"##믓":7403,"##홈":7404,"##셀":7405,"##텀":7406,"##깉":7407,"##띄":7408,"##캡":7409,"##뿔":7410,"##댄":7411,"##뜯":7412,"##싡":7413,"##룡":7414,"##챌":7415,"##밤":7416,"##얄":7417,"##Z":7418,"##펨":7419,"##숍":7420,"##헛":7421,"##앜":7422,"##탱":7423,"##맏":7424,"##젱":7425,"##겪":7426,"##렙":7427,"##셋":7428,"##짰":7429,"##젤":7430,"##덷":7431,"##릅":7432,"##캠":7433,"##몹":7434,"##끌":7435,"##묭":7436,"##텍":7437,"##헣":7438,"##낟":7439,"##렠":7440,"##쓔":7441,"##쨩":7442,"##됌":7443,"##넨":7444,"##욘":7445,"##쿼":7446,"##뇨":7447,"##덜":7448,"##돔":7449,"##핸":7450,"##뤘":7451,"##똘":7452,"##깜":7453,"##띡":7454,"##끊":7455,"##씽":7456,"##샀":7457,"##횡":7458,"##짔":7459,"##싯":7460,"##솤":7461,"##갓":7462,"##쁨":7463,"##껌":7464,"##킴":7465,"##쌔":7466,"##얔":7467,"##뛴":7468,"##뻔":7469,"##얻":7470,"##햏":7471,"##콕":7472,"##턱":7473,"##썽":7474,"##뭉":7475,"##톰":7476,"##섞":7477,"##녔":7478,"##펭":7479,"##됄":7480,"##눞":7481,"##훨":7482,"##둗":7483,"##뉘":7484,"##띠":7485,"##넴":7486,"##댔":7487,"##팝":7488,"##쉼":7489,"##겉":7490,"##젝":7491,"##깝":7492,"##틈":7493,"##흑":7494,"##깅":7495,"##짠":7496,"##컬":7497,"##쟝":7498,"##윙":7499,"##킼":7500,"##뻡":7501,"##숩":7502,"##뮈":7503,"##볗":7504,"##톈":7505,"##웛":7506,"##럅":7507,"##맺":7508,"##렛":7509,"##뎀":7510,"##닮":7511,"##늦":7512,"##녜":7513,"##곧":7514,"##뺴":7515,"##칫":7516,"##갠":7517,"##쯱":7518,"##곜":7519,"##먄":7520,"##쳣":7521,"##짆":7522,"##좨":7523,"##슘":7524,"##괜":7525,"##쵸":7526,"##쥴":7527,"##찡":7528,"##랠":7529,"##좃":7530,"##덱":7531,"##썼":7532,"##힙":7533,"##뚱":7534,"##뒷":7535,"##릎":7536,"##꿇":7537,"##뺏":7538,"##빔":7539,"##꼭":7540,"##쁫":7541,"##콰":7542,"##텅":7543,"##쌩":7544,"##쉴":7545,"##됀":7546,"##렐":7547,"##멱":7548,"##폼":7549,"##웨":7550,"##좁":7551,"##훤":7552,"##꼈":7553,"##갰":7554,"##탯":7555,"##퓨":7556,"##랔":7557,"##닛":7558,"##짞":7559,"##툼":7560,"##샵":7561,"##즐":7562,"##텟":7563,"##깡":7564,"##잃":7565,"##걷":7566,"##닿":7567,"##줕":7568,"##샨":7569,"##끡":7570,"##슷":7571,"##탠":7572,"##둡":7573,"##짢":7574,"##갸":7575,"##녹":7576,"##뻗":7577,"##빰":7578,"##튤":7579,"##싼":7580,"##꿨":7581,"##촹":7582,"##밭":7583,"##쩜":7584,"##뜌":7585,"##뜐":7586,"##넝":7587,"##쭈":7588,"##갯":7589,"##젼":7590,"##콧":7591,"##뎁":7592,"##냇":7593,"##덛":7594,"##픔":7595,"##얽":7596,"##욜":7597,"##잤":7598,"##듀":7599,"##닠":7600,"##셴":7601,"##쎈":7602,"##맠":7603,"##뺘":7604,"##밝":7605,"##뱉":7606,"##듭":7607,"##옄":7608,"##뎡":7609,"##쐐":7610,"##밷":7611,"##짘":7612,"##랓":7613,"##쿄":7614,"##퇘":7615,"##썬":7616,"##쑵":7617,"##뤠":7618,"##켈":7619,"##븅":7620,"##눅":7621,"##뎌":7622,"##걀":7623,"##웡":7624,"##옼":7625,"##펠":7626,"##멈":7627,"##젺":7628,"##쪼":7629,"##좦":7630,"##챈":7631,"##썪":7632,"##잌":7633,"##윌":7634,"##횐":7635,"##씬":7636,"##굽":7637,"##잦":7638,"##뼈":7639,"##볶":7640,"##읿":7641,"##샬":7642,"##듸":7643,"##쭝":7644,"##깥":7645,"##벖":7646,"##깽":7647,"##쏘":7648,"##댠":7649,"##팟":7650,"##췬":7651,"##깋":7652,"##흙":7653,"##쾌":7654,"##뺨":7655,"##핥":7656,"##붓":7657,"##핰":7658,"##옛":7659,"##텃":7660,"##쎾":7661,"##겤":7662,"##쎄":7663,"##졍":7664,"##훌":7665,"##륭":7666,"##쒼":7667,"##띤":7668,"##햌":7669,"##퓌":7670,"##캉":7671,"##몆":7672,"##쬬":7673,"##휜":7674,"##괘":7675,"##꽉":7676,"##쫙":7677,"##몀":7678,"##뜬":7679,"##닒":7680,"##툴":7681,"##빆":7682,"##슝":7683,"##섀":7684,"##웈":7685,"##꺠":7686,"##쌈":7687,"##돋":7688,"##롴":7689,"##쨋":7690,"##샌":7691,"##핏":7692,"##쉘":7693,"##컹":7694,"##읋":7695,"##좝":7696,"##뿍":7697,"##엎":7698,"##핬":7699,"##쟀":7700,"##긄":7701,"##뭣":7702,"##쩝":7703,"##꼇":7704,"##쑥":7705,"##밉":7706,"##뺌":7707,"##룐":7708,"##끓":7709,"##슥":7710,"##읜":7711,"##싣":7712,"##쥼":7713,"##킄":7714,"##싄":7715,"##쥥":7716,"##랗":7717,"##꼰":7718,"##싹":7719,"##헝":7720,"##훗":7721,"##펄":7722,"##팼":7723,"##쉰":7724,"##젊":7725,"##딬":7726,"##톨":7727,"##킥":7728,"##셌":7729,"##맴":7730,"##딕":7731,"##샹":7732,"##룽":7733,"##닯":7734,"##딧":7735,"##찝":7736,"##귤":7737,"##넥":7738,"##봗":7739,"##쥑":7740,"##넬":7741,"##헠":7742,"##눙":7743,"##벵":7744,"##볻":7745,"##젆":7746,"##젭":7747,"##곘":7748,"##럾":7749,"##얜":7750,"##뽐":7751,"##꿜":7752,"##겈":7753,"##푝":7754,"##샠":7755,"##뚤":7756,"##캬":7757,"##샛":7758,"##멧":7759,"##뮨":7760,"##텰":7761,"##뺀":7762,"##웬":7763,"##숑":7764,"##짬":7765,"##솬":7766,"##랼":7767,"##빋":7768,"##쫓":7769,"##늣":7770,"##껭":7771,"##댸":7772,"##땠":7773,"##깻":7774,"##훕":7775,"##쏙":7776,"##늉":7777,"##쭐":7778,"##뗴":7779,"##쌓":7780,"##밈":7781,"##싴":7782,"##쏜":7783,"##몫":7784,"##봨":7785,"##퓰":7786,"##빱":7787,"##웍":7788,"##셐":7789,"##쏠":7790,"##릉":7791,"##첫":7792,"##댜":7793,"##팠":7794,"##멕":7795,"##걍":7796,"##숏":7797,"##틋":7798,"##웩":7799,"##핼":7800,"##텝":7801,"##뻑":7802,"##첼":7803,"##섺":7804,"##왼":7805,"##뻤":7806,"##씌":7807,"##핫":7808,"##옮":7809,"##꺟":7810,"##싵":7811,"##돛":7812,"##틓":7813,"##갹":7814,"##슾":7815,"##퀄":7816,"##쓒":7817,"##멊":7818,"##솟":7819,"##홥":7820,"##랟":7821,"##샏":7822,"##뵀":7823,"##욤":7824,"##봫":7825,"##좇":7826,"##밓":7827,"##꿥":7828,"##앎":7829,"##씁":7830,"##닜":7831,"##츈":7832,"##잽":7833,"##쑈":7834,"##윽":7835,"##녘":7836,"##윗":7837,"##녴":7838,"##삔":7839,"##퀸":7840,"##긎":7841,"##쌋":7842,"##쇅":7843,"##휄":7844,"##갭":7845,"##굳":7846,"##얖":7847,"##썹":7848,"##둠":7849,"##믈":7850,"##긕":7851,"##댐":7852,"##삘":7853,"##뵈":7854,"##잏":7855,"##퀼":7856,"##푕":7857,"##띵":7858,"##뽜":7859,"##꿴":7860,"##쯔":7861,"##낯":7862,"##좆":7863,"##굼":7864,"##횹":7865,"##샾":7866,"##챠":7867,"##죰":7868,"##켄":7869,"##늄":7870,"##짯":7871,"##쟣":7872,"##깤":7873,"##땟":7874,"##쟉":7875,"##덟":7876,"##곽":7877,"##뵐":7878,"##촛":7879,"##뱌":7880,"##앚":7881,"##뗌":7882,"##럐":7883,"##쨌":7884,"##댘":7885,"##삶":7886,"##쏱":7887,"##윅":7888,"##걔":7889,"##찹":7890,"##덧":7891,"##퀘":7892,"##쥤":7893,"##섴":7894,"##즁":7895,"##텁":7896,"##졔":7897,"##샊":7898,"##댁":7899,"##챤":7900,"##댈":7901,"##짧":7902,"##읎":7903,"##꺾":7904,"##츙":7905,"##덥":7906,"##떵":7907,"##꺽":7908,"##콥":7909,"##쳈":7910,"##셍":7911,"##솜":7912,"##둣":7913,"##믜":7914,"##듈":7915,"##큿":7916,"##읂":7917,"##럇":7918,"##퍽":7919,"##뫄":7920,"##헹":7921,"##쟌":7922,"##쇽":7923,"##홬":7924,"##봬":7925,"##뽄":7926,"##젖":7927,"##랰":7928,"##죵":7929,"##큘":7930,"##늑":7931,"##섵":7932,"##쩨":7933,"##죸":7934,"##뗄":7935,"##뇸":7936,"##싰":7937,"##겆":7938,"##톄":7939,"##쭉":7940,"##쨈":7941,"##뫈":7942,"##륲":7943,"##펐":7944,"##뀨":7945,"##쾅":7946,"##랒":7947,"##앟":7948,"##흉":7949,"##젔":7950,"##듴":7951,"##힉":7952,"##뒥":7953,"##흰":7954,"##짛":7955,"##룻":7956,"##펌":7957,"##녓":7958,"##씸":7959,"##헙":7960,"##긁":7961,"##깁":7962,"##혓":7963,"##좭":7964,"##쒸":7965,"##휑":7966,"##솊":7967,"##껑":7968,"##꼣":7969,"##쟂":7970,"##뷩":7971,"##잍":7972,"##앓":7973,"##헴":7974,"##뱜":7975,"##늡":7976,"##넓":7977,"##튕":7978,"##팜":7979,"##읔":7980,"##맵":7981,"##훼":7982,"##찼":7983,"##좉":7984,"##솥":7985,"##삣":7986,"##씋":7987,"##윂":7988,"##첬":7989,"##쉑":7990,"##뢴":7991,"##맑":7992,"##궜":7993,"##깊":7994,"##홓":7995,"##읺":7996,"##젛":7997,"##돗":7998,"##왑":7999,"##둉":8000,"##굉":8001,"##췡":8002,"##췌":8003,"##쾈":8004,"##빴":8005,"##웤":8006,"##넛":8007,"##귝":8008,"##탔":8009,"##묶":8010,"##댯":8011,"##궄":8012,"##먀":8013,"##맄":8014,"##헥":8015,"##퀙":8016,"##앍":8017,"##씍":8018,"##듦":8019,"##훠":8020,"##갛":8021,"##엣":8022,"##걋":8023,"##녆":8024,"##꼐":8025,"##릂":8026,"##곀":8027,"##챘":8028,"##쪘":8029,"##켔":8030,"##죱":8031,"##됰":8032,"##뵌":8033,"##늙":8034,"##돞":8035,"##졎":8036,"##찻":8037,"##렜":8038,"##랆":8039,"##곌":8040,"##쁭":8041,"##쪄":8042,"##묄":8043,"##흔":8044,"##뺑":8045,"##뼉":8046,"##숴":8047,"##낱":8048,"##닪":8049,"##핮":8050,"##쏫":8051,"##솨":8052,"##잭":8053,"##쵝":8054,"##팤":8055,"##힣":8056,"##슼":8057,"##볏":8058,"##몪":8059,"##땃":8060,"##붇":8061,"##잨":8062,"##륨":8063,"##봥":8064,"##뒹":8065,"##풑":8066,"##샴":8067,"##몃":8068,"##봔":8069,"##캣":8070,"##왤":8071,"##쿰":8072,"##냡":8073,"##닾":8074,"##숌":8075,"##냑":8076,"##뤼":8077,"##샙":8078,"##긐":8079,"##씦":8080,"##앱":8081,"##컼":8082,"##핻":8083,"##갣":8084,"##힛":8085,"##갴":8086,"##롶":8087,"##헷":8088,"##텄":8089,"##죗":8090,"##푠":8091,"##랖":8092,"##밐":8093,"##밎":8094,"##엏":8095,"##멩":8096,"##웋":8097,"##퉈":8098,"##챗":8099,"##탭":8100,"##넦":8101,"##썰":8102,"##랮":8103,"##얐":8104,"##셯":8105,"##츤":8106,"##븩":8107,"##엤":8108,"##웁":8109,"##풋":8110,"##븨":8111,"##켁":8112,"##댱":8113,"##텋":8114,"##쇜":8115,"##킉":8116,"##캄":8117,"##씰":8118,"##쥔":8119,"##맟":8120,"##쫀":8121,"##텻":8122,"##맇":8123,"##쯧":8124,"##엊":8125,"##뵙":8126,"##삿":8127,"##컥":8128,"##깸":8129,"##깠":8130,"##앝":8131,"##샥":8132,"##놐":8133,"##컀":8134,"##흫":8135,"##셤":8136,"##붜":8137,"##둰":8138,"##짊":8139,"##놉":8140,"##늬":8141,"##뇽":8142,"##뮥":8143,"##묙":8144,"##뢀":8145,"##휠":8146,"##헀":8147,"##긓":8148,"##왱":8149,"##땨":8150,"##넙":8151,"##픠":8152,"##딛":8153,"##쏨":8154,"##탤":8155,"##귈":8156,"##돤":8157,"##캤":8158,"##긒":8159,"##톧":8160,"##쎀":8161,"##씪":8162,"##눴":8163,"##밬":8164,"##쏭":8165,"##넫":8166,"##앰":8167,"##쫑":8168,"##쑬":8169,"##릳":8170,"##뽈":8171,"##쥰":8172,"##슐":8173,"##렺":8174,"##뢍":8175,"##폑":8176,"##졷":8177,"##띁":8178,"##넉":8179,"##쳉":8180,"##쮝":8181,"##쨕":8182,"##돱":8183,"##딨":8184,"##잰":8185,"##쉣":8186,"##쬐":8187,"##헉":8188,"##븡":8189,"##쐬":8190,"##갃":8191,"##뻬":8192,"##얹":8193,"##웜":8194,"##꼿":8195,"##퍈":8196,"##잆":8197,"##홋":8198,"##숸":8199,"##핧":8200,"##쌞":8201,"##윘":8202,"##똒":8203,"##욛":8204,"##킵":8205,"##읭":8206,"##봘":8207,"##읃":8208,"##뤀":8209,"##뎨":8210,"##딋":8211,"##셩":8212,"##눼":8213,"##넿":8214,"##볐":8215,"##넺":8216,"##큭":8217,"##컸":8218,"##엾":8219,"##딲":8220,"##홧":8221,"##땤":8222,"##냬":8223,"##얶":8224,"##퉤":8225,"##텈":8226,"##둧":8227,"##닺":8228,"##곗":8229,"##솝":8230,"##옠":8231,"##붘":8232,"##깍":8233,"##깧":8234,"##몄":8235,"##샅":8236,"##깬":8237,"##댑":8238,"##읗":8239,"##늪":8240,"##딫":8241,"##챕":8242,"##븜":8243,"##쉅":8244,"##탂":8245,"##놬":8246,"##옸":8247,"##꽤":8248,"##랎":8249,"##뛸":8250,"##넸":8251,"##뺠":8252,"##쓱":8253,"##씝":8254,"##퀀":8255,"##폈":8256,"##뇻":8257,"##밧":8258,"##흩":8259,"##앐":8260,"##쫒":8261,"##얕":8262,"##뭍":8263,"##얗":8264,"##닍":8265,"##젘":8266,"##뿡":8267,"##옂":8268,"##챦":8269,"##좔":8270,"##낋":8271,"##닳":8272,"##퐈":8273,"##곺":8274,"##굑":8275,"##밨":8276,"##쯘":8277,"##귐":8278,"##옻":8279,"##녯":8280,"##팎":8281,"##텬":8282,"##떸":8283,"##뷴":8284,"##얇":8285,"##샸":8286,"##튠":8287,"##돨":8288,"##쌰":8289,"##뺍":8290,"##겍":8291,"##궂":8292,"##죤":8293,"##뛔":8294,"##찟":8295,"##핤":8296,"##홤":8297,"##돕":8298,"##춧":8299,"##숱":8300,"##켠":8301,"##렼":8302,"##갗":8303,"##롵":8304,"##쳥":8305,"##뉩":8306,"##쌌":8307,"##깼":8308,"##귱":8309,"##씐":8310,"##쯕":8311,"##뫃":8312,"##퉜":8313,"##쐇":8314,"##낵":8315,"##춥":8316,"##땄":8317,"##퐁":8318,"##맻":8319,"##귘":8320,"##떯":8321,"##뿛":8322,"##끍":8323,"##쩕":8324,"##탸":8325,"##뼝":8326,"##췻":8327,"##훅":8328,"##쒀":8329,"##섲":8330,"##덫":8331,"##잿":8332,"##봌":8333,"##꾀":8334,"##틐":8335,"##졉":8336,"##섿":8337,"##옐":8338,"##룟":8339,"##읫":8340,"##뤗":8341,"##닏":8342,"##쒜":8343,"##촨":8344,"##옶":8345,"##맗":8346,"##굦":8347,"##젬":8348,"##땸":8349,"##맣":8350,"##맜":8351,"##쑝":8352,"##햤":8353,"##떴":8354,"##잲":8355,"##첟":8356,"##뗀":8357,"##롡":8358,"##믕":8359,"##챂":8360,"##쳌":8361,"##쳬":8362,"##놯":8363,"##읻":8364,"##츰":8365,"##뮌":8366,"##훝":8367,"##훜":8368,"##훟":8369,"##옳":8370,"##뗑":8371,"##슽":8372,"##굔":8373,"##뢐":8374,"##젯":8375,"##앴":8376,"##꽝":8377,"##짭":8378,"##잕":8379,"##떫":8380,"##뎄":8381,"##핲":8382,"##겝":8383,"##썌":8384,"##헑":8385,"##땋":8386,"##잋":8387,"##탛":8388,"##돜":8389,"##켤":8390,"##뉠":8391,"##겧":8392,"##꺙":8393,"##괭":8394,"##탹":8395,"##챵":8396,"##뜽":8397,"##듷":8398,"##흗":8399,"##떈":8400,"##괙":8401,"##늕":8402,"##뽁":8403,"##솈":8404,"##텥":8405,"##뻣":8406,"##샐":8407,"##꿧":8408,"##샄":8409,"##캌":8410,"##쳫":8411,"##짼":8412,"##껔":8413,"##낏":8414,"##곯":8415,"##묾":8416,"##꿰":8417,"##숖":8418,"##넵":8419,"##딤":8420,"##뎐":8421,"##닻":8422,"##잗":8423,"##횽":8424,"##큥":8425,"##릥":8426,"##궥":8427,"##죈":8428,"##홰":8429,"##슌":8430,"##벰":8431,"##뒸":8432,"##셎":8433,"##떱":8434,"##궇":8435,"##왖":8436,"##쇙":8437,"##빻":8438,"##빘":8439,"##쨔":8440,"##쉿":8441,"##팰":8442,"##촞":8443,"##욨":8444,"##댙":8445,"##칻":8446,"##캘":8447,"##괌":8448,"##뷉":8449,"##걹":8450,"##쉈":8451,"##헸":8452,"##싲":8453,"##땈":8454,"##멓":8455,"##깢":8456,"##앖":8457,"##뒈":8458,"##씯":8459,"##꿩":8460,"##횻":8461,"##읊":8462,"##왐":8463,"##끽":8464,"##윕":8465,"##퍄":8466,"##붰":8467,"##픜":8468,"##큅":8469,"##뱁":8470,"##됭":8471,"##쿸":8472,"##렋":8473,"##굵":8474,"##풉":8475,"##쫘":8476,"##긷":8477,"##챃":8478,"##텤":8479,"##퍌":8480,"##뇅":8481,"##컾":8482,"##핱":8483,"##쉨":8484,"##혖":8485,"##냌":8486,"##햬":8487,"##챨":8488,"##띔":8489,"##덯":8490,"##쌕":8491,"##샗":8492,"##졈":8493,"##팈":8494,"##쨜":8495,"##튬":8496,"##릏":8497,"##쾨":8498,"##탬":8499,"##뉵":8500,"##괸":8501,"##켴":8502,"##듰":8503,"##푹":8504,"##끰":8505,"##늧":8506,"##퐝":8507,"##펍":8508,"##땍":8509,"##첞":8510,"##읏":8511,"##뗙":8512,"##럄":8513,"##앸":8514,"##휔":8515,"##눀":8516,"##챋":8517,"##랸":8518,"##쓥":8519,"##곪":8520,"##뼌":8521,"##숟":8522,"##촟":8523,"##쉭":8524,"##즄":8525,"##읠":8526,"##엃":8527,"##궹":8528,"##곻":8529,"##쁟":8530,"##냦":8531,"##혛":8532,"##뵤":8533,"##캇":8534,"##싨":8535,"##뼛":8536,"##끋":8537,"##떙":8538,"##켐":8539,"##셸":8540,"##됍":8541,"##뱡":8542,"##꿘":8543,"##짗":8544,"##앂":8545,"##쟹":8546,"##칵":8547,"##뫼":8548,"##낑":8549,"##쳘":8550,"##낃":8551,"##팥":8552,"##겢":8553,"##쓉":8554,"##햊":8555,"##깰":8556,"##읅":8557,"##꽊":8558,"##쫩":8559,"##뉨":8560,"##뷸":8561,"##삥":8562,"##큨":8563,"##싈":8564,"##옜":8565,"##꿂":8566,"##욹":8567,"##꿋":8568,"##붑":8569,"##놰":8570,"##잫":8571,"##껰":8572,"##쵯":8573,"##켕":8574,"##뺄":8575,"##휨":8576,"##댣":8577,"##튄":8578,"##쉔":8579,"##쎔":8580,"##렝":8581,"##쉒":8582,"##벎":8583,"##뚀":8584,"##칮":8585,"##듐":8586,"##줩":8587,"##긇":8588,"##떽":8589,"##됗":8590,"##꺅":8591,"##촤":8592,"##앳":8593,"##퀵":8594,"##놋":8595,"##묜":8596,"##쎌":8597,"##윸":8598,"##땧":8599,"##삸":8600,"##뿟":8601,"##콸":8602,"##맃":8603,"##낡":8604,"##삤":8605,"##랅":8606,"##댴":8607,"##슺":8608,"##멷":8609,"##쯰":8610,"##쟜":8611,"##넜":8612,"##좐":8613,"##죌":8614,"##깄":8615,"##픕":8616,"##삑":8617,"##찿":8618,"##휼":8619,"##쪔":8620,"##삳":8621,"##꼳":8622,"##뙇":8623,"##죙":8624,"##싁":8625,"##휙":8626,"##멉":8627,"##챀":8628,"##짙":8629,"##눗":8630,"##맸":8631,"##췃":8632,"##쨀":8633,"##훙":8634,"##슿":8635,"##낍":8636,"##컄":8637,"##걁":8638,"##뗐":8639,"##뎬":8640,"##몈":8641,"##돡":8642,"##븟":8643,"##숰":8644,"##짥":8645,"##뿰":8646,"##텡":8647,"##깓":8648,"##쌱":8649,"##뮴":8650,"##귴":8651,"##햔":8652,"##촙":8653,"##칀":8654,"##띌":8655,"##왛":8656,"##벳":8657,"##갂":8658,"##슙":8659,"##쉥":8660,"##밣":8661,"##꿎":8662,"##츕":8663,"##멎":8664,"##풔":8665,"##졀":8666,"##맬":8667,"##촐":8668,"##윳":8669,"##홐":8670,"##쁸":8671,"##쎅":8672,"##쭤":8673,"##왁":8674,"##쩣":8675,"##뭄":8676,"##땔":8677,"##똠":8678,"##웝":8679,"##껼":8680,"##댝":8681,"##촠":8682,"##퇄":8683,"##둿":8684,"##궅":8685,"##괐":8686,"##핡":8687,"##뜡":8688,"##줙":8689,"##빕":8690,"##큔":8691,"##뻰":8692,"##큽":8693,"##켸":8694,"##뭥":8695,"##킁":8696,"##쐉":8697,"##쳇":8698,"##놎":8699,"##콱":8700,"##멨":8701,"##늫":8702,"##씜":8703,"##렣":8704,"##앋":8705,"##뀍":8706,"##쁩":8707,"##쪗":8708,"##럈":8709,"##햫":8710,"##숄":8711,"##옾":8712,"##둟":8713,"##쉙":8714,"##꺈":8715,"##쇗":8716,"##폇":8717,"##킝":8718,"##븋":8719,"##쳔":8720,"##탉":8721,"##캅":8722,"##켑":8723,"##굻":8724,"##빢":8725,"##흣":8726,"##륾":8727,"##몼":8728,"##헜":8729,"##틍":8730,"##맍":8731,"##퓸":8732,"##벱":8733,"##삵":8734,"##풱":8735,"##냣":8736,"##낔":8737,"##굡":8738,"##켘":8739,"##퇼":8740,"##뀬":8741,"##힠":8742,"##칲":8743,"##꺘":8744,"##턍":8745,"##팹":8746,"##핌":8747,"##썫":8748,"##볘":8749,"##횔":8750,"##븰":8751,"##귬":8752,"##삗":8753,"##섘":8754,"##훋":8755,"##됑":8756,"##븎":8757,"##렩":8758,"##륿":8759,"##벜":8760,"##뤈":8761,"##퇀":8762,"##퐐":8763,"##쭌":8764,"##깕":8765,"##훑":8766,"##슛":8767,"##죳":8768,"##젰":8769,"##녤":8770,"##룍":8771,"##뇰":8772,"##헿":8773,"##앛":8774,"##읕":8775,"##촼":8776,"##뱆":8777,"##듼":8778,"##걩":8779,"##휸":8780,"##쳧":8781,"##셬":8782,"##쟆":8783,"##슄":8784,"##덨":8785,"##욲":8786,"##샇":8787,"##밯":8788,"##씃":8789,"##뜀":8790,"##옭":8791,"##욍":8792,"##뙤":8793,"##푯":8794,"##쒓":8795,"##뎠":8796,"##뀠":8797,"##츅":8798,"##샃":8799,"##햅":8800,"##홝":8801,"##꺓":8802,"##칽":8803,"##짇":8804,"##웻":8805,"##짹":8806,"##뱐":8807,"##듲":8808,"##쉉":8809,"##옇":8810,"##롄":8811,"##갋":8812,"##밮":8813,"##챡":8814,"##뤌":8815,"##윰":8816,"##먻":8817,"##푴":8818,"##눤":8819,"##뺒":8820,"##끅":8821,"##챳":8822,"##펩":8823,"##얺":8824,"##닞":8825,"##됴":8826,"##줝":8827,"##먺":8828,"##몐":8829,"##욌":8830,"##츛":8831,"##풎":8832,"##풐":8833,"##껜":8834,"##껬":8835,"##긘":8836,"##쯨":8837,"##슉":8838,"##퀐":8839,"##줭":8840,"##쥘":8841,"##쓤":8842,"##컫":8843,"##늼":8844,"##퀑":8845,"##욻":8846,"##믐":8847,"##븝":8848,"##쨰":8849,"##퀭":8850,"##밒":8851,"##슭":8852,"##빳":8853,"##큳":8854,"##늗":8855,"##쌬":8856,"##껒":8857,"##픙":8858,"##뮹":8859,"##쟞":8860,"##멌":8861,"##춬":8862,"##섣":8863,"##삷":8864,"##롕":8865,"##옣":8866,"##퐤":8867,"##꺔":8868,"##꺵":8869,"##빪":8870,"##얋":8871,"##쁄":8872,"##쯈":8873,"##샋":8874,"##잟":8875,"##캏":8876,"##놩":8877,"##눹":8878,"##얒":8879,"##얾":8880,"##걐":8881,"##벚":8882,"##믾":8883,"##죧":8884,"##괞":8885,"##샜":8886,"##춚":8887,"##떰":8888,"##곅":8889,"##훀":8890,"##줗":8891,"##맒":8892,"##튱":8893,"##틔":8894,"##녾":8895,"##춍":8896,"##꽌":8897,"##됔":8898,"##얬":8899,"##솅":8900,"##툥":8901,"##긑":8902,"##쇆":8903,"##읖":8904,"##킾":8905,"##덞":8906,"##듧":8907,"##옿":8908,"##쪾":8909,"##갬":8910,"##휩":8911,"##엶":8912,"##볓":8913,"##릋":8914,"##픅":8915,"##잩":8916,"##툽":8917,"##딀":8918,"##셕":8919,"##빩":8920,"##팦":8921,"##왷":8922,"##븤":8923,"##핶":8924,"##퐄":8925,"##듳":8926,"##랋":8927,"##뵜":8928,"##젴":8929,"##톼":8930,"##뉜":8931,"##혘":8932,"##렂":8933,"##켬":8934,"##끕":8935,"##뎉":8936,"##캈":8937,"##줯":8938,"##싳":8939,"##벞":8940,"##쩟":8941,"##쟨":8942,"##팃":8943,"##깣":8944,"##톳":8945,"##넽":8946,"##됳":8947,"##쩄":8948,"##좒":8949,"##녠":8950,"##즠":8951,"##섕":8952,"##챼":8953,"##뱰":8954,"##햠":8955,"##섶":8956,"##봏":8957,"##솸":8958,"##퀻":8959,"##돵":8960,"##칞":8961,"##똫":8962,"##쎘":8963,"##볔":8964,"##힑":8965,"##콬":8966,"##뭏":8967,"##떔":8968,"##솽":8969,"##퉷":8970,"##붱":8971,"##튵":8972,"##뎋":8973,"##릈":8974,"##듫":8975,"##췅":8976,"##렿":8977,"##깇":8978,"##똧":8979,"##첝":8980,"##휭":8981,"##훵":8982,"##튿":8983,"##쥉":8984,"##탘":8985,"##뽝":8986,"##눚":8987,"##롲":8988,"##툐":8989,"##햙":8990,"##뱗":8991,"##쇣":8992,"##뤱":8993,"##뷀":8994,"##읆":8995,"##쒞":8996,"##줰":8997,"##뉌":8998,"##쇤":8999,"##켱":9000,"##땬":9001,"##몾":9002,"##핝":9003,"##뤨":9004,"##갵":9005,"##왭":9006,"##헵":9007,"##읩":9008,"##쎼":9009,"##닽":9010,"##짦":9011,"##듵":9012,"##둞":9013,"##쉛":9014,"##씉":9015,"##봑":9016,"##싿":9017,"##깪":9018,"##몴":9019,"##뢔":9020,"##왰":9021,"##쒝":9022,"##씅":9023,"##쏩":9024,"##쳴":9025,"##챱":9026,"##뾰":9027,"##틑":9028,"##즛":9029,"##붹":9030,"##낕":9031,"##빯":9032,"##늩":9033,"##듥":9034,"##욪":9035,"##딯":9036,"##붏":9037,"##첧":9038,"##뉍":9039,"##쑌":9040,"##슁":9041,"##쀳":9042,"##맆":9043,"##뭡":9044,"##꺀":9045,"##퀔":9046,"##됸":9047,"##숼":9048,"##쩰":9049,"##칯":9050,"##놕":9051,"##뷱":9052,"##몁":9053,"##뚠":9054,"##둙":9055,"##엩":9056,"##꽅":9057,"##앆":9058,"##랃":9059,"##즹":9060,"##롁":9061,"##옺":9062,"##뀝":9063,"##륑":9064,"##욮":9065,"##튭":9066,"##븍":9067,"##쌨":9068,"##읮":9069,"##귿":9070,"##챰":9071,"##셖":9072,"##툿":9073,"##힢":9074,"##뱄":9075,"##밞":9076,"##볭":9077,"##횅":9078,"##뼙":9079,"##흌":9080,"##즴":9081,"##샣":9082,"##좟":9083,"##퇔":9084,"##샡":9085,"##섷":9086,"##풓":9087,"##둼":9088,"##왇":9089,"##튝":9090,"##돟":9091,"##섻":9092,"##읓":9093,"##홣":9094,"##쇈":9095,"##빧":9096,"##졵":9097,"##쯜":9098,"##쎽":9099,"##쑴":9100,"##좡":9101,"##럳":9102,"##쨍":9103,"##왚":9104,"##꿸":9105,"##낢":9106,"##껫":9107,"##벹":9108,"##곷":9109,"##욿":9110,"##껨":9111,"##삯":9112,"##즥":9113,"##둩":9114,"##엡":9115,"##읇":9116,"##쐈":9117,"##횃":9118,"##렆":9119,"##쌖":9120,"##힁":9121,"##뤸":9122,"##벟":9123,"##쯩":9124,"##섁":9125,"##뉸":9126,"##푷":9127,"##젵":9128,"##괏":9129,"##찤":9130,"##궘":9131,"##홛":9132,"##큉":9133,"##쒹":9134,"##곹":9135,"##옅":9136,"##햘":9137,"##팓":9138,"##똬":9139,"##쨉":9140,"##읐":9141,"##뗘":9142,"##쵀":9143,"##맀":9144,"##퐅":9145,"##쮜":9146,"##쎵":9147,"##즨":9148,"##롷":9149,"##큮":9150,"##븉":9151,"##녛":9152,"##눃":9153,"##쪕":9154,"##꿃":9155,"##싷":9156,"##홯":9157,"##릠":9158,"##쳨":9159,"##걘":9160,"##쨴":9161,"##쬑":9162,"##묫":9163,"##윷":9164,"##쪙":9165,"##롳":9166,"##갲":9167,"##혠":9168,"##귻":9169,"##좈":9170,"##꽐":9171,"##쎠":9172,"##솓":9173,"##쥭":9174,"##춴":9175,"##덭":9176,"##뚯":9177,"##믙":9178,"##샫":9179,"##쌥":9180,"##먈":9181,"##춪":9182,"##룀":9183,"##뛍":9184,"##텇":9185,"##푤":9186,"##띾":9187,"##쑨":9188,"##닁":9189,"##냤":9190,"##맫":9191,"##쉌":9192,"##랲":9193,"##믇":9194,"##읈":9195,"##랻":9196,"##졻":9197,"##뢥":9198,"##쟙":9199,"##졿":9200,"##뎧":9201,"##렫":9202,"##좰":9203,"##돎":9204,"##낐":9205,"##갫":9206,"##뚨":9207,"##캭":9208,"##쿅":9209,"##횝":9210,"##룔":9211,"##녂":9212,"##돚":9213,"##쫏":9214,"##삻":9215,"##곢":9216,"##붭":9217,"##깂":9218,"##퐉":9219,"##콌":9220,"##깞":9221,"##냩":9222,"##끙":9223,"##믽":9224,"##볃":9225,"##앀":9226,"##쭛":9227,"##땩":9228,"##풒":9229,"##킿":9230,"##웽":9231,"##좩":9232,"##껐":9233,"##렄":9234,"##숯":9235,"##튓":9236,"##븥":9237,"##륻":9238,"##뺼":9239,"##넋":9240,"##덬":9241,"##핟":9242,"##뤃":9243,"##쟄":9244,"##훍":9245,"##춫":9246,"##턀":9247,"##웉":9248,"##캑":9249,"##뚬":9250,"##폽":9251,"##섈":9252,"##잒":9253,"##뎇":9254,"##갢":9255,"##샎":9256,"##꺊":9257,"##쨐":9258,"##잢":9259,"##뉼":9260,"##꺆":9261,"##뭠":9262,"##췈":9263,"##쾐":9264,"##뤡":9265,"##옦":9266,"##읒":9267,"##캍":9268,"##꼹":9269,"##땢":9270,"##녈":9271,"##쳄":9272,"##쿱":9273,"##쿫":9274,"##쯀":9275,"##롼":9276,"##텼":9277,"##깩":9278,"##젚":9279,"##쒑":9280,"##섂":9281,"##쵼":9282,"##쎴":9283,"##갉":9284,"##똔":9285,"##퇵":9286,"##렊":9287,"##똭":9288,"##쏐":9289,"##뷜":9290,"##춋":9291,"##봈":9292,"##겯":9293,"##죨":9294,"##쎜":9295,"##잴":9296,"##뱍":9297,"##쇌":9298,"##빸":9299,"##줉":9300,"##똴":9301,"##굲":9302,"##얅":9303,"##귁":9304,"##꾜":9305,"##즏":9306,"##뜾":9307,"##걜":9308,"##햑":9309,"##쿔":9310,"##쎤":9311,"##퐆":9312,"##궷":9313,"##쒔":9314,"##뱔":9315,"##꿏":9316,"##봠":9317,"##읹":9318,"##뛟":9319,"##꿐":9320,"##팉":9321,"##퉵":9322,"##댬":9323,"##붤":9324,"##냘":9325,"##픂":9326,"##넟":9327,"##쇳":9328,"##빟":9329,"##뭊":9330,"##쌜":9331,"##븈":9332,"##얷":9333,"##좠":9334,"##젿":9335,"##굇":9336,"##쏰":9337,"##쩬":9338,"##뎍":9339,"##쩧":9340,"##쇟":9341,"##햎":9342,"##닢":9343,"##쥈":9344,"##줈":9345,"##륶":9346,"##뽥":9347,"##놖":9348,"##훸":9349,"##멬":9350,"##캨":9351,"##룤":9352,"##읉":9353,"##넡":9354,"##탶":9355,"##럵":9356,"##궝":9357,"##펖":9358,"##옘":9359,"##쥣":9360,"##괬":9361,"##턑":9362,"##횓":9363,"##젾":9364,"##홪":9365,"##찪":9366,"##봊":9367,"##뒨":9368,"##옙":9369,"##맂":9370,"##묨":9371,"##쫛":9372,"##줜":9373,"##먠":9374,"##쌎":9375,"##쑹":9376,"##팄":9377,"##콴":9378,"##뜍":9379,"##죻":9380,"##숮":9381,"##엗":9382,"##킫":9383,"##롹":9384,"##횜":9385,"##뺫":9386,"##닟":9387,"##쳒":9388,"##깆":9389,"##쫜":9390,"##붛":9391,"##얂":9392,"##뇐":9393,"##댤":9394,"##륩":9395,"##닩":9396,"##뱨":9397,"##곔":9398,"##탙":9399,"##뵹":9400,"##읙":9401,"##촏":9402,"##닸":9403,"##캿":9404,"##왴":9405,"##몋":9406,"##홱":9407,"##슩":9408,"##꼌":9409,"##킦":9410,"##껶":9411,"##찲":9412,"##붥":9413,"##뷇":9414,"##뭰":9415,"##걌":9416,"##맼":9417,"##햣":9418,"##띃":9419,"##똨":9420,"##줴":9421,"##듄":9422,"##솃":9423,"##닶":9424,"##씤":9425,"##삾":9426,"##곈":9427,"##몔":9428,"##뫔":9429,"##릌":9430,"##롣":9431,"##햡":9432,"##웱":9433,"##삺":9434,"##캆":9435,"##톽":9436,"##쟐":9437,"##셇":9438,"##엪":9439,"##뽭":9440,"##떩":9441,"##빬":9442,"##뿨":9443,"##봟":9444,"##겾":9445,"##칱":9446,"##뱎":9447,"##셑":9448,"##챽":9449,"##걿":9450,"##쉄":9451,"##닡":9452,"##롥":9453,"##웾":9454,"##씿":9455,"##껗":9456,"##냪":9457,"##띅":9458,"##켙":9459,"##쟛":9460,"##묀":9461,"##뱈":9462,"##귓":9463,"##뻇":9464,"##녇":9465,"##쉇":9466,"##봍":9467,"##귾":9468,"##앺":9469,"##푶":9470,"##앶":9471,"##륐":9472,"##틜":9473,"##눳":9474,"##몌":9475,"##엫":9476,"##봦":9477,"##끤":9478,"##뇔":9479,"##쎆":9480,"##삲":9481,"##옽":9482,"##꼉":9483,"##핔":9484,"##헾":9485,"##눟":9486,"##쭥":9487,"##쮹":9488,"##걈":9489,"##좸":9490,"##넒":9491,"##둫":9492,"##싞":9493,"##됃":9494,"##셆":9495,"##뇜":9496,"##헭":9497,"##륍":9498,"##헼":9499,"##뜹":9500,"##젇":9501,"##꽥":9502,"##쵿":9503,"##잪":9504,"##섧":9505,"##쵁":9506,"##셛":9507,"##넚":9508,"##밙":9509,"##뺗":9510,"##딍":9511,"##윜":9512,"##퉆":9513,"##똵":9514,"##슆":9515,"##쯥":9516,"##쮠":9517,"##햝":9518,"##뀷":9519,"##곃":9520,"##읨":9521,"##굘":9522,"##궙":9523,"##욷":9524,"##엍":9525,"##됵":9526,"##괔":9527,"##뤂":9528,"##훳":9529,"##뙁":9530,"##댛":9531,"##섓":9532,"##쌴":9533,"##좢":9534,"##줒":9535,"##솰":9536,"##쏳":9537,"##캰":9538,"##팧":9539,"##앲":9540,"##옝":9541,"##쥨":9542,"##얠":9543,"##즵":9544,"##썜":9545,"##먽":9546,"##좄":9547,"##듪":9548,"##웢":9549,"##겒":9550,"##뗳":9551,"##폅":9552,"##싺":9553,"##퓡":9554,"##듶":9555,"##벏":9556,"##몱":9557,"##륹":9558,"##풰":9559,"##녺":9560,"##륄":9561,"##뫗":9562,"##몣":9563,"##왉":9564,"##잧":9565,"##먁":9566,"##돸":9567,"##쒱":9568,"##딻":9569,"##뎊":9570,"##슅":9571,"##왹":9572,"##밪":9573,"##벾":9574,"##춌":9575,"##뫠":9576,"##끎":9577,"##즼":9578,"##놘":9579,"##줔":9580,"##봃":9581,"##됱":9582,"##릔":9583,"##펵":9584,"##뽤":9585,"##댚":9586,"##뀸":9587,"##쪠":9588,"##텣":9589,"##툠":9590,"##셱":9591,"##륏":9592,"##뷍":9593,"##썎":9594,"##볌":9595,"##슦":9596,"##흨":9597,"##쉾":9598,"##픓":9599,"##괼":9600,"##퇭":9601,"##풕":9602,"##캵":9603,"##칶":9604,"##짏":9605,"##뺵":9606,"##떧":9607,"##튁":9608,"##켝":9609,"##쓌":9610,"##뻠":9611,"##뽱":9612,"##웼":9613,"##끾":9614,"##뮐":9615,"##좼":9616,"##쭸":9617,"##앻":9618,"##훻":9619,"##챁":9620,"##끜":9621,"##쬽":9622,"##큇":9623,"##뇄":9624,"##눰":9625,"##턔":9626,"##룯":9627,"##씾":9628,"##띈":9629,"##쁀":9630,"##샂":9631,"##릃":9632,"##쾡":9633,"##쾰":9634,"##츹":9635,"##뜷":9636,"##엧":9637,"##꽹":9638,"##뉭":9639,"##췸":9640,"##흛":9641,"##싑":9642,"##닄":9643,"##꼤":9644,"##츱":9645,"##눛":9646,"##밫":9647,"##걵":9648,"##쵤":9649,"##웧":9650,"##놂":9651,"##홨":9652,"##냏":9653,"##톺":9654,"##붖":9655,"##쑷":9656,"##헚":9657,"##웆":9658,"##엦":9659,"##툉":9660,"##텉":9661,"##솎":9662,"##뎆":9663,"##벛":9664,"##뛀":9665,"##헁":9666,"##얙":9667,"##헱":9668,"##롻":9669,"##럤":9670,"##릁":9671,"##튻":9672,"##떢":9673,"##넀":9674,"##늰":9675,"##듁":9676,"##푀":9677,"##뵨":9678,"##돴":9679,"##뺃":9680,"##녅":9681,"##찏":9682,"##벊":9683,"##찧":9684,"##껸":9685,"##쒠":9686,"##죔":9687,"##갍":9688,"##냒":9689,"##쯪":9690,"##셓":9691,"##묠":9692,"##벝":9693,"##뜔":9694,"##턐":9695,"##쥽":9696,"##텦":9697,"##햿":9698,"##줐":9699,"##뗏":9700,"##줚":9701,"##똰":9702,"##긤":9703,"##쟥":9704,"##닊":9705,"##큣":9706,"##끨":9707,"##욼":9708,"##즞":9709,"##뒴":9710,"##뻿":9711,"##똣":9712,"##킌":9713,"##쬭":9714,"##띻":9715,"##볁":9716,"##웸":9717,"##욀":9718,"##잀":9719,"##룁":9720,"##톌":9721,"##킇":9722,"##낞":9723,"##쟘":9724,"##뱩":9725,"##쒴":9726,"##랱":9727,"##귣":9728,"##벧":9729,"##끵":9730,"##뗬":9731,"##굨":9732,"##돐":9733,"##솀":9734,"##즡":9735,"##먜":9736,"##뗫":9737,"##킀":9738,"##땣":9739,"##쓐":9740,"##헊":9741,"##큻":9742,"##좽":9743,"##긂":9744,"##셥":9745,"##젋":9746,"##옉":9747,"##낒":9748,"##퉽":9749,"##웎":9750,"##좍":9751,"##샒":9752,"##꺍":9753,"##쯉":9754,"##햨":9755,"##퉂":9756,"##쫴":9757,"##츸":9758,"##혰":9759,"##뤽":9760,"##셒":9761,"##틉":9762,"##읪":9763,"##첮":9764,"##왯":9765,"##춣":9766,"##쁴":9767,"##뒜":9768,"##좂":9769,"##닣":9770,"##쌧":9771,"##뭌":9772,"##퍠":9773,"##횄":9774,"##펲":9775,"##솧":9776,"##긩":9777,"##뵛":9778,"##꼷":9779,"##걎":9780,"##줱":9781,"##엞":9782,"##혿":9783,"##힄":9784,"##뼐":9785,"##앃":9786,"##윱":9787,"##쐰":9788,"##겓":9789,"##횤":9790,"##륀":9791,"##뢉":9792,"##쭁":9793,"##룱":9794,"##귯":9795,"##퓽":9796,"##랳":9797,"##씈":9798,"##냫":9799,"##핞":9800,"##죹":9801,"##쬼":9802,"##쭏":9803,"##멶":9804,"##둚":9805,"##셃":9806,"##뭷":9807,"##뛓":9808,"##뻨":9809,"##쉡":9810,"##굣":9811,"##녑":9812,"##칳":9813,"##낗":9814,"##짉":9815,"##춛":9816,"##궛":9817,"##쏵":9818,"##늅":9819,"##벓":9820,"##췐":9821,"##갼":9822,"##촵":9823,"##엙":9824,"##힜":9825,"##핢":9826,"##뿓":9827,"##딈":9828,"##웄":9829,"##륌":9830,"##멫":9831,"##쫍":9832,"##늴":9833,"##럻":9834,"##봴":9835,"##꿁":9836,"##욭":9837,"##픗":9838,"##혚":9839,"##쳡":9840,"##탴":9841,"##튽":9842,"##밠":9843,"##픋":9844,"##쿳":9845,"##똡":9846,"##놏":9847,"##쭙":9848,"##릊":9849,"##륽":9850,"##즑":9851,"##꿱":9852,"##튶":9853,"##덝":9854,"##땆":9855,"##뫙":9856,"##깹":9857,"##샼":9858,"##꾱":9859,"##띰":9860,"##쪜":9861,"##릵":9862,"##찯":9863,"##윔":9864,"##겊":9865,"##룜":9866,"##봡":9867,"##큠":9868,"##뎟":9869,"##긜":9870,"##뎔":9871,"##혤":9872,"##뭅":9873,"##벍":9874,"##꿯":9875,"##핕":9876,"##좤":9877,"##횸":9878,"##훃":9879,"##쪹":9880,"##팑":9881,"##끚":9882,"##븽":9883,"##쒰":9884,"##됮":9885,"##짅":9886,"##렪":9887,"##쥅":9888,"##벘":9889,"##씺":9890,"##쭊":9891,"##탇":9892,"##킅":9893,"##갊":9894,"##걕":9895,"##댭":9896,"##쇡":9897,"##쩠":9898,"##갺":9899,"##갷":9900,"##쨥":9901,"##씼":9902,"##췁":9903,"##엒":9904,"##묽":9905,"##싟":9906,"##촣":9907,"##멪":9908,"##츗":9909,"##죴":9910,"##퀏":9911,"##헡":9912,"##컿":9913,"##욉":9914,"##랚":9915,"##칬":9916,"##늟":9917,"##렅":9918,"##킸":9919,"##뺸":9920,"##찎":9921,"##돝":9922,"##욋":9923,"##휵":9924,"##뢱":9925,"##얭":9926,"##쏸":9927,"##쏼":9928,"##쐭":9929,"##쉗":9930,"##췽":9931,"##뽚":9932,"##앹":9933,"##댗":9934,"##뗨":9935,"##릶":9936,"##엻":9937,"##쒭":9938,"##뵘":9939,"##섳":9940,"##뚣":9941,"##뀰":9942,"##괁":9943,"##튈":9944,"##쫃":9945,"##짫":9946,"##섐":9947,"##뒝":9948,"##붂":9949,"##꽙":9950,"##긌":9951,"##띿":9952,"##갅":9953,"##홗":9954,"##춯":9955,"##꽄":9956,"##앧":9957,"##횬":9958,"##듨":9959,"##탖":9960,"##쀠":9961,"##꿑":9962,"##쎃":9963,"##멐":9964,"##쌗":9965,"##긹":9966,"##섥":9967,"##돍":9968,"##뫁":9969,"##옫":9970,"##갏":9971,"##웑":9972,"##꺜":9973,"##텽":9974,"##쥠":9975,"##떪":9976,"##쓩":9977,"##뼤":9978,"##땽":9979,"##흭":9980,"##굤":9981,"##쿹":9982,"##쿺":9983,"##뿝":9984,"##쀍":9985,"##똟":9986,"##뵬":9987,"##휀":9988,"##쓋":9989,"##낪":9990,"##샆":9991,"##쫭":9992,"##겥":9993,"##벉":9994,"##솦":9995,"##귑":9996,"##벴":9997,"##벸":9998,"##홟":9999,"##뼠":10000,"##퍅":10001,"##싕":10002,"##탗":10003,"##햟":10004,"##렾":10005,"##볫":10006,"##쨘":10007,"##댇":10008,"##뜁":10009,"##햚":10010,"##늌":10011,"##쳅":10012,"##뎻":10013,"##퀜":10014,"##돰":10015,"##핪":10016,"##밳":10017,"##딞":10018,"##짳":10019,"##춉":10020,"##녬":10021,"##죚":10022,"##뤅":10023,"##뚸":10024,"##긲":10025,"##췆":10026,"##퉐":10027,"##횢":10028,"##왝":10029,"##꾿":10030,"##곕":10031,"##힗":10032,"##푄":10033,"##볷":10034,"##븀":10035,"##푱":10036,"##쯎":10037,"##엕":10038,"##쿜":10039,"##겇":10040,"##괒":10041,"##쁙":10042,"##쪌":10043,"##슟":10044,"##끉":10045,"##햍":10046,"##꼨":10047,"##헓":10048,"##큵":10049,"##럊":10050,"##놤":10051,"##갆":10052,"##짎":10053,"##뿕":10054,"##쓑":10055,"##큪":10056,"##걑":10057,"##놜":10058,"##붆":10059,"##먾":10060,"##윶":10061,"##냊":10062,"##넞":10063,"##폔":10064,"##슲":10065,"##걾":10066,"##걻":10067,"##빏":10068,"##훓":10069,"##샑":10070,"##낅":10071,"##엢":10072,"##댖":10073,"##졶":10074,"##솩":10075,"##빜":10076,"##씞":10077,"##몉":10078,"##뻦":10079,"##툳":10080,"##줓":10081,"##닧":10082,"##뮷":10083,"##릍":10084,"##믑":10085,"##걽":10086,"##줮":10087,"##삠":10088,"##뉑":10089,"##뗠":10090,"##떗":10091,"##먐":10092,"##빂":10093,"##슢":10094,"##틷":10095,"##낝":10096,"##뿃":10097,"##끆":10098,"##꾺":10099,"##겷":10100,"##룠":10101,"##켲":10102,"##쇀":10103,"##꽘":10104,"##틘":10105,"##펕":10106,"##츔":10107,"##켉":10108,"##짶":10109,"##쐿":10110,"##븓":10111,"##뺙":10112,"##슀":10113,"##헳":10114,"##웓":10115,"##렢":10116,"##쎳":10117,"##텆":10118,"##켛":10119,"##핓":10120,"##욝":10121,"##퐙":10122,"##좜":10123,"##귭":10124,"##컁":10125,"##돳":10126,"##욈":10127,"##썖":10128,"##몊":10129,"##먱":10130,"##숬":10131,"##둌":10132,"##빍":10133,"##춱":10134,"##탼":10135,"##핣":10136,"##흜":10137,"##먿":10138,"##뭨":10139,"##칝":10140,"##봒":10141,"##땁":10142,"##삮":10143,"##읰":10144,"##퍙":10145,"##컽":10146,"##햭":10147,"##줠":10148,"##췍":10149,"##졳":10150,"##퉥":10151,"##갌":10152,"##핗":10153,"##롫":10154,"##흎":10155,"##빝":10156,"##둨":10157,"##힞":10158,"##맔":10159,"##졩":10160,"##펔":10161,"##궸":10162,"##챶":10163,"##맋":10164,"##쁑":10165,"##뷁":10166,"##굈":10167,"##굅":10168,"##옩":10169,"##잛":10170,"##꼥":10171,"##쳦":10172,"##볒":10173,"##땰":10174,"##욖":10175,"##녿":10176,"##멵":10177,"##뉫":10178,"##튐":10179,"##옰":10180,"##걲":10181,"##곂":10182,"##맊":10183,"##엵":10184,"##훉":10185,"##꾤":10186,"##뱓":10187,"##낓":10188,"##앢":10189,"##뵷":10190,"##젷":10191,"##숔":10192,"##뵁":10193,"##핦":10194,"##쐥":10195,"##릡":10196,"##쑙":10197,"##엷":10198,"##윟":10199,"##졲":10200,"##뮝":10201,"##곙":10202,"##슫":10203,"##됥":10204,"##꺴":10205,"##뙨":10206,"##섮":10207,"##뒬":10208,"##뻉":10209,"##줅":10210,"##룝":10211,"##넎":10212,"##됒":10213,"##뚕":10214,"##뻒":10215,"##녖":10216,"##삉":10217,"##싚":10218,"##뼜":10219,"##츞":10220,"##믠":10221,"##닲":10222,"##펰":10223,"##읾":10224,"##뾱":10225,"##얨":10226,"##꺳":10227,"##덲":10228,"##쯛":10229,"##뭋":10230,"##궃":10231,"##쏀":10232,"##퀠":10233,"##싮":10234,"##줳":10235,"##겺":10236,"##쩻":10237,"##쭵":10238,"##뢈":10239,"##즣":10240,"##떘":10241,"##픵":10242,"##퐌":10243,"##쐅":10244,"##섟":10245,"##귕":10246,"##넾":10247,"##쎗":10248,"##밦":10249,"##꿬":10250,"##섑":10251,"##륫":10252,"##쳊":10253,"##쑐":10254,"##긏":10255,"##럌":10256,"##쳠":10257,"##꽜":10258,"##췤":10259,"##륰":10260,"##졑":10261,"##듡":10262,"##엓":10263,"##챸":10264,"##힡":10265,"##쥡":10266,"##렡":10267,"##숵":10268,"##뀡":10269,"##둏":10270,"##꼶":10271,"##뵏":10272,"##갞":10273,"##읳":10274,"##쨬":10275,"##퉌":10276,"##맅":10277,"##곝":10278,"##솉":10279,"##믺":10280,"##줃":10281,"##밢":10282,"##랇":10283,"##롔":10284,"##흏":10285,"##앏":10286,"##벲":10287,"##퓔":10288,"##줋":10289,"##쳰":10290,"##흓":10291,"##톻":10292,"##툲":10293,"##뒙":10294,"##뚷":10295,"##깛":10296,"##핽":10297,"##쌐":10298,"##뀩":10299,"##멥":10300,"##뻩":10301,"##굷":10302,"##굚":10303,"##궮":10304,"##첯":10305,"##깾":10306,"##뱽":10307,"##눵":10308,"##믛":10309,"##퇮":10310,"##쭭":10311,"##긬":10312,"##퇸":10313,"##멁":10314,"##퇑":10315,"##뺕":10316,"##긻":10317,"##댂":10318,"##욺":10319,"##쩩":10320,"##덋":10321,"##츜":10322,"##붠":10323,"##벆":10324,"##쌸":10325,"##뗸":10326,"##죿":10327,"##꿕":10328,"##젅":10329,"##쮼":10330,"##땝":10331,"##렦":10332,"##궉":10333,"##붅":10334,"##돘":10335,"##쩓":10336,"##낥":10337,"##튑":10338,"##젣":10339,"##밗":10340,"##볇":10341,"##츳":10342,"##씥":10343,"##흦":10344,"##퓬":10345,"##놑":10346,"##쾃":10347,"##쇘":10348,"##벩":10349,"##듟":10350,"##꽇":10351,"##짮":10352,"##츷":10353,"##젲":10354,"##욳":10355,"##먆":10356,"##끛":10357,"##쉧":10358,"##즎":10359,"##럣":10360,"##탵":10361,"##횩":10362,"##꾈":10363,"##얫":10364,"##헗":10365,"##겂":10366,"##젏":10367,"##쉜":10368,"##뀽":10369,"##뷐":10370,"##궨":10371,"##꼅":10372,"##쫰":10373,"##옃":10374,"##꾾":10375,"##읯":10376,"##빹":10377,"##궭":10378,"##췕":10379,"##슠":10380,"##앾":10381,"##짪":10382,"##뒐":10383,"##핖":10384,"##쯴":10385,"##씮":10386,"##렗":10387,"##뚭":10388,"##쁍":10389,"##쩃":10390,"##랕":10391,"##졘":10392,"##뻄":10393,"##텸":10394,"##괕":10395,"##췝":10396,"##뜱":10397,"##뇠":10398,"##뺭":10399,"##럮":10400,"##짂":10401,"##끟":10402,"##뽠":10403,"##덹":10404,"##혇":10405,"##혷":10406,"##넏":10407,"##썐":10408,"##쾽":10409,"##녭":10410,"##싦":10411,"##땎":10412,"##딭":10413,"##빭":10414,"##윻":10415,"##폨":10416,"##찓":10417,"##랂":10418,"##얩":10419,"##뚞":10420,"##푭":10421,"##벻":10422,"##겴":10423,"##딿":10424,"##뷘":10425,"##볹":10426,"##혾":10427,"##폌":10428,"##짣":10429,"##쒯":10430,"##늚":10431,"##홑":10432,"##넄":10433,"##칡":10434,"##컇":10435,"##폥":10436,"##훊":10437,"##눂":10438,"##춸":10439,"##뉔":10440,"##눍":10441,"##췟":10442,"##켷":10443,"##놌":10444,"##팛":10445,"##슏":10446,"##얃":10447,"##굱":10448,"##먛":10449,"##찴":10450,"##댷":10451,"##춏":10452,"##젒":10453,"##뛃":10454,"##툻":10455,"##쑉":10456,"##룅":10457,"##뇹":10458,"##헋":10459,"##쿙":10460,"##궍":10461,"##퉛":10462,"##펒":10463,"##됙":10464,"##딖":10465,"##앇":10466,"##촜":10467,"##냎":10468,"##벶":10469,"##뀟":10470,"##샞":10471,"##뉰":10472,"##둪":10473,"##뱟":10474,"##뵥":10475,"##겲":10476,"##됢":10477,"##됧":10478,"##뿤":10479,"##궀":10480,"##뷕":10481,"##꿻":10482,"##뿠":10483,"##겣":10484,"##싓":10485,"##켞":10486,"##촪":10487,"##늿":10488,"##즷":10489,"##짋":10490,"##쨚":10491,"##쎕":10492,"##늒":10493,"##쐑":10494,"##웖":10495,"##릱":10496,"##엋":10497,"##찫":10498,"##헰":10499,"##솣":10500,"##궯":10501,"##볅":10502,"##삱":10503,"##씟":10504,"##띕":10505,"##웦":10506,"##퍵":10507,"##깦":10508,"##웥":10509,"##텓":10510,"##뺅":10511,"##쉟":10512,"##뒌":10513,"##쾍":10514,"##괍":10515,"##떦":10516,"##듑":10517,"##뭬":10518,"##졨":10519,"##붗":10520,"##럶":10521,"##븃":10522,"##곬":10523,"##캪":10524,"##뜪":10525,"##왂":10526,"##윀":10527,"##툇":10528,"##톹":10529,"##퍀":10530,"##퓍":10531,"##찷":10532,"##숧":10533,"##잂":10534,"##힏":10535,"##콯":10536,"##틕":10537,"##늽":10538,"##밁":10539,"##섽":10540,"##앿":10541,"##앩":10542,"##뫀":10543,"##듢":10544,"##뫌":10545,"##쵹":10546,"##곩":10547,"##꺌":10548,"##솼":10549,"##궑":10550,"##쫗":10551,"##룢":10552,"##큄":10553,"##쟠":10554,"##캊":10555,"##낻":10556,"##롰":10557,"##윝":10558,"##잚":10559,"##봩":10560,"##뎜":10561,"##릲":10562,"##븻":10563,"##홇":10564,"##쵠":10565,"##쾀":10566,"##덗":10567,"##죕":10568,"##띧":10569,"##싥":10570,"##젃":10571,"##뭃":10572,"##뺜":10573,"##젉":10574,"##굌":10575,"##릘":10576,"##긊":10577,"##썀":10578,"##폳":10579,"##딳":10580,"##쩢":10581,"##붊":10582,"##딷":10583,"##텢":10584,"##뷤":10585,"##뽷":10586,"##뭤":10587,"##럱":10588,"##싐":10589,"##혙":10590,"##혉":10591,"##씡":10592,"##뚹":10593,"##늛":10594,"##롞":10595,"##꽆":10596,"##렑":10597,"##빶":10598,"##뻫":10599,"##옱":10600,"##렃":10601,"##덈":10602,"##잁":10603,"##짒":10604,"##칟":10605,"##쨟":10606,"##꽀":10607,"##믏":10608,"##뒺":10609,"##틧":10610,"##륔":10611,"##뫕":10612,"##뤳":10613,"##휰":10614,"##핃":10615,"##솖":10616,"##븬":10617,"##껙":10618,"##뜼":10619,"##짌":10620,"##뜮":10621,"##눝":10622,"##뎽":10623,"##덍":10624,"##돇":10625,"##뽂":10626,"##짲":10627,"##띱":10628,"##폯":10629,"##믖":10630,"##붼":10631,"##뀀":10632,"##빫":10633,"##뗜":10634,"##줨":10635,"##껚":10636,"##눋":10637,"##뱤":10638,"##욽":10639,"##핯":10640,"##턷":10641,"##잳":10642,"##켵":10643,"##됤":10644,"##퀡":10645,"##굯":10646,"##됟":10647,"##웒":10648,"##흄":10649,"##냍":10650,"##굾":10651,"##볆":10652,"##갿":10653,"##혝":10654,"##흪":10655,"##쬎":10656,"##붃":10657,"##쭞":10658,"##눨":10659,"##퉹":10660,"##럲":10661,"##쭹":10662,"##힟":10663,"##롈":10664,"##괵":10665,"##믱":10666,"##췜":10667,"##끀":10668,"##랺":10669,"##샟":10670,"##빷":10671,"##챜":10672,"##찱":10673,"##씷":10674,"##첰":10675,"##즬":10676,"##뗭":10677,"##볜":10678,"##꾬":10679,"##븢":10680,"##솄":10681,"##몡":10682,"##쓷":10683,"##햰":10684,"##퇬":10685,"##슯":10686,"##쎙":10687,"##쒈":10688,"##윹":10689,"##젶":10690,"##횰":10691,"##헯":10692,"##젗":10693,"##뉅":10694,"##틂":10695,"##탆":10696,"##픞":10697,"##죷":10698,"##뢋":10699,"##웊":10700,"##믰":10701,"##짷":10702,"##몯":10703,"##킐":10704,"##릾":10705,"##왡":10706,"##깗":10707,"##맿":10708,"##뛧":10709,"##뻴":10710,"##쮕":10711,"##굪":10712,"##킽":10713,"##맢":10714,"##젙":10715,"##똗":10716,"##첤":10717,"##훽":10718,"##뜅":10719,"##걺":10720,"##쀄":10721,"##씊":10722,"##쥿":10723,"##둛":10724,"##쉞":10725,"##뽰":10726,"##냗":10727,"##셁":10728,"##뫘":10729,"##롮":10730,"##돽":10731,"##춐":10732,"##넗":10733,"##넖":10734,"##곋":10735,"##됻":10736,"##붔":10737,"##췼":10738,"##똩":10739,"##쉪":10740,"##볽":10741,"##쏔":10742,"##듹":10743,"##풹":10744,"##좬":10745,"##샦":10746,"##겫":10747,"##쉩":10748,"##겵":10749,"##끐":10750,"##췹":10751,"##꽠":10752,"##듩":10753,"##뢕":10754,"##똈":10755,"##펃":10756,"##쿻":10757,"##썋":10758,"##쳏":10759,"##챻":10760,"##톸":10761,"##뜜":10762,"##냰":10763,"##뤤":10764,"##칑":10765,"##픤":10766,"##뢘":10767,"##폘":10768,"##핺":10769,"##쯍":10770,"##슶":10771,"##릸":10772,"##윧":10773,"##혅":10774,"##롓":10775,"##봙":10776,"##흝":10777,"##꼮":10778,"##얿":10779,"##흤":10780,"##뿩":10781,"##퓹":10782,"##풴":10783,"##걒":10784,"##낲":10785,"##쟃":10786,"##뇀":10787,"##뫅":10788,"##셭":10789,"##콭":10790,"##뢁":10791,"##릮":10792,"##찅":10793,"##놥":10794,"##틁":10795,"##뽓":10796,"##꾳":10797,"##늖":10798,"##쒧":10799,"##쭟":10800,"##묷":10801,"##쭠":10802,"##멒":10803,"##흽":10804,"##섦":10805,"##흳":10806,"##웇":10807,"##읱":10808,"##좓":10809,"##싧":10810,"##둴":10811,"##퍾":10812,"##뷮":10813,"##걉":10814,"##꼊":10815,"##뗗":10816,"##탅":10817,"##핷":10818,"##줎":10819,"##섡":10820,"##뢸":10821,"##퍤":10822,"##뒛":10823,"##솁":10824,"##읬":10825,"##댰":10826,"##쉳":10827,"##궠":10828,"##밲":10829,"##솛":10830,"##슂":10831,"##뀪":10832,"##띙":10833,"##힕":10834,"##쬘":10835,"##붋":10836,"##긶":10837,"##앷":10838,"##뛱":10839,"##풜":10840,"##닑":10841,"##됝":10842,"##쑛":10843,"##쉠":10844,"##굮":10845,"##숳":10846,"##돒":10847,"##솏":10848,"##솢":10849,"##뒘":10850,"##줟":10851,"##왬":10852,"##곣":10853,"##궆":10854,"##슻":10855,"##꼄":10856,"##썾":10857,"##렓":10858,"##쒄":10859,"##찦":10860,"##톶":10861,"##좯":10862,"##쬥":10863,"##둭":10864,"##컈":10865,"##꾐":10866,"##졏":10867,"##낂":10868,"##슰":10869,"##끸":10870,"##퉉":10871,"##잝":10872,"##돾":10873,"##큩":10874,"##뻈":10875,"##벫":10876,"##뎤":10877,"##귷":10878,"##긿":10879,"##쪅":10880,"##뚧":10881,"##믘":10882,"##뱝":10883,"##팕":10884,"##뤵":10885,"##곴":10886,"##뙷":10887,"##콫":10888,"##뉬":10889,"##츀":10890,"##얆":10891,"##텩":10892,"##쫠":10893,"##셏":10894,"##뺓":10895,"##뵵":10896,"##욵":10897,"##덦":10898,"##뙿":10899,"##댼":10900,"##럯":10901,"##숗":10902,"##쮁":10903,"##팒":10904,"##륳":10905,"##쇨":10906,"##뭈":10907,"##늓":10908,"##쫔":10909,"##킺":10910,"##섄":10911,"##엳":10912,"##볋":10913,"##죅":10914,"##혻":10915,"##랡":10916,"##퉅":10917,"##턹":10918,"##섫":10919,"##껠":10920,"##왶":10921,"##핚":10922,"##쐤":10923,"##쓀":10924,"##릀":10925,"##룈":10926,"##뾸":10927,"##꾁":10928,"##쿧":10929,"##멑":10930,"##칄":10931,"##뚁":10932,"##뇤":10933,"##훏":10934,"##녱":10935,"##춠":10936,"##윋":10937,"##괗":10938,"##찣":10939,"##븹":10940,"##엯":10941,"##샮":10942,"##줼":10943,"##붎":10944,"##탣":10945,"##꺨":10946,"##펻":10947,"##긺":10948,"##즋":10949,"##꿤":10950,"##읲":10951,"##묿":10952,"##븛":10953,"##쇵":10954,"##윺":10955,"##픝":10956,"##헞":10957,"##칤":10958,"##뱛":10959,"##댥":10960,"##찠":10961,"##췩":10962,"##쫐":10963,"##쥦":10964,"##휅":10965,"##뤩":10966,"##뭵":10967,"##뒑":10968,"##쵱":10969,"##헦":10970,"##빞":10971,"##싅":10972,"##죜":10973,"##쮱":10974,"##릑":10975,"##씆":10976,"##쑦":10977,"##됡":10978,"##틎":10979,"##콛":10980,"##퇌":10981,"##딝":10982,"##멿":10983,"##떅":10984,"##꿌":10985,"##샕":10986,"##딮":10987,"##톷":10988,"##힇":10989,"##녙":10990,"##뤔":10991,"##쪈":10992,"##릣":10993,"##돻":10994,"##쫖":10995,"##곆":10996,"##덙":10997,"##밇":10998,"##븁":10999,"##텠":11000,"##뮼":11001,"##궳":11002,"##옧":11003,"##듓":11004,"##햋":11005,"##틏":11006,"##굗":11007,"##씄":11008,"##꺕":11009,"##쿈":11010,"##핒":11011,"##뽛":11012,"##뵉":11013,"##쉓":11014,"##줁":11015,"##꿹":11016,"##혱":11017,"##뱋":11018,"##궬":11019,"##쩖":11020,"##퍡":11021,"##샔":11022,"##뤙":11023,"##힂":11024,"##퐨":11025,"##쀈":11026,"##껳":11027,"##럘":11028,"##퉾":11029,"##랁":11030,"##뚵":11031,"##찭":11032,"##헔":11033,"##렽":11034,"##쀅":11035,"##럔":11036,"##둄":11037,"##뷥":11038,"##엲":11039,"##푈":11040,"##썡":11041,"##눽":11042,"##뮜":11043,"##큑":11044,"##쐌":11045,"##흿":11046,"##엱":11047,"##훱":11048,"##칢":11049,"##읟":11050,"##묹":11051,"##챝":11052,"##켭":11053,"##뤜":11054,"##멂":11055,"##웗":11056,"##닰":11057,"##홭":11058,"##욫":11059,"##멏":11060,"##땓":11061,"##훰":11062,"##웪":11063,"##쥳":11064,"##셲":11065,"##긼":11066,"##쎁":11067,"##뎝":11068,"##룾":11069,"##챊":11070,"##퐣":11071,"##빖":11072,"##덣":11073,"##뚥":11074,"##녰":11075,"##팢":11076,"##픟":11077,"##팙":11078,"##꼻":11079,"##춀":11080,"##캼":11081,"##웂":11082,"##뙹":11083,"##뙜":11084,"##띸":11085,"##괂":11086,"##쮔":11087,"##뽴":11088,"##늇":11089,"##뗔":11090,"##큡":11091,"##줸":11092,"##뇩":11093,"##뫤":11094,"##툊":11095,"##뽬":11096,"##쨓":11097,"##뇝":11098,"##걖":11099,"##쪵":11100,"##퇫":11101,"##싾":11102,"##굎":11103,"##쿗":11104,"##멭":11105,"##퉼":11106,"##껇":11107,"##쭷":11108,"##킆":11109,"##쿌":11110,"##홁":11111,"##킂":11112,"##돏":11113,"##냧":11114,"##읷":11115,"##툑":11116,"##왗":11117,"##뜿":11118,"##즜":11119,"##꺗":11120,"##궏":11121,"##퇏":11122,"##촡":11123,"##늎":11124,"##벑":11125,"##껓":11126,"##쁼":11127,"##흟":11128,"##싇":11129,"##좊":11130,"##픃":11131,"##죶":11132,"##챺":11133,"##뚈":11134,"##켇":11135,"##롑":11136,"##렏":11137,"##퐥":11138,"##픚":11139,"##깵":11140,"##긛":11141,"##쭻":11142,"##슳":11143,"##쭀":11144,"##펺":11145,"##컯":11146,"##쒕":11147,"##뽸":11148,"##놸":11149,"##쎂":11150,"##풂":11151,"##춞":11152,"##훡":11153,"##뵠":11154,"##뢓":11155,"##헢":11156,"##쥫":11157,"##퍔":11158,"##얳":11159,"##틩":11160,"##픍":11161,"##럑":11162,"##껕":11163,"##붌":11164,"##멛":11165,"##믂":11166,"##뷧":11167,"##빺":11168,"##뛝":11169,"##뙴":11170,"##슮":11171,"##훞":11172,"##곮":11173,"##쟴":11174,"##겳":11175,"##볠":11176,"##믌":11177,"##샿":11178,"##쓹":11179,"##윖":11180,"##솻":11181,"##뜛":11182,"##곖":11183,"##겞":11184,"##롘":11185,"##퉝":11186,"##윁":11187,"##혬":11188,"##흊":11189,"##잓":11190,"##덀":11191,"##괓":11192,"##쐨":11193,"##쉻":11194,"##흴":11195,"##껵":11196,"##봽":11197,"##콋":11198,"##뭴":11199,"##뾴":11200,"##죺":11201,"##햩":11202,"##쉫":11203,"##꽭":11204,"##븧":11205,"##믝":11206,"##칔":11207,"##꿓":11208,"##뵴":11209,"##맕":11210,"##샢":11211,"##삨":11212,"##쀏":11213,"##킠":11214,"##쫟":11215,"##룃":11216,"##겿":11217,"##궵":11218,"##퍞":11219,"##싆":11220,"##벺":11221,"##뭫":11222,"##턺":11223,"##뢨":11224,"##뤁":11225,"##츽":11226,"##쨎":11227,"##몷":11228,"##뉄":11229,"##긵":11230,"##놇":11231,"##횧":11232,"##쩤":11233,"##탲":11234,"##왙":11235,"##짺":11236,"##뮻":11237,"##뒠":11238,"##앁":11239,"##첑":11240,"##뀹":11241,"##쉤":11242,"##툱":11243,"##붝":11244,"##줆":11245,"##튘":11246,"##씇":11247,"##껃":11248,"##쁌":11249,"##휏":11250,"##늭":11251,"##곫":11252,"##흇":11253,"##됚":11254,"##숝":11255,"##춡":11256,"##쭕":11257,"##묺":11258,"##꼏":11259,"##윯":11260,"##툌":11261,"##뎂":11262,"##혯":11263,"##뻭":11264,"##밚":11265,"##먖":11266,"##굫":11267,"##귔":11268,"##긃":11269,"##솹":11270,"##첢":11271,"##툄":11272,"##컅":11273,"##톢":11274,"##놊":11275,"##냴":11276,"##쩗":11277,"##괫":11278,"##뜝":11279,"##뢩":11280,"##퓐":11281,"##챷":11282,"##흵":11283,"##쮓":11284,"##뒄":11285,"##팗":11286,"##뵝":11287,"##넭":11288,"##뽘":11289,"##좱":11290,"##깒":11291,"##냙":11292,"##뼏":11293,"##핋":11294,"##곲":11295,"##숚":11296,"##쿽":11297,"##팯":11298,"##휫":11299,"##꾕":11300,"##쓺":11301,"##뛋":11302,"##듞":11303,"##텊":11304,"##띳":11305,"##캴":11306,"##촀":11307,"##햛":11308,"##콪":11309,"##쎱":11310,"##뇡":11311,"##믬":11312,"##뱥":11313,"##굠":11314,"##뾔":11315,"##컦":11316,"##뤕":11317,"##슸":11318,"##뿹":11319,"##덖":11320,"##뛥":11321,"##뮛":11322,"##쇸":11323,"##핛":11324,"##뭽":11325,"##뤟":11326,"##뻕":11327,"##짵":11328,"##뙥":11329,"##혆":11330,"##엀":11331,"##밡":11332,"##혂":11333,"##쟬":11334,"##풘":11335,"##륮":11336,"##뮫":11337,"##웕":11338,"##펗":11339,"##넢":11340,"##쏌":11341,"##텂":11342,"##궓":11343,"##맚":11344,"##풸":11345,"##턋":11346,"##굄":11347,"##뀱":11348,"##첲":11349,"##롐":11350,"##퓩":11351,"##흒":11352,"##흚":11353,"##쌂":11354,"##찳":11355,"##줂":11356,"##룧":11357,"##뱇":11358,"##즇":11359,"##낛":11360,"##떮":11361,"##퓅":11362,"##쁝":11363,"##뀅":11364,"##겏":11365,"##뺔":11366,"##끘":11367,"##쨖":11368,"##싪":11369,"##삹":11370,"##뮉":11371,"##핆":11372,"##잜":11373,"##챚":11374,"##폡":11375,"##헫":11376,"##웞":11377,"##픎":11378,"##픨":11379,"##붍":11380,"##얰":11381,"##렧":11382,"##퐇":11383,"##짃":11384,"##덢":11385,"##쬮":11386,"##뤫":11387,"##괅":11388,"##봎":11389,"##쐼":11390,"##쟇":11391,"##뎓":11392,"##쀵":11393,"##쀒":11394,"##둦":11395,"##톀":11396,"##쐒":11397,"##낶":11398,"##풩":11399,"##둇":11400,"##푿":11401,"##늤":11402,"##팊":11403,"##쌑":11404,"##돉":11405,"##윥":11406,"##쪟":11407,"##폠":11408,"##탟":11409,"##흅":11410,"##벐":11411,"##쟸":11412,"##갳":11413,"##잙":11414,"##촷":11415,"##퇜":11416,"##귽":11417,"##깖":11418,"##쬰":11419,"##팖":11420,"##먓":11421,"##벷":11422,"##퐛":11423,"##먗":11424,"##뿁":11425,"##뚦":11426,"##닚":11427,"##춈":11428,"##럗":11429,"##줊":11430,"##쐣":11431,"##쟼":11432,"##빾":11433,"##낎":11434,"##홅":11435,"##숡":11436,"##띟":11437,"##쳗":11438,"##렞":11439,"##옪":11440,"##툅":11441,"##춝":11442,"##칍":11443,"##쐴":11444,"##툨":11445,"##즟":11446,"##댲":11447,"##촴":11448,"##팚":11449,"##붚":11450,"##앣":11451,"##첳":11452,"##뫜":11453,"##팆":11454,"##걨":11455,"##릫":11456,"##랉":11457,"##쬿":11458,"##쎡":11459,"##쳋":11460,"##홒":11461,"##븕":11462,"##쏏":11463,"##벯":11464,"##랊":11465,"##띀":11466,"##몺":11467,"##쏃":11468,"##헕":11469,"##렻":11470,"##걳":11471,"##욣":11472,"##첱":11473,"##왲":11474,"##긆":11475,"##눸":11476,"##홎":11477,"##갮":11478,"##섩":11479,"##꼍":11480,"##잮":11481,"##쫅":11482,"##쥄":11483,"##쨨":11484,"##싩":11485,"##홫":11486,"##쓲":11487,"##덌":11488,"##뜳":11489,"##봵":11490,"##펅":11491,"##빣":11492,"##럷":11493,"##쟏":11494,"##걇":11495,"##젡":11496,"##뢌":11497,"##쩀":11498,"##볂":11499,"##욐":11500,"##먤":11501,"##귺":11502,"##츶":11503,"##캋":11504,"##묏":11505,"##닱":11506,"##죘":11507,"##뒁":11508,"##캩":11509,"##늏":11510,"##럸":11511,"##꺤":11512,"##룷":11513,"##땦":11514,"##죾":11515,"##컭":11516,"##쩸":11517,"##푁":11518,"##곟":11519,"##걊":11520,"##푲":11521,"##멯":11522,"##틒":11523,"##헽":11524,"##맽":11525,"##찗":11526,"##퍁":11527,"##셂":11528,"##캙":11529,"##걼":11530,"##쵴":11531,"##낧":11532,"##쉚":11533,"##휳":11534,"##콮":11535,"##뚢":11536,"##휗":11537,"##쯋":11538,"##붬":11539,"##셮":11540,"##닋":11541,"##쓘":11542,"##귥":11543,"##렭":11544,"##쓈":11545,"##돩":11546,"##썃":11547,"##쩅":11548,"##쒁":11549,"##좥":11550,"##젳":11551,"##씳":11552,"##썔":11553,"##쁮":11554,"##욗":11555,"##퐜":11556,"##뻁":11557,"##꿿":11558,"##혴":11559,"##얓":11560,"##쿢":11561,"##턘":11562,"##엜":11563,"##춎":11564,"##뭩":11565,"##옯":11566,"##넻":11567,"##틳":11568,"##빎":11569,"##쀽":11570,"##뇟":11571,"##럏":11572,"##탍":11573,"##툩":11574,"##뇁":11575,"##풏":11576,"##랈":11577,"##룿":11578,"##믤":11579,"##뽖":11580,"##놴":11581,"##돖":11582,"##꽛":11583,"##꾄":11584,"##걤":11585,"##뙌":11586,"##얮":11587,"##겱":11588,"##딺":11589,"##졹":11590,"##땉":11591,"##겚":11592,"##뼁":11593,"##쓿":11594,"##줖":11595,"##냋":11596,"##힒":11597,"##쒘":11598,"##쑫":11599,"##븏":11600,"##쭃":11601,"##겕":11602,"##륟":11603,"##먇":11604,"##첻":11605,"##쭄":11606,"##뼊":11607,"##픀":11608,"##핐":11609,"##뷃":11610,"##둋":11611,"##쩼":11612,"##홮":11613,"##숶":11614,"##퀫":11615,"##맩":11616,"##뻖":11617,"##쥇":11618,"##겛":11619,"##쉲":11620,"##홙":11621,"##캽":11622,"##듘":11623,"##춭":11624,"##볾":11625,"##쬠":11626,"##갶":11627,"##팘":11628,"##틇":11629,"##퉬":11630,"##칧":11631,"##뉀":11632,"##긥":11633,"##혒":11634,"##틊":11635,"##냼":11636,"##쿩":11637,"##쭅":11638,"##뭀":11639,"##홴":11640,"##닗":11641,"##볎":11642,"##쫚":11643,"##뀤":11644,"##뾲":11645,"##럎":11646,"##쀌":11647,"##혽":11648,"##턈":11649,"##똿":11650,"##얎":11651,"##팏":11652,"##뮦":11653,"##꺏":11654,"##젞":11655,"##꿲":11656,"##쾤":11657,"##릹":11658,"##겙":11659,"##앑":11660,"##봀":11661,"##갟":11662,"##룪":11663,"##쵕":11664,"##쵮":11665,"##컺":11666,"##밿":11667,"##녝":11668,"##볈":11669,"##렚":11670,"##홡":11671,"##뀄":11672,"##뷷":11673,"##쯫":11674,"##쨧":11675,"##뻪":11676,"##탏":11677,"##똷":11678,"##뤰":11679,"##탷":11680,"##봿":11681,"##썠":11682,"##똽":11683,"##훚":11684,"##댉":11685,"##썯":11686,"##쭨":11687,"##돓":11688,"##섢":11689,"##쮀":11690,"##괠":11691,"##섔":11692,"##솠":11693,"##쌛":11694,"##봁":11695,"##녻":11696,"##꽨":11697,"##맓":11698,"##욎":11699,"##둅":11700,"##몲":11701,"##쨲":11702,"##뭑":11703,"##뭿":11704,"##꼵":11705,"##귇":11706,"##팣":11707,"##섊":11708,"##퉸":11709,"##굺":11710,"##톃":11711,"##떷":11712,"##훛":11713,"##튴":11714,"##뒓":11715,"##숐":11716,"##똼":11717,"##썄":11718,"##슧":11719,"##삒":11720,"##쮑":11721,"##뛣":11722,"##꾝":11723,"##봭":11724,"##헏":11725,"##뻙":11726,"##혃":11727,"##괖":11728,"##휐":11729,"##쭬":11730,"##쇱":11731,"##샓":11732,"##귛":11733,"##쨱":11734,"##뀳":11735,"##댦":11736,"##싘":11737,"##턕":11738,"##괃":11739,"##뷹":11740,"##쌒":11741,"##탊":11742,"##쓜":11743,"##풇":11744,"##꺰":11745,"##쑼":11746,"##쒐":11747,"##갎":11748,"##넧":11749,"##녗":11750,"##왅":11751,"##됼":11752,"##뱕":11753,"##솕":11754,"##웘":11755,"##믆":11756,"##쟡":11757,"##쪿":11758,"##퉨":11759,"##휲":11760,"##뽞":11761,"##쬔":11762,"##쩹":11763,"##얊":11764,"##샽":11765,"##꽑":11766,"##뉙":11767,"##춟":11768,"##뙝":11769,"##엁":11770,"##괺":11771,"##뫂":11772,"##넑":11773,"##껩":11774,"##띶":11775,"##넁":11776,"##퐠":11777,"##뀻":11778,"##뒼":11779,"##톩":11780,"##뙸":11781,"##뺡":11782,"##뚄":11783,"##씶":11784,"##풃":11785,"##쏬":11786,"##탚":11787,"##놃":11788,"##뙄":11789,"##꿝":11790,"##꽦":11791,"##쨤":11792,"##흼":11793,"##갥":11794,"##몮":11795,"##귦":11796,"##퇍":11797,"##췔":11798,"##쳭":11799,"##멮":11800,"##쟊":11801,"##퇶":11802,"##놁":11803,"##쬴":11804,"##젂":11805,"##겮":11806,"##퓟":11807,"##뭙":11808,"##붯":11809,"##켚":11810,"##쓕":11811,"##쏄":11812,"##뜃":11813,"##삧":11814,"##귖":11815,"##떌":11816,"##쟅":11817,"##횠":11818,"##펟":11819,"##떶":11820,"##뚴":11821,"##볖":11822,"##샚":11823,"##옞":11824,"##봆":11825,"##끞":11826,"##씔":11827,"##칌":11828,"##늜":11829,"##넊":11830,"##뿎":11831,"##퀰":11832,"##둒":11833,"##쐄":11834,"##쎍":11835,"##쫵":11836,"##썍":11837,"##왥":11838,"##쫂":11839,"##걧":11840,"##릷":11841,"##쀾":11842,"##욾":11843,"##뙬":11844,"##뀃":11845,"##퇙":11846,"##듇":11847,"##뗍":11848,"##쁐":11849,"##짍":11850,"##웙":11851,"##붴":11852,"##봋":11853,"##뙛":11854,"##뮘":11855,"##쀡":11856,"##뮙":11857,"##묯":11858,"##틅":11859,"##긯":11860,"##묑":11861,"##쀓":11862,"##셫":11863,"##괨":11864,"##쩎":11865,"##옲":11866,"##첪":11867,"##뿥":11868,"##쾬":11869,"##밊":11870,"##쓊":11871,"##퐑":11872,"##윚":11873,"##뚊":11874,"##웳":11875,"##얪":11876,"##쪚":11877,"##쫫":11878,"##깑":11879,"##퓻":11880,"##웣":11881,"##껅":11882,"##굩":11883,"##둽":11884,"##혲":11885,"##뚼":11886,"##쩛":11887,"##톅":11888,"##뗼":11889,"##뒇":11890,"##쒤":11891,"##홖":11892,"##깯":11893,"##꺢":11894,"##쩘":11895,"##윣":11896,"##곚":11897,"##쑀":11898,"##츧":11899,"##녟":11900,"##졂":11901,"##걭":11902,"##꿄":11903,"##쌇":11904,"##쭂":11905,"##뢜":11906,"##쁏":11907,"##낣":11908,"##춮":11909,"##헧":11910,"##뮁":11911,"##떾":11912,"##뼀":11913,"##걃":11914,"##곛":11915,"##뿧":11916,"##쮭":11917,"##딉":11918,"##꽳":11919,"##얁":11920,"##숤":11921,"##쬲":11922,"##뽇":11923,"##쿯":11924,"##즂":11925,"##쳍":11926,"##쩑":11927,"##봰":11928,"##맪":11929,"##톪":11930,"##썱":11931,"##뭎":11932,"##뭦":11933,"##뽫":11934,"##믻":11935,"##큲":11936,"##뇍":11937,"##꺋":11938,"##꽼":11939,"##쌯":11940,"##뎦":11941,"##쎝":11942,"##뿱":11943,"##쏚":11944,"##솒":11945,"##퐘":11946,"##돆":11947,"##휇":11948,"##뾥":11949,"##쀀":11950,"##뼡":11951,"##뺶":11952,"##긪":11953,"##왆":11954,"##씱":11955,"##놝":11956,"##릻":11957,"##좣":11958,"##뛌":11959,"##죢":11960,"##꾭":11961,"##텧":11962,"##삫":11963,"##똙":11964,"##걓":11965,"##뿑":11966,"##뱸":11967,"##쩁":11968,"##윿":11969,"##낤":11970,"##벁":11971,"##뾀":11972,"##퇧":11973,"##끯":11974,"##뼑":11975,"##뗵":11976,"##뛕":11977,"##쌻":11978,"##뼬":11979,"##뙓":11980,"##쒥":11981,"##뵑":11982,"##쐏":11983,"##슇":11984,"##쏖":11985,"##맖":11986,"##픹":11987,"##쒵":11988,"##졽":11989,"##풬":11990,"##혭":11991,"##뿽":11992,"##싖":11993,"##쉮":11994,"##엸":11995,"##냿":11996,"##걶":11997,"##썟":11998,"##뜄":11999,"##킘":12000,"##쁰":12001,"##탞":12002,"##쬡":12003,"##캮":12004,"##첣":12005,"##놛":12006,"##힊":12007,"##띴":12008,"##얉":12009,"##퐂":12010,"##먑":12011,"##뱬":12012,"##갧":12013,"##뭧":12014,"##텹":12015,"##쌟":12016,"##턩":12017,"##뻼":12018,"##꺚":12019,"##뽯":12020,"##쟟":12021,"##앒":12022,"##숢":12023,"##떥":12024,"##믯":12025,"##섉":12026,"##턉":12027,"##짾":12028,"##뷋":12029,"##쪻":12030,"##꾠":12031,"##떣":12032,"##깱":12033,"##뱊":12034,"##뿬":12035,"##뭭":12036,"##뭕":12037,"##쵭":12038,"##쓧":12039,"##븸":12040,"##뿳":12041,"##줵":12042,"##쎓":12043,"##굧":12044,"##섪":12045,"##풁":12046,"##뭟":12047,"##쐽":12048,"##쎟":12049,"##쮤":12050,"##펹":12051,"##헲":12052,"##겗":12053,"##쒂":12054,"##콲":12055,"##푬":12056,"##폣":12057,"##젎":12058,"##툈":12059,"##똻":12060,"##녽":12061,"##즺":12062,"##둊":12063,"##싙":12064,"##밂":12065,"##쎰":12066,"##믣":12067,"##뒞":12068,"##첡":12069,"##뫚":12070,"##웯":12071,"##졒":12072,"##룄":12073,"##윩":12074,"##톔":12075,"##졜":12076,"##쒫":12077,"##찁":12078,"##욓":12079,"##똚":12080,"##헟":12081,"##퓿":12082,"##딣":12083,"##윢":12084,"##뵞":12085,"##셟":12086,"##끏":12087,"##챫":12088,"##훯":12089,"##뺚":12090,"##첦":12091,"##젍":12092,"##궲":12093,"##똦":12094,"##댏":12095,"##걥":12096,"##뀈":12097,"##떺":12098,"##휍":12099,"##솑":12100,"##쓃":12101,"##긞":12102,"##똮":12103,"##겭":12104,"##옢":12105,"##웚":12106,"##넶":12107,"##깺":12108,"##멲":12109,"##죥":12110,"##빇":12111,"##쮉":12112,"##곥":12113,"##빓":12114,"##섨":12115,"##왳":12116,"##밹":12117,"##쫨":12118,"##엂":12119,"##쏮":12120,"##녚":12121,"##괝":12122,"##헍":12123,"##옟":12124,"##헒":12125,"##눓":12126,"##쩽":12127,"##뒫":12128,"##잞":12129,"##좎":12130,"##앦":12131,"##걆":12132,"##놪":12133,"##캢":12134,"##짿":12135,"##젌":12136,"##퀌":12137,"##븞":12138,"##쎇":12139,"##튔":12140,"##쬈":12141,"##퍝":12142,"##눉":12143,"##쫕":12144,"##킶":12145,"##썳":12146,"##랯":12147,"##꼲":12148,"##썝":12149,"##슞":12150,"##븦":12151,"##숪":12152,"##븂":12153,"##쎨":12154,"##죣":12155,"##뽹":12156,"##갩":12157,"##믉":12158,"##뭁":12159,"##촺":12160,"##혺":12161,"##몢":12162,"##좧":12163,"##쳢":12164,"##엹":12165,"##왢":12166,"##떹":12167,"##싻":12168,"##뾃":12169,"##틤":12170,"##씧":12171,"##쾩":12172,"##꽴":12173,"##뵺":12174,"##찥":12175,"##곭":12176,"##졺":12177,"##씂":12178,"##걬":12179,"##켼":12180,"##튺":12181,"##큷":12182,"##뙀":12183,"##헶":12184,"##뭗":12185,"##몟":12186,"##삦":12187,"##뛨":12188,"##뮏":12189,"##똇":12190,"##넔":12191,"##씗":12192,"##쇔":12193,"##똝":12194,"##죝":12195,"##뭚":12196,"##쑻":12197,"##♬에":12198,"##♬이":12199,"##♬을":12200,"##♬의":12201,"##♬가":12202,"##♬는":12203,"##♬를":12204,"##♬들":12205,"##♬은":12206,"##♬도":12207,"##으로":12208,"♬에":12209,"##♬으로":12210,"♬을":12211,"##♬로":12212,"##♬에서":12213,"♬의":12214,"♬이":12215,"##하는":12216,"##니다":12217,"♬를":12218,"##♬과":12219,"##하고":12220,"##♬적":12221,"♬는":12222,"♬은":12223,"##는데":12224,"##이다":12225,"♬가":12226,"##♬만":12227,"##다고":12228,"##♬들♬이":12229,"##♬와":12230,"##지만":12231,"있다":12232,"사람":12233,"아니":12234,"♬으로":12235,"##라고":12236,"##했다":12237,"##00":12238,"##까지":12239,"♬에서":12240,"있는":12241,"♬로":12242,"##었다":12243,"##면서":12244,"♬도":12245,"##다는":12246,"##♬에게":12247,"생각":12248,"우리":12249,"##♬들♬은":12250,"♬들":12251,"##♬까지":12252,"##하게":12253,"##부터":12254,"##해서":12255,"♬과":12256,"대한":12257,"##리고":12258,"##이라":12259,"##한다":12260,"20":12261,"##♬님":12262,"하는":12263,"한다":12264,"한국":12265,"##보다":12266,"국민":12267,"##습니다":12268,"##♬적인":12269,"때문":12270,"♬적":12271,"##렇게":12272,"##으면":12273,"그러":12274,"영화":12275,"이런":12276,"진짜":12277,"##♬적♬으로":12278,"♬와":12279,"##니까":12280,"지금":12281,"##하지":12282,"##♬에♬는":12283,"일본":12284,"지난":12285,"##하면":12286,"##♬나":12287,"그런":12288,"문제":12289,"##♬이나":12290,"##♬부터":12291,"##♬들♬의":12292,"##하다":12293,"##♬보다":12294,"같은":12295,"너무":12296,"10":12297,"자신":12298,"다른":12299,"중국":12300,"##대로":12301,"##♬성":12302,"나라":12303,"##는거":12304,"하나":12305,"##처럼":12306,"위해":12307,"##통령":12308,"들어":12309,"그리고":12310,"만들":12311,"미국":12312,"그래":12313,"경우":12314,"##하기":12315,"정부":12316,"##♬화":12317,"##이고":12318,"##네요":12319,"201":12320,"##인데":12321,"##♬들♬을":12322,"##라는":12323,"아이":12324,"##어서":12325,"하고":12326,"이상":12327,"대통령":12328,"이제":12329,"19":12330,"이번":12331,"그냥":12332,"##세요":12333,"문재":12334,"작가":12335,"사실":12336,"##기♬를":12337,"다고":12338,"##♬처럼":12339,"##한테":12340,"된다":12341,"##어요":12342,"아닌":12343,"##해야":12344,"##지고":12345,"다시":12346,"##나라":12347,"##았다":12348,"것이다":12349,"##입니다":12350,"시작":12351,"함께":12352,"사회":12353,"따라":12354,"없는":12355,"정도":12356,"정치":12357,"##♬한테":12358,"경제":12359,"서울":12360,"##이라고":12361,"때문♬에":12362,"많이":12363,"통해":12364,"##라도":12365,"보고":12366,"가능":12367,"하지만":12368,"모르":12369,"인간":12370,"##이지":12371,"시간":12372,"가장":12373,"아무":12374,"나오":12375,"필요":12376,"기업":12377,"##♬에♬도":12378,"아니라":12379,"##하여":12380,"##되는":12381,"##♬에서♬는":12382,"##리는":12383,"정말":12384,"##리♬를":12385,"자기":12386,"북한":12387,"모두":12388,"##였다":12389,"상황":12390,"##자♬가":12391,"세계":12392,"##으며":12393,"지역":12394,"##다가":12395,"민주":12396,"200":12397,"이후":12398,"##리♬가":12399,"어떻":12400,"##같은":12401,"모든":12402,"##♬서":12403,"대표":12404,"##려고":12405,"것♬이":12406,"모습":12407,"좋아":12408,"시장":12409,"사업":12410,"관계":12411,"국가":12412,"이렇게":12413,"♬까지":12414,"것♬은":12415,"어떻게":12416,"문재인":12417,"사용":12418,"여자":12419,"관련":12420,"내♬가":12421,"없다":12422,"##스트":12423,"마음":12424,"##주의":12425,"다음":12426,"여기":12427,"대해":12428,"♬만":12429,"##된다":12430,"이유":12431,"##♬랑":12432,"해야":12433,"##합니다":12434,"이미":12435,"있었":12436,"많은":12437,"##이라는":12438,"위한":12439,"##겠다":12440,"댓글":12441,"이야":12442,"##사람":12443,"정신":12444,"지원":12445,"##는다":12446,"##기♬가":12447,"##보고":12448,"아직":12449,"현재":12450,"돌아":12451,"그렇게":12452,"처음":12453,"사이":12454,"했다":12455,"##♬권":12456,"계속":12457,"사랑":12458,"그러나":12459,"##하며":12460,"어떤":12461,"것♬으로":12462,"작가♬님":12463,"##어야":12464,"투자":12465,"것♬을":12466,"##♬아":12467,"##거나":12468,"얼마":12469,"##사♬를":12470,"라고":12471,"라는":12472,"무슨":12473,"프로":12474,"12":12475,"♬성":12476,"내용":12477,"##기♬도":12478,"역시":12479,"##민국":12480,"보여":12481,"경기":12482,"##으니":12483,"##구나":12484,"##는지":12485,"30":12486,"근데":12487,"있을":12488,"특히":12489,"##아서":12490,"좋은":12491,"##하면서":12492,"##인가":12493,"##인지":12494,"##어나":12495,"여성":12496,"남자":12497,"11":12498,"하지":12499,"##레이":12500,"밝혔":12501,"##♬들♬에게":12502,"이해":12503,"보면":12504,"이어":12505,"##지는":12506,"다는":12507,"조국":12508,"##기♬에":12509,"진행":12510,"##♬네":12511,"바로":12512,"여러":12513,"국내":12514,"100":12515,"##가는":12516,"대한민국":12517,"교육":12518,"##♬당":12519,"이용":12520,"그래서":12521,"##있는":12522,"##♬들♬도":12523,"기대":12524,"오늘":12525,"결과":12526,"수준":12527,"결국":12528,"##도록":12529,"검찰":12530,"##지♬를":12531,"##것♬도":12532,"##로운":12533,"방송":12534,"##력♬을":12535,"♬에게":12536,"중요":12537,"##인♬이":12538,"##잖아":12539,"피해":12540,"지만":12541,"있었다":12542,"기사":12543,"기술":12544,"어디":12545,"##이었다":12546,"면서":12547,"이름":12548,"그렇":12549,"##이었":12550,"##지막":12551,"최고":12552,"♬부터":12553,"##밖에":12554,"연구":12555,"최근":12556,"조사":12557,"15":12558,"##자♬는":12559,"##시키":12560,"자유":12561,"##없이":12562,"##♬엔":12563,"보이":12564,"국회":12565,"또한":12566,"이러":12567,"##는게":12568,"##소리":12569,"잘못":12570,"마지막":12571,"♬화":12572,"설명":12573,"살아":12574,"##이♬가":12575,"계획":12576,"♬고":12577,"떨어":12578,"민주당":12579,"상대":12580,"사람♬이":12581,"저런":12582,"경찰":12583,"이거":12584,"삼성":12585,"없이":12586,"대학":12587,"##가지":12588,"지지":12589,"##되고":12590,"개발":12591,"웹툰":12592,"친구":12593,"##장♬을":12594,"우리나라":12595,"어느":12596,"사건":12597,"당시":12598,"의원":12599,"##♬마":12600,"지난해":12601,"베댓":12602,"나♬는":12603,"가족":12604,"학교":12605,"##지♬도":12606,"물론":12607,"나타":12608,"세상":12609,"##레기":12610,"♬보다":12611,"당신":12612,"작품":12613,"##사♬가":12614,"정권":12615,"##해라":12616,"되는":12617,"같이":12618,"기록":12619,"감독":12620,"##어도":12621,"##머니":12622,"전문":12623,"올해":12624,"자신♬의":12625,"대상":12626,"이게":12627,"##지♬가":12628,"##으나":12629,"##비스":12630,"현실":12631,"##정♬을":12632,"알고":12633,"그럼":12634,"받아":12635,"관심":12636,"##♬에서♬도":12637,"정책":12638,"얼굴":12639,"##이야":12640,"이날":12641,"후보":12642,"제대로":12643,"##거리":12644,"만들어":12645,"얼마나":12646,"##시아":12647,"개인":12648,"주인":12649,"##동안":12650,"사진":12651,"##주는":12652,"##♬째":12653,"학생":12654,"##♬이랑":12655,"##졌다":12656,"정보":12657,"##♬들♬과":12658,"##시간":12659,"회사":12660,"##했던":12661,"18":12662,"그♬는":12663,"나온":12664,"누구":12665,"##♬자":12666,"않고":12667,"##인다":12668,"평가":12669,"이야기":12670,"##부분":12671,"##하는데":12672,"조선":12673,"##장♬은":12674,"배우":12675,"하면":12676,"그것":12677,"##되어":12678,"##력♬이":12679,"가지":12680,"다양":12681,"한번":12682,"##겠지":12683,"자체":12684,"문화":12685,"##수♬가":12686,"##기업":12687,"말했다":12688,"찾아":12689,"##더니":12690,"따르":12691,"있는데":12692,"않는":12693,"부분":12694,"실제":12695,"일반":12696,"##중♬에":12697,"어려":12698,"직접":12699,"활동":12700,"알려":12701,"그만":12702,"동안":12703,"예정":12704,"운영":12705,"공개":12706,"##이트":12707,"##지♬는":12708,"그리":12709,"금융":12710,"해서":12711,"그림":12712,"선거":12713,"완전":12714,"##없는":12715,"언제":12716,"##운데":12717,"##장♬이":12718,"위원":12719,"##해도":12720,"##0년":12721,"새로운":12722,"상태":12723,"언론":12724,"##놓고":12725,"일부":12726,"올라":12727,"존재":12728,"##주고":12729,"그런데":12730,"대구":12731,"조금":12732,"의미":12733,"결정":12734,"##진다":12735,"소리":12736,"##스크":12737,"있고":12738,"게임":12739,"않은":12740,"##하나":12741,"제발":12742,"스토":12743,"##전♬에":12744,"책임":12745,"##로나":12746,"세금":12747,"공격":12748,"않았":12749,"발생":12750,"누가":12751,"한다고":12752,"재미":12753,"현대":12754,"먼저":12755,"##기♬는":12756,"아주":12757,"##이면":12758,"미래":12759,"##하자":12760,"제공":12761,"기준":12762,"##정부":12763,"##보면":12764,"인터":12765,"방법":12766,"확인":12767,"기자":12768,"부모":12769,"가지고":12770,"♬나":12771,"인정":12772,"합니다":12773,"##같이":12774,"##이냐":12775,"전체":12776,"하루":12777,"것♬도":12778,"##다면":12779,"##하네":12780,"머리":12781,"지나":12782,"서비스":12783,"그녀":12784,"참여":12785,"있다는":12786,"관리":12787,"한편":12788,"준비":12789,"발표":12790,"만화":12791,"50":12792,"♬라고":12793,"성공":12794,"자리":12795,"##을까":12796,"아니고":12797,"##라이":12798,"있어":12799,"##하는거":12800,"힘들":12801,"##♬들♬아":12802,"##한거":12803,"엄마":12804,"해도":12805,"##상♬을":12806,"사고":12807,"수사":12808,"##정도":12809,"##원♬이":12810,"##♬씩":12811,"주장":12812,"등장":12813,"##학교":12814,"만나":12815,"코로나":12816,"반대":12817,"##말고":12818,"과정":12819,"외국":12820,"##렸다":12821,"역사":12822,"13":12823,"주인공":12824,"선수":12825,"가격":12826,"##♬마다":12827,"서로":12828,"##리아":12829,"국제":12830,"##하시":12831,"산업":12832,"가운데":12833,"생활":12834,"대부분":12835,"25":12836,"보는":12837,"##러운":12838,"무엇":12839,"##기♬로":12840,"과거":12841,"##♬상":12842,"16":12843,"##000":12844,"이건":12845,"최대":12846,"위해서":12847,"제품":12848,"행동":12849,"거의":12850,"##랜드":12851,"전국":12852,"증가":12853,"정상":12854,"성장":12855,"경쟁":12856,"더욱":12857,"기억":12858,"사람♬들♬이":12859,"시민":12860,"##다니":12861,"있습니다":12862,"판매":12863,"##이며":12864,"재밌":12865,"해외":12866,"생산":12867,"노동":12868,"기다":12869,"요즘":12870,"효과":12871,"어린":12872,"보내":12873,"내려":12874,"##치고":12875,"그래도":12876,"##자♬를":12877,"##OO":12878,"해결":12879,"##리지":12880,"말♬을":12881,"당연":12882,"이것":12883,"얘기":12884,"14":12885,"못한":12886,"선택":12887,"아닌가":12888,"##♬밖에":12889,"엄청":12890,"표현":12891,"나왔":12892,"##근혜":12893,"추가":12894,"##문♬에":12895,"##이는":12896,"예상":12897,"##린다":12898,"규모":12899,"스타":12900,"##♬형":12901,"운동":12902,"쓰레기":12903,"##만원":12904,"있다고":12905,"장관":12906,"사람♬들":12907,"그♬의":12908,"영향":12909,"환경":12910,"아들":12911,"시대":12912,"없어":12913,"##그램":12914,"##의원":12915,"아니다":12916,"추진":12917,"##식♬을":12918,"빨리":12919,"교수":12920,"느낌":12921,"##자♬의":12922,"아버":12923,"대해서":12924,"요구":12925,"##이스":12926,"##려는":12927,"앞♬으로":12928,"##시다":12929,"##가서":12930,"드러":12931,"한다는":12932,"포함":12933,"##치는":12934,"말♬이":12935,"##와대":12936,"##화♬를":12937,"만든":12938,"알아":12939,"같다":12940,"##나요":12941,"♬권":12942,"다며":12943,"##♬여":12944,"##들어":12945,"중심":12946,"기본":12947,"17":12948,"결혼":12949,"##♬성♬이":12950,"입장":12951,"##야지":12952,"문재앙":12953,"##주세요":12954,"청와대":12955,"##아요":12956,"##었는데":12957,"구성":12958,"노력":12959,"등♬을":12960,"감사":12961,"##됐다":12962,"역할":12963,"##릭터":12964,"##한다고":12965,"도시":12966,"##했는데":12967,"유지":12968,"때문이다":12969,"마련":12970,"전쟁":12971,"좌파":12972,"장면":12973,"지방":12974,"##시켜":12975,"발전":12976,"##하던":12977,"##스로":12978,"나♬도":12979,"되어":12980,"##라마":12981,"##와서":12982,"말고":12983,"##스럽":12984,"##하겠":12985,"##스터":12986,"부산":12987,"건강":12988,"정의":12989,"##인♬의":12990,"박근혜":12991,"소비":12992,"##아니":12993,"##도♬를":12994,"##정♬이":12995,"지적":12996,"보인다":12997,"##이란":12998,"##♬요":12999,"##위원":13000,"##히려":13001,"분석":13002,"자동":13003,"판단":13004,"넘어":13005,"##는건":13006,"상당":13007,"해당":13008,"##이네":13009,"절대":13010,"확대":13011,"##하지만":13012,"우리♬가":13013,"고객":13014,"##리스":13015,"오히려":13016,"업체":13017,"자연":13018,"그게":13019,"공부":13020,"40":13021,"보수":13022,"오후":13023,"경험":13024,"##도♬가":13025,"안전":13026,"##자리":13027,"매우":13028,"##하냐":13029,"캐릭터":13030,"경영":13031,"범죄":13032,"만큼":13033,"기존":13034,"##했고":13035,"비교":13036,"사라":13037,"##♬성♬을":13038,"##더라":13039,"##시고":13040,"##음♬을":13041,"##이지만":13042,"도움":13043,"비판":13044,"전망":13045,"##이라도":13046,"솔직":13047,"비슷":13048,"없고":13049,"강화":13050,"스스로":13051,"##었던":13052,"거짓":13053,"##이버":13054,"시즌":13055,"##가고":13056,"기회":13057,"다르":13058,"##사♬는":13059,"수♬도":13060,"강조":13061,"##수♬를":13062,"♬자":13063,"##스♬를":13064,"사람♬은":13065,"바이":13066,"##스템":13067,"그대로":13068,"기관":13069,"##파트":13070,"##이니":13071,"##어난":13072,"##치♬를":13073,"스토리":13074,"##명♬이":13075,"##디어":13076,"##♬께":13077,"##♬질":13078,"인물":13079,"제작":13080,"##원♬을":13081,"안되":13082,"##인♬은":13083,"##지않":13084,"상승":13085,"특별":13086,"주변":13087,"밝혔다":13088,"아직♬도":13089,"이루":13090,"하는데":13091,"##이♬를":13092,"거래":13093,"원래":13094,"공동":13095,"대비":13096,"##한다는":13097,"활용":13098,"##영화":13099,"미친":13100,"구조":13101,"대신":13102,"연기":13103,"능력":13104,"##므로":13105,"자한":13106,"빨갱":13107,"##♬대로":13108,"##가리":13109,"##되었다":13110,"프로그램":13111,"다만":13112,"되고":13113,"분명":13114,"행복":13115,"위험":13116,"##인♬을":13117,"순간":13118,"##드는":13119,"##르는":13120,"제일":13121,"##자기":13122,"OOO":13123,"그때":13124,"시키":13125,"치료":13126,"##점♬을":13127,"라며":13128,"##시♬에":13129,"##위♬를":13130,"인생":13131,"21":13132,"은행":13133,"이♬를":13134,"조직":13135,"기간":13136,"김정":13137,"지속":13138,"##텐데":13139,"##♬야":13140,"부족":13141,"아무리":13142,"제♬가":13143,"##스♬가":13144,"24":13145,"##♬로서":13146,"##으면서":13147,"##보니":13148,"변화":13149,"바람":13150,"전혀":13151,"전부":13152,"##이기":13153,"##했다고":13154,"이♬에":13155,"##거지":13156,"다니":13157,"방식":13158,"##이♬는":13159,"##♬에선":13160,"병원":13161,"모습♬을":13162,"상품":13163,"되었다":13164,"저렇게":13165,"도록":13166,"항상":13167,"혼자":13168,"적용":13169,"인사":13170,"집중":13171,"비롯":13172,"##하니":13173,"##무원":13174,"가진":13175,"##라인":13176,"##번♬째":13177,"않는다":13178,"마스크":13179,"##마트":13180,"##명♬을":13181,"회장":13182,"##르고":13183,"##정한":13184,"주민":13185,"##있다":13186,"일단":13187,"출연":13188,"분야":13189,"전략":13190,"내년":13191,"아니면":13192,"충분":13193,"않았다":13194,"지켜":13195,"네이버":13196,"걱정":13197,"♬이나":13198,"확실":13199,"##♬계":13200,"##한데":13201,"개선":13202,"는데":13203,"##겠지만":13204,"##동산":13205,"뭔가":13206,"##었고":13207,"##스타":13208,"같은데":13209,"의견":13210,"♬처럼":13211,"##수록":13212,"대체":13213,"##자♬들":13214,"##리♬는":13215,"공산":13216,"##♬뿐":13217,"##은행":13218,"또는":13219,"높은":13220,"중앙":13221,"분위":13222,"##BS":13223,"더불":13224,"건설":13225,"##되면":13226,"적극":13227,"일♬이":13228,"보호":13229,"아마":13230,"솔직히":13231,"##기고":13232,"199":13233,"받고":13234,"나가":13235,"문제♬가":13236,"이러한":13237,"주요":13238,"고려":13239,"목표":13240,"달러":13241,"검사":13242,"크게":13243,"있지만":13244,"아님":13245,"열린":13246,"나오는":13247,"직원":13248,"우선":13249,"어렵":13250,"그걸":13251,"달리":13252,"##제♬를":13253,"##려면":13254,"##겠네":13255,"행사":13256,"노래":13257,"##건가":13258,"##때문♬에":13259,"신천":13260,"있던":13261,"궁금":13262,"##스♬는":13263,"22":13264,"일♬을":13265,"느끼":13266,"23":13267,"시스템":13268,"♬여":13269,"##을때":13270,"##감♬을":13271,"나서":13272,"##♬이다":13273,"드라마":13274,"그동안":13275,"인해":13276,"##더라도":13277,"있어서":13278,"수출":13279,"##되지":13280,"##라면":13281,"여행":13282,"중요한":13283,"##이터":13284,"아파트":13285,"가치":13286,"가까":13287,"매출":13288,"니♬가":13289,"의료":13290,"부동산":13291,"친일":13292,"##심히":13293,"음악":13294,"계약":13295,"##아야":13296,"다양한":13297,"##지지":13298,"##시장":13299,"실제로":13300,"가져":13301,"신경":13302,"수익":13303,"##먹고":13304,"##해주":13305,"보니":13306,"인터넷":13307,"정도♬로":13308,"##하다고":13309,"단체":13310,"자신♬이":13311,"여기♬서":13312,"자식":13313,"##기는":13314,"현장":13315,"##려서":13316,"다가":13317,"##요일":13318,"기분":13319,"관계자":13320,"출신":13321,"못하고":13322,"대회":13323,"등♬의":13324,"업무":13325,"그룹":13326,"갑자기":13327,"##하는게":13328,"조작":13329,"바라":13330,"사과":13331,"안보":13332,"##운동":13333,"각각":13334,"여론":13335,"##♬용":13336,"전♬에":13337,"움직":13338,"앞서":13339,"##에요":13340,"오래":13341,"##사♬의":13342,"유럽":13343,"없었다":13344,"차지":13345,"하면서":13346,"선동":13347,"영업":13348,"우리♬는":13349,"세월":13350,"##스♬의":13351,"생각♬이":13352,"##대♬를":13353,"##리면":13354,"방문":13355,"부담":13356,"기능":13357,"##지마":13358,"나라♬가":13359,"##해요":13360,"##건데":13361,"어쩌":13362,"##사업":13363,"습니다":13364,"##드시":13365,"가슴":13366,"설치":13367,"이전":13368,"발견":13369,"부정":13370,"##대한":13371,"##성♬을":13372,"##조건":13373,"저♬는":13374,"##사회":13375,"##났다":13376,"##간다":13377,"사망":13378,"##물♬을":13379,"대단":13380,"빨갱이":13381,"아닐":13382,"따라서":13383,"주식":13384,"##돼지":13385,"##성♬이":13386,"##으니까":13387,"나이":13388,"♬밖에":13389,"확보":13390,"자동차":13391,"들어가":13392,"##교육":13393,"##새끼":13394,"##상♬이":13395,"시절":13396,"##♬률":13397,"모르는":13398,"어머니":13399,"##내고":13400,"외교":13401,"회의":13402,"지도":13403,"총선":13404,"주택":13405,"언급":13406,"##봐라":13407,"열심히":13408,"먹고":13409,"최소":13410,"광고":13411,"##하였다":13412,"사람♬들♬은":13413,"새끼":13414,"##자인":13415,"공감":13416,"나와":13417,"##른다":13418,"통합":13419,"공급":13420,"##구요":13421,"아버지":13422,"우려":13423,"않을":13424,"불법":13425,"대응":13426,"보험":13427,"정확":13428,"##오는":13429,"전문가":13430,"LG":13431,"##던데":13432,"못하는":13433,"##군요":13434,"집단":13435,"선생":13436,"##하라":13437,"##억원":13438,"비해":13439,"인천":13440,"##정권":13441,"##♬생":13442,"##보는":13443,"국민♬들":13444,"안정":13445,"##구만":13446,"남편":13447,"##거다":13448,"##거든":13449,"떠나":13450,"끝나":13451,"있지":13452,"처리":13453,"##전자":13454,"##대표":13455,"영국":13456,"하다":13457,"지구":13458,"##러스":13459,"##냐고":13460,"가는":13461,"광주":13462,"##8년":13463,"싶은":13464,"시험":13465,"##수♬도":13466,"글로":13467,"공무원":13468,"목적":13469,"유명":13470,"밝혀":13471,"알았":13472,"보도":13473,"구속":13474,"작업":13475,"##만♬에":13476,"입니다":13477,"여러분":13478,"##시는":13479,"거기":13480,"국회의원":13481,"자금":13482,"사는":13483,"바뀌":13484,"오전":13485,"##♬보다♬는":13486,"##이션":13487,"##자♬들♬이":13488,"나올":13489,"##조차":13490,"무시":13491,"##리즈":13492,"본인":13493,"단순":13494,"##학생":13495,"뭐♬가":13496,"안타":13497,"가서":13498,"카드":13499,"정당":13500,"반응":13501,"전화":13502,"영화♬를":13503,"##대체":13504,"대책":13505,"갖고":13506,"26":13507,"##생각":13508,"참석":13509,"개혁":13510,"27":13511,"##명♬의":13512,"탄핵":13513,"##자♬로":13514,"여전":13515,"##이상":13516,"이익":13517,"과학":13518,"##국민":13519,"##어진":13520,"##전♬을":13521,"글로벌":13522,"##수♬는":13523,"했는데":13524,"시청":13525,"##의♬를":13526,"나쁜":13527,"평균":13528,"아베":13529,"##난다":13530,"사기":13531,"의사":13532,"지키":13533,"라이":13534,"괜찮":13535,"고민":13536,"영상":13537,"##이라면":13538,"시설":13539,"##5년":13540,"무서":13541,"##간♬에":13542,"##까요":13543,"보기":13544,"##너지":13545,"불가":13546,"이뤄":13547,"##7년":13548,"처벌":13549,"위치":13550,"SK":13551,"##9년":13552,"##이자":13553,"##거야":13554,"이♬는":13555,"희망":13556,"달라":13557,"반면":13558,"강력":13559,"아래":13560,"##트♬를":13561,"되었":13562,"##이어":13563,"##없다":13564,"선정":13565,"제도":13566,"28":13567,"♬당":13568,"##했지만":13569,"제외":13570,"이동":13571,"뉴스":13572,"실시":13573,"따른":13574,"##♬끼":13575,"도대체":13576,"신고":13577,"관광":13578,"반드시":13579,"공식":13580,"##문♬을":13581,"있으며":13582,"##왔다":13583,"주는":13584,"훨씬":13585,"##세계":13586,"브랜드":13587,"군대":13588,"##선♬을":13589,"장기":13590,"받은":13591,"##제♬가":13592,"의해":13593,"소설":13594,"싸우":13595,"어찌":13596,"60":13597,"진심":13598,"♬상":13599,"제시":13600,"있으면":13601,"신천지":13602,"거리":13603,"잡아":13604,"최초":13605,"##♬님♬이":13606,"프랑":13607,"##갔다":13608,"##지면":13609,"소재":13610,"아는":13611,"무조건":13612,"##당♬이":13613,"투표":13614,"도입":13615,"되면":13616,"♬뿐":13617,"젊은":13618,"아빠":13619,"소속":13620,"말씀":13621,"권력":13622,"##♬으로서":13623,"평화":13624,"하여":13625,"좋아요":13626,"하늘":13627,"##생활":13628,"##BC":13629,"수♬가":13630,"##내는":13631,"##듯이":13632,"독일":13633,"성격":13634,"따르면":13635,"핵심":13636,"##겠다고":13637,"TV":13638,"##워서":13639,"남성":13640,"공간":13641,"유치":13642,"##라서":13643,"생각♬을":13644,"##6년":13645,"##럼프":13646,"중소":13647,"인식":13648,"시행":13649,"청소":13650,"##준다":13651,"등♬이":13652,"##하다는":13653,"롯데":13654,"사람♬을":13655,"해라":13656,"##지게":13657,"많다":13658,"사태":13659,"♬이라고":13660,"생각해":13661,"아프":13662,"만약":13663,"각종":13664,"아름":13665,"스포":13666,"감염":13667,"오른":13668,"스마트":13669,"마치":13670,"종교":13671,"##받고":13672,"불안":13673,"##했을":13674,"나중♬에":13675,"자세":13676,"보유":13677,"일어나":13678,"소개":13679,"##일♬이":13680,"니♬들":13681,"자주":13682,"너희":13683,"##지역":13684,"##단체":13685,"##점♬이":13686,"가정":13687,"심각":13688,"통신":13689,"느껴":13690,"##원♬은":13691,"비용":13692,"그거":13693,"그♬가":13694,"##개월":13695,"##지♬에":13696,"예산":13697,"모델":13698,"인상":13699,"논란":13700,"##이크":13701,"아니냐":13702,"##겠습니다":13703,"이젠":13704,"증거":13705,"##위♬에":13706,"사장":13707,"##♬쯤":13708,"##관계":13709,"있게":13710,"내부":13711,"##수있":13712,"##인트":13713,"진실":13714,"협력":13715,"수입":13716,"어려운":13717,"되지":13718,"보통":13719,"##겠다는":13720,"빠져":13721,"독립":13722,"점점":13723,"센터":13724,"싶다":13725,"트럼프":13726,"방향":13727,"연결":13728,"##어버":13729,"장애":13730,"돈♬을":13731,"음식":13732,"최종":13733,"##시민":13734,"선보":13735,"안나":13736,"##림픽":13737,"##인♬들":13738,"변호":13739,"자료":13740,"##♬으로써":13741,"작은":13742,"##♬율":13743,"불구":13744,"증권":13745,"회복":13746,"맞는":13747,"인권":13748,"주제":13749,"쉽게":13750,"사무":13751,"##대♬에":13752,"거짓말":13753,"공연":13754,"감정":13755,"애♬들":13756,"감소":13757,"당연히":13758,"##레스":13759,"전투":13760,"두고":13761,"##금♬을":13762,"없을":13763,"실패":13764,"고통":13765,"담당":13766,"##잖아요":13767,"대화":13768,"나라♬를":13769,"형태":13770,"올려":13771,"누군":13772,"그려":13773,"##어들":13774,"승리":13775,"202":13776,"29":13777,"여전히":13778,"##영♬이":13779,"다♬들":13780,"신청":13781,"##대♬가":13782,"대선":13783,"이래":13784,"행정":13785,"미리":13786,"제목":13787,"전자":13788,"##하거나":13789,"한심":13790,"♬님":13791,"##일♬을":13792,"출시":13793,"청년":13794,"국민♬의":13795,"방안":13796,"##임♬을":13797,"##가♬를":13798,"##운드":13799,"##할때":13800,"개념":13801,"도와":13802,"주고":13803,"단계":13804,"지금♬까지":13805,"김정은":13806,"대출":13807,"무능":13808,"감동":13809,"##냈다":13810,"마을":13811,"♬형":13812,"##물♬이":13813,"추천":13814,"때♬는":13815,"시켜":13816,"아내":13817,"##디오":13818,"위원회":13819,"##머리":13820,"##되었":13821,"##여서":13822,"##4년":13823,"공공":13824,"##2년":13825,"더불어":13826,"들고":13827,"사례":13828,"업계":13829,"있도록":13830,"본격":13831,"니♬들♬이":13832,"플레이":13833,"자본":13834,"불러":13835,"##프로":13836,"개돼지":13837,"러시아":13838,"의혹":13839,"##♬로♬는":13840,"##♬하고":13841,"마찬":13842,"않아":13843,"진출":13844,"관한":13845,"오는":13846,"1년":13847,"주목":13848,"정부♬가":13849,"국정":13850,"##♬으로♬는":13851,"##이드":13852,"노조":13853,"말하는":13854,"스트":13855,"##수♬의":13856,"포기":13857,"제기":13858,"##조사":13859,"소득":13860,"국민♬이":13861,"자꾸":13862,"힘♬을":13863,"모양":13864,"배댓":13865,"있기":13866,"나온다":13867,"재판":13868,"그럴":13869,"좋다":13870,"조정":13871,"타이":13872,"좌빨":13873,"일으":13874,"싫어":13875,"가짜":13876,"전개":13877,"수도":13878,"##위원회":13879,"당장":13880,"이기":13881,"강남":13882,"합의":13883,"지급":13884,"##서♬를":13885,"차량":13886,"##작가":13887,"위기":13888,"발언":13889,"##♬들♬에":13890,"수요":13891,"교회":13892,"그나":13893,"70":13894,"개최":13895,"지금♬은":13896,"관계자♬는":13897,"자체♬가":13898,"이끌":13899,"아침":13900,"##♬로부터":13901,"전환":13902,"나타나":13903,"참가":13904,"하기":13905,"못하":13906,"##경제":13907,"전기":13908,"##했다는":13909,"제주":13910,"사실♬을":13911,"##그룹":13912,"##일보":13913,"살인":13914,"##♬별":13915,"없었":13916,"마찬가지":13917,"혐의":13918,"인도":13919,"조용":13920,"응원":13921,"국민♬을":13922,"바꾸":13923,"국민♬들♬이":13924,"##대♬의":13925,"고용":13926,"조성":13927,"교통":13928,"대형":13929,"불쌍":13930,"##3년":13931,"좋아하는":13932,"외국인":13933,"##두고":13934,"저거":13935,"코스":13936,"촬영":13937,"필요한":13938,"하락":13939,"##깨문":13940,"자산":13941,"##♬과♬의":13942,"31":13943,"##센터":13944,"##부♬는":13945,"공정":13946,"상관":13947,"파악":13948,"##시면":13949,"시리즈":13950,"받아들":13951,"##져서":13952,"##기관":13953,"##든지":13954,"시간♬이":13955,"오랜":13956,"만드는":13957,"이야기♬를":13958,"##체♬가":13959,"##마디":13960,"유일":13961,"부탁":13962,"매일":13963,"##움♬을":13964,"##등학교":13965,"##세♬를":13966,"조건":13967,"자격":13968,"아시아":13969,"##하였":13970,"전달":13971,"프리":13972,"##라리":13973,"기획":13974,"##부♬가":13975,"##건지":13976,"예술":13977,"기반":13978,"할머니":13979,"##민주":13980,"##♬와♬의":13981,"연출":13982,"온라인":13983,"이유♬가":13984,"힘든":13985,"환자":13986,"##부♬를":13987,"지하":13988,"초반":13989,"민족":13990,"유리":13991,"혹은":13992,"##장♬에서":13993,"##♬꾼":13994,"##도♬로":13995,"확진":13996,"##심♬을":13997,"진보":13998,"인기":13999,"평생":14000,"##장♬에":14001,"##스코":14002,"##원♬의":14003,"독재":14004,"##고있":14005,"대중":14006,"##식♬이":14007,"##식♬으로":14008,"##는거지":14009,"##란다":14010,"##리기":14011,"##하세요":14012,"재앙":14013,"받는":14014,"우승":14015,"##어라":14016,"충분히":14017,"것이라고":14018,"논의":14019,"동생":14020,"불과":14021,"##♬조차":14022,"자랑":14023,"##산업":14024,"아예":14025,"이사":14026,"##다운":14027,"그러면":14028,"성과":14029,"펀드":14030,"법무":14031,"참고":14032,"제한":14033,"##반기":14034,"##♬들♬만":14035,"그저":14036,"##뉴스":14037,"동시♬에":14038,"종합":14039,"##함♬을":14040,"##르게":14041,"대통령♬이":14042,"하며":14043,"연합":14044,"영어":14045,"♬별":14046,"##리♬에":14047,"##것♬이":14048,"없다는":14049,"경우♬가":14050,"이걸":14051,"구축":14052,"동물":14053,"##만한":14054,"차이":14055,"##지어":14056,"##아버":14057,"이라":14058,"##하기♬도":14059,"받을":14060,"하자":14061,"세월호":14062,"##♬라고":14063,"으며":14064,"분량":14065,"인수":14066,"했던":14067,"##소♬를":14068,"성적":14069,"전통":14070,"가입":14071,"이때":14072,"실적":14073,"쓰는":14074,"조치":14075,"##기♬의":14076,"##리♬의":14077,"어디♬서":14078,"받았":14079,"##분♬에":14080,"거나":14081,"말♬도":14082,"##1년":14083,"훈련":14084,"##시킨":14085,"##많은":14086,"관객":14087,"재산":14088,"##감♬이":14089,"보여주":14090,"저♬도":14091,"완전히":14092,"해석":14093,"##가♬가":14094,"좋겠다":14095,"지난달":14096,"나머":14097,"이유♬는":14098,"500":14099,"행위":14100,"##봐야":14101,"비난":14102,"##느냐":14103,"단지":14104,"없다고":14105,"안되는":14106,"##습니까":14107,"##♬이♬가":14108,"건물":14109,"그랬":14110,"생각하는":14111,"취업":14112,"##스러운":14113,"##던가":14114,"베뎃":14115,"됐다":14116,"배경":14117,"요청":14118,"구매":14119,"됩니다":14120,"별로":14121,"##장♬의":14122,"주로":14123,"198":14124,"최저":14125,"해주":14126,"##우고":14127,"금지":14128,"대깨문":14129,"##해보":14130,"반영":14131,"##개♬를":14132,"2년":14133,"가르":14134,"서민":14135,"약간":14136,"신문":14137,"입국":14138,"##♬만큼":14139,"자살":14140,"♬마":14141,"♬률":14142,"시도":14143,"자신♬을":14144,"철저":14145,"끌어":14146,"##것같":14147,"##아가":14148,"생긴":14149,"##였던":14150,"복지":14151,"##비♬를":14152,"개정":14153,"검토":14154,"화장":14155,"설립":14156,"특징":14157,"##시키는":14158,"과연":14159,"프랑스":14160,"수상":14161,"있었던":14162,"설정":14163,"##들고":14164,"##인거":14165,"굉장":14166,"돌아가":14167,"황교":14168,"일자리":14169,"구체":14170,"##회사":14171,"##대♬로":14172,"대변":14173,"차례":14174,"강제":14175,"##지말고":14176,"약속":14177,"##어지":14178,"##장관":14179,"않다":14180,"##이든":14181,"목소리":14182,"이명":14183,"봐도":14184,"남아":14185,"규제":14186,"연속":14187,"상당히":14188,"##가락":14189,"차별":14190,"##구♬가":14191,"어린이":14192,"##무리":14193,"##씨♬는":14194,"##리오":14195,"신뢰":14196,"##일♬에":14197,"80":14198,"집♬에":14199,"보이는":14200,"선발":14201,"##겠냐":14202,"남북":14203,"강한":14204,"일정":14205,"혁신":14206,"그건":14207,"생명":14208,"애초":14209,"혹시":14210,"장난":14211,"인지":14212,"##자♬들♬은":14213,"가만":14214,"##♬적이고":14215,"부문":14216,"홍보":14217,"##한게":14218,"##서♬는":14219,"불편":14220,"##당♬은":14221,"지♬들":14222,"토착":14223,"달려":14224,"##이죠":14225,"##웹툰":14226,"##롭게":14227,"상처":14228,"##♬끼리":14229,"생겼":14230,"정리":14231,"##시키고":14232,"속♬에서":14233,"나무":14234,"민간":14235,"##문화":14236,"쓰고":14237,"하는거":14238,"##스럽게":14239,"귀여":14240,"모르고":14241,"갈등":14242,"##차피":14243,"하게":14244,"끝♬까지":14245,"마음♬을":14246,"차라리":14247,"있으니":14248,"##한다면":14249,"피해자":14250,"멤버":14251,"근무":14252,"의심":14253,"부르":14254,"하이":14255,"##드♬를":14256,"평소":14257,"올리":14258,"통일":14259,"보다":14260,"전라도":14261,"덧붙":14262,"오빠":14263,"사상":14264,"상상":14265,"##예요":14266,"##구♬를":14267,"##나게":14268,"##겁니다":14269,"노무":14270,"##랐다":14271,"##체♬를":14272,"죽은":14273,"역할♬을":14274,"올림픽":14275,"##♬론":14276,"##♬과♬는":14277,"싸움":14278,"소비자":14279,"##가요":14280,"미사":14281,"번♬째":14282,"통과":14283,"적♬이":14284,"작년":14285,"##페이지":14286,"##려야":14287,"내놓":14288,"눈♬에":14289,"알바":14290,"어차피":14291,"없애":14292,"목숨":14293,"저희":14294,"위원장":14295,"수행":14296,"직업":14297,"벌써":14298,"위♬에":14299,"거지":14300,"공장":14301,"##놈♬들":14302,"인터뷰":14303,"도로":14304,"눈치":14305,"분위기":14306,"연예":14307,"##원♬에":14308,"대사":14309,"##주♬가":14310,"아무♬도":14311,"는다":14312,"재미있":14313,"연재":14314,"지지율":14315,"군사":14316,"것♬처럼":14317,"##계♬를":14318,"##같은데":14319,"##투자":14320,"가능♬성♬이":14321,"애니":14322,"역대":14323,"듣고":14324,"물어":14325,"있음":14326,"아닙":14327,"영화♬는":14328,"##가지고":14329,"있어야":14330,"분노":14331,"한마디":14332,"사람♬의":14333,"최고♬의":14334,"##♬에서♬의":14335,"희생":14336,"규정":14337,"항공":14338,"그린":14339,"3년":14340,"##프트":14341,"##싶다":14342,"##인줄":14343,"##대통령":14344,"##하려고":14345,"살고":14346,"##er":14347,"##아라":14348,"미세":14349,"##위♬가":14350,"이르":14351,"놓고":14352,"##도♬는":14353,"이해♬가":14354,"##국가":14355,"♬계":14356,"##인♬들♬이":14357,"자기♬가":14358,"##먹는":14359,"타고":14360,"##개발":14361,"거부":14362,"확산":14363,"비중":14364,"국방":14365,"굉장히":14366,"##쳤다":14367,"본다":14368,"중소기업":14369,"문제♬는":14370,"제안":14371,"##♬만♬이":14372,"##♬에♬만":14373,"300":14374,"##♬다":14375,"죽음":14376,"모습♬이":14377,"많아":14378,"충격":14379,"어쩔":14380,"##지원":14381,"##분♬이":14382,"심지어":14383,"무기":14384,"알게":14385,"♬째":14386,"확정":14387,"근거":14388,"자한♬당":14389,"##하려":14390,"일상":14391,"우주":14392,"##♬에게♬는":14393,"##드립":14394,"##지♬로":14395,"전해":14396,"##것♬을":14397,"##비♬가":14398,"공사":14399,"##이♬의":14400,"지배":14401,"고양":14402,"중♬에":14403,"##어♬를":14404,"그러니까":14405,"##바로":14406,"##50":14407,"여름":14408,"못할":14409,"이명박":14410,"비슷한":14411,"다행":14412,"엄청난":14413,"그림체":14414,"이라는":14415,"늘어":14416,"##사고":14417,"니♬네":14418,"민주주의":14419,"##할수":14420,"##신♬이":14421,"똑같":14422,"##정책":14423,"기념":14424,"어서":14425,"이재":14426,"##나는":14427,"적폐":14428,"10년":14429,"##랍니다":14430,"마이":14431,"질문":14432,"##리게":14433,"아쉬":14434,"##당한":14435,"##도♬의":14436,"영향♬을":14437,"고생":14438,"중간":14439,"시점":14440,"##국♬의":14441,"촛불":14442,"게다가":14443,"4월":14444,"부끄":14445,"공포":14446,"포인트":14447,"##셔서":14448,"나♬만":14449,"예전":14450,"##관리":14451,"근로":14452,"그나마":14453,"생기":14454,"보면서":14455,"분양":14456,"향후":14457,"말♬은":14458,"자녀":14459,"##봐도":14460,"앞♬에":14461,"♬서":14462,"혜택":14463,"우리♬의":14464,"것입니다":14465,"이곳":14466,"있다면":14467,"신규":14468,"특수":14469,"맨날":14470,"졸업":14471,"오르":14472,"임명":14473,"후반":14474,"스포츠":14475,"통한":14476,"에너지":14477,"청소년":14478,"없어서":14479,"비율":14480,"##리카":14481,"완벽":14482,"야당":14483,"제조":14484,"전시":14485,"만족":14486,"바꿔":14487,"새로":14488,"동일":14489,"##개혁":14490,"이제♬는":14491,"저지":14492,"##법♬을":14493,"당선":14494,"수♬밖에":14495,"##보기":14496,"눈물":14497,"뛰어":14498,"못했":14499,"옛날":14500,"된다고":14501,"나누":14502,"방침":14503,"♬용":14504,"마음♬이":14505,"액션":14506,"물건":14507,"등록":14508,"지식":14509,"##기술":14510,"정부♬는":14511,"##나오":14512,"♬두":14513,"안♬에":14514,"속♬에":14515,"등♬에":14516,"##위♬로":14517,"직장":14518,"완성":14519,"##아닌":14520,"노무현":14521,"주도":14522,"##은거":14523,"바탕":14524,"가득":14525,"신용":14526,"##시지":14527,"독자":14528,"판결":14529,"바보":14530,"우수":14531,"##져야":14532,"##자고":14533,"없는데":14534,"레이":14535,"##하다가":14536,"##세대":14537,"중단":14538,"돌려":14539,"있나":14540,"##심♬이":14541,"진정":14542,"##원♬에서":14543,"1000":14544,"임금":14545,"했지만":14546,"##씨♬가":14547,"##우스":14548,"축구":14549,"전반":14550,"난리":14551,"연애":14552,"특정":14553,"겁니다":14554,"보장":14555,"데이터":14556,"유통":14557,"슈퍼":14558,"표정":14559,"무섭":14560,"아닌데":14561,"겨울":14562,"##시대":14563,"경기도":14564,"##텐츠":14565,"##것♬들":14566,"저러":14567,"기초":14568,"시기":14569,"돼지":14570,"맞춰":14571,"가면":14572,"##하신":14573,"접근":14574,"##문제":14575,"불구하고":14576,"문제♬를":14577,"##해야지":14578,"논리":14579,"몰아":14580,"예정이다":14581,"잠시":14582,"##다른":14583,"따로":14584,"있어요":14585,"같아요":14586,"##것이다":14587,"나머지":14588,"월드":14589,"선물":14590,"##우는":14591,"분기":14592,"##활동":14593,"마무리":14594,"##가면":14595,"##거운":14596,"형성":14597,"거쳐":14598,"벌어":14599,"존나":14600,"리그":14601,"##선거":14602,"밝히":14603,"윤석":14604,"##기♬만":14605,"현지":14606,"공주":14607,"##행♬을":14608,"##진♬이":14609,"##았는데":14610,"매력":14611,"시간♬을":14612,"앞♬에서":14613,"수술":14614,"조합":14615,"##업체":14616,"##퓨터":14617,"##았던":14618,"##하라고":14619,"90":14620,"##받는":14621,"인구":14622,"바다":14623,"##♬제":14624,"협상":14625,"3월":14626,"소유":14627,"모자":14628,"굳이":14629,"봐야":14630,"기부":14631,"재정":14632,"##시설":14633,"이루어":14634,"##것♬은":14635,"내일":14636,"영화♬가":14637,"##가족":14638,"##사♬에":14639,"멍청":14640,"##해진":14641,"위안":14642,"##환경":14643,"##겠죠":14644,"##수♬로":14645,"##회♬를":14646,"나♬의":14647,"##신♬을":14648,"활성":14649,"제출":14650,"인한":14651,"나경":14652,"##연구":14653,"##인간":14654,"##지♬의":14655,"##됩니다":14656,"##스러":14657,"반복":14658,"##석♬이":14659,"변경":14660,"세대":14661,"것♬에":14662,"현상":14663,"디지":14664,"##드♬가":14665,"##이기♬도":14666,"인간♬이":14667,"뒤♬에":14668,"대전":14669,"비밀":14670,"노인":14671,"개봉":14672,"달창":14673,"시각":14674,"##10":14675,"만들고":14676,"있네":14677,"똑같은":14678,"일베":14679,"##는거야":14680,"6월":14681,"##치♬가":14682,"지정":14683,"##0년대":14684,"위협":14685,"##걸로":14686,"♬제":14687,"체험":14688,"KBS":14689,"##려라":14690,"원칙":14691,"##가♬는":14692,"결론":14693,"##증권":14694,"답답":14695,"도전":14696,"일제":14697,"협의":14698,"살펴":14699,"미안":14700,"##사♬로":14701,"개월":14702,"##온다":14703,"##트♬가":14704,"이상한":14705,"원인":14706,"으면":14707,"않으면":14708,"##케팅":14709,"그것♬도":14710,"5월":14711,"사전":14712,"그러니":14713,"월급":14714,"##분♬들":14715,"동네":14716,"임대":14717,"##마라":14718,"된다는":14719,"##보자":14720,"악플":14721,"지분":14722,"사법":14723,"일본♬이":14724,"나♬를":14725,"둘러":14726,"대박":14727,"##방송":14728,"믿고":14729,"일어":14730,"##♬권♬을":14731,"가능한":14732,"집안":14733,"호텔":14734,"디자인":14735,"##니스":14736,"베트":14737,"##거같":14738,"서울시":14739,"꾸준":14740,"저기":14741,"어른":14742,"만드":14743,"무대":14744,"그♬들♬의":14745,"반성":14746,"프로젝":14747,"가구":14748,"##거든요":14749,"손♬을":14750,"황교안":14751,"선언":14752,"##리어":14753,"##이익":14754,"달성":14755,"##하려는":14756,"수♬는":14757,"##도♬에":14758,"폭력":14759,"안하고":14760,"토론":14761,"##했습니다":14762,"애초♬에":14763,"선진":14764,"대기업":14765,"그♬를":14766,"박정":14767,"경북":14768,"와서":14769,"##없고":14770,"##♬께서":14771,"하시":14772,"##개♬의":14773,"의식":14774,"삼성전자":14775,"투입":14776,"관심♬을":14777,"컴퓨터":14778,"##왜구":14779,"정주":14780,"##♬만♬으로":14781,"♬생":14782,"초기":14783,"##리그":14784,"미세먼":14785,"계열":14786,"창업":14787,"##♬와♬는":14788,"시작했다":14789,"이름♬을":14790,"골프":14791,"##주♬를":14792,"인간♬의":14793,"금리":14794,"##부♬의":14795,"##단♬을":14796,"##일까":14797,"못했다":14798,"총리":14799,"사회♬적":14800,"##느라":14801,"##줘야":14802,"##약♬을":14803,"지랄":14804,"하나님":14805,"태양":14806,"##만화":14807,"##지요":14808,"마라":14809,"돈♬이":14810,"버스":14811,"파괴":14812,"눈♬을":14813,"일♬은":14814,"##아지":14815,"보였":14816,"진정한":14817,"9월":14818,"##20":14819,"##국♬에":14820,"짜증":14821,"나름":14822,"##사건":14823,"##나서":14824,"보상":14825,"비행":14826,"측면":14827,"어울":14828,"##장♬으로":14829,"MBC":14830,"마법":14831,"10월":14832,"##♬인":14833,"세력":14834,"##도시":14835,"등♬으로":14836,"35":14837,"원하는":14838,"##국♬이":14839,"바이러스":14840,"아무것♬도":14841,"최악":14842,"예방":14843,"##♬들♬한테":14844,"공유":14845,"말해":14846,"12월":14847,"이미지":14848,"##메라":14849,"채용":14850,"구분":14851,"절차":14852,"##었다고":14853,"잘생":14854,"도망":14855,"불가능":14856,"늘어나":14857,"##♬같이":14858,"블랙":14859,"##거라":14860,"사퇴":14861,"요소":14862,"공수":14863,"되는데":14864,"7월":14865,"♬엔":14866,"만♬에":14867,"벗어나":14868,"##주♬의":14869,"드디어":14870,"##적♬이":14871,"심리":14872,"발행":14873,"상황♬에서":14874,"무역":14875,"서울대":14876,"미치":14877,"하네":14878,"##조선":14879,"받았다":14880,"베트남":14881,"##♬감":14882,"울산":14883,"싫어요":14884,"##짜리":14885,"수업":14886,"운용":14887,"##in":14888,"어제":14889,"무너":14890,"하나♬의":14891,"외모":14892,"##학년":14893,"운전":14894,"##는가":14895,"취급":14896,"대우":14897,"못해":14898,"##시켰":14899,"택시":14900,"다소":14901,"보였다":14902,"맞아":14903,"조심":14904,"##아이":14905,"지♬가":14906,"##민♬이":14907,"중국인":14908,"크리스":14909,"그만큼":14910,"긴장":14911,"흔들":14912,"동료":14913,"##웠다":14914,"##마자":14915,"##래도":14916,"뭐냐":14917,"너무나":14918,"빠른":14919,"##말♬이":14920,"바닥":14921,"##이었던":14922,"온갖":14923,"여기♬에":14924,"스마트폰":14925,"한반":14926,"심판":14927,"의무":14928,"이벤":14929,"무리":14930,"한국인":14931,"같습니다":14932,"그렇지":14933,"없습니다":14934,"##이에요":14935,"하나♬도":14936,"없음":14937,"##부♬에":14938,"##하도록":14939,"귀엽":14940,"##명♬은":14941,"아나":14942,"있는지":14943,"말아":14944,"##있는데":14945,"스타일":14946,"##있고":14947,"리더":14948,"##♬으로부터":14949,"그것♬은":14950,"긍정":14951,"소녀":14952,"놀라":14953,"##보단":14954,"마케팅":14955,"8월":14956,"나섰":14957,"##이♬에":14958,"특성":14959,"너♬네":14960,"여자♬가":14961,"쿠키":14962,"향해":14963,"노동자":14964,"##위♬는":14965,"이♬와":14966,"동원":14967,"소통":14968,"##받은":14969,"아니라고":14970,"하니":14971,"문죄":14972,"회원":14973,"##30":14974,"그♬들♬은":14975,"주가":14976,"1월":14977,"거야":14978,"것♬과":14979,"왔다":14980,"##바일":14981,"##되면서":14982,"정작":14983,"미사일":14984,"##수준":14985,"이번♬에":14986,"변호사":14987,"##하니까":14988,"는지":14989,"##말로":14990,"방어":14991,"##이팅":14992,"KT":14993,"필요♬가":14994,"영웅":14995,"경남":14996,"확실히":14997,"효율":14998,"흐름":14999,"인제":15000,"똑같이":15001,"않을까":15002,"##주시":15003,"이하":15004,"그녀♬의":15005,"펼쳐":15006,"담배":15007,"휴대":15008,"페미":15009,"##친구":15010,"아닐까":15011,"##하셨":15012,"브라":15013,"단어":15014,"메이":15015,"풀어":15016,"전년":15017,"선생♬님":15018,"실험":15019,"출발":15020,"저녁":15021,"000":15022,"과정♬에서":15023,"##만큼":15024,"##관♬이":15025,"이성":15026,"대답":15027,"본부":15028,"금액":15029,"무식":15030,"##그러":15031,"극복":15032,"자원":15033,"##겠네요":15034,"데뷔":15035,"##주면":15036,"##경기":15037,"당신♬이":15038,"문재인♬이":15039,"손해":15040,"친일파":15041,"생각하고":15042,"준다":15043,"체계":15044,"라면":15045,"사회주의":15046,"부인":15047,"♬율":15048,"##사람♬이":15049,"##이네요":15050,"무료":15051,"##♬까지♬는":15052,"##세♬가":15053,"불리":15054,"##하네요":15055,"영역":15056,"스페":15057,"##시오":15058,"봤는데":15059,"같아":15060,"절반":15061,"##안♬을":15062,"남♬의":15063,"##♬보고":15064,"고소":15065,"##부모":15066,"아까":15067,"보니까":15068,"있었는데":15069,"소름":15070,"전했":15071,"내용♬이":15072,"그것♬을":15073,"이리":15074,"수많은":15075,"##선♬이":15076,"수십":15077,"##on":15078,"##달라고":15079,"물러":15080,"토착왜구":15081,"장소":15082,"남녀":15083,"내용♬을":15084,"덕분♬에":15085,"##간♬의":15086,"적절":15087,"모바일":15088,"헌법":15089,"가고":15090,"대상♬으로":15091,"죽을":15092,"디지털":15093,"악마":15094,"동의":15095,"사형":15096,"아냐":15097,"위반":15098,"이탈":15099,"##한국":15100,"높이":15101,"폭발":15102,"##인듯":15103,"몰랐":15104,"가까운":15105,"지금♬도":15106,"##규모":15107,"매년":15108,"위해서♬는":15109,"교사":15110,"집회":15111,"더러운":15112,"##라스":15113,"상황♬이":15114,"먹는":15115,"문학":15116,"몸♬을":15117,"다이":15118,"안된다":15119,"##나고":15120,"법무부":15121,"않게":15122,"집행":15123,"영원":15124,"두려":15125,"##력♬은":15126,"사람♬도":15127,"말♬로":15128,"그녀♬는":15129,"나선":15130,"언어":15131,"허용":15132,"##겼다":15133,"자극":15134,"##보네":15135,"##해지":15136,"197":15137,"따뜻":15138,"##이♬로":15139,"##미♬가":15140,"한국♬의":15141,"통화":15142,"깨끗":15143,"##니아":15144,"대가리":15145,"테러":15146,"##자♬와":15147,"원작":15148,"조용히":15149,"##우♬가":15150,"정치인":15151,"외부":15152,"전형":15153,"##전♬이":15154,"매각":15155,"이유♬로":15156,"##때♬는":15157,"유튜":15158,"실망":15159,"본인♬이":15160,"##자♬들♬의":15161,"양심":15162,"##독교":15163,"드립":15164,"가만히":15165,"미국♬의":15166,"너♬는":15167,"작용":15168,"잘못된":15169,"여당":15170,"도움♬이":15171,"##♬마저":15172,"##♬만♬을":15173,"보건":15174,"사실상":15175,"##자♬에":15176,"검색":15177,"대해서♬는":15178,"2월":15179,"2차":15180,"##문♬이":15181,"그것♬이":15182,"말♬에":15183,"##군♬이":15184,"##받아":15185,"인증":15186,"아름다운":15187,"영화♬의":15188,"2000":15189,"강원":15190,"가수":15191,"언니":15192,"##량♬이":15193,"인근":15194,"##스토":15195,"채권":15196,"##단♬이":15197,"싶어":15198,"일주":15199,"누리":15200,"예고":15201,"##림♬이":15202,"##었을":15203,"모아":15204,"처음♬으로":15205,"아닙니다":15206,"소송":15207,"웃음":15208,"##잡고":15209,"별점":15210,"연금":15211,"11월":15212,"높아":15213,"설명했다":15214,"##정보":15215,"##거래":15216,"수호":15217,"부여":15218,"연장":15219,"프레":15220,"하던":15221,"##이였":15222,"전용":15223,"방역":15224,"유니":15225,"##하러":15226,"인데":15227,"명예":15228,"홍콩":15229,"커피":15230,"##했으면":15231,"하는게":15232,"종목":15233,"비리":15234,"내리":15235,"통해서":15236,"건축":15237,"눈♬이":15238,"##면서♬도":15239,"사항":15240,"##기사":15241,"나눠":15242,"바랍니다":15243,"정부♬의":15244,"기여":15245,"놈♬들":15246,"일본♬의":15247,"일본♬은":15248,"사이♬에":15249,"##카드":15250,"들여":15251,"이럴":15252,"콘텐츠":15253,"프로젝트":15254,"체제":15255,"수용":15256,"##플레이":15257,"추정":15258,"도착":15259,"아동":15260,"구입":15261,"있을까":15262,"체결":15263,"총장":15264,"##화♬가":15265,"공수처":15266,"##겠어요":15267,"##관♬을":15268,"폐지":15269,"들어오":15270,"예♬를":15271,"주말":15272,"정규":15273,"인력":15274,"중심♬으로":15275,"순수":15276,"부모♬님":15277,"앉아":15278,"##시킬":15279,"훌륭":15280,"의한":15281,"시위":15282,"##하는건":15283,"이상♬의":15284,"걸어":15285,"##조작":15286,"##돌아":15287,"##an":15288,"계산":15289,"작성":15290,"상징":15291,"##보험":15292,"우한":15293,"떠올":15294,"이나라":15295,"##♬루":15296,"진단":15297,"반도":15298,"##쳐서":15299,"##나무":15300,"지시":15301,"낮은":15302,"수정":15303,"##대는":15304,"제2":15305,"식품":15306,"뒤집":15307,"##건설":15308,"애플":15309,"축하":15310,"##사♬와":15311,"소중":15312,"카메라":15313,"점♬을":15314,"보지":15315,"국민♬들♬은":15316,"정치♬적":15317,"잡고":15318,"설계":15319,"피부":15320,"가끔":15321,"통제":15322,"흘러":15323,"신♬의":15324,"##나♬는":15325,"##이니까":15326,"냄새":15327,"##하기♬로":15328,"##량♬을":15329,"팩트":15330,"보이지":15331,"##리티":15332,"##으려고":15333,"해야지":15334,"기계":15335,"배치":15336,"삶♬을":15337,"5년":15338,"다면서":15339,"감옥":15340,"힘♬이":15341,"좋았":15342,"##쓰고":15343,"36":15344,"##영업":15345,"##주택":15346,"나와서":15347,"집♬에서":15348,"왠지":15349,"##있어":15350,"상담":15351,"뉴욕":15352,"##진짜":15353,"간다":15354,"부부":15355,"케이":15356,"##했으며":15357,"감안":15358,"##실♬을":15359,"상황♬을":15360,"남자♬가":15361,"마음♬에":15362,"##길래":15363,"##한건":15364,"##대♬는":15365,"##전♬에서":15366,"한나라":15367,"뭐라":15368,"##위해":15369,"합리":15370,"생존":15371,"##속♬에":15372,"내내":15373,"맞추":15374,"어떠":15375,"언제나":15376,"에이":15377,"있냐":15378,"평범":15379,"연락":15380,"45":15381,"봐라":15382,"회담":15383,"시원":15384,"##누리":15385,"나타났":15386,"없네":15387,"스킬":15388,"만난":15389,"후♬에":15390,"이중":15391,"51":15392,"다면":15393,"##리스트":15394,"##리며":15395,"자한당":15396,"예측":15397,"글♬을":15398,"법률":15399,"##가♬의":15400,"보자":15401,"억울":15402,"실천":15403,"법인":15404,"전했다":15405,"어이":15406,"##시♬가":15407,"##바리":15408,"백신":15409,"봉사":15410,"##세기":15411,"새벽":15412,"전세계":15413,"반일":15414,"나갈":15415,"##버린":15416,"##함♬이":15417,"##라니":15418,"다녀":15419,"비상":15420,"##려나":15421,"심사":15422,"##길♬을":15423,"교체":15424,"##놓은":15425,"정체":15426,"뭐야":15427,"##질♬을":15428,"매국":15429,"안타깝":15430,"##티브":15431,"##로♬를":15432,"##상♬에":15433,"♬씩":15434,"##이라니":15435,"##었지만":15436,"##드♬의":15437,"##라지":15438,"개그":15439,"##점♬은":15440,"화려":15441,"##말♬을":15442,"모른다":15443,"세상♬에":15444,"대처":15445,"이♬들♬은":15446,"밀어":15447,"자리♬를":15448,"##료♬를":15449,"흥미":15450,"베이":15451,"길♬을":15452,"당국":15453,"##워크":15454,"우연":15455,"인재":15456,"인간♬들":15457,"쏟아":15458,"가게":15459,"##히는":15460,"떨어진":15461,"왜이":15462,"그렇다고":15463,"조국♬이":15464,"투쟁":15465,"웃기":15466,"여부":15467,"한다면":15468,"정주행":15469,"##안♬에":15470,"제1":15471,"비정":15472,"나쁘":15473,"할인":15474,"자아":15475,"##달러":15476,"스크":15477,"거기♬에":15478,"알아서":15479,"남은":15480,"있으":15481,"##경♬이":15482,"없지":15483,"야구":15484,"전날":15485,"학습":15486,"##원♬으로":15487,"집값":15488,"##것♬들♬이":15489,"데려":15490,"라인":15491,"##고♬를":15492,"관심♬이":15493,"불만":15494,"기울":15495,"정신차":15496,"최소한":15497,"대로":15498,"##하겠다":15499,"개소리":15500,"내세":15501,"사람♬들♬의":15502,"마지막♬에":15503,"예비":15504,"유시민":15505,"##본다":15506,"쓰러":15507,"장비":15508,"공산주의":15509,"##아치":15510,"꾸준히":15511,"화면":15512,"공모":15513,"##대학":15514,"##주♬는":15515,"한계":15516,"먹을":15517,"속도":15518,"##시길":15519,"말할":15520,"##사랑":15521,"##모리":15522,"패션":15523,"창조":15524,"고위":15525,"홈페이지":15526,"아니야":15527,"##금융":15528,"가능♬성":15529,"출전":15530,"편의":15531,"실질":15532,"생겨":15533,"박정희":15534,"아쉽":15535,"애♬들♬이":15536,"##금지":15537,"들어서":15538,"주문":15539,"미군":15540,"적어도":15541,"소리♬를":15542,"제거":15543,"이♬들":15544,"간단":15545,"1위":15546,"탄생":15547,"명령":15548,"공산당":15549,"말한다":15550,"정신병":15551,"이승":15552,"##댓글":15553,"이정도":15554,"최순":15555,"연습":15556,"##제품":15557,"##쪽♬으로":15558,"말한":15559,"지♬들♬이":15560,"##었습니다":15561,"##피소":15562,"검은":15563,"##일♬부터":15564,"상대♬로":15565,"##이♬들":15566,"윤석열":15567,"##되기":15568,"사이트":15569,"생각한다":15570,"원내":15571,"##놈♬이":15572,"좋을":15573,"설마":15574,"기독교":15575,"태극":15576,"##지기":15577,"##드♬는":15578,"아무런":15579,"반도체":15580,"##인가요":15581,"도덕":15582,"##하는지":15583,"##회의":15584,"부상":15585,"##로그":15586,"것♬들♬이":15587,"신기":15588,"기소":15589,"가해":15590,"공항":15591,"##사는":15592,"겨우":15593,"##리자":15594,"##격♬을":15595,"이른":15596,"창출":15597,"것♬들":15598,"이슈":15599,"생각합니다":15600,"나오고":15601,"##따라":15602,"제정":15603,"결코":15604,"카페":15605,"##임금":15606,"챙겨":15607,"##바이":15608,"##리♬로":15609,"##기간":15610,"##방♬에":15611,"무서운":15612,"보게":15613,"나왔다":15614,"옆♬에":15615,"안좋":15616,"##거면":15617,"##먹을":15618,"32":15619,"정은":15620,"입고":15621,"##하시는":15622,"전남":15623,"혼란":15624,"없으면":15625,"쇼핑":15626,"등등":15627,"대통령♬은":15628,"가까이":15629,"뻔뻔":15630,"사랑♬을":15631,"집권":15632,"강력한":15633,"실현":15634,"##지마라":15635,"상식":15636,"채널":15637,"체육":15638,"다루":15639,"이론":15640,"통계":15641,"소년":15642,"안돼":15643,"올랐":15644,"이혼":15645,"이벤트":15646,"의도":15647,"나오면":15648,"##소득":15649,"할아버":15650,"활약":15651,"##질♬이":15652,"##대회":15653,"수석":15654,"가야":15655,"알려졌":15656,"클럽":15657,"##소리♬를":15658,"##라♬가":15659,"유사":15660,"김영":15661,"모여":15662,"분명히":15663,"##야말로":15664,"보낸":15665,"다음♬화":15666,"##서관":15667,"##어야지":15668,"청문":15669,"##자체":15670,"##대가리":15671,"##진♬을":15672,"틀딱":15673,"떠오":15674,"##이라며":15675,"아저":15676,"##호♬가":15677,"SBS":15678,"근본":15679,"♬마다":15680,"더이상":15681,"계획이다":15682,"##항공":15683,"판사":15684,"주사":15685,"철학":15686,"##유♬의":15687,"취소":15688,"나경원":15689,"유튜브":15690,"##범죄":15691,"##기♬와":15692,"기타":15693,"안내":15694,"##친다":15695,"실력":15696,"불매":15697,"##메이션":15698,"##나가":15699,"2015년":15700,"물리":15701,"느낄":15702,"##점♬으로":15703,"오픈":15704,"억지":15705,"작가♬님♬이":15706,"못하게":15707,"##차♬를":15708,"간첩":15709,"죽여":15710,"압박":15711,"##들아":15712,"##남불":15713,"때♬마다":15714,"한화":15715,"앨범":15716,"않나":15717,"현금":15718,"##바닥":15719,"몰라":15720,"지상":15721,"가능하다":15722,"##까봐":15723,"소식":15724,"수학":15725,"##겠어":15726,"상장":15727,"##군♬의":15728,"칭찬":15729,"감성":15730,"방해":15731,"##구조":15732,"##분♬을":15733,"##진♬은":15734,"##경♬을":15735,"그♬들♬이":15736,"개입":15737,"##19":15738,"이외":15739,"미술":15740,"##거냐":15741,"인류":15742,"여주":15743,"##게임":15744,"끝내":15745,"애국":15746,"초딩":15747,"저번":15748,"잠깐":15749,"이용해":15750,"그곳":15751,"동시":15752,"지수":15753,"때려":15754,"##일♬까지":15755,"최대한":15756,"밑♬에":15757,"모두♬가":15758,"식♬으로":15759,"선배":15760,"피해♬를":15761,"등급":15762,"갖추":15763,"소환":15764,"이름♬이":15765,"##♬들♬로":15766,"추구":15767,"초등":15768,"##화점":15769,"##정치":15770,"오해":15771,"모른":15772,"##받을":15773,"광화":15774,"손가락":15775,"##상태":15776,"만한":15777,"미세먼지":15778,"2016년":15779,"관련된":15780,"리얼":15781,"가라":15782,"처음♬부터":15783,"##호♬를":15784,"출마":15785,"수수":15786,"##라우":15787,"확률":15788,"##평가":15789,"괴롭":15790,"전면":15791,"##던지":15792,"일부러":15793,"돌아오":15794,"##♬보다♬도":15795,"단순히":15796,"상위":15797,"동성":15798,"동아":15799,"##리트":15800,"수능":15801,"경우♬에♬는":15802,"이달":15803,"해소":15804,"아니지만":15805,"경우♬는":15806,"##거고":15807,"##♬짜리":15808,"뽑아":15809,"##회장":15810,"##TV":15811,"고백":15812,"##된다고":15813,"미디어":15814,"##♬님♬은":15815,"확장":15816,"당신♬은":15817,"복귀":15818,"빼고":15819,"##♬두":15820,"법원":15821,"##여자":15822,"##서♬가":15823,"분리":15824,"##럽게":15825,"##개♬가":15826,"아이템":15827,"##먹은":15828,"사람♬들♬을":15829,"장르":15830,"재밌게":15831,"없지만":15832,"어깨":15833,"국토":15834,"정도♬의":15835,"무한":15836,"키우":15837,"##기지":15838,"##라며":15839,"33":15840,"다를":15841,"##기에":15842,"##정♬은":15843,"살려":15844,"이것♬은":15845,"그리스":15846,"플랫":15847,"국무":15848,"##단다":15849,"##피스":15850,"##당히":15851,"##우♬는":15852,"주의":15853,"고향":15854,"증명":15855,"것이었다":15856,"안철":15857,"미국♬이":15858,"연계":15859,"아르":15860,"듯한":15861,"대부분♬의":15862,"196":15863,"##치게":15864,"##싶은":15865,"##인♬으로":15866,"34":15867,"##였는데":15868,"38":15869,"##종♬의":15870,"여유":15871,"##ar":15872,"다리":15873,"##없어":15874,"##♬화♬를":15875,"##♬보단":15876,"경쟁력":15877,"키워":15878,"많은데":15879,"청구":15880,"차이♬가":15881,"기생":15882,"감사합니다":15883,"에피소":15884,"팔아":15885,"보여주는":15886,"네트":15887,"##애♬들":15888,"하냐":15889,"전력":15890,"느낌♬이":15891,"니♬들♬은":15892,"정보♬를":15893,"진지":15894,"상호":15895,"오지":15896,"관람":15897,"느낀":15898,"평등":15899,"자전":15900,"종북":15901,"설득":15902,"오늘♬도":15903,"##치지":15904,"수원":15905,"거듭":15906,"##한번":15907,"##니깐":15908,"##주지":15909,"한국♬은":15910,"##든가":15911,"필요하다":15912,"저게":15913,"말이다":15914,"고발":15915,"##아니라":15916,"차단":15917,"##상♬은":15918,"왜냐":15919,"어려움":15920,"끝난":15921,"점♬에서":15922,"했고":15923,"##방♬을":15924,"과제":15925,"점검":15926,"아니지":15927,"##수수":15928,"모집":15929,"착각":15930,"수치":15931,"빠르":15932,"지옥":15933,"깊은":15934,"이웃":15935,"대놓고":15936,"정확히":15937,"한데":15938,"##상황":15939,"##복♬을":15940,"부품":15941,"한반도":15942,"박사":15943,"있었고":15944,"세상♬을":15945,"##거임":15946,"인공":15947,"99":15948,"갈수록":15949,"요리":15950,"바란다":15951,"영혼":15952,"갔다":15953,"##일♬은":15954,"2017년":15955,"##♬적이다":15956,"##로♬가":15957,"##되는데":15958,"대만":15959,"##♬층":15960,"##비아":15961,"커플":15962,"##로지":15963,"교과":15964,"##안♬이":15965,"참고♬로":15966,"진입":15967,"##or":15968,"힘내":15969,"##는거다":15970,"대변인":15971,"복잡":15972,"내고":15973,"##카오":15974,"청원":15975,"재난":15976,"##그리":15977,"##음♬이":15978,"##프라":15979,"##져라":15980,"♬한테":15981,"사실♬은":15982,"둘♬이":15983,"걸쳐":15984,"문빠":15985,"라헬":15986,"##버리":15987,"경우♬도":15988,"발사":15989,"떨어지":15990,"투자자":15991,"##적♬을":15992,"##시♬는":15993,"##어♬가":15994,"##긴다":15995,"##정♬에":15996,"반발":15997,"했으나":15998,"##♬자♬가":15999,"종류":16000,"겁나":16001,"때♬도":16002,"작가♬의":16003,"##뮤니":16004,"얼굴♬을":16005,"부활":16006,"뛰어난":16007,"국민♬은":16008,"성폭":16009,"찬성":16010,"바른":16011,"너♬도":16012,"매수":16013,"협박":16014,"##동생":16015,"북한♬이":16016,"공천":16017,"유도":16018,"물고":16019,"노출":16020,"빨간":16021,"대기":16022,"여야":16023,"분♬들":16024,"괜히":16025,"##이라서":16026,"##노총":16027,"보조":16028,"##터리":16029,"최강":16030,"5000":16031,"검증":16032,"1인":16033,"들었다":16034,"사귀":16035,"아이♬가":16036,"고등학교":16037,"성능":16038,"인가":16039,"했다고":16040,"지루":16041,"발휘":16042,"조선일보":16043,"##버스":16044,"그♬에":16045,"2014년":16046,"직후":16047,"완화":16048,"이란":16049,"착한":16050,"##보내":16051,"##배우":16052,"##히고":16053,"##가♬에":16054,"투기":16055,"배달":16056,"##있네":16057,"2018년":16058,"원전":16059,"00":16060,"후회":16061,"##사람♬들":16062,"##여행":16063,"가량":16064,"##드리":16065,"연구원":16066,"배뎃":16067,"필수":16068,"짱깨":16069,"##의식":16070,"생각하면":16071,"소방":16072,"것이라는":16073,"기회♬를":16074,"김대":16075,"할수":16076,"경상":16077,"줄어들":16078,"##장♬과":16079,"자영업":16080,"지휘":16081,"이지":16082,"화학":16083,"때♬까지":16084,"입학":16085,"한미":16086,"위안부":16087,"표시":16088,"협회":16089,"##그래":16090,"##때♬마다":16091,"고급":16092,"재무":16093,"아이디어":16094,"♬보고":16095,"몰려":16096,"##명♬으로":16097,"패배":16098,"죽어":16099,"유료":16100,"결제":16101,"투명":16102,"방사":16103,"##슬람":16104,"##직원":16105,"둘다":16106,"어야":16107,"##영상":16108,"멀리":16109,"##단♬의":16110,"했으며":16111,"##겠는데":16112,"인민":16113,"육성":16114,"KB":16115,"철저히":16116,"애니메이션":16117,"대다":16118,"둘째":16119,"##공사":16120,"손♬에":16121,"##되서":16122,"올린":16123,"##나면":16124,"##미터":16125,"답변":16126,"응답":16127,"최순실":16128,"내♬로":16129,"아닌가요":16130,"못한다":16131,"국립":16132,"중간♬에":16133,"그렇고":16134,"동기":16135,"멋진":16136,"비례":16137,"고정":16138,"##부대":16139,"##시절":16140,"어요":16141,"##줌마":16142,"##용♬이":16143,"연간":16144,"월드컵":16145,"이번♬화":16146,"배신":16147,"가을":16148,"제재":16149,"지하철":16150,"모르겠다":16151,"엄마♬가":16152,"돌파":16153,"거기♬서":16154,"##현♬이":16155,"법♬을":16156,"그러고":16157,"양성":16158,"다름":16159,"현대차":16160,"매장":16161,"##비♬는":16162,"좋지":16163,"보인":16164,"##♬란":16165,"자율":16166,"이런거":16167,"이것♬이":16168,"##피언":16169,"♬로부터":16170,"중국♬에":16171,"##었으면":16172,"부대":16173,"어릴":16174,"맞고":16175,"고마":16176,"##장면":16177,"##향♬이":16178,"순위":16179,"상황♬에":16180,"생각♬은":16181,"책임♬을":16182,"자존":16183,"탈출":16184,"날아":16185,"실업":16186,"##전♬의":16187,"얘기♬를":16188,"줄어":16189,"이탈리아":16190,"남한":16191,"##전쟁":16192,"스테":16193,"학원":16194,"옹호":16195,"##주♬에":16196,"조선족":16197,"이민":16198,"일본♬에":16199,"경고":16200,"균형":16201,"주지":16202,"2018":16203,"무려":16204,"파트":16205,"세종":16206,"자전거":16207,"##상♬의":16208,"노예":16209,"세워":16210,"##였고":16211,"##해주는":16212,"악화":16213,"대학생":16214,"감독♬은":16215,"##다시":16216,"단독":16217,"##함♬으로써":16218,"방지":16219,"##된다는":16220,"언젠":16221,"검찰개혁":16222,"상반기":16223,"아울":16224,"##NS":16225,"이야기♬가":16226,"보안":16227,"성인":16228,"식당":16229,"형사":16230,"의지":16231,"부분♬이":16232,"##스♬와":16233,"일찍":16234,"수단":16235,"헤어":16236,"그다":16237,"##소♬가":16238,"책♬을":16239,"##점♬에서":16240,"대법":16241,"##동♬을":16242,"것이고":16243,"올라가":16244,"누구♬나":16245,"분류":16246,"떨어져":16247,"동양":16248,"IT":16249,"##♬님♬의":16250,"신체":16251,"씨♬는":16252,"##렀다":16253,"마주":16254,"느꼈":16255,"능력♬을":16256,"개판":16257,"김성":16258,"마침":16259,"정신♬이":16260,"##았고":16261,"##미♬를":16262,"봅니다":16263,"보이고":16264,"##연♬이":16265,"청문회":16266,"대결":16267,"##더만":16268,"##자나":16269,"받지":16270,"넘는":16271,"수준♬이":16272,"텔레":16273,"동맹":16274,"배려":16275,"당사":16276,"존경":16277,"##스포":16278,"안♬에서":16279,"한명":16280,"삶♬의":16281,"얻어":16282,"털어":16283,"아웃":16284,"커뮤니":16285,"공약":16286,"한정":16287,"##데이":16288,"모를":16289,"기준♬으로":16290,"뒤♬로":16291,"##이던":16292,"##을텐데":16293,"##협회":16294,"입주":16295,"이다":16296,"##소리♬가":16297,"중인":16298,"##하지말고":16299,"페이스":16300,"##셔야":16301,"##스티":16302,"400":16303,"##년♬이":16304,"시나":16305,"유명한":16306,"들어간":16307,"##자산":16308,"##시♬를":16309,"도움♬을":16310,"데리고":16311,"새누리":16312,"##동♬이":16313,"마약":16314,"##♬으":16315,"비롯한":16316,"##연금":16317,"2012년":16318,"##세력":16319,
[...]
