{"version":"1.0","truncation":null,"padding":null,"added_tokens":[{"id":0,"special":true,"content":"<s>","single_word":false,"lstrip":false,"rstrip":false,"normalized":false},{"id":1,"special":true,"content":"<pad>","single_word":false,"lstrip":false,"rstrip":false,"normalized":false},{"id":2,"special":true,"content":"</s>","single_word":false,"lstrip":false,"rstrip":false,"normalized":false},{"id":3,"special":true,"content":"<unk>","single_word":false,"lstrip":false,"rstrip":false,"normalized":false},{"id":4,"special":true,"content":"<mask>","single_word":false,"lstrip":false,"rstrip":false,"normalized":false},{"id":5,"special":true,"content":"[UNK0]","single_word":false,"lstrip":false,"rstrip":false,"normalized":false},{"id":6,"special":true,"content":"[UNK1]","single_word":false,"lstrip":false,"rstrip":false,"normalized":false},{"id":7,"special":true,"content":"[UNK2]","single_word":false,"lstrip":false,"rstrip":false,"normalized":false},{"id":8,"special":true,"content":"[UNK3]","single_word":false,"lstrip":false,"rstrip":false,"normalized":false},{"id":9,"special":true,"content":"[UNK4]","single_word":false,"lstrip":false,"rstrip":false,"normalized":false},{"id":10,"special":true,"content":"[UNK5]","single_word":false,"lstrip":false,"rstrip":false,"normalized":false},{"id":11,"special":true,"content":"[UNK6]","single_word":false,"lstrip":false,"rstrip":false,"normalized":false},{"id":12,"special":true,"content":"[UNK7]","single_word":false,"lstrip":false,"rstrip":false,"normalized":false},{"id":13,"special":true,"content":"[UNK8]","single_word":false,"lstrip":false,"rstrip":false,"normalized":false},{"id":14,"special":true,"content":"[UNK9]","single_word":false,"lstrip":false,"rstrip":false,"normalized":false},{"id":15,"special":true,"content":"[unused0]","single_word":false,"lstrip":false,"rstrip":false,"normalized":false},{"id":16,"special":true,"content":"[unused1]","single_word":false,"lstrip":false,"rstrip":false,"normalized":false},{"id":17,"special":true,"content":"[unused2]","single_word":false,"lstrip":false,"rstrip":false,"normalized":false},{"id":18,"special":true,"content":"[unused3]","single_word":false,"lstrip":false,"rstrip":false,"normalized":false},{"id":19,"special":true,"content":"[unused4]","single_word":false,"lstrip":false,"rstrip":false,"normalized":false},{"id":20,"special":true,"content":"[unused5]","single_word":false,"lstrip":false,"rstrip":false,"normalized":false},{"id":21,"special":true,"content":"[unused6]","single_word":false,"lstrip":false,"rstrip":false,"normalized":false},{"id":22,"special":true,"content":"[unused7]","single_word":false,"lstrip":false,"rstrip":false,"normalized":false},{"id":23,"special":true,"content":"[unused8]","single_word":false,"lstrip":false,"rstrip":false,"normalized":false},{"id":24,"special":true,"content":"[unused9]","single_word":false,"lstrip":false,"rstrip":false,"normalized":false},{"id":25,"special":true,"content":"[unused10]","single_word":false,"lstrip":false,"rstrip":false,"normalized":false},{"id":26,"special":true,"content":"[unused11]","single_word":false,"lstrip":false,"rstrip":false,"normalized":false},{"id":27,"special":true,"content":"[unused12]","single_word":false,"lstrip":false,"rstrip":false,"normalized":false},{"id":28,"special":true,"content":"[unused13]","single_word":false,"lstrip":false,"rstrip":false,"normalized":false},{"id":29,"special":true,"content":"[unused14]","single_word":false,"lstrip":false,"rstrip":false,"normalized":false},{"id":30,"special":true,"content":"[unused15]","single_word":false,"lstrip":false,"rstrip":false,"normalized":false},{"id":31,"special":true,"content":"[unused16]","single_word":false,"lstrip":false,"rstrip":false,"normalized":false},{"id":32,"special":true,"content":"[unused17]","single_word":false,"lstrip":false,"rstrip":false,"normalized":false},{"id":33,"special":true,"content":"[unused18]","single_word":false,"lstrip":false,"rstrip":false,"normalized":false},{"id":34,"special":true,"content":"[unused19]","single_word":false,"lstrip":false,"rstrip":false,"normalized":false},{"id":35,"special":true,"content":"[unused20]","single_word":false,"lstrip":false,"rstrip":false,"normalized":false},{"id":36,"special":true,"content":"[unused21]","single_word":false,"lstrip":false,"rstrip":false,"normalized":false},{"id":37,"special":true,"content":"[unused22]","single_word":false,"lstrip":false,"rstrip":false,"normalized":false},{"id":38,"special":true,"content":"[unused23]","single_word":false,"lstrip":false,"rstrip":false,"normalized":false},{"id":39,"special":true,"content":"[unused24]","single_word":false,"lstrip":false,"rstrip":false,"normalized":false},{"id":40,"special":true,"content":"[unused25]","single_word":false,"lstrip":false,"rstrip":false,"normalized":false},{"id":41,"special":true,"content":"[unused26]","single_word":false,"lstrip":false,"rstrip":false,"normalized":false},{"id":42,"special":true,"content":"[unused27]","single_word":false,"lstrip":false,"rstrip":false,"normalized":false},{"id":43,"special":true,"content":"[unused28]","single_word":false,"lstrip":false,"rstrip":false,"normalized":false},{"id":44,"special":true,"content":"[unused29]","single_word":false,"lstrip":false,"rstrip":false,"normalized":false},{"id":45,"special":true,"content":"[unused30]","single_word":false,"lstrip":false,"rstrip":false,"normalized":false},{"id":46,"special":true,"content":"[unused31]","single_word":false,"lstrip":false,"rstrip":false,"normalized":false},{"id":47,"special":true,"content":"[unused32]","single_word":false,"lstrip":false,"rstrip":false,"normalized":false},{"id":48,"special":true,"content":"[unused33]","single_word":false,"lstrip":false,"rstrip":false,"normalized":false},{"id":49,"special":true,"content":"[unused34]","single_word":false,"lstrip":false,"rstrip":false,"normalized":false},{"id":50,"special":true,"content":"[unused35]","single_word":false,"lstrip":false,"rstrip":false,"normalized":false},{"id":51,"special":true,"content":"[unused36]","single_word":false,"lstrip":false,"rstrip":false,"normalized":false},{"id":52,"special":true,"content":"[unused37]","single_word":false,"lstrip":false,"rstrip":false,"normalized":false},{"id":53,"special":true,"content":"[unused38]","single_word":false,"lstrip":false,"rstrip":false,"normalized":false},{"id":54,"special":true,"content":"[unused39]","single_word":false,"lstrip":false,"rstrip":false,"normalized":false},{"id":55,"special":true,"content":"[unused40]","single_word":false,"lstrip":false,"rstrip":false,"normalized":false},{"id":56,"special":true,"content":"[unused41]","single_word":false,"lstrip":false,"rstrip":false,"normalized":false},{"id":57,"special":true,"content":"[unused42]","single_word":false,"lstrip":false,"rstrip":false,"normalized":false},{"id":58,"special":true,"content":"[unused43]","single_word":false,"lstrip":false,"rstrip":false,"normalized":false},{"id":59,"special":true,"content":"[unused44]","single_word":false,"lstrip":false,"rstrip":false,"normalized":false},{"id":60,"special":true,"content":"[unused45]","single_word":false,"lstrip":false,"rstrip":false,"normalized":false},{"id":61,"special":true,"content":"[unused46]","single_word":false,"lstrip":false,"rstrip":false,"normalized":false},{"id":62,"special":true,"content":"[unused47]","single_word":false,"lstrip":false,"rstrip":false,"normalized":false},{"id":63,"special":true,"content":"[unused48]","single_word":false,"lstrip":false,"rstrip":false,"normalized":false},{"id":64,"special":true,"content":"[unused49]","single_word":false,"lstrip":false,"rstrip":false,"normalized":false},{"id":65,"special":true,"content":"[unused50]","single_word":false,"lstrip":false,"rstrip":false,"normalized":false},{"id":66,"special":true,"content":"[unused51]","single_word":false,"lstrip":false,"rstrip":false,"normalized":false},{"id":67,"special":true,"content":"[unused52]","single_word":false,"lstrip":false,"rstrip":false,"normalized":false},{"id":68,"special":true,"content":"[unused53]","single_word":false,"lstrip":false,"rstrip":false,"normalized":false},{"id":69,"special":true,"content":"[unused54]","single_word":false,"lstrip":false,"rstrip":false,"normalized":false},{"id":70,"special":true,"content":"[unused55]","single_word":false,"lstrip":false,"rstrip":false,"normalized":false},{"id":71,"special":true,"content":"[unused56]","single_word":false,"lstrip":false,"rstrip":false,"normalized":false},{"id":72,"special":true,"content":"[unused57]","single_word":false,"lstrip":false,"rstrip":false,"normalized":false},{"id":73,"special":true,"content":"[unused58]","single_word":false,"lstrip":false,"rstrip":false,"normalized":false},{"id":74,"special":true,"content":"[unused59]","single_word":false,"lstrip":false,"rstrip":false,"normalized":false},{"id":75,"special":true,"content":"[unused60]","single_word":false,"lstrip":false,"rstrip":false,"normalized":false},{"id":76,"special":true,"content":"[unused61]","single_word":false,"lstrip":false,"rstrip":false,"normalized":false},{"id":77,"special":true,"content":"[unused62]","single_word":false,"lstrip":false,"rstrip":false,"normalized":false},{"id":78,"special":true,"content":"[unused63]","single_word":false,"lstrip":false,"rstrip":false,"normalized":false},{"id":79,"special":true,"content":"[unused64]","single_word":false,"lstrip":false,"rstrip":false,"normalized":false},{"id":80,"special":true,"content":"[unused65]","single_word":false,"lstrip":false,"rstrip":false,"normalized":false},{"id":81,"special":true,"content":"[unused66]","single_word":false,"lstrip":false,"rstrip":false,"normalized":false},{"id":82,"special":true,"content":"[unused67]","single_word":false,"lstrip":false,"rstrip":false,"normalized":false},{"id":83,"special":true,"content":"[unused68]","single_word":false,"lstrip":false,"rstrip":false,"normalized":false},{"id":84,"special":true,"content":"[unused69]","single_word":false,"lstrip":false,"rstrip":false,"normalized":false},{"id":85,"special":true,"content":"[unused70]","single_word":false,"lstrip":false,"rstrip":false,"normalized":false},{"id":86,"special":true,"content":"[unused71]","single_word":false,"lstrip":false,"rstrip":false,"normalized":false},{"id":87,"special":true,"content":"[unused72]","single_word":false,"lstrip":false,"rstrip":false,"normalized":false},{"id":88,"special":true,"content":"[unused73]","single_word":false,"lstrip":false,"rstrip":false,"normalized":false},{"id":89,"special":true,"content":"[unused74]","single_word":false,"lstrip":false,"rstrip":false,"normalized":false},{"id":90,"special":true,"content":"[unused75]","single_word":false,"lstrip":false,"rstrip":false,"normalized":false},{"id":91,"special":true,"content":"[unused76]","single_word":false,"lstrip":false,"rstrip":false,"normalized":false},{"id":92,"special":true,"content":"[unused77]","single_word":false,"lstrip":false,"rstrip":false,"normalized":false},{"id":93,"special":true,"content":"[unused78]","single_word":false,"lstrip":false,"rstrip":false,"normalized":false},{"id":94,"special":true,"content":"[unused79]","single_word":false,"lstrip":false,"rstrip":false,"normalized":false},{"id":95,"special":true,"content":"[unused80]","single_word":false,"lstrip":false,"rstrip":false,"normalized":false},{"id":96,"special":true,"content":"[unused81]","single_word":false,"lstrip":false,"rstrip":false,"normalized":false},{"id":97,"special":true,"content":"[unused82]","single_word":false,"lstrip":false,"rstrip":false,"normalized":false},{"id":98,"special":true,"content":"[unused83]","single_word":false,"lstrip":false,"rstrip":false,"normalized":false},{"id":99,"special":true,"content":"[unused84]","single_word":false,"lstrip":false,"rstrip":false,"normalized":false},{"id":100,"special":true,"content":"[unused85]","single_word":false,"lstrip":false,"rstrip":false,"normalized":false},{"id":101,"special":true,"content":"[unused86]","single_word":false,"lstrip":false,"rstrip":false,"normalized":false},{"id":102,"special":true,"content":"[unused87]","single_word":false,"lstrip":false,"rstrip":false,"normalized":false},{"id":103,"special":true,"content":"[unused88]","single_word":false,"lstrip":false,"rstrip":false,"normalized":false},{"id":104,"special":true,"content":"[unused89]","single_word":false,"lstrip":false,"rstrip":false,"normalized":false},{"id":105,"special":true,"content":"[unused90]","single_word":false,"lstrip":false,"rstrip":false,"normalized":false},{"id":106,"special":true,"content":"[unused91]","single_word":false,"lstrip":false,"rstrip":false,"normalized":false},{"id":107,"special":true,"content":"[unused92]","single_word":false,"lstrip":false,"rstrip":false,"normalized":false},{"id":108,"special":true,"content":"[unused93]","single_word":false,"lstrip":false,"rstrip":false,"normalized":false},{"id":109,"special":true,"content":"[unused94]","single_word":false,"lstrip":false,"rstrip":false,"normalized":false},{"id":110,"special":true,"content":"[unused95]","single_word":false,"lstrip":false,"rstrip":false,"normalized":false},{"id":111,"special":true,"content":"[unused96]","single_word":false,"lstrip":false,"rstrip":false,"normalized":false},{"id":112,"special":true,"content":"[unused97]","single_word":false,"lstrip":false,"rstrip":false,"normalized":false},{"id":113,"special":true,"content":"[unused98]","single_word":false,"lstrip":false,"rstrip":false,"normalized":false},{"id":114,"special":true,"content":"[unused99]","single_word":false,"lstrip":false,"rstrip":false,"normalized":false},{"id":115,"special":true,"content":"[unused100]","single_word":false,"lstrip":false,"rstrip":false,"normalized":false},{"id":116,"special":true,"content":"[unused101]","single_word":false,"lstrip":false,"rstrip":false,"normalized":false},{"id":117,"special":true,"content":"[unused102]","single_word":false,"lstrip":false,"rstrip":false,"normalized":false},{"id":118,"special":true,"content":"[unused103]","single_word":false,"lstrip":false,"rstrip":false,"normalized":false},{"id":119,"special":true,"content":"[unused104]","single_word":false,"lstrip":false,"rstrip":false,"normalized":false},{"id":120,"special":true,"content":"[unused105]","single_word":false,"lstrip":false,"rstrip":false,"normalized":false},{"id":121,"special":true,"content":"[unused106]","single_word":false,"lstrip":false,"rstrip":false,"normalized":false},{"id":122,"special":true,"content":"[unused107]","single_word":false,"lstrip":false,"rstrip":false,"normalized":false},{"id":123,"special":true,"content":"[unused108]","single_word":false,"lstrip":false,"rstrip":false,"normalized":false},{"id":124,"special":true,"content":"[unused109]","single_word":false,"lstrip":false,"rstrip":false,"normalized":false},{"id":125,"special":true,"content":"[unused110]","single_word":false,"lstrip":false,"rstrip":false,"normalized":false},{"id":126,"special":true,"content":"[unused111]","single_word":false,"lstrip":false,"rstrip":false,"normalized":false},{"id":127,"special":true,"content":"[unused112]","single_word":false,"lstrip":false,"rstrip":false,"normalized":false},{"id":128,"special":true,"content":"[unused113]","single_word":false,"lstrip":false,"rstrip":false,"normalized":false},{"id":129,"special":true,"content":"[unused114]","single_word":false,"lstrip":false,"rstrip":false,"normalized":false},{"id":130,"special":true,"content":"[unused115]","single_word":false,"lstrip":false,"rstrip":false,"normalized":false},{"id":131,"special":true,"content":"[unused116]","single_word":false,"lstrip":false,"rstrip":false,"normalized":false},{"id":132,"special":true,"content":"[unused117]","single_word":false,"lstrip":false,"rstrip":false,"normalized":false},{"id":133,"special":true,"content":"[unused118]","single_word":false,"lstrip":false,"rstrip":false,"normalized":false},{"id":134,"special":true,"content":"[unused119]","single_word":false,"lstrip":false,"rstrip":false,"normalized":false},{"id":135,"special":true,"content":"[unused120]","single_word":false,"lstrip":false,"rstrip":false,"normalized":false},{"id":136,"special":true,"content":"[unused121]","single_word":false,"lstrip":false,"rstrip":false,"normalized":false},{"id":137,"special":true,"content":"[unused122]","single_word":false,"lstrip":false,"rstrip":false,"normalized":false},{"id":138,"special":true,"content":"[unused123]","single_word":false,"lstrip":false,"rstrip":false,"normalized":false},{"id":139,"special":true,"content":"[unused124]","single_word":false,"lstrip":false,"rstrip":false,"normalized":false},{"id":140,"special":true,"content":"[unused125]","single_word":false,"lstrip":false,"rstrip":false,"normalized":false},{"id":141,"special":true,"content":"[unused126]","single_word":false,"lstrip":false,"rstrip":false,"normalized":false},{"id":142,"special":true,"content":"[unused127]","single_word":false,"lstrip":false,"rstrip":false,"normalized":false},{"id":143,"special":true,"content":"[unused128]","single_word":false,"lstrip":false,"rstrip":false,"normalized":false},{"id":144,"special":true,"content":"[unused129]","single_word":false,"lstrip":false,"rstrip":false,"normalized":false},{"id":145,"special":true,"content":"[unused130]","single_word":false,"lstrip":false,"rstrip":false,"normalized":false},{"id":146,"special":true,"content":"[unused131]","single_word":false,"lstrip":false,"rstrip":false,"normalized":false},{"id":147,"special":true,"content":"[unused132]","single_word":false,"lstrip":false,"rstrip":false,"normalized":false},{"id":148,"special":true,"content":"[unused133]","single_word":false,"lstrip":false,"rstrip":false,"normalized":false},{"id":149,"special":true,"content":"[unused134]","single_word":false,"lstrip":false,"rstrip":false,"normalized":false},{"id":150,"special":true,"content":"[unused135]","single_word":false,"lstrip":false,"rstrip":false,"normalized":false},{"id":151,"special":true,"content":"[unused136]","single_word":false,"lstrip":false,"rstrip":false,"normalized":false},{"id":152,"special":true,"content":"[unused137]","single_word":false,"lstrip":false,"rstrip":false,"normalized":false},{"id":153,"special":true,"content":"[unused138]","single_word":false,"lstrip":false,"rstrip":false,"normalized":false},{"id":154,"special":true,"content":"[unused139]","single_word":false,"lstrip":false,"rstrip":false,"normalized":false},{"id":155,"special":true,"content":"[unused140]","single_word":false,"lstrip":false,"rstrip":false,"normalized":false},{"id":156,"special":true,"content":"[unused141]","single_word":false,"lstrip":false,"rstrip":false,"normalized":false},{"id":157,"special":true,"content":"[unused142]","single_word":false,"lstrip":false,"rstrip":false,"normalized":false},{"id":158,"special":true,"content":"[unused143]","single_word":false,"lstrip":false,"rstrip":false,"normalized":false},{"id":159,"special":true,"content":"[unused144]","single_word":false,"lstrip":false,"rstrip":false,"normalized":false},{"id":160,"special":true,"content":"[unused145]","single_word":false,"lstrip":false,"rstrip":false,"normalized":false},{"id":161,"special":true,"content":"[unused146]","single_word":false,"lstrip":false,"rstrip":false,"normalized":false},{"id":162,"special":true,"content":"[unused147]","single_word":false,"lstrip":false,"rstrip":false,"normalized":false},{"id":163,"special":true,"content":"[unused148]","single_word":false,"lstrip":false,"rstrip":false,"normalized":false},{"id":164,"special":true,"content":"[unused149]","single_word":false,"lstrip":false,"rstrip":false,"normalized":false},{"id":165,"special":true,"content":"[unused150]","single_word":false,"lstrip":false,"rstrip":false,"normalized":false},{"id":166,"special":true,"content":"[unused151]","single_word":false,"lstrip":false,"rstrip":false,"normalized":false},{"id":167,"special":true,"content":"[unused152]","single_word":false,"lstrip":false,"rstrip":false,"normalized":false},{"id":168,"special":true,"content":"[unused153]","single_word":false,"lstrip":false,"rstrip":false,"normalized":false},{"id":169,"special":true,"content":"[unused154]","single_word":false,"lstrip":false,"rstrip":false,"normalized":false},{"id":170,"special":true,"content":"[unused155]","single_word":false,"lstrip":false,"rstrip":false,"normalized":false},{"id":171,"special":true,"content":"[unused156]","single_word":false,"lstrip":false,"rstrip":false,"normalized":false},{"id":172,"special":true,"content":"[unused157]","single_word":false,"lstrip":false,"rstrip":false,"normalized":false},{"id":173,"special":true,"content":"[unused158]","single_word":false,"lstrip":false,"rstrip":false,"normalized":false},{"id":174,"special":true,"content":"[unused159]","single_word":false,"lstrip":false,"rstrip":false,"normalized":false},{"id":175,"special":true,"content":"[unused160]","single_word":false,"lstrip":false,"rstrip":false,"normalized":false},{"id":176,"special":true,"content":"[unused161]","single_word":false,"lstrip":false,"rstrip":false,"normalized":false},{"id":177,"special":true,"content":"[unused162]","single_word":false,"lstrip":false,"rstrip":false,"normalized":false},{"id":178,"special":true,"content":"[unused163]","single_word":false,"lstrip":false,"rstrip":false,"normalized":false},{"id":179,"special":true,"content":"[unused164]","single_word":false,"lstrip":false,"rstrip":false,"normalized":false},{"id":180,"special":true,"content":"[unused165]","single_word":false,"lstrip":false,"rstrip":false,"normalized":false},{"id":181,"special":true,"content":"[unused166]","single_word":false,"lstrip":false,"rstrip":false,"normalized":false},{"id":182,"special":true,"content":"[unused167]","single_word":false,"lstrip":false,"rstrip":false,"normalized":false},{"id":183,"special":true,"content":"[unused168]","single_word":false,"lstrip":false,"rstrip":false,"normalized":false},{"id":184,"special":true,"content":"[unused169]","single_word":false,"lstrip":false,"rstrip":false,"normalized":false},{"id":185,"special":true,"content":"[unused170]","single_word":false,"lstrip":false,"rstrip":false,"normalized":false},{"id":186,"special":true,"content":"[unused171]","single_word":false,"lstrip":false,"rstrip":false,"normalized":false},{"id":187,"special":true,"content":"[unused172]","single_word":false,"lstrip":false,"rstrip":false,"normalized":false},{"id":188,"special":true,"content":"[unused173]","single_word":false,"lstrip":false,"rstrip":false,"normalized":false},{"id":189,"special":true,"content":"[unused174]","single_word":false,"lstrip":false,"rstrip":false,"normalized":false},{"id":190,"special":true,"content":"[unused175]","single_word":false,"lstrip":false,"rstrip":false,"normalized":false},{"id":191,"special":true,"content":"[unused176]","single_word":false,"lstrip":false,"rstrip":false,"normalized":false},{"id":192,"special":true,"content":"[unused177]","single_word":false,"lstrip":false,"rstrip":false,"normalized":false},{"id":193,"special":true,"content":"[unused178]","single_word":false,"lstrip":false,"rstrip":false,"normalized":false},{"id":194,"special":true,"content":"[unused179]","single_word":false,"lstrip":false,"rstrip":false,"normalized":false},{"id":195,"special":true,"content":"[unused180]","single_word":false,"lstrip":false,"rstrip":false,"normalized":false},{"id":196,"special":true,"content":"[unused181]","single_word":false,"lstrip":false,"rstrip":false,"normalized":false},{"id":197,"special":true,"content":"[unused182]","single_word":false,"lstrip":false,"rstrip":false,"normalized":false},{"id":198,"special":true,"content":"[unused183]","single_word":false,"lstrip":false,"rstrip":false,"normalized":false},{"id":199,"special":true,"content":"[unused184]","single_word":false,"lstrip":false,"rstrip":false,"normalized":false},{"id":200,"special":true,"content":"[unused185]","single_word":false,"lstrip":false,"rstrip":false,"normalized":false},{"id":201,"special":true,"content":"[unused186]","single_word":false,"lstrip":false,"rstrip":false,"normalized":false},{"id":202,"special":true,"content":"[unused187]","single_word":false,"lstrip":false,"rstrip":false,"normalized":false},{"id":203,"special":true,"content":"[unused188]","single_word":false,"lstrip":false,"rstrip":false,"normalized":false},{"id":204,"special":true,"content":"[unused189]","single_word":false,"lstrip":false,"rstrip":false,"normalized":false},{"id":205,"special":true,"content":"[unused190]","single_word":false,"lstrip":false,"rstrip":false,"normalized":false},{"id":206,"special":true,"content":"[unused191]","single_word":false,"lstrip":false,"rstrip":false,"normalized":false},{"id":207,"special":true,"content":"[unused192]","single_word":false,"lstrip":false,"rstrip":false,"normalized":false},{"id":208,"special":true,"content":"[unused193]","single_word":false,"lstrip":false,"rstrip":false,"normalized":false},{"id":209,"special":true,"content":"[unused194]","single_word":false,"lstrip":false,"rstrip":false,"normalized":false},{"id":210,"special":true,"content":"[unused195]","single_word":false,"lstrip":false,"rstrip":false,"normalized":false},{"id":211,"special":true,"content":"[unused196]","single_word":false,"lstrip":false,"rstrip":false,"normalized":false},{"id":212,"special":true,"content":"[unused197]","single_word":false,"lstrip":false,"rstrip":false,"normalized":false},{"id":213,"special":true,"content":"[unused198]","single_word":false,"lstrip":false,"rstrip":false,"normalized":false},{"id":214,"special":true,"content":"[unused199]","single_word":false,"lstrip":false,"rstrip":false,"normalized":false}],"normalizer":{"type":"BertNormalizer","clean_text":true,"handle_chinese_chars":true,"strip_accents":false,"lowercase":false},"pre_tokenizer":{"type":"BertPreTokenizer"},"post_processor":null,"decoder":{"type":"WordPiece","prefix":"##","cleanup":true},"model":{"type":"WordPiece","unk_token":"[UNK]","continuing_subword_prefix":"##","max_input_chars_per_word":100,"vocab":{"<s>":0,"<pad>":1,"</s>":2,"<unk>":3,"<mask>":4,"[UNK0]":5,"[UNK1]":6,"[UNK2]":7,"[UNK3]":8,"[UNK4]":9,"[UNK5]":10,"[UNK6]":11,"[UNK7]":12,"[UNK8]":13,"[UNK9]":14,"[unused0]":15,"[unused1]":16,"[unused2]":17,"[unused3]":18,"[unused4]":19,"[unused5]":20,"[unused6]":21,"[unused7]":22,"[unused8]":23,"[unused9]":24,"[unused10]":25,"[unused11]":26,"[unused12]":27,"[unused13]":28,"[unused14]":29,"[unused15]":30,"[unused16]":31,"[unused17]":32,"[unused18]":33,"[unused19]":34,"[unused20]":35,"[unused21]":36,"[unused22]":37,"[unused23]":38,"[unused24]":39,"[unused25]":40,"[unused26]":41,"[unused27]":42,"[unused28]":43,"[unused29]":44,"[unused30]":45,"[unused31]":46,"[unused32]":47,"[unused33]":48,"[unused34]":49,"[unused35]":50,"[unused36]":51,"[unused37]":52,"[unused38]":53,"[unused39]":54,"[unused40]":55,"[unused41]":56,"[unused42]":57,"[unused43]":58,"[unused44]":59,"[unused45]":60,"[unused46]":61,"[unused47]":62,"[unused48]":63,"[unused49]":64,"[unused50]":65,"[unused51]":66,"[unused52]":67,"[unused53]":68,"[unused54]":69,"[unused55]":70,"[unused56]":71,"[unused57]":72,"[unused58]":73,"[unused59]":74,"[unused60]":75,"[unused61]":76,"[unused62]":77,"[unused63]":78,"[unused64]":79,"[unused65]":80,"[unused66]":81,"[unused67]":82,"[unused68]":83,"[unused69]":84,"[unused70]":85,"[unused71]":86,"[unused72]":87,"[unused73]":88,"[unused74]":89,"[unused75]":90,"[unused76]":91,"[unused77]":92,"[unused78]":93,"[unused79]":94,"[unused80]":95,"[unused81]":96,"[unused82]":97,"[unused83]":98,"[unused84]":99,"[unused85]":100,"[unused86]":101,"[unused87]":102,"[unused88]":103,"[unused89]":104,"[unused90]":105,"[unused91]":106,"[unused92]":107,"[unused93]":108,"[unused94]":109,"[unused95]":110,"[unused96]":111,"[unused97]":112,"[unused98]":113,"[unused99]":114,"[unused100]":115,"[unused101]":116,"[unused102]":117,"[unused103]":118,"[unused104]":119,"[unused105]":120,"[unused106]":121,"[unused107]":122,"[unused108]":123,"[unused109]":124,"[unused110]":125,"[unused111]":126,"[unused112]":127,"[unused113]":128,"[unused114]":129,"[unused115]":130,"[unused116]":131,"[unused117]":132,"[unused118]":133,"[unused119]":134,"[unused120]":135,"[unused121]":136,"[unused122]":137,"[unused123]":138,"[unused124]":139,"[unused125]":140,"[unused126]":141,"[unused127]":142,"[unused128]":143,"[unused129]":144,"[unused130]":145,"[unused131]":146,"[unused132]":147,"[unused133]":148,"[unused134]":149,"[unused135]":150,"[unused136]":151,"[unused137]":152,"[unused138]":153,"[unused139]":154,"[unused140]":155,"[unused141]":156,"[unused142]":157,"[unused143]":158,"[unused144]":159,"[unused145]":160,"[unused146]":161,"[unused147]":162,"[unused148]":163,"[unused149]":164,"[unused150]":165,"[unused151]":166,"[unused152]":167,"[unused153]":168,"[unused154]":169,"[unused155]":170,"[unused156]":171,"[unused157]":172,"[unused158]":173,"[unused159]":174,"[unused160]":175,"[unused161]":176,"[unused162]":177,"[unused163]":178,"[unused164]":179,"[unused165]":180,"[unused166]":181,"[unused167]":182,"[unused168]":183,"[unused169]":184,"[unused170]":185,"[unused171]":186,"[unused172]":187,"[unused173]":188,"[unused174]":189,"[unused175]":190,"[unused176]":191,"[unused177]":192,"[unused178]":193,"[unused179]":194,"[unused180]":195,"[unused181]":196,"[unused182]":197,"[unused183]":198,"[unused184]":199,"[unused185]":200,"[unused186]":201,"[unused187]":202,"[unused188]":203,"[unused189]":204,"[unused190]":205,"[unused191]":206,"[unused192]":207,"[unused193]":208,"[unused194]":209,"[unused195]":210,"[unused196]":211,"[unused197]":212,"[unused198]":213,"[unused199]":214,"!":215,"\"":216,"%":217,"'":218,",":219,"-":220,".":221,"/":222,"0":223,"1":224,"2":225,"3":226,"4":227,"5":228,"6":229,"7":230,"8":231,"9":232,":":233,"?":234,"@":235,"A":236,"B":237,"C":238,"D":239,"E":240,"F":241,"G":242,"H":243,"I":244,"J":245,"K":246,"L":247,"M":248,"N":249,"O":250,"P":251,"Q":252,"R":253,"S":254,"T":255,"U":256,"V":257,"W":258,"X":259,"Y":260,"Z":261,"a":262,"b":263,"c":264,"d":265,"e":266,"f":267,"g":268,"h":269,"i":270,"j":271,"k":272,"l":273,"m":274,"n":275,"o":276,"p":277,"q":278,"r":279,"s":280,"t":281,"u":282,"v":283,"w":284,"x":285,"y":286,"z":287,"~":288,"·":289,"♬":290,"가":291,"각":292,"갂":293,"갃":294,"간":295,"갅":296,"갆":297,"갇":298,"갈":299,"갉":300,"갊":301,"갋":302,"갌":303,"갍":304,"갎":305,"갏":306,"감":307,"갑":308,"값":309,"갓":310,"갔":311,"강":312,"갖":313,"갗":314,"갘":315,"같":316,"갚":317,"갛":318,"개":319,"객":320,"갞":321,"갟":322,"갠":323,"갢":324,"갣":325,"갤":326,"갥":327,"갧":328,"갩":329,"갫":330,"갬":331,"갭":332,"갮":333,"갯":334,"갰":335,"갱":336,"갲":337,"갳":338,"갴":339,"갵":340,"갶":341,"갷":342,"갸":343,"갹":344,"갺":345,"갼":346,"갿":347,"걀":348,"걁":349,"걃":350,"걆":351,"걇":352,"걈":353,"걉":354,"걊":355,"걋":356,"걌":357,"걍":358,"걎":359,"걐":360,"걑":361,"걒":362,"걓":363,"걔":364,"걕":365,"걖":366,"걘":367,"걜":368,"걤":369,"걥":370,"걧":371,"걨":372,"걩":373,"걬":374,"걭":375,"거":376,"걱":377,"걲":378,"걳":379,"건":380,"걵":381,"걶":382,"걷":383,"걸":384,"걹":385,"걺":386,"걻":387,"걼":388,"걽":389,"걾":390,"걿":391,"검":392,"겁":393,"겂":394,"것":395,"겄":396,"겅":397,"겆":398,"겇":399,"겈":400,"겉":401,"겊":402,"겋":403,"게":404,"겍":405,"겎":406,"겏":407,"겐":408,"겒":409,"겓":410,"겔":411,"겕":412,"겗":413,"겙":414,"겚":415,"겛":416,"겜":417,"겝":418,"겞":419,"겟":420,"겠":421,"겡":422,"겢":423,"겣":424,"겤":425,"겥":426,"겦":427,"겧":428,"겨":429,"격":430,"겪":431,"겫":432,"견":433,"겭":434,"겮":435,"겯":436,"결":437,"겱":438,"겲":439,"겳":440,"겴":441,"겵":442,"겷":443,"겸":444,"겹":445,"겺":446,"겻":447,"겼":448,"경":449,"겾":450,"겿":451,"곀":452,"곁":453,"곂":454,"곃":455,"계":456,"곅":457,"곆":458,"곈":459,"곋":460,"곌":461,"곔":462,"곕":463,"곖":464,"곗":465,"곘":466,"곙":467,"곚":468,"곛":469,"곜":470,"곝":471,"곟":472,"고":473,"곡":474,"곢":475,"곣":476,"곤":477,"곥":478,"곧":479,"골":480,"곩":481,"곪":482,"곫":483,"곬":484,"곭":485,"곮":486,"곯":487,"곰":488,"곱":489,"곲":490,"곳":491,"곴":492,"공":493,"곶":494,"곷":495,"곸":496,"곹":497,"곺":498,"곻":499,"과":500,"곽":501,"관":502,"괁":503,"괂":504,"괃":505,"괄":506,"괅":507,"괌":508,"괍":509,"괏":510,"괐":511,"광":512,"괒":513,"괓":514,"괔":515,"괕":516,"괖":517,"괗":518,"괘":519,"괙":520,"괜":521,"괝":522,"괞":523,"괠":524,"괨":525,"괫":526,"괬":527,"괭":528,"괴":529,"괵":530,"괸":531,"괺":532,"괼":533,"굄":534,"굅":535,"굇":536,"굈":537,"굉":538,"굌":539,"굎":540,"교":541,"굑":542,"굔":543,"굗":544,"굘":545,"굚":546,"굠":547,"굡":548,"굣":549,"굤":550,"굥":551,"굦":552,"굧":553,"굨":554,"굩":555,"굪":556,"굫":557,"구":558,"국":559,"굮":560,"굯":561,"군":562,"굱":563,"굲":564,"굳":565,"굴":566,"굵":567,"굶":568,"굷":569,"굺":570,"굻":571,"굼":572,"굽":573,"굾":574,"굿":575,"궀":576,"궁":577,"궂":578,"궃":579,"궄":580,"궅":581,"궆":582,"궇":583,"궈":584,"궉":585,"권":586,"궍":587,"궏":588,"궐":589,"궑":590,"궓":591,"궘":592,"궙":593,"궛":594,"궜":595,"궝":596,"궠":597,"궤":598,"궥":599,"궨":600,"궬":601,"궭":602,"궮":603,"궯":604,"궲":605,"궳":606,"궵":607,"궷":608,"궸":609,"궹":610,"귀":611,"귁":612,"귄":613,"귇":614,"귈":615,"귐":616,"귑":617,"귓":618,"귔":619,"귕":620,"귖":621,"귘":622,"귛":623,"규":624,"귝":625,"균":626,"귣":627,"귤":628,"귥":629,"귦":630,"귬":631,"귭":632,"귯":633,"귱":634,"귴":635,"귷":636,"그":637,"극":638,"귺":639,"귻":640,"근":641,"귽":642,"귾":643,"귿":644,"글":645,"긁":646,"긂":647,"긃":648,"긄":649,"긆":650,"긇":651,"금":652,"급":653,"긊":654,"긋":655,"긌":656,"긍":657,"긎":658,"긏":659,"긐":660,"긑":661,"긒":662,"긓":663,"긔":664,"긕":665,"긘":666,"긛":667,"긜":668,"긞":669,"긤":670,"긥":671,"긧":672,"긩":673,"긪":674,"긬":675,"긯":676,"기":677,"긱":678,"긲":679,"긴":680,"긵":681,"긶":682,"긷":683,"길":684,"긹":685,"긺":686,"긻":687,"긼":688,"긿":689,"김":690,"깁":691,"깂":692,"깃":693,"깄":694,"깅":695,"깆":696,"깇":697,"깈":698,"깉":699,"깊":700,"깋":701,"까":702,"깍":703,"깎":704,"깐":705,"깑":706,"깒":707,"깓":708,"깔":709,"깕":710,"깖":711,"깗":712,"깛":713,"깜":714,"깝":715,"깞":716,"깟":717,"깠":718,"깡":719,"깢":720,"깣":721,"깤":722,"깥":723,"깦":724,"깧":725,"깨":726,"깩":727,"깪":728,"깬":729,"깯":730,"깰":731,"깱":732,"깵":733,"깸":734,"깹":735,"깺":736,"깻":737,"깼":738,"깽":739,"깾":740,"꺀":741,"꺄":742,"꺅":743,"꺆":744,"꺈":745,"꺊":746,"꺋":747,"꺌":748,"꺍":749,"꺏":750,"꺓":751,"꺔":752,"꺕":753,"꺗":754,"꺘":755,"꺙":756,"꺚":757,"꺜":758,"꺟":759,"꺠":760,"꺢":761,"꺤":762,"꺨":763,"꺰":764,"꺳":765,"꺴":766,"꺵":767,"꺼":768,"꺽":769,"꺾":770,"껀":771,"껃":772,"껄":773,"껅":774,"껇":775,"껌":776,"껍":777,"껏":778,"껐":779,"껑":780,"껒":781,"껓":782,"껔":783,"껕":784,"껗":785,"께":786,"껙":787,"껚":788,"껜":789,"껠":790,"껨":791,"껩":792,"껫":793,"껬":794,"껭":795,"껰":796,"껳":797,"껴":798,"껵":799,"껶":800,"껸":801,"껼":802,"꼄":803,"꼅":804,"꼇":805,"꼈":806,"꼉":807,"꼊":808,"꼌":809,"꼍":810,"꼏":811,"꼐":812,"꼣":813,"꼤":814,"꼥":815,"꼨":816,"꼬":817,"꼭":818,"꼮":819,"꼰":820,"꼲":821,"꼳":822,"꼴":823,"꼵":824,"꼶":825,"꼷":826,"꼹":827,"꼻":828,"꼼":829,"꼽":830,"꼿":831,"꽀":832,"꽁":833,"꽂":834,"꽃":835,"꽄":836,"꽅":837,"꽆":838,"꽇":839,"꽈":840,"꽉":841,"꽊":842,"꽌":843,"꽐":844,"꽑":845,"꽘":846,"꽙":847,"꽛":848,"꽜":849,"꽝":850,"꽠":851,"꽤":852,"꽥":853,"꽦":854,"꽨":855,"꽭":856,"꽳":857,"꽴":858,"꽹":859,"꽼":860,"꾀":861,"꾁":862,"꾄":863,"꾈":864,"꾐":865,"꾕":866,"꾜":867,"꾝":868,"꾠":869,"꾤":870,"꾬":871,"꾭":872,"꾱":873,"꾳":874,"꾸":875,"꾹":876,"꾺":877,"꾼":878,"꾾":879,"꾿":880,"꿀":881,"꿁":882,"꿂":883,"꿃":884,"꿄":885,"꿇":886,"꿈":887,"꿉":888,"꿋":889,"꿌":890,"꿍":891,"꿎":892,"꿏":893,"꿐":894,"꿑":895,"꿓":896,"꿔":897,"꿕":898,"꿘":899,"꿜":900,"꿝":901,"꿤":902,"꿥":903,"꿧":904,"꿨":905,"꿩":906,"꿬":907,"꿯":908,"꿰":909,"꿱":910,"꿲":911,"꿴":912,"꿸":913,"꿹":914,"꿻":915,"꿿":916,"뀀":917,"뀃":918,"뀄":919,"뀅":920,"뀈":921,"뀌":922,"뀍":923,"뀐":924,"뀔":925,"뀜":926,"뀝":927,"뀟":928,"뀠":929,"뀡":930,"뀤":931,"뀨":932,"뀩":933,"뀪":934,"뀬":935,"뀰":936,"뀱":937,"뀳":938,"뀷":939,"뀸":940,"뀹":941,"뀻":942,"뀽":943,"끀":944,"끄":945,"끅":946,"끆":947,"끈":948,"끉":949,"끊":950,"끋":951,"끌":952,"끍":953,"끎":954,"끏":955,"끐":956,"끓":957,"끔":958,"끕":959,"끗":960,"끘":961,"끙":962,"끚":963,"끛":964,"끜":965,"끝":966,"끞":967,"끟":968,"끠":969,"끡":970,"끤":971,"끨":972,"끯":973,"끰":974,"끵":975,"끸":976,"끼":977,"끽":978,"끾":979,"낀":980,"낂":981,"낃":982,"낄":983,"낅":984,"낋":985,"낌":986,"낍":987,"낎":988,"낏":989,"낐":990,"낑":991,"낒":992,"낓":993,"낔":994,"낕":995,"낗":996,"나":997,"낙":998,"낚":999,"낛":1000,"난":1001,"낝":1002,"낞":1003,"낟":1004,"날":1005,"낡":1006,"낢":1007,"낣":1008,"낤":1009,"낥":1010,"낧":1011,"남":1012,"납":1013,"낪":1014,"낫":1015,"났":1016,"낭":1017,"낮":1018,"낯":1019,"낰":1020,"낱":1021,"낲":1022,"낳":1023,"내":1024,"낵":1025,"낶":1026,"낸":1027,"낻":1028,"낼":1029,"냄":1030,"냅":1031,"냇":1032,"냈":1033,"냉":1034,"냊":1035,"냋":1036,"냌":1037,"냍":1038,"냎":1039,"냏":1040,"냐":1041,"냑":1042,"냒":1043,"냔":1044,"냗":1045,"냘":1046,"냙":1047,"냠":1048,"냡":1049,"냣":1050,"냤":1051,"냥":1052,"냦":1053,"냧":1054,"냨":1055,"냩":1056,"냪":1057,"냫":1058,"냬":1059,"냰":1060,"냴":1061,"냼":1062,"냿":1063,"넀":1064,"넁":1065,"넄":1066,"너":1067,"넉":1068,"넊":1069,"넋":1070,"넌":1071,"넎":1072,"넏":1073,"널":1074,"넑":1075,"넒":1076,"넓":1077,"넔":1078,"넖":1079,"넗":1080,"넘":1081,"넙":1082,"넚":1083,"넛":1084,"넜":1085,"넝":1086,"넞":1087,"넟":1088,"넠":1089,"넡":1090,"넢":1091,"넣":1092,"네":1093,"넥":1094,"넦":1095,"넧":1096,"넨":1097,"넫":1098,"넬":1099,"넭":1100,"넴":1101,"넵":1102,"넶":1103,"넷":1104,"넸":1105,"넹":1106,"넺":1107,"넻":1108,"넼":1109,"넽":1110,"넾":1111,"넿":1112,"녀":1113,"녁":1114,"녂":1115,"년":1116,"녅":1117,"녆":1118,"녇":1119,"녈":1120,"념":1121,"녑":1122,"녓":1123,"녔":1124,"녕":1125,"녖":1126,"녗":1127,"녘":1128,"녙":1129,"녚":1130,"녛":1131,"녜":1132,"녝":1133,"녠":1134,"녤":1135,"녬":1136,"녭":1137,"녯":1138,"녰":1139,"녱":1140,"녴":1141,"노":1142,"녹":1143,"녺":1144,"녻":1145,"논":1146,"녽":1147,"녾":1148,"녿":1149,"놀":1150,"놁":1151,"놂":1152,"놃":1153,"놇":1154,"놈":1155,"놉":1156,"놊":1157,"놋":1158,"놌":1159,"농":1160,"놎":1161,"놏":1162,"놐":1163,"놑":1164,"높":1165,"놓":1166,"놔":1167,"놕":1168,"놖":1169,"놘":1170,"놛":1171,"놜":1172,"놝":1173,"놤":1174,"놥":1175,"놧":1176,"놨":1177,"놩":1178,"놪":1179,"놬":1180,"놯":1181,"놰":1182,"놴":1183,"놸":1184,"뇀":1185,"뇁":1186,"뇄":1187,"뇅":1188,"뇌":1189,"뇍":1190,"뇐":1191,"뇔":1192,"뇜":1193,"뇝":1194,"뇟":1195,"뇠":1196,"뇡":1197,"뇤":1198,"뇨":1199,"뇩":1200,"뇬":1201,"뇰":1202,"뇸":1203,"뇹":1204,"뇻":1205,"뇽":1206,"눀":1207,"눂":1208,"눃":1209,"누":1210,"눅":1211,"눈":1212,"눉":1213,"눋":1214,"눌":1215,"눍":1216,"눓":1217,"눔":1218,"눕":1219,"눗":1220,"눙":1221,"눚":1222,"눛":1223,"눜":1224,"눝":1225,"눞":1226,"눟":1227,"눠":1228,"눤":1229,"눨":1230,"눰":1231,"눳":1232,"눴":1233,"눵":1234,"눸":1235,"눹":1236,"눼":1237,"눽":1238,"뉀":1239,"뉄":1240,"뉅":1241,"뉌":1242,"뉍":1243,"뉑":1244,"뉔":1245,"뉘":1246,"뉙":1247,"뉜":1248,"뉠":1249,"뉨":1250,"뉩":1251,"뉫":1252,"뉬":1253,"뉭":1254,"뉰":1255,"뉴":1256,"뉵":1257,"뉸":1258,"뉼":1259,"늄":1260,"늅":1261,"늇":1262,"늉":1263,"늌":1264,"늎":1265,"늏":1266,"느":1267,"늑":1268,"늒":1269,"늓":1270,"는":1271,"늕":1272,"늖":1273,"늗":1274,"늘":1275,"늙":1276,"늚":1277,"늛":1278,"늜":1279,"늟":1280,"늠":1281,"늡":1282,"늣":1283,"늤":1284,"능":1285,"늦":1286,"늧":1287,"늨":1288,"늩":1289,"늪":1290,"늫":1291,"늬":1292,"늭":1293,"늰":1294,"늴":1295,"늼":1296,"늽":1297,"늿":1298,"닁":1299,"닄":1300,"니":1301,"닉":1302,"닊":1303,"닋":1304,"닌":1305,"닍":1306,"닏":1307,"닐":1308,"닑":1309,"닒":1310,"닗":1311,"님":1312,"닙":1313,"닚":1314,"닛":1315,"닜":1316,"닝":1317,"닞":1318,"닟":1319,"닠":1320,"닡":1321,"닢":1322,"닣":1323,"다":1324,"닥":1325,"닦":1326,"닧":1327,"단":1328,"닩":1329,"닪":1330,"닫":1331,"달":1332,"닭":1333,"닮":1334,"닯":1335,"닰":1336,"닱":1337,"닲":1338,"닳":1339,"담":1340,"답":1341,"닶":1342,"닷":1343,"닸":1344,"당":1345,"닺":1346,"닻":1347,"닼":1348,"닽":1349,"닾":1350,"닿":1351,"대":1352,"댁":1353,"댂":1354,"댄":1355,"댇":1356,"댈":1357,"댉":1358,"댏":1359,"댐":1360,"댑":1361,"댓":1362,"댔":1363,"댕":1364,"댖":1365,"댗":1366,"댘":1367,"댙":1368,"댚":1369,"댛":1370,"댜":1371,"댝":1372,"댠":1373,"댣":1374,"댤":1375,"댥":1376,"댦":1377,"댬":1378,"댭":1379,"댯":1380,"댰":1381,"댱":1382,"댲":1383,"댴":1384,"댷":1385,"댸":1386,"댼":1387,"덀":1388,"덈":1389,"덋":1390,"덌":1391,"덍":1392,"더":1393,"덕":1394,"덖":1395,"덗":1396,"던":1397,"덙":1398,"덛":1399,"덜":1400,"덝":1401,"덞":1402,"덟":1403,"덢":1404,"덣":1405,"덤":1406,"덥":1407,"덦":1408,"덧":1409,"덨":1410,"덩":1411,"덪":1412,"덫":1413,"덬":1414,"덭":1415,"덮":1416,"덯":1417,"데":1418,"덱":1419,"덲":1420,"덴":1421,"덷":1422,"델":1423,"덹":1424,"뎀":1425,"뎁":1426,"뎂":1427,"뎃":1428,"뎄":1429,"뎅":1430,"뎆":1431,"뎇":1432,"뎈":1433,"뎉":1434,"뎊":1435,"뎋":1436,"뎌":1437,"뎍":1438,"뎐":1439,"뎓":1440,"뎔":1441,"뎜":1442,"뎝":1443,"뎟":1444,"뎠":1445,"뎡":1446,"뎤":1447,"뎦":1448,"뎧":1449,"뎨":1450,"뎬":1451,"뎻":1452,"뎽":1453,"도":1454,"독":1455,"돆":1456,"돇":1457,"돈":1458,"돉":1459,"돋":1460,"돌":1461,"돍":1462,"돎":1463,"돏":1464,"돐":1465,"돒":1466,"돓":1467,"돔":1468,"돕":1469,"돖":1470,"돗":1471,"돘":1472,"동":1473,"돚":1474,"돛":1475,"돜":1476,"돝":1477,"돞":1478,"돟":1479,"돠":1480,"돡":1481,"돤":1482,"돨":1483,"돩":1484,"돰":1485,"돱":1486,"돳":1487,"돴":1488,"돵":1489,"돸":1490,"돻":1491,"돼":1492,"돽":1493,"돾":1494,"됀":1495,"됃":1496,"됄":1497,"됌":1498,"됍":1499,"됏":1500,"됐":1501,"됑":1502,"됒":1503,"됔":1504,"됗":1505,"되":1506,"됙":1507,"됚":1508,"된":1509,"됝":1510,"됟":1511,"될":1512,"됡":1513,"됢":1514,"됤":1515,"됥":1516,"됧":1517,"됨":1518,"됩":1519,"됫":1520,"됬":1521,"됭":1522,"됮":1523,"됰":1524,"됱":1525,"됳":1526,"됴":1527,"됵":1528,"됸":1529,"됻":1530,"됼":1531,"둄":1532,"둅":1533,"둇":1534,"둉":1535,"둊":1536,"둋":1537,"둌":1538,"둏":1539,"두":1540,"둑":1541,"둒":1542,"둔":1543,"둗":1544,"둘":1545,"둙":1546,"둚":1547,"둛":1548,"둞":1549,"둟":1550,"둠":1551,"둡":1552,"둣":1553,"둥":1554,"둦":1555,"둧":1556,"둨":1557,"둩":1558,"둪":1559,"둫":1560,"둬":1561,"둭":1562,"둰":1563,"둴":1564,"둼":1565,"둽":1566,"둿":1567,"뒀":1568,"뒁":1569,"뒄":1570,"뒇":1571,"뒈":1572,"뒌":1573,"뒐":1574,"뒑":1575,"뒓":1576,"뒘":1577,"뒙":1578,"뒛":1579,"뒜":1580,"뒝":1581,"뒞":1582,"뒠":1583,"뒤":1584,"뒥":1585,"뒨":1586,"뒫":1587,"뒬":1588,"뒴":1589,"뒵":1590,"뒷":1591,"뒸":1592,"뒹":1593,"뒺":1594,"뒼":1595,"듀":1596,"듁":1597,"듄":1598,"듇":1599,"듈":1600,"듐":1601,"듑":1602,"듓":1603,"듕":1604,"듘":1605,"드":1606,"득":1607,"듞":1608,"듟":1609,"든":1610,"듡":1611,"듢":1612,"듣":1613,"들":1614,"듥":1615,"듦":1616,"듧":1617,"듨":1618,"듩":1619,"듪":1620,"듫":1621,"듬":1622,"듭":1623,"듯":1624,"듰":1625,"등":1626,"듲":1627,"듳":1628,"듴":1629,"듵":1630,"듶":1631,"듷":1632,"듸":1633,"듹":1634,"듼":1635,"딀":1636,"딈":1637,"딉":1638,"딋":1639,"딍":1640,"디":1641,"딕":1642,"딖":1643,"딘":1644,"딛":1645,"딜":1646,"딝":1647,"딞":1648,"딤":1649,"딥":1650,"딧":1651,"딨":1652,"딩":1653,"딪":1654,"딫":1655,"딬":1656,"딭":1657,"딮":1658,"딯":1659,"따":1660,"딱":1661,"딲":1662,"딳":1663,"딴":1664,"딷":1665,"딸":1666,"딹":1667,"딺":1668,"딻":1669,"딿":1670,"땀":1671,"땁":1672,"땃":1673,"땄":1674,"땅":1675,"땆":1676,"땈":1677,"땉":1678,"땋":1679,"때":1680,"땍":1681,"땎":1682,"땐":1683,"땓":1684,"땔":1685,"땜":1686,"땝":1687,"땟":1688,"땠":1689,"땡":1690,"땢":1691,"땣":1692,"땤":1693,"땦":1694,"땧":1695,"땨":1696,"땩":1697,"땬":1698,"땰":1699,"땸":1700,"땽":1701,"떄":1702,"떅":1703,"떈":1704,"떌":1705,"떔":1706,"떗":1707,"떘":1708,"떙":1709,"떠":1710,"떡":1711,"떢":1712,"떣":1713,"떤":1714,"떥":1715,"떦":1716,"떧":1717,"떨":1718,"떩":1719,"떪":1720,"떫":1721,"떮":1722,"떯":1723,"떰":1724,"떱":1725,"떳":1726,"떴":1727,"떵":1728,"떶":1729,"떷":1730,"떸":1731,"떹":1732,"떺":1733,"떻":1734,"떼":1735,"떽":1736,"떾":1737,"뗀":1738,"뗄":1739,"뗌":1740,"뗍":1741,"뗏":1742,"뗐":1743,"뗑":1744,"뗔":1745,"뗗":1746,"뗘":1747,"뗙":1748,"뗜":1749,"뗠":1750,"뗨":1751,"뗫":1752,"뗬":1753,"뗭":1754,"뗳":1755,"뗴":1756,"뗵":1757,"뗸":1758,"뗼":1759,"똇":1760,"똈":1761,"또":1762,"똑":1763,"똒":1764,"똔":1765,"똗":1766,"똘":1767,"똙":1768,"똚":1769,"똝":1770,"똟":1771,"똠":1772,"똡":1773,"똣":1774,"똥":1775,"똦":1776,"똧":1777,"똨":1778,"똩":1779,"똫":1780,"똬":1781,"똭":1782,"똮":1783,"똰":1784,"똴":1785,"똵":1786,"똷":1787,"똻":1788,"똼":1789,"똽":1790,"똿":1791,"뙀":1792,"뙁":1793,"뙄":1794,"뙇":1795,"뙈":1796,"뙌":1797,"뙓":1798,"뙛":1799,"뙜":1800,"뙝":1801,"뙤":1802,"뙥":1803,"뙨":1804,"뙬":1805,"뙴":1806,"뙷":1807,"뙸":1808,"뙹":1809,"뙿":1810,"뚀":1811,"뚁":1812,"뚄":1813,"뚈":1814,"뚊":1815,"뚕":1816,"뚜":1817,"뚝":1818,"뚞":1819,"뚠":1820,"뚢":1821,"뚣":1822,"뚤":1823,"뚥":1824,"뚦":1825,"뚧":1826,"뚨":1827,"뚫":1828,"뚬":1829,"뚭":1830,"뚯":1831,"뚱":1832,"뚴":1833,"뚵":1834,"뚷":1835,"뚸":1836,"뚹":1837,"뚼":1838,"뛀":1839,"뛃":1840,"뛋":1841,"뛌":1842,"뛍":1843,"뛓":1844,"뛔":1845,"뛕":1846,"뛝":1847,"뛟":1848,"뛣":1849,"뛥":1850,"뛧":1851,"뛨":1852,"뛰":1853,"뛱":1854,"뛴":1855,"뛸":1856,"뜀":1857,"뜁":1858,"뜃":1859,"뜄":1860,"뜅":1861,"뜌":1862,"뜍":1863,"뜐":1864,"뜔":1865,"뜛":1866,"뜜":1867,"뜝":1868,"뜡":1869,"뜨":1870,"뜩":1871,"뜪":1872,"뜬":1873,"뜮":1874,"뜯":1875,"뜰":1876,"뜱":1877,"뜳":1878,"뜷":1879,"뜸":1880,"뜹":1881,"뜻":1882,"뜼":1883,"뜽":1884,"뜾":1885,"뜿":1886,"띀":1887,"띁":1888,"띃":1889,"띄":1890,"띅":1891,"띈":1892,"띌":1893,"띔":1894,"띕":1895,"띙":1896,"띟":1897,"띠":1898,"띡":1899,"띤":1900,"띧":1901,"띨":1902,"띰":1903,"띱":1904,"띳":1905,"띴":1906,"띵":1907,"띶":1908,"띸":1909,"띻":1910,"라":1911,"락":1912,"띾":1913,"띿":1914,"란":1915,"랁":1916,"랂":1917,"랃":1918,"랄":1919,"랅":1920,"랆":1921,"랇":1922,"랈":1923,"랉":1924,"랊":1925,"랋":1926,"람":1927,"랍":1928,"랎":1929,"랏":1930,"랐":1931,"랑":1932,"랒":1933,"랓":1934,"랔":1935,"랕":1936,"랖":1937,"랗":1938,"래":1939,"랙":1940,"랚":1941,"랜":1942,"랟":1943,"랠":1944,"랡":1945,"램":1946,"랩":1947,"랫":1948,"랬":1949,"랭":1950,"랮":1951,"랯":1952,"랰":1953,"랱":1954,"랲":1955,"랳":1956,"랴":1957,"략":1958,"랸":1959,"랺":1960,"랻":1961,"랼":1962,"럄":1963,"럅":1964,"럇":1965,"럈":1966,"량":1967,"럊":1968,"럌":1969,"럎":1970,"럏":1971,"럐":1972,"럑":1973,"럔":1974,"럗":1975,"럘":1976,"럠":1977,"럣":1978,"럤":1979,"럥":1980,"러":1981,"럭":1982,"럮":1983,"럯":1984,"런":1985,"럱":1986,"럲":1987,"럳":1988,"럴":1989,"럵":1990,"럶":1991,"럷":1992,"럸":1993,"럻":1994,"럼":1995,"럽":1996,"럾":1997,"럿":1998,"렀":1999,"렁":2000,"렂":2001,"렃":2002,"렄":2003,"렅":2004,"렆":2005,"렇":2006,"레":2007,"렉":2008,"렊":2009,"렋":2010,"렌":2011,"렏":2012,"렐":2013,"렑":2014,"렓":2015,"렗":2016,"렘":2017,"렙":2018,"렚":2019,"렛":2020,"렜":2021,"렝":2022,"렞":2023,"렠":2024,"렡":2025,"렢":2026,"렣":2027,"려":2028,"력":2029,"렦":2030,"렧":2031,"련":2032,"렩":2033,"렪":2034,"렫":2035,"렬":2036,"렭":2037,"렴":2038,"렵":2039,"렷":2040,"렸":2041,"령":2042,"렺":2043,"렻":2044,"렼":2045,"렽":2046,"렾":2047,"렿":2048,"례":2049,"롁":2050,"롄":2051,"롈":2052,"롐":2053,"롑":2054,"롓":2055,"롔":2056,"롕":2057,"롘":2058,"로":2059,"록":2060,"롞":2061,"론":2062,"롡":2063,"롣":2064,"롤":2065,"롥":2066,"롫":2067,"롬":2068,"롭":2069,"롮":2070,"롯":2071,"롰":2072,"롱":2073,"롲":2074,"롳":2075,"롴":2076,"롵":2077,"롶":2078,"롷":2079,"롸":2080,"롹":2081,"롻":2082,"롼":2083,"뢀":2084,"뢁":2085,"뢈":2086,"뢉":2087,"뢋":2088,"뢌":2089,"뢍":2090,"뢐":2091,"뢓":2092,"뢔":2093,"뢕":2094,"뢘":2095,"뢜":2096,"뢥":2097,"뢨":2098,"뢩":2099,"뢰":2100,"뢱":2101,"뢴":2102,"뢸":2103,"룀":2104,"룁":2105,"룃":2106,"룄":2107,"룅":2108,"룈":2109,"료":2110,"룍":2111,"룐":2112,"룔":2113,"룜":2114,"룝":2115,"룟":2116,"룠":2117,"룡":2118,"룢":2119,"룤":2120,"룧":2121,"루":2122,"룩":2123,"룪":2124,"룬":2125,"룯":2126,"룰":2127,"룱":2128,"룷":2129,"룸":2130,"룹":2131,"룻":2132,"룽":2133,"룾":2134,"룿":2135,"뤀":2136,"뤁":2137,"뤂":2138,"뤃":2139,"뤄":2140,"뤅":2141,"뤈":2142,"뤌":2143,"뤔":2144,"뤕":2145,"뤗":2146,"뤘":2147,"뤙":2148,"뤜":2149,"뤟":2150,"뤠":2151,"뤡":2152,"뤤":2153,"뤨":2154,"뤩":2155,"뤫":2156,"뤰":2157,"뤱":2158,"뤳":2159,"뤵":2160,"뤸":2161,"뤼":2162,"뤽":2163,"륀":2164,"륄":2165,"륌":2166,"륍":2167,"륏":2168,"륐":2169,"륑":2170,"륔":2171,"류":2172,"륙":2173,"륜":2174,"륟":2175,"률":2176,"륨":2177,"륩":2178,"륫":2179,"륭":2180,"륮":2181,"륰":2182,"륲":2183,"륳":2184,"르":2185,"륵":2186,"륶":2187,"른":2188,"륹":2189,"륻":2190,"를":2191,"륽":2192,"륾":2193,"륿":2194,"릀":2195,"릁":2196,"릂":2197,"릃":2198,"름":2199,"릅":2200,"릆":2201,"릇":2202,"릈":2203,"릉":2204,"릊":2205,"릋":2206,"릌":2207,"릍":2208,"릎":2209,"릏":2210,"릐":2211,"릑":2212,"릔":2213,"릘":2214,"릠":2215,"릡":2216,"릣":2217,"릥":2218,"릫":2219,"리":2220,"릭":2221,"릮":2222,"린":2223,"릱":2224,"릲":2225,"릳":2226,"릴":2227,"릵":2228,"릶":2229,"릷":2230,"릸":2231,"릹":2232,"릻":2233,"림":2234,"립":2235,"릾":2236,"릿":2237,"맀":2238,"링":2239,"맂":2240,"맃":2241,"맄":2242,"맅":2243,"맆":2244,"맇":2245,"마":2246,"막":2247,"맊":2248,"맋":2249,"만":2250,"맍":2251,"많":2252,"맏":2253,"말":2254,"맑":2255,"맒":2256,"맓":2257,"맔":2258,"맕":2259,"맖":2260,"맗":2261,"맘":2262,"맙":2263,"맚":2264,"맛":2265,"맜":2266,"망":2267,"맞":2268,"맟":2269,"맠":2270,"맡":2271,"맢":2272,"맣":2273,"매":2274,"맥":2275,"맨":2276,"맩":2277,"맪":2278,"맫":2279,"맬":2280,"맴":2281,"맵":2282,"맷":2283,"맸":2284,"맹":2285,"맺":2286,"맻":2287,"맼":2288,"맽":2289,"맿":2290,"먀":2291,"먁":2292,"먄":2293,"먆":2294,"먇":2295,"먈":2296,"먐":2297,"먑":2298,"먓":2299,"먕":2300,"먖":2301,"먗":2302,"먘":2303,"먛":2304,"먜":2305,"먠":2306,"먤":2307,"먱":2308,"머":2309,"먹":2310,"먺":2311,"먻":2312,"먼":2313,"먽":2314,"먾":2315,"먿":2316,"멀":2317,"멁":2318,"멂":2319,"멈":2320,"멉":2321,"멊":2322,"멋":2323,"멌":2324,"멍":2325,"멎":2326,"멏":2327,"멐":2328,"멑":2329,"멒":2330,"멓":2331,"메":2332,"멕":2333,"멘":2334,"멛":2335,"멜":2336,"멤":2337,"멥":2338,"멧":2339,"멨":2340,"멩":2341,"멪":2342,"멫":2343,"멬":2344,"멭":2345,"멮":2346,"멯":2347,"며":2348,"멱":2349,"멲":2350,"면":2351,"멵":2352,"멶":2353,"멷":2354,"멸":2355,"멿":2356,"몀":2357,"몁":2358,"몃":2359,"몄":2360,"명":2361,"몆":2362,"몇":2363,"몈":2364,"몉":2365,"몊":2366,"몋":2367,"몌":2368,"몐":2369,"몔":2370,"몟":2371,"몡":2372,"몢":2373,"몣":2374,"모":2375,"목":2376,"몪":2377,"몫":2378,"몬":2379,"몮":2380,"몯":2381,"몰":2382,"몱":2383,"몲":2384,"몴":2385,"몷":2386,"몸":2387,"몹":2388,"몺":2389,"못":2390,"몼":2391,"몽":2392,"몾":2393,"몿":2394,"뫀":2395,"뫁":2396,"뫂":2397,"뫃":2398,"뫄":2399,"뫅":2400,"뫈":2401,"뫌":2402,"뫔":2403,"뫕":2404,"뫗":2405,"뫘":2406,"뫙":2407,"뫚":2408,"뫜":2409,"뫠":2410,"뫤":2411,"뫼":2412,"뫽":2413,"묀":2414,"묄":2415,"묏":2416,"묑":2417,"묘":2418,"묙":2419,"묜":2420,"묠":2421,"묨":2422,"묫":2423,"묭":2424,"묯":2425,"무":2426,"묵":2427,"묶":2428,"묷":2429,"문":2430,"묹":2431,"묺":2432,"묻":2433,"물":2434,"묽":2435,"묾":2436,"묿":2437,"뭀":2438,"뭁":2439,"뭃":2440,"뭄":2441,"뭅":2442,"뭇":2443,"뭈":2444,"뭉":2445,"뭊":2446,"뭋":2447,"뭌":2448,"뭍":2449,"뭎":2450,"뭏":2451,"뭐":2452,"뭑":2453,"뭔":2454,"뭕":2455,"뭗":2456,"뭘":2457,"뭙":2458,"뭚":2459,"뭟":2460,"뭠":2461,"뭡":2462,"뭣":2463,"뭤":2464,"뭥":2465,"뭦":2466,"뭧":2467,"뭨":2468,"뭩":2469,"뭫":2470,"뭬":2471,"뭭":2472,"뭰":2473,"뭴":2474,"뭵":2475,"뭷":2476,"뭽":2477,"뭿":2478,"뮁":2479,"뮈":2480,"뮉":2481,"뮌":2482,"뮏":2483,"뮐":2484,"뮘":2485,"뮙":2486,"뮛":2487,"뮜":2488,"뮝":2489,"뮤":2490,"뮥":2491,"뮦":2492,"뮨":2493,"뮫":2494,"뮬":2495,"뮴":2496,"뮷":2497,"뮹":2498,"뮻":2499,"뮼":2500,"므":2501,"믁":2502,"믂":2503,"믄":2504,"믆":2505,"믇":2506,"믈":2507,"믉":2508,"믌":2509,"믏":2510,"믐":2511,"믑":2512,"믓":2513,"믕":2514,"믖":2515,"믘":2516,"믙":2517,"믛":2518,"믜":2519,"믝":2520,"믠":2521,"믣":2522,"믤":2523,"믬":2524,"믯":2525,"믰":2526,"믱":2527,"미":2528,"믹":2529,"믺":2530,"믻":2531,"민":2532,"믽":2533,"믾":2534,"믿":2535,"밀":2536,"밁":2537,"밂":2538,"밇":2539,"밈":2540,"밉":2541,"밊":2542,"밋":2543,"밌":2544,"밍":2545,"밎":2546,"및":2547,"밐":2548,"밑":2549,"밒":2550,"밓":2551,"바":2552,"박":2553,"밖":2554,"밗":2555,"반":2556,"밙":2557,"밚":2558,"받":2559,"발":2560,"밝":2561,"밞":2562,"밟":2563,"밠":2564,"밡":2565,"밢":2566,"밣":2567,"밤":2568,"밥":2569,"밦":2570,"밧":2571,"밨":2572,"방":2573,"밪":2574,"밫":2575,"밬":2576,"밭":2577,"밮":2578,"밯":2579,"배":2580,"백":2581,"밲":2582,"밳":2583,"밴":2584,"밷":2585,"밸":2586,"밹":2587,"밿":2588,"뱀":2589,"뱁":2590,"뱃":2591,"뱄":2592,"뱅":2593,"뱆":2594,"뱇":2595,"뱈":2596,"뱉":2597,"뱊":2598,"뱋":2599,"뱌":2600,"뱍":2601,"뱎":2602,"뱐":2603,"뱓":2604,"뱔":2605,"뱕":2606,"뱗":2607,"뱛":2608,"뱜":2609,"뱝":2610,"뱟":2611,"뱡":2612,"뱤":2613,"뱥":2614,"뱨":2615,"뱩":2616,"뱬":2617,"뱰":2618,"뱸":2619,"뱽":2620,"벁":2621,"버":2622,"벅":2623,"벆":2624,"번":2625,"벉":2626,"벊":2627,"벋":2628,"벌":2629,"벍":2630,"벎":2631,"벏":2632,"벐":2633,"벑":2634,"벓":2635,"범":2636,"법":2637,"벖":2638,"벗":2639,"벘":2640,"벙":2641,"벚":2642,"벛":2643,"벜":2644,"벝":2645,"벞":2646,"벟":2647,"베":2648,"벡":2649,"벤":2650,"벧":2651,"벨":2652,"벩":2653,"벫":2654,"벯":2655,"벰":2656,"벱":2657,"벲":2658,"벳":2659,"벴":2660,"벵":2661,"벶":2662,"벷":2663,"벸":2664,"벹":2665,"벺":2666,"벻":2667,"벼":2668,"벽":2669,"벾":2670,"변":2671,"볁":2672,"볂":2673,"볃":2674,"별":2675,"볅":2676,"볆":2677,"볇":2678,"볈":2679,"볋":2680,"볌":2681,"볍":2682,"볎":2683,"볏":2684,"볐":2685,"병":2686,"볒":2687,"볓":2688,"볔":2689,"볕":2690,"볖":2691,"볗":2692,"볘":2693,"볙":2694,"볜":2695,"볠":2696,"볫":2697,"볭":2698,"보":2699,"복":2700,"볶":2701,"볷":2702,"본":2703,"볹":2704,"볻":2705,"볼":2706,"볽":2707,"볾":2708,"봀":2709,"봁":2710,"봃":2711,"봄":2712,"봅":2713,"봆":2714,"봇":2715,"봈":2716,"봉":2717,"봊":2718,"봋":2719,"봌":2720,"봍":2721,"봎":2722,"봏":2723,"봐":2724,"봑":2725,"봒":2726,"봔":2727,"봗":2728,"봘":2729,"봙":2730,"봟":2731,"봠":2732,"봡":2733,"봣":2734,"봤":2735,"봥":2736,"봦":2737,"봨":2738,"봩":2739,"봫":2740,"봬":2741,"봭":2742,"봰":2743,"봴":2744,"봵":2745,"봽":2746,"봿":2747,"뵀":2748,"뵁":2749,"뵈":2750,"뵉":2751,"뵌":2752,"뵏":2753,"뵐":2754,"뵑":2755,"뵘":2756,"뵙":2757,"뵛":2758,"뵜":2759,"뵝":2760,"뵞":2761,"뵠":2762,"뵤":2763,"뵥":2764,"뵨":2765,"뵬":2766,"뵴":2767,"뵵":2768,"뵷":2769,"뵹":2770,"뵺":2771,"부":2772,"북":2773,"붂":2774,"붃":2775,"분":2776,"붅":2777,"붆":2778,"붇":2779,"불":2780,"붉":2781,"붊":2782,"붋":2783,"붌":2784,"붍":2785,"붎":2786,"붏":2787,"붐":2788,"붑":2789,"붓":2790,"붔":2791,"붕":2792,"붖":2793,"붗":2794,"붘":2795,"붙":2796,"붚":2797,"붛":2798,"붜":2799,"붝":2800,"붠":2801,"붤":2802,"붥":2803,"붬":2804,"붭":2805,"붯":2806,"붰":2807,"붱":2808,"붴":2809,"붸":2810,"붹":2811,"붼":2812,"뷀":2813,"뷁":2814,"뷃":2815,"뷇":2816,"뷉":2817,"뷋":2818,"뷍":2819,"뷐":2820,"뷔":2821,"뷕":2822,"뷘":2823,"뷜":2824,"뷤":2825,"뷥":2826,"뷧":2827,"뷩":2828,"뷮":2829,"뷰":2830,"뷱":2831,"뷴":2832,"뷷":2833,"뷸":2834,"뷹":2835,"븀":2836,"븁":2837,"븂":2838,"븃":2839,"븅":2840,"븈":2841,"븉":2842,"븋":2843,"브":2844,"븍":2845,"븎":2846,"븏":2847,"븐":2848,"븓":2849,"블":2850,"븕":2851,"븛":2852,"븜":2853,"븝":2854,"븞":2855,"븟":2856,"븡":2857,"븢":2858,"븤":2859,"븥":2860,"븦":2861,"븧":2862,"븨":2863,"븩":2864,"븬":2865,"븰":2866,"븸":2867,"븹":2868,"븻":2869,"븽":2870,"빂":2871,"비":2872,"빅":2873,"빆":2874,"빇":2875,"빈":2876,"빋":2877,"빌":2878,"빍":2879,"빎":2880,"빏":2881,"빓":2882,"빔":2883,"빕":2884,"빖":2885,"빗":2886,"빘":2887,"빙":2888,"빚":2889,"빛":2890,"빜":2891,"빝":2892,"빞":2893,"빟":2894,"빠":2895,"빡":2896,"빢":2897,"빣":2898,"빤":2899,"빧":2900,"빨":2901,"빩":2902,"빪":2903,"빫":2904,"빬":2905,"빭":2906,"빯":2907,"빰":2908,"빱":2909,"빳":2910,"빴":2911,"빵":2912,"빶":2913,"빷":2914,"빸":2915,"빹":2916,"빺":2917,"빻":2918,"빼":2919,"빽":2920,"빾":2921,"뺀":2922,"뺃":2923,"뺄":2924,"뺅":2925,"뺌":2926,"뺍":2927,"뺏":2928,"뺐":2929,"뺑":2930,"뺒":2931,"뺓":2932,"뺔":2933,"뺕":2934,"뺗":2935,"뺘":2936,"뺙":2937,"뺚":2938,"뺜":2939,"뺠":2940,"뺡":2941,"뺨":2942,"뺩":2943,"뺫":2944,"뺭":2945,"뺴":2946,"뺵":2947,"뺶":2948,"뺸":2949,"뺼":2950,"뻁":2951,"뻄":2952,"뻇":2953,"뻈":2954,"뻉":2955,"뻐":2956,"뻑":2957,"뻒":2958,"뻔":2959,"뻕":2960,"뻖":2961,"뻗":2962,"뻘":2963,"뻙":2964,"뻠":2965,"뻡":2966,"뻣":2967,"뻤":2968,"뻥":2969,"뻦":2970,"뻨":2971,"뻩":2972,"뻪":2973,"뻫":2974,"뻬":2975,"뻭":2976,"뻰":2977,"뻴":2978,"뻼":2979,"뻿":2980,"뼀":2981,"뼁":2982,"뼈":2983,"뼉":2984,"뼊":2985,"뼌":2986,"뼏":2987,"뼐":2988,"뼑":2989,"뼘":2990,"뼙":2991,"뼛":2992,"뼜":2993,"뼝":2994,"뼠":2995,"뼡":2996,"뼤":2997,"뼬":2998,"뽀":2999,"뽁":3000,"뽂":3001,"뽄":3002,"뽇":3003,"뽈":3004,"뽐":3005,"뽑":3006,"뽓":3007,"뽕":3008,"뽖":3009,"뽘":3010,"뽚":3011,"뽛":3012,"뽜":3013,"뽝":3014,"뽞":3015,"뽠":3016,"뽤":3017,"뽥":3018,"뽫":3019,"뽬":3020,"뽭":3021,"뽯":3022,"뽰":3023,"뽱":3024,"뽴":3025,"뽷":3026,"뽸":3027,"뽹":3028,"뾀":3029,"뾃":3030,"뾔":3031,"뾥":3032,"뾰":3033,"뾱":3034,"뾲":3035,"뾴":3036,"뾸":3037,"뿁":3038,"뿃":3039,"뿅":3040,"뿌":3041,"뿍":3042,"뿎":3043,"뿐":3044,"뿑":3045,"뿓":3046,"뿔":3047,"뿕":3048,"뿛":3049,"뿜":3050,"뿝":3051,"뿟":3052,"뿠":3053,"뿡":3054,"뿤":3055,"뿥":3056,"뿧":3057,"뿨":3058,"뿩":3059,"뿬":3060,"뿰":3061,"뿱":3062,"뿳":3063,"뿹":3064,"뿽":3065,"쀀":3066,"쀄":3067,"쀅":3068,"쀈":3069,"쀌":3070,"쀍":3071,"쀏":3072,"쀒":3073,"쀓":3074,"쀠":3075,"쀡":3076,"쀨":3077,"쀳":3078,"쀵":3079,"쀼":3080,"쀽":3081,"쀾":3082,"쁀":3083,"쁄":3084,"쁌":3085,"쁍":3086,"쁏":3087,"쁐":3088,"쁑":3089,"쁘":3090,"쁙":3091,"쁜":3092,"쁝":3093,"쁟":3094,"쁠":3095,"쁨":3096,"쁩":3097,"쁫":3098,"쁭":3099,"쁮":3100,"쁰":3101,"쁴":3102,"쁸":3103,"쁼":3104,"삉":3105,"삐":3106,"삑":3107,"삒":3108,"삔":3109,"삗":3110,"삘":3111,"삠":3112,"삡":3113,"삣":3114,"삤":3115,"삥":3116,"삦":3117,"삧":3118,"삨":3119,"삫":3120,"사":3121,"삭":3122,"삮":3123,"삯":3124,"산":3125,"삱":3126,"삲":3127,"삳":3128,"살":3129,"삵":3130,"삶":3131,"삷":3132,"삸":3133,"삹":3134,"삺":3135,"삻":3136,"삼":3137,"삽":3138,"삾":3139,"삿":3140,"샀":3141,"상":3142,"샂":3143,"샃":3144,"샄":3145,"샅":3146,"샆":3147,"샇":3148,"새":3149,"색":3150,"샊":3151,"샋":3152,"샌":3153,"샎":3154,"샏":3155,"샐":3156,"샑":3157,"샒":3158,"샓":3159,"샔":3160,"샕":3161,"샗":3162,"샘":3163,"샙":3164,"샚":3165,"샛":3166,"샜":3167,"생":3168,"샞":3169,"샟":3170,"샠":3171,"샡":3172,"샢":3173,"샣":3174,"샤":3175,"샥":3176,"샦":3177,"샨":3178,"샫":3179,"샬":3180,"샮":3181,"샴":3182,"샵":3183,"샷":3184,"샸":3185,"샹":3186,"샼":3187,"샽":3188,"샾":3189,"샿":3190,"섀":3191,"섁":3192,"섂":3193,"섄":3194,"섈":3195,"섉":3196,"섊":3197,"섐":3198,"섑":3199,"섓":3200,"섔":3201,"섕":3202,"섘":3203,"서":3204,"석":3205,"섞":3206,"섟":3207,"선":3208,"섡":3209,"섢":3210,"섣":3211,"설":3212,"섥":3213,"섦":3214,"섧":3215,"섨":3216,"섩":3217,"섪":3218,"섫":3219,"섬":3220,"섭":3221,"섮":3222,"섯":3223,"섰":3224,"성":3225,"섲":3226,"섳":3227,"섴":3228,"섵":3229,"섶":3230,"섷":3231,"세":3232,"섹":3233,"섺":3234,"섻":3235,"센":3236,"섽":3237,"섿":3238,"셀":3239,"셁":3240,"셂":3241,"셃":3242,"셆":3243,"셇":3244,"셈":3245,"셉":3246,"셋":3247,"셌":3248,"셍":3249,"셎":3250,"셏":3251,"셐":3252,"셑":3253,"셒":3254,"셓":3255,"셔":3256,"셕":3257,"셖":3258,"션":3259,"셛":3260,"셜":3261,"셟":3262,"셤":3263,"셥":3264,"셧":3265,"셨":3266,"셩":3267,"셫":3268,"셬":3269,"셭":3270,"셮":3271,"셯":3272,"셰":3273,"셱":3274,"셲":3275,"셴":3276,"셸":3277,"솀":3278,"솁":3279,"솃":3280,"솄":3281,"솅":3282,"솈":3283,"솉":3284,"솊":3285,"소":3286,"속":3287,"솎":3288,"솏":3289,"손":3290,"솑":3291,"솒":3292,"솓":3293,"솔":3294,"솕":3295,"솖":3296,"솛":3297,"솜":3298,"솝":3299,"솟":3300,"솠":3301,"송":3302,"솢":3303,"솣":3304,"솤":3305,"솥":3306,"솦":3307,"솧":3308,"솨":3309,"솩":3310,"솬":3311,"솰":3312,"솸":3313,"솹":3314,"솻":3315,"솼":3316,"솽":3317,"쇀":3318,"쇄":3319,"쇅":3320,"쇆":3321,"쇈":3322,"쇌":3323,"쇔":3324,"쇗":3325,"쇘":3326,"쇙":3327,"쇜":3328,"쇟":3329,"쇠":3330,"쇡":3331,"쇣":3332,"쇤":3333,"쇨":3334,"쇱":3335,"쇳":3336,"쇵":3337,"쇸":3338,"쇼":3339,"쇽":3340,"숀":3341,"숄":3342,"숌":3343,"숍":3344,"숏":3345,"숐":3346,"숑":3347,"숔":3348,"숖":3349,"숗":3350,"수":3351,"숙":3352,"숚":3353,"순":3354,"숝":3355,"숟":3356,"술":3357,"숡":3358,"숢":3359,"숤":3360,"숧":3361,"숨":3362,"숩":3363,"숪":3364,"숫":3365,"숬":3366,"숭":3367,"숮":3368,"숯":3369,"숰":3370,"숱":3371,"숲":3372,"숳":3373,"숴":3374,"숵":3375,"숶":3376,"숸":3377,"숼":3378,"쉄":3379,"쉅":3380,"쉇":3381,"쉈":3382,"쉉":3383,"쉌":3384,"쉐":3385,"쉑":3386,"쉒":3387,"쉓":3388,"쉔":3389,"쉗":3390,"쉘":3391,"쉙":3392,"쉚":3393,"쉛":3394,"쉜":3395,"쉞":3396,"쉟":3397,"쉠":3398,"쉡":3399,"쉣":3400,"쉤":3401,"쉥":3402,"쉧":3403,"쉨":3404,"쉩":3405,"쉪":3406,"쉫":3407,"쉬":3408,"쉭":3409,"쉮":3410,"쉰":3411,"쉲":3412,"쉳":3413,"쉴":3414,"쉻":3415,"쉼":3416,"쉽":3417,"쉾":3418,"쉿":3419,"슀":3420,"슁":3421,"슂":3422,"슄":3423,"슅":3424,"슆":3425,"슇":3426,"슈":3427,"슉":3428,"슌":3429,"슏":3430,"슐":3431,"슘":3432,"슙":3433,"슛":3434,"슝":3435,"슞":3436,"슟":3437,"슠":3438,"슢":3439,"스":3440,"슥":3441,"슦":3442,"슧":3443,"슨":3444,"슩":3445,"슫":3446,"슬":3447,"슭":3448,"슮":3449,"슯":3450,"슰":3451,"슲":3452,"슳":3453,"슴":3454,"습":3455,"슶":3456,"슷":3457,"슸":3458,"승":3459,"슺":3460,"슻":3461,"슼":3462,"슽":3463,"슾":3464,"슿":3465,"싀":3466,"싁":3467,"싄":3468,"싅":3469,"싆":3470,"싇":3471,"싈":3472,"싐":3473,"싑":3474,"싓":3475,"싕":3476,"싖":3477,"싘":3478,"싙":3479,"싚":3480,"시":3481,"식":3482,"싞":3483,"싟":3484,"신":3485,"싡":3486,"싢":3487,"싣":3488,"실":3489,"싥":3490,"싦":3491,"싧":3492,"싨":3493,"싩":3494,"싪":3495,"싫":3496,"심":3497,"십":3498,"싮":3499,"싯":3500,"싰":3501,"싱":3502,"싲":3503,"싳":3504,"싴":3505,"싵":3506,"싶":3507,"싷":3508,"싸":3509,"싹":3510,"싺":3511,"싻":3512,"싼":3513,"싾":3514,"싿":3515,"쌀":3516,"쌂":3517,"쌇":3518,"쌈":3519,"쌉":3520,"쌋":3521,"쌌":3522,"쌍":3523,"쌎":3524,"쌐":3525,"쌑":3526,"쌒":3527,"쌓":3528,"쌔":3529,"쌕":3530,"쌖":3531,"쌗":3532,"쌘":3533,"쌛":3534,"쌜":3535,"쌞":3536,"쌟":3537,"쌤":3538,"쌥":3539,"쌧":3540,"쌨":3541,"쌩":3542,"쌬":3543,"쌯":3544,"쌰":3545,"쌱":3546,"쌴":3547,"쌸":3548,"쌻":3549,"썀":3550,"썁":3551,"썃":3552,"썄":3553,"썅":3554,"썋":3555,"썌":3556,"썍":3557,"썎":3558,"썐":3559,"썔":3560,"썖":3561,"썜":3562,"썝":3563,"썟":3564,"썠":3565,"썡":3566,"써":3567,"썩":3568,"썪":3569,"썫":3570,"썬":3571,"썯":3572,"썰":3573,"썱":3574,"썳":3575,"썸":3576,"썹":3577,"썻":3578,"썼":3579,"썽":3580,"썾":3581,"쎀":3582,"쎁":3583,"쎂":3584,"쎃":3585,"쎄":3586,"쎅":3587,"쎆":3588,"쎇":3589,"쎈":3590,"쎌":3591,"쎍":3592,"쎓":3593,"쎔":3594,"쎕":3595,"쎗":3596,"쎘":3597,"쎙":3598,"쎜":3599,"쎝":3600,"쎟":3601,"쎠":3602,"쎡":3603,"쎤":3604,"쎨":3605,"쎰":3606,"쎱":3607,"쎳":3608,"쎴":3609,"쎵":3610,"쎼":3611,"쎽":3612,"쎾":3613,"쏀":3614,"쏃":3615,"쏄":3616,"쏌":3617,"쏏":3618,"쏐":3619,"쏔":3620,"쏖":3621,"쏘":3622,"쏙":3623,"쏚":3624,"쏜":3625,"쏟":3626,"쏠":3627,"쏨":3628,"쏩":3629,"쏫":3630,"쏬":3631,"쏭":3632,"쏮":3633,"쏰":3634,"쏱":3635,"쏳":3636,"쏴":3637,"쏵":3638,"쏸":3639,"쏼":3640,"쐄":3641,"쐅":3642,"쐇":3643,"쐈":3644,"쐉":3645,"쐌":3646,"쐏":3647,"쐐":3648,"쐑":3649,"쐒":3650,"쐣":3651,"쐤":3652,"쐥":3653,"쐨":3654,"쐬":3655,"쐭":3656,"쐰":3657,"쐴":3658,"쐼":3659,"쐽":3660,"쐿":3661,"쑀":3662,"쑈":3663,"쑉":3664,"쑌":3665,"쑐":3666,"쑙":3667,"쑛":3668,"쑝":3669,"쑤":3670,"쑥":3671,"쑦":3672,"쑨":3673,"쑫":3674,"쑬":3675,"쑴":3676,"쑵":3677,"쑷":3678,"쑹":3679,"쑻":3680,"쑼":3681,"쒀":3682,"쒁":3683,"쒂":3684,"쒄":3685,"쒈":3686,"쒐":3687,"쒑":3688,"쒓":3689,"쒔":3690,"쒕":3691,"쒘":3692,"쒜":3693,"쒝":3694,"쒞":3695,"쒠":3696,"쒤":3697,"쒥":3698,"쒧":3699,"쒫":3700,"쒭":3701,"쒯":3702,"쒰":3703,"쒱":3704,"쒴":3705,"쒵":3706,"쒸":3707,"쒹":3708,"쒼":3709,"쓀":3710,"쓃":3711,"쓈":3712,"쓉":3713,"쓊":3714,"쓋":3715,"쓌":3716,"쓍":3717,"쓐":3718,"쓑":3719,"쓒":3720,"쓔":3721,"쓕":3722,"쓘":3723,"쓜":3724,"쓤":3725,"쓥":3726,"쓩":3727,"쓰":3728,"쓱":3729,"쓲":3730,"쓴":3731,"쓷":3732,"쓸":3733,"쓹":3734,"쓺":3735,"쓿":3736,"씀":3737,"씁":3738,"씂":3739,"씃":3740,"씄":3741,"씅":3742,"씆":3743,"씇":3744,"씈":3745,"씉":3746,"씊":3747,"씋":3748,"씌":3749,"씍":3750,"씐":3751,"씔":3752,"씗":3753,"씜":3754,"씝":3755,"씞":3756,"씟":3757,"씡":3758,"씤":3759,"씥":3760,"씦":3761,"씧":3762,"씨":3763,"씩":3764,"씪":3765,"씬":3766,"씮":3767,"씯":3768,"씰":3769,"씱":3770,"씳":3771,"씶":3772,"씷":3773,"씸":3774,"씹":3775,"씺":3776,"씻":3777,"씼":3778,"씽":3779,"씾":3780,"씿":3781,"앀":3782,"앁":3783,"앂":3784,"앃":3785,"아":3786,"악":3787,"앆":3788,"앇":3789,"안":3790,"앉":3791,"않":3792,"앋":3793,"알":3794,"앍":3795,"앎":3796,"앏":3797,"앐":3798,"앑":3799,"앒":3800,"앓":3801,"암":3802,"압":3803,"앖":3804,"앗":3805,"았":3806,"앙":3807,"앚":3808,"앛":3809,"앜":3810,"앝":3811,"앞":3812,"앟":3813,"애":3814,"액":3815,"앢":3816,"앣":3817,"앤":3818,"앦":3819,"앧":3820,"앨":3821,"앩":3822,"앰":3823,"앱":3824,"앲":3825,"앳":3826,"앴":3827,"앵":3828,"앶":3829,"앷":3830,"앸":3831,"앹":3832,"앺":3833,"앻":3834,"야":3835,"약":3836,"앾":3837,"앿":3838,"얀":3839,"얁":3840,"얂":3841,"얃":3842,"얄":3843,"얅":3844,"얆":3845,"얇":3846,"얉":3847,"얊":3848,"얋":3849,"얌":3850,"얍":3851,"얎":3852,"얏":3853,"얐":3854,"양":3855,"얒":3856,"얓":3857,"얔":3858,"얕":3859,"얖":3860,"얗":3861,"얘":3862,"얙":3863,"얜":3864,"얠":3865,"얨":3866,"얩":3867,"얪":3868,"얫":3869,"얬":3870,"얭":3871,"얮":3872,"얰":3873,"얳":3874,"어":3875,"억":3876,"얶":3877,"얷":3878,"언":3879,"얹":3880,"얺":3881,"얻":3882,"얼":3883,"얽":3884,"얾":3885,"얿":3886,"엀":3887,"엁":3888,"엂":3889,"엃":3890,"엄":3891,"업":3892,"없":3893,"엇":3894,"었":3895,"엉":3896,"엊":3897,"엋":3898,"엌":3899,"엍":3900,"엎":3901,"엏":3902,"에":3903,"엑":3904,"엒":3905,"엓":3906,"엔":3907,"엕":3908,"엗":3909,"엘":3910,"엙":3911,"엜":3912,"엞":3913,"엠":3914,"엡":3915,"엢":3916,"엣":3917,"엤":3918,"엥":3919,"엦":3920,"엧":3921,"엨":3922,"엩":3923,"엪":3924,"엫":3925,"여":3926,"역":3927,"엮":3928,"엯":3929,"연":3930,"엱":3931,"엲":3932,"엳":3933,"열":3934,"엵":3935,"엶":3936,"엷":3937,"엸":3938,"엹":3939,"엻":3940,"염":3941,"엽":3942,"엾":3943,"엿":3944,"였":3945,"영":3946,"옂":3947,"옃":3948,"옄":3949,"옅":3950,"옆":3951,"옇":3952,"예":3953,"옉":3954,"옌":3955,"옐":3956,"옘":3957,"옙":3958,"옛":3959,"옜":3960,"옝":3961,"옞":3962,"옟":3963,"옠":3964,"옢":3965,"옣":3966,"오":3967,"옥":3968,"옦":3969,"옧":3970,"온":3971,"옩":3972,"옪":3973,"옫":3974,"올":3975,"옭":3976,"옮":3977,"옯":3978,"옰":3979,"옱":3980,"옲":3981,"옳":3982,"옴":3983,"옵":3984,"옶":3985,"옷":3986,"옸":3987,"옹":3988,"옺":3989,"옻":3990,"옼":3991,"옽":3992,"옾":3993,"옿":3994,"와":3995,"왁":3996,"왂":3997,"완":3998,"왅":3999,"왆":4000,"왇":4001,"왈":4002,"왉":4003,"왐":4004,"왑":4005,"왓":4006,"왔":4007,"왕":4008,"왖":4009,"왗":4010,"왘":4011,"왙":4012,"왚":4013,"왛":4014,"왜":4015,"왝":4016,"왠":4017,"왡":4018,"왢":4019,"왤":4020,"왥":4021,"왬":4022,"왭":4023,"왯":4024,"왰":4025,"왱":4026,"왲":4027,"왳":4028,"왴":4029,"왶":4030,"왷":4031,"외":4032,"왹":4033,"왼":4034,"욀":4035,"욈":4036,"욉":4037,"욋":4038,"욌":4039,"욍":4040,"욎":4041,"욐":4042,"욓":4043,"요":4044,"욕":4045,"욖":4046,"욗":4047,"욘":4048,"욛":4049,"욜":4050,"욝":4051,"욣":4052,"욤":4053,"욥":4054,"욧":4055,"욨":4056,"용":4057,"욪":4058,"욫":4059,"욬":4060,"욭":4061,"욮":4062,"욯":4063,"우":4064,"욱":4065,"욲":4066,"욳":4067,"운":4068,"욵":4069,"욷":4070,"울":4071,"욹":4072,"욺":4073,"욻":4074,"욼":4075,"욽":4076,"욾":4077,"욿":4078,"움":4079,"웁":4080,"웂":4081,"웃":4082,"웄":4083,"웅":4084,"웆":4085,"웇":4086,"웈":4087,"웉":4088,"웊":4089,"웋":4090,"워":4091,"웍":4092,"웎":4093,"원":4094,"웑":4095,"웒":4096,"웓":4097,"월":4098,"웕":4099,"웖":4100,"웗":4101,"웘":4102,"웙":4103,"웚":4104,"웛":4105,"웜":4106,"웝":4107,"웞":4108,"웟":4109,"웠":4110,"웡":4111,"웢":4112,"웣":4113,"웤":4114,"웥":4115,"웦":4116,"웧":4117,"웨":4118,"웩":4119,"웪":4120,"웬":4121,"웯":4122,"웰":4123,"웱":4124,"웳":4125,"웸":4126,"웹":4127,"웺":4128,"웻":4129,"웼":4130,"웽":4131,"웾":4132,"윀":4133,"윁":4134,"윂":4135,"위":4136,"윅":4137,"윈":4138,"윋":4139,"윌":4140,"윔":4141,"윕":4142,"윖":4143,"윗":4144,"윘":4145,"윙":4146,"윚":4147,"윜":4148,"윝":4149,"윟":4150,"유":4151,"육":4152,"윢":4153,"윣":4154,"윤":4155,"윥":4156,"윧":4157,"율":4158,"윩":4159,"윯":4160,"윰":4161,"윱":4162,"윳":4163,"융":4164,"윶":4165,"윷":4166,"윸":4167,"윹":4168,"윺":4169,"윻":4170,"으":4171,"윽":4172,"윾":4173,"윿":4174,"은":4175,"읁":4176,"읂":4177,"읃":4178,"을":4179,"읅":4180,"읆":4181,"읇":4182,"읈":4183,"읉":4184,"읊":4185,"읋":4186,"음":4187,"읍":4188,"읎":4189,"읏":4190,"읐":4191,"응":4192,"읒":4193,"읓":4194,"읔":4195,"읕":4196,"읖":4197,"읗":4198,"의":4199,"읙":4200,"읜":4201,"읟":4202,"읠":4203,"읨":4204,"읩":4205,"읪":4206,"읫":4207,"읬":4208,"읭":4209,"읮":4210,"읯":4211,"읰":4212,"읱":4213,"읲":4214,"읳":4215,"이":4216,"익":4217,"읶":4218,"읷":4219,"인":4220,"읹":4221,"읺":4222,"읻":4223,"일":4224,"읽":4225,"읾":4226,"읿":4227,"잀":4228,"잁":4229,"잂":4230,"잃":4231,"임":4232,"입":4233,"잆":4234,"잇":4235,"있":4236,"잉":4237,"잊":4238,"잋":4239,"잌":4240,"잍":4241,"잎":4242,"잏":4243,"자":4244,"작":4245,"잒":4246,"잓":4247,"잔":4248,"잕":4249,"잖":4250,"잗":4251,"잘":4252,"잙":4253,"잚":4254,"잛":4255,"잜":4256,"잝":4257,"잞":4258,"잟":4259,"잠":4260,"잡":4261,"잢":4262,"잣":4263,"잤":4264,"장":4265,"잦":4266,"잧":4267,"잨":4268,"잩":4269,"잪":4270,"잫":4271,"재":4272,"잭":4273,"잮":4274,"잰":4275,"잲":4276,"잳":4277,"잴":4278,"잼":4279,"잽":4280,"잿":4281,"쟀":4282,"쟁":4283,"쟂":4284,"쟃":4285,"쟄":4286,"쟅":4287,"쟆":4288,"쟇":4289,"쟈":4290,"쟉":4291,"쟊":4292,"쟌":4293,"쟎":4294,"쟏":4295,"쟐":4296,"쟘":4297,"쟙":4298,"쟛":4299,"쟜":4300,"쟝":4301,"쟞":4302,"쟟":4303,"쟠":4304,"쟡":4305,"쟣":4306,"쟤":4307,"쟥":4308,"쟨":4309,"쟬":4310,"쟴":4311,"쟸":4312,"쟹":4313,"쟼":4314,"저":4315,"적":4316,"젂":4317,"젃":4318,"전":4319,"젅":4320,"젆":4321,"젇":4322,"절":4323,"젉":4324,"젊":4325,"젋":4326,"젌":4327,"젍":4328,"젎":4329,"젏":4330,"점":4331,"접":4332,"젒":4333,"젓":4334,"젔":4335,"정":4336,"젖":4337,"젗":4338,"젘":4339,"젙":4340,"젚":4341,"젛":4342,"제":4343,"젝":4344,"젞":4345,"젠":4346,"젡":4347,"젣":4348,"젤":4349,"젬":4350,"젭":4351,"젯":4352,"젰":4353,"젱":4354,"젲":4355,"젳":4356,"젴":4357,"젵":4358,"젶":4359,"젷":4360,"져":4361,"젹":4362,"젺":4363,"젼":4364,"젾":4365,"젿":4366,"졀":4367,"졂":4368,"졈":4369,"졉":4370,"졋":4371,"졌":4372,"졍":4373,"졎":4374,"졏":4375,"졐":4376,"졑":4377,"졒":4378,"졓":4379,"졔":4380,"졘":4381,"졜":4382,"졨":4383,"졩":4384,"조":4385,"족":4386,"졲":4387,"졳":4388,"존":4389,"졵":4390,"졶":4391,"졷":4392,"졸":4393,"졹":4394,"졺":4395,"졻":4396,"졽":4397,"졿":4398,"좀":4399,"좁":4400,"좂":4401,"좃":4402,"좄":4403,"종":4404,"좆":4405,"좇":4406,"좈":4407,"좉":4408,"좊":4409,"좋":4410,"좌":4411,"좍":4412,"좎":4413,"좐":4414,"좒":4415,"좓":4416,"좔":4417,"좜":4418,"좝":4419,"좟":4420,"좠":4421,"좡":4422,"좢":4423,"좣":4424,"좤":4425,"좥":4426,"좦":4427,"좧":4428,"좨":4429,"좩":4430,"좬":4431,"좭":4432,"좮":4433,"좯":4434,"좰":4435,"좱":4436,"좸":4437,"좼":4438,"좽":4439,"죄":4440,"죅":4441,"죈":4442,"죌":4443,"죔":4444,"죕":4445,"죗":4446,"죘":4447,"죙":4448,"죚":4449,"죜":4450,"죝":4451,"죠":4452,"죡":4453,"죢":4454,"죣":4455,"죤":4456,"죥":4457,"죧":4458,"죨":4459,"죰":4460,"죱":4461,"죳":4462,"죴":4463,"죵":4464,"죶":4465,"죷":4466,"죸":4467,"죹":4468,"죺":4469,"죻":4470,"주":4471,"죽":4472,"죾":4473,"죿":4474,"준":4475,"줁":4476,"줂":4477,"줃":4478,"줄":4479,"줅":4480,"줆":4481,"줈":4482,"줉":4483,"줊":4484,"줋":4485,"줌":4486,"줍":4487,"줎":4488,"줏":4489,"줐":4490,"중":4491,"줒":4492,"줓":4493,"줔":4494,"줕":4495,"줖":4496,"줗":4497,"줘":4498,"줙":4499,"줚":4500,"줜":4501,"줝":4502,"줟":4503,"줠":4504,"줨":4505,"줩":4506,"줫":4507,"줬":4508,"줭":4509,"줮":4510,"줯":4511,"줰":4512,"줱":4513,"줳":4514,"줴":4515,"줵":4516,"줸":4517,"줼":4518,"쥄":4519,"쥅":4520,"쥇":4521,"쥈":4522,"쥉":4523,"쥐":4524,"쥑":4525,"쥔":4526,"쥘":4527,"쥠":4528,"쥡":4529,"쥣":4530,"쥤":4531,"쥥":4532,"쥦":4533,"쥨":4534,"쥫":4535,"쥬":4536,"쥭":4537,"쥰":4538,"쥳":4539,"쥴":4540,"쥼":4541,"쥽":4542,"쥿":4543,"즁":4544,"즂":4545,"즄":4546,"즇":4547,"즈":4548,"즉":4549,"즋":4550,"즌":4551,"즎":4552,"즏":4553,"즐":4554,"즑":4555,"즘":4556,"즙":4557,"즛":4558,"즜":4559,"증":4560,"즞":4561,"즟":4562,"즠":4563,"즡":4564,"즣":4565,"즤":4566,"즥":4567,"즨":4568,"즬":4569,"즴":4570,"즵":4571,"즷":4572,"즹":4573,"즺":4574,"즼":4575,"지":4576,"직":4577,"짂":4578,"짃":4579,"진":4580,"짅":4581,"짆":4582,"짇":4583,"질":4584,"짉":4585,"짊":4586,"짋":4587,"짌":4588,"짍":4589,"짎":4590,"짏":4591,"짐":4592,"집":4593,"짒":4594,"짓":4595,"짔":4596,"징":4597,"짖":4598,"짗":4599,"짘":4600,"짙":4601,"짚":4602,"짛":4603,"짜":4604,"짝":4605,"짞":4606,"짠":4607,"짢":4608,"짣":4609,"짤":4610,"짥":4611,"짦":4612,"짧":4613,"짪":4614,"짫":4615,"짬":4616,"짭":4617,"짮":4618,"짯":4619,"짰":4620,"짱":4621,"짲":4622,"짳":4623,"짴":4624,"짵":4625,"짶":4626,"짷":4627,"째":4628,"짹":4629,"짺":4630,"짼":4631,"짾":4632,"짿":4633,"쨀":4634,"쨈":4635,"쨉":4636,"쨋":4637,"쨌":4638,"쨍":4639,"쨎":4640,"쨐":4641,"쨓":4642,"쨔":4643,"쨕":4644,"쨖":4645,"쨘":4646,"쨚":4647,"쨜":4648,"쨟":4649,"쨤":4650,"쨥":4651,"쨧":4652,"쨨":4653,"쨩":4654,"쨬":4655,"쨰":4656,"쨱":4657,"쨲":4658,"쨴":4659,"쩀":4660,"쩁":4661,"쩃":4662,"쩄":4663,"쩅":4664,"쩌":4665,"쩍":4666,"쩎":4667,"쩐":4668,"쩑":4669,"쩓":4670,"쩔":4671,"쩕":4672,"쩖":4673,"쩗":4674,"쩘":4675,"쩛":4676,"쩜":4677,"쩝":4678,"쩟":4679,"쩠":4680,"쩡":4681,"쩢":4682,"쩣":4683,"쩤":4684,"쩦":4685,"쩧":4686,"쩨":4687,"쩩":4688,"쩬":4689,"쩰":4690,"쩸":4691,"쩹":4692,"쩻":4693,"쩼":4694,"쩽":4695,"쪄":4696,"쪅":4697,"쪈":4698,"쪌":4699,"쪔":4700,"쪕":4701,"쪗":4702,"쪘":4703,"쪙":4704,"쪚":4705,"쪜":4706,"쪟":4707,"쪠":4708,"쪵":4709,"쪹":4710,"쪻":4711,"쪼":4712,"쪽":4713,"쪾":4714,"쪿":4715,"쫀":4716,"쫂":4717,"쫃":4718,"쫄":4719,"쫅":4720,"쫌":4721,"쫍":4722,"쫏":4723,"쫐":4724,"쫑":4725,"쫒":4726,"쫓":4727,"쫔":4728,"쫕":4729,"쫖":4730,"쫗":4731,"쫘":4732,"쫙":4733,"쫚":4734,"쫛":4735,"쫜":4736,"쫟":4737,"쫠":4738,"쫨":4739,"쫩":4740,"쫫":4741,"쫭":4742,"쫰":4743,"쫴":4744,"쫵":4745,"쬈":4746,"쬎":4747,"쬐":4748,"쬑":4749,"쬔":4750,"쬘":4751,"쬠":4752,"쬡":4753,"쬥":4754,"쬬":4755,"쬭":4756,"쬮":4757,"쬰":4758,"쬲":4759,"쬴":4760,"쬼":4761,"쬽":4762,"쬿":4763,"쭀":4764,"쭁":4765,"쭂":4766,"쭃":4767,"쭄":4768,"쭅":4769,"쭈":4770,"쭉":4771,"쭊":4772,"쭌":4773,"쭏":4774,"쭐":4775,"쭕":4776,"쭘":4777,"쭙":4778,"쭛":4779,"쭝":4780,"쭞":4781,"쭟":4782,"쭠":4783,"쭤":4784,"쭥":4785,"쭨":4786,"쭬":4787,"쭭":4788,"쭵":4789,"쭷":4790,"쭸":4791,"쭹":4792,"쭻":4793,"쮀":4794,"쮁":4795,"쮇":4796,"쮉":4797,"쮑":4798,"쮓":4799,"쮔":4800,"쮕":4801,"쮜":4802,"쮝":4803,"쮠":4804,"쮤":4805,"쮭":4806,"쮱":4807,"쮸":4808,"쮹":4809,"쮼":4810,"쯀":4811,"쯈":4812,"쯉":4813,"쯋":4814,"쯍":4815,"쯎":4816,"쯔":4817,"쯕":4818,"쯘":4819,"쯛":4820,"쯜":4821,"쯤":4822,"쯥":4823,"쯧":4824,"쯨":4825,"쯩":4826,"쯪":4827,"쯫":4828,"쯰":4829,"쯱":4830,"쯴":4831,"찁":4832,"찅":4833,"찌":4834,"찍":4835,"찎":4836,"찏":4837,"찐":4838,"찓":4839,"찔":4840,"찗":4841,"찜":4842,"찝":4843,"찟":4844,"찠":4845,"찡":4846,"찢":4847,"찣":4848,"찤":4849,"찥":4850,"찦":4851,"찧":4852,"차":4853,"착":4854,"찪":4855,"찫":4856,"찬":4857,"찭":4858,"찮":4859,"찯":4860,"찰":4861,"찱":4862,"찲":4863,"찳":4864,"찴":4865,"찷":4866,"참":4867,"찹":4868,"찻":4869,"찼":4870,"창":4871,"찾":4872,"찿":4873,"챀":4874,"챁":4875,"챂":4876,"챃":4877,"채":4878,"책":4879,"챈":4880,"챊":4881,"챋":4882,"챌":4883,"챔":4884,"챕":4885,"챗":4886,"챘":4887,"챙":4888,"챚":4889,"챜":4890,"챝":4891,"챠":4892,"챡":4893,"챤":4894,"챦":4895,"챨":4896,"챫":4897,"챰":4898,"챱":4899,"챳":4900,"챴":4901,"챵":4902,"챶":4903,"챷":4904,"챸":4905,"챺":4906,"챻":4907,"챼":4908,"챽":4909,"첑":4910,"처":4911,"척":4912,"천":4913,"첝":4914,"첞":4915,"첟":4916,"철":4917,"첡":4918,"첢":4919,"첣":4920,"첤":4921,"첧":4922,"첨":4923,"첩":4924,"첪":4925,"첫":4926,"첬":4927,"청":4928,"첮":4929,"첯":4930,"첰":4931,"첱":4932,"첲":4933,"첳":4934,"체":4935,"첵":4936,"첸":4937,"첻":4938,"첼":4939,"쳄":4940,"쳅":4941,"쳇":4942,"쳈":4943,"쳉":4944,"쳊":4945,"쳋":4946,"쳌":4947,"쳍":4948,"쳏":4949,"쳐":4950,"쳑":4951,"쳒":4952,"쳔":4953,"쳗":4954,"쳘":4955,"쳠":4956,"쳡":4957,"쳢":4958,"쳣":4959,"쳤":4960,"쳥":4961,"쳦":4962,"쳧":4963,"쳨":4964,"쳫":4965,"쳬":4966,"쳭":4967,"쳰":4968,"쳴":4969,"촀":4970,"초":4971,"촉":4972,"촌":4973,"촏":4974,"촐":4975,"촔":4976,"촘":4977,"촙":4978,"촛":4979,"촜":4980,"총":4981,"촞":4982,"촟":4983,"촠":4984,"촡":4985,"촣":4986,"촤":4987,"촥":4988,"촨":4989,"촪":4990,"촬":4991,"촴":4992,"촵":4993,"촷":4994,"촹":4995,"촺":4996,"촼":4997,"쵀":4998,"쵁":4999,"쵕":5000,"최":5001,"쵝":5002,"쵠":5003,"쵤":5004,"쵭":5005,"쵮":5006,"쵯":5007,"쵱":5008,"쵲":5009,"쵴":5010,"쵸":5011,"쵹":5012,"쵼":5013,"쵿":5014,"춀":5015,"춈":5016,"춉":5017,"춋":5018,"춌":5019,"춍":5020,"춎":5021,"춏":5022,"춐":5023,"추":5024,"축":5025,"춘":5026,"춚":5027,"춛":5028,"출":5029,"춝":5030,"춞":5031,"춟":5032,"춠":5033,"춡":5034,"춣":5035,"춤":5036,"춥":5037,"춧":5038,"충":5039,"춪":5040,"춫":5041,"춬":5042,"춭":5043,"춮":5044,"춯":5045,"춰":5046,"춱":5047,"춴":5048,"춸":5049,"췁":5050,"췃":5051,"췄":5052,"췅":5053,"췆":5054,"췈":5055,"췌":5056,"췍":5057,"췐":5058,"췔":5059,"췕":5060,"췜":5061,"췝":5062,"췟":5063,"췡":5064,"췤":5065,"취":5066,"췩":5067,"췬":5068,"췰":5069,"췸":5070,"췹":5071,"췻":5072,"췼":5073,"췽":5074,"츀":5075,"츃":5076,"츄":5077,"츅":5078,"츈":5079,"츌":5080,"츔":5081,"츕":5082,"츗":5083,"츙":5084,"츛":5085,"츜":5086,"츞":5087,"츠":5088,"측":5089,"츤":5090,"츧":5091,"츨":5092,"츰":5093,"츱":5094,"츳":5095,"층":5096,"츶":5097,"츷":5098,"츸":5099,"츹":5100,"츼":5101,"츽":5102,"칀":5103,"칄":5104,"칌":5105,"칍":5106,"칑":5107,"칔":5108,"치":5109,"칙":5110,"친":5111,"칝":5112,"칞":5113,"칟":5114,"칠":5115,"칡":5116,"칢":5117,"칤":5118,"칧":5119,"침":5120,"칩":5121,"칫":5122,"칬":5123,"칭":5124,"칮":5125,"칯":5126,"칰":5127,"칱":5128,"칲":5129,"칳":5130,"카":5131,"칵":5132,"칶":5133,"칸":5134,"칻":5135,"칼":5136,"칽":5137,"캄":5138,"캅":5139,"캆":5140,"캇":5141,"캈":5142,"캉":5143,"캊":5144,"캋":5145,"캌":5146,"캍":5147,"캎":5148,"캏":5149,"캐":5150,"캑":5151,"캔":5152,"캘":5153,"캙":5154,"캠":5155,"캡":5156,"캢":5157,"캣":5158,"캤":5159,"캥":5160,"캨":5161,"캩":5162,"캪":5163,"캬":5164,"캭":5165,"캮":5166,"캰":5167,"캴":5168,"캵":5169,"캼":5170,"캽":5171,"캿":5172,"컀":5173,"컁":5174,"컄":5175,"컅":5176,"컇":5177,"컈":5178,"커":5179,"컥":5180,"컨":5181,"컫":5182,"컬":5183,"컭":5184,"컯":5185,"컴":5186,"컵":5187,"컷":5188,"컸":5189,"컹":5190,"컺":5191,"컼":5192,"컽":5193,"컾":5194,"컿":5195,"케":5196,"켁":5197,"켄":5198,"켇":5199,"켈":5200,"켉":5201,"켐":5202,"켑":5203,"켓":5204,"켔":5205,"켕":5206,"켘":5207,"켙":5208,"켚":5209,"켛":5210,"켜":5211,"켝":5212,"켞":5213,"켠":5214,"켤":5215,"켬":5216,"켭":5217,"켯":5218,"켰":5219,"켱":5220,"켲":5221,"켴":5222,"켵":5223,"켷":5224,"켸":5225,"켼":5226,"콋":5227,"콌":5228,"코":5229,"콕":5230,"콘":5231,"콛":5232,"콜":5233,"콤":5234,"콥":5235,"콧":5236,"콩":5237,"콪":5238,"콫":5239,"콬":5240,"콭":5241,"콮":5242,"콯":5243,"콰":5244,"콱":5245,"콲":5246,"콴":5247,"콸":5248,"쾀":5249,"쾃":5250,"쾅":5251,"쾈":5252,"쾌":5253,"쾍":5254,"쾐":5255,"쾡":5256,"쾤":5257,"쾨":5258,"쾩":5259,"쾬":5260,"쾰":5261,"쾽":5262,"쿄":5263,"쿅":5264,"쿈":5265,"쿌":5266,"쿔":5267,"쿗":5268,"쿙":5269,"쿜":5270,"쿠":5271,"쿡":5272,"쿢":5273,"쿤":5274,"쿧":5275,"쿨":5276,"쿩":5277,"쿫":5278,"쿯":5279,"쿰":5280,"쿱":5281,"쿳":5282,"쿵":5283,"쿸":5284,"쿹":5285,"쿺":5286,"쿻":5287,"쿼":5288,"쿽":5289,"퀀":5290,"퀄":5291,"퀌":5292,"퀏":5293,"퀐":5294,"퀑":5295,"퀔":5296,"퀘":5297,"퀙":5298,"퀜":5299,"퀠":5300,"퀡":5301,"퀫":5302,"퀭":5303,"퀰":5304,"퀴":5305,"퀵":5306,"퀸":5307,"퀻":5308,"퀼":5309,"큄":5310,"큅":5311,"큇":5312,"큉":5313,"큌":5314,"큐":5315,"큑":5316,"큔":5317,"큘":5318,"큠":5319,"큡":5320,"큣":5321,"큥":5322,"큨":5323,"큩":5324,"큪":5325,"크":5326,"큭":5327,"큮":5328,"큰":5329,"큲":5330,"큳":5331,"클":5332,"큵":5333,"큷":5334,"큻":5335,"큼":5336,"큽":5337,"큿":5338,"킀":5339,"킁":5340,"킂":5341,"킄":5342,"킅":5343,"킆":5344,"킇":5345,"킈":5346,"킉":5347,"킌":5348,"킐":5349,"킘":5350,"킝":5351,"킠":5352,"키":5353,"킥":5354,"킦":5355,"킨":5356,"킫":5357,"킬":5358,"킴":5359,"킵":5360,"킶":5361,"킷":5362,"킸":5363,"킹":5364,"킺":5365,"킼":5366,"킽":5367,"킾":5368,"킿":5369,"타":5370,"탁":5371,"탂":5372,"탄":5373,"탅":5374,"탆":5375,"탇":5376,"탈":5377,"탉":5378,"탊":5379,"탍":5380,"탏":5381,"탐":5382,"탑":5383,"탓":5384,"탔":5385,"탕":5386,"탖":5387,"탗":5388,"탘":5389,"탙":5390,"탚":5391,"탛":5392,"태":5393,"택":5394,"탞":5395,"탟":5396,"탠":5397,"탣":5398,"탤":5399,"탬":5400,"탭":5401,"탯":5402,"탰":5403,"탱":5404,"탲":5405,"탴":5406,"탵":5407,"탶":5408,"탷":5409,"탸":5410,"탹":5411,"탼":5412,"턀":5413,"턈":5414,"턉":5415,"턋":5416,"턍":5417,"턐":5418,"턑":5419,"턔":5420,"턕":5421,"턘":5422,"턩":5423,"터":5424,"턱":5425,"턴":5426,"턷":5427,"털":5428,"턹":5429,"턺":5430,"텀":5431,"텁":5432,"텂":5433,"텃":5434,"텄":5435,"텅":5436,"텆":5437,"텇":5438,"텈":5439,"텉":5440,"텊":5441,"텋":5442,"테":5443,"텍":5444,"텐":5445,"텓":5446,"텔":5447,"템":5448,"텝":5449,"텟":5450,"텠":5451,"텡":5452,"텢":5453,"텣":5454,"텤":5455,"텥":5456,"텦":5457,"텧":5458,"텨":5459,"텩":5460,"텬":5461,"텰":5462,"텸":5463,"텹":5464,"텻":5465,"텼":5466,"텽":5467,"톀":5468,"톃":5469,"톄":5470,"톅":5471,"톈":5472,"톌":5473,"톔":5474,"토":5475,"톡":5476,"톢":5477,"톤":5478,"톧":5479,"톨":5480,"톩":5481,"톪":5482,"톰":5483,"톱":5484,"톳":5485,"통":5486,"톶":5487,"톷":5488,"톸":5489,"톹":5490,"톺":5491,"톻":5492,"톼":5493,"톽":5494,"퇀":5495,"퇄":5496,"퇌":5497,"퇍":5498,"퇏":5499,"퇑":5500,"퇘":5501,"퇙":5502,"퇜":5503,"퇧":5504,"퇫":5505,"퇬":5506,"퇭":5507,"퇮":5508,"퇴":5509,"퇵":5510,"퇶":5511,"퇸":5512,"퇼":5513,"툄":5514,"툅":5515,"툇":5516,"툈":5517,"툉":5518,"툊":5519,"툌":5520,"툐":5521,"툑":5522,"툠":5523,"툣":5524,"툥":5525,"툨":5526,"툩":5527,"투":5528,"툭":5529,"툰":5530,"툱":5531,"툲":5532,"툳":5533,"툴":5534,"툶":5535,"툻":5536,"툼":5537,"툽":5538,"툿":5539,"퉁":5540,"퉂":5541,"퉄":5542,"퉅":5543,"퉆":5544,"퉈":5545,"퉉":5546,"퉌":5547,"퉐":5548,"퉛":5549,"퉜":5550,"퉝":5551,"퉤":5552,"퉥":5553,"퉨":5554,"퉬":5555,"퉵":5556,"퉷":5557,"퉸":5558,"퉹":5559,"퉼":5560,"퉽":5561,"튀":5562,"튁":5563,"튄":5564,"튈":5565,"튐":5566,"튑":5567,"튓":5568,"튔":5569,"튕":5570,"튘":5571,"튜":5572,"튝":5573,"튠":5574,"튤":5575,"튬":5576,"튭":5577,"튱":5578,"튴":5579,"튵":5580,"튶":5581,"트":5582,"특":5583,"튺":5584,"튻":5585,"튼":5586,"튽":5587,"튿":5588,"틀":5589,"틁":5590,"틂":5591,"틅":5592,"틇":5593,"틈":5594,"틉":5595,"틊":5596,"틋":5597,"틍":5598,"틎":5599,"틏":5600,"틐":5601,"틑":5602,"틒":5603,"틓":5604,"틔":5605,"틕":5606,"틘":5607,"틜":5608,"틤":5609,"틧":5610,"틩":5611,"티":5612,"틱":5613,"틳":5614,"틴":5615,"틷":5616,"틸":5617,"팀":5618,"팁":5619,"팃":5620,"팄":5621,"팅":5622,"팆":5623,"팈":5624,"팉":5625,"팊":5626,"파":5627,"팍":5628,"팎":5629,"팏":5630,"판":5631,"팑":5632,"팒":5633,"팓":5634,"팔":5635,"팕":5636,"팖":5637,"팗":5638,"팘":5639,"팙":5640,"팚":5641,"팛":5642,"팜":5643,"팝":5644,"팟":5645,"팠":5646,"팡":5647,"팢":5648,"팣":5649,"팤":5650,"팥":5651,"팦":5652,"팧":5653,"패":5654,"팩":5655,"팬":5656,"팯":5657,"팰":5658,"팸":5659,"팹":5660,"팻":5661,"팼":5662,"팽":5663,"퍀":5664,"퍁":5665,"퍄":5666,"퍅":5667,"퍈":5668,"퍌":5669,"퍔":5670,"퍙":5671,"퍝":5672,"퍞":5673,"퍠":5674,"퍡":5675,"퍤":5676,"퍵":5677,"퍼":5678,"퍽":5679,"퍾":5680,"펀":5681,"펃":5682,"펄":5683,"펅":5684,"펌":5685,"펍":5686,"펏":5687,"펐":5688,"펑":5689,"펒":5690,"펔":5691,"펕":5692,"펖":5693,"펗":5694,"페":5695,"펙":5696,"펜":5697,"펟":5698,"펠":5699,"펨":5700,"펩":5701,"펫":5702,"펭":5703,"펰":5704,"펲":5705,"펴":5706,"펵":5707,"편":5708,"펹":5709,"펺":5710,"펻":5711,"펼":5712,"폄":5713,"폅":5714,"폇":5715,"폈":5716,"평":5717,"폌":5718,"폐":5719,"폑":5720,"폔":5721,"폘":5722,"폠":5723,"폡":5724,"폣":5725,"폥":5726,"폨":5727,"포":5728,"폭":5729,"폯":5730,"폰":5731,"폳":5732,"폴":5733,"폼":5734,"폽":5735,"폿":5736,"퐁":5737,"퐂":5738,"퐄":5739,"퐅":5740,"퐆":5741,"퐇":5742,"퐈":5743,"퐉":5744,"퐌":5745,"퐐":5746,"퐑":5747,"퐘":5748,"퐙":5749,"퐛":5750,"퐜":5751,"퐝":5752,"퐠":5753,"퐣":5754,"퐤":5755,"퐥":5756,"퐨":5757,"푀":5758,"푁":5759,"푄":5760,"푈":5761,"푕":5762,"표":5763,"푝":5764,"푠":5765,"푤":5766,"푬":5767,"푭":5768,"푯":5769,"푱":5770,"푲":5771,"푴":5772,"푶":5773,"푷":5774,"푸":5775,"푹":5776,"푼":5777,"푿":5778,"풀":5779,"풁":5780,"풂":5781,"풃":5782,"풇":5783,"품":5784,"풉":5785,"풋":5786,"풍":5787,"풎":5788,"풏":5789,"풐":5790,"풑":5791,"풒":5792,"풓":5793,"풔":5794,"풕":5795,"풘":5796,"풜":5797,"풩":5798,"풬":5799,"풰":5800,"풱":5801,"풴":5802,"풸":5803,"풹":5804,"퓅":5805,"퓌":5806,"퓍":5807,"퓐":5808,"퓔":5809,"퓟":5810,"퓡":5811,"퓨":5812,"퓩":5813,"퓬":5814,"퓰":5815,"퓸":5816,"퓹":5817,"퓻":5818,"퓽":5819,"퓿":5820,"픀":5821,"픂":5822,"픃":5823,"프":5824,"픅":5825,"픈":5826,"픋":5827,"플":5828,"픍":5829,"픎":5830,"픓":5831,"픔":5832,"픕":5833,"픗":5834,"픙":5835,"픚":5836,"픜":5837,"픝":5838,"픞":5839,"픟":5840,"픠":5841,"픤":5842,"픨":5843,"픵":5844,"픹":5845,"피":5846,"픽":5847,"핀":5848,"핃":5849,"필":5850,"핆":5851,"핋":5852,"핌":5853,"핍":5854,"핏":5855,"핐":5856,"핑":5857,"핒":5858,"핓":5859,"핔":5860,"핕":5861,"핖":5862,"핗":5863,"하":5864,"학":5865,"핚":5866,"핛":5867,"한":5868,"핝":5869,"핞":5870,"핟":5871,"할":5872,"핡":5873,"핢":5874,"핣":5875,"핤":5876,"핥":5877,"핦":5878,"핧":5879,"함":5880,"합":5881,"핪":5882,"핫":5883,"핬":5884,"항":5885,"핮":5886,"핯":5887,"핰":5888,"핱":5889,"핲":5890,"핳":5891,"해":5892,"핵":5893,"핶":5894,"핷":5895,"핸":5896,"핺":5897,"핻":5898,"핼":5899,"핽":5900,"햄":5901,"햅":5902,"햇":5903,"했":5904,"행":5905,"햊":5906,"햋":5907,"햌":5908,"햍":5909,"햎":5910,"햏":5911,"햐":5912,"햑":5913,"햔":5914,"햘":5915,"햙":5916,"햚":5917,"햛":5918,"햝":5919,"햟":5920,"햠":5921,"햡":5922,"햣":5923,"햤":5924,"향":5925,"햨":5926,"햩":5927,"햫":5928,"햬":5929,"햭":5930,"햰":5931,"햿":5932,"헀":5933,"헁":5934,"허":5935,"헉":5936,"헊":5937,"헋":5938,"헌":5939,"헍":5940,"헏":5941,"헐":5942,"헑":5943,"헒":5944,"헓":5945,"헔":5946,"헕":5947,"헗":5948,"험":5949,"헙":5950,"헚":5951,"헛":5952,"헜":5953,"헝":5954,"헞":5955,"헟":5956,"헠":5957,"헡":5958,"헢":5959,"헣":5960,"헤":5961,"헥":5962,"헦":5963,"헧":5964,"헨":5965,"헫":5966,"헬":5967,"헭":5968,"헯":5969,"헰":5970,"헱":5971,"헲":5972,"헳":5973,"헴":5974,"헵":5975,"헶":5976,"헷":5977,"헸":5978,"헹":5979,"헼":5980,"헽":5981,"헾":5982,"헿":5983,"혀":5984,"혁":5985,"혂":5986,"혃":5987,"현":5988,"혅":5989,"혆":5990,"혇":5991,"혈":5992,"혉":5993,"혐":5994,"협":5995,"혒":5996,"혓":5997,"혔":5998,"형":5999,"혖":6000,"혘":6001,"혙":6002,"혚":6003,"혛":6004,"혜":6005,"혝":6006,"혠":6007,"혤":6008,"혬":6009,"혭":6010,"혯":6011,"혰":6012,"혱":6013,"혲":6014,"혴":6015,"혷":6016,"호":6017,"혹":6018,"혺":6019,"혻":6020,"혼":6021,"혽":6022,"혾":6023,"혿":6024,"홀":6025,"홁":6026,"홅":6027,"홇":6028,"홈":6029,"홉":6030,"홋":6031,"홍":6032,"홎":6033,"홐":6034,"홑":6035,"홒":6036,"홓":6037,"화":6038,"확":6039,"홖":6040,"홗":6041,"환":6042,"홙":6043,"홛":6044,"활":6045,"홝":6046,"홟":6047,"홡":6048,"홣":6049,"홤":6050,"홥":6051,"홧":6052,"홨":6053,"황":6054,"홪":6055,"홫":6056,"홬":6057,"홭":6058,"홮":6059,"홯":6060,"홰":6061,"홱":6062,"홴":6063,"횃":6064,"횄":6065,"횅":6066,"회":6067,"획":6068,"횐":6069,"횓":6070,"횔":6071,"횜":6072,"횝":6073,"횟":6074,"횠":6075,"횡":6076,"횢":6077,"횤":6078,"횧":6079,"효":6080,"횩":6081,"횬":6082,"횰":6083,"횸":6084,"횹":6085,"횻":6086,"횽":6087,"훀":6088,"훃":6089,"후":6090,"훅":6091,"훈":6092,"훉":6093,"훊":6094,"훋":6095,"훌":6096,"훍":6097,"훏":6098,"훑":6099,"훓":6100,"훔":6101,"훕":6102,"훗":6103,"훙":6104,"훚":6105,"훛":6106,"훜":6107,"훝":6108,"훞":6109,"훟":6110,"훠":6111,"훡":6112,"훤":6113,"훨":6114,"훯":6115,"훰":6116,"훱":6117,"훳":6118,"훵":6119,"훸":6120,"훻":6121,"훼":6122,"훽":6123,"휀":6124,"휄":6125,"휅":6126,"휇":6127,"휍":6128,"휏":6129,"휐":6130,"휑":6131,"휔":6132,"휗":6133,"휘":6134,"휙":6135,"휜":6136,"휠":6137,"휨":6138,"휩":6139,"휫":6140,"휭":6141,"휰":6142,"휲":6143,"휳":6144,"휴":6145,"휵":6146,"휸":6147,"휼":6148,"흄":6149,"흅":6150,"흇":6151,"흉":6152,"흊":6153,"흌":6154,"흎":6155,"흏":6156,"흐":6157,"흑":6158,"흒":6159,"흓":6160,"흔":6161,"흗":6162,"흘":6163,"흙":6164,"흚":6165,"흛":6166,"흜":6167,"흝":6168,"흟":6169,"흠":6170,"흡":6171,"흣":6172,"흤":6173,"흥":6174,"흦":6175,"흨":6176,"흩":6177,"흪":6178,"흫":6179,"희":6180,"흭":6181,"흰":6182,"흳":6183,"흴":6184,"흵":6185,"흼":6186,"흽":6187,"흿":6188,"힁":6189,"힂":6190,"힄":6191,"힇":6192,"히":6193,"힉":6194,"힊":6195,"힌":6196,"힏":6197,"힐":6198,"힑":6199,"힒":6200,"힕":6201,"힗":6202,"힘":6203,"힙":6204,"힛":6205,"힜":6206,"힝":6207,"힞":6208,"힟":6209,"힠":6210,"힡":6211,"힢":6212,"힣":6213,"％":6214,"##과":6215,"##접":6216,"##시":6217,"##보":6218,"##면":6219,"##상":6220,"##수":6221,"##감":6222,"##독":6223,"##같":6224,"##은":6225,"##날":6226,"##준":6227,"##비":6228,"##♬":6229,"##를":6230,"##한":6231,"##다":6232,"##동":6233,"##안":6234,"##갈":6235,"##려":6236,"##니":6237,"##품":6238,"##속":6239,"##주":6240,"##인":6241,"##공":6242,"##되":6243,"##서":6244,"##개":6245,"##지":6246,"##는":6247,"##가":6248,"##복":6249,"##었":6250,"##기":6251,"##도":6252,"##대":6253,"##원":6254,"##이":6255,"##거":6256,"##나":6257,"##자":6258,"##처":6259,"##라":6260,"##릿":6261,"##쫌":6262,"##갸":6263,"##아":6264,"##악":6265,"##회":6266,"##말":6267,"##타":6268,"##선":6269,"##형":6270,"##매":6271,"##능":6272,"##금":6273,"##액":6274,"##제":6275,"##해":6276,"##야":6277,"##할":6278,"##듯":6279,"##못":6280,"##하":6281,"##뜨":6282,"##운":6283,"##을":6284,"##요":6285,"##o":6286,"##r":6287,"##w":6288,"##a":6289,"##y":6290,"##9":6291,"##실":6292,"##신":6293,"##것":6294,"##음":6295,"##숙":6296,"##졋":6297,"##으":6298,"##까":6299,"##째":6300,"##따":6301,"##님":6302,"##찰":6303,"##일":6304,"##고":6305,"##죄":6306,"##로":6307,"##년":6308,"##짜":6309,"##리":6310,"##료":6311,"##훈":6312,"##있":6313,"##군":6314,"##여":6315,"##쌔":6316,"##헤":6317,"##체":6318,"##노":6319,"##좀":6320,"##재":6321,"##배":6322,"##척":6323,"##초":6324,"##등":6325,"##학":6326,"##교":6327,"##욕":6328,"##산":6329,"##용":6330,"##전":6331,"##치":6332,"##어":6333,"##느":6334,"##새":6335,"##각":6336,"##했":6337,"##업":6338,"##철":6339,"##에":6340,"##즈":6341,"##파":6342,"##트":6343,"##결":6344,"##손":6345,"##랑":6346,"##앗":6347,"##겠":6348,"##입":6349,"##뒷":6350,"##그":6351,"##림":6352,"##세":6353,"##무":6354,"##작":6355,"##페":6356,"##마":6357,"##바":6358,"##꿈":6359,"##택":6360,"##걸":6361,"##문":6362,"##표":6363,"##정":6364,"##테":6365,"##블":6366,"##피":6367,"##씨":6368,"##의":6369,"##맹":6370,"##덕":6371,"##죽":6372,"##록":6373,"##사":6374,"##발":6375,"##레":6376,"##롱":6377,"##적":6378,"##술":6379,"##네":6380,"##c":6381,"##p":6382,"##들":6383,"##납":6384,"##방":6385,"##망":6386,"##누":6387,"##릴":6388,"##데":6389,"##키":6390,"##역":6391,"##러":6392,"##엿":6393,"##던":6394,"##돌":6395,"##소":6396,"##만":6397,"##모":6398,"##화":6399,"##연":6400,"##분":6401,"##댕":6402,"##구":6403,"##유":6404,"##맙":6405,"##스":6406,"##읍":6407,"##잖":6408,"##2":6409,"##병":6410,"##웹":6411,"##툰":6412,"##환":6413,"##목":6414,"##랄":6415,"##급":6416,"##출":6417,"##국":6418,"##힏":6419,"##깤":6420,"##촉":6421,"##쵹":6422,"##간":6423,"##반":6424,"##설":6425,"##뭐":6426,"##쓰":6427,"##움":6428,"##내":6429,"##번":6430,"##령":6431,"##였":6432,"##순":6433,"##런":6434,"##우":6435,"##포":6436,"##외":6437,"##젤":6438,"##센":6439,"##터":6440,"##럼":6441,"##1":6442,"##올":6443,"##오":6444,"##욜":6445,"##꺼":6446,"##권":6447,"##통":6448,"##합":6449,"##건":6450,"##콤":6451,"##싫":6452,"##객":6453,"##계":6454,"##드":6455,"##물":6456,"##버":6457,"##폰":6458,"##조":6459,"##펀":6460,"##0":6461,"##7":6462,"##명":6463,"##밖":6464,"##엔":6465,"##팔":6466,"##쥐":6467,"##싱":6468,"##얔":6469,"##놓":6470,"##와":6471,"##n":6472,"##t":6473,"##e":6474,"##i":6475,"##l":6476,"##s":6477,"##m":6478,"##게":6479,"##든":6480,"##카":6481,"##른":6482,"##애":6483,"##없":6484,"##민":6485,"##3":6486,"##쿨":6487,"##때":6488,"##부":6489,"##봐":6490,"##장":6491,"##진":6492,"##식":6493,"##갑":6494,"##래":6495,"##단":6496,"##8":6497,"##률":6498,"##왠":6499,"##후":6500,"##천":6501,"##점":6502,"##메":6503,"##답":6504,"##류":6505,"##냐":6506,"##혁":6507,"##근":6508,"##절":6509,"##5":6510,"##중":6511,"##성":6512,"##k":6513,"##d":6514,"##박":6515,"##죠":6516,"##낰":6517,"##토":6518,"##늄":6519,"##확":6520,"##름":6521,"##왔":6522,"##임":6523,"##프":6524,"##채":6525,"##켜":6526,"##막":6527,"##관":6528,"##련":6529,"##된":6530,"##불":6531,"##꽃":6532,"##팝":6533,"##왕":6534,"##린":6535,"##란":6536,"##탄":6537,"##추":6538,"##행":6539,"##켓":6540,"##맨":6541,"##르":6542,"##엘":6543,"##험":6544,"##생":6545,"##밀":6546,"##위":6547,"##뻑":6548,"##삼":6549,"##워":6550,"##집":6551,"##며":6552,"##좋":6553,"##몰":6554,"##폭":6555,"##않":6556,"##겁":6557,"##태":6558,"##디":6559,"##셨":6560,"##락":6561,"##백":6562,"##족":6563,"##칭":6564,"##붙":6565,"##약":6566,"##직":6567,"##본":6568,"##견":6569,"##경":6570,"##광":6571,"##석":6572,"##렴":6573,"##활":6574,"##더":6575,"##육":6576,"##닐":6577,"##츠":6578,"##협":6579,"##력":6580,"##겄":6581,"##청":6582,"##필":6583,"##받":6584,"##놈":6585,"##율":6586,"##당":6587,"##큰":6588,"##케":6589,"##봉":6590,"##됐":6591,"##뱄":6592,"##밌":6593,"##4":6594,"##빼":6595,"##넘":6596,"##줬":6597,"##평":6598,"##혼":6599,"##머":6600,"##뿐":6601,"##베":6602,"##저":6603,"##R":6604,"##C":6605,"##월":6606,"##호":6607,"##뱃":6608,"##달":6609,"##눌":6610,"##럽":6611,"##왈":6612,"##g":6613,"##엇":6614,"##먹":6615,"##획":6616,"##브":6617,"##렀":6618,"##습":6619,"##캐":6620,"##릭":6621,"##질":6622,"##햇":6623,"##남":6624,"##았":6625,"##겟":6626,"##떡":6627,"##언":6628,"##딸":6629,"##떻":6630,"##섞":6631,"##알":6632,"##션":6633,"##T":6634,"##O":6635,"##흙":6636,"##뚥":6637,"##법":6638,"##미":6639,"##쟁":6640,"##담":6641,"##씀":6642,"##픔":6643,"##억":6644,"##종":6645,"##예":6646,"##크":6647,"##람":6648,"##몫":6649,"##렁":6650,"##졌":6651,"##낸":6652,"##투":6653,"##렸":6654,"##총":6655,"##창":6656,"##묶":6657,"##났":6658,"##탓":6659,"##켰":6660,"##펜":6661,"##킹":6662,"##팅":6663,"##울":6664,"##S":6665,"##L":6666,"##심":6667,"##윤":6668,"##랫":6669,"##씩":6670,"##깍":6671,"##묵":6672,"##난":6673,"##송":6674,"##온":6675,"##궁":6676,"##염":6677,"##퓰":6678,"##책":6679,"##뒤":6680,"##별":6681,"##념":6682,"##끼":6683,"##영":6684,"##찍":6685,"##댓":6686,"##긴":6687,"##십":6688,"##섬":6689,"##똑":6690,"##셧":6691,"##랴":6692,"##뚫":6693,"##귀":6694,"##줘":6695,"##줄":6696,"##희":6697,"##김":6698,"##격":6699,"##줍":6700,"##덧":6701,"##얼":6702,"##굴":6703,"##팩":6704,"##밤":6705,"##잘":6706,"##됄":6707,"##냥":6708,"##쎄":6709,"##길":6710,"##랩":6711,"##웅":6712,"##엡":6713,"##털":6714,"##넣":6715,"##닌":6716,"##흑":6717,"##맘":6718,"##옴":6719,"##앞":6720,"##컬":6721,"##링":6722,"##곤":6723,"##큐":6724,"##강":6725,"##범":6726,"##렌":6727,"##맛":6728,"##될":6729,"##곳":6730,"##찾":6731,"##쩌":6732,"##차":6733,"##I":6734,"##M":6735,"##F":6736,"##짼":6737,"##뎃":6738,"##끓":6739,"##엉":6740,"##킥":6741,"##판":6742,"##낼":6743,"##현":6744,"##J":6745,"##큼":6746,"##킨":6747,"##변":6748,"##헬":6749,"##춘":6750,"##친":6751,"##쌀":6752,"##살":6753,"##봤":6754,"##극":6755,"##낌":6756,"##쿠":6757,"##잃":6758,"##삽":6759,"##롤":6760,"##앙":6761,"##6":6762,"##팡":6763,"##황":6764,"##글":6765,"##P":6766,"##u":6767,"##두":6768,"##함":6769,"##꾼":6770,"##룹":6771,"##몇":6772,"##릉":6773,"##침":6774,"##뉴":6775,"##또":6776,"##숨":6777,"##띄":6778,"##뽑":6779,"##축":6780,"##뱇":6781,"##톤":6782,"##찌":6783,"##샷":6784,"##셤":6785,"##굿":6786,"##쁜":6787,"##텐":6788,"##둘":6789,"##코":6790,"##쿄":6791,"##끗":6792,"##닙":6793,"##찬":6794,"##떠":6795,"##엄":6796,"##x":6797,"##킴":6798,"##얽":6799,"##히":6800,"##랬":6801,"##충":6802,"##슷":6803,"##긋":6804,"##홍":6805,"##색":6806,"##볼":6807,"##랔":6808,"##휴":6809,"##싶":6810,"##셈":6811,"##믈":6812,"##b":6813,"##깔":6814,"##론":6815,"##빨":6816,"##잡":6817,"##삭":6818,"##숲":6819,"##힌":6820,"##왓":6821,"##닦":6822,"##렬":6823,"##셔":6824,"##루":6825,"##궐":6826,"##쉰":6827,"##규":6828,"##써":6829,"##많":6830,"##쉽":6831,"##갓":6832,"##멜":6833,"##팦":6834,"##콘":6835,"##깡":6836,"##빠":6837,"##티":6838,"##끝":6839,"##흘":6840,"##량":6841,"##끈":6842,"##혈":6843,"##칼":6844,"##녀":6845,"##편":6846,"##툼":6847,"##검":6848,"##뚱":6849,"##맞":6850,"##특":6851,"##쁘":6852,"##융":6853,"##뻐":6854,"##Q":6855,"##옥":6856,"##존":6857,"##둥":6858,"##튼":6859,"##꼴":6860,"##엣":6861,"##읽":6862,"##봣":6863,"##탈":6864,"##익":6865,"##겼":6866,"##H":6867,"##U":6868,"##뭔":6869,"##클":6870,"##낮":6871,"##잇":6872,"##묻":6873,"##씌":6874,"##낫":6875,"##샤":6876,"##겨":6877,"##됴":6878,"##찐":6879,"##쉬":6880,"##띠":6881,"##뜻":6882,"##떨":6883,"##깐":6884,"##플":6885,"##쩝":6886,"##갔":6887,"##뽀":6888,"##북":6889,"##커":6890,"##쾅":6891,"##닷":6892,"##껄":6893,"##께":6894,"##렙":6895,"##썅":6896,"##싸":6897,"##멈":6898,"##A":6899,"##튀":6900,"##숍":6901,"##칙":6902,"##껴":6903,"##닽":6904,"##슨":6905,"##뚝":6906,"##취":6907,"##좆":6908,"##앟":6909,"##농":6910,"##빡":6911,"##봇":6912,"##벌":6913,"##믿":6914,"##향":6915,"##퇴":6916,"##착":6917,"##닥":6918,"##뽄":6919,"##캡":6920,"##쳐":6921,"##패":6922,"##킬":6923,"##늘":6924,"##져":6925,"##랭":6926,"##썬":6927,"##깟":6928,"##잔":6929,"##괒":6930,"##립":6931,"##룡":6932,"##펴":6933,"##X":6934,"##쫄":6935,"##탁":6936,"##펫":6937,"##닮":6938,"##겜":6939,"##앉":6940,"##혀":6941,"##텍":6942,"##항":6943,"##얗":6944,"##층":6945,"##넠":6946,"##햐":6947,"##깨":6948,"##즘":6949,"##양":6950,"##퍼":6951,"##첨":6952,"##꾸":6953,"##값":6954,"##죳":6955,"##Y":6956,"##K":6957,"##즌":6958,"##B":6959,"##됀":6960,"##퇘":6961,"##측":6962,"##늠":6963,"##쓸":6964,"##돼":6965,"##릇":6966,"##맟":6967,"##땡":6968,"##먄":6969,"##z":6970,"##섰":6971,"##왜":6972,"##폐":6973,"##렵":6974,"##램":6975,"##쌤":6976,"##뎅":6977,"##풀":6978,"##컴":6979,"##섹":6980,"##슈":6981,"##므":6982,"##뇌":6983,"##푸":6984,"##틴":6985,"##땅":6986,"##퀸":6987,"##웁":6988,"##멋":6989,"##D":6990,"##잼":6991,"##허":6992,"##졸":6993,"##랳":6994,"##봨":6995,"##밥":6996,"##쩜":6997,"##냄":6998,"##짓":6999,"##쪽":7000,"##혘":7001,"##헹":7002,"##덤":7003,"##쯤":7004,"##쿵":7005,"##팟":7006,"##핵":7007,"##뿌":7008,"##짝":7009,"##륜":7010,"##q":7011,"##칠":7012,"##옷":7013,"##됨":7014,"##윙":7015,"##땐":7016,"##깆":7017,"##랜":7018,"##꼰":7019,"##슴":7020,"##웨":7021,"##밍":7022,"##찼":7023,"##퀘":7024,"##욱":7025,"##벽":7026,"##캠":7027,"##밋":7028,"##놨":7029,"##뻣":7030,"##너":7031,"##챠":7032,"##컷":7033,"##횔":7034,"##돈":7035,"##팬":7036,"##앤":7037,"##넥":7038,"##뺏":7039,"##탑":7040,"##봅":7041,"##G":7042,"##좌":7043,"##증":7044,"##골":7045,"##뉘":7046,"##벗":7047,"##븍":7048,"##뤼":7049,"##톱":7050,"##열":7051,"##쓴":7052,"##첩":7053,"##빙":7054,"##텃":7055,"##밭":7056,"##콜":7057,"##렛":7058,"##몽":7059,"##둑":7060,"##렇":7061,"##턴":7062,"##됫":7063,"##잠":7064,"##뱀":7065,"##좃":7066,"##콩":7067,"##줫":7068,"##덜":7069,"##략":7070,"##균":7071,"##승":7072,"##찝":7073,"##줏":7074,"##텔":7075,"##혹":7076,"##괄":7077,"##넷":7078,"##빵":7079,"##옆":7080,"##쳔":7081,"##홀":7082,"##딩":7083,"##윗":7084,"##빌":7085,"##슙":7086,"##뛰":7087,"##셆":7088,"##솔":7089,"##뿔":7090,"##맡":7091,"##떼":7092,"##뢰":7093,"##겐":7094,"##밑":7095,"##톨":7096,"##쌕":7097,"##봄":7098,"##효":7099,"##핑":7100,"##숭":7101,"##셜":7102,"##짬":7103,"##쌓":7104,"##뱅":7105,"##렿":7106,"##엽":7107,"##꼈":7108,"##퓨":7109,"##둔":7110,"##N":7111,"##뇨":7112,"##캔":7113,"##줌":7114,"##꼬":7115,"##논":7116,"##싼":7117,"##긔":7118,"##룬":7119,"##앱":7120,"##뇬":7121,"##촌":7122,"##쥬":7123,"##롴":7124,"##펌":7125,"##픈":7126,"##끌":7127,"##참":7128,"##랍":7129,"##꺄":7130,"##쌍":7131,"##빈":7132,"##잦":7133,"##슬":7134,"##낭":7135,"##엠":7136,"##뭘":7137,"##뚜":7138,"##걷":7139,"##징":7140,"##h":7141,"##헐":7142,"##꿎":7143,"##놀":7144,"##j":7145,"##늦":7146,"##쟈":7147,"##믹":7148,"##웃":7149,"##힘":7150,"##쳬":7151,"##꽝":7152,"##뜸":7153,"##암":7154,"##젔":7155,"##닼":7156,"##긍":7157,"##젝":7158,"##릅":7159,"##랐":7160,"##혜":7161,"##벵":7162,"##컨":7163,"##댄":7164,"##짖":7165,"##넹":7166,"##엌":7167,"##쿤":7168,"##맴":7169,"##탐":7170,"##퉤":7171,"##젼":7172,"##냇":7173,"##랰":7174,"##딱":7175,"##흥":7176,"##쉐":7177,"##퀴":7178,"##빴":7179,"##갱":7180,"##W":7181,"##랙":7182,"##쇄":7183,"##눈":7184,"##둡":7185,"##깠":7186,"##짱":7187,"##걱":7188,"##쑤":7189,"##힐":7190,"##늬":7191,"##멍":7192,"##챙":7193,"##녁":7194,"##풍":7195,"##룽":7196,"##듬":7197,"##샘":7198,"##넼":7199,"##렘":7200,"##웠":7201,"##쾌":7202,"##셰":7203,"##뚤":7204,"##쭉":7205,"##묘":7206,"##볐":7207,"##쳨":7208,"##댘":7209,"##섭":7210,"##폄":7211,"##놧":7212,"##큘":7213,"##득":7214,"##꺽":7215,"##냉":7216,"##닭":7217,"##픽":7218,"##칩":7219,"##셋":7220,"##팀":7221,"##뀌":7222,"##붕":7223,"##흐":7224,"##최":7225,"##쳤":7226,"##퀄":7227,"##끄":7228,"##닠":7229,"##젛":7230,"##딥":7231,"##탕":7232,"##쁨":7233,"##듣":7234,"##멘":7235,"##럭":7236,"##잉":7237,"##컸":7238,"##삥":7239,"##슼":7240,"##쉑":7241,"##넴":7242,"##흔":7243,"##돕":7244,"##빻":7245,"##쉴":7246,"##압":7247,"##딘":7248,"##뻔":7249,"##냔":7250,"##밨":7251,"##응":7252,"##씬":7253,"##딪":7254,"##짹":7255,"##휘":7256,"##됬":7257,"##먼":7258,"##찔":7259,"##뤄":7260,"##뜯":7261,"##벤":7262,"##엎":7263,"##춰":7264,"##팽":7265,"##낑":7266,"##쪄":7267,"##옹":7268,"##댁":7269,"##뭉":7270,"##핸":7271,"##콕":7272,"##닛":7273,"##례":7274,"##뺐":7275,"##V":7276,"##넜":7277,"##럴":7278,"##얘":7279,"##펑":7280,"##훌":7281,"##륭":7282,"##쇼":7283,"##갖":7284,"##틀":7285,"##곧":7286,"##곸":7287,"##슥":7288,"##뷰":7289,"##롬":7290,"##섯":7291,"##냨":7292,"##똘":7293,"##젹":7294,"##쌈":7295,"##E":7296,"##뀔":7297,"##깎":7298,"##앵":7299,"##츳":7300,"##흠":7301,"##괴":7302,"##췃":7303,"##f":7304,"##템":7305,"##얄":7306,"##닝":7307,"##샵":7308,"##놔":7309,"##냈":7310,"##벅":7311,"##짤":7312,"##뮬":7313,"##텨":7314,"##짐":7315,"##턱":7316,"##쇗":7317,"##널":7318,"##귄":7319,"##닞":7320,"##갂":7321,"##흰":7322,"##썹":7323,"##v":7324,"##뮤":7325,"##덯":7326,"##븅":7327,"##빤":7328,"##켸":7329,"##댜":7330,"##쟉":7331,"##춤":7332,"##춥":7333,"##겹":7334,"##겸":7335,"##펗":7336,"##캎":7337,"##젯":7338,"##쏘":7339,"##껏":7340,"##넌":7341,"##흡":7342,"##릎":7343,"##떤":7344,"##헕":7345,"##쪼":7346,"##싀":7347,"##폴":7348,"##햌":7349,"##귤":7350,"##곡":7351,"##멸":7352,"##곰":7353,"##즉":7354,"##껌":7355,"##큨":7356,"##델":7357,"##츄":7358,"##꼭":7359,"##깜":7360,"##윕":7361,"##덩":7362,"##완":7363,"##끔":7364,"##젖":7365,"##밟":7366,"##깈":7367,"##쿼":7368,"##딴":7369,"##뎈":7370,"##겅":7371,"##쩔":7372,"##톡":7373,"##엑":7374,"##꿔":7375,"##젠":7376,"##끊":7377,"##웰":7378,"##홉":7379,"##갤":7380,"##쥔":7381,"##헛":7382,"##짘":7383,"##슛":7384,"##돗":7385,"##됩":7386,"##퀵":7387,"##썰":7388,"##껀":7389,"##엥":7390,"##돠":7391,"##덱":7392,"##펍":7393,"##횡":7394,"##츤":7395,"##샌":7396,"##닿":7397,"##쥴":7398,"##땜":7399,"##욬":7400,"##믄":7401,"##촛":7402,"##룰":7403,"##짧":7404,"##슐":7405,"##잊":7406,"##팁":7407,"##댯":7408,"##뢀":7409,"##첫":7410,"##욧":7411,"##탱":7412,"##녹":7413,"##낀":7414,"##앨":7415,"##핀":7416,"##탔":7417,"##뇸":7418,"##샀":7419,"##뽕":7420,"##낳":7421,"##킄":7422,"##칸":7423,"##롯":7424,"##잭":7425,"##듴":7426,"##쩨":7427,"##똥":7428,"##벨":7429,"##튜":7430,"##퇄":7431,"##켘":7432,"##벼":7433,"##꼽":7434,"##둠":7435,"##밈":7436,"##좄":7437,"##넬":7438,"##룩":7439,"##뜹":7440,"##븐":7441,"##윾":7442,"##혔":7443,"##잽":7444,"##닫":7445,"##젓":7446,"##뉨":7447,"##갯":7448,"##높":7449,"##삶":7450,"##뙤":7451,"##몬":7452,"##쨩":7453,"##뜬":7454,"##믓":7455,"##핫":7456,"##및":7457,"##쟨":7458,"##셑":7459,"##깝":7460,"##뜩":7461,"##깥":7462,"##잤":7463,"##얎":7464,"##쭐":7465,"##렷":7466,"##랏":7467,"##웽":7468,"##빗":7469,"##뺨":7470,"##혐":7471,"##뒀":7472,"##뵈":7473,"##엵":7474,"##붑":7475,"##샹":7476,"##잌":7477,"##겧":7478,"##헌":7479,"##떴":7480,"##샠":7481,"##롭":7482,"##삘":7483,"##싢":7484,"##뼈":7485,"##꼐":7486,"##싹":7487,"##얻":7488,"##깊":7489,"##녜":7490,"##뒹":7491,"##볕":7492,"##Z":7493,"##댔":7494,"##몈":7495,"##뫼":7496,"##꿀":7497,"##푼":7498,"##끜":7499,"##댈":7500,"##햨":7501,"##탯":7502,"##썩":7503,"##낄":7504,"##긌":7505,"##졐":7506,"##벙":7507,"##찮":7508,"##뱌":7509,"##욤":7510,"##뇽":7511,"##뷔":7512,"##덴":7513,"##슝":7514,"##뎌":7515,"##펄":7516,"##긁":7517,"##찢":7518,"##녕":7519,"##쏴":7520,"##쵸":7521,"##톰":7522,"##씻":7523,"##눠":7524,"##쉭":7525,"##갚":7526,"##랗":7527,"##킵":7528,"##꿨":7529,"##킷":7530,"##텝":7531,"##쇳":7532,"##빛":7533,"##몸":7534,"##촬":7535,"##햏":7536,"##맥":7537,"##씝":7538,"##쥘":7539,"##팠":7540,"##눅":7541,"##볜":7542,"##셀":7543,"##넨":7544,"##핡":7545,"##켯":7546,"##틈":7547,"##탬":7548,"##밴":7549,"##궜":7550,"##팻":7551,"##쇠":7552,"##홥":7553,"##멕":7554,"##짅":7555,"##딕":7556,"##빜":7557,"##앜":7558,"##샐":7559,"##굽":7560,"##빔":7561,"##걀":7562,"##궈":7563,"##핳":7564,"##뺠":7565,"##캣":7566,"##쭈":7567,"##갠":7568,"##옐":7569,"##뭇":7570,"##씹":7571,"##럿":7572,"##뚠":7573,"##맄":7574,"##윽":7575,"##힙":7576,"##즙":7577,"##꽂":7578,"##캬":7579,"##컄":7580,"##홓":7581,"##쪘":7582,"##씁":7583,"##꿍":7584,"##녈":7585,"##컥":7586,"##쥉":7587,"##뻥":7588,"##옵":7589,"##릌":7590,"##쒀":7591,"##냠":7592,"##촠":7593,"##첸":7594,"##꼼":7595,"##띵":7596,"##헠":7597,"##칵":7598,"##삐":7599,"##곀":7600,"##퀑":7601,"##낙":7602,"##뭄":7603,"##밝":7604,"##렉":7605,"##웍":7606,"##듳":7607,"##쟤":7608,"##닳":7609,"##틸":7610,"##밸":7611,"##켄":7612,"##땨":7613,"##쿸":7614,"##컹":7615,"##둬":7616,"##뻘":7617,"##잪":7618,"##뎀":7619,"##퉈":7620,"##깃":7621,"##딧":7622,"##쁠":7623,"##풋":7624,"##숫":7625,"##셸":7626,"##쑈":7627,"##흉":7628,"##뜰":7629,"##춧":7630,"##겆":7631,"##옳":7632,"##옌":7633,"##썻":7634,"##쩡":7635,"##헀":7636,"##잣":7637,"##앋":7638,"##돋":7639,"##젊":7640,"##뛣":7641,"##쉘":7642,"##뷀":7643,"##됟":7644,"##덷":7645,"##댇":7646,"##돔":7647,"##튕":7648,"##듭":7649,"##즐":7650,"##딜":7651,"##껑":7652,"##헨":7653,"##렐":7654,"##횽":7655,"##낍":7656,"##엾":7657,"##핟":7658,"##왑":7659,"##흫":7660,"##훟":7661,"##윈":7662,"##겻":7663,"##싣":7664,"##윌":7665,"##쟎":7666,"##괍":7667,"##쌘":7668,"##뼘":7669,"##섴":7670,"##셐":7671,"##섐":7672,"##뛔":7673,"##쮜":7674,"##톼":7675,"##엨":7676,"##짙":7677,"##걍":7678,"##챤":7679,"##먀":7680,"##뿜":7681,"##팜":7682,"##뀐":7683,"##녔":7684,"##콰":7685,"##텟":7686,"##찹":7687,"##솜":7688,"##퀼":7689,"##앓":7690,"##떄":7691,"##휠":7692,"##궄":7693,"##옄":7694,"##땔":7695,"##븤":7696,"##랠":7697,"##갘":7698,"##삿":7699,"##갭":7700,"##륙":7701,"##뉭":7702,"##깽":7703,"##깩":7704,"##딨":7705,"##읜":7706,"##텀":7707,"##졓":7708,"##탛":7709,"##짚":7710,"##굼":7711,"##쳑":7712,"##툭":7713,"##닉":7714,"##쿙":7715,"##읏":7716,"##뚭":7717,"##듀":7718,"##쌌":7719,"##몃":7720,"##잋":7721,"##숴":7722,"##옛":7723,"##낏":7724,"##켈":7725,"##홧":7726,"##뗌":7727,"##뎄":7728,"##숩":7729,"##첵":7730,"##굔":7731,"##뱉":7732,"##풉":7733,"##끽":7734,"##잗":7735,"##밇":7736,"##뢐":7737,"##뗀":7738,"##죸":7739,"##윜":7740,"##쳉":7741,"##밐":7742,"##컵":7743,"##멩":7744,"##땤":7745,"##팍":7746,"##쏟":7747,"##줕":7748,"##훼":7749,"##넛":7750,"##쏠":7751,"##틱":7752,"##묭":7753,"##찡":7754,"##쨰":7755,"##깄":7756,"##뫄":7757,"##훙":7758,"##괜":7759,"##쮠":7760,"##쏨":7761,"##륵":7762,"##헝":7763,"##컼":7764,"##웩":7765,"##띁":7766,"##멤":7767,"##댐":7768,"##핥":7769,"##녤":7770,"##겪":7771,"##읕":7772,"##팹":7773,"##늉":7774,"##왐":7775,"##웆":7776,"##썼":7777,"##좁":7778,"##쫓":7779,"##싯":7780,"##캉":7781,"##꾹":7782,"##냅":7783,"##뤘":7784,"##짰":7785,"##낯":7786,"##넓":7787,"##잰":7788,"##딍":7789,"##곂":7790,"##챔":7791,"##벜":7792,"##깁":7793,"##맼":7794,"##뻗":7795,"##솝":7796,"##릔":7797,"##콧":7798,"##밉":7799,"##땀":7800,"##넉":7801,"##튠":7802,"##씽":7803,"##닺":7804,"##봫":7805,"##죡":7806,"##꺾":7807,"##욯":7808,"##쑴":7809,"##꽈":7810,"##늕":7811,"##텅":7812,"##괭":7813,"##맺":7814,"##뤽":7815,"##냑":7816,"##팉":7817,"##탙":7818,"##탸":7819,"##꿇":7820,"##얀":7821,"##찟":7822,"##몀":7823,"##얌":7824,"##헷":7825,"##떳":7826,"##졔":7827,"##쫗":7828,"##겉":7829,"##덮":7830,"##샨":7831,"##푹":7832,"##룸":7833,"##좈":7834,"##렏":7835,"##츨":7836,"##듵":7837,"##멀":7838,"##팸":7839,"##죤":7840,"##틔":7841,"##숯":7842,"##깅":7843,"##겡":7844,"##툴":7845,"##좇":7846,"##늙":7847,"##볏":7848,"##읺":7849,"##펠":7850,"##랖":7851,"##폼":7852,"##돰":7853,"##훤":7854,"##빝":7855,"##벳":7856,"##읃":7857,"##훔":7858,"##쩍":7859,"##쳣":7860,"##벰":7861,"##흣":7862,"##퀀":7863,"##넵":7864,"##랃":7865,"##붇":7866,"##쌋":7867,"##갬":7868,"##빽":7869,"##찜":7870,"##힣":7871,"##헿":7872,"##텡":7873,"##쉈":7874,"##똬":7875,"##캍":7876,"##곱":7877,"##홈":7878,"##몾":7879,"##쫘":7880,"##죵":7881,"##붓":7882,"##잏":7883,"##됰":7884,"##넄":7885,"##됌":7886,"##쌉":7887,"##굳":7888,"##쎀":7889,"##밠":7890,"##펖":7891,"##앢":7892,"##쑵":7893,"##욮":7894,"##귈":7895,"##윷":7896,"##꿩":7897,"##쐑":7898,"##핻":7899,"##삠":7900,"##췌":7901,"##쎅":7902,"##웒":7903,"##탤":7904,"##눔":7905,"##갇":7906,"##왼":7907,"##솤":7908,"##헣":7909,"##튄":7910,"##퉷":7911,"##셉":7912,"##훅":7913,"##롼":7914,"##밧":7915,"##쨀":7916,"##뗄":7917,"##뺀":7918,"##셌":7919,"##쐽":7920,"##멱":7921,"##셩":7922,"##챈":7923,"##돤":7924,"##잎":7925,"##쨚":7926,"##헥":7927,"##닯":7928,"##꺠":7929,"##짗":7930,"##꼇":7931,"##껠":7932,"##렼":7933,"##퍽":7934,"##뤰":7935,"##햄":7936,"##볶":7937,"##삤":7938,"##곁":7939,"##웤":7940,"##맂":7941,"##퐁":7942,"##샛":7943,"##섀":7944,"##얏":7945,"##쌩":7946,"##겋":7947,"##롷":7948,"##뺌":7949,"##촤":7950,"##쒸":7951,"##돟":7952,"##굶":7953,"##늑":7954,"##빅":7955,"##먖":7956,"##쟙":7957,"##꺀":7958,"##졈":7959,"##젭":7960,"##냌":7961,"##즁":7962,"##붉":7963,"##쿡":7964,"##썸":7965,"##괘":7966,"##욘":7967,"##샊":7968,"##됔":7969,"##늪":7970,"##뾴":7971,"##읠":7972,"##탠":7973,"##핼":7974,"##맷":7975,"##떵":7976,"##뤠":7977,"##쓱":7978,"##껍":7979,"##텼":7980,"##딫":7981,"##댑":7982,"##듈":7983,"##췄":7984,"##싦":7985,"##읭":7986,"##밬":7987,"##짭":7988,"##퉁":7989,"##걔":7990,"##벋":7991,"##뀨":7992,"##텋":7993,"##펐":7994,"##굉":7995,"##볍":7996,"##챗":7997,"##귑":7998,"##핏":7999,"##곗":8000,"##빚":8001,"##쁀":8002,"##햿":8003,"##쎈":8004,"##숰":8005,"##탗":8006,"##캅":8007,"##뻤":8008,"##찿":8009,"##멎":8010,"##앍":8011,"##녘":8012,"##콬":8013,"##쟝":8014,"##랒":8015,"##눗":8016,"##놐":8017,"##깉":8018,"##짠":8019,"##췼":8020,"##쩐":8021,"##쎔":8022,"##됏":8023,"##뼝":8024,"##핬":8025,"##냏":8026,"##붸":8027,"##쭝":8028,"##뵤":8029,"##뭅":8030,"##솓":8031,"##뎁":8032,"##긤":8033,"##햤":8034,"##곽":8035,"##샆":8036,"##뿝":8037,"##뎊":8038,"##낚":8039,"##꽉":8040,"##뺑":8041,"##쇡":8042,"##낐":8043,"##묠":8044,"##쏭":8045,"##읔":8046,"##팥":8047,"##넻":8048,"##푱":8049,"##왘":8050,"##쮸":8051,"##햔":8052,"##룐":8053,"##뜼":8054,"##윅":8055,"##듦":8056,"##즹":8057,"##왤":8058,"##멯":8059,"##뵝":8060,"##씸":8061,"##맑":8062,"##룻":8063,"##챱":8064,"##졍":8065,"##곘":8066,"##칫":8067,"##얹":8068,"##엊":8069,"##껬":8070,"##캌":8071,"##쒔":8072,"##떔":8073,"##폈":8074,"##쿰":8075,"##땁":8076,"##쫒":8077,"##눕":8078,"##쭤":8079,"##쨋":8080,"##빸":8081,"##빰":8082,"##싄":8083,"##핞":8084,"##킈":8085,"##궤":8086,"##봌":8087,"##훗":8088,"##맵":8089,"##탭":8090,"##깬":8091,"##굻":8092,"##솨":8093,"##캥":8094,"##렝":8095,"##겔":8096,"##쯔":8097,"##뾰":8098,"##엦":8099,"##꿘":8100,"##렠":8101,"##읻":8102,"##렻":8103,"##솥":8104,"##뎨":8105,"##혓":8106,"##쩠":8107,"##꼌":8108,"##뺄":8109,"##랼":8110,"##횟":8111,"##틐":8112,"##빢":8113,"##냣":8114,"##똔":8115,"##넙":8116,"##놬":8117,"##셬":8118,"##옼":8119,"##룍":8120,"##츕":8121,"##욨":8122,"##쐈":8123,"##틋":8124,"##폿":8125,"##왭":8126,"##릏":8127,"##윻":8128,"##잨":8129,"##썪":8130,"##촨":8131,"##읁":8132,"##낔":8133,"##줭":8134,"##늣":8135,"##썽":8136,"##뭡":8137,"##챌":8138,"##햬":8139,"##빳":8140,"##갗":8141,"##쑹":8142,"##쨌":8143,"##썜":8144,"##쉥":8145,"##놰":8146,"##쟌":8147,"##돜":8148,"##먿":8149,"##읿":8150,"##앚":8151,"##얍":8152,"##굇":8153,"##쯱":8154,"##슠":8155,"##딛":8156,"##섺":8157,"##왁":8158,"##쨕":8159,"##탘":8160,"##맠":8161,"##뷴":8162,"##샎":8163,"##낂":8164,"##옮":8165,"##샬":8166,"##눞":8167,"##밡":8168,"##꿋":8169,"##엤":8170,"##쎜":8171,"##헉":8172,"##둣":8173,"##뎧":8174,"##웡":8175,"##뒈":8176,"##혙":8177,"##읶":8178,"##쐇":8179,"##욺":8180,"##뵙":8181,"##쨔":8182,"##뺴":8183,"##윚":8184,"##뽈":8185,"##붖":8186,"##넿":8187,"##긕":8188,"##슉":8189,"##펙":8190,"##첼":8191,"##뿑":8192,"##씃":8193,"##딤":8194,"##놯":8195,"##맣":8196,"##낱":8197,"##펼":8198,"##덬":8199,"##옿":8200,"##묜":8201,"##뎍":8202,"##켔":8203,"##읗":8204,"##죙":8205,"##낟":8206,"##푶":8207,"##샏":8208,"##셕":8209,"##롹":8210,"##쪈":8211,"##홰":8212,"##싮":8213,"##뀜":8214,"##덟":8215,"##쥥":8216,"##웸":8217,"##짲":8218,"##럅":8219,"##욥":8220,"##댱":8221,"##벚":8222,"##핶":8223,"##딲":8224,"##몹":8225,"##꾀":8226,"##렜":8227,"##줸":8228,"##쁩":8229,"##녴":8230,"##좯":8231,"##삳":8232,"##큭":8233,"##췬":8234,"##콥":8235,"##팃":8236,"##돝":8237,"##돴":8238,"##궛":8239,"##둴":8240,"##륄":8241,"##푀":8242,"##쇅":8243,"##샸":8244,"##핍":8245,"##렄":8246,"##셍":8247,"##뮌":8248,"##웞":8249,"##궸":8250,"##떰":8251,"##눀":8252,"##깸":8253,"##엮":8254,"##곶":8255,"##훨":8256,"##땟":8257,"##몆":8258,"##룟":8259,"##얕":8260,"##젬":8261,"##웟":8262,"##잴":8263,"##엏":8264,"##텦":8265,"##핌":8266,"##넸":8267,"##꾜":8268,"##슺":8269,"##틉":8270,"##뱡":8271,"##겤":8272,"##짴":8273,"##튈":8274,"##폇":8275,"##켬":8276,"##쿱":8277,"##줴":8278,"##껕":8279,"##얇":8280,"##뼌":8281,"##붐":8282,"##퐄":8283,"##쬬":8284,"##햠":8285,"##푯":8286,"##갰":8287,"##즤":8288,"##츈":8289,"##앎":8290,"##벡":8291,"##죈":8292,"##띤":8293,"##끅":8294,"##늡":8295,"##넚":8296,"##튝":8297,"##죹":8298,"##휩":8299,"##멉":8300,"##찧":8301,"##륍":8302,"##첬":8303,"##왉":8304,"##믜":8305,"##젏":8306,"##넽":8307,"##냼":8308,"##쑨":8309,"##넦":8310,"##뛸":8311,"##닏":8312,"##쏜":8313,"##숀":8314,"##뮨":8315,"##퐐":8316,"##끉":8317,"##쾡":8318,"##앸":8319,"##놘":8320,"##뮴":8321,"##끠":8322,"##튤":8323,"##븥":8324,"##궂":8325,"##줔":8326,"##땋":8327,"##덥":8328,"##뽱":8329,"##쌨":8330,"##툽":8331,"##펏":8332,"##뎠":8333,"##앰":8334,"##옸":8335,"##옺":8336,"##뇻":8337,"##겢":8338,"##텈":8339,"##옟":8340,"##릐":8341,"##댛":8342,"##끙":8343,"##쭀":8344,"##굾":8345,"##쵮":8346,"##곲":8347,"##씂":8348,"##렚":8349,"##깂":8350,"##쑥":8351,"##궅":8352,"##뵨":8353,"##뿟":8354,"##쎠":8355,"##펕":8356,"##텤":8357,"##흄":8358,"##쎃":8359,"##긑":8360,"##옾":8361,"##믁":8362,"##앳":8363,"##뽜":8364,"##챕":8365,"##쉨":8366,"##뷩":8367,"##솸":8368,"##껨":8369,"##샥":8370,"##듷":8371,"##륨":8372,"##읎":8373,"##겊":8374,"##볗":8375,"##삑":8376,"##슘":8377,"##꿰":8378,"##뭍":8379,"##톈":8380,"##숱":8381,"##몐":8382,"##폑":8383,"##춌":8384,"##꽁":8385,"##듐":8386,"##뭣":8387,"##몄":8388,"##뷱":8389,"##켕":8390,"##빱":8391,"##깻":8392,"##녅":8393,"##쪌":8394,"##젅":8395,"##숑":8396,"##냬":8397,"##싷":8398,"##짆":8399,"##웬":8400,"##뇜":8401,"##봘":8402,"##뎋":8403,"##땍":8404,"##캇":8405,"##폣":8406,"##캄":8407,"##즛":8408,"##꽤":8409,"##됧":8410,"##힝":8411,"##낞":8412,"##콸":8413,"##갛":8414,"##댂":8415,"##췰":8416,"##줜":8417,"##왛":8418,"##펨":8419,"##뽐":8420,"##쥼":8421,"##쫏":8422,"##힛":8423,"##헡":8424,"##챘":8425,"##얒":8426,"##뛴":8427,"##뮈":8428,"##튭":8429,"##돳":8430,"##쌰":8431,"##낵":8432,"##륻":8433,"##멧":8434,"##츰":8435,"##듸":8436,"##픕":8437,"##겈":8438,"##븟":8439,"##깢":8440,"##멵":8441,"##좠":8442,"##눤":8443,"##죧":8444,"##롸":8445,"##횐":8446,"##찻":8447,"##겇":8448,"##댠":8449,"##꼿":8450,"##좦":8451,"##쉒":8452,"##콴":8453,"##쥽":8454,"##캤":8455,"##촐":8456,"##핔":8457,"##랂":8458,"##솟":8459,"##곻":8460,"##땃":8461,"##쳇":8462,"##넝":8463,"##즄":8464,"##돛":8465,"##쨍":8466,"##륿":8467,"##뤌":8468,"##핝":8469,"##쿳":8470,"##힉":8471,"##튐":8472,"##숟":8473,"##됮":8474,"##콱":8475,"##놋":8476,"##귘":8477,"##섶":8478,"##꿜":8479,"##솬":8480,"##쳌":8481,"##뭌":8482,"##놉":8483,"##쏙":8484,"##졷":8485,"##츌":8486,"##룾":8487,"##촵":8488,"##팘":8489,"##읅":8490,"##벞":8491,"##뺔":8492,"##쇽":8493,"##둿":8494,"##밎":8495,"##쒝":8496,"##샜":8497,"##뤡":8498,"##줠":8499,"##쵝":8500,"##킁":8501,"##샡":8502,"##쉼":8503,"##숸":8504,"##웜":8505,"##땠":8506,"##숮":8507,"##꿉":8508,"##옘":8509,"##쐴":8510,"##읂":8511,"##븡":8512,"##잍":8513,"##껵":8514,"##곪":8515,"##뤂":8516,"##팓":8517,"##눼":8518,"##뻡":8519,"##됍":8520,"##갉":8521,"##뱐":8522,"##죱":8523,"##잫":8524,"##켤":8525,"##궍":8526,"##흨":8527,"##됭":8528,"##뵜":8529,"##궇":8530,"##믐":8531,"##쎌":8532,"##흇":8533,"##옇":8534,"##킼":8535,"##곌":8536,"##썌":8537,"##쭘":8538,"##뻬":8539,"##렫":8540,"##싴":8541,"##굦":8542,"##얅":8543,"##셒":8544,"##쭌":8545,"##봥":8546,"##넋":8547,"##뵌":8548,"##띨":8549,"##쫑":8550,"##숝":8551,"##퍈":8552,"##뫠":8553,"##뼉":8554,"##졀":8555,"##봏":8556,"##젰":8557,"##슆":8558,"##롔":8559,"##괸":8560,"##딬":8561,"##헴":8562,"##걐":8563,"##뤸":8564,"##츙":8565,"##캘":8566,"##줮":8567,"##햑":8568,"##뤀":8569,"##눨":8570,"##늚":8571,"##킇":8572,"##헙":8573,"##뎐":8574,"##긱":8575,"##굚":8576,"##밢":8577,"##즇":8578,"##쳥":8579,"##켐":8580,"##뎡":8581,"##빕":8582,"##벊":8583,"##귓":8584,"##퉉":8585,"##샅":8586,"##덛":8587,"##럈":8588,"##챀":8589,"##삲":8590,"##괞":8591,"##멓":8592,"##텻":8593,"##듕":8594,"##쫙":8595,"##귐":8596,"##앖":8597,"##쾽":8598,"##쾨":8599,"##뎬":8600,"##꼳":8601,"##볓":8602,"##뼛":8603,"##귷":8604,"##좭":8605,"##겍":8606,"##쳄":8607,"##켠":8608,"##쨜":8609,"##섡":8610,"##뉸":8611,"##싥":8612,"##앲":8613,"##컁":8614,"##둟":8615,"##셇":8616,"##렗":8617,"##슁":8618,"##랸":8619,"##쪙":8620,"##맸":8621,"##얐":8622,"##뗴":8623,"##슭":8624,"##쟜":8625,"##샾":8626,"##솼":8627,"##앴":8628,"##쨉":8629,"##뎔":8630,"##옙":8631,"##갴":8632,"##졉":8633,"##핲":8634,"##푠":8635,"##썁":8636,"##섁":8637,"##깪":8638,"##읆":8639,"##녓":8640,"##짇":8641,"##벓":8642,"##낢":8643,"##쯧":8644,"##쐬":8645,"##굥":8646,"##홋":8647,"##읇":8648,"##롕":8649,"##멊":8650,"##앝":8651,"##홬":8652,"##덪":8653,"##끆":8654,"##쎗":8655,"##훠":8656,"##뢔":8657,"##뵬":8658,"##뚯":8659,"##믾":8660,"##핰":8661,"##깼":8662,"##잆":8663,"##핮":8664,"##뇠":8665,"##팼":8666,"##쫀":8667,"##텁":8668,"##뺩":8669,"##쒜":8670,"##욪":8671,"##갹":8672,"##햅":8673,"##뿡":8674,"##뜽":8675,"##괬":8676,"##돱":8677,"##뭕":8678,"##뒙":8679,"##놌":8680,"##힠":8681,"##녑":8682,"##뼠":8683,"##띱":8684,"##뎟":8685,"##긘":8686,"##츼":8687,"##텄":8688,"##듁":8689,"##뗬":8690,"##뱔":8691,"##듄":8692,"##촥":8693,"##륏":8694,"##덣":8695,"##쬐":8696,"##뱓":8697,"##촞":8698,"##멐":8699,"##쟘":8700,"##쳫":8701,"##냘":8702,"##쇤":8703,"##쯥":8704,"##읰":8705,"##즨":8706,"##엪":8707,"##횬":8708,"##럳":8709,"##듼":8710,"##쯰":8711,"##꽥":8712,"##챨":8713,"##륀":8714,"##겎":8715,"##늧":8716,"##낲":8717,"##뒬":8718,"##핦":8719,"##늼":8720,"##읋":8721,"##좡":8722,"##밯":8723,"##뙈":8724,"##윳":8725,"##씡":8726,"##쯘":8727,"##굡":8728,"##쳅":8729,"##웝":8730,"##몱":8731,"##햫":8732,"##럏":8733,"##뜀":8734,"##찯":8735,"##늗":8736,"##힁":8737,"##뫕":8738,"##픙":8739,"##뮉":8740,"##꺟":8741,"##딈":8742,"##럵":8743,"##헸":8744,"##릊":8745,"##쇘":8746,"##쥭":8747,"##숏":8748,"##땣":8749,"##챴":8750,"##켴":8751,"##맏":8752,"##좉":8753,"##샴":8754,"##췡":8755,"##쌯":8756,"##돚":8757,"##눟":8758,"##닸":8759,"##혠":8760,"##옶":8761,"##껜":8762,"##뽤":8763,"##븝":8764,"##뫃":8765,"##팰":8766,"##핛":8767,"##뉜":8768,"##맇":8769,"##쉣":8770,"##귱":8771,"##볌":8772,"##굵":8773,"##앣":8774,"##븨":8775,"##뻇":8776,"##롑":8777,"##숄":8778,"##됑":8779,"##싳":8780,"##홛":8781,"##됗":8782,"##쪅":8783,"##긷":8784,"##쟠":8785,"##싺":8786,"##줰":8787,"##뗘":8788,"##꺘":8789,"##섿":8790,"##삡":8791,"##땄":8792,"##챦":8793,"##뫅":8794,"##튿":8795,"##겾":8796,"##쥰":8797,"##긎":8798,"##챡":8799,"##얶":8800,"##섲":8801,"##싑":8802,"##큇":8803,"##휄":8804,"##퍄":8805,"##셴":8806,"##끕":8807,"##슽":8808,"##쪾":8809,"##샙":8810,"##갷":8811,"##췍":8812,"##앀":8813,"##뜪":8814,"##삔":8815,"##슫":8816,"##꾕":8817,"##껫":8818,"##씅":8819,"##욖":8820,"##폔":8821,"##굎":8822,"##틍":8823,"##넞":8824,"##튵":8825,"##솀":8826,"##깋":8827,"##곈":8828,"##늨":8829,"##캑":8830,"##뷸":8831,"##뮙":8832,"##맜":8833,"##칑":8834,"##뿍":8835,"##낻":8836,"##쑦":8837,"##멶":8838,"##릃":8839,"##킂":8840,"##갼":8841,"##탰":8842,"##둭":8843,"##껐":8844,"##칮":8845,"##롄":8846,"##턷":8847,"##펩":8848,"##삣":8849,"##몿":8850,"##뫈":8851,"##픠":8852,"##짞":8853,"##륩":8854,"##뜝":8855,"##횅":8856,"##햊":8857,"##웈":8858,"##뻿":8859,"##휜":8860,"##갋":8861,"##뤅":8862,"##밷":8863,"##뺘":8864,"##퉜":8865,"##빋":8866,"##껭":8867,"##붔":8868,"##듡":8869,"##묫":8870,"##닊":8871,"##핣":8872,"##뒄":8873,"##탂":8874,"##쮕":8875,"##톄":8876,"##뿱":8877,"##몌":8878,"##닁":8879,"##돒":8880,"##솏":8881,"##펔":8882,"##뉩":8883,"##쳡":8884,"##쎆":8885,"##읓":8886,"##칲":8887,"##휼":8888,"##녂":8889,"##땈":8890,"##욵":8891,"##잚":8892,"##뽁":8893,"##듨":8894,"##줒":8895,"##췽":8896,"##큉":8897,"##뀰":8898,"##꿧":8899,"##귿":8900,"##탉":8901,"##퉂":8902,"##뿅":8903,"##욀":8904,"##쓥":8905,"##쏖":8906,"##눙":8907,"##뭥":8908,"##얺":8909,"##벆":8910,"##궃":8911,"##쟣":8912,"##퐈":8913,"##먁":8914,"##쉿":8915,"##긩":8916,"##갅":8917,"##뫌":8918,"##욍":8919,"##뮥":8920,"##찎":8921,"##쟀":8922,"##퓔":8923,"##얓":8924,"##켑":8925,"##햝":8926,"##밪":8927,"##쨈":8928,"##왝":8929,"##쎘":8930,"##훰":8931,"##닪":8932,"##퐉":8933,"##귝":8934,"##죘":8935,"##뚕":8936,"##벍":8937,"##눴":8938,"##꼤":8939,"##걈":8940,"##쀼":8941,"##곺":8942,"##귛":8943,"##긇":8944,"##솄":8945,"##섥":8946,"##롐":8947,"##찴":8948,"##텥":8949,"##뾱":8950,"##겣":8951,"##쐐":8952,"##짛":8953,"##쒑":8954,"##샇":8955,"##짯":8956,"##컾":8957,"##쐣":8958,"##씐":8959,"##퐅":8960,"##옃":8961,"##됳":8962,"##돵":8963,"##땝":8964,"##칟":8965,"##갟":8966,"##잿":8967,"##렆":8968,"##갵":8969,"##꺰":8970,"##힜":8971,"##쌸":8972,"##툱":8973,"##퓸":8974,"##옭":8975,"##롥":8976,"##괼":8977,"##먺":8978,"##죻":8979,"##륰":8980,"##엗":8981,"##앒":8982,"##쭙":8983,"##촘":8984,"##죕":8985,"##뺙":8986,"##앾":8987,"##졎":8988,"##쒞":8989,"##쎕":8990,"##솽":8991,"##뱁":8992,"##읹":8993,"##맢":8994,"##땬":8995,"##찱":8996,"##먕":8997,"##꽌":8998,"##뢈":8999,"##슾":9000,"##봑":9001,"##맬":9002,"##젲":9003,"##쭥":9004,"##풑":9005,"##횩":9006,"##짢":9007,"##뭰":9008,"##봔":9009,"##궏":9010,"##껼":9011,"##꺌":9012,"##둉":9013,"##왯":9014,"##욝":9015,"##풰":9016,"##졘":9017,"##늖":9018,"##쨓":9019,"##홣":9020,"##앂":9021,"##뉼":9022,"##빟":9023,"##꿯":9024,"##줵":9025,"##둨":9026,"##렾":9027,"##돞":9028,"##닄":9029,"##꿱":9030,"##픵":9031,"##퍌":9032,"##큽":9033,"##휙":9034,"##읬":9035,"##펭":9036,"##팈":9037,"##샑":9038,"##듥":9039,"##픞":9040,"##뽛":9041,"##샣":9042,"##뛥":9043,"##껙":9044,"##벉":9045,"##젺":9046,"##컽":9047,"##뺓":9048,"##쳠":9049,"##컫":9050,"##궨":9051,"##됵":9052,"##휀":9053,"##쉅":9054,"##륌":9055,"##궉":9056,"##씼":9057,"##겥":9058,"##킅":9059,"##럾":9060,"##뜌":9061,"##솹":9062,"##셯":9063,"##뺜":9064,"##춪":9065,"##씰":9066,"##꺅":9067,"##괌":9068,"##콌":9069,"##퍠":9070,"##뵹":9071,"##뜷":9072,"##쳘":9073,"##짊":9074,"##뭬":9075,"##쩬":9076,"##늰":9077,"##묙":9078,"##욌":9079,"##흴":9080,"##쎼":9081,"##쳦":9082,"##튽":9083,"##뢴":9084,"##슌":9085,"##잟":9086,"##뷁":9087,"##얜":9088,"##췻":9089,"##믕":9090,"##봡":9091,"##넒":9092,"##냤":9093,"##뢉":9094,"##밞":9095,"##걵":9096,"##쎤":9097,"##픜":9098,"##즬":9099,"##팕":9100,"##쌂":9101,"##촣":9102,"##뜍":9103,"##붜":9104,"##븢":9105,"##얾":9106,"##혱":9107,"##꿐":9108,"##젇":9109,"##씺":9110,"##댙":9111,"##겷":9112,"##윘":9113,"##럌":9114,"##넡":9115,"##꾁":9116,"##튬":9117,"##끋":9118,"##쇆":9119,"##큠":9120,"##팤":9121,"##즠":9122,"##맗":9123,"##얃":9124,"##옻":9125,"##볔":9126,"##뵐":9127,"##읒":9128,"##쒰":9129,"##졨":9130,"##삻":9131,"##슧":9132,"##셖":9133,"##틑":9134,"##얫":9135,"##뷜":9136,"##녺":9137,"##귔":9138,"##웱":9139,"##굠":9140,"##칰":9141,"##봍":9142,"##츅":9143,"##뚬":9144,"##썡":9145,"##팆":9146,"##닢":9147,"##쥨":9148,"##잛":9149,"##흭":9150,"##캊":9151,"##퀜":9152,"##좝":9153,"##뼁":9154,"##챵":9155,"##픗":9156,"##됸":9157,"##죌":9158,"##쟄":9159,"##싕":9160,"##뗠":9161,"##걌":9162,"##랮":9163,"##짪":9164,"##퉄":9165,"##훃":9166,"##쟏":9167,"##엍":9168,"##긲":9169,"##캨":9170,"##톔":9171,"##폅":9172,"##뢍":9173,"##웧":9174,"##씤":9175,"##볾":9176,"##춯":9177,"##삾":9178,"##긐":9179,"##댖":9180,"##뚨":9181,"##촟":9182,"##둗":9183,"##췈":9184,"##맃":9185,"##뚹":9186,"##끾":9187,"##벱":9188,"##곃":9189,"##앆":9190,"##뫙":9191,"##몉":9192,"##밣":9193,"##쌖":9194,"##섣":9195,"##싰":9196,"##쇙":9197,"##럮":9198,"##꼉":9199,"##똫":9200,"##뒴":9201,"##챃":9202,"##춴":9203,"##떽":9204,"##읾":9205,"##씜":9206,"##턔":9207,"##걩":9208,"##쌴":9209,"##꿏":9210,"##젿":9211,"##쇜":9212,"##읊":9213,"##볘":9214,"##툐":9215,"##솊":9216,"##틏":9217,"##흟":9218,"##췁":9219,"##댝":9220,"##풂":9221,"##끵":9222,"##룀":9223,"##몁":9224,"##뻭":9225,"##줗":9226,"##풕":9227,"##뱈":9228,"##텉":9229,"##땽":9230,"##궹":9231,"##듘":9232,"##쁭":9233,"##쯩":9234,"##렺":9235,"##탵":9236,"##햘":9237,"##죔":9238,"##뵛":9239,"##쥑":9240,"##듲":9241,"##눜":9242,"##괔":9243,"##꾐":9244,"##퉅":9245,"##봒":9246,"##겝":9247,"##궷":9248,"##얖":9249,"##걲":9250,"##듫":9251,"##턘":9252,"##냰":9253,"##댼":9254,"##얳":9255,"##꿴":9256,"##쑫":9257,"##뎆":9258,"##윰":9259,"##낃":9260,"##떢":9261,"##폥":9262,"##탟":9263,"##걎":9264,"##쉤":9265,"##웇":9266,"##윸":9267,"##릠":9268,"##곷":9269,"##줳":9270,"##뵀":9271,"##몪":9272,"##똴":9273,"##돨":9274,"##텰":9275,"##톸":9276,"##읮":9277,"##뒁":9278,"##읙":9279,"##딷":9280,"##먾":9281,"##쟐":9282,"##곜":9283,"##넎":9284,"##괁":9285,"##퍅":9286,"##걑":9287,"##뭦":9288,"##꽄":9289,"##쥣":9290,"##쎟":9291,"##넢":9292,"##앧":9293,"##닲":9294,"##왆":9295,"##챰":9296,"##좨":9297,"##놜":9298,"##옫":9299,"##럤":9300,"##쩩":9301,"##믏":9302,"##엃":9303,"##얿":9304,"##몋":9305,"##궝":9306,"##럔":9307,"##샄":9308,"##앐":9309,"##셁":9310,"##큅":9311,"##햣":9312,"##뀝":9313,"##죗":9314,"##횄":9315,"##뀽":9316,"##엓":9317,"##횃":9318,"##넫":9319,"##쪗":9320,"##랉":9321,"##웂":9322,"##랻":9323,"##낗":9324,"##뺃":9325,"##셥":9326,"##엯":9327,"##웎":9328,"##묹":9329,"##픂":9330,"##띀":9331,"##헁":9332,"##뮐":9333,"##쥤":9334,"##갲":9335,"##웕":9336,"##띿":9337,"##걋":9338,"##먈":9339,"##띔":9340,"##붘":9341,"##놕":9342,"##덫":9343,"##죰":9344,"##펰":9345,"##읨":9346,"##멬":9347,"##쒼":9348,"##봠":9349,"##묺":9350,"##춋":9351,"##씋":9352,"##굘":9353,"##띸":9354,"##흿":9355,"##탴":9356,"##숵":9357,"##욭":9358,"##뻠":9359,"##왴":9360,"##꽙":9361,"##읐":9362,"##룅":9363,"##읳":9364,"##괕":9365,"##뇰":9366,"##뽚":9367,"##닜":9368,"##섕":9369,"##끤":9370,"##튱":9371,"##븈":9372,"##팯":9373,"##싈":9374,"##뀬":9375,"##쎳":9376,"##욛":9377,"##쫠":9378,"##퐆":9379,"##촙":9380,"##믺":9381,"##밗":9382,"##쉳":9383,"##맆":9384,"##꿃":9385,"##칌":9386,"##곯":9387,"##잙":9388,"##컈":9389,"##쎱":9390,"##왱":9391,"##뒺":9392,"##닻":9393,"##텢":9394,"##흒":9395,"##젞":9396,"##킝":9397,"##쥡":9398,"##믘":9399,"##뙜":9400,"##갊":9401,"##엱":9402,"##쮹":9403,"##덨":9404,"##껔":9405,"##팎":9406,"##굣":9407,"##럐":9408,"##뢱":9409,"##댸":9410,"##껰":9411,"##쭁":9412,"##뺸":9413,"##쭷":9414,"##쀨":9415,"##댴":9416,"##깒":9417,"##혬":9418,"##긓":9419,"##끟":9420,"##톽":9421,"##낡":9422,"##긧":9423,"##촹":9424,"##릋":9425,"##췆":9426,"##귴":9427,"##깰":9428,"##떪":9429,"##릱":9430,"##큥":9431,"##홴":9432,"##젃":9433,"##큿":9434,"##깧":9435,"##놎":9436,"##쑝":9437,"##랲":9438,"##궘":9439,"##꺆":9440,"##풒":9441,"##떅":9442,"##툥":9443,"##찣":9444,"##잒":9445,"##럱":9446,"##렣":9447,"##왂":9448,"##띈":9449,"##싵":9450,"##롰":9451,"##걉":9452,"##햍":9453,"##뒘":9454,"##흛":9455,"##흩":9456,"##뭨":9457,"##랓":9458,"##븀":9459,"##쨥":9460,"##굗":9461,"##쓔":9462,"##짍":9463,"##헵":9464,"##쫩":9465,"##쯉":9466,"##쬽":9467,"##먓":9468,"##욷":9469,"##뉵":9470,"##꼏":9471,"##뱍":9472,"##옽":9473,"##섳":9474,"##핯":9475,"##핱":9476,"##좟":9477,"##돍":9478,"##좐":9479,"##쁑":9480,"##뺍":9481,"##찷":9482,"##띃":9483,"##붱":9484,"##쭸":9485,"##꺜":9486,"##놂":9487,"##옠":9488,"##둰":9489,"##륽":9490,"##맍":9491,"##냡":9492,"##튓":9493,"##녠":9494,"##옂":9495,"##쎙":9496,"##섷":9497,"##뮜":9498,"##쾈":9499,"##춫":9500,"##떫":9501,"##휑":9502,"##뺵":9503,"##왬":9504,"##븽":9505,"##벛":9506,"##뽬":9507,"##텽":9508,"##캆":9509,"##뽯":9510,"##쁏":9511,"##촏":9512,"##짶":9513,"##젱":9514,"##퓌":9515,"##쌱":9516,"##죨":9517,"##놥":9518,"##쫍":9519,"##뽖":9520,"##긆":9521,"##픚":9522,"##튁":9523,"##멁":9524,"##샒":9525,"##둼":9526,"##냦":9527,"##짃":9528,"##횹":9529,"##뭊":9530,"##쭛":9531,"##츔":9532,"##렂":9533,"##숬":9534,"##꾾":9535,"##럲":9536,"##걹":9537,"##덲":9538,"##풁":9539,"##뼤":9540,"##볻":9541,"##깞":9542,"##셂":9543,"##갆":9544,"##쬑":9545,"##퉌":9546,"##쉔":9547,"##뤗":9548,"##쏩":9549,"##숼":9550,"##츱":9551,"##삯":9552,"##썐":9553,"##됻":9554,"##쒕":9555,"##둦":9556,"##젘":9557,"##뫘":9558,"##옰":9559,"##줐":9560,"##늌":9561,"##릡":9562,"##늅":9563,"##륾":9564,"##룤":9565,"##쮝":9566,"##빩":9567,"##꼍":9568,"##옜":9569,"##겲":9570,"##븜":9571,"##쭵":9572,"##칀":9573,"##쌜":9574,"##쫂":9575,"##퇮":9576,"##욐":9577,"##끨":9578,"##짔":9579,"##텩":9580,"##덙":9581,"##봙":9582,"##빆":9583,"##꿑":9584,"##븬":9585,"##맀":9586,"##럇":9587,"##쒘":9588,"##쳭":9589,"##엙":9590,"##퐝":9591,"##랚":9592,"##탼":9593,"##뽂":9594,"##풜":9595,"##댬":9596,"##똒":9597,"##햭":9598,"##슄":9599,"##윂":9600,"##샂":9601,"##롲":9602,"##솎":9603,"##섓":9604,"##뜁":9605,"##냍":9606,"##럄":9607,"##릍":9608,"##찓":9609,"##톳":9610,"##삵":9611,"##쨘":9612,"##홤":9613,"##뢸":9614,"##탏":9615,"##솁":9616,"##쒄":9617,"##딯":9618,"##쑐":9619,"##댤":9620,"##븻":9621,"##픅":9622,"##뀠":9623,"##죴":9624,"##떙":9625,"##굑":9626,"##헜":9627,"##훑":9628,"##뇄":9629,"##깦":9630,"##힄":9631,"##쓉":9632,"##춬":9633,"##숳":9634,"##뙨":9635,"##쨱":9636,"##녾":9637,"##홫":9638,"##옯":9639,"##랋":9640,"##찤":9641,"##붛":9642,"##홯":9643,"##걘":9644,"##랟":9645,"##혯":9646,"##삮":9647,"##푴":9648,"##샞":9649,"##츗":9650,"##쾀":9651,"##읖":9652,"##맋":9653,"##핧":9654,"##붼":9655,"##뉔":9656,"##똩":9657,"##칡":9658,"##흗":9659,"##큄":9660,"##볃":9661,"##둏":9662,"##덝":9663,"##묄":9664,"##큔":9665,"##떈":9666,"##눳":9667,"##폽":9668,"##폨":9669,"##롣":9670,"##굌":9671,"##롳":9672,"##싞":9673,"##뤈":9674,"##퇸":9675,"##뭑":9676,"##헳":9677,"##젴":9678,"##봗":9679,"##룔":9680,"##뒠":9681,"##챂":9682,"##팧":9683,"##혴":9684,"##씈":9685,"##뎉":9686,"##걿":9687,"##꺨":9688,"##팒":9689,"##뻈":9690,"##켇":9691,"##첰":9692,"##밓":9693,"##쪔":9694,"##룠":9695,"##킾":9696,"##쩰":9697,"##껗":9698,"##숶":9699,"##웦":9700,"##꿥":9701,"##샋":9702,"##퐨":9703,"##롶":9704,"##귕":9705,"##싲":9706,"##껃":9707,"##댲":9708,"##캭":9709,"##휸":9710,"##캋":9711,"##뤔":9712,"##릳":9713,"##솑":9714,"##찭":9715,"##뺫":9716,"##쵱":9717,"##겦":9718,"##섂":9719,"##쒹":9720,"##낒":9721,"##렦":9722,"##푝":9723,"##똗":9724,"##띡":9725,"##먘":9726,"##슮":9727,"##싁":9728,"##귬":9729,"##빧":9730,"##멏":9731,"##녬":9732,"##샢":9733,"##혛":9734,"##놤":9735,"##섘":9736,"##닰":9737,"##봊":9738,"##띰":9739,"##딀":9740,"##핤":9741,"##횻":9742,"##굱":9743,"##츸":9744,"##쭬":9745,"##쩧":9746,"##딹":9747,"##뻄":9748,"##쪕":9749,"##읯":9750,"##큌":9751,"##뛟":9752,"##뭵":9753,"##휅":9754,"##뤩":9755,"##벴":9756,"##읉":9757,"##껶":9758,"##쏫":9759,"##릵":9760,"##돩":9761,"##뷐":9762,"##췟":9763,"##툑":9764,"##퓽":9765,"##쉞":9766,"##홮":9767,"##묾":9768,"##멥":9769,"##뚸":9770,"##쎴":9771,"##밁":9772,"##떱":9773,"##롓":9774,"##흅":9775,"##듧":9776,"##쉲":9777,"##좤":9778,"##슿":9779,"##챸":9780,"##읩":9781,"##먐":9782,"##쏼":9783,"##닶":9784,"##럎":9785,"##턩":9786,"##춍":9787,"##쓩":9788,"##짥":9789,"##젣":9790,"##혖":9791,"##좔":9792,"##뫤":9793,"##쯈":9794,"##췐":9795,"##쬭":9796,"##뭋":9797,"##솈":9798,"##쫃":9799,"##굨":9800,"##켱":9801,"##쪠":9802,"##쟞":9803,"##쌧":9804,"##칽":9805,"##퉸":9806,"##늏":9807,"##퍙":9808,"##넾":9809,"##괓":9810,"##릈":9811,"##셱":9812,"##꽐":9813,"##얆":9814,"##뇔":9815,"##늟":9816,"##훚":9817,"##빞":9818,"##띾":9819,"##왇":9820,"##홐":9821,"##쁙":9822,"##몴":9823,"##늫":9824,"##퓐":9825,"##볠":9826,"##룜":9827,"##툉":9828,"##탹":9829,"##욹":9830,"##헑":9831,"##컭":9832,"##믽":9833,"##켁":9834,"##탇":9835,"##륳":9836,"##윧":9837,"##솩":9838,"##맫":9839,"##렞":9840,"##싓":9841,"##즥":9842,"##혤":9843,"##썯":9844,"##끚":9845,"##뙁":9846,"##홨":9847,"##닣":9848,"##펲":9849,"##첻":9850,"##춉":9851,"##츀":9852,"##톪":9853,"##댗":9854,"##랕":9855,"##챊":9856,"##뎤":9857,"##혰":9858,"##푤":9859,"##봬":9860,"##탆":9861,"##듟":9862,"##쐥":9863,"##덹":9864,"##뽓":9865,"##쯪":9866,"##릮":9867,"##쎵":9868,"##뒇":9869,"##짂":9870,"##풔":9871,"##쥠":9872,"##쯕":9873,"##잀":9874,"##넗":9875,"##뗐":9876,"##쯜":9877,"##뎇":9878,"##샼":9879,"##쵤":9880,"##칬":9881,"##쉙":9882,"##웾":9883,"##탶":9884,"##걽":9885,"##걁":9886,"##켷":9887,"##귣":9888,"##슩":9889,"##믠":9890,"##갞":9891,"##캪":9892,"##긜":9893,"##벘":9894,"##됥":9895,"##젗":9896,"##뭠":9897,"##쓍":9898,"##뒝":9899,"##햛":9900,"##쩃":9901,"##쟛":9902,"##룁":9903,"##긒":9904,"##맅":9905,"##칢":9906,"##뽝":9907,"##쟸":9908,"##쏀":9909,"##릶":9910,"##뎽":9911,"##폳":9912,"##뿨":9913,"##껒":9914,"##텧":9915,"##훀":9916,"##킸":9917,"##쀍":9918,"##뗜":9919,"##짳":9920,"##쁫":9921,"##씆":9922,"##츶":9923,"##춮":9924,"##덋":9925,"##죚":9926,"##뿠":9927,"##헏":9928,"##좍":9929,"##묀":9930,"##쨴":9931,"##죺":9932,"##뗑":9933,"##횤":9934,"##빍":9935,"##쉌":9936,"##춣":9937,"##쿹":9938,"##꺵":9939,"##뜾":9940,"##짏":9941,"##핋":9942,"##쮀":9943,"##뽥":9944,"##쩄":9945,"##왖":9946,"##괐":9947,"##쑌":9948,"##졑":9949,"##쬰":9950,"##쉇":9951,"##쪿":9952,"##핚":9953,"##눚":9954,"##빷":9955,"##먠":9956,"##칞":9957,"##홎":9958,"##겓":9959,"##힢":9960,"##틷":9961,"##겂":9962,"##쌻":9963,"##뛧":9964,"##뼬":9965,"##뾥":9966,"##똭":9967,"##훓":9968,"##얂":9969,"##꿓":9970,"##빾":9971,"##앶":9972,"##텬":9973,"##걺":9974,"##횰":9975,"##팑":9976,"##띙":9977,"##챽":9978,"##컺":9979,"##갣":9980,"##흝":9981,"##굯":9982,"##쏰":9983,"##뉰":9984,"##궙":9985,"##벻":9986,"##칱":9987,"##븕":9988,"##뒵":9989,"##먑":9990,"##쟟":9991,"##렃":9992,"##뉀":9993,"##깗":9994,"##앩":9995,"##퉥":9996,"##쌬":9997,"##푿":9998,"##귾":9999,"##첝":10000,"##갃":10001,"##닾":10002,"##녚":10003,"##틎":10004,"##믑":10005,"##늩":10006,"##섄":10007,"##벹":10008,"##빶":10009,"##넀":10010,"##쓤":10011,"##싐":10012,"##궥":10013,"##땆":10014,"##쳗":10015,"##쥿":10016,"##눰":10017,"##툈":10018,"##펵":10019,"##쬠":10020,"##틘":10021,"##좽":10022,"##죾":10023,"##넺":10024,"##쫭":10025,"##뎜":10026,"##돽":10027,"##윔":10028,"##즣":10029,"##댚":10030,"##굲":10031,"##첤":10032,"##캈":10033,"##픋":10034,"##첟":10035,"##륫":10036,"##쒴":10037,"##힟":10038,"##좩":10039,"##뗏":10040,"##킺":10041,"##맊":10042,"##멌":10043,"##랱":10044,"##웻":10045,"##롞":10046,"##냊":10047,"##돡":10048,"##꽇":10049,"##뮼":10050,"##톧":10051,"##헔":10052,"##곬":10053,"##똰":10054,"##쯍":10055,"##껸":10056,"##걊":10057,"##렊":10058,"##싟":10059,"##뙄":10060,"##뚧":10061,"##훻":10062,"##챼":10063,"##벸":10064,"##졳":10065,"##훵":10066,"##좬":10067,"##흼":10068,"##숔":10069,"##닟":10070,"##욿":10071,"##몼":10072,"##짦":10073,"##홑":10074,"##뱥":10075,"##쒓":10076,"##웊":10077,"##뚣":10078,"##툇":10079,"##랅":10080,"##듢":10081,"##칧":10082,"##칻":10083,"##뇩":10084,"##엫":10085,"##웋":10086,"##굮":10087,"##덞":10088,"##멨":10089,"##큡":10090,"##붚":10091,"##흌":10092,"##쌐":10093,"##싡":10094,"##뼀":10095,"##눛":10096,"##뒸":10097,"##꽅":10098,"##퉝":10099,"##뻨":10100,"##싿":10101,"##뷥":10102,"##몯":10103,"##웄":10104,"##퇼":10105,"##푭":10106,"##푁":10107,"##잧":10108,"##뼜":10109,"##묨":10110,"##썠":10111,"##싙":10112,"##쇈":10113,"##낓":10114,"##첞":10115,"##훊":10116,"##슻":10117,"##쿜":10118,"##쫐":10119,"##엷":10120,"##뒨":10121,"##뉠":10122,"##룝":10123,"##쳒":10124,"##줃":10125,"##쫴":10126,"##쉉":10127,"##쑉":10128,"##쾃":10129,"##뙇":10130,"##젆":10131,"##옝":10132,"##겱":10133,"##걖":10134,"##딿":10135,"##쵼":10136,"##곙":10137,"##졒":10138,"##슢":10139,"##껓":10140,"##짒":10141,"##줼":10142,"##먜":10143,"##쾍":10144,"##졲":10145,"##웓":10146,"##곹":10147,"##첲":10148,"##녇":10149,"##밦":10150,"##줟":10151,"##긬":10152,"##쟬":10153,"##컿":10154,"##싆":10155,"##녆":10156,"##벧":10157,"##붌":10158,"##츞":10159,"##욗":10160,"##엩":10161,"##쿻":10162,"##뽷":10163,"##솢":10164,"##꺙":10165,"##뙬":10166,"##잲":10167,"##럻":10168,"##똿":10169,"##닡":10170,"##빘":10171,"##멷":10172,"##윱":10173,"##쐉":10174,"##뻩":10175,"##겯":10176,"##옅":10177,"##낋":10178,"##렋":10179,"##싨":10180,"##벩":10181,"##즼":10182,"##퓡":10183,"##짌":10184,"##욫":10185,"##퀠":10186,"##뗔":10187,"##칯":10188,"##앻":10189,"##칳":10190,"##앛":10191,"##쁰":10192,"##풐":10193,"##씊":10194,"##폠":10195,"##쨖":10196,"##쁟":10197,"##덗":10198,"##딳":10199,"##뢨":10200,"##걾":10201,"##퍞":10202,"##엀":10203,"##찅":10204,"##딋":10205,"##돻":10206,"##횓":10207,"##닒":10208,"##홝":10209,"##뜅":10210,"##떧":10211,"##덌":10212,"##읫":10213,"##읪":10214,"##뤜":10215,"##곩":10216,"##캿":10217,"##췅":10218,"##뫔":10219,"##퍔":10220,"##꽊":10221,"##뗭":10222,"##즞":10223,"##댭":10224,"##춠":10225,"##풬":10226,"##냩":10227,"##묽":10228,"##쳧":10229,"##쎾":10230,"##욲":10231,"##챁":10232,"##퐌":10233,"##벑":10234,"##뗍":10235,"##잁":10236,"##츽":10237,"##뻫":10238,"##댣":10239,"##떦":10240,"##잓":10241,"##꺈":10242,"##덖":10243,"##븋":10244,"##퐤":10245,"##뵘":10246,"##랡":10247,"##쐒":10248,"##쟇":10249,"##얬":10250,"##둊":10251,"##똨":10252,"##픟":10253,"##첯":10254,"##뽹":10255,"##왙":10256,"##뱩":10257,"##렩":10258,"##껩":10259,"##쒯":10260,"##딭":10261,"##휨":10262,"##꾺":10263,"##큮":10264,"##쿢":10265,"##괙":10266,"##뀸":10267,"##솧":10268,"##줚":10269,"##쌟":10270,"##븹":10271,"##벁":10272,"##섵":10273,"##뭏":10274,"##튑":10275,"##흦":10276,"##솉":10277,"##둌":10278,"##뫀":10279,"##곅":10280,"##쑬":10281,"##셓":10282,"##숐":10283,"##꿤":10284,"##핪":10285,"##웛":10286,"##봈":10287,"##텆":10288,"##걤":10289,"##쟹":10290,"##횧":10291,"##쉄":10292,"##풓":10293,"##훍":10294,"##빬":10295,"##썀":10296,"##휵":10297,"##짎":10298,"##췩":10299,"##덍":10300,"##쨐":10301,"##썎":10302,"##닩":10303,"##퀙":10304,"##뭈":10305,"##겴":10306,"##긪":10307,"##짫":10308,"##묑":10309,"##쩦":10310,"##굈":10311,"##듪":10312,"##쵯":10313,"##젋":10314,"##륶":10315,"##퉼":10316,"##쌥":10317,"##칤":10318,"##뗫":10319,"##줊":10320,"##븓":10321,"##턍":10322,"##긃":10323,"##짉":10324,"##긛":10325,"##돘":10326,"##뗸":10327,"##듰":10328,"##큳":10329,"##슦":10330,"##뷘":10331,"##걕":10332,"##뜔":10333,"##엋":10334,"##룱":10335,"##횢":10336,"##첮":10337,"##퍀":10338,"##헓":10339,"##랆":10340,"##혺":10341,"##귁":10342,"##맻":10343,"##똡":10344,"##춈":10345,"##텊":10346,"##홟":10347,"##븁":10348,"##쭟":10349,"##볽":10350,"##쏬":10351,"##췤":10352,"##늴":10353,"##괵":10354,"##귯":10355,"##옪":10356,"##릸":10357,"##뮫":10358,"##붂":10359,"##돆":10360,"##읱":10361,"##잩":10362,"##멂":10363,"##덢":10364,"##뭃":10365,"##춭":10366,"##곆":10367,"##깛":10368,"##볋":10369,"##섮":10370,"##귻":10371,"##뺼":10372,"##퇀":10373,"##녿":10374,"##괏":10375,"##냴":10376,"##벟":10377,"##긂":10378,"##턐":10379,"##켛":10380,"##엳":10381,"##쪜":10382,"##룷":10383,"##붥":10384,"##꾿":10385,"##봩":10386,"##읈":10387,"##솰":10388,"##귺":10389,"##칝":10390,"##뿩":10391,"##졿":10392,"##훜":10393,"##줩":10394,"##줆":10395,"##섻":10396,"##찲":10397,"##딖":10398,"##줉":10399,"##쟆":10400,"##뒐":10401,"##웑":10402,"##끐":10403,"##똻":10404,"##쿗":10405,"##엧":10406,"##웢":10407,"##쩻":10408,"##늤":10409,"##앏":10410,"##떶":10411,"##쬼":10412,"##헊":10413,"##썖":10414,"##숖":10415,"##븃":10416,"##뵴":10417,"##맪":10418,"##꽹":10419,"##얷":10420,"##땩":10421,"##챺":10422,"##쁍":10423,"##놇":10424,"##헭":10425,"##렧":10426,"##깓":10427,"##뀀":10428,"##엲":10429,"##짣":10430,"##똽":10431,"##붤":10432,"##랎":10433,"##윀":10434,"##꺴":10435,"##짺":10436,"##쉡":10437,"##쀠":10438,"##쇟":10439,"##옦":10440,"##뤤":10441,"##쫔":10442,"##괠":10443,"##땎":10444,"##볹":10445,"##늇":10446,"##뀄":10447,"##쓲":10448,"##뭽":10449,"##뮛":10450,"##뻴":10451,"##헗":10452,"##쇱":10453,"##뒼":10454,"##욈":10455,"##섟":10456,"##놛":10457,"##썟":10458,"##뤃":10459,"##욉":10460,"##댥":10461,"##뇐":10462,"##뱗":10463,"##뵏":10464,"##믇":10465,"##싅":10466,"##휭":10467,"##믻":10468,"##끛":10469,"##꼻":10470,"##휏":10471,"##벾":10472,"##솃":10473,"##뤕":10474,"##뱨":10475,"##땸":10476,"##벝":10477,"##뷇":10478,"##꺗":10479,"##퇫":10480,"##퐛":10481,"##뷕":10482,"##춎":10483,"##뱸":10484,"##벫":10485,"##뢁":10486,"##픝":10487,"##졵":10488,"##뵥":10489,"##햡":10490,"##윣":10491,"##엒":10492,"##셛":10493,"##쎡":10494,"##쎁":10495,"##퐜":10496,"##긺":10497,"##킆":10498,"##쪹":10499,"##쒱":10500,"##뉫":10501,"##얙":10502,"##툳":10503,"##뙸":10504,"##챝":10505,"##넊":10506,"##꺕":10507,"##뱆":10508,"##켲":10509,"##귭":10510,"##셟":10511,"##섈":10512,"##엻":10513,"##쎨":10514,"##녱":10515,"##핽":10516,"##긄":10517,"##슏":10518,"##틩":10519,"##왹":10520,"##푬":10521,"##깇":10522,"##돸":10523,"##힇":10524,"##챳":10525,"##삉":10526,"##꽑":10527,"##볆":10528,"##븩":10529,"##뚀":10530,"##궠":10531,"##궆":10532,"##벖":10533,"##횝":10534,"##뤙":10535,"##맚":10536,"##씉":10537,"##즂":10538,"##랈":10539,"##쏱":10540,"##봴":10541,"##쿽":10542,"##롫":10543,"##챜":10544,"##낝":10545,"##핢":10546,"##놑":10547,"##둛":10548,"##쉛":10549,"##잂":10550,"##옣":10551,"##뺕":10552,"##줙":10553,"##졏":10554,"##퉐":10555,"##슂":10556,"##긼":10557,"##밙":10558,"##둽":10559,"##뤱":10560,"##봭":10561,"##깹":10562,"##곋":10563,"##툠":10564,"##뉌":10565,"##맒":10566,"##즺":10567,"##쵠":10568,"##텓":10569,"##얨":10570,"##몡":10571,"##픀":10572,"##꼮":10573,"##떸":10574,"##쐅":10575,"##놏":10576,"##줈":10577,"##쳍":10578,"##혷":10579,"##뱬":10580,"##탖":10581,"##훕":10582,"##튶":10583,"##츧":10584,"##큵":10585,"##쟴":10586,"##뿤":10587,"##쁄":10588,"##팗":10589,"##솅":10590,"##풱":10591,"##쭊":10592,"##꺔":10593,"##섫":10594,"##헼":10595,"##륔":10596,"##얭":10597,"##쟅":10598,"##롁":10599,"##궑":10600,"##츜":10601,"##풃":10602,"##젷":10603,"##캴":10604,"##캏":10605,"##씯":10606,"##뫜":10607,"##멭":10608,"##틓":10609,"##릷":10610,"##잕":10611,"##눃":10612,"##퓬":10613,"##쌞":10614,"##룿":10615,"##갌":10616,"##듇":10617,"##덭":10618,"##돾":10619,"##짋":10620,"##콯":10621,"##쥫":10622,"##욳":10623,"##윺":10624,"##쟼":10625,"##켚":10626,"##냒":10627,"##켭":10628,"##싧":10629,"##녛":10630,"##땢":10631,"##줱":10632,"##셭":10633,"##쨎":10634,"##댰":10635,"##뷉":10636,"##웘":10637,"##뫗":10638,"##끍":10639,"##덀":10640,"##컇":10641,"##놩":10642,"##훋":10643,"##힑":10644,"##퓅":10645,"##럣":10646,"##똈":10647,"##쾬":10648,"##쫟":10649,"##즋":10650,"##빭":10651,"##뺒":10652,"##낎":10653,"##긹":10654,"##좢":10655,"##끰":10656,"##쁌":10657,"##좂":10658,"##밮":10659,"##텸":10660,"##핓":10661,"##톻":10662,"##쳈":10663,"##뎝":10664,"##퉵":10665,"##촺":10666,"##쁴":10667,"##줋":10668,"##콮":10669,"##쟂":10670,"##쌎":10671,"##뚄":10672,"##헒":10673,"##됙":10674,"##뮹":10675,"##돐":10676,"##촴":10677,"##츹":10678,"##콭":10679,"##핷":10680,"##룈":10681,"##쀳":10682,"##켙":10683,"##톅":10684,"##쏸":10685,"##퀫":10686,"##켝":10687,"##횠":10688,"##쭃":10689,"##긵":10690,"##쒫":10691,"##쀓":10692,"##꿿":10693,"##뻰":10694,"##왰":10695,"##욋":10696,"##탣":10697,"##잜":10698,"##햋":10699,"##톺":10700,"##륐":10701,"##걜":10702,"##왚":10703,"##탚":10704,"##꾤":10705,"##둫":10706,"##밫":10707,"##톹":10708,"##릣":10709,"##뚢":10710,"##춐":10711,"##쐰":10712,"##닧":10713,"##깣":10714,"##탍":10715,"##긥":10716,"##봀":10717,"##힗":10718,"##횸":10719,"##롻":10720,"##줯":10721,"##먽":10722,"##곛":10723,"##뽠":10724,"##큑":10725,"##핃":10726,"##헢":10727,"##틅":10728,"##듓":10729,"##븉":10730,"##쮁":10731,"##냫":10732,"##뇹":10733,"##쵁":10734,"##쓐":10735,"##즜":10736,"##땦":10737,"##쀄":10738,"##쇣":10739,"##짮":10740,"##힞":10741,"##걻":10742,"##졶":10743,"##쫛":10744,"##뵁":10745,"##좸":10746,"##곟":10747,"##뎓":10748,"##듶":10749,"##헋":10750,"##씄":10751,"##붎":10752,"##솻":10753,"##늭":10754,"##뚈":10755,"##녻":10756,"##띌":10757,"##뱽":10758,"##퐠":10759,"##볙":10760,"##쳊":10761,"##틁":10762,"##꾳":10763,"##릂":10764,"##힊":10765,"##뇝":10766,"##찗":10767,"##뇀":10768,"##쫰":10769,"##뙝":10770,"##쏌":10771,"##짷":10772,"##퀐":10773,"##툿":10774,"##씪":10775,"##똣":10776,"##띳":10777,"##떯":10778,"##뿥":10779,"##붊":10780,"##똧":10781,"##쭠":10782,"##쭞":10783,"##쩟":10784,"##갏":10785,"##뜃":10786,"##듹":10787,"##쳰":10788,"##웗":10789,"##빹":10790,"##곴":10791,"##욣":10792,"##옲":10793,"##흽":10794,"##됚":10795,"##갳":10796,"##뜿":10797,"##슀":10798,"##뚊":10799,"##쩎":10800,"##쫜":10801,"##싚":10802,"##븧":10803,"##퉽":10804,"##쾐":10805,"##햎":10806,"##퉆":10807,"##윿":10808,"##넧":10809,"##쉟":10810,"##뤫":10811,"##좱":10812,"##뱜":10813,"##댷":10814,"##딺":10815,"##둞":10816,"##톌":10817,"##즵":10818,"##훽":10819,"##핕":10820,"##쉓":10821,"##뭩":10822,"##엞":10823,"##빂":10824,"##쑻":10825,"##늽":10826,"##훏":10827,"##뿬":10828,"##붅":10829,"##릫":10830,"##뻖":10831,"##욼":10832,"##쩼":10833,"##즎":10834,"##샕":10835,"##섩":10836,"##뿕":10837,"##뛓":10838,"##퉨":10839,"##깕":10840,"##붬":10841,"##뛍":10842,"##헾":10843,"##섪":10844,"##썾":10845,"##뀟":10846,"##쒭":10847,"##쒥":10848,"##떌":10849,"##헟":10850,"##헞":10851,"##뱕":10852,"##줨":10853,"##곚":10854,"##죷":10855,"##냪":10856,"##굤":10857,"##윟":10858,"##랇":10859,"##쓷":10860,"##륹":10861,"##푷":10862,"##뾲":10863,"##탲":10864,"##똠":10865,"##폌":10866,"##륲":10867,"##꼣":10868,"##젙":10869,"##좼":10870,"##웚":10871,"##챚":10872,"##둙":10873,"##쩅":10874,"##홱":10875,"##옉":10876,"##씦":10877,"##풏":10878,"##헯":10879,"##퓍":10880,"##꼥":10881,"##윹":10882,"##줖":10883,"##쀅":10884,"##뜡":10885,"##팢":10886,"##몊":10887,"##꼷":10888,"##셲":10889,"##쩢":10890,"##붆":10891,"##쩓":10892,"##숚":10893,"##턀":10894,"##쐭":10895,"##쩀":10896,"##믣":10897,"##찫":10898,"##앇":10899,"##뮷":10900,"##뉑":10901,"##젳":10902,"##쾰":10903,"##괃":10904,"##앹":10905,"##좜":10906,"##뻙":10907,"##롵":10908,"##팛":10909,"##핖":10910,"##븎":10911,"##꿂":10912,"##붍":10913,"##퀏":10914,"##쨲":10915,"##겕":10916,"##굷":10917,"##듩":10918,"##쵀":10919,"##쉫":10920,"##샗":10921,"##즏":10922,"##캰":10923,"##떗":10924,"##녽":10925,"##춝":10926,"##렽":10927,"##쥄":10928,"##즟":10929,"##갿":10930,"##춸":10931,"##킫":10932,"##즴":10933,"##봁":10934,"##뢘":10935,"##쓀":10936,"##혽":10937,"##쨬":10938,"##둚":10939,"##셃":10940,"##뭷":10941,"##잳":10942,"##뻦":10943,"##몣":10944,"##됤":10945,"##럑":10946,"##릲":10947,"##쪵":10948,"##쎍":10949,"##볒":10950,"##찠":10951,"##쩖":10952,"##뿰":10953,"##붠":10954,"##앿":10955,"##펃":10956,"##옧":10957,"##븏":10958,"##쇵":10959,"##힡":10960,"##봆":10961,"##뱝":10962,"##몺":10963,"##럯":10964,"##팄":10965,"##뚞":10966,"##훳":10967,"##삱":10968,"##됱":10969,"##롈":10970,"##껚":10971,"##됒":10972,"##휔":10973,"##뙛":10974,"##삷":10975,"##봟":10976,"##젵":10977,"##뢜":10978,"##젂":10979,"##빪":10980,"##뉙":10981,"##룧":10982,"##닑":10983,"##볖":10984,"##홪":10985,"##퇏":10986,"##폘":10987,"##쉻":10988,"##걥":10989,"##줎":10990,"##퀭":10991,"##끘":10992,"##퀔":10993,"##뤟":10994,"##뀻":10995,"##낤":10996,"##뎂":10997,"##짿":10998,"##댉":10999,"##윢":11000,"##눍":11001,"##쁸":11002,"##찦":11003,"##좒":11004,"##눝":11005,"##퀌":11006,"##롡":11007,"##쿺":11008,"##쁼":11009,"##씔":11010,"##돎":11011,"##솦":11012,"##볫":11013,"##꽘":11014,"##췹":11015,"##팚":11016,"##됢":11017,"##넁":11018,"##쉪":11019,"##렪":11020,"##캼":11021,"##맿":11022,"##킐":11023,"##뱛":11024,"##됼":11025,"##죿":11026,"##콫":11027,"##긊":11028,"##얠":11029,"##깱":11030,"##슯":11031,"##뤨":11032,"##샟":11033,"##엕":11034,"##볂":11035,"##뿛":11036,"##뿎":11037,"##흏":11038,"##뢓":11039,"##퀡":11040,"##굩":11041,"##봽":11042,"##곝":11043,"##엢":11044,"##줅":11045,"##핐":11046,"##쏵":11047,"##옞":11048,"##씍":11049,"##붋":11050,"##찳":11051,"##힒":11052,"##괨":11053,"##꺤":11054,"##뉬":11055,"##죅":11056,"##촀":11057,"##볅":11058,"##귖":11059,"##뀍":11060,"##틇":11061,"##홭":11062,"##넑":11063,"##뀩":11064,"##겒":11065,"##뫂":11066,"##뢌":11067,"##뵠":11068,"##혝":11069,"##뷧":11070,"##럊":11071,"##씳":11072,"##뱎":11073,"##쐤":11074,"##춛":11075,"##긿":11076,"##홁":11077,"##햙":11078,"##볭":11079,"##랯":11080,"##틜":11081,"##녙":11082,"##뒥":11083,"##벯":11084,"##칔":11085,"##쟥":11086,"##킽":11087,"##넖":11088,"##밚":11089,"##숌":11090,"##뜜":11091,"##핒":11092,"##돇":11093,"##뗙":11094,"##됝":11095,"##몲":11096,"##쒈":11097,"##뢋":11098,"##듑":11099,"##뽭":11100,"##먗":11101,"##썍":11102,"##늿":11103,"##쬎":11104,"##켞":11105,"##쯫":11106,"##틒":11107,"##뼐":11108,"##멿":11109,"##떘":11110,"##섉":11111,"##헱":11112,"##딉":11113,"##뀪":11114,"##뒛":11115,"##뻒":11116,"##씾":11117,"##탷":11118,"##뀃":11119,"##붏":11120,"##맓":11121,"##땧":11122,"##뛱":11123,"##흳":11124,"##밒":11125,"##쮼":11126,"##냿":11127,"##뭤":11128,"##뫁":11129,"##섽":11130,"##솖":11131,"##푄":11132,"##꼹":11133,"##읲":11134,"##퐇":11135,"##뇍":11136,"##륑":11137,"##볷":11138,"##릘":11139,"##럶":11140,"##쏃":11141,"##춱":11142,"##쇀":11143,"##줁":11144,"##톩":11145,"##첳":11146,"##풘":11147,"##톷":11148,"##뷷":11149,"##톀":11150,"##쮓":11151,"##꼄":11152,"##룯":11153,"##롘":11154,"##뀡":11155,"##곕":11156,"##훡":11157,"##혿":11158,"##퐂":11159,"##쩤":11160,"##궭":11161,"##췕":11162,"##휫":11163,"##릾":11164,"##킌":11165,"##즷":11166,"##꾈":11167,"##뛝":11168,"##낅":11169,"##꼲":11170,"##똵":11171,"##껳":11172,"##튘":11173,"##읟":11174,"##롮":11175,"##띴":11176,"##뉍":11177,"##핗":11178,"##턑":11179,"##겿":11180,"##곢":11181,"##삨":11182,"##겫":11183,"##혇":11184,"##쏐":11185,"##릥":11186,"##긯":11187,"##쩕":11188,"##멑":11189,"##삸":11190,"##숡":11191,"##턉":11192,"##썔":11193,"##퍤":11194,"##짵":11195,"##맽":11196,"##꾱":11197,"##똟":11198,"##쉗":11199,"##욎":11200,"##펅":11201,"##츛":11202,"##섦":11203,"##퓹":11204,"##퓩":11205,"##잢":11206,"##촜":11207,"##탊":11208,"##젒":11209,"##쓌":11210,"##셎":11211,"##띕":11212,"##뢕":11213,"##렢":11214,"##벏":11215,"##웙":11216,"##얮":11217,"##홖":11218,"##븰":11219,"##벶":11220,"##넏":11221,"##뽰":11222,"##뭴":11223,"##퇬":11224,"##렭":11225,"##붗":11226,"##볎":11227,"##쑼":11228,"##혚":11229,"##귽":11230,"##걼":11231,"##닚":11232,"##늒":11233,"##럘":11234,"##냗":11235,"##둇":11236,"##쟃":11237,"##톶":11238,"##쨧":11239,"##땓":11240,"##씞":11241,"##녝":11242,"##웉":11243,"##뭫":11244,"##뭁":11245,"##젉":11246,"##굄":11247,"##햟":11248,"##툄":11249,"##봦":11250,"##뭎":11251,"##씿":11252,"##앃":11253,"##뛀":11254,"##뭟":11255,"##돉":11256,"##샦":11257,"##쨤":11258,"##휗":11259,"##뵑":11260,"##앁":11261,"##킦":11262,"##헧":11263,"##릑":11264,"##꼅":11265,"##헍":11266,"##촷":11267,"##쭭":11268,"##묏":11269,"##퉛":11270,"##눋":11271,"##훞":11272,"##뱤":11273,"##훉":11274,"##퍡":11275,"##붃":11276,"##웳":11277,"##꺍":11278,"##뻼":11279,"##춀":11280,"##픤":11281,"##춞":11282,"##릁":11283,"##웣":11284,"##쭹":11285,"##뗳":11286,"##뼙":11287,"##늜":11288,"##뿧":11289,"##텠":11290,"##뵵":11291,"##긏":11292,"##룃":11293,"##흓":11294,"##됡":11295,"##횜":11296,"##닍":11297,"##죜":11298,"##쀽":11299,"##쿌":11300,"##괖":11301,"##쩗":11302,"##쯋":11303,"##굫":11304,"##싩":11305,"##텇":11306,"##붰":11307,"##븦":11308,"##펺":11309,"##뇟":11310,"##띅":11311,"##걶":11312,"##뺭":11313,"##먻":11314,"##깵":11315,"##뀤":11316,"##뻉":11317,"##윝":11318,"##퍝":11319,"##낪":11320,"##돓":11321,"##샫":11322,"##엶":11323,"##췜":11324,"##툅":11325,"##읷":11326,"##씥":11327,"##톃":11328,"##뽞":11329,"##뽴":11330,"##췝":11331,"##뤁":11332,"##훝":11333,"##깯":11334,"##뺗":11335,"##쐨":11336,"##쾤":11337,"##깾":11338,"##쎰":11339,"##쯴":11340,"##큩":11341,"##먱":11342,"##꿬":11343,"##믱":11344,"##갶":11345,"##춚":11346,"##끞":11347,"##쬘":11348,"##떣":11349,"##븞":11350,"##켉":11351,"##랁":11352,"##툲":11353,"##뢩":11354,"##뀅":11355,"##텂":11356,"##뙷":11357,"##낛":11358,"##뙌":11359,"##땉":11360,"##갮":11361,"##쓈":11362,"##쿧":11363,"##쉩":11364,"##뀷":11365,"##첢":11366,"##숧":11367,"##헫":11368,"##젾":11369,"##툨":11370,"##틤":11371,"##믬":11372,"##텹":11373,"##갧":11374,"##뷍":11375,"##냎":11376,"##꽜":11377,"##끀":11378,"##쮑":11379,"##욽":11380,"##뒌":11381,"##슸":11382,"##넭":11383,"##젌":11384,"##뮁":11385,"##졹":11386,"##늛":11387,"##윋":11388,"##쭻":11389,"##싾":11390,"##좓":11391,"##곣":11392,"##퓻":11393,"##퍾":11394,"##귥":11395,"##쿯":11396,"##퀰":11397,"##켵":11398,"##싪":11399,"##걧":11400,"##썃":11401,"##됃":11402,"##쌑":11403,"##먆":11404,"##믉":11405,"##튴":11406,"##슶":11407,"##춡":11408,"##콋":11409,"##씟":11410,"##낕":11411,"##쏳":11412,"##쎽":11413,"##븛":11414,"##쎝":11415,"##싘":11416,"##쉧":11417,"##봋":11418,"##엸":11419,"##뗵":11420,"##몔":11421,"##냋":11422,"##봃":11423,"##퇍":11424,"##큣":11425,"##빫":11426,"##픃":11427,"##퇶":11428,"##쳏":11429,"##뜐":11430,"##뗗":11431,"##썋":11432,"##툣":11433,"##툩":11434,"##둪":11435,"##웖":11436,"##꼨":11437,"##앑":11438,"##톢":11439,"##쓊":11440,"##쬔":11441,"##꼶":11442,"##릹":11443,"##샔":11444,"##렓":11445,"##뚼":11446,"##맖":11447,"##쏏":11448,"##렅":11449,"##끸":11450,"##덈":11451,"##틂":11452,"##떩":11453,"##뚵":11454,"##럷":11455,"##찁":11456,"##굧":11457,"##벐":11458,"##숢":11459,"##멒":11460,"##밳":11461,"##솣":11462,"##떥":11463,"##뵉":11464,"##뒓":11465,"##긶":11466,"##긻":11467,"##솛":11468,"##걨":11469,"##궵":11470,"##툻":11471,"##꿌":11472,"##뚷":11473,"##딞":11474,"##릻":11475,"##붯":11476,"##뺅":11477,"##줓":11478,"##붴":11479,"##꾝":11480,"##킿":11481,"##똦":11482,"##뿽":11483,"##헽":11484,"##쓕":11485,"##빖":11486,"##꿁":11487,"##앺":11488,"##밹":11489,"##럠":11490,"##쉜":11491,"##꿻":11492,"##싖":11493,"##쯨":11494,"##홒":11495,"##셏":11496,"##풎":11497,"##쥦":11498,"##릀":11499,"##붭":11500,"##뿁":11501,"##튺":11502,"##밲":11503,"##뺶":11504,"##턋":11505,"##쪟":11506,"##푲":11507,"##샓":11508,"##혲":11509,"##썱":11510,"##촪":11511,"##첧":11512,"##툊":11513,"##띻":11514,"##묿":11515,"##춟":11516,"##붹":11517,"##굅":11518,"##젶":11519,"##엹":11520,"##씷":11521,"##첪":11522,"##숗":11523,"##맔":11524,"##눹":11525,"##컀":11526,"##걇":11527,"##쉚":11528,"##슲":11529,"##꿕":11530,"##쬿":11531,"##뼏":11532,"##턹":11533,"##턕":11534,"##욻":11535,"##꿸":11536,"##뱰":11537,"##겵":11538,"##쀌":11539,"##뜱":11540,"##뮝":11541,"##쁝":11542,"##꺊":11543,"##팊":11544,"##욾":11545,"##쿈":11546,"##츃":11547,"##꿲":11548,"##킉":11549,"##픓":11550,"##킀":11551,"##빎":11552,"##걳":11553,"##렑":11554,"##빏":11555,"##첑":11556,"##젚":11557,"##퇙":11558,"##왲":11559,"##띟":11560,"##갺":11561,"##헲":11562,"##듞":11563,"##묷":11564,"##즡":11565,"##핆":11566,"##꽦":11567,"##뇁":11568,"##쉾":11569,"##놖":11570,"##캽":11571,"##칶":11572,"##웪":11573,"##쬮":11574,"##툌":11575,"##뵷":11576,"##뙴":11577,"##먇":11578,"##봵":11579,"##첱":11580,"##똙":11581,"##탅":11582,"##멛":11583,"##픎":11584,"##벎":11585,"##쯀":11586,"##뤵":11587,"##칄":11588,"##꺳":11589,"##솕":11590,"##샚":11591,"##튔":11592,"##섊":11593,"##쀏":11594,"##퐙":11595,"##옩":11596,"##쑛":11597,"##쒁":11598,"##쓿":11599,"##둒":11600,"##챋":11601,"##퉹":11602,"##쭄":11603,"##솠":11604,"##딝":11605,"##흪":11606,"##뽇":11607,"##밊":11608,"##흜":11609,"##얩":11610,"##헚":11611,"##혭":11612,"##팙":11613,"##곫":11614,"##뷃":11615,"##끏":11616,"##엜":11617,"##삹":11618,"##끎":11619,"##뎦":11620,"##볈":11621,"##쒧":11622,"##쮭":11623,"##겗":11624,"##춏":11625,"##륮":11626,"##씮":11627,"##뤳":11628,"##쇨":11629,"##빺":11630,"##욓":11631,"##옱":11632,"##쫅":11633,"##틕":11634,"##얋":11635,"##믝":11636,"##겚":11637,"##녗":11638,"##뇡":11639,"##쵴":11640,"##홇":11641,"##녖":11642,"##빣":11643,"##꿹":11644,"##씶":11645,"##쭕":11646,"##놴":11647,"##궳":11648,"##딻":11649,"##믯":11650,"##슅":11651,"##휰":11652,"##줝":11653,"##쟊":11654,"##윁":11655,"##뛌":11656,"##벲":11657,"##풇":11658,"##쿔":11659,"##쏄":11660,"##둩":11661,"##윶":11662,"##홡":11663,"##캩":11664,"##벷":11665,"##챷":11666,"##챫":11667,"##췸":11668,"##좎":11669,"##믛":11670,"##뎻":11671,"##폯":11672,"##믖":11673,"##궯":11674,"##렡":11675,"##댏":11676,"##꼊":11677,"##눽":11678,"##폡":11679,"##펒":11680,"##쫚":11681,"##줂":11682,"##젍":11683,"##뱟":11684,"##윯":11685,"##삧":11686,"##슰":11687,"##쀵":11688,"##쓋":11689,"##뷋":11690,"##갍":11691,"##쓒":11692,"##뜛":11693,"##핺":11694,"##잞":11695,"##둧":11696,"##흚":11697,"##쬴":11698,"##꿝":11699,"##쓑":11700,"##랊":11701,"##궓":11702,"##땰":11703,"##눵":11704,"##멫":11705,"##봎":11706,"##셫":11707,"##퉬":11708,"##뮻":11709,"##턈":11710,"##갢":11711,"##씱":11712,"##꼵":11713,"##쫖":11714,"##궀":11715,"##섔":11716,"##흵":11717,"##붝":11718,"##햩":11719,"##밂":11720,"##옢":11721,"##엂":11722,"##픍":11723,"##넟":11724,"##슳":11725,"##먤":11726,"##돖":11727,"##쉠":11728,"##쀈":11729,"##쒐":11730,"##뽘":11731,"##꾭":11732,"##콪":11733,"##샿":11734,"##팏":11735,"##훛":11736,"##쑀":11737,"##쨟":11738,"##뜳":11739,"##쇸":11740,"##쥈":11741,"##텣":11742,"##쿩":11743,"##봰":11744,"##휍":11745,"##뷤":11746,"##햰":11747,"##뚦":11748,"##쎇":11749,"##궮":11750,"##혻":11751,"##쩣":11752,"##쑷":11753,"##낣":11754,"##닗":11755,"##쭂":11756,"##놁":11757,"##챻":11758,"##섧":11759,"##깑":11760,"##젡":11761,"##쟡":11762,"##냙":11763,"##낶":11764,"##썳":11765,"##녰":11766,"##뼡":11767,"##쳋":11768,"##눂":11769,"##흎":11770,"##잝":11771,"##벺":11772,"##걒":11773,"##흊":11774,"##믰":11775,"##낥":11776,"##놪":11777,"##츷":11778,"##쮱":11779,"##껅":11780,"##겮":11781,"##냧":11782,"##쩘":11783,"##픨":11784,"##뷹":11785,"##띧":11786,"##쓺":11787,"##꽆":11788,"##풩":11789,"##뒑":11790,"##슇":11791,"##팖":11792,"##좊":11793,"##헦":11794,"##싇":11795,"##뱋":11796,"##웥":11797,"##룄":11798,"##삺":11799,"##봿":11800,"##딮":11801,"##쒵":11802,"##킠":11803,"##쒂":11804,"##럥":11805,"##퍵":11806,"##믤":11807,"##걓":11808,"##혉":11809,"##뾀":11810,"##겳":11811,"##꽼":11812,"##룢":11813,"##귇":11814,"##꽀":11815,"##쐏":11816,"##퐑":11817,"##갎":11818,"##왗":11819,"##큲":11820,"##혂":11821,"##뗼":11822,"##괺":11823,"##웯":11824,"##뛃":11825,"##늎":11826,"##풴":11827,"##웺":11828,"##뢥":11829,"##괂":11830,"##똷":11831,"##캵":11832,"##걬":11833,"##빓":11834,"##뀈":11835,"##쫵":11836,"##쿫":11837,"##헰":11838,"##푈":11839,"##뼊":11840,"##떹":11841,"##뽫":11842,"##럗":11843,"##빯":11844,"##뭿":11845,"##뒜":11846,"##맕":11847,"##륟":11848,"##퍁":11849,"##쐌":11850,"##뭀":11851,"##혅":11852,"##떮":11853,"##졜":11854,"##멮":11855,"##뿓":11856,"##첡":11857,"##콲":11858,"##젎":11859,"##펟":11860,"##쨨":11861,"##혾":11862,"##겺":11863,"##쵕":11864,"##샽":11865,"##뚴":11866,"##쿅":11867,"##늓":11868,"##겛":11869,"##휇":11870,"##곔":11871,"##쥇":11872,"##섨":11873,"##꽠":11874,"##썝":11875,"##뻪":11876,"##섢":11877,"##썄":11878,"##뷮":11879,"##뉅":11880,"##퇵":11881,"##묯":11882,"##쀾":11883,"##잮":11884,"##낧":11885,"##믆":11886,"##큻":11887,"##뺚":11888,"##쌇":11889,"##븸":11890,"##꺢":11891,"##슟":11892,"##쑙":11893,"##뇤":11894,"##몷":11895,"##쩹":11896,"##쀒":11897,"##휳":11898,"##샃":11899,"##쓹":11900,"##뇅":11901,"##홗":11902,"##뽸":11903,"##퇑":11904,"##똮":11905,"##컅":11906,"##깖":11907,"##떾":11908,"##펻":11909,"##떷":11910,"##셮":11911,"##놸":11912,"##쇌":11913,"##괫":11914,"##죢":11915,"##겙":11916,"##팣":11917,"##엁":11918,"##꽨":11919,"##믂":11920,"##훱":11921,"##쮤":11922,"##겏":11923,"##띶":11924,"##괗":11925,"##졩":11926,"##쏚":11927,"##퓟":11928,"##뒫":11929,"##뱊":11930,"##큪":11931,"##촼":11932,"##둄":11933,"##쵿":11934,"##몮":11935,"##첣":11936,"##쯛":11937,"##뙀":11938,"##눸":11939,"##뫽":11940,"##틳":11941,"##뙹":11942,"##쁮":11943,"##뭭":11944,"##쌒":11945,"##뿹":11946,"##몢":11947,"##걭":11948,"##챶":11949,"##쫨":11950,"##퀻":11951,"##얰":11952,"##쩛":11953,"##쩽":11954,"##씧":11955,"##혆":11956,"##뭙":11957,"##뙿":11958,"##죶":11959,"##긞":11960,"##꾬":11961,"##쮔":11962,"##튻":11963,"##꽛":11964,"##슞":11965,"##섑":11966,"##쬈":11967,"##쒠":11968,"##좧":11969,"##촡":11970,"##풸":11971,"##뾸":11972,"##눉":11973,"##릆":11974,"##윩":11975,"##찪":11976,"##퇌":11977,"##삫":11978,"##녯":11979,"##쮉":11980,"##곮":11981,"##빇":11982,"##얊":11983,"##홙":11984,"##멪":11985,"##췔":11986,"##쥅":11987,"##꺓":11988,"##굪":11989,"##뻁":11990,"##괅":11991,"##넶":11992,"##삒":11993,"##믙":11994,"##뀹":11995,"##턺":11996,"##뙥":11997,"##겞":11998,"##걆":11999,"##먛":12000,"##펹":12001,"##칍":12002,"##쓘":12003,"##죥":12004,"##뉄":12005,"##뗨":12006,"##앷":12007,"##찏":12008,"##쎂":12009,"##썫":12010,"##쌗":12011,"##룪":12012,"##혒":12013,"##믌":12014,"##뜮":12015,"##쭨":12016,"##뮏":12017,"##궬":12018,"##헶":12019,"##탞":12020,"##쩸":12021,"##쵭":12022,"##끡":12023,"##쳢":12024,"##찥":12025,"##훯":12026,"##죣":12027,"##곭":12028,"##쪚":12029,"##댦":12030,"##쀀":12031,"##쥳":12032,"##큷":12033,"##궲":12034,"##덦":12035,"##숪":12036,"##훸":12037,"##뙓":12038,"##꿄":12039,"##즑":12040,"##쬲":12041,"##퇜":12042,"##쬡":12043,"##꽴":12044,"##쉮":12045,"##돏":12046,"##퇭":12047,"##홅":12048,"##뵞":12049,"##갥":12050,"##햚":12051,"##뛋":12052,"##눓":12053,"##좰":12054,"##랺":12055,"##힕":12056,"##귦":12057,"##뾔":12058,"##윖":12059,"##삗":12060,"##똚":12061,"##꽭":12062,"##쐼":12063,"##뚁":12064,"##뀱":12065,"##갫":12066,"##픹":12067,"##끯":12068,"##킘":12069,"##캢":12070,"##쏮":12071,"##럸":12072,"##뺡":12073,"##졽":12074,"##캙":12075,"##뻕":12076,"##틊":12077,"##쓜":12078,"##닱":12079,"##뀳":12080,"##둅":12081,"##흤":12082,"##웼":12083,"##퐣":12084,"##좣":12085,"##쌛":12086,"##푕":12087,"##캮":12088,"##몟":12089,"##놊":12090,"##콛":12091,"##븂":12092,"##졺":12093,"##뛨":12094,"##혃":12095,"##굺":12096,"##휲":12097,"##쫕":12098,"##똝":12099,"##퇧":12100,"##킶":12101,"##꾄":12102,"##얪":12103,"##쩁":12104,"##컯":12105,"##뛕":12106,"##쀡":12107,"##윥":12108,"##뫚":12109,"##뮦":12110,"##쳴":12111,"##깺":12112,"##힂":12113,"##넔":12114,"##퓿":12115,"##쁐":12116,"##퐥":12117,"##뿃":12118,"##틧":12119,"##쭏":12120,"##뜄":12121,"##똼":12122,"##꺏":12123,"##쐄":12124,"##쐿":12125,"##볇":12126,"##휐":12127,"##솒":12128,"##졻":12129,"##쯎":12130,"##샮":12131,"##풹":12132,"##왅":12133,"##얉":12134,"##곖":12135,"##좥":12136,"##겭":12137,"##왥":12138,"##씇":12139,"##뿳":12140,"##왶":12141,"##닋":12142,"##놃":12143,"##둋":12144,"##뵺":12145,"##밿":12146,"##놝":12147,"##졂":12148,"##쾩":12149,"##뭗":12150,"##켼":12151,"##괝":12152,"##뒞":12153,"##꾠":12154,"##삦":12155,"##쫫":12156,"##쒤":12157,"##퐘":12158,"##쏔":12159,"##쬥":12160,"##얁":12161,"##짾":12162,"##뭧":12163,"##맩":12164,"##볁":12165,"##씗":12166,"##툶":12167,"##떺":12168,"##곥":12169,"##녭":12170,"##쩑":12171,"##쪻":12172,"##뮘":12173,"##뼑":12174,"##꺚":12175,"##갩":12176,"##쵲":12177,"##싻":12178,"##왳":12179,"##걃":12180,"##꺋":12181,"##숤":12182,"##똇":12183,"##왷":12184,"##쭅":12185,"##왡":12186,"##앦":12187,"##뾃":12188,"##멲":12189,"##뭚":12190,"##쎓":12191,"##꽳":12192,"##쇔":12193,"##죝":12194,"##껇":12195,"##쓃":12196,"##왢":12197,"##♬에":12198,"##♬이":12199,"##♬을":12200,"##♬의":12201,"##♬가":12202,"##♬는":12203,"##♬를":12204,"##♬들":12205,"##♬은":12206,"##♬도":12207,"##으로":12208,"♬에":12209,"##♬으로":12210,"♬을":12211,"##♬로":12212,"##♬에서":12213,"♬의":12214,"♬이":12215,"##하는":12216,"##니다":12217,"♬를":12218,"##♬과":12219,"##하고":12220,"##♬적":12221,"♬는":12222,"♬은":12223,"##는데":12224,"##이다":12225,"♬가":12226,"##♬만":12227,"##다고":12228,"##♬들♬이":12229,"##♬와":12230,"##지만":12231,"있다":12232,"사람":12233,"아니":12234,"♬으로":12235,"##라고":12236,"##했다":12237,"##00":12238,"##까지":12239,"♬에서":12240,"있는":12241,"♬로":12242,"##었다":12243,"##면서":12244,"♬도":12245,"##다는":12246,"##♬에게":12247,"생각":12248,"우리":12249,"##♬들♬은":12250,"♬들":12251,"##♬까지":12252,"##하게":12253,"##부터":12254,"##해서":12255,"♬과":12256,"대한":12257,"##리고":12258,"##이라":12259,"##한다":12260,"20":12261,"##♬님":12262,"하는":12263,"한다":12264,"한국":12265,"##보다":12266,"국민":12267,"##습니다":12268,"##♬적인":12269,"때문":12270,"♬적":12271,"##렇게":12272,"##으면":12273,"그러":12274,"영화":12275,"이런":12276,"진짜":12277,"##♬적♬으로":12278,"♬와":12279,"##니까":12280,"지금":12281,"##하지":12282,"##♬에♬는":12283,"일본":12284,"지난":12285,"##하면":12286,"##♬나":12287,"그런":12288,"문제":12289,"##♬이나":12290,"##♬부터":12291,"##♬들♬의":12292,"##하다":12293,"##♬보다":12294,"같은":12295,"너무":12296,"10":12297,"자신":12298,"다른":12299,"중국":12300,"##대로":12301,"##♬성":12302,"나라":12303,"##는거":12304,"하나":12305,"##처럼":12306,"위해":12307,"##통령":12308,"들어":12309,"그리고":12310,"만들":12311,"미국":12312,"그래":12313,"경우":12314,"##하기":12315,"정부":12316,"##♬화":12317,"##이고":12318,"##네요":12319,"201":12320,"##인데":12321,"##♬들♬을":12322,"##라는":12323,"아이":12324,"##어서":12325,"하고":12326,"이상":12327,"대통령":12328,"이제":12329,"19":12330,"이번":12331,"그냥":12332,"##세요":12333,"문재":12334,"작가":12335,"사실":12336,"##기♬를":12337,"다고":12338,"##♬처럼":12339,"##한테":12340,"된다":12341,"##어요":12342,"아닌":12343,"##해야":12344,"##지고":12345,"다시":12346,"##나라":12347,"##았다":12348,"것이다":12349,"##입니다":12350,"시작":12351,"함께":12352,"사회":12353,"따라":12354,"없는":12355,"정도":12356,"정치":12357,"##♬한테":12358,"경제":12359,"서울":12360,"##이라고":12361,"때문♬에":12362,"많이":12363,"통해":12364,"##라도":12365,"보고":12366,"가능":12367,"하지만":12368,"모르":12369,"인간":12370,"##이지":12371,"시간":12372,"가장":12373,"아무":12374,"나오":12375,"필요":12376,"기업":12377,"##♬에♬도":12378,"아니라":12379,"##하여":12380,"##되는":12381,"##♬에서♬는":12382,"##리는":12383,"정말":12384,"##리♬를":12385,"자기":12386,"북한":12387,"모두":12388,"##였다":12389,"상황":12390,"##자♬가":12391,"세계":12392,"##으며":12393,"지역":12394,"##다가":12395,"민주":12396,"200":12397,"이후":12398,"##리♬가":12399,"어떻":12400,"##같은":12401,"모든":12402,"##♬서":12403,"대표":12404,"##려고":12405,"것♬이":12406,"모습":12407,"좋아":12408,"시장":12409,"사업":12410,"관계":12411,"국가":12412,"이렇게":12413,"♬까지":12414,"것♬은":12415,"어떻게":12416,"문재인":12417,"사용":12418,"여자":12419,"관련":12420,"내♬가":12421,"없다":12422,"##스트":12423,"마음":12424,"##주의":12425,"다음":12426,"여기":12427,"대해":12428,"♬만":12429,"##된다":12430,"이유":12431,"##♬랑":12432,"해야":12433,"##합니다":12434,"이미":12435,"있었":12436,"많은":12437,"##이라는":12438,"위한":12439,"##겠다":12440,"댓글":12441,"이야":12442,"##사람":12443,"정신":12444,"지원":12445,"##는다":12446,"##기♬가":12447,"##보고":12448,"아직":12449,"현재":12450,"돌아":12451,"그렇게":12452,"처음":12453,"사이":12454,"했다":12455,"##♬권":12456,"계속":12457,"사랑":12458,"그러나":12459,"##하며":12460,"어떤":12461,"것♬으로":12462,"작가♬님":12463,"##어야":12464,"투자":12465,"것♬을":12466,"##♬아":12467,"##거나":12468,"얼마":12469,"##사♬를":12470,"라고":12471,"라는":12472,"무슨":12473,"프로":12474,"12":12475,"♬성":12476,"내용":12477,"##기♬도":12478,"역시":12479,"##민국":12480,"보여":12481,"경기":12482,"##으니":12483,"##구나":12484,"##는지":12485,"30":12486,"근데":12487,"있을":12488,"특히":12489,"##아서":12490,"좋은":12491,"##하면서":12492,"##인가":12493,"##인지":12494,"##어나":12495,"여성":12496,"남자":12497,"11":12498,"하지":12499,"##레이":12500,"밝혔":12501,"##♬들♬에게":12502,"이해":12503,"보면":12504,"이어":12505,"##지는":12506,"다는":12507,"조국":12508,"##기♬에":12509,"진행":12510,"##♬네":12511,"바로":12512,"여러":12513,"국내":12514,"100":12515,"##가는":12516,"대한민국":12517,"교육":12518,"##♬당":12519,"이용":12520,"그래서":12521,"##있는":12522,"##♬들♬도":12523,"기대":12524,"오늘":12525,"결과":12526,"수준":12527,"결국":12528,"##도록":12529,"검찰":12530,"##지♬를":12531,"##것♬도":12532,"##로운":12533,"방송":12534,"##력♬을":12535,"♬에게":12536,"중요":12537,"##인♬이":12538,"##잖아":12539,"피해":12540,"지만":12541,"있었다":12542,"기사":12543,"기술":12544,"어디":12545,"##이었다":12546,"면서":12547,"이름":12548,"그렇":12549,"##이었":12550,"##지막":12551,"최고":12552,"♬부터":12553,"##밖에":12554,"연구":12555,"최근":12556,"조사":12557,"15":12558,"##자♬는":12559,"##시키":12560,"자유":12561,"##없이":12562,"##♬엔":12563,"보이":12564,"국회":12565,"또한":12566,"이러":12567,"##는게":12568,"##소리":12569,"잘못":12570,"마지막":12571,"♬화":12572,"설명":12573,"살아":12574,"##이♬가":12575,"계획":12576,"♬고":12577,"떨어":12578,"민주당":12579,"상대":12580,"사람♬이":12581,"저런":12582,"경찰":12583,"이거":12584,"삼성":12585,"없이":12586,"대학":12587,"##가지":12588,"지지":12589,"##되고":12590,"개발":12591,"웹툰":12592,"친구":12593,"##장♬을":12594,"우리나라":12595,"어느":12596,"사건":12597,"당시":12598,"의원":12599,"##♬마":12600,"지난해":12601,"베댓":12602,"나♬는":12603,"가족":12604,"학교":12605,"##지♬도":12606,"물론":12607,"나타":12608,"세상":12609,"##레기":12610,"♬보다":12611,"당신":12612,"작품":12613,"##사♬가":12614,"정권":12615,"##해라":12616,"되는":12617,"같이":12618,"기록":12619,"감독":12620,"##어도":12621,"##머니":12622,"전문":12623,"올해":12624,"자신♬의":12625,"대상":12626,"이게":12627,"##지♬가":12628,"##으나":12629,"##비스":12630,"현실":12631,"##정♬을":12632,"알고":12633,"그럼":12634,"받아":12635,"관심":12636,"##♬에서♬도":12637,"정책":12638,"얼굴":12639,"##이야":12640,"이날":12641,"후보":12642,"제대로":12643,"##거리":12644,"만들어":12645,"얼마나":12646,"##시아":12647,"개인":12648,"주인":12649,"##동안":12650,"사진":12651,"##주는":12652,"##♬째":12653,"학생":12654,"##♬이랑":12655,"##졌다":12656,"정보":12657,"##♬들♬과":12658,"##시간":12659,"회사":12660,"##했던":12661,"18":12662,"그♬는":12663,"나온":12664,"누구":12665,"##♬자":12666,"않고":12667,"##인다":12668,"평가":12669,"이야기":12670,"##부분":12671,"##하는데":12672,"조선":12673,"##장♬은":12674,"배우":12675,"하면":12676,"그것":12677,"##되어":12678,"##력♬이":12679,"가지":12680,"다양":12681,"한번":12682,"##겠지":12683,"자체":12684,"문화":12685,"##수♬가":12686,"##기업":12687,"말했다":12688,"찾아":12689,"##더니":12690,"따르":12691,"있는데":12692,"않는":12693,"부분":12694,"실제":12695,"일반":12696,"##중♬에":12697,"어려":12698,"직접":12699,"활동":12700,"알려":12701,"그만":12702,"동안":12703,"예정":12704,"운영":12705,"공개":12706,"##이트":12707,"##지♬는":12708,"그리":12709,"금융":12710,"해서":12711,"그림":12712,"선거":12713,"완전":12714,"##없는":12715,"언제":12716,"##운데":12717,"##장♬이":12718,"위원":12719,"##해도":12720,"##0년":12721,"새로운":12722,"상태":12723,"언론":12724,"##놓고":12725,"일부":12726,"올라":12727,"존재":12728,"##주고":12729,"그런데":12730,"대구":12731,"조금":12732,"의미":12733,"결정":12734,"##진다":12735,"소리":12736,"##스크":12737,"있고":12738,"게임":12739,"않은":12740,"##하나":12741,"제발":12742,"스토":12743,"##전♬에":12744,"책임":12745,"##로나":12746,"세금":12747,"공격":12748,"않았":12749,"발생":12750,"누가":12751,"한다고":12752,"재미":12753,"현대":12754,"먼저":12755,"##기♬는":12756,"아주":12757,"##이면":12758,"미래":12759,"##하자":12760,"제공":12761,"기준":12762,"##정부":12763,"##보면":12764,"인터":12765,"방법":12766,"확인":12767,"기자":12768,"부모":12769,"가지고":12770,"♬나":12771,"인정":12772,"합니다":12773,"##같이":12774,"##이냐":12775,"전체":12776,"하루":12777,"것♬도":12778,"##다면":12779,"##하네":12780,"머리":12781,"지나":12782,"서비스":12783,"그녀":12784,"참여":12785,"있다는":12786,"관리":12787,"한편":12788,"준비":12789,"발표":12790,"만화":12791,"50":12792,"♬라고":12793,"성공":12794,"자리":12795,"##을까":12796,"아니고":12797,"##라이":12798,"있어":12799,"##하는거":12800,"힘들":12801,"##♬들♬아":12802,"##한거":12803,"엄마":12804,"해도":12805,"##상♬을":12806,"사고":12807,"수사":12808,"##정도":12809,"##원♬이":12810,"##♬씩":12811,"주장":12812,"등장":12813,"##학교":12814,"만나":12815,"코로나":12816,"반대":12817,"##말고":12818,"과정":12819,"외국":12820,"##렸다":12821,"역사":12822,"13":12823,"주인공":12824,"선수":12825,"가격":12826,"##♬마다":12827,"서로":12828,"##리아":12829,"국제":12830,"##하시":12831,"산업":12832,"가운데":12833,"생활":12834,"대부분":12835,"25":12836,"보는":12837,"##러운":12838,"무엇":12839,"##기♬로":12840,"과거":12841,"##♬상":12842,"16":12843,"##000":12844,"이건":12845,"최대":12846,"위해서":12847,"제품":12848,"행동":12849,"거의":12850,"##랜드":12851,"전국":12852,"증가":12853,"정상":12854,"성장":12855,"경쟁":12856,"더욱":12857,"기억":12858,"사람♬들♬이":12859,"시민":12860,"##다니":12861,"있습니다":12862,"판매":12863,"##이며":12864,"재밌":12865,"해외":12866,"생산":12867,"노동":12868,"기다":12869,"요즘":12870,"효과":12871,"어린":12872,"보내":12873,"내려":12874,"##치고":12875,"그래도":12876,"##자♬를":12877,"##OO":12878,"해결":12879,"##리지":12880,"말♬을":12881,"당연":12882,"이것":12883,"얘기":12884,"14":12885,"못한":12886,"선택":12887,"아닌가":12888,"##♬밖에":12889,"엄청":12890,"표현":12891,"나왔":12892,"##근혜":12893,"추가":12894,"##문♬에":12895,"##이는":12896,"예상":12897,"##린다":12898,"규모":12899,"스타":12900,"##♬형":12901,"운동":12902,"쓰레기":12903,"##만원":12904,"있다고":12905,"장관":12906,"사람♬들":12907,"그♬의":12908,"영향":12909,"환경":12910,"아들":12911,"시대":12912,"없어":12913,"##그램":12914,"##의원":12915,"아니다":12916,"추진":12917,"##식♬을":12918,"빨리":12919,"교수":12920,"느낌":12921,"##자♬의":12922,"아버":12923,"대해서":12924,"요구":12925,"##이스":12926,"##려는":12927,"앞♬으로":12928,"##시다":12929,"##가서":12930,"드러":12931,"한다는":12932,"포함":12933,"##치는":12934,"말♬이":12935,"##와대":12936,"##화♬를":12937,"만든":12938,"알아":12939,"같다":12940,"##나요":12941,"♬권":12942,"다며":12943,"##♬여":12944,"##들어":12945,"중심":12946,"기본":12947,"17":12948,"결혼":12949,"##♬성♬이":12950,"입장":12951,"##야지":12952,"문재앙":12953,"##주세요":12954,"청와대":12955,"##아요":12956,"##었는데":12957,"구성":12958,"노력":12959,"등♬을":12960,"감사":12961,"##됐다":12962,"역할":12963,"##릭터":12964,"##한다고":12965,"도시":12966,"##했는데":12967,"유지":12968,"때문이다":12969,"마련":12970,"전쟁":12971,"좌파":12972,"장면":12973,"지방":12974,"##시켜":12975,"발전":12976,"##하던":12977,"##스로":12978,"나♬도":12979,"되어":12980,"##라마":12981,"##와서":12982,"말고":12983,"##스럽":12984,"##하겠":12985,"##스터":12986,"부산":12987,"건강":12988,"정의":12989,"##인♬의":12990,"박근혜":12991,"소비":12992,"##아니":12993,"##도♬를":12994,"##정♬이":12995,"지적":12996,"보인다":12997,"##이란":12998,"##♬요":12999,"##위원":13000,"##히려":13001,"분석":13002,"자동":13003,"판단":13004,"넘어":13005,"##는건":13006,"상당":13007,"해당":13008,"##이네":13009,"절대":13010,"확대":13011,"##하지만":13012,"우리♬가":13013,"고객":13014,"##리스":13015,"오히려":13016,"업체":13017,"자연":13018,"그게":13019,"공부":13020,"40":13021,"보수":13022,"오후":13023,"경험":13024,"##도♬가":13025,"안전":13026,"##자리":13027,"매우":13028,"##하냐":13029,"캐릭터":13030,"경영":13031,"범죄":13032,"만큼":13033,"기존":13034,"##했고":13035,"비교":13036,"사라":13037,"##♬성♬을":13038,"##더라":13039,"##시고":13040,"##음♬을":13041,"##이지만":13042,"도움":13043,"비판":13044,"전망":13045,"##이라도":13046,"솔직":13047,"비슷":13048,"없고":13049,"강화":13050,"스스로":13051,"##었던":13052,"거짓":13053,"##이버":13054,"시즌":13055,"##가고":13056,"기회":13057,"다르":13058,"##사♬는":13059,"수♬도":13060,"강조":13061,"##수♬를":13062,"♬자":13063,"##스♬를":13064,"사람♬은":13065,"바이":13066,"##스템":13067,"그대로":13068,"기관":13069,"##파트":13070,"##이니":13071,"##어난":13072,"##치♬를":13073,"스토리":13074,"##명♬이":13075,"##디어":13076,"##♬께":13077,"##♬질":13078,"인물":13079,"제작":13080,"##원♬을":13081,"안되":13082,"##인♬은":13083,"##지않":13084,"상승":13085,"특별":13086,"주변":13087,"밝혔다":13088,"아직♬도":13089,"이루":13090,"하는데":13091,"##이♬를":13092,"거래":13093,"원래":13094,"공동":13095,"대비":13096,"##한다는":13097,"활용":13098,"##영화":13099,"미친":13100,"구조":13101,"대신":13102,"연기":13103,"능력":13104,"##므로":13105,"자한":13106,"빨갱":13107,"##♬대로":13108,"##가리":13109,"##되었다":13110,"프로그램":13111,"다만":13112,"되고":13113,"분명":13114,"행복":13115,"위험":13116,"##인♬을":13117,"순간":13118,"##드는":13119,"##르는":13120,"제일":13121,"##자기":13122,"OOO":13123,"그때":13124,"시키":13125,"치료":13126,"##점♬을":13127,"라며":13128,"##시♬에":13129,"##위♬를":13130,"인생":13131,"21":13132,"은행":13133,"이♬를":13134,"조직":13135,"기간":13136,"김정":13137,"지속":13138,"##텐데":13139,"##♬야":13140,"부족":13141,"아무리":13142,"제♬가":13143,"##스♬가":13144,"24":13145,"##♬로서":13146,"##으면서":13147,"##보니":13148,"변화":13149,"바람":13150,"전혀":13151,"전부":13152,"##이기":13153,"##했다고":13154,"이♬에":13155,"##거지":13156,"다니":13157,"방식":13158,"##이♬는":13159,"##♬에선":13160,"병원":13161,"모습♬을":13162,"상품":13163,"되었다":13164,"저렇게":13165,"도록":13166,"항상":13167,"혼자":13168,"적용":13169,"인사":13170,"집중":13171,"비롯":13172,"##하니":13173,"##무원":13174,"가진":13175,"##라인":13176,"##번♬째":13177,"않는다":13178,"마스크":13179,"##마트":13180,"##명♬을":13181,"회장":13182,"##르고":13183,"##정한":13184,"주민":13185,"##있다":13186,"일단":13187,"출연":13188,"분야":13189,"전략":13190,"내년":13191,"아니면":13192,"충분":13193,"않았다":13194,"지켜":13195,"네이버":13196,"걱정":13197,"♬이나":13198,"확실":13199,"##♬계":13200,"##한데":13201,"개선":13202,"는데":13203,"##겠지만":13204,"##동산":13205,"뭔가":13206,"##었고":13207,"##스타":13208,"같은데":13209,"의견":13210,"♬처럼":13211,"##수록":13212,"대체":13213,"##자♬들":13214,"##리♬는":13215,"공산":13216,"##♬뿐":13217,"##은행":13218,"또는":13219,"높은":13220,"중앙":13221,"분위":13222,"##BS":13223,"더불":13224,"건설":13225,"##되면":13226,"적극":13227,"일♬이":13228,"보호":13229,"아마":13230,"솔직히":13231,"##기고":13232,"199":13233,"받고":13234,"나가":13235,"문제♬가":13236,"이러한":13237,"주요":13238,"고려":13239,"목표":13240,"달러":13241,"검사":13242,"크게":13243,"있지만":13244,"아님":13245,"열린":13246,"나오는":13247,"직원":13248,"우선":13249,"어렵":13250,"그걸":13251,"달리":13252,"##제♬를":13253,"##려면":13254,"##겠네":13255,"행사":13256,"노래":13257,"##건가":13258,"##때문♬에":13259,"신천":13260,"있던":13261,"궁금":13262,"##스♬는":13263,"22":13264,"일♬을":13265,"느끼":13266,"23":13267,"시스템":13268,"♬여":13269,"##을때":13270,"##감♬을":13271,"나서":13272,"##♬이다":13273,"드라마":13274,"그동안":13275,"인해":13276,"##더라도":13277,"있어서":13278,"수출":13279,"##되지":13280,"##라면":13281,"여행":13282,"중요한":13283,"##이터":13284,"아파트":13285,"가치":13286,"가까":13287,"매출":13288,"니♬가":13289,"의료":13290,"부동산":13291,"친일":13292,"##심히":13293,"음악":13294,"계약":13295,"##아야":13296,"다양한":13297,"##지지":13298,"##시장":13299,"실제로":13300,"가져":13301,"신경":13302,"수익":13303,"##먹고":13304,"##해주":13305,"보니":13306,"인터넷":13307,"정도♬로":13308,"##하다고":13309,"단체":13310,"자신♬이":13311,"여기♬서":13312,"자식":13313,"##기는":13314,"현장":13315,"##려서":13316,"다가":13317,"##요일":13318,"기분":13319,"관계자":13320,"출신":13321,"못하고":13322,"대회":13323,"등♬의":13324,"업무":13325,"그룹":13326,"갑자기":13327,"##하는게":13328,"조작":13329,"바라":13330,"사과":13331,"안보":13332,"##운동":13333,"각각":13334,"여론":13335,"##♬용":13336,"전♬에":13337,"움직":13338,"앞서":13339,"##에요":13340,"오래":13341,"##사♬의":13342,"유럽":13343,"없었다":13344,"차지":13345,"하면서":13346,"선동":13347,"영업":13348,"우리♬는":13349,"세월":13350,"##스♬의":13351,"생각♬이":13352,"##대♬를":13353,"##리면":13354,"방문":13355,"부담":13356,"기능":13357,"##지마":13358,"나라♬가":13359,"##해요":13360,"##건데":13361,"어쩌":13362,"##사업":13363,"습니다":13364,"##드시":13365,"가슴":13366,"설치":13367,"이전":13368,"발견":13369,"부정":13370,"##대한":13371,"##성♬을":13372,"##조건":13373,"저♬는":13374,"##사회":13375,"##났다":13376,"##간다":13377,"사망":13378,"##물♬을":13379,"대단":13380,"빨갱이":13381,"아닐":13382,"따라서":13383,"주식":13384,"##돼지":13385,"##성♬이":13386,"##으니까":13387,"나이":13388,"♬밖에":13389,"확보":13390,"자동차":13391,"들어가":13392,"##교육":13393,"##새끼":13394,"##상♬이":13395,"시절":13396,"##♬률":13397,"모르는":13398,"어머니":13399,"##내고":13400,"외교":13401,"회의":13402,"지도":13403,"총선":13404,"주택":13405,"언급":13406,"##봐라":13407,"열심히":13408,"먹고":13409,"최소":13410,"광고":13411,"##하였다":13412,"사람♬들♬은":13413,"새끼":13414,"##자인":13415,"공감":13416,"나와":13417,"##른다":13418,"통합":13419,"공급":13420,"##구요":13421,"아버지":13422,"우려":13423,"않을":13424,"불법":13425,"대응":13426,"보험":13427,"정확":13428,"##오는":13429,"전문가":13430,"LG":13431,"##던데":13432,"못하는":13433,"##군요":13434,"집단":13435,"선생":13436,"##하라":13437,"##억원":13438,"비해":13439,"인천":13440,"##정권":13441,"##♬생":13442,"##보는":13443,"국민♬들":13444,"안정":13445,"##구만":13446,"남편":13447,"##거다":13448,"##거든":13449,"떠나":13450,"끝나":13451,"있지":13452,"처리":13453,"##전자":13454,"##대표":13455,"영국":13456,"하다":13457,"지구":13458,"##러스":13459,"##냐고":13460,"가는":13461,"광주":13462,"##8년":13463,"싶은":13464,"시험":13465,"##수♬도":13466,"글로":13467,"공무원":13468,"목적":13469,"유명":13470,"밝혀":13471,"알았":13472,"보도":13473,"구속":13474,"작업":13475,"##만♬에":13476,"입니다":13477,"여러분":13478,"##시는":13479,"거기":13480,"국회의원":13481,"자금":13482,"사는":13483,"바뀌":13484,"오전":13485,"##♬보다♬는":13486,"##이션":13487,"##자♬들♬이":13488,"나올":13489,"##조차":13490,"무시":13491,"##리즈":13492,"본인":13493,"단순":13494,"##학생":13495,"뭐♬가":13496,"안타":13497,"가서":13498,"카드":13499,"정당":13500,"반응":13501,"전화":13502,"영화♬를":13503,"##대체":13504,"대책":13505,"갖고":13506,"26":13507,"##생각":13508,"참석":13509,"개혁":13510,"27":13511,"##명♬의":13512,"탄핵":13513,"##자♬로":13514,"여전":13515,"##이상":13516,"이익":13517,"과학":13518,"##국민":13519,"##어진":13520,"##전♬을":13521,"글로벌":13522,"##수♬는":13523,"했는데":13524,"시청":13525,"##의♬를":13526,"나쁜":13527,"평균":13528,"아베":13529,"##난다":13530,"사기":13531,"의사":13532,"지키":13533,"라이":13534,"괜찮":13535,"고민":13536,"영상":13537,"##이라면":13538,"시설":13539,"##5년":13540,"무서":13541,"##간♬에":13542,"##까요":13543,"보기":13544,"##너지":13545,"불가":13546,"이뤄":13547,"##7년":13548,"처벌":13549,"위치":13550,"SK":13551,"##9년":13552,"##이자":13553,"##거야":13554,"이♬는":13555,"희망":13556,"달라":13557,"반면":13558,"강력":13559,"아래":13560,"##트♬를":13561,"되었":13562,"##이어":13563,"##없다":13564,"선정":13565,"제도":13566,"28":13567,"♬당":13568,"##했지만":13569,"제외":13570,"이동":13571,"뉴스":13572,"실시":13573,"따른":13574,"##♬끼":13575,"도대체":13576,"신고":13577,"관광":13578,"반드시":13579,"공식":13580,"##문♬을":13581,"있으며":13582,"##왔다":13583,"주는":13584,"훨씬":13585,"##세계":13586,"브랜드":13587,"군대":13588,"##선♬을":13589,"장기":13590,"받은":13591,"##제♬가":13592,"의해":13593,"소설":13594,"싸우":13595,"어찌":13596,"60":13597,"진심":13598,"♬상":13599,"제시":13600,"있으면":13601,"신천지":13602,"거리":13603,"잡아":13604,"최초":13605,"##♬님♬이":13606,"프랑":13607,"##갔다":13608,"##지면":13609,"소재":13610,"아는":13611,"무조건":13612,"##당♬이":13613,"투표":13614,"도입":13615,"되면":13616,"♬뿐":13617,"젊은":13618,"아빠":13619,"소속":13620,"말씀":13621,"권력":13622,"##♬으로서":13623,"평화":13624,"하여":13625,"좋아요":13626,"하늘":13627,"##생활":13628,"##BC":13629,"수♬가":13630,"##내는":13631,"##듯이":13632,"독일":13633,"성격":13634,"따르면":13635,"핵심":13636,"##겠다고":13637,"TV":13638,"##워서":13639,"남성":13640,"공간":13641,"유치":13642,"##라서":13643,"생각♬을":13644,"##6년":13645,"##럼프":13646,"중소":13647,"인식":13648,"시행":13649,"청소":13650,"##준다":13651,"등♬이":13652,"##하다는":13653,"롯데":13654,"사람♬을":13655,"해라":13656,"##지게":13657,"많다":13658,"사태":13659,"♬이라고":13660,"생각해":13661,"아프":13662,"만약":13663,"각종":13664,"아름":13665,"스포":13666,"감염":13667,"오른":13668,"스마트":13669,"마치":13670,"종교":13671,"##받고":13672,"불안":13673,"##했을":13674,"나중♬에":13675,"자세":13676,"보유":13677,"일어나":13678,"소개":13679,"##일♬이":13680,"니♬들":13681,"자주":13682,"너희":13683,"##지역":13684,"##단체":13685,"##점♬이":13686,"가정":13687,"심각":13688,"통신":13689,"느껴":13690,"##원♬은":13691,"비용":13692,"그거":13693,"그♬가":13694,"##개월":13695,"##지♬에":13696,"예산":13697,"모델":13698,"인상":13699,"논란":13700,"##이크":13701,"아니냐":13702,"##겠습니다":13703,"이젠":13704,"증거":13705,"##위♬에":13706,"사장":13707,"##♬쯤":13708,"##관계":13709,"있게":13710,"내부":13711,"##수있":13712,"##인트":13713,"진실":13714,"협력":13715,"수입":13716,"어려운":13717,"되지":13718,"보통":13719,"##겠다는":13720,"빠져":13721,"독립":13722,"점점":13723,"센터":13724,"싶다":13725,"트럼프":13726,"방향":13727,"연결":13728,"##어버":13729,"장애":13730,"돈♬을":13731,"음식":13732,"최종":13733,"##시민":13734,"선보":13735,"안나":13736,"##림픽":13737,"##인♬들":13738,"변호":13739,"자료":13740,"##♬으로써":13741,"작은":13742,"##♬율":13743,"불구":13744,"증권":13745,"회복":13746,"맞는":13747,"인권":13748,"주제":13749,"쉽게":13750,"사무":13751,"##대♬에":13752,"거짓말":13753,"공연":13754,"감정":13755,"애♬들":13756,"감소":13757,"당연히":13758,"##레스":13759,"전투":13760,"두고":13761,"##금♬을":13762,"없을":13763,"실패":13764,"고통":13765,"담당":13766,"##잖아요":13767,"대화":13768,"나라♬를":13769,"형태":13770,"올려":13771,"누군":13772,"그려":13773,"##어들":13774,"승리":13775,"202":13776,"29":13777,"여전히":13778,"##영♬이":13779,"다♬들":13780,"신청":13781,"##대♬가":13782,"대선":13783,"이래":13784,"행정":13785,"미리":13786,"제목":13787,"전자":13788,"##하거나":13789,"한심":13790,"♬님":13791,"##일♬을":13792,"출시":13793,"청년":13794,"국민♬의":13795,"방안":13796,"##임♬을":13797,"##가♬를":13798,"##운드":13799,"##할때":13800,"개념":13801,"도와":13802,"주고":13803,"단계":13804,"지금♬까지":13805,"김정은":13806,"대출":13807,"무능":13808,"감동":13809,"##냈다":13810,"마을":13811,"♬형":13812,"##물♬이":13813,"추천":13814,"때♬는":13815,"시켜":13816,"아내":13817,"##디오":13818,"위원회":13819,"##머리":13820,"##되었":13821,"##여서":13822,"##4년":13823,"공공":13824,"##2년":13825,"더불어":13826,"들고":13827,"사례":13828,"업계":13829,"있도록":13830,"본격":13831,"니♬들♬이":13832,"플레이":13833,"자본":13834,"불러":13835,"##프로":13836,"개돼지":13837,"러시아":13838,"의혹":13839,"##♬로♬는":13840,"##♬하고":13841,"마찬":13842,"않아":13843,"진출":13844,"관한":13845,"오는":13846,"1년":13847,"주목":13848,"정부♬가":13849,"국정":13850,"##♬으로♬는":13851,"##이드":13852,"노조":13853,"말하는":13854,"스트":13855,"##수♬의":13856,"포기":13857,"제기":13858,"##조사":13859,"소득":13860,"국민♬이":13861,"자꾸":13862,"힘♬을":13863,"모양":13864,"배댓":13865,"있기":13866,"나온다":13867,"재판":13868,"그럴":13869,"좋다":13870,"조정":13871,"타이":13872,"좌빨":13873,"일으":13874,"싫어":13875,"가짜":13876,"전개":13877,"수도":13878,"##위원회":13879,"당장":13880,"이기":13881,"강남":13882,"합의":13883,"지급":13884,"##서♬를":13885,"차량":13886,"##작가":13887,"위기":13888,"발언":13889,"##♬들♬에":13890,"수요":13891,"교회":13892,"그나":13893,"70":13894,"개최":13895,"지금♬은":13896,"관계자♬는":13897,"자체♬가":13898,"이끌":13899,"아침":13900,"##♬로부터":13901,"전환":13902,"나타나":13903,"참가":13904,"하기":13905,"못하":13906,"##경제":13907,"전기":13908,"##했다는":13909,"제주":13910,"사실♬을":13911,"##그룹":13912,"##일보":13913,"살인":13914,"##♬별":13915,"없었":13916,"마찬가지":13917,"혐의":13918,"인도":13919,"조용":13920,"응원":13921,"국민♬을":13922,"바꾸":13923,"국민♬들♬이":13924,"##대♬의":13925,"고용":13926,"조성":13927,"교통":13928,"대형":13929,"불쌍":13930,"##3년":13931,"좋아하는":13932,"외국인":13933,"##두고":13934,"저거":13935,"코스":13936,"촬영":13937,"필요한":13938,"하락":13939,"##깨문":13940,"자산":13941,"##♬과♬의":13942,"31":13943,"##센터":13944,"##부♬는":13945,"공정":13946,"상관":13947,"파악":13948,"##시면":13949,"시리즈":13950,"받아들":13951,"##져서":13952,"##기관":13953,"##든지":13954,"시간♬이":13955,"오랜":13956,"만드는":13957,"이야기♬를":13958,"##체♬가":13959,"##마디":13960,"유일":13961,"부탁":13962,"매일":13963,"##움♬을":13964,"##등학교":13965,"##세♬를":13966,"조건":13967,"자격":13968,"아시아":13969,"##하였":13970,"전달":13971,"프리":13972,"##라리":13973,"기획":13974,"##부♬가":13975,"##건지":13976,"예술":13977,"기반":13978,"할머니":13979,"##민주":13980,"##♬와♬의":13981,"연출":13982,"온라인":13983,"이유♬가":13984,"힘든":13985,"환자":13986,"##부♬를":13987,"지하":13988,"초반":13989,"민족":13990,"유리":13991,"혹은":13992,"##장♬에서":13993,"##♬꾼":13994,"##도♬로":13995,"확진":13996,"##심♬을":13997,"진보":13998,"인기":13999,"평생":14000,"##장♬에":14001,"##스코":14002,"##원♬의":14003,"독재":14004,"##고있":14005,"대중":14006,"##식♬이":14007,"##식♬으로":14008,"##는거지":14009,"##란다":14010,"##리기":14011,"##하세요":14012,"재앙":14013,"받는":14014,"우승":14015,"##어라":14016,"충분히":14017,"것이라고":14018,"논의":14019,"동생":14020,"불과":14021,"##♬조차":14022,"자랑":14023,"##산업":14024,"아예":14025,"이사":14026,"##다운":14027,"그러면":14028,"성과":14029,"펀드":14030,"법무":14031,"참고":14032,"제한":14033,"##반기":14034,"##♬들♬만":14035,"그저":14036,"##뉴스":14037,"동시♬에":14038,"종합":14039,"##함♬을":14040,"##르게":14041,"대통령♬이":14042,"하며":14043,"연합":14044,"영어":14045,"♬별":14046,"##리♬에":14047,"##것♬이":14048,"없다는":14049,"경우♬가":14050,"이걸":14051,"구축":14052,"동물":14053,"##만한":14054,"차이":14055,"##지어":14056,"##아버":14057,"이라":14058,"##하기♬도":14059,"받을":14060,"하자":14061,"세월호":14062,"##♬라고":14063,"으며":14064,"분량":14065,"인수":14066,"했던":14067,"##소♬를":14068,"성적":14069,"전통":14070,"가입":14071,"이때":14072,"실적":14073,"쓰는":14074,"조치":14075,"##기♬의":14076,"##리♬의":14077,"어디♬서":14078,"받았":14079,"##분♬에":14080,"거나":14081,"말♬도":14082,"##1년":14083,"훈련":14084,"##시킨":14085,"##많은":14086,"관객":14087,"재산":14088,"##감♬이":14089,"보여주":14090,"저♬도":14091,"완전히":14092,"해석":14093,"##가♬가":14094,"좋겠다":14095,"지난달":14096,"나머":14097,"이유♬는":14098,"500":14099,"행위":14100,"##봐야":14101,"비난":14102,"##느냐":14103,"단지":14104,"없다고":14105,"안되는":14106,"##습니까":14107,"##♬이♬가":14108,"건물":14109,"그랬":14110,"생각하는":14111,"취업":14112,"##스러운":14113,"##던가":14114,"베뎃":14115,"됐다":14116,"배경":14117,"요청":14118,"구매":14119,"됩니다":14120,"별로":14121,"##장♬의":14122,"주로":14123,"198":14124,"최저":14125,"해주":14126,"##우고":14127,"금지":14128,"대깨문":14129,"##해보":14130,"반영":14131,"##개♬를":14132,"2년":14133,"가르":14134,"서민":14135,"약간":14136,"신문":14137,"입국":14138,"##♬만큼":14139,"자살":14140,"♬마":14141,"♬률":14142,"시도":14143,"자신♬을":14144,"철저":14145,"끌어":14146,"##것같":14147,"##아가":14148,"생긴":14149,"##였던":14150,"복지":14151,"##비♬를":14152,"개정":14153,"검토":14154,"화장":14155,"설립":14156,"특징":14157,"##시키는":14158,"과연":14159,"프랑스":14160,"수상":14161,"있었던":14162,"설정":14163,"##들고":14164,"##인거":14165,"굉장":14166,"돌아가":14167,"황교":14168,"일자리":14169,"구체":14170,"##회사":14171,"##대♬로":14172,"대변":14173,"차례":14174,"강제":14175,"##지말고":14176,"약속":14177,"##어지":14178,"##장관":14179,"않다":14180,"##이든":14181,"목소리":14182,"이명":14183,"봐도":14184,"남아":14185,"규제":14186,"연속":14187,"상당히":14188,"##가락":14189,"차별":14190,"##구♬가":14191,"어린이":14192,"##무리":14193,"##씨♬는":14194,"##리오":14195,"신뢰":14196,"##일♬에":14197,"80":14198,"집♬에":14199,"보이는":14200,"선발":14201,"##겠냐":14202,"남북":14203,"강한":14204,"일정":14205,"혁신":14206,"그건":14207,"생명":14208,"애초":14209,"혹시":14210,"장난":14211,"인지":14212,"##자♬들♬은":14213,"가만":14214,"##♬적이고":14215,"부문":14216,"홍보":14217,"##한게":14218,"##서♬는":14219,"불편":14220,"##당♬은":14221,"지♬들":14222,"토착":14223,"달려":14224,"##이죠":14225,"##웹툰":14226,"##롭게":14227,"상처":14228,"##♬끼리":14229,"생겼":14230,"정리":14231,"##시키고":14232,"속♬에서":14233,"나무":14234,"민간":14235,"##문화":14236,"쓰고":14237,"하는거":14238,"##스럽게":14239,"귀여":14240,"모르고":14241,"갈등":14242,"##차피":14243,"하게":14244,"끝♬까지":14245,"마음♬을":14246,"차라리":14247,"있으니":14248,"##한다면":14249,"피해자":14250,"멤버":14251,"근무":14252,"의심":14253,"부르":14254,"하이":14255,"##드♬를":14256,"평소":14257,"올리":14258,"통일":14259,"보다":14260,"전라도":14261,"덧붙":14262,"오빠":14263,"사상":14264,"상상":14265,"##예요":14266,"##구♬를":14267,"##나게":14268,"##겁니다":14269,"노무":14270,"##랐다":14271,"##체♬를":14272,"죽은":14273,"역할♬을":14274,"올림픽":14275,"##♬론":14276,"##♬과♬는":14277,"싸움":14278,"소비자":14279,"##가요":14280,"미사":14281,"번♬째":14282,"통과":14283,"적♬이":14284,"작년":14285,"##페이지":14286,"##려야":14287,"내놓":14288,"눈♬에":14289,"알바":14290,"어차피":14291,"없애":14292,"목숨":14293,"저희":14294,"위원장":14295,"수행":14296,"직업":14297,"벌써":14298,"위♬에":14299,"거지":14300,"공장":14301,"##놈♬들":14302,"인터뷰":14303,"도로":14304,"눈치":14305,"분위기":14306,"연예":14307,"##원♬에":14308,"대사":14309,"##주♬가":14310,"아무♬도":14311,"는다":14312,"재미있":14313,"연재":14314,"지지율":14315,"군사":14316,"것♬처럼":14317,"##계♬를":14318,"##같은데":14319,"##투자":14320,"가능♬성♬이":14321,"애니":14322,"역대":14323,"듣고":14324,"물어":14325,"있음":14326,"아닙":14327,"영화♬는":14328,"##가지고":14329,"있어야":14330,"분노":14331,"한마디":14332,"사람♬의":14333,"최고♬의":14334,"##♬에서♬의":14335,"희생":14336,"규정":14337,"항공":14338,"그린":14339,"3년":14340,"##프트":14341,"##싶다":14342,"##인줄":14343,"##대통령":14344,"##하려고":14345,"살고":14346,"##er":14347,"##아라":14348,"미세":14349,"##위♬가":14350,"이르":14351,"놓고":14352,"##도♬는":14353,"이해♬가":14354,"##국가":14355,"♬계":14356,"##인♬들♬이":14357,"자기♬가":14358,"##먹는":14359,"타고":14360,"##개발":14361,"거부":14362,"확산":14363,"비중":14364,"국방":14365,"굉장히":14366,"##쳤다":14367,"본다":14368,"중소기업":14369,"문제♬는":14370,"제안":14371,"##♬만♬이":14372,"##♬에♬만":14373,"300":14374,"##♬다":14375,"죽음":14376,"모습♬이":14377,"많아":14378,"충격":14379,"어쩔":14380,"##지원":14381,"##분♬이":14382,"심지어":14383,"무기":14384,"알게":14385,"♬째":14386,"확정":14387,"근거":14388,"자한♬당":14389,"##하려":14390,"일상":14391,"우주":14392,"##♬에게♬는":14393,"##드립":14394,"##지♬로":14395,"전해":14396,"##것♬을":14397,"##비♬가":14398,"공사":14399,"##이♬의":14400,"지배":14401,"고양":14402,"중♬에":14403,"##어♬를":14404,"그러니까":14405,"##바로":14406,"##50":14407,"여름":14408,"못할":14409,"이명박":14410,"비슷한":14411,"다행":14412,"엄청난":14413,"그림체":14414,"이라는":14415,"늘어":14416,"##사고":14417,"니♬네":14418,"민주주의":14419,"##할수":14420,"##신♬이":14421,"똑같":14422,"##정책":14423,"기념":14424,"어서":14425,"이재":14426,"##나는":14427,"적폐":14428,"10년":14429,"##랍니다":14430,"마이":14431,"질문":14432,"##리게":14433,"아쉬":14434,"##당한":14435,"##도♬의":14436,"영향♬을":14437,"고생":14438,"중간":14439,"시점":14440,"##국♬의":14441,"촛불":14442,"게다가":14443,"4월":14444,"부끄":14445,"공포":14446,"포인트":14447,"##셔서":14448,"나♬만":14449,"예전":14450,"##관리":14451,"근로":14452,"그나마":14453,"생기":14454,"보면서":14455,"분양":14456,"향후":14457,"말♬은":14458,"자녀":14459,"##봐도":14460,"앞♬에":14461,"♬서":14462,"혜택":14463,"우리♬의":14464,"것입니다":14465,"이곳":14466,"있다면":14467,"신규":14468,"특수":14469,"맨날":14470,"졸업":14471,"오르":14472,"임명":14473,"후반":14474,"스포츠":14475,"통한":14476,"에너지":14477,"청소년":14478,"없어서":14479,"비율":14480,"##리카":14481,"완벽":14482,"야당":14483,"제조":14484,"전시":14485,"만족":14486,"바꿔":14487,"새로":14488,"동일":14489,"##개혁":14490,"이제♬는":14491,"저지":14492,"##법♬을":14493,"당선":14494,"수♬밖에":14495,"##보기":14496,"눈물":14497,"뛰어":14498,"못했":14499,"옛날":14500,"된다고":14501,"나누":14502,"방침":14503,"♬용":14504,"마음♬이":14505,"액션":14506,"물건":14507,"등록":14508,"지식":14509,"##기술":14510,"정부♬는":14511,"##나오":14512,"♬두":14513,"안♬에":14514,"속♬에":14515,"등♬에":14516,"##위♬로":14517,"직장":14518,"완성":14519,"##아닌":14520,"노무현":14521,"주도":14522,"##은거":14523,"바탕":14524,"가득":14525,"신용":14526,"##시지":14527,"독자":14528,"판결":14529,"바보":14530,"우수":14531,"##져야":14532,"##자고":14533,"없는데":14534,"레이":14535,"##하다가":14536,"##세대":14537,"중단":14538,"돌려":14539,"있나":14540,"##심♬이":14541,"진정":14542,"##원♬에서":14543,"1000":14544,"임금":14545,"했지만":14546,"##씨♬가":14547,"##우스":14548,"축구":14549,"전반":14550,"난리":14551,"연애":14552,"특정":14553,"겁니다":14554,"보장":14555,"데이터":14556,"유통":14557,"슈퍼":14558,"표정":14559,"무섭":14560,"아닌데":14561,"겨울":14562,"##시대":14563,"경기도":14564,"##텐츠":14565,"##것♬들":14566,"저러":14567,"기초":14568,"시기":14569,"돼지":14570,"맞춰":14571,"가면":14572,"##하신":14573,"접근":14574,"##문제":14575,"불구하고":14576,"문제♬를":14577,"##해야지":14578,"논리":14579,"몰아":14580,"예정이다":14581,"잠시":14582,"##다른":14583,"따로":14584,"있어요":14585,"같아요":14586,"##것이다":14587,"나머지":14588,"월드":14589,"선물":14590,"##우는":14591,"분기":14592,"##활동":14593,"마무리":14594,"##가면":14595,"##거운":14596,"형성":14597,"거쳐":14598,"벌어":14599,"존나":14600,"리그":14601,"##선거":14602,"밝히":14603,"윤석":14604,"##기♬만":14605,"현지":14606,"공주":14607,"##행♬을":14608,"##진♬이":14609,"##았는데":14610,"매력":14611,"시간♬을":14612,"앞♬에서":14613,"수술":14614,"조합":14615,"##업체":14616,"##퓨터":14617,"##았던":14618,"##하라고":14619,"90":14620,"##받는":14621,"인구":14622,"바다":14623,"##♬제":14624,"협상":14625,"3월":14626,"소유":14627,"모자":14628,"굳이":14629,"봐야":14630,"기부":14631,"재정":14632,"##시설":14633,"이루어":14634,"##것♬은":14635,"내일":14636,"영화♬가":14637,"##가족":14638,"##사♬에":14639,"멍청":14640,"##해진":14641,"위안":14642,"##환경":14643,"##겠죠":14644,"##수♬로":14645,"##회♬를":14646,"나♬의":14647,"##신♬을":14648,"활성":14649,"제출":14650,"인한":14651,"나경":14652,"##연구":14653,"##인간":14654,"##지♬의":14655,"##됩니다":14656,"##스러":14657,"반복":14658,"##석♬이":14659,"변경":14660,"세대":14661,"것♬에":14662,"현상":14663,"디지":14664,"##드♬가":14665,"##이기♬도":14666,"인간♬이":14667,"뒤♬에":14668,"대전":14669,"비밀":14670,"노인":14671,"개봉":14672,"달창":14673,"시각":14674,"##10":14675,"만들고":14676,"있네":14677,"똑같은":14678,"일베":14679,"##는거야":14680,"6월":14681,"##치♬가":14682,"지정":14683,"##0년대":14684,"위협":14685,"##걸로":14686,"♬제":14687,"체험":14688,"KBS":14689,"##려라":14690,"원칙":14691,"##가♬는":14692,"결론":14693,"##증권":14694,"답답":14695,"도전":14696,"일제":14697,"협의":14698,"살펴":14699,"미안":14700,"##사♬로":14701,"개월":14702,"##온다":14703,"##트♬가":14704,"이상한":14705,"원인":14706,"으면":14707,"않으면":14708,"##케팅":14709,"그것♬도":14710,"5월":14711,"사전":14712,"그러니":14713,"월급":14714,"##분♬들":14715,"동네":14716,"임대":14717,"##마라":14718,"된다는":14719,"##보자":14720,"악플":14721,"지분":14722,"사법":14723,"일본♬이":14724,"나♬를":14725,"둘러":14726,"대박":14727,"##방송":14728,"믿고":14729,"일어":14730,"##♬권♬을":14731,"가능한":14732,"집안":14733,"호텔":14734,"디자인":14735,"##니스":14736,"베트":14737,"##거같":14738,"서울시":14739,"꾸준":14740,"저기":14741,"어른":14742,"만드":14743,"무대":14744,"그♬들♬의":14745,"반성":14746,"프로젝":14747,"가구":14748,"##거든요":14749,"손♬을":14750,"황교안":14751,"선언":14752,"##리어":14753,"##이익":14754,"달성":14755,"##하려는":14756,"수♬는":14757,"##도♬에":14758,"폭력":14759,"안하고":14760,"토론":14761,"##했습니다":14762,"애초♬에":14763,"선진":14764,"대기업":14765,"그♬를":14766,"박정":14767,"경북":14768,"와서":14769,"##없고":14770,"##♬께서":14771,"하시":14772,"##개♬의":14773,"의식":14774,"삼성전자":14775,"투입":14776,"관심♬을":14777,"컴퓨터":14778,"##왜구":14779,"정주":14780,"##♬만♬으로":14781,"♬생":14782,"초기":14783,"##리그":14784,"미세먼":14785,"계열":14786,"창업":14787,"##♬와♬는":14788,"시작했다":14789,"이름♬을":14790,"골프":14791,"##주♬를":14792,"인간♬의":14793,"금리":14794,"##부♬의":14795,"##단♬을":14796,"##일까":14797,"못했다":14798,"총리":14799,"사회♬적":14800,"##느라":14801,"##줘야":14802,"##약♬을":14803,"지랄":14804,"하나님":14805,"태양":14806,"##만화":14807,"##지요":14808,"마라":14809,"돈♬이":14810,"버스":14811,"파괴":14812,"눈♬을":14813,"일♬은":14814,"##아지":14815,"보였":14816,"진정한":14817,"9월":14818,"##20":14819,"##국♬에":14820,"짜증":14821,"나름":14822,"##사건":14823,"##나서":14824,"보상":14825,"비행":14826,"측면":14827,"어울":14828,"##장♬으로":14829,"MBC":14830,"마법":14831,"10월":14832,"##♬인":14833,"세력":14834,"##도시":14835,"등♬으로":14836,"35":14837,"원하는":14838,"##국♬이":14839,"바이러스":14840,"아무것♬도":14841,"최악":14842,"예방":14843,"##♬들♬한테":14844,"공유":14845,"말해":14846,"12월":14847,"이미지":14848,"##메라":14849,"채용":14850,"구분":14851,"절차":14852,"##었다고":14853,"잘생":14854,"도망":14855,"불가능":14856,"늘어나":14857,"##♬같이":14858,"블랙":14859,"##거라":14860,"사퇴":14861,"요소":14862,"공수":14863,"되는데":14864,"7월":14865,"♬엔":14866,"만♬에":14867,"벗어나":14868,"##주♬의":14869,"드디어":14870,"##적♬이":14871,"심리":14872,"발행":14873,"상황♬에서":14874,"무역":14875,"서울대":14876,"미치":14877,"하네":14878,"##조선":14879,"받았다":14880,"베트남":14881,"##♬감":14882,"울산":14883,"싫어요":14884,"##짜리":14885,"수업":14886,"운용":14887,"##in":14888,"어제":14889,"무너":14890,"하나♬의":14891,"외모":14892,"##학년":14893,"운전":14894,"##는가":14895,"취급":14896,"대우":14897,"못해":14898,"##시켰":14899,"택시":14900,"다소":14901,"보였다":14902,"맞아":14903,"조심":14904,"##아이":14905,"지♬가":14906,"##민♬이":14907,"중국인":14908,"크리스":14909,"그만큼":14910,"긴장":14911,"흔들":14912,"동료":14913,"##웠다":14914,"##마자":14915,"##래도":14916,"뭐냐":14917,"너무나":14918,"빠른":14919,"##말♬이":14920,"바닥":14921,"##이었던":14922,"온갖":14923,"여기♬에":14924,"스마트폰":14925,"한반":14926,"심판":14927,"의무":14928,"이벤":14929,"무리":14930,"한국인":14931,"같습니다":14932,"그렇지":14933,"없습니다":14934,"##이에요":14935,"하나♬도":14936,"없음":14937,"##부♬에":14938,"##하도록":14939,"귀엽":14940,"##명♬은":14941,"아나":14942,"있는지":14943,"말아":14944,"##있는데":14945,"스타일":14946,"##있고":14947,"리더":14948,"##♬으로부터":14949,"그것♬은":14950,"긍정":14951,"소녀":14952,"놀라":14953,"##보단":14954,"마케팅":14955,"8월":14956,"나섰":14957,"##이♬에":14958,"특성":14959,"너♬네":14960,"여자♬가":14961,"쿠키":14962,"향해":14963,"노동자":14964,"##위♬는":14965,"이♬와":14966,"동원":14967,"소통":14968,"##받은":14969,"아니라고":14970,"하니":14971,"문죄":14972,"회원":14973,"##30":14974,"그♬들♬은":14975,"주가":14976,"1월":14977,"거야":14978,"것♬과":14979,"왔다":14980,"##바일":14981,"##되면서":14982,"정작":14983,"미사일":14984,"##수준":14985,"이번♬에":14986,"변호사":14987,"##하니까":14988,"는지":14989,"##말로":14990,"방어":14991,"##이팅":14992,"KT":14993,"필요♬가":14994,"영웅":14995,"경남":14996,"확실히":14997,"효율":14998,"흐름":14999,"인제":15000,"똑같이":15001,"않을까":15002,"##주시":15003,"이하":15004,"그녀♬의":15005,"펼쳐":15006,"담배":15007,"휴대":15008,"페미":15009,"##친구":15010,"아닐까":15011,"##하셨":15012,"브라":15013,"단어":15014,"메이":15015,"풀어":15016,"전년":15017,"선생♬님":15018,"실험":15019,"출발":15020,"저녁":15021,"000":15022,"과정♬에서":15023,"##만큼":15024,"##관♬이":15025,"이성":15026,"대답":15027,"본부":15028,"금액":15029,"무식":15030,"##그러":15031,"극복":15032,"자원":15033,"##겠네요":15034,"데뷔":15035,"##주면":15036,"##경기":15037,"당신♬이":15038,"문재인♬이":15039,"손해":15040,"친일파":15041,"생각하고":15042,"준다":15043,"체계":15044,"라면":15045,"사회주의":15046,"부인":15047,"♬율":15048,"##사람♬이":15049,"##이네요":15050,"무료":15051,"##♬까지♬는":15052,"##세♬가":15053,"불리":15054,"##하네요":15055,"영역":15056,"스페":15057,"##시오":15058,"봤는데":15059,"같아":15060,"절반":15061,"##안♬을":15062,"남♬의":15063,"##♬보고":15064,"고소":15065,"##부모":15066,"아까":15067,"보니까":15068,"있었는데":15069,"소름":15070,"전했":15071,"내용♬이":15072,"그것♬을":15073,"이리":15074,"수많은":15075,"##선♬이":15076,"수십":15077,"##on":15078,"##달라고":15079,"물러":15080,"토착왜구":15081,"장소":15082,"남녀":15083,"내용♬을":15084,"덕분♬에":15085,"##간♬의":15086,"적절":15087,"모바일":15088,"헌법":15089,"가고":15090,"대상♬으로":15091,"죽을":15092,"디지털":15093,"악마":15094,"동의":15095,"사형":15096,"아냐":15097,"위반":15098,"이탈":15099,"##한국":15100,"높이":15101,"폭발":15102,"##인듯":15103,"몰랐":15104,"가까운":15105,"지금♬도":15106,"##규모":15107,"매년":15108,"위해서♬는":15109,"교사":15110,"집회":15111,"더러운":15112,"##라스":15113,"상황♬이":15114,"먹는":15115,"문학":15116,"몸♬을":15117,"다이":15118,"안된다":15119,"##나고":15120,"법무부":15121,"않게":15122,"집행":15123,"영원":15124,"두려":15125,"##력♬은":15126,"사람♬도":15127,"말♬로":15128,"그녀♬는":15129,"나선":15130,"언어":15131,"허용":15132,"##겼다":15133,"자극":15134,"##보네":15135,"##해지":15136,"197":15137,"따뜻":15138,"##이♬로":15139,"##미♬가":15140,"한국♬의":15141,"통화":15142,"깨끗":15143,"##니아":15144,"대가리":15145,"테러":15146,"##자♬와":15147,"원작":15148,"조용히":15149,"##우♬가":15150,"정치인":15151,"외부":15152,"전형":15153,"##전♬이":15154,"매각":15155,"이유♬로":15156,"##때♬는":15157,"유튜":15158,"실망":15159,"본인♬이":15160,"##자♬들♬의":15161,"양심":15162,"##독교":15163,"드립":15164,"가만히":15165,"미국♬의":15166,"너♬는":15167,"작용":15168,"잘못된":15169,"여당":15170,"도움♬이":15171,"##♬마저":15172,"##♬만♬을":15173,"보건":15174,"사실상":15175,"##자♬에":15176,"검색":15177,"대해서♬는":15178,"2월":15179,"2차":15180,"##문♬이":15181,"그것♬이":15182,"말♬에":15183,"##군♬이":15184,"##받아":15185,"인증":15186,"아름다운":15187,"영화♬의":15188,"2000":15189,"강원":15190,"가수":15191,"언니":15192,"##량♬이":15193,"인근":15194,"##스토":15195,"채권":15196,"##단♬이":15197,"싶어":15198,"일주":15199,"누리":15200,"예고":15201,"##림♬이":15202,"##었을":15203,"모아":15204,"처음♬으로":15205,"아닙니다":15206,"소송":15207,"웃음":15208,"##잡고":15209,"별점":15210,"연금":15211,"11월":15212,"높아":15213,"설명했다":15214,"##정보":15215,"##거래":15216,"수호":15217,"부여":15218,"연장":15219,"프레":15220,"하던":15221,"##이였":15222,"전용":15223,"방역":15224,"유니":15225,"##하러":15226,"인데":15227,"명예":15228,"홍콩":15229,"커피":15230,"##했으면":15231,"하는게":15232,"종목":15233,"비리":15234,"내리":15235,"통해서":15236,"건축":15237,"눈♬이":15238,"##면서♬도":15239,"사항":15240,"##기사":15241,"나눠":15242,"바랍니다":15243,"정부♬의":15244,"기여":15245,"놈♬들":15246,"일본♬의":15247,"일본♬은":15248,"사이♬에":15249,"##카드":15250,"들여":15251,"이럴":15252,"콘텐츠":15253,"프로젝트":15254,"체제":15255,"수용":15256,"##플레이":15257,"추정":15258,"도착":15259,"아동":15260,"구입":15261,"있을까":15262,"체결":15263,"총장":15264,"##화♬가":15265,"공수처":15266,"##겠어요":15267,"##관♬을":15268,"폐지":15269,"들어오":15270,"예♬를":15271,"주말":15272,"정규":15273,"인력":15274,"중심♬으로":15275,"순수":15276,"부모♬님":15277,"앉아":15278,"##시킬":15279,"훌륭":15280,"의한":15281,"시위":15282,"##하는건":15283,"이상♬의":15284,"걸어":15285,"##조작":15286,"##돌아":15287,"##an":15288,"계산":15289,"작성":15290,"상징":15291,"##보험":15292,"우한":15293,"떠올":15294,"이나라":15295,"##♬루":15296,"진단":15297,"반도":15298,"##쳐서":15299,"##나무":15300,"지시":15301,"낮은":15302,"수정":15303,"##대는":15304,"제2":15305,"식품":15306,"뒤집":15307,"##건설":15308,"애플":15309,"축하":15310,"##사♬와":15311,"소중":15312,"카메라":15313,"점♬을":15314,"보지":15315,"국민♬들♬은":15316,"정치♬적":15317,"잡고":15318,"설계":15319,"피부":15320,"가끔":15321,"통제":15322,"흘러":15323,"신♬의":15324,"##나♬는":15325,"##이니까":15326,"냄새":15327,"##하기♬로":15328,"##량♬을":15329,"팩트":15330,"보이지":15331,"##리티":15332,"##으려고":15333,"해야지":15334,"기계":15335,"배치":15336,"삶♬을":15337,"5년":15338,"다면서":15339,"감옥":15340,"힘♬이":15341,"좋았":15342,"##쓰고":15343,"36":15344,"##영업":15345,"##주택":15346,"나와서":15347,"집♬에서":15348,"왠지":15349,"##있어":15350,"상담":15351,"뉴욕":15352,"##진짜":15353,"간다":15354,"부부":15355,"케이":15356,"##했으며":15357,"감안":15358,"##실♬을":15359,"상황♬을":15360,"남자♬가":15361,"마음♬에":15362,"##길래":15363,"##한건":15364,"##대♬는":15365,"##전♬에서":15366,"한나라":15367,"뭐라":15368,"##위해":15369,"합리":15370,"생존":15371,"##속♬에":15372,"내내":15373,"맞추":15374,"어떠":15375,"언제나":15376,"에이":15377,"있냐":15378,"평범":15379,"연락":15380,"45":15381,"봐라":15382,"회담":15383,"시원":15384,"##누리":15385,"나타났":15386,"없네":15387,"스킬":15388,"만난":15389,"후♬에":15390,"이중":15391,"51":15392,"다면":15393,"##리스트":15394,"##리며":15395,"자한당":15396,"예측":15397,"글♬을":15398,"법률":15399,"##가♬의":15400,"보자":15401,"억울":15402,"실천":15403,"법인":15404,"전했다":15405,"어이":15406,"##시♬가":15407,"##바리":15408,"백신":15409,"봉사":15410,"##세기":15411,"새벽":15412,"전세계":15413,"반일":15414,"나갈":15415,"##버린":15416,"##함♬이":15417,"##라니":15418,"다녀":15419,"비상":15420,"##려나":15421,"심사":15422,"##길♬을":15423,"교체":15424,"##놓은":15425,"정체":15426,"뭐야":15427,"##질♬을":15428,"매국":15429,"안타깝":15430,"##티브":15431,"##로♬를":15432,"##상♬에":15433,"♬씩":15434,"##이라니":15435,"##었지만":15436,"##드♬의":15437,"##라지":15438,"개그":15439,"##점♬은":15440,"화려":15441,"##말♬을":15442,"모른다":15443,"세상♬에":15444,"대처":15445,"이♬들♬은":15446,"밀어":15447,"자리♬를":15448,"##료♬를":15449,"흥미":15450,"베이":15451,"길♬을":15452,"당국":15453,"##워크":15454,"우연":15455,"인재":15456,"인간♬들":15457,"쏟아":15458,"가게":15459,"##히는":15460,"떨어진":15461,"왜이":15462,"그렇다고":15463,"조국♬이":15464,"투쟁":15465,"웃기":15466,"여부":15467,"한다면":15468,"정주행":15469,"##안♬에":15470,"제1":15471,"비정":15472,"나쁘":15473,"할인":15474,"자아":15475,"##달러":15476,"스크":15477,"거기♬에":15478,"알아서":15479,"남은":15480,"있으":15481,"##경♬이":15482,"없지":15483,"야구":15484,"전날":15485,"학습":15486,"##원♬으로":15487,"집값":15488,"##것♬들♬이":15489,"데려":15490,"라인":15491,"##고♬를":15492,"관심♬이":15493,"불만":15494,"기울":15495,"정신차":15496,"최소한":15497,"대로":15498,"##하겠다":15499,"개소리":15500,"내세":15501,"사람♬들♬의":15502,"마지막♬에":15503,"예비":15504,"유시민":15505,"##본다":15506,"쓰러":15507,"장비":15508,"공산주의":15509,"##아치":15510,"꾸준히":15511,"화면":15512,"공모":15513,"##대학":15514,"##주♬는":15515,"한계":15516,"먹을":15517,"속도":15518,"##시길":15519,"말할":15520,"##사랑":15521,"##모리":15522,"패션":15523,"창조":15524,"고위":15525,"홈페이지":15526,"아니야":15527,"##금융":15528,"가능♬성":15529,"출전":15530,"편의":15531,"실질":15532,"생겨":15533,"박정희":15534,"아쉽":15535,"애♬들♬이":15536,"##금지":15537,"들어서":15538,"주문":15539,"미군":15540,"적어도":15541,"소리♬를":15542,"제거":15543,"이♬들":15544,"간단":15545,"1위":15546,"탄생":15547,"명령":15548,"공산당":15549,"말한다":15550,"정신병":15551,"이승":15552,"##댓글":15553,"이정도":15554,"최순":15555,"연습":15556,"##제품":15557,"##쪽♬으로":15558,"말한":15559,"지♬들♬이":15560,"##었습니다":15561,"##피소":15562,"검은":15563,"##일♬부터":15564,"상대♬로":15565,"##이♬들":15566,"윤석열":15567,"##되기":15568,"사이트":15569,"생각한다":15570,"원내":15571,"##놈♬이":15572,"좋을":15573,"설마":15574,"기독교":15575,"태극":15576,"##지기":15577,"##드♬는":15578,"아무런":15579,"반도체":15580,"##인가요":15581,"도덕":15582,"##하는지":15583,"##회의":15584,"부상":15585,"##로그":15586,"것♬들♬이":15587,"신기":15588,"기소":15589,"가해":15590,"공항":15591,"##사는":15592,"겨우":15593,"##리자":15594,"##격♬을":15595,"이른":15596,"창출":15597,"것♬들":15598,"이슈":15599,"생각합니다":15600,"나오고":15601,"##따라":15602,"제정":15603,"결코":15604,"카페":15605,"##임금":15606,"챙겨":15607,"##바이":15608,"##리♬로":15609,"##기간":15610,"##방♬에":15611,"무서운":15612,"보게":15613,"나왔다":15614,"옆♬에":15615,"안좋":15616,"##거면":15617,"##먹을":15618,"32":15619,"정은":15620,"입고":15621,"##하시는":15622,"전남":15623,"혼란":15624,"없으면":15625,"쇼핑":15626,"등등":15627,"대통령♬은":15628,"가까이":15629,"뻔뻔":15630,"사랑♬을":15631,"집권":15632,"강력한":15633,"실현":15634,"##지마라":15635,"상식":15636,"채널":15637,"체육":15638,"다루":15639,"이론":15640,"통계":15641,"소년":15642,"안돼":15643,"올랐":15644,"이혼":15645,"이벤트":15646,"의도":15647,"나오면":15648,"##소득":15649,"할아버":15650,"활약":15651,"##질♬이":15652,"##대회":15653,"수석":15654,"가야":15655,"알려졌":15656,"클럽":15657,"##소리♬를":15658,"##라♬가":15659,"유사":15660,"김영":15661,"모여":15662,"분명히":15663,"##야말로":15664,"보낸":15665,"다음♬화":15666,"##서관":15667,"##어야지":15668,"청문":15669,"##자체":15670,"##대가리":15671,"##진♬을":15672,"틀딱":15673,"떠오":15674,"##이라며":15675,"아저":15676,"##호♬가":15677,"SBS":15678,"근본":15679,"♬마다":15680,"더이상":15681,"계획이다":15682,"##항공":15683,"판사":15684,"주사":15685,"철학":15686,"##유♬의":15687,"취소":15688,"나경원":15689,"유튜브":15690,"##범죄":15691,"##기♬와":15692,"기타":15693,"안내":15694,"##친다":15695,"실력":15696,"불매":15697,"##메이션":15698,"##나가":15699,"2015년":15700,"물리":15701,"느낄":15702,"##점♬으로":15703,"오픈":15704,"억지":15705,"작가♬님♬이":15706,"못하게":15707,"##차♬를":15708,"간첩":15709,"죽여":15710,"압박":15711,"##들아":15712,"##남불":15713,"때♬마다":15714,"한화":15715,"앨범":15716,"않나":15717,"현금":15718,"##바닥":15719,"몰라":15720,"지상":15721,"가능하다":15722,"##까봐":15723,"소식":15724,"수학":15725,"##겠어":15726,"상장":15727,"##군♬의":15728,"칭찬":15729,"감성":15730,"방해":15731,"##구조":15732,"##분♬을":15733,"##진♬은":15734,"##경♬을":15735,"그♬들♬이":15736,"개입":15737,"##19":15738,"이외":15739,"미술":15740,"##거냐":15741,"인류":15742,"여주":15743,"##게임":15744,"끝내":15745,"애국":15746,"초딩":15747,"저번":15748,"잠깐":15749,"이용해":15750,"그곳":15751,"동시":15752,"지수":15753,"때려":15754,"##일♬까지":15755,"최대한":15756,"밑♬에":15757,"모두♬가":15758,"식♬으로":15759,"선배":15760,"피해♬를":15761,"등급":15762,"갖추":15763,"소환":15764,"이름♬이":15765,"##♬들♬로":15766,"추구":15767,"초등":15768,"##화점":15769,"##정치":15770,"오해":15771,"모른":15772,"##받을":15773,"광화":15774,"손가락":15775,"##상태":15776,"만한":15777,"미세먼지":15778,"2016년":15779,"관련된":15780,"리얼":15781,"가라":15782,"처음♬부터":15783,"##호♬를":15784,"출마":15785,"수수":15786,"##라우":15787,"확률":15788,"##평가":15789,"괴롭":15790,"전면":15791,"##던지":15792,"일부러":15793,"돌아오":15794,"##♬보다♬도":15795,"단순히":15796,"상위":15797,"동성":15798,"동아":15799,"##리트":15800,"수능":15801,"경우♬에♬는":15802,"이달":15803,"해소":15804,"아니지만":15805,"경우♬는":15806,"##거고":15807,"##♬짜리":15808,"뽑아":15809,"##회장":15810,"##TV":15811,"고백":15812,"##된다고":15813,"미디어":15814,"##♬님♬은":15815,"확장":15816,"당신♬은":15817,"복귀":15818,"빼고":15819,"##♬두":15820,"법원":15821,"##여자":15822,"##서♬가":15823,"분리":15824,"##럽게":15825,"##개♬가":15826,"아이템":15827,"##먹은":15828,"사람♬들♬을":15829,"장르":15830,"재밌게":15831,"없지만":15832,"어깨":15833,"국토":15834,"정도♬의":15835,"무한":15836,"키우":15837,"##기지":15838,"##라며":15839,"33":15840,"다를":15841,"##기에":15842,"##정♬은":15843,"살려":15844,"이것♬은":15845,"그리스":15846,"플랫":15847,"국무":15848,"##단다":15849,"##피스":15850,"##당히":15851,"##우♬는":15852,"주의":15853,"고향":15854,"증명":15855,"것이었다":15856,"안철":15857,"미국♬이":15858,"연계":15859,"아르":15860,"듯한":15861,"대부분♬의":15862,"196":15863,"##치게":15864,"##싶은":15865,"##인♬으로":15866,"34":15867,"##였는데":15868,"38":15869,"##종♬의":15870,"여유":15871,"##ar":15872,"다리":15873,"##없어":15874,"##♬화♬를":15875,"##♬보단":15876,"경쟁력":15877,"키워":15878,"많은데":15879,"청구":15880,"차이♬가":15881,"기생":15882,"감사합니다":15883,"에피소":15884,"팔아":15885,"보여주는":15886,"네트":15887,"##애♬들":15888,"하냐":15889,"전력":15890,"느낌♬이":15891,"니♬들♬은":15892,"정보♬를":15893,"진지":15894,"상호":15895,"오지":15896,"관람":15897,"느낀":15898,"평등":15899,"자전":15900,"종북":15901,"설득":15902,"오늘♬도":15903,"##치지":15904,"수원":15905,"거듭":15906,"##한번":15907,"##니깐":15908,"##주지":15909,"한국♬은":15910,"##든가":15911,"필요하다":15912,"저게":15913,"말이다":15914,"고발":15915,"##아니라":15916,"차단":15917,"##상♬은":15918,"왜냐":15919,"어려움":15920,"끝난":15921,"점♬에서":15922,"했고":15923,"##방♬을":15924,"과제":15925,"점검":15926,"아니지":15927,"##수수":15928,"모집":15929,"착각":15930,"수치":15931,"빠르":15932,"지옥":15933,"깊은":15934,"이웃":15935,"대놓고":15936,"정확히":15937,"한데":15938,"##상황":15939,"##복♬을":15940,"부품":15941,"한반도":15942,"박사":15943,"있었고":15944,"세상♬을":15945,"##거임":15946,"인공":15947,"99":15948,"갈수록":15949,"요리":15950,"바란다":15951,"영혼":15952,"갔다":15953,"##일♬은":15954,"2017년":15955,"##♬적이다":15956,"##로♬가":15957,"##되는데":15958,"대만":15959,"##♬층":15960,"##비아":15961,"커플":15962,"##로지":15963,"교과":15964,"##안♬이":15965,"참고♬로":15966,"진입":15967,"##or":15968,"힘내":15969,"##는거다":15970,"대변인":15971,"복잡":15972,"내고":15973,"##카오":15974,"청원":15975,"재난":15976,"##그리":15977,"##음♬이":15978,"##프라":15979,"##져라":15980,"♬한테":15981,"사실♬은":15982,"둘♬이":15983,"걸쳐":15984,"문빠":15985,"라헬":15986,"##버리":15987,"경우♬도":15988,"발사":15989,"떨어지":15990,"투자자":15991,"##적♬을":15992,"##시♬는":15993,"##어♬가":15994,"##긴다":15995,"##정♬에":15996,"반발":15997,"했으나":15998,"##♬자♬가":15999,"종류":16000,"겁나":16001,"때♬도":16002,"작가♬의":16003,"##뮤니":16004,"얼굴♬을":16005,"부활":16006,"뛰어난":16007,"국민♬은":16008,"성폭":16009,"찬성":16010,"바른":16011,"너♬도":16012,"매수":16013,"협박":16014,"##동생":16015,"북한♬이":16016,"공천":16017,"유도":16018,"물고":16019,"노출":16020,"빨간":16021,"대기":16022,"여야":16023,"분♬들":16024,"괜히":16025,"##이라서":16026,"##노총":16027,"보조":16028,"##터리":16029,"최강":16030,"5000":16031,"검증":16032,"1인":16033,"들었다":16034,"사귀":16035,"아이♬가":16036,"고등학교":16037,"성능":16038,"인가":16039,"했다고":16040,"지루":16041,"발휘":16042,"조선일보":16043,"##버스":16044,"그♬에":16045,"2014년":16046,"직후":16047,"완화":16048,"이란":16049,"착한":16050,"##보내":16051,"##배우":16052,"##히고":16053,"##가♬에":16054,"투기":16055,"배달":16056,"##있네":16057,"2018년":16058,"원전":16059,"00":16060,"후회":16061,"##사람♬들":16062,"##여행":16063,"가량":16064,"##드리":16065,"연구원":16066,"배뎃":16067,"필수":16068,"짱깨":16069,"##의식":16070,"생각하면":16071,"소방":16072,"것이라는":16073,"기회♬를":16074,"김대":16075,"할수":16076,"경상":16077,"줄어들":16078,"##장♬과":16079,"자영업":16080,"지휘":16081,"이지":16082,"화학":16083,"때♬까지":16084,"입학":16085,"한미":16086,"위안부":16087,"표시":16088,"협회":16089,"##그래":16090,"##때♬마다":16091,"고급":16092,"재무":16093,"아이디어":16094,"♬보고":16095,"몰려":16096,"##명♬으로":16097,"패배":16098,"죽어":16099,"유료":16100,"결제":16101,"투명":16102,"방사":16103,"##슬람":16104,"##직원":16105,"둘다":16106,"어야":16107,"##영상":16108,"멀리":16109,"##단♬의":16110,"했으며":16111,"##겠는데":16112,"인민":16113,"육성":16114,"KB":16115,"철저히":16116,"애니메이션":16117,"대다":16118,"둘째":16119,"##공사":16120,"손♬에":16121,"##되서":16122,"올린":16123,"##나면":16124,"##미터":16125,"답변":16126,"응답":16127,"최순실":16128,"내♬로":16129,"아닌가요":16130,"못한다":16131,"국립":16132,"중간♬에":16133,"그렇고":16134,"동기":16135,"멋진":16136,"비례":16137,"고정":16138,"##부대":16139,"##시절":16140,"어요":16141,"##줌마":16142,"##용♬이":16143,"연간":16144,"월드컵":16145,"이번♬화":16146,"배신":16147,"가을":16148,"제재":16149,"지하철":16150,"모르겠다":16151,"엄마♬가":16152,"돌파":16153,"거기♬서":16154,"##현♬이":16155,"법♬을":16156,"그러고":16157,"양성":16158,"다름":16159,"현대차":16160,"매장":16161,"##비♬는":16162,"좋지":16163,"보인":16164,"##♬란":16165,"자율":16166,"이런거":16167,"이것♬이":16168,"##피언":16169,"♬로부터":16170,"중국♬에":16171,"##었으면":16172,"부대":16173,"어릴":16174,"맞고":16175,"고마":16176,"##장면":16177,"##향♬이":16178,"순위":16179,"상황♬에":16180,"생각♬은":16181,"책임♬을":16182,"자존":16183,"탈출":16184,"날아":16185,"실업":16186,"##전♬의":16187,"얘기♬를":16188,"줄어":16189,"이탈리아":16190,"남한":16191,"##전쟁":16192,"스테":16193,"학원":16194,"옹호":16195,"##주♬에":16196,"조선족":16197,"이민":16198,"일본♬에":16199,"경고":16200,"균형":16201,"주지":16202,"2018":16203,"무려":16204,"파트":16205,"세종":16206,"자전거":16207,"##상♬의":16208,"노예":16209,"세워":16210,"##였고":16211,"##해주는":16212,"악화":16213,"대학생":16214,"감독♬은":16215,"##다시":16216,"단독":16217,"##함♬으로써":16218,"방지":16219,"##된다는":16220,"언젠":16221,"검찰개혁":16222,"상반기":16223,"아울":16224,"##NS":16225,"이야기♬가":16226,"보안":16227,"성인":16228,"식당":16229,"형사":16230,"의지":16231,"부분♬이":16232,"##스♬와":16233,"일찍":16234,"수단":16235,"헤어":16236,"그다":16237,"##소♬가":16238,"책♬을":16239,"##점♬에서":16240,"대법":16241,"##동♬을":16242,"것이고":16243,"올라가":16244,"누구♬나":16245,"분류":16246,"떨어져":16247,"동양":16248,"IT":16249,"##♬님♬의":16250,"신체":16251,"씨♬는":16252,"##렀다":16253,"마주":16254,"느꼈":16255,"능력♬을":16256,"개판":16257,"김성":16258,"마침":16259,"정신♬이":16260,"##았고":16261,"##미♬를":16262,"봅니다":16263,"보이고":16264,"##연♬이":16265,"청문회":16266,"대결":16267,"##더만":16268,"##자나":16269,"받지":16270,"넘는":16271,"수준♬이":16272,"텔레":16273,"동맹":16274,"배려":16275,"당사":16276,"존경":16277,"##스포":16278,"안♬에서":16279,"한명":16280,"삶♬의":16281,"얻어":16282,"털어":16283,"아웃":16284,"커뮤니":16285,"공약":16286,"한정":16287,"##데이":16288,"모를":16289,"기준♬으로":16290,"뒤♬로":16291,"##이던":16292,"##을텐데":16293,"##협회":16294,"입주":16295,"이다":16296,"##소리♬가":16297,"중인":16298,"##하지말고":16299,"페이스":16300,"##셔야":16301,"##스티":16302,"400":16303,"##년♬이":16304,"시나":16305,"유명한":16306,"들어간":16307,"##자산":16308,"##시♬를":16309,"도움♬을":16310,"데리고":16311,"새누리":16312,"##동♬이":16313,"마약":16314,"##♬으":16315,"비롯한":16316,"##연금":16317,"2012년":16318,"##세력":16319,
[...]
