<s>
<pad>
</s>
<unk>
<mask>
[UNK0]
[UNK1]
[UNK2]
[UNK3]
[UNK4]
[UNK5]
[UNK6]
[UNK7]
[UNK8]
[UNK9]
[unused0]
[unused1]
[unused2]
[unused3]
[unused4]
[unused5]
[unused6]
[unused7]
[unused8]
[unused9]
[unused10]
[unused11]
[unused12]
[unused13]
[unused14]
[unused15]
[unused16]
[unused17]
[unused18]
[unused19]
[unused20]
[unused21]
[unused22]
[unused23]
[unused24]
[unused25]
[unused26]
[unused27]
[unused28]
[unused29]
[unused30]
[unused31]
[unused32]
[unused33]
[unused34]
[unused35]
[unused36]
[unused37]
[unused38]
[unused39]
[unused40]
[unused41]
[unused42]
[unused43]
[unused44]
[unused45]
[unused46]
[unused47]
[unused48]
[unused49]
[unused50]
[unused51]
[unused52]
[unused53]
[unused54]
[unused55]
[unused56]
[unused57]
[unused58]
[unused59]
[unused60]
[unused61]
[unused62]
[unused63]
[unused64]
[unused65]
[unused66]
[unused67]
[unused68]
[unused69]
[unused70]
[unused71]
[unused72]
[unused73]
[unused74]
[unused75]
[unused76]
[unused77]
[unused78]
[unused79]
[unused80]
[unused81]
[unused82]
[unused83]
[unused84]
[unused85]
[unused86]
[unused87]
[unused88]
[unused89]
[unused90]
[unused91]
[unused92]
[unused93]
[unused94]
[unused95]
[unused96]
[unused97]
[unused98]
[unused99]
[unused100]
[unused101]
[unused102]
[unused103]
[unused104]
[unused105]
[unused106]
[unused107]
[unused108]
[unused109]
[unused110]
[unused111]
[unused112]
[unused113]
[unused114]
[unused115]
[unused116]
[unused117]
[unused118]
[unused119]
[unused120]
[unused121]
[unused122]
[unused123]
[unused124]
[unused125]
[unused126]
[unused127]
[unused128]
[unused129]
[unused130]
[unused131]
[unused132]
[unused133]
[unused134]
[unused135]
[unused136]
[unused137]
[unused138]
[unused139]
[unused140]
[unused141]
[unused142]
[unused143]
[unused144]
[unused145]
[unused146]
[unused147]
[unused148]
[unused149]
[unused150]
[unused151]
[unused152]
[unused153]
[unused154]
[unused155]
[unused156]
[unused157]
[unused158]
[unused159]
[unused160]
[unused161]
[unused162]
[unused163]
[unused164]
[unused165]
[unused166]
[unused167]
[unused168]
[unused169]
[unused170]
[unused171]
[unused172]
[unused173]
[unused174]
[unused175]
[unused176]
[unused177]
[unused178]
[unused179]
[unused180]
[unused181]
[unused182]
[unused183]
[unused184]
[unused185]
[unused186]
[unused187]
[unused188]
[unused189]
[unused190]
[unused191]
[unused192]
[unused193]
[unused194]
[unused195]
[unused196]
[unused197]
[unused198]
[unused199]
!
"
#
$
%
&
'
(
)
*
+
,
-
.
/
0
1
2
3
4
5
6
7
8
9
:
;
<
=
>
?
@
A
B
C
D
E
F
G
H
I
J
K
L
M
N
O
P
Q
R
S
T
U
V
W
X
Y
Z
[
\
]
^
_
`
a
b
c
d
e
f
g
h
i
j
k
l
m
n
o
p
q
r
s
t
u
v
w
x
y
z
{
|
}
~
·
∼
가
각
갂
갃
간
갅
갆
갇
갈
갉
갊
갋
갌
갍
갎
갏
감
갑
값
갓
갔
강
갖
갗
갘
같
갚
갛
개
객
갞
갟
갠
갢
갣
갤
갥
갧
갩
갫
갬
갭
갮
갯
갰
갱
갲
갳
갴
갵
갶
갷
갸
갹
갺
갼
갿
걀
걈
걉
걊
걋
걌
걍
걎
걐
걑
걒
걔
걕
걖
걘
걜
걤
걥
걧
걨
걩
거
걱
걲
걳
건
걵
걶
걷
걸
걹
걺
걻
걼
걽
걾
걿
검
겁
겂
것
겄
겅
겆
겇
겈
겉
겊
겋
게
겍
겎
겐
겒
겓
겔
겙
겚
겛
겜
겝
겞
겟
겠
겡
겢
겣
겤
겥
겦
겧
겨
격
겪
겫
견
겭
겮
겯
결
겱
겲
겳
겴
겵
겷
겸
겹
겺
겻
겼
경
겾
겿
곀
곁
곂
곃
계
곅
곆
곈
곋
곌
곔
곕
곖
곗
곘
곙
곚
곜
곝
곟
고
곡
곢
곣
곤
곧
골
곩
곪
곫
곬
곭
곮
곯
곰
곱
곲
곳
곴
공
곶
곷
곸
곹
곺
곻
과
곽
관
괁
괂
괃
괄
괌
괍
괏
괐
광
괒
괓
괔
괕
괖
괗
괘
괙
괜
괝
괞
괠
괨
괫
괬
괭
괴
괵
괸
괺
괼
굄
굅
굇
굈
굉
굌
교
굑
굔
굗
굘
굚
굠
굡
굣
굤
굥
굦
굧
굨
굩
굫
구
국
굮
굯
군
굱
굲
굳
굴
굵
굶
굷
굺
굻
굼
굽
굾
굿
궀
궁
궂
궃
궄
궅
궆
궇
궈
궉
권
궍
궎
궏
궐
궘
궙
궛
궜
궝
궞
궠
궤
궥
궨
궬
궮
궯
궵
궷
궸
궹
귀
귁
귄
귈
귐
귑
귓
귔
귕
귖
귘
규
귝
균
귣
귤
귦
귬
귭
귯
귱
귴
그
극
귺
귻
근
귽
귾
귿
글
긁
긂
긃
긄
긆
긇
금
급
긊
긋
긌
긍
긎
긏
긐
긑
긒
긓
긔
긕
긘
긛
긜
긤
긥
긧
긨
긩
긬
기
긱
긲
긴
긵
긶
긷
길
긹
긺
긻
긼
긽
긾
긿
김
깁
깂
깃
깄
깅
깆
깇
깈
깉
깊
깋
까
깍
깎
깐
깒
깓
깔
깕
깖
깛
깜
깝
깞
깟
깠
깡
깢
깣
깤
깥
깦
깧
깨
깩
깪
깬
깯
깰
깳
깵
깸
깹
깺
깻
깼
깽
깾
꺀
꺁
꺃
꺄
꺅
꺆
꺈
꺉
꺊
꺌
꺎
꺏
꺑
꺓
꺔
꺕
꺖
꺗
꺘
꺙
꺚
꺛
꺜
꺝
꺟
꺠
꺡
꺢
꺤
꺨
꺳
꺴
꺵
꺼
꺽
꺾
껀
껃
껄
껌
껍
껎
껏
껐
껑
껒
껓
껔
껕
껗
께
껙
껚
껜
껠
껨
껩
껫
껬
껭
껮
껰
껴
껵
껶
껸
껼
꼄
꼅
꼇
꼈
꼉
꼊
꼌
꼍
꼏
꼐
꼔
꼣
꼤
꼥
꼨
꼬
꼭
꼮
꼰
꼲
꼳
꼴
꼵
꼶
꼷
꼹
꼻
꼼
꼽
꼿
꽁
꽂
꽃
꽄
꽅
꽆
꽇
꽈
꽉
꽊
꽌
꽐
꽘
꽙
꽛
꽜
꽝
꽠
꽤
꽥
꽦
꽨
꽬
꽴
꽹
꽼
꾀
꾁
꾄
꾈
꾐
꾕
꾜
꾝
꾠
꾤
꾬
꾭
꾱
꾳
꾸
꾹
꾺
꾼
꾽
꾾
꾿
꿀
꿁
꿂
꿃
꿄
꿆
꿇
꿈
꿉
꿋
꿌
꿍
꿎
꿏
꿐
꿑
꿓
꿔
꿕
꿘
꿜
꿤
꿥
꿧
꿨
꿩
꿬
꿯
꿰
꿱
꿲
꿴
꿸
뀀
뀁
뀃
뀄
뀅
뀈
뀌
뀍
뀐
뀔
뀜
뀝
뀟
뀠
뀡
뀨
뀩
뀪
뀬
뀰
뀷
뀸
뀻
뀽
끄
끅
끆
끈
끉
끊
끋
끌
끍
끎
끏
끐
끓
끔
끕
끗
끘
끙
끚
끛
끜
끝
끞
끟
끠
끡
끤
끨
끰
끱
끵
끼
끽
끾
끿
낀
낂
낃
낄
낅
낇
낋
낌
낍
낎
낏
낐
낑
낒
낓
낔
낕
낖
낗
나
낙
낚
낛
난
낝
낞
낟
날
낡
낢
낣
낤
낥
낧
남
납
낪
낫
났
낭
낮
낯
낰
낱
낲
낳
내
낵
낶
낸
낻
낼
낽
냄
냅
냆
냇
냈
냉
냊
냋
냌
냍
냎
냏
냐
냑
냒
냔
냗
냘
냠
냡
냢
냣
냤
냥
냦
냧
냨
냩
냪
냫
냬
냰
냴
냼
냽
냿
넀
넁
넄
너
넉
넊
넋
넌
넍
넎
넏
널
넑
넒
넓
넔
넖
넗
넘
넙
넚
넛
넜
넝
넞
넟
넠
넡
넢
넣
네
넥
넦
넨
넫
넬
넴
넵
넷
넸
넹
넺
넻
넼
넽
넾
넿
녀
녁
녂
녃
년
녅
녆
녇
녈
녉
녊
념
녑
녓
녔
녕
녖
녗
녘
녙
녚
녛
녜
녝
녠
녤
녬
녭
녯
녰
녱
녴
노
녹
녺
녻
논
녽
녾
녿
놀
놁
놂
놃
놇
놈
놉
놊
놋
놌
농
놎
놏
놐
놑
높
놓
놔
놕
놘
놛
놜
놤
놥
놧
놨
놩
놪
놬
놯
놰
놱
놴
뇀
뇁
뇄
뇅
뇌
뇍
뇐
뇔
뇜
뇝
뇟
뇠
뇡
뇤
뇨
뇩
뇬
뇮
뇯
뇰
뇸
뇹
뇻
뇽
뇾
눀
눂
눃
누
눅
눈
눉
눋
눌
눍
눔
눕
눗
눙
눚
눜
눝
눞
눟
눠
눤
눨
눰
눱
눳
눴
눵
눼
눽
뉀
뉄
뉌
뉍
뉑
뉘
뉙
뉜
뉠
뉨
뉩
뉫
뉬
뉭
뉴
뉵
뉸
뉼
늄
늅
늇
늉
늌
늏
느
늑
늒
늓
는
늕
늖
늗
늘
늙
늚
늛
늜
늟
늠
늡
늣
늤
능
늦
늧
늨
늩
늪
늫
늬
늭
늰
늴
늼
늽
늿
닁
닄
닇
니
닉
닊
닌
닍
닎
닏
닐
닑
닒
닗
님
닙
닚
닛
닜
닝
닞
닟
닠
닡
닢
닣
다
닥
닦
닧
단
닩
닪
닫
달
닭
닮
닯
닰
닱
닲
닳
담
답
닶
닷
닸
당
닺
닻
닼
닽
닾
닿
대
댁
댂
댄
댇
댈
댉
댏
댐
댑
댒
댓
댔
댕
댖
댗
댘
댙
댚
댛
댜
댝
댠
댣
댤
댥
댬
댭
댯
댱
댴
댸
댹
댼
덀
덈
덋
덌
덍
더
덕
덖
덗
던
덙
덚
덛
덜
덝
덞
덟
덢
덣
덤
덥
덦
덧
덨
덩
덪
덫
덬
덭
덮
덯
데
덱
덲
덴
덷
델
뎀
뎁
뎃
뎄
뎅
뎆
뎇
뎈
뎉
뎊
뎋
뎌
뎍
뎐
뎓
뎔
뎜
뎝
뎟
뎠
뎡
뎦
뎧
뎨
뎬
뎰
뎽
도
독
돆
돇
돈
돉
돋
돌
돍
돎
돏
돐
돑
돒
돓
돔
돕
돖
돗
돘
동
돚
돛
돜
돝
돞
돟
돠
돡
돤
돨
돩
돰
돱
돳
돴
돵
돸
돼
돽
돾
됀
됃
됄
됋
됌
됍
됏
됐
됑
됒
됔
됗
되
됙
된
됝
됟
될
됡
됢
됤
됥
됦
됨
됩
됫
됬
됭
됮
됯
됰
됱
됲
됳
됴
됵
됸
됻
됼
둄
둅
둇
둉
둊
둋
둍
둏
두
둑
둔
둗
둘
둙
둚
둞
둟
둠
둡
둣
둤
둥
둦
둧
둨
둩
둪
둫
둬
둭
둰
둴
둼
둽
둿
뒀
뒁
뒄
뒇
뒈
뒉
뒌
뒐
뒘
뒙
뒛
뒜
뒝
뒞
뒤
뒥
뒨
뒫
뒬
뒴
뒵
뒷
뒸
뒹
뒺
뒽
뒿
듀
듁
듄
듈
듐
듑
듓
듕
드
득
듞
듟
든
듡
듢
듣
들
듥
듦
듧
듨
듩
듪
듫
듬
듭
듮
듯
듰
등
듲
듳
듴
듵
듶
듷
듸
듹
듼
딀
딈
딉
딋
딍
딒
디
딕
딖
딘
딛
딜
딝
딞
딤
딥
딦
딧
딨
딩
딪
딫
딬
딭
딮
딯
따
딱
딲
딳
딴
딵
딷
딸
딹
딺
딻
딽
딿
땀
땁
땂
땃
땄
땅
땆
땈
땉
땋
때
땍
땎
땐
땓
땔
땜
땝
땟
땠
땡
땢
땣
땤
땦
땧
땨
땩
땬
땰
땸
땽
떄
떅
떈
떌
떎
떔
떗
떘
떙
떠
떡
떢
떣
떤
떥
떦
떧
떨
떩
떪
떫
떮
떯
떰
떱
떳
떴
떵
떶
떷
떸
떹
떺
떻
떼
떽
떾
뗀
뗄
뗌
뗍
뗏
뗐
뗑
뗔
뗗
뗘
뗙
뗜
뗠
뗨
뗩
뗫
뗬
뗭
뗳
뗴
뗵
뗸
뗼
똇
똈
똉
똏
또
똑
똒
똔
똗
똘
똙
똚
똝
똟
똠
똡
똣
똥
똦
똧
똨
똩
똫
똬
똭
똰
똴
똵
똽
똿
뙁
뙇
뙈
뙉
뙌
뙛
뙜
뙝
뙡
뙤
뙥
뙨
뙬
뙴
뙷
뙸
뙹
뙿
뚀
뚁
뚈
뚕
뚜
뚝
뚞
뚠
뚢
뚣
뚤
뚥
뚦
뚧
뚨
뚫
뚬
뚭
뚯
뚱
뚴
뚵
뚷
뚸
뚹
뚼
뛀
뛋
뛌
뛍
뛓
뛔
뛕
뛟
뛥
뛧
뛨
뛬
뛰
뛱
뛴
뛸
뜀
뜁
뜃
뜄
뜅
뜌
뜍
뜐
뜔
뜛
뜝
뜡
뜨
뜩
뜪
뜬
뜮
뜯
뜰
뜱
뜲
뜳
뜷
뜸
뜹
뜻
뜼
뜽
뜾
뜿
띀
띁
띃
띄
띅
띈
띌
띔
띕
띗
띙
띟
띠
띡
띤
띧
띨
띰
띱
띳
띴
띵
띶
띸
띹
띻
라
락
띾
띿
란
랁
랂
랃
랄
랅
랆
랇
랈
랉
랊
랋
람
랍
랎
랏
랐
랑
랒
랓
랔
랕
랖
랗
래
랙
랚
랜
랟
랠
램
랩
랫
랬
랭
랮
랯
랰
랱
랲
랳
랴
략
랶
랸
랺
랻
랼
럄
럅
럆
럇
럈
량
럊
럌
럎
럏
럐
럑
럔
럕
럖
럗
럘
럠
럣
럤
럥
러
럭
럮
럯
런
럱
럲
럳
럴
럵
럶
럷
럸
럹
럻
럼
럽
럾
럿
렀
렁
렂
렃
렄
렅
렆
렇
레
렉
렊
렌
렏
렐
렑
렘
렙
렛
렜
렝
렞
렠
렡
렢
렣
려
력
렦
렧
련
렩
렪
렫
렬
렭
렳
렴
렵
렶
렷
렸
령
렺
렻
렼
렽
렾
렿
례
롁
롄
롇
롈
롐
롑
롓
롔
롕
롘
로
록
롞
론
롡
롢
롣
롤
롥
롦
롫
롬
롭
롮
롯
롰
롱
롲
롳
롴
롵
롶
롷
롸
롹
롼
뢀
뢈
뢉
뢋
뢌
뢍
뢐
뢓
뢔
뢕
뢘
뢜
뢧
뢨
뢩
뢰
뢱
뢴
뢸
룀
룁
룃
룄
룅
료
룍
룐
룓
룔
룜
룝
룟
룠
룡
룢
룤
루
룩
룬
룯
룰
룸
룹
룻
룽
룾
뤀
뤁
뤂
뤃
뤄
뤅
뤈
뤌
뤔
뤕
뤗
뤘
뤙
뤟
뤠
뤡
뤤
뤨
뤰
뤱
뤳
뤴
뤵
뤸
뤼
뤽
륀
륄
륌
륍
륏
륐
륑
류
륙
륜
륝
률
륨
륩
륫
륭
륮
륰
륲
륳
르
륵
륶
른
륹
륻
를
륽
륾
륿
릀
릁
릂
릃
름
릅
릆
릇
릈
릉
릊
릋
릌
릍
릎
릏
릐
릑
릔
릘
릠
릡
릣
릥
릫
리
릭
릮
린
릱
릳
릴
릵
릶
릷
릸
릹
릻
림
립
릾
릿
맀
링
맂
맃
맄
맅
맆
맇
마
막
맊
맋
만
맍
많
맏
말
맑
맒
맓
맔
맕
맖
맗
맘
맙
맚
맛
맜
망
맞
맟
맠
맡
맢
맣
매
맥
맨
맩
맪
맫
맬
맴
맵
맶
맷
맸
맹
맺
맻
맼
맽
맾
맿
먀
먁
먄
먆
먇
먈
먐
먑
먓
먕
먖
먗
먘
먙
먛
먜
먝
먠
먤
먬
먱
머
먹
먺
먻
먼
먽
먾
먿
멀
멁
멂
멄
멈
멉
멊
멋
멌
멍
멎
멏
멐
멑
멒
멓
메
멕
멘
멛
멜
멤
멥
멧
멨
멩
멪
멫
멬
멭
멮
며
멱
멲
면
멵
멶
멷
멸
멺
멿
몀
몁
몃
몄
명
몆
몇
몈
몉
몊
몋
몌
몍
몐
몔
몜
몟
몡
몢
몣
모
목
몪
몫
몬
몭
몮
몯
몰
몱
몲
몴
몶
몷
몸
몹
몺
못
몼
몽
몾
몿
뫀
뫁
뫂
뫃
뫄
뫅
뫈
뫌
뫔
뫕
뫗
뫘
뫙
뫚
뫠
뫡
뫤
뫴
뫵
뫼
뫽
묀
묄
묌
묍
묏
묑
묘
묙
묜
묠
묨
묫
묭
묯
무
묵
묶
묷
문
묹
묺
묻
물
묽
묾
묿
뭀
뭁
뭂
뭃
뭄
뭅
뭇
뭈
뭉
뭊
뭋
뭌
뭍
뭎
뭏
뭐
뭑
뭔
뭕
뭗
뭘
뭙
뭚
뭛
뭟
뭠
뭡
뭢
뭣
뭤
뭥
뭦
뭧
뭨
뭩
뭪
뭫
뭬
뭭
뭰
뭴
뭽
뭿
뮁
뮈
뮉
뮌
뮏
뮐
뮘
뮙
뮛
뮜
뮝
뮤
뮥
뮦
뮨
뮫
뮬
뮭
뮴
뮷
뮸
뮹
뮻
뮼
므
믁
믂
믄
믅
믆
믇
믈
믉
믌
믏
믐
믑
믓
믕
믖
믘
믙
믛
믜
믝
믠
믣
믤
믬
믯
믰
믱
미
믹
민
믽
믾
믿
밀
밁
밂
밄
밇
밈
밉
밊
밋
밌
밍
밎
및
밐
밑
밒
밓
바
박
밖
밗
반
밙
밚
받
발
밝
밞
밟
밠
밡
밢
밣
밤
밥
밦
밧
밨
방
밪
밫
밬
밭
밮
밯
배
백
밲
밳
밴
밷
밸
밹
뱀
뱁
뱃
뱄
뱅
뱆
뱇
뱈
뱉
뱊
뱋
뱌
뱍
뱎
뱐
뱓
뱔
뱕
뱗
뱛
뱜
뱝
뱟
뱡
뱤
뱥
뱨
뱩
뱬
뱰
뱸
뱻
뱽
벁
버
벅
벆
번
벉
벊
벋
벌
벍
벎
벏
벐
벓
범
법
벖
벗
벘
벙
벚
벛
벜
벝
벞
벟
베
벡
벤
벧
벨
벩
벫
벰
벱
벲
벳
벴
벵
벶
벷
벸
벹
벻
벼
벽
벾
변
볁
볂
볃
별
볅
볆
볇
볈
볋
볌
볍
볎
볏
볐
병
볒
볓
볔
볕
볖
볗
볘
볙
볜
볠
볫
볭
볱
보
복
볶
볷
본
볹
볺
볻
볼
볽
볾
볿
봀
봁
봂
봄
봅
봆
봇
봈
봉
봊
봋
봌
봍
봎
봏
봐
봑
봒
봔
봗
봘
봙
봟
봠
봡
봣
봤
봥
봦
봨
봩
봫
봬
봭
봰
봴
봵
봽
뵀
뵁
뵈
뵉
뵌
뵏
뵐
뵑
뵘
뵙
뵛
뵜
뵝
뵞
뵤
뵥
뵨
뵬
뵴
뵵
뵷
뵹
뵺
뵽
부
북
붂
붃
분
붅
붆
붇
불
붉
붊
붋
붌
붍
붎
붏
붐
붑
붒
붓
붔
붕
붖
붗
붘
붙
붚
붛
붜
붝
붠
붤
붥
붭
붯
붰
붱
붴
붸
붹
붼
뷀
뷁
뷃
뷉
뷋
뷍
뷐
뷔
뷕
뷘
뷜
뷤
뷥
뷧
뷩
뷰
뷱
뷴
뷶
뷷
뷸
뷹
븀
븁
븂
븃
븅
븇
븈
븉
븋
브
븍
븎
븐
븓
블
븕
븘
븜
븝
븞
븟
븡
븢
븤
븥
븧
븨
븩
븬
븰
븸
븹
븻
븽
비
빅
빆
빈
빋
빌
빍
빎
빏
빓
빔
빕
빗
빘
빙
빚
빛
빜
빝
빞
빟
빠
빡
빢
빣
빤
빧
빨
빩
빪
빫
빬
빭
빮
빯
빰
빱
빳
빴
빵
빶
빷
빸
빹
빺
빻
빼
빽
빾
뺀
뺃
뺄
뺅
뺌
뺍
뺏
뺐
뺑
뺒
뺓
뺔
뺕
뺗
뺘
뺙
뺜
뺠
뺨
뺩
뺫
뺭
뺴
뺵
뺶
뺸
뺼
뻄
뻇
뻈
뻉
뻐
뻑
뻒
뻔
뻕
뻖
뻗
뻘
뻙
뻟
뻠
뻡
뻣
뻤
뻥
뻦
뻨
뻩
뻫
뻬
뻭
뻰
뻴
뻼
뻿
뼀
뼁
뼈
뼉
뼊
뼌
뼏
뼐
뼘
뼙
뼛
뼜
뼝
뼡
뼤
뼥
뼷
뽀
뽁
뽂
뽄
뽇
뽈
뽐
뽑
뽒
뽓
뽕
뽖
뽘
뽚
뽛
뽜
뽝
뽠
뽤
뽥
뽫
뽭
뽯
뽰
뽱
뽷
뽸
뽹
뾀
뾍
뾔
뾕
뾘
뾜
뾥
뾰
뾱
뾴
뾸
뿀
뿁
뿃
뿅
뿌
뿍
뿎
뿐
뿑
뿓
뿔
뿕
뿛
뿜
뿝
뿟
뿠
뿡
뿤
뿥
뿧
뿨
뿩
뿰
뿽
쀄
쀅
쀌
쀍
쀙
쀠
쀨
쀵
쀼
쀽
쀾
쁀
쁄
쁌
쁍
쁑
쁘
쁙
쁜
쁝
쁟
쁠
쁨
쁩
쁫
쁭
쁮
쁴
쁸
쁼
삉
삐
삑
삒
삔
삗
삘
삠
삡
삣
삤
삥
삦
삧
삩
사
삭
삮
삯
산
삱
삲
삳
살
삵
삶
삷
삸
삹
삺
삻
삼
삽
삾
삿
샀
상
샂
샃
샄
샅
샆
샇
새
색
샊
샋
샌
샎
샏
샐
샑
샒
샓
샔
샕
샗
샘
샙
샚
샛
샜
생
샞
샟
샠
샡
샢
샣
샤
샥
샦
샨
샫
샬
샮
샴
샵
샷
샸
샹
샼
샽
샾
샿
섀
섁
섂
섃
섄
섈
섉
섊
섐
섑
섓
섔
섕
섘
서
석
섞
섟
선
섡
섢
섣
설
섥
섦
섧
섨
섩
섪
섫
섬
섭
섮
섯
섰
성
섲
섳
섴
섵
섶
섷
세
섹
섺
섻
센
섽
섿
셀
셁
셅
셇
셈
셉
셊
셋
셌
셍
셎
셏
셐
셑
셒
셓
셔
셕
셖
션
셜
셟
셤
셥
셧
셨
셩
셫
셬
셭
셮
셯
셰
셱
셲
셴
셷
셸
솀
솁
솃
솄
솅
솈
솉
솊
소
속
솎
솏
손
솑
솒
솓
솔
솕
솖
솛
솜
솝
솞
솟
솠
송
솢
솣
솤
솥
솦
솧
솨
솩
솬
솰
솸
솹
솻
솼
솽
쇄
쇅
쇆
쇇
쇈
쇌
쇔
쇕
쇗
쇘
쇙
쇜
쇟
쇠
쇡
쇢
쇣
쇤
쇨
쇰
쇱
쇳
쇴
쇵
쇸
쇼
쇽
숀
숄
숌
숍
숏
숐
숑
숒
숔
숕
숖
숗
수
숙
숚
순
숝
숟
술
숡
숢
숤
숧
숨
숩
숫
숬
숭
숮
숯
숰
숱
숲
숳
숴
숵
숶
숸
숼
쉄
쉅
쉆
쉇
쉈
쉉
쉌
쉐
쉑
쉒
쉓
쉔
쉗
쉘
쉙
쉛
쉜
쉠
쉡
쉣
쉤
쉥
쉧
쉨
쉩
쉪
쉫
쉬
쉭
쉮
쉰
쉲
쉳
쉴
쉻
쉼
쉽
쉾
쉿
슀
슁
슂
슄
슅
슆
슇
슈
슉
슊
슌
슏
슐
슘
슙
슛
슜
슝
슠
슢
스
슥
슦
슧
슨
슩
슫
슬
슭
슮
슯
슰
슲
슳
슴
습
슶
슷
슸
승
슺
슻
슼
슽
슾
슿
싀
싁
싄
싅
싆
싇
싈
싐
싑
싓
싕
싘
싚
시
식
싞
싟
신
싡
싢
싣
실
싥
싦
싧
싨
싩
싪
싫
심
십
싮
싯
싰
싱
싲
싳
싴
싵
싶
싷
싸
싹
싺
싻
싼
싾
싿
쌀
쌂
쌃
쌇
쌈
쌉
쌊
쌋
쌌
쌍
쌎
쌐
쌑
쌒
쌓
쌔
쌕
쌖
쌗
쌘
쌛
쌜
쌝
쌤
쌥
쌧
쌨
쌩
쌬
쌭
쌯
쌰
쌱
쌲
쌴
쌸
썀
썁
썃
썄
썅
썊
썋
썌
썍
썎
썐
썖
썜
썝
썟
썠
썡
썤
써
썩
썪
썫
썬
썯
썰
썱
썸
썹
썻
썼
썽
썾
쎀
쎁
쎃
쎄
쎅
쎆
쎇
쎈
쎌
쎍
쎐
쎓
쎔
쎕
쎗
쎘
쎙
쎜
쎝
쎟
쎠
쎡
쎢
쎤
쎨
쎰
쎱
쎳
쎴
쎵
쎼
쎽
쎾
쏀
쏃
쏌
쏍
쏏
쏐
쏔
쏕
쏖
쏗
쏘
쏙
쏚
쏜
쏟
쏠
쏨
쏩
쏫
쏬
쏭
쏮
쏰
쏱
쏳
쏴
쏵
쏸
쏼
쐄
쐅
쐇
쐈
쐉
쐏
쐐
쐑
쐒
쐔
쐘
쐡
쐣
쐤
쐥
쐨
쐬
쐭
쐰
쐴
쐼
쐽
쐿
쑀
쑁
쑈
쑉
쑌
쑏
쑐
쑙
쑛
쑜
쑝
쑤
쑥
쑦
쑨
쑫
쑬
쑴
쑵
쑷
쑹
쑻
쑼
쑽
쑿
쒀
쒁
쒂
쒄
쒈
쒐
쒑
쒓
쒔
쒕
쒘
쒜
쒝
쒞
쒠
쒤
쒭
쒯
쒰
쒱
쒴
쒸
쒹
쒼
쓀
쓃
쓈
쓉
쓊
쓋
쓌
쓍
쓏
쓐
쓑
쓒
쓔
쓕
쓘
쓜
쓤
쓥
쓧
쓩
쓰
쓱
쓲
쓴
쓶
쓷
쓸
쓹
쓺
쓿
씀
씁
씂
씃
씄
씅
씆
씈
씉
씊
씋
씌
씍
씐
씔
씗
씜
씝
씞
씟
씡
씢
씥
씦
씧
씨
씩
씪
씬
씮
씯
씰
씱
씳
씶
씷
씸
씹
씺
씻
씼
씽
씾
씿
앀
앁
앂
앃
아
악
앆
앇
안
앉
않
앋
알
앍
앎
앏
앐
앑
앒
앓
암
압
앖
앗
았
앙
앚
앛
앜
앝
앞
앟
애
액
앢
앤
앦
앧
앨
앩
앰
앱
앲
앳
앴
앵
앶
앷
앸
앹
앺
앻
야
약
앾
앿
얀
얁
얂
얃
얄
얅
얆
얇
얉
얊
얋
얌
얍
얎
얏
얐
양
얒
얓
얔
얕
얖
얗
얘
얙
얚
얜
얠
얨
얩
얪
얫
얬
얭
얮
얰
얳
어
억
얶
얷
언
얹
얺
얻
얼
얽
얾
얿
엀
엂
엃
엄
업
없
엇
었
엉
엊
엋
엌
엍
엎
엏
에
엑
엒
엓
엔
엕
엗
엘
엙
엠
엡
엢
엣
엤
엥
엦
엧
엨
엩
엪
엫
여
역
엮
엯
연
엱
엲
엳
열
엵
엶
엷
엸
엹
엺
엻
염
엽
엾
엿
였
영
옂
옃
옄
옅
옆
옇
예
옉
옊
옌
옐
옒
옘
옙
옛
옜
옝
옞
옟
옠
옢
옣
오
옥
옦
옧
온
옩
옪
옫
올
옭
옮
옯
옰
옱
옲
옳
옴
옵
옶
옷
옸
옹
옺
옻
옼
옽
옾
옿
와
왁
왂
완
왅
왆
왇
왈
왉
왐
왑
왒
왓
왔
왕
왖
왗
왘
왙
왚
왛
왜
왝
왞
왠
왢
왤
왬
왭
왯
왰
왱
왲
왳
왴
왶
외
왹
왼
욀
욈
욉
욋
욌
욍
욎
욏
욐
욓
요
욕
욖
욗
욘
욛
욜
욤
욥
욧
욨
용
욪
욫
욬
욭
욮
욯
우
욱
욲
운
욵
욶
욷
울
욹
욺
욻
욼
욽
욾
욿
움
웁
웂
웃
웄
웅
웆
웇
웈
웉
웊
웋
워
웍
웎
원
웑
웒
웓
월
웕
웖
웗
웘
웚
웛
웜
웝
웞
웟
웠
웡
웢
웤
웥
웦
웧
웨
웩
웪
웬
웰
웱
웸
웹
웻
웼
웽
윀
윁
윂
위
윅
윈
윋
윌
윔
윕
윖
윗
윘
윙
윚
윛
윜
윝
윟
유
육
윢
윣
윤
윥
윧
율
윪
윯
윰
윱
윲
윳
윴
융
윶
윷
윸
윹
윺
윻
으
윽
윾
윿
은
읁
읂
읃
을
읅
읆
읇
읈
읉
읊
읋
음
읍
읎
읏
읐
응
읒
읓
읔
읕
읖
읗
의
읙
읜
읟
읠
읨
읩
읪
읫
읬
읭
읮
읯
읰
읱
읲
읳
이
익
읶
읷
인
읹
읺
읻
일
읽
읾
읿
잀
잁
잂
잃
임
입
잆
잇
있
잉
잊
잋
잌
잍
잎
잏
자
작
잒
잓
잔
잕
잖
잗
잘
잙
잚
잛
잜
잝
잞
잟
잠
잡
잢
잣
잤
장
잦
잧
잨
잩
잪
잫
재
잭
잮
잰
잲
잳
잴
잼
잽
잾
잿
쟀
쟁
쟂
쟃
쟄
쟅
쟆
쟇
쟈
쟉
쟊
쟌
쟎
쟏
쟐
쟗
쟘
쟙
쟛
쟜
쟝
쟞
쟟
쟠
쟡
쟣
쟤
쟥
쟨
쟬
쟴
쟵
쟸
쟹
쟼
저
적
젂
젃
전
젅
젆
젇
절
젉
젊
젋
젌
젍
젎
젏
점
접
젒
젓
젔
정
젖
젗
젘
젙
젚
젛
제
젝
젞
젠
젡
젣
젤
젫
젬
젭
젯
젰
젱
젲
젳
젴
젵
젶
젷
져
젹
젺
젼
젾
젿
졀
졁
졂
졈
졉
졊
졋
졌
졍
졎
졏
졐
졑
졓
졔
졘
졜
졧
졨
졩
조
족
졲
졳
존
졵
졶
졷
졸
졹
졺
졻
졼
졽
졾
졿
좀
좁
좂
좃
좄
종
좆
좇
좈
좉
좊
좋
좌
좍
좎
좐
좒
좓
좔
좜
좝
좟
좠
좡
좢
좣
좤
좥
좦
좧
좨
좩
좪
좫
좬
좭
좮
좯
좰
좱
좸
좻
좼
좽
죂
죃
죄
죅
죈
죋
죌
죍
죔
죕
죖
죗
죘
죙
죚
죜
죝
죟
죠
죡
죢
죣
죤
죧
죨
죰
죱
죳
죴
죵
죶
죷
죸
죹
죺
죻
주
죽
죾
죿
준
줁
줂
줃
줄
줅
줆
줈
줉
줊
줋
줌
줍
줎
줏
줐
중
줒
줓
줔
줕
줖
줗
줘
줙
줚
줜
줝
줟
줠
줨
줩
줫
줬
줭
줮
줯
줰
줱
줳
줴
줵
줸
줼
쥄
쥅
쥇
쥈
쥉
쥐
쥑
쥔
쥗
쥘
쥠
쥡
쥣
쥤
쥥
쥦
쥨
쥫
쥬
쥭
쥰
쥳
쥴
쥼
쥽
쥿
즀
즁
즂
즄
즇
즈
즉
즋
즌
즏
즐
즑
즘
즙
즛
즜
증
즞
즟
즠
즡
즣
즤
즥
즨
즬
즮
즴
즵
즶
즷
즹
즺
즼
지
직
짂
짃
진
짅
짆
짇
질
짉
짊
짋
짌
짍
짎
짏
짐
집
짒
짓
짔
징
짖
짗
짘
짙
짚
짛
짜
짝
짞
짠
짢
짣
짤
짥
짦
짧
짪
짫
짬
짭
짮
짯
짰
짱
짲
짳
짴
짵
짶
짷
째
짹
짺
짼
짾
짿
쨀
쨈
쨉
쨋
쨌
쨍
쨎
쨐
쨓
쨔
쨕
쨘
쨚
쨜
쨟
쨤
쨥
쨧
쨨
쨩
쨰
쨱
쨴
쩁
쩃
쩄
쩅
쩌
쩍
쩎
쩐
쩒
쩓
쩔
쩖
쩗
쩘
쩜
쩝
쩞
쩟
쩠
쩡
쩢
쩣
쩤
쩥
쩦
쩧
쩨
쩩
쩬
쩰
쩸
쩹
쩻
쩼
쩽
쪄
쪅
쪈
쪌
쪔
쪕
쪗
쪘
쪙
쪚
쪠
쪰
쪱
쪵
쪹
쪻
쪼
쪽
쪾
쪿
쫀
쫃
쫄
쫅
쫌
쫍
쫏
쫐
쫑
쫒
쫓
쫔
쫕
쫖
쫗
쫘
쫙
쫚
쫛
쫜
쫟
쫠
쫤
쫨
쫩
쫫
쫬
쫭
쫮
쫴
쫵
쬈
쬎
쬐
쬑
쬔
쬘
쬠
쬡
쬤
쬥
쬧
쬬
쬭
쬮
쬰
쬳
쬴
쬼
쬽
쬿
쭀
쭁
쭂
쭃
쭄
쭅
쭈
쭉
쭊
쭌
쭏
쭐
쭕
쭘
쭙
쭛
쭜
쭝
쭞
쭟
쭠
쭤
쭥
쭨
쭫
쭬
쭭
쭵
쭷
쭸
쭹
쭻
쭿
쮀
쮁
쮑
쮓
쮜
쮝
쮠
쮡
쮤
쮭
쮱
쮸
쮹
쮼
쯀
쯈
쯉
쯋
쯍
쯔
쯕
쯘
쯛
쯜
쯤
쯥
쯧
쯨
쯩
쯪
쯫
쯭
쯮
쯯
쯰
쯱
쯴
찁
찅
찌
찍
찎
찏
찐
찒
찓
찔
찗
찜
찝
찟
찠
찡
찢
찣
찤
찥
찦
찧
차
착
찪
찫
찬
찭
찮
찯
찰
찱
찲
찳
찴
찵
찶
찷
참
찹
찻
찼
창
찾
찿
챀
챁
챂
챃
채
책
챇
챈
챊
챋
챌
챔
챕
챗
챘
챙
챚
챜
챠
챡
챤
챦
챨
챯
챰
챱
챳
챴
챵
챶
챸
챻
챼
챽
첀
첐
첑
처
척
첛
천
첝
첞
첟
철
첡
첢
첣
첤
첥
첦
첧
첨
첩
첪
첫
첬
청
첮
첯
첰
첱
첲
첳
체
첵
첸
첻
첼
쳄
쳅
쳇
쳈
쳉
쳊
쳋
쳌
쳏
쳐
쳑
쳒
쳔
쳗
쳘
쳠
쳡
쳢
쳣
쳤
쳥
쳦
쳧
쳨
쳫
쳬
쳰
쳴
촀
촁
초
촉
촌
촏
촐
촘
촙
촛
촜
총
촞
촟
촠
촡
촣
촤
촥
촨
촪
촬
촮
촰
촴
촵
촷
촸
촹
쵀
쵁
쵄
쵕
최
쵝
쵠
쵤
쵭
쵮
쵯
쵱
쵲
쵴
쵸
쵹
쵼
춀
춈
춉
춋
춌
춍
춎
춏
춑
추
축
춘
춚
춛
출
춝
춞
춟
춠
춡
춢
춣
춤
춥
춧
춨
충
춪
춫
춬
춭
춮
춯
춰
춱
춴
춸
췁
췃
췄
췅
췆
췌
췍
췐
췝
췟
췠
췡
췤
취
췩
췬
췰
췸
췹
췻
췼
췽
췾
츀
츃
츄
츅
츈
츌
츔
츕
츗
츙
츠
측
츤
츧
츨
츩
츰
츱
츳
츴
층
츶
츷
츸
츼
츽
칀
칄
칌
칍
칏
칑
치
칙
칚
친
칝
칞
칟
칠
칡
칢
칤
칧
침
칩
칪
칫
칬
칭
칮
칯
칰
칱
칲
칳
카
칵
칶
칸
칻
칼
캄
캅
캆
캇
캈
캉
캊
캌
캍
캎
캏
캐
캑
캔
캘
캠
캡
캢
캣
캤
캥
캨
캩
캪
캬
캭
캮
캰
캴
캼
캽
캿
컀
컁
컄
컈
컜
커
컥
컨
컫
컬
컴
컵
컶
컷
컸
컹
컺
컼
컽
컾
컿
케
켁
켄
켇
켈
켐
켑
켓
켔
켕
켖
켘
켙
켚
켛
켜
켝
켞
켠
켣
켤
켥
켬
켭
켯
켰
켱
켲
켴
켵
켷
켸
켹
콀
콉
콋
콌
콍
코
콕
콘
콛
콜
콢
콣
콤
콥
콦
콧
콩
콪
콫
콬
콭
콮
콯
콰
콱
콲
콴
콸
쾀
쾃
쾅
쾈
쾌
쾍
쾐
쾒
쾔
쾡
쾤
쾨
쾩
쾬
쾰
쾽
쿄
쿈
쿌
쿔
쿕
쿗
쿙
쿜
쿠
쿡
쿤
쿧
쿨
쿪
쿯
쿰
쿱
쿳
쿵
쿸
쿹
쿺
쿼
쿽
퀀
퀄
퀌
퀍
퀏
퀐
퀑
퀘
퀙
퀜
퀠
퀫
퀭
퀰
퀴
퀵
퀸
퀻
퀼
큄
큅
큇
큉
큌
큍
큐
큑
큔
큘
큠
큡
큣
큥
큨
크
큭
큮
큰
큱
큲
큳
클
큵
큹
큻
큼
큽
큿
킀
킁
킂
킄
킅
킇
킈
킉
킌
킐
킘
킝
킠
키
킥
킦
킧
킨
킫
킬
킴
킵
킷
킸
킹
킺
킼
킽
킾
킿
타
탁
탂
탄
탅
탆
탇
탈
탉
탊
탋
탌
탍
탏
탐
탑
탒
탓
탔
탕
탖
탗
탘
탙
탚
탛
태
택
탟
탠
탣
탤
탬
탭
탯
탰
탱
탲
탴
탵
탶
탷
탸
탹
탼
턀
턈
턉
턋
턍
턔
턕
턘
턩
터
턱
턴
턷
털
턹
턺
텀
텁
텂
텃
텄
텅
텆
텇
텈
텉
텊
텋
테
텍
텐
텓
텔
템
텝
텟
텠
텡
텢
텣
텤
텥
텦
텧
텨
텩
텬
텰
텸
텹
텻
텼
텽
톃
톄
톅
톈
톌
톔
토
톡
톤
톧
톨
톩
톰
톱
톲
톳
통
톶
톷
톸
톹
톺
톻
톼
톽
퇀
퇄
퇍
퇏
퇑
퇔
퇘
퇙
퇜
퇩
퇫
퇬
퇭
퇮
퇰
퇱
퇳
퇴
퇵
퇶
퇸
퇼
툄
툅
툇
툈
툉
툊
툌
툏
툐
툑
툠
툥
투
툭
툰
툳
툴
툻
툼
툽
툿
퉁
퉂
퉄
퉅
퉆
퉈
퉉
퉌
퉐
퉛
퉜
퉝
퉤
퉥
퉨
퉬
퉯
퉴
퉵
퉷
퉸
퉹
퉺
퉼
퉽
퉾
퉿
튀
튁
튄
튈
튐
튑
튓
튔
튕
튘
튛
튜
튝
튠
튤
튬
튭
튱
트
특
튺
튻
튼
튽
튿
틀
틁
틂
틅
틇
틈
틉
틊
틋
틍
틎
틏
틐
틑
틒
틓
틔
틕
틘
틜
틤
틧
틩
티
틱
틴
틷
틸
팀
팁
팃
팄
팅
팆
팈
팉
팊
파
팍
팎
팏
판
팑
팒
팓
팔
팕
팖
팗
팘
팚
팛
팜
팝
팟
팠
팡
팢
팣
팤
팥
팦
팧
패
팩
팬
팯
팰
팸
팹
팻
팼
팽
퍀
퍁
퍄
퍅
퍈
퍌
퍔
퍘
퍙
퍛
퍝
퍠
퍡
퍤
퍵
퍼
퍽
펀
펃
펄
펅
펌
펍
펏
펐
펑
펒
펔
펕
펖
펗
페
펙
펜
펟
펠
펨
펩
펫
펬
펭
펰
펲
펴
펵
편
펹
펺
펻
펼
폄
폅
폇
폈
평
폊
폌
폍
폏
폐
폑
폔
폘
폠
폡
폣
폥
폦
폨
포
폭
폮
폯
폰
폳
폴
폼
폽
폿
퐁
퐂
퐄
퐅
퐆
퐇
퐈
퐉
퐌
퐐
퐘
퐙
퐛
퐜
퐝
퐞
퐠
퐤
퐥
푀
푁
푄
푈
푕
표
푝
푠
푣
푤
푬
푭
푯
푱
푲
푴
푶
푷
푸
푹
푼
푿
풀
풁
풂
풇
품
풉
풋
풍
풎
풐
풑
풒
풓
풔
풕
풘
풜
풨
풩
풰
풱
풴
풸
퓅
퓌
퓍
퓐
퓔
퓜
퓟
퓡
퓨
퓩
퓬
퓰
퓸
퓹
퓻
퓽
픂
프
픅
픈
픋
플
픎
픔
픕
픖
픗
픙
픚
픜
픝
픞
픟
픠
픤
픨
픵
피
픽
핀
핃
필
핅
핆
핈
핋
핌
핍
핏
핐
핑
핒
핓
핔
핕
핖
핗
하
학
핚
핛
한
핝
핞
핟
할
핡
핢
핣
핤
핥
핦
핧
함
합
핪
핫
핬
항
핮
핯
핰
핱
핲
핳
해
핵
핶
핷
핸
핺
핻
핼
핽
햄
햅
햇
했
행
햊
햋
햌
햍
햎
햏
햐
햑
햔
햗
햘
햙
햚
햛
햝
햞
햟
햠
햡
햣
햤
향
햨
햩
햫
햬
햭
햰
햴
햽
햿
헀
헁
허
헉
헊
헌
헍
헏
헐
헑
헒
헓
헔
헕
헗
험
헙
헚
헛
헜
헝
헞
헠
헡
헢
헣
헤
헥
헦
헨
헫
헬
헭
헴
헵
헷
헸
헹
헼
헾
헿
혀
혁
혂
혃
현
혅
혇
혈
혌
혐
협
혒
혓
혔
형
혖
혘
혙
혚
혛
혜
혝
혠
혣
혤
혬
혭
혯
혰
혱
혲
혴
호
혹
혻
혼
혽
혾
혿
홀
홁
홅
홇
홈
홉
홋
홍
홎
홐
홑
홒
홓
화
확
홖
홗
환
홙
홛
활
홝
홞
홟
홠
홡
홣
홤
홥
홧
홨
황
홪
홬
홭
홮
홯
홰
홱
홴
홸
횃
횄
횅
회
획
횐
횓
횔
횜
횝
횞
횟
횠
횡
횢
횤
횦
횧
효
횩
횬
횰
횸
횹
횻
횽
훀
훃
후
훅
훈
훉
훋
훌
훍
훏
훑
훒
훓
훔
훕
훗
훙
훚
훛
훜
훝
훞
훟
훠
훡
훤
훨
훪
훬
훯
훰
훱
훳
훴
훵
훸
훻
훼
훽
휀
휄
휌
휏
휐
휑
휔
휘
휙
휜
휟
휠
휨
휩
휫
휭
휰
휲
휳
휴
휵
휸
휼
흄
흅
흇
흉
흊
흌
흏
흐
흑
흒
흓
흔
흖
흗
흘
흙
흜
흝
흟
흠
흡
흣
흥
흦
흨
흩
흪
흫
희
흭
흰
흳
흴
흼
흽
흿
힁
힂
힄
히
힉
힌
힏
힐
힑
힒
힕
힗
힘
힙
힛
힜
힝
힞
힟
힠
힡
힢
힣
％
##데
##쓰
##동
##하
##든
##가
##주
##먼
##지
##들
##의
##사
##법
##판
##례
##연
##구
##i
##e
##s
##고
##따
##는
##무
##원
##면
##될
##텐
##겨
##맞
##것
##도
##마
##경
##을
##쿠
##보
##바
##신
##이
##심
##전
##혀
##없
##다
##답
##인
##를
##단
##해
##서
##결
##정
##츠
##에
##란
##축
##제
##뤄
##놓
##은
##걸
##앗
##던
##햇
##겟
##죠
##격
##적
##라
##샤
##와
##커
##갈
##안
##코
##리
##야
##선
##레
##배
##용
##으
##로
##비
##근
##성
##국
##민
##봐
##할
##수
##있
##만
##요
##잉
##뿡
##밴
##드
##천
##받
##았
##거
##나
##시
##몇
##년
##뒤
##한
##자
##어
##났
##광
##피
##반
##되
##록
##화
##같
##생
##살
##계
##셨
##네
##기
##과
##당
##내
##씨
##완
##장
##질
##그
##합
##문
##잠
##식
##카
##르
##찰
##좋
##했
##개
##탓
##겠
##족
##우
##미
##회
##본
##대
##봤
##풍
##었
##술
##l
##위
##임
##물
##현
##놈
##짓
##말
##니
##재
##입
##0
##퍼
##일
##까
##듯
##킹
##날
##페
##1
##6
##권
##꾼
##새
##퀴
##활
##색
##2
##번
##휴
##양
##림
##룡
##둔
##병
##력
##냐
##험
##증
##텡
##f
##u
##a
##태
##빨
##갱
##충
##스
##작
##폐
##께
##오
##m
##b
##r
##W
##준
##감
##품
##금
##g
##아
##소
##역
##부
##공
##맘
##먹
##음
##클
##린
##협
##조
##책
##암
##게
##크
##허
##좀
##교
##체
##o
##t
##c
##y
##건
##토
##후
##때
##엣
##터
##값
##차
##쟁
##강
##략
##유
##러
##올
##즘
##누
##옛
##처
##럼
##런
##습
##봄
##매
##돼
##키
##테
##홍
##창
##곳
##급
##려
##칭
##호
##잖
##초
##존
##학
##희
##졸
##업
##베
##랑
##세
##K
##O
##즙
##껴
##줬
##쳐
##케
##간
##끓
##킨
##딱
##티
##였
##진
##상
##환
##슈
##엘
##뽑
##흉
##집
##짬
##봉
##평
##등
##열
##느
##3
##별
##챙
##않
##승
##악
##취
##래
##F
##G
##저
##치
##길
##앉
##버
##편
##써
##n
##C
##d
##릿
##짜
##산
##목
##표
##함
##더
##꼬
##여
##막
##똥
##노
##님
##된
##순
##포
##남
##행
##론
##방
##깨
##몰
##죄
##군
##겜
##추
##잘
##십
##9
##5
##4
##A
##죽
##루
##눠
##월
##약
##료
##항
##농
##첩
##관
##쪽
##파
##잇
##늘
##꼴
##난
##종
##능
##갔
##두
##줘
##뚜
##름
##큼
##율
##쌍
##렁
##텅
##명
##분
##영
##억
##최
##닙
##벨
##형
##프
##청
##률
##찌
##밥
##멜
##엽
##퇴
##벌
##뻔
##히
##줄
##친
##뜨
##녀
##S
##귀
##못
##알
##듣
##떤
##왕
##망
##맛
##각
##찹
##중
##렙
##션
##징
##북
##흥
##7
##쑥
##트
##끼
##곰
##디
##싶
##갑
##겁
##힘
##람
##즈
##응
##출
##켜
##v
##h
##며
##설
##웠
##통
##예
##렸
##총
##팔
##너
##발
##숲
##패
##잔
##혁
##틀
##첸
##울
##석
##읍
##옵
##량
##믄
##R
##섹
##뿐
##센
##균
##홀
##셔
##얘
##익
##삼
##뮤
##극
##투
##곡
##씻
##믈
##랙
##모
##참
##릉
##탈
##팍
##욧
##외
##됐
##엔
##냈
##넘
##8
##검
##덜
##칠
##직
##움
##걱
##슬
##픔
##애
##p
##채
##독
##돌
##앤
##땠
##혼
##뷰
##립
##육
##져
##규
##철
##팀
##찬
##숙
##황
##득
##Y
##류
##빠
##른
##캐
##B
##덕
##벽
##뻐
##쥐
##섁
##놧
##팽
##향
##녔
##운
##랐
##놨
##폭
##뀐
##콩
##냄
##팬
##x
##I
##렷
##템
##봅
##졌
##락
##켁
##돈
##달
##줌
##워
##릴
##글
##졷
##효
##백
##맨
##념
##견
##k
##불
##껏
##벤
##또
##럽
##째
##즌
##깜
##잼
##변
##속
##밤
##믿
##땐
##훈
##련
##혹
##즐
##뺏
##밖
##령
##델
##착
##획
##왜
##온
##밝
##귝
##졋
##꺼
##김
##큰
##똑
##쓴
##뭐
##캡
##틴
##뭔
##높
##췄
##M
##절
##맡
##맙
##곱
##넷
##송
##옆
##핀
##밀
##뭌
##팅
##밉
##압
##브
##뤼
##므
##붕
##뇌
##메
##쩜
##슘
##닥
##섰
##실
##탄
##객
##점
##펠
##늦
##썩
##꺠
##박
##필
##논
##닐
##싫
##타
##굴
##머
##특
##혜
##앙
##N
##끊
##켓
##몬
##삿
##갸
##왓
##밌
##랜
##잡
##쎄
##슷
##겻
##렇
##듀
##딕
##갖
##싸
##염
##흡
##땀
##확
##쨉
##짐
##춘
##깐
##담
##눈
##빛
##엇
##빌
##플
##좌
##셰
##큐
##흐
##j
##닭
##괜
##X
##슥
##복
##혈
##왔
##놀
##룰
##맥
##측
##랄
##떠
##끝
##짤
##렌
##쉬
##낼
##쇼
##씀
##옹
##언
##많
##껀
##놔
##뢰
##륜
##겄
##롭
##짠
##닉
##택
##옥
##꾸
##웨
##콘
##널
##쁘
##층
##덱
##떼
##뇮
##컷
##뉴
##땅
##얼
##촌
##골
##침
##냥
##웃
##낌
##손
##슴
##P
##쁜
##륙
##척
##츙
##L
##듭
##롱
##랍
##챗
##긴
##룬
##늄
##액
##촉
##럭
##및
##깍
##쭌
##낸
##귄
##혐
##헌
##씩
##뿍
##접
##뜻
##굽
##밸
##딸
##뱅
##빡
##쟈
##쫑
##킥
##둑
##탱
##꿀
##끔
##융
##먄
##늬
##헤
##H
##늠
##렀
##쥬
##칩
##링
##곽
##롬
##q
##볼
##쵸
##앰
##뜩
##쇄
##짘
##끄
##헬
##닝
##핵
##떻
##쓸
##톡
##찍
##힌
##뿔
##빵
##찾
##퓨
##닌
##궁
##꼽
##넹
##낀
##블
##∼
##끈
##픈
##녜
##랴
##멍
##닫
##렬
##깩
##묘
##낫
##줍
##벙
##눔
##댕
##핸
##멸
##녹
##엄
##쟎
##쉐
##뀌
##폰
##벅
##켰
##U
##꿔
##떪
##삶
##돕
##윤
##꽃
##톤
##겼
##젠
##댓
##숴
##몫
##깊
##욕
##릭
##Z
##뵤
##엉
##럴
##횡
##썬
##팩
##냨
##잊
##납
##욱
##묶
##렘
##범
##뻥
##딩
##촬
##휘
##켯
##랬
##껄
##숩
##묵
##튠
##룹
##줫
##캠
##돔
##긔
##픽
##겸
##흫
##뿌
##엿
##쫌
##힐
##숨
##묭
##칸
##둘
##렐
##묻
##핍
##풀
##찿
##뽁
##톨
##쿄
##D
##댈
##앞
##맼
##덴
##폴
##T
##롯
##릇
##뱉
##곤
##싯
##왠
##뽀
##뻘
##쳤
##컬
##낮
##춰
##쯤
##퉁
##빙
##짖
##밍
##뽕
##솔
##듴
##쩍
##덩
##낗
##푼
##씌
##z
##젊
##쉽
##똘
##잫
##J
##E
##씝
##괴
##핑
##됫
##밑
##V
##됩
##텔
##셧
##쁨
##밭
##펀
##튜
##흘
##뜰
##빗
##깔
##쉭
##넣
##낭
##빈
##흙
##깁
##짝
##좆
##낰
##빼
##찔
##렛
##벡
##찮
##떡
##벋
##튀
##붉
##킬
##둡
##옴
##뎠
##튼
##멘
##팁
##킷
##뵐
##램
##렴
##뭄
##샀
##댜
##Q
##폼
##쌋
##쪄
##갇
##됨
##딨
##띄
##띁
##몔
##첟
##섬
##칼
##쪼
##밟
##샘
##켕
##멋
##쩝
##펌
##좃
##굿
##햐
##캣
##벳
##벼
##끗
##펙
##슨
##웅
##꿧
##겇
##뀔
##닼
##둬
##됬
##녓
##냅
##땡
##띠
##털
##혔
##겎
##셀
##걩
##웜
##밪
##뱀
##쏠
##떨
##둥
##뻑
##쩌
##푸
##촛
##쇠
##깃
##긋
##돗
##탁
##뗀
##랖
##룩
##낚
##찡
##썽
##깠
##옷
##렵
##꼰
##숭
##샛
##컨
##셉
##앵
##콜
##녕
##랫
##뎈
##슐
##썻
##넴
##삭
##윕
##땃
##벗
##퀘
##콤
##싹
##몽
##쿤
##욜
##꿈
##넼
##탐
##퀸
##맹
##뇨
##슛
##겧
##릅
##탕
##쓤
##똬
##겐
##읽
##꾹
##섯
##섞
##갬
##읐
##뭇
##왑
##뱃
##낡
##껑
##냇
##칙
##싱
##쏵
##퍽
##뭉
##괸
##렉
##깈
##훔
##첬
##켈
##밈
##챘
##퓰
##맏
##떄
##턴
##뭘
##믹
##댔
##뒷
##끠
##딘
##팝
##얌
##쌈
##뺑
##땽
##쑈
##좨
##얻
##윈
##궍
##긍
##섭
##홈
##훠
##w
##괄
##캍
##뎌
##짼
##잣
##튬
##읁
##븐
##텍
##끌
##늧
##엑
##퇘
##짱
##뛰
##줏
##햏
##깅
##쭐
##딜
##맺
##챠
##씹
##빩
##쑤
##늙
##땜
##딥
##댐
##낙
##닠
##쩡
##뻗
##촐
##햑
##랩
##넨
##찐
##삽
##겹
##횩
##됌
##킴
##뱡
##멀
##볻
##뼈
##얄
##씬
##샌
##얽
##깟
##쌩
##냔
##갓
##캬
##겆
##콥
##깬
##쏘
##롤
##껐
##쥼
##뢀
##뇽
##뗘
##룸
##붙
##쌤
##뇬
##맵
##랭
##팡
##닦
##엥
##넉
##얀
##겡
##쭉
##댬
##듬
##첫
##즉
##핏
##궤
##꽈
##흗
##벚
##솜
##텻
##푹
##뎁
##앳
##홉
##덮
##봇
##띵
##펄
##챽
##깡
##븅
##쉴
##샊
##닳
##젓
##퀄
##녁
##졎
##옮
##갚
##갯
##꺄
##츄
##굶
##앱
##탠
##뎃
##콧
##뽈
##츌
##빔
##젤
##봨
##댖
##솎
##뮨
##뮈
##돠
##굨
##싷
##흠
##쿨
##셜
##겉
##잏
##읊
##뺀
##굳
##겅
##킵
##뜯
##갰
##곸
##굉
##흔
##쫍
##젼
##핼
##덥
##팼
##컴
##탭
##쿵
##췰
##텨
##엠
##씁
##쌓
##쒸
##믕
##젝
##꼿
##빤
##쾌
##펭
##펴
##젯
##넌
##핳
##핧
##삐
##헛
##잿
##늣
##썰
##깻
##낱
##힙
##앨
##댄
##윌
##멈
##쩨
##툼
##썸
##썪
##눌
##뒹
##끙
##걷
##넸
##첨
##랼
##틱
##뱜
##뼝
##셈
##쒜
##흌
##궈
##쉓
##펫
##긃
##펜
##졍
##좊
##쇆
##썼
##좇
##늡
##쫄
##꼼
##럄
##쩔
##돞
##긱
##툰
##닿
##뷔
##묜
##틈
##쥤
##홰
##붓
##갘
##쯥
##딴
##틸
##싴
##쥴
##맀
##둿
##닮
##샵
##몸
##뵨
##꼭
##싼
##쉘
##겤
##웟
##듸
##닛
##궐
##캥
##뭣
##썹
##놋
##쟝
##톱
##얶
##풉
##쉥
##꽉
##샷
##셋
##넓
##탔
##잎
##겪
##륨
##옌
##쏟
##앴
##긧
##텝
##긁
##엮
##쌰
##굼
##닷
##섕
##뜬
##죈
##룻
##낳
##샞
##쏴
##췌
##랠
##꿍
##훗
##쨩
##툴
##갤
##쌌
##탑
##듷
##낄
##쥘
##훨
##뼛
##잆
##뜸
##볶
##깎
##쭀
##씸
##샋
##켄
##숫
##떵
##흑
##옄
##왈
##릎
##헥
##롸
##땟
##샙
##뵹
##컵
##쥽
##걀
##췬
##걍
##껍
##샥
##쉼
##돛
##뇰
##몃
##딲
##쌀
##캌
##댁
##켷
##쳬
##뱔
##섀
##둠
##덤
##샏
##웹
##춤
##떳
##슙
##쩐
##둰
##쳣
##펨
##빅
##틂
##텀
##졀
##텃
##폈
##겊
##쉰
##싄
##꿨
##뿜
##몀
##돋
##셥
##졉
##엌
##즴
##탬
##냬
##껌
##쓉
##턱
##넬
##뿟
##렼
##횐
##윙
##낯
##좦
##멤
##썅
##맷
##얐
##쿡
##빝
##왛
##넥
##쾅
##딧
##뮬
##랆
##녈
##웬
##뎅
##꺌
##첵
##쥥
##펼
##깝
##듵
##돵
##됏
##걔
##삘
##듐
##뿅
##폠
##찟
##젔
##룽
##웁
##챔
##뚱
##꽤
##헙
##껭
##솽
##웢
##쌔
##쟌
##맑
##뛓
##싀
##츰
##엊
##껬
##띨
##셩
##렪
##헨
##듦
##쥭
##랏
##빻
##캔
##밇
##잃
##칫
##멧
##츕
##죴
##뵈
##쉌
##쒴
##잤
##뛸
##툭
##딪
##셕
##꽹
##꿰
##혓
##럿
##뫕
##댠
##넛
##겦
##셸
##봣
##붐
##뚫
##싧
##쩽
##빸
##켞
##돚
##헴
##뀬
##겋
##옳
##늫
##밣
##젖
##캄
##욬
##뤘
##뫼
##궛
##됴
##윅
##햄
##닺
##샆
##윰
##휙
##빕
##냉
##냠
##꽂
##뒀
##읜
##힝
##뮹
##츼
##빰
##줴
##죡
##몹
##셍
##콕
##럐
##컥
##쨕
##멩
##뽤
##챈
##삾
##꽁
##훌
##륭
##큘
##볜
##꼐
##짹
##잙
##얏
##졈
##웰
##훼
##랔
##윗
##꼇
##쫒
##넝
##섴
##윽
##뭍
##웍
##빽
##뚝
##즁
##샠
##챵
##짭
##쓱
##눅
##눞
##덟
##뽄
##쇜
##휠
##꽝
##셌
##넜
##쉣
##팟
##찼
##뀝
##깰
##갼
##뒸
##팃
##솥
##졳
##옃
##뤠
##엲
##엎
##낵
##졔
##핥
##롈
##펑
##먁
##쌊
##샹
##랗
##밬
##훀
##얔
##핫
##뱌
##끕
##챦
##륲
##넙
##캅
##쟤
##츨
##짚
##쉑
##훽
##꺽
##쎈
##캤
##꾀
##쐨
##꿋
##굘
##덧
##뺄
##첼
##엏
##폄
##쭝
##밨
##뺌
##꿇
##앜
##겫
##읙
##곧
##혠
##띤
##멕
##쾀
##텁
##붇
##즨
##쎗
##컸
##깥
##쏭
##웡
##닊
##쓔
##찢
##빚
##톰
##폿
##쨋
##땨
##뵜
##쌘
##찜
##얹
##낑
##춧
##삥
##팤
##웎
##넵
##뮥
##껵
##겔
##맟
##셓
##퐁
##쭈
##끽
##쏜
##킸
##읓
##햅
##싳
##헀
##팸
##읏
##햔
##됄
##텟
##갭
##쇅
##츤
##쳔
##밧
##늑
##쪹
##싣
##잭
##탯
##밯
##됀
##픕
##곪
##갉
##놐
##좝
##쮸
##롄
##셴
##슌
##홧
##듓
##딤
##흰
##곘
##촙
##굷
##챕
##뎨
##챡
##숵
##쩧
##쫓
##눕
##밋
##맸
##뉘
##깽
##뵙
##멓
##쉔
##똔
##숍
##팥
##궜
##휼
##쥔
##쏙
##륵
##잦
##궂
##팜
##겝
##믾
##겈
##쁀
##뤔
##싞
##엡
##뻤
##꼈
##즞
##톼
##왼
##쯘
##잌
##꽥
##멨
##싑
##좉
##낍
##뺴
##꿘
##뀨
##쭤
##쭵
##뛴
##눙
##긩
##쀼
##밦
##쬐
##촹
##짰
##댘
##샾
##갠
##퀼
##샂
##걑
##콰
##턕
##뙤
##쁠
##뼌
##랸
##읃
##씽
##볏
##쨜
##멱
##곶
##촟
##걺
##킈
##빴
##듲
##좁
##콛
##됍
##졓
##씾
##첮
##릌
##뉸
##쾡
##솤
##깄
##헐
##봠
##뻣
##벖
##잋
##갅
##밎
##큽
##켠
##쿱
##웈
##솟
##쬬
##뎀
##엤
##틜
##떈
##씰
##캉
##곁
##댸
##틔
##먛
##쳌
##꿃
##욘
##뒈
##쥑
##맬
##룐
##뚬
##쎠
##쾈
##훤
##섲
##맴
##젹
##닸
##챤
##햬
##퐈
##툽
##빱
##멊
##욫
##븨
##챌
##쳥
##햤
##꿉
##챻
##줚
##퍄
##읭
##핝
##놥
##붜
##븥
##볌
##샴
##몈
##읻
##웩
##빳
##깤
##휩
##밷
##꿓
##먀
##냡
##쫘
##윳
##맗
##쳅
##뢸
##긌
##윘
##맣
##쓍
##샜
##쿼
##켸
##젛
##쯔
##얨
##쒝
##쨌
##엒
##켱
##걌
##죰
##핰
##뮌
##팻
##핟
##풔
##뱄
##뺠
##맍
##즤
##롕
##쭘
##쪌
##땝
##봥
##붠
##얂
##삔
##짧
##붑
##핌
##훅
##슩
##붸
##겵
##뭡
##싢
##헹
##덛
##늉
##숄
##앟
##긒
##떙
##앖
##둣
##꿩
##쌉
##밞
##팠
##잪
##떴
##궹
##늗
##캇
##렝
##잽
##샨
##셎
##캘
##읔
##칀
##롔
##쒀
##쉨
##샐
##셐
##켭
##낏
##냑
##켐
##짴
##믽
##깋
##읉
##냣
##탰
##콌
##욤
##괘
##덬
##빋
##뒥
##쌕
##쪙
##뛔
##튭
##헉
##뤌
##팹
##늪
##쐇
##괵
##괭
##칵
##낕
##잟
##띔
##잩
##쩬
##뺒
##돨
##릊
##뷐
##녘
##끋
##쟜
##눋
##죤
##떗
##눼
##벰
##쎅
##륻
##넠
##귐
##껫
##횟
##샇
##잰
##딛
##뙨
##혖
##죌
##쨓
##앚
##귤
##춥
##갆
##렿
##슼
##옇
##듈
##삑
##혚
##넺
##췃
##쟹
##젇
##꿱
##롷
##쏳
##몆
##횽
##죵
##뽜
##쐭
##앓
##뗴
##좸
##뷸
##짏
##땍
##덫
##졑
##뜽
##팰
##킼
##홞
##큭
##믜
##숑
##쌖
##돤
##숳
##왤
##꾁
##뺐
##톈
##쓥
##왚
##딬
##돱
##젾
##쎳
##괂
##젆
##튕
##곹
##쫀
##솝
##쐐
##듡
##솁
##싘
##뿝
##찝
##곜
##솰
##퀵
##핬
##띱
##솏
##딀
##섶
##긎
##텼
##낔
##쥰
##찧
##죜
##칲
##툐
##끤
##탸
##캑
##쨰
##껼
##쿰
##볍
##뚤
##늨
##딍
##냰
##킁
##뒬
##뷩
##쨔
##놉
##뎡
##맔
##퍙
##꼏
##볒
##뺨
##욌
##멥
##퉈
##돴
##뫘
##쯧
##뗙
##읖
##뫄
##낽
##삡
##땈
##둋
##컹
##켔
##탅
##욥
##됟
##뤡
##쉿
##엨
##쎜
##뺘
##첝
##뗌
##녗
##콱
##벵
##묙
##뷴
##됒
##뗐
##빧
##뙈
##젴
##졘
##옅
##헝
##슄
##갛
##밐
##윔
##춪
##왁
##뗄
##맄
##냘
##뻬
##뉼
##뼤
##톄
##쿸
##힏
##럲
##춴
##탖
##깒
##돟
##쨍
##갗
##읺
##늿
##굻
##뎐
##탤
##핶
##솨
##댱
##쯪
##홋
##쾽
##깆
##죗
##욨
##췩
##깞
##젌
##릏
##옂
##뾰
##틋
##섺
##슸
##뇸
##갣
##뭤
##뗑
##쫩
##뼉
##뻟
##캈
##묹
##풋
##귭
##늼
##샬
##휄
##쒼
##콴
##읎
##뜡
##죸
##촘
##젱
##앂
##씯
##릐
##껜
##촤
##쐑
##깢
##덞
##튄
##숟
##엾
##퉤
##봊
##겢
##줭
##믁
##땬
##읗
##몐
##붗
##닢
##팎
##샣
##랓
##웕
##섮
##텄
##긷
##댑
##쮜
##뱍
##퀀
##퓸
##뎆
##볘
##켤
##찻
##쑹
##륀
##샡
##즥
##렜
##쟙
##귴
##쐬
##슺
##콸
##퐐
##띃
##슝
##읿
##셱
##짆
##죙
##잨
##멌
##땔
##쎆
##퓌
##춠
##쾍
##쐈
##젭
##뷧
##귈
##먆
##뤈
##쉾
##슰
##뗏
##죺
##텋
##뗬
##깼
##꿂
##촨
##윸
##헵
##뒵
##긑
##탊
##쎴
##줙
##쭙
##퀜
##힂
##섉
##똵
##짪
##풰
##칰
##쎵
##렩
##퍠
##쒭
##뵬
##엦
##탂
##짔
##뢔
##줒
##짅
##뀜
##휜
##얺
##쳑
##큠
##룯
##쳦
##펍
##늛
##뜷
##됔
##좭
##벱
##쌯
##븡
##믐
##엵
##뵀
##뜀
##쒄
##맽
##셤
##쑌
##틘
##씡
##칢
##푠
##눴
##됳
##깂
##헏
##뵌
##밮
##봘
##듪
##컄
##굈
##릣
##쵝
##홎
##뭏
##쾨
##믓
##뭬
##줟
##늕
##괞
##쒯
##뚯
##뒨
##쌜
##읕
##꾜
##팏
##툉
##눚
##랯
##쓩
##굯
##앋
##쳇
##숝
##렺
##웼
##땢
##웤
##듼
##킄
##퍌
##쏃
##륌
##뵁
##걵
##쇡
##띡
##솊
##윱
##훕
##먈
##얇
##봑
##릂
##밠
##욷
##딋
##쇵
##웓
##읰
##틍
##폥
##뉜
##몌
##숏
##꽄
##챼
##튈
##댇
##꽨
##쪘
##믇
##볐
##얍
##샓
##볭
##샅
##좐
##럾
##쑽
##엪
##쟀
##놯
##쑴
##훙
##쁩
##훍
##쫙
##쉅
##숸
##읳
##욺
##봬
##렏
##쇙
##싡
##땩
##맻
##몄
##뢍
##짒
##톳
##떰
##땄
##뫗
##헼
##냧
##꺅
##깉
##옘
##헸
##쎔
##낟
##쉒
##꽅
##팕
##흩
##쭁
##굥
##닏
##뇔
##룔
##맅
##낲
##옿
##듕
##걹
##좡
##릃
##탛
##챃
##뱗
##봔
##죧
##짊
##닞
##솬
##멉
##짛
##잂
##닻
##햌
##젬
##궄
##뎔
##욍
##눟
##냌
##쉛
##킾
##퇸
##졧
##헑
##쇤
##펏
##씄
##귿
##칬
##즬
##읶
##먜
##궸
##몿
##쁭
##죹
##픙
##걕
##덀
##츅
##읅
##눜
##짯
##긂
##텽
##삱
##얜
##잗
##걋
##툥
##뽂
##뜛
##먺
##돜
##핣
##찎
##얗
##닶
##뻿
##쯕
##렄
##햿
##빢
##푝
##궙
##욯
##닾
##맢
##줰
##볕
##젰
##쵹
##갂
##닯
##벝
##롢
##쨀
##앹
##벛
##겍
##럌
##먖
##봫
##켝
##쏀
##켬
##퉜
##툅
##넋
##켴
##롘
##쌨
##엗
##솈
##탇
##짢
##냏
##윟
##돡
##탹
##힉
##슁
##뜌
##쫏
##곙
##즛
##뢴
##핮
##닜
##귱
##쪾
##젘
##욹
##횬
##쏨
##홥
##믖
##뇠
##싨
##좄
##덯
##곺
##쒔
##듥
##섳
##멒
##휀
##볗
##쉤
##쟐
##뤁
##폔
##솀
##숀
##쳡
##뎝
##옙
##븜
##꿥
##줜
##뺍
##쭠
##맠
##뉨
##젺
##긘
##슽
##쑨
##꽛
##꺙
##죶
##놏
##꿴
##깧
##힟
##뱐
##씐
##겓
##맓
##찓
##먿
##늰
##꾤
##눨
##쏱
##핡
##칡
##갋
##똫
##욵
##탉
##됭
##숼
##놘
##옐
##왗
##왰
##쑬
##쉈
##읒
##럑
##냊
##끘
##뤂
##꿕
##쑵
##헁
##뜾
##촥
##왱
##앆
##럇
##뤀
##췹
##푕
##귁
##퓔
##잕
##뫃
##헣
##좍
##뢩
##쮝
##꺾
##슭
##슉
##럈
##랰
##졿
##앶
##쳄
##툻
##흣
##잴
##셯
##굵
##뵥
##곴
##섂
##쉄
##촞
##쳘
##넚
##뽝
##뎽
##졲
##벹
##읹
##녤
##핱
##뽐
##늴
##쳉
##꼅
##싲
##눗
##좼
##됮
##얩
##앍
##봍
##훓
##쎃
##갹
##훝
##죨
##펐
##왐
##윾
##뮴
##븍
##옺
##긕
##춋
##겂
##놬
##뺩
##잓
##웒
##뷍
##롡
##귓
##껔
##짲
##돎
##룍
##햭
##혿
##쯩
##힞
##쎘
##봏
##웑
##읾
##좔
##궉
##렂
##횔
##썌
##끅
##곂
##갮
##핛
##졵
##읫
##떔
##멎
##놌
##섣
##옉
##넒
##곬
##컫
##헿
##츈
##걈
##쟨
##쌂
##흭
##쿳
##벧
##웗
##잍
##듑
##궠
##곗
##솻
##곀
##쪠
##괬
##벶
##픤
##뗜
##밄
##럱
##옶
##솢
##옫
##롲
##봌
##됑
##삣
##짋
##낶
##뇜
##딹
##렆
##촵
##늩
##얒
##긲
##둉
##칝
##떽
##묷
##읠
##쒞
##틑
##삯
##퉛
##뫈
##룟
##갞
##꽌
##욪
##궨
##볃
##뻡
##젵
##렣
##곕
##몡
##쌬
##숮
##횠
##붤
##겱
##뱓
##눤
##읋
##딫
##텬
##볎
##샚
##뷁
##햰
##덍
##륾
##꾾
##붘
##죱
##꿐
##둗
##헷
##룜
##롁
##긓
##룅
##챱
##핗
##칮
##옻
##톧
##팓
##핞
##맂
##릳
##걿
##칟
##웝
##녠
##츔
##짙
##롴
##뎬
##팣
##븋
##뱈
##춫
##볹
##푯
##씪
##훳
##롶
##벜
##땋
##긐
##렠
##뱁
##긜
##틉
##삻
##쐒
##슮
##즹
##곌
##눃
##꽐
##쎾
##닣
##앸
##쵀
##셬
##뵉
##먕
##삮
##튤
##뛌
##땁
##옢
##혰
##앎
##튿
##깦
##겭
##쳗
##삵
##옼
##묄
##횰
##쩰
##젃
##빜
##븀
##좱
##룀
##닪
##뼁
##홬
##랒
##벞
##궝
##줗
##쭸
##떘
##핽
##쌥
##퇫
##둨
##괼
##늅
##핪
##읲
##컀
##렧
##걊
##뚕
##곩
##췐
##믠
##햡
##웸
##샄
##촣
##쫗
##뜁
##흴
##녅
##갵
##셷
##랚
##왴
##닁
##훻
##휑
##롓
##웧
##슾
##띌
##푤
##됸
##묍
##롼
##뭥
##옪
##묽
##놰
##됋
##뤽
##몋
##곅
##륐
##픠
##뀄
##퐄
##슂
##쒰
##릔
##륩
##얃
##숱
##홓
##젚
##댛
##뺃
##뚥
##퇄
##햊
##켙
##솅
##귯
##쎼
##댝
##곃
##떮
##잲
##곯
##젲
##홛
##햩
##몷
##슶
##뢨
##뻇
##얆
##큵
##씃
##꺵
##혽
##뷱
##싮
##륍
##넿
##윻
##햘
##볠
##퉷
##굡
##섄
##썎
##욲
##겚
##끾
##쩟
##졜
##붖
##듫
##쳰
##쟴
##퍈
##겾
##뤗
##읆
##톻
##큱
##묠
##윚
##븹
##뱨
##봵
##툿
##릡
##봁
##냤
##앏
##녖
##쟉
##됰
##쟂
##씅
##읩
##줸
##곷
##짷
##뺵
##뭊
##풒
##쪕
##찠
##뱽
##씍
##쿌
##씼
##껕
##곻
##팛
##뱰
##걲
##뎜
##붛
##쎝
##꺀
##깸
##쇸
##햨
##쯈
##턋
##벐
##볿
##섘
##얕
##쩠
##턀
##툇
##앃
##댚
##믑
##믘
##벍
##젡
##싁
##쭷
##벎
##넀
##춣
##됝
##웆
##몼
##샸
##렭
##쇳
##쨧
##솧
##렊
##엯
##짇
##짗
##듄
##놑
##낂
##핤
##쫐
##휸
##솣
##됗
##뉠
##넖
##괒
##챜
##쯰
##앝
##낃
##젗
##힢
##괌
##횃
##듨
##뇐
##턍
##솄
##꾬
##횅
##됵
##밲
##홐
##륶
##걧
##쟬
##쇽
##낧
##뿛
##팧
##긿
##롹
##듶
##줠
##섫
##끍
##펔
##퉝
##햠
##짫
##뮐
##걐
##싈
##큳
##몾
##뇍
##읱
##맇
##듁
##뗠
##윶
##홤
##뺜
##똠
##얙
##뜝
##삳
##탼
##챁
##횄
##눳
##킅
##퓽
##즄
##쮀
##맆
##뎉
##뀠
##젙
##잒
##빏
##륄
##쭨
##뽫
##좒
##샎
##죳
##핻
##랃
##삷
##탍
##솉
##펩
##닰
##눵
##웋
##줆
##졐
##껃
##쪈
##뽠
##홑
##쇣
##욋
##풑
##샑
##긹
##왬
##켑
##젅
##뙛
##몴
##첞
##곈
##싟
##쭛
##칻
##롳
##꿎
##묿
##븰
##룁
##샔
##섿
##닟
##쵱
##덚
##쎀
##꼄
##읇
##잁
##뽇
##벘
##떯
##눰
##홱
##굔
##줮
##쇗
##뚸
##빶
##솸
##왝
##췡
##붍
##뵝
##젋
##훉
##놂
##텥
##혃
##븁
##훑
##섓
##뎟
##캭
##덋
##굮
##뚀
##멂
##췸
##븝
##쪵
##껓
##컼
##믛
##햛
##븩
##뺸
##뀰
##덪
##놜
##볷
##닽
##쉗
##떱
##빆
##퓡
##퇬
##먻
##갶
##맜
##끛
##뫠
##찭
##슫
##퐉
##엀
##꿑
##캪
##찱
##찤
##왹
##뼜
##섢
##륑
##퀑
##뼘
##콋
##혴
##뢈
##썄
##잢
##얷
##얬
##낖
##죾
##옝
##굣
##탘
##셑
##뒞
##돇
##핲
##묺
##똟
##똭
##빣
##썍
##돝
##밊
##쥣
##튽
##벸
##욛
##덙
##좟
##솓
##뻨
##칑
##엳
##뮛
##봙
##떢
##몪
##첳
##뷘
##쥡
##쑙
##퍅
##큉
##뎍
##쟆
##궃
##뭈
##혝
##짞
##땤
##쳠
##겯
##핓
##겳
##촏
##귾
##쎙
##큅
##닚
##뷕
##쌧
##럅
##빓
##샕
##솩
##듳
##꿸
##춀
##넫
##껰
##젣
##춍
##셒
##컽
##쥠
##팗
##뇄
##랋
##뻴
##뺭
##캆
##붰
##뚧
##뎄
##챰
##옽
##싚
##놕
##잛
##숔
##쑝
##좽
##튑
##뺕
##왘
##햝
##끚
##똣
##헜
##뎋
##탟
##귬
##댭
##옾
##옸
##롑
##뻄
##찒
##쒠
##엧
##븤
##펕
##뽱
##뭩
##넽
##궆
##럗
##릵
##핔
##뉩
##쇟
##닄
##굇
##끜
##똰
##녆
##솼
##윀
##됙
##븉
##읂
##쇰
##턔
##칳
##샼
##쒑
##렫
##둴
##읮
##쉉
##뜅
##괏
##쐰
##봗
##퐛
##츱
##춸
##욀
##퉨
##죔
##랕
##엻
##랳
##륽
##빬
##춛
##돰
##꿏
##좩
##힛
##쎌
##녛
##챳
##쩓
##쫟
##죻
##롣
##밗
##솠
##넻
##췽
##윝
##뚈
##쾤
##촠
##쨈
##륫
##긛
##둧
##뭕
##땸
##뚠
##큇
##꺊
##캎
##괍
##띰
##굠
##맖
##딷
##앐
##쩢
##쟄
##쟥
##밢
##갲
##햎
##탒
##잜
##팘
##궇
##뉵
##웄
##냼
##띈
##볂
##웘
##챀
##넗
##붊
##뗗
##쏼
##쟞
##쩅
##뵛
##햣
##엕
##떶
##텦
##쳢
##왒
##궅
##앧
##댤
##긆
##굑
##볋
##폇
##멶
##둫
##뺼
##겥
##쨎
##뫵
##꼲
##좠
##봡
##펵
##폽
##뚭
##귕
##뭨
##붋
##짌
##퐌
##첯
##찯
##읈
##쉡
##쪗
##몯
##딭
##붏
##쪔
##씋
##푴
##먾
##싐
##퓜
##쎤
##홯
##겒
##낒
##짦
##럶
##찷
##릘
##넁
##웛
##꺤
##챴
##땧
##굾
##홮
##켛
##쬭
##뮭
##춯
##튐
##엢
##꺔
##툳
##꿜
##뿕
##팦
##섟
##쮠
##묀
##뀩
##퐅
##콫
##웉
##읯
##껗
##낪
##젒
##겞
##꽊
##둟
##놩
##췍
##큥
##낞
##랟
##돍
##볓
##쫔
##뮉
##릶
##숶
##쉇
##쫭
##슆
##뵵
##픅
##깾
##푀
##굦
##헠
##깇
##랂
##뭦
##텹
##싥
##켘
##븃
##뇩
##녯
##틐
##줼
##쳫
##젂
##꺜
##퇼
##쀵
##셲
##섦
##궷
##늖
##땎
##춉
##짎
##볔
##읪
##윜
##괙
##뗼
##텈
##헗
##땰
##껸
##혻
##뜍
##틊
##싕
##썐
##쫠
##똡
##첤
##칞
##뫔
##줱
##잀
##럤
##탌
##뜼
##릋
##죕
##탙
##겴
##뭃
##퍀
##횝
##궎
##줐
##슿
##꾄
##뫌
##쟣
##쟘
##쭻
##궘
##롵
##랊
##벩
##뺙
##쫃
##핢
##럆
##줅
##썁
##끞
##뭅
##뵑
##릍
##킽
##떦
##깣
##굩
##냦
##긻
##몁
##뀟
##튁
##옜
##좯
##츧
##륏
##쯜
##슦
##벏
##갳
##튓
##힁
##쟠
##핦
##휵
##핷
##벴
##웽
##닎
##쒁
##똒
##옯
##뷀
##텤
##쩦
##뤱
##딯
##씔
##줁
##텰
##숖
##흨
##뿥
##찲
##힜
##땉
##딝
##즏
##꼉
##혙
##븻
##쌴
##뷥
##붼
##갿
##쫅
##줳
##캨
##웦
##쥄
##쁍
##팢
##냪
##쿈
##뤟
##롫
##쓷
##앺
##컁
##숰
##솃
##엙
##콯
##긊
##탚
##숯
##뫙
##뎰
##탣
##툠
##갃
##멐
##쬽
##읨
##셇
##낋
##릱
##귽
##숌
##휨
##앿
##죚
##봒
##댙
##럖
##쿽
##튱
##쉲
##싦
##낝
##쉫
##톹
##즵
##퀫
##큄
##댯
##뻠
##좢
##뱩
##녿
##삲
##쭭
##쏫
##섷
##왖
##뀽
##읷
##즟
##씮
##벓
##틏
##댗
##냩
##럔
##쿙
##뢌
##띴
##쩃
##퇏
##킺
##얠
##웂
##퉽
##떧
##놎
##륰
##욭
##뷜
##뉀
##뻉
##씊
##넢
##쐉
##쏩
##쬎
##댼
##랲
##촀
##픞
##탆
##덷
##뺔
##늽
##싩
##뻼
##챨
##럻
##럠
##켇
##톸
##쀄
##푈
##쒹
##뗭
##텊
##좈
##퀙
##윢
##벆
##꾿
##냒
##꿯
##픗
##갢
##삸
##힠
##킫
##츳
##렾
##륿
##촴
##톌
##곚
##녺
##싪
##햽
##옭
##귣
##텢
##떫
##렞
##괖
##뚣
##훱
##벾
##븈
##묫
##낎
##얎
##섪
##쬑
##줩
##헞
##썟
##쯛
##쨘
##쌐
##륳
##꼍
##쟼
##싰
##멵
##톽
##훡
##띾
##씞
##씦
##삹
##녴
##팈
##귑
##샫
##룾
##앲
##뻫
##왲
##췻
##붯
##욻
##줃
##첻
##쁮
##뱬
##빟
##짂
##뒇
##캿
##쓈
##퀭
##혲
##빍
##륮
##찣
##훟
##퉸
##힣
##꼌
##듹
##섃
##먠
##솛
##눂
##쩹
##튝
##쒱
##얿
##뱆
##쇈
##뜹
##닡
##삧
##얭
##졶
##멷
##삠
##욼
##폌
##헕
##캴
##탵
##긨
##첰
##쫚
##쳨
##깓
##췼
##똙
##톔
##큔
##끱
##쯴
##얖
##눀
##쑷
##퉹
##갺
##뙌
##괕
##빾
##뽭
##덨
##쎽
##팚
##퍝
##핯
##듩
##뭢
##릁
##혱
##줔
##폳
##욮
##뤸
##맕
##붂
##캰
##밡
##풜
##쩄
##핖
##첪
##왇
##끿
##뭰
##훃
##녑
##퓟
##빫
##짶
##똩
##먐
##쁴
##붎
##묨
##폑
##럸
##읟
##왯
##첐
##섥
##뀪
##춟
##틅
##괺
##갴
##죘
##윷
##뱝
##긇
##넞
##죷
##녰
##괐
##꼻
##잚
##혤
##쌱
##삤
##웪
##뒝
##킀
##롇
##곋
##쁝
##췅
##큿
##쒓
##찴
##싾
##늏
##푱
##퇜
##풩
##쏍
##쉙
##뤙
##쯍
##쎕
##뮷
##윧
##텉
##꽙
##볽
##흄
##쥈
##뒺
##멁
##춚
##괔
##쁌
##섽
##푿
##괁
##쥇
##콪
##괃
##찦
##곢
##걘
##똧
##꺕
##닍
##돐
##붒
##렑
##힡
##홴
##갷
##젿
##넏
##줈
##퉆
##짍
##쓋
##퐠
##퀏
##쏐
##괗
##먇
##앀
##쁑
##됡
##썜
##쮹
##뛧
##꺓
##됼
##뜄
##릮
##캼
##섡
##횻
##뇻
##닲
##릹
##횤
##럣
##큌
##쪚
##욈
##퐆
##궥
##롰
##썀
##쿗
##즣
##녇
##꼳
##쟗
##숬
##푶
##첲
##쉩
##룤
##닩
##렻
##씉
##굱
##퉉
##먱
##씺
##뜮
##꿁
##똗
##졨
##줯
##퓍
##얫
##팒
##뭠
##쉧
##싿
##졽
##닑
##쯋
##쵠
##뀡
##퇙
##쬔
##혇
##뢱
##뎇
##럳
##랉
##쇕
##겣
##겙
##췁
##붱
##쬿
##껨
##쭞
##쪿
##벟
##낢
##웇
##뿁
##쬘
##뺶
##휏
##롐
##몊
##홇
##썖
##뱎
##샃
##쌸
##돳
##쐴
##걽
##뿩
##엃
##짣
##쌒
##쬼
##뭑
##꾐
##혯
##쨚
##궏
##엫
##폅
##잳
##밒
##섑
##빭
##낛
##뚁
##븽
##슜
##벷
##칌
##걳
##픵
##뱋
##굄
##뢋
##탶
##욓
##숗
##펰
##돆
##풂
##닒
##줖
##넄
##걶
##뽓
##봦
##푬
##첑
##믙
##퍤
##뢉
##붚
##홟
##뱟
##뾱
##꼤
##됦
##쥉
##멿
##됲
##롮
##썃
##팑
##텂
##뒛
##끰
##퀠
##퀌
##턩
##럥
##룝
##뇝
##쟸
##썯
##듧
##헾
##뛍
##띳
##섧
##뗩
##쾐
##꺘
##혘
##긶
##뚷
##꼮
##땆
##곔
##띟
##쥦
##쟇
##곆
##늒
##퉵
##뒜
##쵕
##똇
##웻
##촪
##봈
##셁
##밫
##녂
##맊
##튔
##옟
##죅
##쇘
##뢜
##퓐
##귔
##킂
##쪅
##굲
##닧
##욐
##훵
##웥
##쯀
##큡
##쇴
##랅
##븧
##뎊
##붔
##묾
##갊
##얪
##쯉
##캊
##뻦
##멬
##폮
##휫
##쥅
##뤅
##톺
##냗
##껠
##흿
##콀
##쩘
##칍
##줊
##쾃
##쌛
##샟
##웱
##퇵
##푭
##랁
##큻
##둽
##쬥
##맃
##띅
##콬
##럕
##밚
##숧
##늜
##겷
##넟
##싵
##똦
##듰
##딈
##픂
##쳈
##쓒
##랮
##텓
##멏
##츴
##맿
##봋
##귖
##퓩
##랈
##뿨
##앁
##놤
##뿓
##욿
##뢓
##걼
##킐
##즼
##졩
##짃
##쮭
##퉅
##쾰
##볆
##믆
##휐
##쑐
##폘
##즋
##뿑
##뚴
##펖
##섻
##낐
##릫
##퇮
##윖
##툊
##늟
##걻
##얮
##핈
##첧
##긥
##뀍
##쓺
##엷
##쪰
##훋
##혅
##좬
##혛
##쉮
##눍
##릈
##젷
##갏
##뒙
##퀻
##냴
##봽
##윹
##샗
##틓
##춱
##뮼
##셖
##숡
##퍵
##딖
##켵
##턷
##톩
##낇
##짉
##즷
##넎
##퇱
##젞
##븟
##릥
##딉
##쎱
##뽚
##빯
##긏
##퀍
##둦
##팖
##뜃
##퉥
##컺
##홣
##햙
##뢐
##굚
##끎
##몟
##쩤
##꾺
##녾
##끨
##쯱
##엋
##먗
##헚
##뫤
##샦
##컿
##쵭
##흳
##붹
##껩
##힗
##춞
##룄
##줓
##뫀
##똴
##뙿
##엍
##휭
##쎡
##뤳
##킝
##뛱
##뢘
##슳
##퍁
##꽜
##녙
##덭
##퇀
##꼣
##빷
##횹
##쟵
##옦
##껒
##쀨
##쥗
##몣
##쐡
##렦
##뙸
##끟
##횸
##찅
##핃
##뱤
##퐝
##홪
##춈
##벁
##싅
##쫛
##뗳
##쩎
##뒴
##뷤
##핆
##됥
##쥨
##췠
##졏
##붅
##숚
##뻰
##쁫
##룢
##젳
##쭥
##픜
##졻
##훚
##썡
##퓬
##쏸
##돸
##놊
##헭
##즂
##똿
##쨥
##뻙
##뻭
##텆
##봟
##틎
##빞
##섔
##똏
##쏕
##딻
##쓹
##몲
##뾀
##봴
##밙
##뙜
##꾭
##깺
##댒
##꼔
##벉
##뱥
##잮
##셭
##퉼
##씥
##쎨
##릀
##쟃
##푣
##끵
##썾
##얓
##뚞
##섨
##렃
##쵯
##떷
##갟
##젏
##뙇
##읬
##덈
##굫
##섵
##얊
##솦
##냽
##쉻
##벻
##뤃
##퉌
##펻
##갍
##찵
##쟛
##몮
##뽖
##닗
##멑
##멭
##콮
##앢
##흟
##좂
##텇
##컾
##귺
##뤵
##펺
##잧
##뿤
##솑
##싓
##맚
##꾕
##깯
##듟
##먤
##퇍
##먽
##젶
##쾔
##겮
##굅
##힒
##촸
##줕
##쒘
##켲
##흽
##몱
##띿
##틇
##씈
##퉂
##껚
##텩
##꾝
##꽼
##뮸
##붆
##쭂
##푄
##괨
##햫
##썋
##뺫
##겲
##욽
##뻩
##싺
##뇟
##덢
##슢
##잝
##얅
##븬
##앛
##푷
##꾽
##륹
##쫜
##뿠
##둩
##펒
##앇
##쩻
##릠
##렅
##푲
##챯
##벫
##폯
##쿹
##킧
##쵼
##깹
##껎
##샢
##뗍
##뽛
##흼
##쌃
##쭟
##뭙
##꽘
##흓
##떅
##뒌
##쵄
##뉭
##꽦
##뀃
##긄
##왞
##칯
##탲
##짳
##힄
##볙
##솹
##쁄
##툈
##쐥
##곫
##뙥
##죋
##끐
##쓀
##춢
##됢
##둏
##슧
##넾
##럹
##뛬
##곲
##뼊
##쎰
##엸
##봎
##꿄
##춮
##춝
##컈
##퐘
##띗
##픋
##틩
##곖
##줂
##돾
##뼏
##쎢
##얉
##걜
##빹
##퐂
##놇
##빺
##쳋
##쳧
##쑉
##륝
##맒
##떹
##쥿
##궬
##딳
##푁
##뷋
##갧
##랱
##횢
##둞
##춭
##쭃
##쯫
##펃
##댏
##뼙
##긼
##찪
##쉪
##븸
##썤
##탴
##홨
##쟏
##땦
##틷
##뀈
##쭕
##쏖
##쑀
##웚
##듢
##쉆
##멛
##녬
##낅
##곟
##냍
##껙
##몭
##좫
##냎
##돘
##뤨
##걖
##줋
##긾
##뀅
##춬
##걉
##쎟
##껶
##뿎
##쁼
##칱
##뉑
##궵
##넊
##뫂
##앻
##섊
##냫
##뫁
##먑
##쩖
##뇯
##땓
##얋
##꺚
##엩
##넦
##꼶
##슯
##꺉
##쥫
##쨤
##톶
##릾
##끡
##뱸
##휰
##뵷
##쓑
##렽
##쯨
##됻
##턺
##쓘
##즠
##흪
##묯
##먓
##댣
##쌎
##빎
##쮑
##칄
##젉
##풘
##훜
##딿
##줉
##뉍
##녱
##늇
##쨴
##숐
##쁙
##탏
##큍
##틕
##뭭
##뉙
##뽘
##맋
##쵤
##풕
##촜
##믅
##옧
##쫵
##윿
##맫
##랎
##옣
##뚼
##뙴
##쀠
##쉠
##옩
##됱
##퓻
##뇀
##턉
##큑
##뼐
##덝
##홖
##넡
##홭
##빪
##뉬
##삺
##렢
##퇭
##쨨
##럵
##볱
##딵
##퐙
##왉
##펗
##햋
##흦
##씷
##찥
##둇
##눉
##댉
##놪
##묌
##졁
##틁
##벊
##쿺
##핒
##쇨
##꿲
##녽
##뗔
##쐤
##쿜
##믏
##뉄
##뤤
##걾
##궞
##럮
##겿
##귻
##웖
##뱕
##툄
##핚
##붌
##뿰
##씜
##뙬
##랇
##뾴
##퍡
##꽇
##짮
##듮
##뎦
##뭀
##뵴
##딞
##죃
##굧
##쌑
##꺢
##핋
##얾
##챂
##뫅
##꼊
##챚
##덦
##퉾
##횧
##쭊
##긬
##믉
##퉄
##띻
##돩
##뺗
##췆
##썠
##뙷
##볈
##쭿
##뒐
##쩣
##굗
##뵘
##븎
##냋
##뇤
##쏗
##띙
##뒁
##쑦
##낣
##뱛
##볖
##죍
##꺴
##뙁
##뎓
##굺
##럏
##긤
##횓
##쫴
##뢕
##횦
##뭁
##쉳
##녊
##갥
##걤
##퉐
##봀
##뿧
##쁟
##냿
##풱
##혭
##뤴
##앒
##롞
##뮏
##픨
##앑
##풸
##쿪
##븓
##퇩
##먝
##웊
##엺
##팄
##꺳
##쭅
##꺈
##윣
##뤕
##렶
##씳
##뇡
##뷃
##왭
##낓
##찗
##슅
##덖
##즀
##쬰
##뾘
##괓
##숤
##뜿
##쀽
##챋
##닇
##츽
##쳒
##슠
##깵
##눝
##헍
##셏
##븕
##좥
##섐
##걨
##츀
##갎
##폡
##쌝
##믂
##뤰
##긵
##럯
##굌
##핕
##슏
##폨
##뿽
##뉫
##떩
##샽
##춌
##쨱
##훰
##롥
##뮙
##튘
##짺
##큣
##븢
##쒕
##낥
##뗸
##죿
##릸
##슻
##츸
##갌
##볾
##짿
##얰
##큨
##녉
##툑
##쩩
##텸
##캢
##뵞
##옠
##뀸
##밓
##둙
##붃
##찳
##뽸
##흇
##죟
##녃
##녚
##즡
##왂
##뗫
##삗
##퉺
##욉
##쳏
##댂
##츶
##낻
##쮓
##폣
##옲
##옱
##꼹
##뇹
##즺
##뛕
##슀
##뚦
##쀍
##둪
##슲
##녝
##떥
##줨
##떸
##콍
##픎
##쬠
##렡
##텠
##챊
##펹
##깕
##턈
##뻈
##숕
##댴
##붝
##쬡
##덣
##퇳
##꺏
##혒
##쇱
##슇
##뱻
##췝
##튻
##힑
##풐
##밁
##빘
##썫
##핐
##캩
##폍
##쎍
##퇑
##끉
##쁸
##껮
##쏔
##켣
##쩸
##칧
##걎
##뽷
##씢
##쮼
##곝
##홸
##뗨
##욖
##켚
##싆
##뵽
##삉
##퐤
##봰
##킌
##츷
##욏
##큲
##쑛
##깪
##띶
##쑼
##헢
##쵁
##꼨
##똽
##퐜
##팯
##꼵
##뽒
##뭋
##늌
##낤
##첢
##뽰
##몉
##꿤
##븇
##픟
##춨
##퉯
##췤
##킘
##뻕
##칪
##웞
##쿧
##뱇
##폦
##궀
##쐣
##캏
##븂
##쩼
##엱
##쇢
##뾜
##솖
##젎
##벲
##옰
##쩒
##쏬
##훸
##뮝
##쫫
##퍔
##띸
##팆
##풎
##녻
##땣
##쫖
##끏
##톲
##줵
##톷
##릻
##넑
##덲
##쭹
##멪
##뚢
##쭫
##툌
##핺
##칤
##훯
##곮
##좣
##뷉
##멄
##믌
##뻖
##섈
##틤
##괫
##쟅
##뜱
##죣
##혬
##꾱
##꽆
##혾
##돓
##뀷
##뾔
##붥
##풓
##똚
##좎
##쀅
##릑
##덌
##콢
##믬
##햚
##젫
##햟
##맶
##됯
##윂
##됃
##춏
##홙
##궮
##흒
##씿
##쏌
##앾
##꾠
##붭
##닱
##쬴
##쨟
##뜪
##쫕
##믝
##톅
##햞
##룠
##뼡
##횜
##쐅
##띧
##꺛
##윴
##띀
##쎁
##봆
##꼥
##쑁
##왅
##뫽
##똨
##첛
##햴
##욾
##꺃
##셮
##뒘
##슊
##늭
##둅
##씱
##뵏
##쳊
##돽
##꾳
##먘
##럷
##쭬
##홗
##틒
##눱
##뚵
##몺
##몢
##꺗
##둼
##즑
##텣
##늚
##뎧
##볅
##둭
##픚
##쐏
##꽠
##쎇
##퍘
##뭫
##쳴
##퉴
##튺
##춎
##툏
##볫
##뒿
##헫
##뾸
##봩
##뭧
##쏚
##흊
##쉜
##켥
##딺
##츩
##흏
##봂
##냆
##싇
##쿕
##돉
##샿
##꺁
##빮
##첱
##볺
##덗
##곣
##윯
##턹
##짥
##섩
##쨐
##좤
##밳
##뭴
##쿔
##됤
##햗
##멫
##띕
##팊
##앩
##묑
##쓶
##볁
##룓
##롦
##켖
##걥
##풨
##쌇
##딮
##뼥
##쌗
##맾
##킠
##흅
##잾
##쓊
##홠
##둍
##싻
##랻
##뒉
##딽
##쓿
##콉
##츃
##몜
##얳
##쪱
##릷
##삩
##굤
##몍
##쀾
##믰
##얚
##햍
##혂
##씶
##좓
##헓
##톃
##뛀
##뻒
##찫
##캮
##홁
##듞
##땂
##쵲
##꿬
##룃
##픝
##짾
##맪
##좧
##랶
##쇇
##쯮
##겺
##괠
##뵺
##씆
##쌲
##췟
##곭
##쑜
##컜
##쏰
##쒐
##헦
##걒
##츗
##쵮
##씂
##뛋
##콭
##윋
##홝
##쏮
##뷷
##왙
##럊
##꺆
##뾕
##쟟
##랺
##홒
##솒
##퐇
##풇
##쐼
##킦
##쐘
##숒
##꺡
##촷
##늓
##뼀
##찁
##퇶
##뽥
##믱
##엂
##펬
##븞
##꿆
##뒄
##쩥
##쐽
##챇
##쟡
##멮
##댥
##윲
##솕
##쇌
##꼷
##깖
##펅
##윺
##꾈
##긺
##옞
##쓕
##럘
##콣
##쓌
##뙹
##픖
##늤
##뇅
##뜔
##삦
##찶
##놃
##쯯
##쥳
##똈
##퀰
##쪻
##쬤
##왆
##줝
##틧
##헊
##믯
##챶
##뭎
##릆
##휳
##뀻
##뇾
##엓
##꺑
##촡
##튛
##묏
##믤
##퀐
##쒈
##헡
##꺖
##욶
##갫
##퇰
##뗵
##쫬
##줎
##쓜
##쮤
##힕
##돑
##끆
##춡
##쿯
##겛
##즇
##쭏
##쀌
##팉
##럎
##셟
##숢
##윥
##쭜
##봭
##쩞
##밂
##촁
##쓃
##뉌
##퉬
##휌
##뮫
##꺟
##쵴
##꺎
##놱
##뾍
##쐔
##칏
##꺝
##뀁
##엹
##칶
##둚
##욎
##즜
##뺓
##좰
##괝
##킉
##턘
##쓲
##앷
##죂
##왢
##쩗
##놁
##뷶
##뮜
##췾
##돖
##졂
##혣
##썱
##첡
##꺨
##킿
##뒫
##칚
##렳
##긽
##횞
##뮦
##떌
##옊
##챸
##훞
##춑
##갩
##훬
##귦
##똉
##퓹
##퓅
##몶
##얁
##귘
##졺
##탷
##풁
##흝
##퐥
##짵
##욗
##쐿
##떺
##뭂
##엶
##깛
##뮁
##뽯
##첣
##쫤
##꽴
##텧
##쫨
##돏
##둄
##둊
##촮
##뭪
##혌
##첦
##뜲
##뭛
##죢
##좜
##졊
##밹
##훛
##붴
##둤
##뇁
##컶
##뺅
##쌭
##씟
##먙
##뚨
##딒
##뛨
##뀀
##쾒
##탗
##쏏
##홡
##큹
##볇
##꿌
##뚹
##찏
##쩁
##냢
##졼
##놴
##뽹
##뙝
##큮
##쾬
##뫴
##뛟
##넔
##썝
##쒤
##퉿
##씧
##윁
##셊
##셫
##뮘
##쒂
##눽
##멺
##펲
##댹
##펟
##뜐
##흖
##퍛
##뢧
##샒
##쮱
##윛
##솞
##풴
##폏
##훒
##뼷
##삒
##흜
##졹
##휟
##뭽
##뱊
##훴
##퐞
##녭
##딦
##옒
##즮
##깳
##휔
##캽
##킇
##떣
##첀
##먬
##셅
##떎
##쬈
##뫚
##콦
##켹
##쓏
##쇔
##뮻
##뛥
##떾
##뭟
##띹
##뙉
##뿃
##뫡
##씗
##뭗
##졾
##헔
##궯
##콲
##핅
##쾩
##첥
##뾥
##앦
##젍
##쭄
##샮
##뜳
##죝
##쎐
##쐄
##윪
##쬧
##쟊
##쓐
##쓧
##잞
##뿀
##뷹
##넍
##쫮
##맩
##쬮
##놛
##쯭
##쑫
##좻
##븘
##쬳
##돒
##좪
##탋
##왳
##폊
##촰
##홅
##으로
##에서
##하는
##니다
##하고
##이다
##들이
##er
##um
##ber
##umber
number
##었다
##는데
있다
사람
##지만
##다고
##이라
아니
##들은
있는
##에게
##다는
우리
국민
##하게
##면서
##한다
##해서
##까지
생각
하는
##리고
##라고
##했다
##습니다
##적인
대한
나라
##적으로
일본
##하지
그러
##이나
20
이런
##에는
##으면
##렇게
##하면
문재
##대로
##니까
##부터
때문
한국
지금
##하다
한다
중국
그런
##하여
##들의
것이
##라는
같은
문제
##들을
##통령
하고
하나
그리고
것이다
자신
##보다
##리는
진짜
그래
##해야
##하기
들어
다른
문재인
##이고
##세요
##나라
##처럼
##였다
##인데
대통령
인간
##어서
##지는
이제
##주의
만들
정치
없는
때문에
##입니다
##00
그냥
미국
##았다
##지고
정부
##라도
##기를
북한
조국
경우
##이라고
##는거
민주
##에서는
아닌
##자가
사실
아이
##민국
##에도
##으며
##한테
모르
##리를
없다
201
자기
아무
##되는
너무
##이지
것은
##려고
대한민국
number년
정신
정말
아니라
이상
##네요
##합니다
경제
정도
##기에
사회
##구나
##는다
##어야
다시
##다가
##리가
모든
국가
##같은
##이는
위해
것을
어떻
있었다
무슨
##인이
많이
사용
##가는
##해라
따라
필요
##으니
이렇게
시작
##기는
그렇게
##기도
##지도
##거나
어떻게
나오
모두
##된다
된다
##이가
##인가
하지
있었
하지만
많은
19
##이라는
얼마
##레기
그것
기사
그러나
##아서
당신
10
##들에게
##겠다
내가
검찰
##자는
##들도
가장
##시키
##기가
정권
##사람
아직
사람이
나는
어떤
##하며
시간
돌아
##되어
##인지
##어요
이미
있을
지지
보고
세계
가능
자유
다음
민주당
##는지
했다
어디
##들아
댓글
바로
##하면서
이후
상황
마음
보면
해야
그래서
이유
이러
##성이
이게
함께
##어나
그렇
##사를
##스트
잘못
사이
계속
##이었다
##소리
조선
세금
좋은
##지를
저런
##잖아
##지가
##도록
##이냐
결국
이해
##력을
##되었다
모습
우리나라
살아
이번
##있는
여기
되는
##OO
이야
##성을
여자
##어도
##사가
문재앙
이것
##이야
##더니
여러
##없이
세상
##겠지
같이
받아
##주는
##으나
서울
어느
그럼
피해
역시
##한당
그는
##되고
중요
수준
누가
좌파
##레이
##가지
얼마나
이용
이름
지역
##정부
보여
하면
자신의
국회
##없는
##해도
##력이
언론
또한
좋아
##놓고
##대가
그만
알고
않는
##들과
##이었
##거리
만들어
제대로
않고
자한당
##하였다
제발
##에서도
것으로
##머니
##하는데
##장이
##하네
##수가
존재
##하자
쓰레기
##의원
기업
##스크
##말고
##보고
떨어
아주
그런데
빨갱
##는게
말이
##장을
##로운
##하나
가지고
공격
##정을
소리
200
##것도
위한
처음
현재
##정은
##in
그녀
##자를
아니다
있는데
OOO
##자의
되었다
사건
##주고
##스로
##이네
##하냐
##근혜
##시다
##사는
의미
##치는
##정권
일반
그의
있고
아니고
대해
##인의
말을
한번
##학교
그리
##들어
없이
누구
얼굴
당시
##체가
않았
##아야
##로나
##원이
정의
##거지
않은
사람들이
있습니다
##number
선거
언제
##자들
결과
##했던
##리에
##다면
완전
프로
##시켜
##가서
##러운
관련
##전에
##이라도
##이며
당연
물론
오늘
거짓
수도
관계
##을까
##부분
먼저
것도
내용
합니다
가족
부모
##드는
경찰
##라이
##화를
교육
현실
방법
##이면
사랑
##중에
말고
책임
##정도
##려는
되어
공산
신천
가지
##렸다
통해
##상을
친일
##졌다
특히
##시간
지나
행동
##기로
빨갱이
박근혜
조사
##동안
인정
##므로
없어
##되었
##서는
##거다
##밖에
나타
보수
##치고
##보면
##0년
나온
##제로
##이란
##한다고
찾아
보내
아닌가
##진다
##같이
사람들
있어
있다는
##리지
방송
100
코로나
내려
우리가
##국민
대표
상대
거의
게임
그게
12
##마다
이건
무엇
여성
이러한
나라가
일이
등장
해도
##다니
아직도
##시고
##인은
근데
반대
전쟁
청와
##하던
마스크
상태
수사
절대
지원
##나요
역사
조금
위해서
##문에
선동
라고
##야지
##르는
##시아
해서
기술
##기업
서로
##식을
##돼지
대부분
##하라
##스럽
학생
없고
사고
##스를
학교
올라
##하니
남자
범죄
있다고
못한
##봐라
##정이
때문이다
##인다
부분
##대한
국민들
18
하루
않는다
사람은
조작
친구
##상이
아버
동안
미친
연구
##시는
직접
어려
##하는거
##리아
##이트
되었
기본
##어가
정책
일부
##식이
니가
최고
관심
전부
엄청
이루
##하겠
같다
대구
##도가
해결
##정한
11
##스가
##도를
그래도
청와대
만든
탄핵
빨리
신천지
않았다
매우
앞으로
니들
##음을
##한거
##린다
없었다
##되지
얘기
하는데
스스로
우리는
과거
##만원
##나는
개인
아베
영화
number월
대학
아니면
요즘
새로운
##이니
##운동
힘들
##스의
##해주
##하였
##구만
일을
##명이
그때
##와서
##이를
##on
##르고
##더라
외국
정보
##치를
이야기
##인을
##당이
주장
새끼
##수를
30
해라
이거
이를
국회의원
알아
##사의
사라
##마라
15
성공
##스는
좌빨
##먹고
##자로
문제가
##대의
##하지만
number일
##히려
##자들이
한심
##새끼
##시에
##명을
##있다
중요한
선택
라는
지난
미래
활동
오히려
##이랑
더불
대깨
##위를
##인들
다니
하여
개돼지
##한다는
##려면
진행
##겠네
그대로
##했는데
어린
되고
대해서
##대는
##가고
국민이
또는
##했고
세월
총선
뭐가
무능
##무원
기록
##되면
운동
표현
##텐데
##조건
##대를
아무리
자식
##an
##장은
마지
##ing
없었
있어서
##하는게
##기고
##없다
시민
##아니
드러
나라를
못하고
##적이
인터
##으면서
상당
대깨문
비교
국내
##보는
##로는
김정은
사람들은
##더라도
장관
기억
여론
있던
발생
국민들이
모르는
생활
너희
정상
효과
그걸
##대에
원래
알려
결혼
가짜
##스터
전혀
##가가
문화
다르
영향
공부
##시민
공개
어찌
##왔다
##지지
도대
재앙
다만
능력
가서
##했다고
머리
사는
국민을
분명
사업
기자
##드시
##우는
집단
있지
##라면
마지막
사기
자신이
해당
##내는
##가를
받고
니들이
작품
어쩌
인물
확인
보는
전문
준비
확실
국민의
##오는
판단
못하는
따라서
도대체
먹고
처벌
이어
가는
더욱
결정
##체를
##리면
##장에
##난다
나가
전에
거짓말
##건데
대단
종교
##만큼
나도
있으며
만나
##보니
도움
걱정
비판
대신
하다
##로서
##내고
자연
독재
설명
일단
토착
안되
시키
##전을
##as
##간다
의해
구속
##가리
##식으로
삼성
경험
황교
엄마
##하시
추가
아마
지켜
요구
##거든
하면서
적폐
##때문에
국제
##제를
##이상
모습을
##겠지만
무조건
개발
사과
크게
가진
##이지만
혼자
주변
##만이
기준
대체
부정
##거야
보다
##or
반드시
사진
##지않
##하다고
##장에서
정도로
이는
수가
인생
더불어
거기
##도로
높은
기다
##원을
비슷
##ar
##려서
바람
외교
포함
교회
잡아
기회
50
##일이
##8년
않을
##갔다
전라도
##건가
##던데
##어라
##화가
생산
생각이
위험
무시
그가
가져
##수는
권력
##듯이
##자리
노동
회사
##물을
##른다
바라
##주세요
##심히
있으면
밝혀
유지
##한데
증거
조직
##치가
보니
##에선
이젠
많다
항상
##9년
제일
등을
해외
젊은
나서
##이라면
공무원
##보다는
아님
##으로써
있지만
##했을
##대통령
##아요
세월호
##일보
운영
관리
역할
##문을
##장관
##겠냐
나쁜
##습니까
말씀
##으로서
지들
##당은
투자
##7년
##기의
주인
나이
순간
나오는
개혁
##at
##났다
주는
##국의
##지요
사람을
진실
하늘
##he
어머니
안보
말했다
나와
민족
보인다
##의를
이루어
등의
##할수
##민주
입국
##수의
아니냐
들어가
##우고
##계를
##것이
전체
##운데
중심
##점을
대통령이
되면
##님이
선생
넘어
##받고
##지면
##지로
경기
##자기
밖에
불법
열심히
전투
오래
##건지
지방
아는
##려라
부족
##권을
사망
##6년
##5년
##대표
##제가
돈을
환경
가격
제가
여기서
##이기
정확
다양
신경
당연히
##릭터
자리
달리
움직
달창
이에
정부가
노력
인해
생각해
본인
의원
##어난
한다고
맞는
##놈들
마찬
불가
보호
가까
독립
때는
##왜구
##들고
##지에
실제로
뉴스
##었는데
##개혁
##것이다
저는
우선
##으로는
##자들은
##하세요
검사
치료
##장의
발전
##도는
##끼리
캐릭터
충분
##en
##보자
##동산
##과의
이래
모양
##하거나
##국가
##조사
##위원
시절
##것들
되지
계획
싶은
한다는
바뀌
선수
바이
남편
발견
여행
어렵
지키
출신
나경
작은
##든지
##이자
##까요
##수록
떠나
##겠습니다
##겠다고
없을
##어버
##사회
마찬가지
갖고
아들
##파트
##지게
말하는
발표
아래
저렇게
강력
대상
25
##럼프
##지말고
구성
건강
##아가
##라서
##랜드
일어나
199
##으니까
자체
##임을
받은
들고
##과는
##당한
조용
하며
개념
두고
자체가
##명의
##분이
같은데
훨씬
생각을
도시
##al
그러면
참여
만큼
도와
##심이
서민
구조
##르면
##들에
응원
##gh
##이버
##구요
기대
자주
하자
##학생
##교육
##선을
##조차
노래
##리의
쉽게
트럼프
16
##간에
부동산
지도
촛불
황교안
그럴
##에요
##시키고
고려
##느냐
쓰는
##일을
만약
##성은
법무
아버지
##세계
##마디
것입니다
이전
##준다
사실을
투표
부끄
##시킨
참고
##es
당장
하기
##들만
##프로
보이
단순
말도
플레이
갑자기
안되는
진보
가만
지금은
있으니
##어를
##서를
##시키는
##로부터
있게
제number
고통
##트를
##인들이
프랑
토착왜구
##워서
##도의
##4년
##아라
감사
##심을
스타
의견
받는
필요한
의사
경쟁
니네
최소
안타
주고
##었던
행복
그것은
##그램
중앙
교수
문죄
느끼
##일에
##란다
윤석
그나
##겠다는
##했다는
##상의
##금을
지지율
##au
언급
##하다는
##국에
13
솔직
##봐야
의료
심각
##물이
##리스
##원은
일본이
##드를
공수
##해야지
##위에
유명
힘을
살인
##경제
##먹는
이기
무서
나왔
있기
적이
가슴
완전히
그림
##스템
##거냐
소설
시즌
자동
##자인
##생활
보통
평가
어디서
느낌
##개를
아예
소비
##수도
거지
없애
일으
쓰고
##단체
살고
혹은
경우가
인간이
과정
평화
민주주의
##많은
특별
##2년
제외
40
시장
적용
##감을
제작
기레기
지랄
누군
증가
이유가
상관
##려야
형태
유럽
##원의
받을
않아
##라리
설치
##관계
시켜
##뉴스
끌어
그동안
##어진
나중에
현대
14
number세
싫어
받았
제공
##국이
가르
있어야
##생각
궁금
##와의
##차피
##군요
친일파
위치
##3년
독일
성격
##리즈
##시오
##지어
실패
인권
##리로
있나
##만한
그건
##던가
미세
문재인이
알바
일베
어차피
불쌍
모르고
평생
빠져
바보
이때
##랍니다
최근
지금까지
했는데
배우
생각하는
임명
그랬
말은
그들은
마치
##했지만
##하기도
그러니
이명
동시에
시간이
자세
##원에
인터넷
##소를
##에서의
만드는
아닙
17
##말로
##예요
##할때
##나고
없다고
공수처
더러운
##는가
위에
그저
##나게
난리
number개
아닐
관한
거야
그거
이동
이제는
애들
가운데
알았
없다는
##성의
##만을
문제는
##하려고
##이로
##전히
##적이고
우리의
기존
나올
노무
##르게
##인간
안전
불러
지구
물어
정당
다들
중국인
자신을
##님의
감독
바꾸
이익
상당히
##잖아요
무식
##등학교
##이스
사회주의
멍청
##부가
##한다면
부산
##df
변호
처리
대응
##남불
##기관
라이
그러니까
##을때
목표
##여서
남아
괜찮
자꾸
집에
등이
부탁
##로남불
보이는
##리기
##에게는
불안
##점이
number만
있네
미사
않다
것처럼
보기
좋다
러시아
할머니
기능
월급
목숨
장난
차라리
듣고
달라
##하라고
##부를
매국
##위가
광고
죽은
한마디
네이버
자격
그것도
불구
포기
변화
##하려
당신이
##업을
철저
이걸
##었고
##기사
속에서
자살
판매
재산
아파트
##1년
##냐고
후보
실제
이명박
과학
정부는
##정책
##법을
으로
##나가
일은
##조작
싶다
##적을
미세먼
##져야
인사
##ou
##만에
국민들은
강화
타고
사람의
돌아가
자랑
##성과
우한
다양한
주인공
##le
##상에
정신차
##augh
사형
해주
##정에
아프
노무현
##성에
##이션
##분에
##이터
비난
분노
제품
##디어
laugh
##번째
laughing
##비를
##바로
마라
있었던
한편
이유는
했던
##간의
그나마
군사
##지역
유시민
##함을
사태
있다면
##dfas
##져서
##지의
에서
반일
나무
##이들
공산주의
생긴
통일
보여주
최저
조국이
##정신
##it
##는거지
##드가
그녀는
통합
성장
달려
##선거
그를
전화
일본은
유일
프로그램
않으면
팩트
점점
##두고
그들의
##스러운
나온다
음악
감염
돈이
솔직히
아침
##자와
그것을
주로
##였던
끝까지
##사건
심지어
놓고
##한국
마이
##라마
인구
##세를
##한게
속에
##상은
##문제
한국당
나경원
부르
광주
나를
##부의
무너
틀딱
동일
##러스
영향을
뭔가
없습니다
고생
몰아
힘든
일어
일본의
어쩔
##시대
이나라
분석
똑같은
시스템
##ic
공동
##나오
분위
뻔뻔
##위로
싸움
##is
앞에
##롭게
##거라
어려운
##부는
사법
중에
##스럽게
지속
이라는
서비
##것들이
방향
양심
##했습니다
##도에
희망
##것을
##것은
무기
##방송
돼지
적극
특징
일제
영국
온갖
##바리
스트
전략
##하도록
##독교
##dfasdfas
마련
##비가
그것이
##장으로
##리게
##문이
##에만
##해요
타이
안하고
하게
##원에서
이재
너네
##와는
그렇지
안된다
나머
##가지고
게다가
##아버
가면
미국의
##겁니다
물건
내로남불
##받는
인간의
##사에
비롯
##께서
올려
##수준
반응
##질을
뭐냐
하네
번째
##스타
의심
수는
##어로
##이의
가정
공산당
만들고
차지
경영
불가능
##가락
비해
인식
과연
조건
믿고
청년
됩니다
벌어
박정
여전히
시리즈
발언
군대
##기만
하시
굉장
##금지
간첩
못할
자본
이것은
불매
##조선
##가의
사퇴
##들이다
21
내년
근거
애초
말아
시작했다
주민
전국
##자고
##부로
문빠
없는데
윤석열
이야기를
시대
하는거
대답
##해보
아내
정은
최초
진정한
너는
이라고
저지
연결
##다운
아무것도
봐라
##이팅
##라인
심판
남의
겁니다
하니
아름
##정으로
본다
수출
##군이
산업
대한민국의
##자나
손을
이와
진심
문제를
눈에
##트가
하였다
##들한테
자기가
집안
있음
##사로
희생
생겼
제시
운전
많아
##행을
해야지
##감이
활용
따로
##무를
지배
나의
똑같
장면
제목
재판
##대가리
고객
##하려는
##사고
하나의
눈치
##랐다
##수있
감옥
금지
지적
수밖에
4월
의혹
있냐
직원
##구를
단체
것들이
소속
##온다
야당
불구하고
##력은
것이었다
승리
예를
없어서
앞에서
대책
파악
국정
##회의
##시장
역할을
검찰개혁
강남
바랍니다
국민은
##줘야
##하다가
##으로부터
마을
짱깨
##수로
공식
정신병
말로
것이라고
도망
##단을
있는지
##자에
##지마라
##됩니다
다음과
개소리
역대
여러분
엄청난
고민
##관이
매일
파괴
대중
이상한
가능한
확진
계약
취급
죽음
동네
동물
최악
##군의
##일까
신뢰
아냐
##라지
지가
박정희
반성
집중
것에
##보네
##나서
별로
수입
비슷한
돌려
##시켰
##아닌
##느라
그녀의
##학의
##없고
해석
##드의
마법
안에
종북
##히는
본인이
건물
자료
##놓은
##나라는
벌써
##BS
##상으로
사회적
##말이
잠시
##자들의
##선이
##으므로
레이
이리
것과
##질이
맨날
전통
대변
주식
논리
##안을
##이에
마음을
신문
굉장히
몸을
##격을
가만히
애국
##상도
지금도
##인들은
##립니다
##나면
눈을
후에
인간들
유리
당신은
##제에
연예
##아치
이해가
##순실
충분히
프랑스
보도
##신을
좋아하는
영원
정치적
방어
니들은
소득
스킬
신고
태극
봐도
기독교
##이도
바꿔
198
##놈이
판결
악마
공정
좋겠다
아니라고
무섭
가치
이름을
최대
말한다
##디오
다행
대기업
조선족
##던지
지하
지식
가고
##어야지
##가요
##명은
##리카
시험
입니다
소리를
거부
했지만
노조
##만으로
##용이
정리
지들이
입장
알게
##위는
조심
모자
건설
법무부
##소년
##동을
물러
2년
집값
재미
##수한
미국이
3월
예상
##지기
나누
마음이
제한
각종
똑같이
주요
잘못된
##먹을
프레
한심한
깨끗
필요가
전세계
구분
부터
뒤에
기관
##정의
강조
##드로
하는게
강제
##자에게
놈들
한국의
수많은
##하신
느껴
##리며
혹시
##집단
담당
##지마
답답
상승
앉아
억울
##님은
아닌데
대가리
오른
##져라
가능성이
##부에
옛날
##자도
이끌
다가
원하는
##전이
##냈다
대화
있도록
어이
조용히
##먹은
##주를
뛰어
##지원
요청
문재인은
직업
##었다고
##시길
사람도
아닙니다
##때는
불과
기생
하나도
말에
유치
저러
경우에는
자가
알아서
##신이
##받은
이곳
##om
되는데
이것이
출연
##으려고
애초에
말해
##ol
없네
22
최순실
강한
택시
회복
미리
국방
미사일
죽을
##씨가
##기와
와서
약속
사실상
이럴
늘어
관광
##re
헌법
##까지는
처럼
##혔다
아무도
영웅
따르면
거래
대선
최종
말이다
##됐다
##주가
하냐
못하게
##아도
시간을
시청
##시킬
병원
살펴
문서
##주면
24
##쳤다
위안
주사
행정
이론
##쪽으로
가라
기간
거기에
그들이
분야
##이든
사이에
의한
##고있
##하러
##달라고
남북
반면
조선일보
##소가
생명
수행
##움을
상황이
##단다
##했으면
정작
##정치
##구가
두려
##리자
드라마
위해서는
장기
##인과
매국노
##임금
부담
##인으로
집회
들이
까지
가득
없음
대가
##영업
변경
##봐도
인도
##라가
너도
예전
아빠
##거든요
##림픽
상품
문통
보자
##트남
가짜뉴스
모델
굳이
##노총
60
기부
the
##쓰고
자녀
생각하고
더이상
중국에
##가족
##하는지
도덕
것들
먹는
##개월
##더만
의식
법을
주둥
수십
##히고
##돌아
팔아
##래도
추진
##야한다
##미터
상식
기분
원칙
사례
##문회
##nd
개판
자동차
생기
##인거
소유
##이어
판사
##하니까
##문화
모른다
##계가
##량이
이유로
대해서는
##음이
일본에
않게
구체
진정
못했다
안정
공감
##제는
##당에
목적
##산을
공간
광화
##트는
##잡고
뿐이다
##었습니다
사무
없으면
보이지
##세가
통과
##점에서
북한이
##ion
##는거야
##리어
여기에
##이기도
##소에
강력한
12월
##만의
스토
##었을
1년
##세력
##리오
확실히
더럽
##쳐서
안타깝
##스러
##시가
##트의
보유
##사람이
훈련
화이팅
##마저
고소
##보다도
우파
##시를
페미
인제
1월
길을
TV
##부대
유튜
##했으며
음식
5월
각각
검찰이
10월
비행
##레스
카드
하던
작업
비리
당선
밀어
##이드
##복을
덕분에
미세먼지
##방에
##용을
문학
이중
자빠
전두
##경을
무능한
##사업
한국은
##장님
7월
##18
대로
애니
위협
##am
지급
초기
##하는건
23
청원
9월
초반
##단이
접근
##위해
자유한국
최고의
대부분의
##겠죠
나머지
바닥
##치지
##씨는
수준이
시도
##제의
장애
명령
인민
##슬람
이다
없지
냄새
북한에
쪽바리
줄어
특정
세상에
##바닥
뒤집
##받아
##이었던
of
##거리는
남은
말할
##el
일자리
프리
##위원회
잡고
8월
그리스
바다
너무나
거리
도움이
##수사
어떠
빼고
세금으로
##웠다
2018년
싸우
졸업
손해
남성
베트남
집에서
##체의
예술
##개의
왜냐
뽑아
##시면
나라의
##리라
서울대
이르
##의가
이번에
내부
사상
보험
등에
도로
집권
유니
2월
오는
등등
##같다
##았던
##분들
정부의
형성
기가
##전에서
##인줄
갔다
참고로
핵심
식으로
어른
왔다
싶어
##범죄
반복
##걸로
논란
전두환
피해를
언어
그곳
상대로
대놓고
금융
6월
##당히
##해진
말한
근무
##퓨터
힘이
아나
자영업
위하여
세력
경우도
그렇다고
##id
##있고
제1
옹호
##되어야
있을까
하세요
##할까
이탈
사기꾼
##000
상황에서
##종의
##진국
남한
정치인
소개
기초
##되기
업무
피해자
향해
글을
아무런
##면서도
멤버
같습니다
방식
겨우
##공자
제2
##약을
결론
노예
##일은
모습이
한반
도입
방문
감정
##소리를
사람들의
##트로
상처
위선
목소리
이상의
##사와
이정도
여당
통해서
마찬가지로
생각합니다
낮은
받았다
가해
3년
##주도
##라니
최소한
##속에
동생
##관을
##동이
미안
훌륭
여자가
##싶다
위로
경우는
2017년
영상
공급
특수
태극기
##하셨
무리
참가
갈등
##그러
##BC
못해
풀어
##스와
은행
##겠나
##였고
##모가
##하지말고
##말을
사이비
##석이
##가면
##민주주의
##키는
문죄인
양아치
##기술
실험
대하여
새로
중국이
##차를
기사를
##만은
힘내
한국인
임금
아니지
##ed
##인가요
흔들
폐지
약간
노인
##입니까
##전쟁
된다는
##조가
헛소리
2019년
결코
가능하다
공공
혜택
##는거다
##대학
동원
##율이
##화의
화가
죽여
컴퓨터
만한
##함으로써
대처
사람들을
차별
때려
##세대
##들로
##개발
##이라니
단지
에너
##렀다
70
어제
할수
##받을
쓰러
청문회
토론
이놈
비밀
##으려
내용을
시행
##해야한다
##그네
거예요
교통
걸어
##향이
놈이
그래야
##하네요
##et
불편
수익
적은
후반
전기
영어
평균
간단
그에
10년
저희
차량
앞서
##권이
2016년
##비는
##한건
몰라
##원으로
##니아
물고
있었고
개선
##호를
사용하는
느그
그만큼
가게
고개를
그러한
정도의
##겠어요
우승
##스럽다
인터뷰
##거고
관련된
하나님
도둑
11월
##악한
##함이
이용해
확보
벗어나
가야
유저
몰랐
연기
놈들이
분열
##당을
따른
##학년
것인가
축구
사실은
비례
슈퍼
##합시다
합리
관심을
##라운
먹을
입을
대출
언제나
원숭
##전의
##방을
주사파
전문가
책임을
저도
##겹다
##리나
저녁
##계의
동료
상황을
스포
##안이
모두가
##위의
때까지
우주
##역을
##진이
근본
##야말로
구매
다녀
자국민
##된다고
##보내
리더
소리가
짜증
태양
데려
##경이
않을까
##당의
적어도
##률이
##버린
##고도
##겠네요
##든가
##ac
일이다
대비
가끔
오르
얼굴을
행사
설정
##적이다
##치게
##로지
차이가
##고를
것이고
맞아
불리
고용
##었지만
작가
당연한
##머리
최저임금
못한다
필요하다
##놈들이
##보험
##조를
죄다
아이가
이들은
대통령은
나라는
하는지
##하겠다
에이
지옥
##il
계산
과정에서
성과
눈이
##정보
된다고
동맹
##크로
가까운
다를
모른
이라
만드
나름
##력으로
칭찬
있었는데
##되면서
##군은
들어오
##본다
만족
당신의
이란
협박
주의
##았는데
##대중
선생님
예정
31
오랜
방사
##화된
이념
##있는데
안나
삶을
네가
세상을
없으니
##마자
##겠어
##분을
##서가
2015년
도착
의무
안철
투기
통제
둘러
##상태
받아들
상징
미통
##짜리
##미가
취업
##하의
믿을
점을
물리
추천
보였다
동의
정보를
다루
합의
아니야
한국이
착각
아까
측면
그렇다면
##보았다
리그
##진핑
응원합니다
##석은
##금으로
자리를
데리고
한국에
유사
일도
인천
감소
##류의
대다
생겨
이사
저기
외국인
생각은
##절한
광화문
생각하면
빨아
공포
##연구
내는
##차가
규정
소환
##기지
대한민국을
나왔다
질문
보상
영혼
##보기
##센터
중심으로
우리도
##있네
##리와
전달
무서운
##선동
명예
바이러스
때마다
부여
에휴
명의
기생충
위안부
반대로
지지하는
오지
제거
담배
않나
##여행
직장
##프트
방법을
국개
중국의
다이
오직
실시
##시기
철학
검은
경제가
참으로
어리
애들이
뿐만
나베
##되었고
##하고는
##점은
전환
##십시오
26
##짓을
평등
연합
보지
이벤
저질
##리그
어울
##긴다
##국을
나쁘
##사람들
유튜브
##활동
제기
레벨
예수
인간들이
number억
우려
봐야
올림픽
증명
기타
단계
##상황
##수수
##군을
뭐라
극우
재앙이
##시로
전형
철저히
얻어
##하더니
주세요
세상이
분명히
있어요
장사
곳에
국가가
생각한다
나와서
저게
준다
##하였고
##폐렴
##였는데
##0년대
방해
아니었다
서비스
중에서
수용
때도
등으로
##민족
간다
##안에
##스런
##고는
쏟아
##자들을
##재를
##언론
바란다
똑바로
맞지
##실을
##시설
행동을
뒤로
##가에
변호사
##보지
해체
책을
##단의
민간
##해지
바른
않습니다
개가
##쟁이
##우스
설립
민노총
문재앙이
흘러
멀리
수상
대형
중간
##적으로는
하이
진출
나아
했다고
시각
미국은
능력이
부끄럽
##회를
맞추
화장
전자
197
짱개
##셔서
마침
##산업
상상
나타나
대한민국이
존경
좋지
기반
창조
##만명
찬성
거다
저거
##줌마
##구로
하지말고
##목을
들은
가난
##화는
##마트
신청
패배
##주지
지금의
입고
위원
내고
많은데
제도
홍콩
좋을
보장
식민
거기서
항공
##르크
다니는
##낸다
##주택
믿는
##해주세요
##까봐
발매
##겼다
안에서
했고
능력을
성폭
##나무
##소리가
##체는
치매
나라에서
진중
높아
차단
사실이
세워
인한
##친다
28
날아
대단한
number년에
##라스
돈으로
80
##없어
##관리
시기
##로를
고발
개의
##대고
생존
받지
같아
작성
이들
에라이
깊은
혼란
##다른
##로가
참석
폭발
##회사
##원도
들여
조중
언제까지
들어서
##리네
##줘라
##루킹
시위
##장과
시진핑
이래서
##지와
##법이
27
왜구
한테
눈물
관계를
실망
시원
고맙
이성
중국은
##이크
민주당이
검색
##회에
##려나
##었으면
##금이
가입
기준으로
빠른
고마
거죠
##문의
##치기
##팔이
적당히
이혼
짓을
##공산
##량을
##되는데
자리에
옆에
머리를
특검
우린
일상
##했지
##의식
무엇을
행위
무식한
##전은
##아이
근처
##소득
사람들에게
공연
##시의
##산이
없지만
000
##하시는
확대
##거운
스페
서서
##거면
듯한
마음에
멍청한
이딴
##st
유명한
##중한
버스
맞다
##겠습니까
얘기를
미군
경기도
완성
정권이
나오면
문제인
집을
완벽
이지
싫다
로마
넘어가
오로지
대통령님
##했으나
한심하다
자존
아시아
##졌네
죽어
다름
알지
죄를
비싸
##술을
##료를
몰려
무지
##조리
일부러
여름
##점에
2차
봅니다
##용으로
좌좀
##호가
손에
달러
클럽
##유의
뭐라고
나라에
나눠
블랙
차례
##쪽에
그다
기도
이외
##어는
우리나라는
삶의
얻을
##당하고
##형을
##판에
주도
##사태
##ow
부활
이민
점에서
어휴
##년이
불매운동
##품을
2014년
##력과
브랜드
모여
##치로
밝혔다
##누리
아이템
국가의
찍어
##격이
##하고자
##된다는
지정
상황에
악플
##조의
이탈리아
가리
모아
##부모
##성으로
그날
저항
##ot
때가
추구
정은이
치고
들었다
언젠
중소
##개가
인간은
##시절
모를
##는건
영업
아닌가요
절대로
##들이나
1일
##임이
##프레
유일한
##다시
걸려
##하는것
300
안좋
남녀
버티
누구나
##제도
##버리고
##시마
##가야
##드립니다
##어리
##했는지
제정신
##인듯
임대
남자가
번역
손가락
비록
떨어진
실천
그룹
분류
집어
데미
상호
윤미
처음부터
갖다
어쨌
월드
홍보
##구리
문정부
박원
버리고
##라의
빼앗
살기
##학과
##싶은
##까지도
배신
감싸
##유가
##학을
##니깐
##으라고
개입
##는데도
심각한
##규모
하더라도
500
편집
평소
개인의
받아야
##나간
##보단
출발
하긴
오늘날
하는짓
지휘
분리
##선의
했을
연락
법이
##성도
##구는
아니지만
##중이
알아야
끝나
아르
반영
시설
이승
##하에
국민들의
##20
##했네
그러므로
정치를
늘어나
올리
내세
통계
##명한
잘하고
도움을
어린이
겨울
기울
주지
민주화
##미를
주택
##서의
국민들을
수백
하나는
괴롭
##좌파
유닛
##아는
##에게도
##진을
영원히
똑똑
그녀가
##어져
number분
##무리
상대방
처음으로
김일
코스
##있냐
##가라
바탕
스포츠
있으나
##요일
성능
의도
무죄
맞춰
하나가
최악의
둘째
같아요
##학적
하셨
##모를
설득
90
##우가
한국에서
##는거냐
##주로
미개
의미를
목사
자극
그려
건너
고양
한다면
##었나
기득
조국은
이름이
나오지
##했냐
선언
민주당은
##이와
리얼
전염
29
##답게
##세기
막말
전국민
##연히
고대
이러니
고향
##인에
근로
기획
##았고
##경기
##화에
##구의
##았을
##점으로
일에
##오고
##화에서
어떠한
마약
##에게서
뭔지
청소년
구입
##되며
물타
자본주의
##신도
분이
머리가
한두
인상
##쓰는
number년대
미쳐
일하는
##치면
##댓글
내놓
어째
좋다고
##시켜야
##해를
##기간
살아라
일정
챙겨
삶은
태어나
연속
##추고
살려
했습니다
##만도
부인
쳐다
김대중
문을
발사
기회를
폭망
말하고
##겠는가
##서에
없어요
##어의
늙은
KBS
이시
평범
심리
김정
아이를
아웃
감성
선동질
마세요
썩은
##하길
바람에
결과를
한참
드루킹
##리스트
범죄자
전반
법률
단순히
왜냐하면
왜곡
나오고
극복
입국금지
##했기
많고
일본을
몬스터
기계
손혜
이것도
##검사
답이
##해주는
쪽팔
##저리
##해가
하나로
##10
달성
소녀
##서야
2013년
##실이
새벽
조합
##조는
하다가
##음에
수정
##바이
아이들
맞고
떨어져
아줌마
보면서
고정
##주기
공장
##공개
요소
##물에
영역
number대
##리도
518
##준표
진실을
떠올
##뿐만
소년
2000
예산
허용
이런거
나라냐
다르게
##라를
온라인
보여주는
##재가
##있어
종합
방법이
절반
취소
오후
내게
##연금
복잡
몇몇
출시
##통이
규제
아름다운
차이
붙어
배달
함부로
##국은
사항
##애들
##스에
테러
성적
조국을
##자식
후손
되기
##행이
아깝
있어도
괜히
##대학교
글로
웃기
해방
쓰지
폭력
제조
어깨
용서
##시켜라
196
한번도
사용할
탈출
교활
조중동
자유민주주의
의미가
내일
정경
드래
##고가
##있게
귀족
미쳤
##십니다
정상적인
뇌가
근대
##구석
강간
기념
위반
##법은
정확히
이웃
방사능
지능
부모가
북괴
##물고
이만
돈벌
이슈
교사
자유한국당
실현
걸린
number여
##빨갱
올해
##50
실질
좀더
##부터는
##ec
실업
것인지
비롯한
아닐까
비용
##세로
지니
##같은데
2012년
죄가
비정
표창
추정
##이라서
프레임
사장
삭제
문정권
막아
스테
없나
짐승
number명
##한것
북한의
가까이
양반
##제품
잠깐
뽑은
##하라는
공격을
##미애
##수에
부패
회의
입만
할아버
복지
##한테는
말하면
등록
이미지
##발이
지껄
##셔야
명단
무역
##상에서
소련
내용이
중단
있는가
하였
##하지않
작년
살해
본격
홍준표
##었다는
안내
대상으로
고위
대한민국은
철수
방역
사람에게
이하
##물로
꺼내
The
##한번
법무부장관
한일
아마도
격리
##우면
in
문대통령
##인도
역사를
##앞에
##거래
여자는
##메이션
##구에
##라며
말만
##권의
사전
대회
쓰레기들
##판을
말았다
한달
다시는
충격
투입
##물의
자기들
##자들에게
무한
올바
##신의
##다는게
어이가
긍정
끝내
아들이
##리다
입학
유전
2010년
받아들이
누굴
확진자
##하긴
배치
훌륭한
##티브
봉사
##ad
반도
기소
보니까
지시
쩝쩝
전개
일찍
씨부
운운
끝에
##버렸
박사
확정
##시지
##선은
##ent
검토
아이들이
좀비
##구먼
통한
김경
##력의
##하지도
공통
안돼
디지
쪽으로
지닌
인류
같았다
다음에
##지에서
둘이
며칠
권력을
강요
정체
##호는
한명
선정
##도와
##전으로
##기까지
기여
##하기로
공중
##권은
얼굴이
지내
객관
##때도
##안하고
##필요
만들어서
너같은
##름을
다섯
##비아
정권을
몰라도
높다
##러워
##구려
##드리
선발
꼴통
북한은
##해서는
데뷔
우습
꼬라지
보낸
하려고
##공화
죽이
세금을
여기저
권한
##없네
##기들
논의
다르다
무릎
##국으로
이득
입에
##보수
특성
인기
살아남
곳이
##번에
좌우
##하지마라
뜻을
##되서
##니가
있음을
##는다고
고유
바라는
##길래
##여야
자신들의
매달
끌고
##독재
난다
만에
##무시
크리스
열린
위의
획득
없게
##하려면
새끼들
##석을
규모
넣어
보스
##업체
##치의
##식의
읽어
이름으로
##저히
있었지만
##나와
그렇고
본질
정규
열어
옮겨
##경찰
위에서
의하면
신기
정신이
마누
##님들
혐오
둘다
선진국
남탓
사건이
길이
말이야
##사람은
아니라는
당하고
아가리
윤미향
자네
배경
케이
구라
문제다
존나
대전
정책을
압박
앨범
소재
##dfasdfasdfasdfas
##비로
수단
##가능
모조리
장악
키워
몸이
대표적인
##비에
묘사
학습
구축
동아
##있나
협력
##면을
##트에
##계에
202
모르겠다
힘들어
활동을
##총장
##투표
교체
남을
속으로
후회
해보
이로
동양
하야
본래
##테니
조정
##일뿐
엘리
작용
커피
관심이
왜이
원작
##실에
분들
벌레
##후에
아저
우한폐렴
##잡아
중국에서
명칭
그니까
등장하는
시간에
카메
##미는
##하자면
않지만
공유
##교회
비상
밖으로
거쳐
##주민
했으면
##인들의
마시고
하라
시작한
이른
발악
당사
효과를
그에게
쉬운
예배
하라고
저리
그와
애니메이션
날이
뛰어난
2011년
##버리
상태에서
##지말
32
떨어지는
##그리
수록
##었지
밝히
효과가
##거임
##증을
##기나
##력에
받게
정부에서
수요
##생이
이스
최대한
메이
한미
검찰은
##했나
친중
거대한
부분이
빠르게
##뮤니
데이터
안가
##면에
전해
워낙
##보를
##책임
정신을
##버스
어지
##관은
##형이
##크를
표시
명확
00
20대
##론을
연금
신도
재난
##지사
집행
##다란
수업
##재판
단식
한국을
이겨
##지나
##장한
흔히
유공자
끝난
##졌고
재벌
것이라는
실행
인지
깨달
가로
##쓰레기
##통을
장소
정권의
아가
도전
들려
됐다
자는
비싼
##신은
합시다
##보며
건데
대사
##으신
##프를
##병을
말라
##이었고
되었고
다소
개최
아우
고집
정말로
한반도
##하지는
텔레
##발을
특별한
##겠는데
##할듯
목숨을
뒤집어
발달
드디어
아버지가
##것들은
일어난
##별로
건축
##나다
이유를
이것을
그러다
주목
내리
만일
##로의
##직을
사회의
제출
##OOO
경찰이
그들을
##버렸다
##벌레
곳에서
하지마라
##이라며
##시켰다
##그래
사람들도
공짜
자한당은
그렇지만
##타령
내용은
매출
##돈으로
결과가
이익을
휴대
탄생
패턴
이제와서
청구
##살이
##았다고
##km
효율
발휘
찬양
##느니
넘는
하니까
투쟁
음주
정의당
참조
##음에도
##님을
세대
연습
고작
주제에
중소기업
사냥
##하겠지
의견을
##이한
한나라
이들이
롯데
number세기
욕을
안철수
상위
타령
##력도
보아
죽이고
물타기
붉은
여기저기
멀쩡
##ve
##해봐라
LG
고등학교
우리나라가
##수수색
한쪽
##르지
감사합니다
문씨
추종
짧은
외부
##인에게
편이다
너의
그들
##ay
##르기
단어
##ro
받는다
신앙
들어가는
에피
##십니까
첫째
방식으로
##니스
우리를
당한
활약
감히
들어간
자한당이
부하
수구
베이
정확한
그녀를
점이
194
아쉬
위대한
공작
임기
##섰다
끌려
물을
부대
원전
여론조사
어쨌든
아프리카
##적은
소송
어렵다
적을
어둠
외치
논문
압도
이처럼
##시요
추미애
##았습니다
많아서
현실을
그지
##줘서
##함에
돈은
##명으로
점령
통신
되어야
털어
마주
공천
##빨리
사건을
오빠
##원전
막을
뿌리
빨간
##집회
하나님의
##럽게
##말은
제안
진영
##다니는
메르
그렇다
제국
1위
##있으면
##im
잘하는
태어
위기
##ch
##이들이
##권에
죽는
끌어내
뒤에서
수치
##게임
지하철
##지면서
##망이
입은
##새끼들
부부
없냐
달고
##케팅
##신문
##향을
보았다
답변
##us
시급
##아나
과정을
##오면
몸에
관계가
없었던
##식은
이낙
확률
공화
##차별
속이
위키
거라고
##인트
대통령을
깨닫
천안
기존의
한정
##길을
대우
즉시
도쿄
##할거
프로젝
##민이
##모양
해주세요
상당한
존중
정도는
##드에
산다
##그룹
##것같
경제적
제주
많네
사유
안타까
연장
사이의
##류를
답이다
##곳에
주었다
의존
걸로
확산
하락
만난
쓸데
느낀
그러고
시대에
축하
매년
개그
기어
어떻게든
대법
압수수색
금액
현재의
예측
호텔
##아닌가
느꼈
박살
아시
지어
이뤄
나면
##연이
일반적으로
반박
집으로
때에는
본인의
의료진
것이며
한데
폭행
##으론
##당과
필수
무시하고
기업이
죽창
힘들다
할까
편의
때부터
##단계
정신나간
##일로
안될
5년
현상
##장도
아무래도
##서도
##의로
자리에서
##달라
안다
##un
했다는
##움이
##문학
성폭행
일관
갈수록
number천
커뮤니
##건가요
작중
뭐야
연출
##등학생
그야말로
부르는
울산
텐데
호구
죽일
한글
##가며
##언을
그러면서
대학교
보복
나가는
보이고
한가
대기
채널
##에다
보조
##때까지
##때문
기사가
전용
이분
##감정
##후의
##세는
미래를
##을텐데
방법은
##차는
##하겠다는
촬영
##선에
##망을
##책을
당당
마땅
and
##힌다
명백
##일본
서양
##아의
보게
역겨
아동
사랑하는
주체
감시
##외로
배운
대통령의
##사에서
OOO들
##제한
불쌍한
구역
브라
발동
##병이
있는거
뭐하는
따뜻
충성
추측
##따라
드래곤
어쩌면
##마가
##ut
##아야지
계열
시나
그린
군인
##되게
강하게
##놈의
몰래
대립
##토록
놓은
##결과
##ir
불교
또라이
##을까요
언론이
안하는
이름은
죽고
배려
##에겐
틀린
베네
떠오
1억
##사이
꾸준
##로도
종종
제외한
빠진
전교
1000
##단에
디자인
##하시고
##19
##정부가
기본적으로
세뇌
노릇
이전에
몇년
##여자
선전
채용
##해주고
거두
##리즘
신체
경우에
##어준
종료
##버려
것만
창피
대충
연봉
##세의
부자
혁명
##검찰
거절
갈아
커다란
##하겠다고
##었어
핑계
미국에
##플레이
명이
도저히
한마디로
##했어
없기
만들었다
그러자
##으러
##익을
금방
키우
일자
##답니다
##실에서
##공을
들을
무료
못하면
개정
에피소
##버리는
유승
주변에
##어지는
##스코
전형적인
옳은
분들이
분위기
##담을
징역
##위한
##었네
설마
대깨문들
하더니
부끄러운
##법에
달라고
생각할
요새
##빠진
무엇이
##그릇
##실한
적극적으로
##관의
박원순
##에서만
쉴드
미치
##ur
##재앙
##거는
나아가
##류가
##거리가
##겠니
하겠다
오랫
##화로
##물은
대통
허위
##진은
##아지
단순한
주문
##호의
##시킨다
##락을
오브
정권은
평범한
이번에는
##처리
실수
생각도
소름
큰일
MBC
입장에서
인증
신의
경계
##내서
35
폐쇄
##해줄
유도
결국은
욕하는
##참에
경북
일주
끊임
김영
문슬람
짓거리
대단하다
죽인
선배
##매매
2008년
힘들게
손으로
있었습니다
폭탄
싫은
##설을
장비
자원
2009년
최초의
##마를
존재하는
1도
침묵
##관에
##ag
경제는
드는
옷을
말인가
##은행
확장
이야기가
##표를
맘대로
문제로
부모님
체포
대상이
물었다
백성
##30
자빠졌네
계속해서
크로
하여간
마무리
##욕을
##있지
스파
##로서의
##법으로
주면
##아니라
무려
자위
잠재
내지
유니클
하늘을
##행위
잘못을
##없음
##집니다
##집에
민생
올라가
수술
##관련
##리면서
아베가
감방
뭔데
현재는
##해졌다
할지
이렇
##해지는
##자마자
수천
초대
국민에게
##으세요
진중권
이순
국민들에게
##땜에
얼굴에
체험
동남
원인
마침내
일방
점은
지상
여겨
아닌지
운행
##스토
항목
파워
##정부는
올린
의해서
해요
가수
총선에서
듣는
시끄
##노동
전세
보며
##놈은
자신에게
구멍
끔찍
일종의
##평가
뇌물
조금만
공항
알았다
조만
자체를
벌금
처음에는
##심은
생활을
물질
심한
있다가
새누리
##직한
시기에
크다
문가
##대에서
스피
하느
카페
##천지
이벤트
##하면서도
것들은
동성
놀라
거주
##하여야
듯이
변명
우리에게
돌아오
폐기
붕괴
최강
방법으로
돌아가는
연관
있는게
스마트
등신
느낌이
병사
동일한
##od
기득권
배워
간의
일본과
재정
진심으로
맞게
##되었으며
가지가
일반적인
나간
##색이
이해찬
노출
개돼지들
이따
방영
유치원
다스
##주에
##분의
##았으면
구별
마구
수호
##만들
해봐라
##해놓고
그럼에도
가자
number시
아닙니까
##너스
##넘들
이들의
파티
등은
전라
아이돌
조성
무언
낫다
성우
계급
이만희
##단은
꿈을
195
##형의
##아니냐
복귀
떠들
국가를
##이죠
지네
넘겨
미국에서
##놈들은
않아도
누군가
쓰면
사랑을
무장
##사항
위험한
무관
##지니
어느정도
조금씩
손혜원
출산
바탕으로
되냐
일본에서
조롱
조각
차를
연예인
살아야
##이었는데
성인
밑에
##바라
기업의
가치를
이길
##격한
자유를
##마는
to
##하기는
깊이
SK
##사람들이
그런거
야구
갑질
건지
##리티
유통
수준의
예전에
##금은
위치한
애들은
##겠지요
이나
마케팅
##추어
대박
이참에
경제를
##민주당
무사
은퇴
##경에
김정은이
결합
히로
##통합
##대상
##세에
업체
의하여
##출신
원숭이
되는거
##선으로
상태로
선물
##선수
검증
##해지고
##센트
문제에
##그만
먹은
##타고
내내
않도록
##하죠
01
##가로
마지막으로
##보세요
##청산
만들어진
대변인
나불
오랫동안
식민지
##em
얻은
시대의
##치에
보여준다
##유를
올리는
##내야
오늘도
현장
##좋은
##봤자
주말
##해진다
##발전
남자는
찾는
후쿠
엄마가
읽고
보일
이후에
이해할
건드
가깝
경고
##실로
##소에서
올바른
##TV
전화를
초등학교
인간을
뭐하냐
방향으로
중요하다
재수
힘내세요
형태로
특혜
좋게
##계획
동영
뉴욕
틀림
어디에
가치가
연애
한거
전쟁을
##아리
이날
일으키
점차
정치적으로
##란드
착한
무엇인가
생각했다
치는
##영이
내에서
입으로
##었냐
목적으로
전파
##들었다
##소는
던져
##이게
##보호
정도가
##했으니
##방이
알려져
청산
세계를
##교수
##속도로
##텐츠
붙여
##이즈
관찰
걸고
오염
들면
하여튼
너가
구간
어디로
하나를
##타를
##정당
##페이지
##투자
##효과
뒤를
체계
남겨
가려
형제
두번
찍은
조종
당해
부족한
중도
버린
미통당
##아니고
##라엘
침략
뜯어
##조직
나은
때의
요리
##통수
고급
출판
글로벌
##아냐
##시간에
순수
경상도
이쪽
서술
사죄
수학
##화와
보내고
놀고
##성장
간신
##국에서
지혜
##th
##레이드
끝이
20년
펼쳐
것이라
보편
##고한
머리에
유대
##크가
##나이
되나
##해져
##혀서
두려워
##연합
2017
않기
챙기
총리
##경은
대리
사내
김성
일본으로
##들에게는
녀석
나갈
##개로
환영
등장한다
걸쳐
좋고
##피언
통하여
방탄
환자
##석희
중공
올랐
말자
##동생
##했어요
개나
##있음
2020년
법무장관
주장하는
이쯤
##할것
숨어
인공
차가
교과
홍어
##스테
##입국
##바람
극단
##해질
느낄
사회에
쯧쯧
##러가
설계
##죄로
세계의
추방
number차
##와라
역사적
경상
##구멍
이용한
날려
기능을
비교적
유학
마인
##령을
출전
##리는데
기술을
##속으로
##비의
##bs
교도
바퀴
##등을
유일하게
##었는지
역겹다
##봐요
##였지만
##내기
당황
죽음을
##았네
##사기
문재인과
싶지
종족
##함과
반대하는
법적
초딩
존재한다
웃음
부추
교육을
숨겨
##하기에
접촉
여담
대한민국에
확실한
거냐
전설
학생들이
##해준
해명
나이가
##모로
비율
신분
##스티
본인은
정신병자
아픈
##라시
##사도
깨끗한
출마
행태
99
##하였으며
대북
고통을
말라고
바뀐
이스라엘
##회가
##옵니다
##럽다
넣고
어디까지
국산
장학
천천
이재명
전면
진입
##지자
##연을
사이에서
국개의원
##되냐
포함한
이번엔
무렵
피의
##잘못
씨가
1인
##다리
비핵
##프가
권리
##집을
기분이
##드라
이내
황제
의지
청소
자신은
올리고
##전문
감각
##으로서의
조만간
##재산
미국과
떳떳
성립
협상
##후보
##종이
정유
##할지
공약
St
만든다
부분을
마녀
##포를
##모습
나에게
했으나
강제로
전시
국민세
##ver
시킨
##살을
이후로
##거라고
결과는
스카
##꺼다
##하기를
3일
태어난
시키고
##운전
해산
##과학
모습으로
천천히
##리냐
##했다면
미디어
##사랑
모르게
시키는
수수
마시
##령이
가족이
##았지만
입장을
두드
모순
##남도
소위
##안은
잡을
##os
끝났
이자
##증이
게임을
항의
총장
불행
공기
##당하는
않는다는
나타난
진단
구경
싸워
최초로
저딴
발행
돈도
지는
##게요
##문은
갈라
핸드
메인
넓은
비하면
라디오
스토리
기본적인
##일의
##식에
달아
대학생
##동의
포장
김종
생각하지
##중인
전사
자발
물려
식당
1차
욕먹
쉽지
아카
##색을
##선에서
나서서
신상
##라우
만화
부정선거
넘게
점이다
바쁘
정확하게
무덤
오리
##더냐
술을
##달러
어두
비서
천벌
##중에도
매번
자격이
신용
##웨이
##박이
##게도
##잡이
하는구나
규칙
엄청나게
##부에서
이낙연
##회에서
##마리
##진의
망가
살짝
어마
##사무
주제
가르쳐
기름
거짓말을
든다
간호
들어갔
보냈
수비
##션을
##쳐먹
##하든
##ation
공직
##과정
와이
##키가
데모
투명
##것처럼
놈들은
##렸을
##ri
변화를
지은
주둥이
대규모
반미
##시즌
##꼴통
보세요
시점
##왕의
라인
##인물
있나요
탈북
배가
받아서
##병원
어릴
독립운동
좌빨들
끝나고
소방
##소의
높이
한계
위조
##부와
졸라
아이고
##기준
무엇보다
어서
좌파들
질병
##가도
형사
##동에
##쓴다
저지른
민중
중반
##거리를
가볍
살다
나라꼴
중립
조치
공평
##들여
않냐
찾을
합법
주어
이슬람
진작
연방
아저씨
죄송
대만
불리는
##항공
##정도로
익숙
멋진
안되고
##ter
잘라
##연한
정치에
좋아요
##기면
곳으로
소수
애플
##op
##거리며
감당
##속에서
요즘은
##미아
##나보네
36
듯하다
##크의
##량의
고쳐
반도체
하지말
##가게
##으셨
대화를
인물이
##많이
챔피언
##영화
안달
##짓거리
하나같이
아이디
작곡
스트레스
마스터
##대한민국
언니
지나가는
다리
시골
디지털
달창들
아버지는
세계에서
강의
##기자
##수와
##박한
신이
약한
45
디자
평양
##으려는
중국과
잡는
##미디
여기는
##크는
학원
견제
무뇌
황교활
##대도
알려진
한남
내면
나가서
어떨
잘한다
##때마다
대결
자세한
##리니
##정권이
지역의
##시험
악의
곳은
혁신
잘살
파는
자금
##사실
상대적으로
기사는
진지
외면
도와주
자존심
느끼는
철도
##르의
들어갈
##공격
마리
##카드
제3
현금
##벌이
사회가
떠나서
박그네
##는데요
앞장
그릇
김일성
##어주
시나리오
자세히
대부분이
에너지
적절한
##산의
##더라고
잔인
number개월
지소
##ap
누구도
인재
앞뒤
박근혜가
이용하는
##농단
기자가
단독
사실이다
오죽
속도
부분은
빨갱이들
당신을
것인데
크고
국가에서
수사를
한숨
마음대로
안됩니다
##마니
소모
얼른
활성
멸망
후원
##이므로
##만으로도
장군
파견
재능
사드
정답
##든다
동참
꾸준히
유행
##하자는
보건
##판이
성범죄
사용자가
필리
긴급
##ct
표준
거듭
널리
전광
텔레비
허락
##가면서
##하는구나
지니고
과거에
##이니까
월드컵
되어서
계획을
##회는
##것만
이용해서
표기
기운
시체
하수
몰고
끊임없이
상대가
##자체
화려
노력을
##합니까
넘어서
##을듯
남편이
##구조
씨는
또다시
예비
##내지
##시죠
갖는
비례대표
성추
쫓아
타격
##하게도
##경영
않았고
주차
막고
해놓고
##터를
대륙
이상이
북으로
유니클로
##대응
이적
가슴이
##졌다고
##심한
수석
먹어
##떨어
윤석렬
##비용
사진을
여론조작
아깝다
##군에
친구가
웃기는
더블
정의로운
흐름
##서로
치명
##노조
손님
감안
##이던
2007년
적절
호남
##아들
너희들
부드
##날이
##감은
##타는
가을
##소한
돌아다니
게이
신념
무섭다
##실히
목을
색깔
##십시요
썩어
어려워
너나
조장
문자
일치
##지며
그만해라
##장난
안으로
정부에
대접
생성
##동네
자국
##공산당
##더군요
저건
죽어나
##마냥
##거니
미래가
해야한다
머물
소통
세우
중의
##차로
만났
인종
싱글
##하다니
거기다
때에
기다리고
##하고도
단속
##되는거
##있다고
손석희
##전한
욕심
회피
과거의
##원들이
정부를
충돌
문재앙은
##되나
##내려
##교를
##으로도
오늘은
운동권
##르트
##보가
운용
있으
모습은
##미의
자기의
등급
만만
이명박근혜
가질
##언이
##줄이
##치한
인간들은
##하므로
버닝
자라
여태
정도면
##시키기
독자
38
불을
불이
##였다고
원자
쓰레
개학
무척
부처
##시나
들어온
30년
체력
안들
##년에
##주의자
공부를
화를
채워
##분은
##비리
작전
예외
##통일
우울
##이네요
인생을
말아야
개별
소멸
했지
##부장관
##나온다
더더
출근
전원
##하기가
놀아
지나치게
##방에서
테이
딸이
##복지
밀려
##랑이
인격
##자연
외에
##나네
##반대
사서
##관계를
영토
살아있는
보급
##줄알
##네들
형식
의미한다
잃어버
##되었던
않아서
게시
죽이는
##지네
장착
##버린다
좋은데
아쉽
영입
##드와
##자금
외에도
만날
##환경
사람으로
제압
써서
자유당
##진짜
지속적으로
생물
시켰
정식
인데
##가와
싶으면
은근
문재인을
사람과
##생을
정의를
있으므로
너거
##풀이
전작
가격이
트럼프가
##로그
목소리가
##탄을
IM
정수
괜찮은
거는
흡수
하려
전부터
김어준
추락
내에
시대가
##길이
확실하게
황금
##했다가
한게
##일도
기쁨
끝날
민폐
좃선
나오는데
numbernumber
##침을
김제
아이들은
눈으로
오면
이니
강경
없으며
다녔
이런데
합격
##스카
국립
##싸움
만세
지향
##등급
적응
##하나요
##계는
당시의
사업을
애를
##한지
##ew
오버
##받지
꺼져라
##능력
##패스
애가
혼자서
것보다
앉아서
##ER
##림을
##져도
살게
세종
대한민국에서
많았다
직후
무력
모르나
아버지의
##기야
노래를
임시
기회가
단단
##하자고
나타났다
로봇
낭비
건가
암살
북한을
지지율이
안그
인정하고
불평
정신차려라
초월
##량은
##작을
트위
지역에
52
##음은
마누라
앞으로도
##원과
##부지
잃은
주기
평가를
이끌어
##영은
지불
##형은
##이었지만
동남아
##었어요
부딪
재료
이루어진
타이틀
땅을
보여주고
꺼져
##성한
##일세
오만
묻고
되면서
##였습니다
우습게
도달
더한
사회에서
통치
삼성이
일행
쓴다
세운
##자리에
##왕이
했는지
마르
생명을
와중에
동성애
안해
아이는
웃고
근접
맞은
등과
하거나
##뿐이다
궁극
하드
스위
자제
써야
당하는
구체적인
##민은
뭐니
나타나는
여성의
모지
하지마
안쓰
노선
사이트
개방
간에
땅에
##상과
##차에
대미
##수있는
하는건
##40
##인데도
이런게
마음으로
##사람들은
##무기
다운
싫어하는
인용
버려
쳐먹
갖게
넘쳐
논란이
바이러
##았다는
겁나
의문
##지는데
##케이션
교환
취임
##트워
클래
##거같
무엇인지
증거가
##소로
입맛
더듬
##란히
웃긴
##함은
창출
##즈의
##빨갱이
##니즘
여야
자식이
부른다
##못해
중국몽
##세상
지난해
##무가
##리라고
회장
우리나라에
##가다
사용한다
협조
스펙
자체는
사고를
민식이
##와도
편안
보인
어쩔수
모르겠
좋겠습니다
생각에
억지로
보내는
실력
09
놀랍
##구니
새롭게
##트롤
##봅니다
분양
일어날
친북
받으면
성매매
만들기
없던
없다면
##드에서
과도
대다수
##란을
못된
다수
##역시
할때
나대
국무
차원에서
03
있구나
싶어서
힘으로
고구려
시민단체
한때
움직이는
부들
지원을
##친구
진술
선호
##자라고
이른바
그만하고
##품이
차기
형편
##터리
##하지마
빌려
감정을
의외로
시작한다
자율
자연스럽게
벗어
##시켜서
같고
지금이
자전
스크
서초
변신
공사
않았던
거울
수준으로
대장
##대전
대항
##승을
##화하는
퇴출
연주
가벼
##했음
국민연금
고문
안하면
부를
서서히
엉망
5천
냄새가
데이
잡은
버렸다
살아가는
180
하는것
##나라가
깜짝
##론이
한겨
사람이다
02
버렸
학살
회사가
행동이
멈추
때문입니다
비로
편하게
맘에
보다는
##데이트
엔딩
##스트를
생기는
수령
적합
##정과
모임
여자를
4대
많을
##하듯
##레벨
조사를
##구역
하여금
역사의
##줘도
오픈
원인이
봉쇄
##주시
##도시
오토
##마이
차고
무서워
북한과
정치인들
##오가
지지합니다
결승
##보도
부디
인성
나갔
##교의
이용하여
언론에
잃고
언제부터
##졌는데
상속
메르스
재밌
마디
중국을
아이들을
제재
대개
개돼지로
인수
##마을
거대
코미디
##릅니다
지경
조절
취재
줘야
고백
##중을
악질
출입
##아를
##둥이
이정도면
원내
양성
##봤다
않습니까
제주도
플레이어
되자
허구
##다는거
##트리
일어나는
짐작
시달
##거리고
주위
패러
애비
##지다
단일
잡혀
상실
##회담
엉뚱
문재인의
불만
##마의
정경심
전체를
들어가서
순식
방위
생겼다
머릿
호소
일본인
대대
각자
내린
체육
##었으며
##보이
무게
당신들
망할
위장
남이
대체로
지겹다
##oc
##간이
부탁드립니다
많습니다
보수가
늦게
##약한
즐거
감옥에
비행기
그로
##주의적
##아님
##나의
직전
가난한
꿈꾸
특유의
기사에
해주는
시내
커녕
회원
있었기
심상
일당
저작
국토
주머니
때문이었다
파이
##스러워
1번
휴대폰
##열한
포르
회사의
##소리는
##이지요
193
##하더라도
##알바
##인민
##ak
##자유
미개한
철저하게
##있을
감수
예의
있긴
속의
메시
비웃
누구를
이대로
그네
마사
##파는
계신
나름대로
그쪽
##까지만
않았을
꼰대
##bc
##오를
깡패
Ch
##체로
통화
안고
문제지
##공무원
드러나
##계약
##ig
주장을
클리어
##부들
##우의
##인사
신라
피를
##ul
왕따
##배를
##분들이
길거리
아오
화면
좌익
시전
업데이트
서울시
##론의
되며
##동맹
절망
유용
##타가
죽어도
개성
##회견
지금이라도
캐나다
##형으로
st
맞이
어려울
사로
##대기
##적의
역사가
33
있었을
##산은
자신도
마음의
아니라면
##ce
일로
진화
도서
안됨
##할려고
지키는
##루가
확신
미술
농민
##공항
PC
##수석
##자료
신속
사회를
간주
##례를
##덩어리
어딘
다음날
갖추
##자체가
계시
하네요
사정
정부와
##우를
##질로
##교통
오해
못해서
##25
카메라
많지
어머니가
아이의
할말
홈페이지
##들인
북한으로
질문을
##파가
물건을
##어마
버리는
모르지만
살면서
만다
사고가
##프는
성추행
등장한
같네요
망해
##처벌
##되니
소중한
상태가
여자들
삼국
##관으로
공무
##법의
적도
##감에
밥그릇
눈물을
잊지
파업
##씨를
집착
이들을
##우지
##하실
민정
##건을
4년
##동은
셈이다
경향이
예방
현정부
하루에
##안되는
내야
##로로
정착
경향
이래도
##파의
##이었습니다
푸른
2006년
##씨의
합류
조금이라도
나중
일으킨
긴장
##연의
고스
충청
자식들
##주인
즉각
여담으로
생길
안녕
믿어
아기
비극
파트
##자다
운동을
에어
##명에
##걸고
##조로
##율을
보여준
조카
탄압
날뛰
패거리
##못하는
거고
오프
2번
##산에
##목이
깜빵
##고의
##영웅
뜻이
소대가리
##터가
중학교
탓에
외모
##못한
하나씩
##아파트
독특
##상공
징징
대량
##간첩
오전
행위를
##께서는
경비
김진
##디언
물이
하도
먹여
것들을
휴가
이천
2000년
##패를
나누어
소용
##타로
vs
다닌
왼쪽
##관광
안나오
포지
##즈아
들여다
온통
일하고
##학자
스마트폰
##렸는데
아파
경험을
##좌빨
세상에서
중간에
세금이
노란
##체에
할줄
보존
훼손
타입
바깥
전망
헤어
억압
뻔뻔한
##청원
대안
천재
##이면서
##대변
##보로
성향
일어났
##종을
북미
일시
김치
맞는말
경기를
##에서부터
신천지가
임신
수립
중에서도
보네
곳을
##셨다
##환이
입증
박탈
##일러
포켓
그대
전광훈
##질러
##기기
놀러
사용한
짜파
##못하고
영양
휘둘
##갑니다
##층이
조상
태풍
학부모
수능
조폭
튀어나
방치
하나하나
##하겠습니다
어머니는
역사에
일베충
##라라
##스키
수도권
맛이
정치가
눈물이
들어와
배를
##ia
블루
않으며
##적이지
버닝썬
근육
일러
##방의
법칙
모르겠지만
##장애
##맞고
대폭
유엔
언젠가
##쳐라
부채
가슴에
에게
나라망
여성이
그다지
40대
대해서도
선출
버전
비로소
##스케
학생들
범위
##인지는
망하게
이십
의견이
심하게
##때부터
기억이
민심
해당하는
##분열
여유
상담
맙시다
##지라
##직원
전교조
어르
곧바로
##스럽고
##통신
그딴
된다면
##있으니
줄여
입장에서는
##and
진짜로
말과
##시스템
만들어야
##비스
##값을
놈은
열고
관여
모으
##받는다
##역이
모욕
지나지
적의
신규
##없으면
유기
IMF
끝나면
김학의
각성
##훈련
15일
무대
우리나라의
피곤
장식
##있습니다
줄어들
응답
이주
##운영
사건은
정신적
믿지
애매
종류
너를
욕하고
말하자면
진상
노동자
##기에는
하나만
어쩌고
##정권은
##한테도
지키고
내밀
##주었다
떠들어
말입니다
배제
추적
##되기도
저렴
##우리
감동
같아서
것이지
참나
윤리
길게
##수엘
검찰의
않았지만
##아웃
##백과
청와대가
돌아온
##기다
되었습니다
너희들이
싸우는
##무는
##로만
선진
그러는
아픔
주한
##고에
150
양쪽
칼을
##하느라
그리하여
체제
##루를
##업자
아무튼
주관
느끼고
종이
핸드폰
##었기
난이
41
찌질
그러냐
적어
적폐청산
네트워
싹다
음식을
연극
궁금하다
상식적으로
##나가는
발을
##질에
덧붙
피가
##og
##방으로
##왔던
공정한
##시하는
그러지
파렴
보소
리얼미터
전수
번도
삭발
딱히
한사람
30대
하위
##소설
전쟁이
학교에서
##애들이
##없다고
##주자
셋째
##끼는
##NA
탈락
가시
##조차도
##렸고
김경수
박영
부러
말대로
편이
##간을
해줄
##치도
뭐든
##있던
미성
입시
채택
못살
짜고
적대
기자회견
잔뜩
있었다고
될까
##현이
떨어뜨
##하는거지
##였으면
좋아서
##거를
##졌을
발생한
보관
얻는
배상
개편
##ist
명복을
뛰어나
##자로서
전에는
##우기
저능
##컨대
##mm
##년을
유발
그런지
제number조
신경쓰
몇십
##데로
세계에
역대급
##서서
##되었는데
배틀
상대를
여러가지
이언
순식간에
없었고
목표를
기원
법은
한걸
양보
인근
조국의
먼지
법정
서버
##배가
##리트
중독
##앞에서
##겨서
##취급
말씀을
어마어마
##만하고
##래기
##션이
##생활을
목소리를
현지
명분
##카와
해군
취득
##과도
전직
##히지
싶습니다
불쌍하다
비하
매도
5일
숨을
우리국민
반응을
복수
더구나
##론은
몰랐다
태도
##라는게
서민들
##롭고
##만하면
카운
스트레
구석
##등이
##해봐
##기능
상업
##임에도
문재인대통령
명을
막상
사면
깨어
하는가
보라
2일
##려도
나빠
##모토
써라
이단
물가
체결
##차례
##선생
##특별
파리
태도를
한강
양산
인가
인하여
##집이
다음은
하시는
그때는
10일
당신들이
요구하는
간접
오고
도중
틀어
세계가
지도자
##준다고
전공
들어갔다
한동안
##북도
죽어라
단기
카이
아키
말하지
##피아
스케
반발
다행히
##사한
달린
아메
되찾
되겠네
##인척
2주
후쿠시마
그렇죠
##고생
##매국
못차
발광
호주
08
어렵게
##었으니
##감한
믿음
얘기가
중인
슬픔
같음
##치며
그러다가
##대회
댓글을
대단히
서구
##폭탄
침해
##스에서
활발
나타난다
구체적으로
사건의
공을
##보면서
##으로만
아군
##르가
손바닥
영원한
가지는
지소미아
전체가
##렸던
일이었다
입법
##적도
##었으나
유래
베네수엘
거리가
안되지
있으니까
나라로
최선을
number시간
배웠
##공화국
논쟁
만남
역사상
##피해
처음에
시국에
준비를
개뿔
##하시길
전염병
허가
중이다
안한다
##때가
##민의
가져다
독재자
창작
##꾸로
알렉
지진
개를
인기가
있었으나
##트와
##기전에
이야기는
허리
특별히
하얀
##보복
##화되어
같네
##되었다고
처먹
부상
##역으로
##집에서
소중
박수
자들이
죄인
##주의를
귀찮
국가에
##르르
없어도
빕니다
##말에
숫자
매장
자신들이
듣지
되돌
##하겠네
마냥
자신과
살았
기술이
##질의
그들에게
구원
북쪽
자화
조선시대
모험
홀로
부끄러
태평
다른나라
있어라
넘들
몰락
비유
##는구나
##되자
##용은
부분에
##11
##안의
컨트롤
일정한
괴물
행복한
##니까요
SBS
성공한
자칭
##리는게
신호
부품
일으켜
어리석은
변화가
##곳이
없어져야
##하더라
법원
승리를
영국의
싸이
##경의
##세이
##사나
권리를
##각을
##두는
아는데
더더욱
피해가
족속
##만큼은
자산
##인지도
형태의
##버릴
##량한
왠지
어딜
정황
모든게
말투
지지자
주먹
##cm
사령
윤총
고전
니들도
폐렴
비디오
외치는
##받아야
전술
화이트
##격리
앞두고
##통에
장제
지나가
본격적으로
##었음
관광객
아니에요
다해
하신
급여
수집
뭐지
##유공자
방지
도발
##고로
##쳐도
##까지의
추경
스페인
가볍게
갖춘
이런식으로
않아요
##프의
일삼
있겠지만
옆에서
더러
했냐
육군
##없는데
10억
##하던데
여자의
눈빛
아닌듯
관료
찍소리
드리
오른쪽
##감독
죽었다
경호
완료
##미로
출생
축소
##르며
보낼
지령
퍼트
##해야할
07
남쪽
중화
중에는
##끼고
##줬다
문제의
##달라는
##혁명
##그라
추가로
성격을
##주의의
끼리
김현
종류의
측정
##겠구나
다닐
살지
안타깝다
##하는가
미니
안심
치우
##목으로
##건이
##하하
아침에
소프트
검찰을
읽는
직무
##교사
##좋아
장면이
학교에
니네가
처벌을
같냐
개인이
하기도
조지
기다려
상처를
유출
있었다는
없애고
눌러
##렬한
##스레
##끼들
시간은
정권에
##돈을
##하는거야
##하였으나
아직까지
경찰은
##이요
해소
첫번째
##되어서
교황
##ns
##졌던
목적을
사태가
스테이지
방송을
돌파
풍부
호흡
되도록
##인게
흥분
들어오는
2005년
중재
이틀
인사를
수리
파탄
착용
파일
바꿀
먹으면
병역
옹호하는
##즈가
아름다
덕에
##하진
감추
인건
400
토지
파란
매매
여자들이
서류
이사람
##고등학교
##것다
전과
##이여
학문
좁은
꼬라
골프
제외하면
다크
##타임
댓글이
모여서
##키들
싸울
공지
##거렸다
포켓몬
보고도
지나면
연설
등에서
두번째
자유롭게
##생산
부서
것일까
드립
독도
나랏
##면으로
##교가
##당으로
자료를
##정권의
초래
##igh
밖에서
##인건
보안
34
작동
휘두
연계
##메달
05
마음은
전후
##순간
어떡
상관없이
있으면서
이해를
비공
할일
##대와
하필
간섭
극장
인기를
작품을
하던데
##나를
귀를
싫으면
빛을
시작된
##사상
이상을
##개념
##비도
컨셉
##조합
농업
신중
사로잡
다수의
페르
지들끼리
불가능한
완전한
##하를
그러게
모르냐
퇴직
##더러
you
공주
##으려면
덮어
##인들을
잘난
2016
재인
못하면서
라며
개봉
지고
맞을
할아버지
스승
지들은
꼬리
살면
##겠군
제로
재앙아
잘못한
집이
##표가
가해자
맞서
받아들여
##질은
##나도
##층의
않는다고
목적이
그중
##라운드
##야마
충분한
최소한의
물에
이런걸
억지
중앙일보
20일
증언
관점에서
적자
앞세
##시키면
##듣고
##일으
경기에서
자영업자
그런가
공략
##시코
입원
가지가지
혜택을
##할게
돈만
향상
이끌고
들아
나라도
미션
##렸다고
올릴
레드
4일
사람들과
관객
##속이
사모
##방법
##트에서
영구
온다
협의
##년은
큰소리
회계
슬프
맡은
다같이
떨어질
죽게
적화
하겠지
##톨릭
나고
##절을
경기가
존재하지
##양이
말아먹
##자본
##부인
거리를
걸리면
나만
##트라
이승만
키우는
쇼핑
아사
##왔는데
열등
en
목록
어쩌다
수고
##숙한
탈원전
떠난
##돌이
미루
잘해
라이브
##진한
서비스를
##행정
향후
난민
기재
##배는
표를
##로써
어르신
2018
##린다고
모래
사랑의
선보
링크
곤란
안되면
##로워
##TA
확률이
독점
피해자가
사리
조센
타이밍
어케
문죄앙
개같은
식의
역겨운
##전자
##스탄
실제로는
표정
##마스크
##일베
끄덕
##았나
장갑
##전략
##기보다는
능력도
훗날
자기들이
##운드
연대
##양을
김태
주둔
##비한
1회
소식을
일주일
##대사
되니
##으시
##정하고
업그
느낌을
최우
모인
자의
애기
th
##고기
목소리로
그정도
없네요
패스트
이새끼
경유
욕망
이룬
##협회
##양반
남자들
##인데요
찾고
문어
모범
##즈를
팀의
것일
##자동
##정부의
구현
비정상
##하는거냐
도박
세금은
망신
##재로
필리핀
현실은
사라져
부정적인
코로나로
의학
##배우
##알고
##리세요
##오지
까닭
수영
어지간
##나마
표정을
##태를
명심
편지를
방탄소년
위기에
몰라서
정지
이순신
##ack
유가족
하늘이
잘못이
같지
##키의
사법부
48
발생하는
##것입니다
##나니
계승
양도
돌아다
192
##국인
시점에서
##잔아
##치료
기뻐
동조
##받게
부작
성격이
창의
후에는
14일
죽으면
##군과
소신
이집
자아
##청장
뭐하나
밑에서
따르는
범죄를
입에서
안할
##적이며
영화를
누워
은혜
만나서
내보
##넣고
세이
적게
목포
이기적인
국가와
여섯
당할
영광
침몰
부적
무소
##걸이
사대
##맞는
지극
안된다고
순수한
향한
뜨거운
하려는
##모르
추억
##탄핵
나지
30일
따뜻한
출현
##당에서
##전부터
납득
##자찬
않음
##드려
가능성을
##액을
거론
##개는
언론의
##ess
##테고
##들보다
추잡
코스프레
##졌다는
잘한
세상의
지명
경험이
##당해
각오
차이를
쌓아
지지를
##부장
##투쟁
얼굴로
##파를
##사이트
시선을
##였다는
##하구
##상한
후속
죽는다
저걸
안하냐
선거법
##아니다
대가리가
##조치
보이는데
대통령도
##시키지
##겁게
미성년
걷어
##즈는
##모는
##유럽
때로는
06
야이
우수
사용하고
꽤나
수습
지킬
노벨
알았는데
계기로
##무지
마다
54
국회에서
##네가
##였을
##NS
전락
깔끔
구린
해골
집합
팔고
##종은
노후
되게
천안함
어처
전제
채로
만약에
놓여
##계에서
##밀한
##영의
사라진
걸레
평화를
##당할
막기
노트
처형
점심
##녀가
양심이
멀쩡한
사시
에피소드
보완
##하곤
머저리
##총리
폭등
당당하게
유투
사나
카드를
이미지를
주가
면에서
##빠리
##ill
##시피
식사
얼마든지
폭동
한국어
그림을
자유대한민국
##로드
정치는
조작질
자치
##당시
##편에
니는
듣기
소리는
##하노
만나는
천지
시켜라
##아주
2004년
##미사
뜻이다
염병
##관에서
거품
뚜렷
불륜
더럽게
종사
강행
##12
알아라
사용자
권력의
##속을
##화하고
발언을
##사리
장애인
이데
유독
댓글조작
생각보다
나선
정당한
장관이
밀고
수준을
오래된
책임이
탈탈
국익
##들이랑
피아
가즈아
코로나19
##올라
##않고
작작
파면
빠져나
좌표
##바뀌
법의
기동
흥미
자진
지역구
인간아
경남
수원
쓸데없는
##공사
퍼뜨
유승민
##이에요
##까진
되는지
센터
배급
몇번
타임
##듯한
태양광
그런데도
##공단
공격력
체크
여행을
했으니
말로만
간절
질문에
플라
매수
##환을
##새가
##모델
잡지
배출
삶이
##마저도
결정을
이상으로
세력이
대략
선고
사과를
##종교
시계
음반
민족의
밤에
새끼가
오스트
대국민
불어
생각한
군대를
##가자
##카페
##데요
우리나라에서
##빼고
스코
##말도
총선때
화학
납치
완벽한
걱정이
개인적인
따져
엔진
##소나
충족
강원도
무효
세포
평소에
이완
##쳐먹고
코너
분들은
최근에
##이야말로
##사카
그리스도
성별
썼다
##하가
꼴이
권력에
FC
##치면서
비핵화
회담
나경원이
저장
##art
군대가
처단
##금의
##했었다
헬조선
질질
아울
##는다는
##년간
위치를
##ab
공익
25일
모드
되돌아
##였으나
자화자찬
##60
의원이
37
방향을
##것같다
##로우
사건에
국정농단
후배
##권에서
에스
가짜뉴
##하지말
##충들
석방
사립
##화한
##하이
자를
병원에
##손으로
인정하는
##치와
정책이
나이에
바라보는
나한테
하려면
표창장
아랫
출처
나이트
##러니
생각좀
세우고
##선언
꼼수
##종일
##받았다
버릴
##인인
##이라는게
런던
조치를
이것들은
##음으로
뭐하러
비판을
##의의
바꾼
다는
내리는
물러나
##되었을
개조
속성
##돈이
이상하게
왕이
찢어
간단한
대법원
##켰다
고기
역사는
04
운영하는
분위기를
수장
플래
##매를
라면
전남
지역에서
이정
가기
행동은
똑같다
황교안이
##잡을
##중의
끼고
잠수
어머니의
##원들
미국을
가스
제2의
##번호
##무라
##률을
아내가
희망을
바닥에
복잡한
똥꼬
의뢰
##차고
주저
동영상
바쁜
기회에
티비
정기
드러내
55
잠을
솔로
발전을
원망
##자치
##카오
먹고살
일본도
무기를
부각
##납니다
본인도
굶어
장자연
이러다
상대의
암튼
##마스
본능
##인걸
어딨
터뜨
골라
##족의
개념이
가족들
강력하게
연상
음성
조차
문닫
해봐
##해야만
몽골
특이
##적폐
##편이
찍고
##한이
무서워서
##곳에서
현실이
언론사
필요로
있잖아
확인할
드물
예언
유리한
아부
##순위
당시에
##였어
음모
아무나
3번
열면
전역
벌어진
##되었다는
온몸
우리나라도
잡아서
##다나
##없지
아이폰
독특한
##막을
스타일
모자라
##차게
무작
터진
##네는
주인이
자기를
이재용
안타까운
우연히
##가격
피부
7일
한겨레
##급한
상황은
장수
닥치고
28일
작업을
개념을
입이
같으니
##답다
필요는
다루는
미치는
들어가면
밝혀라
측면에서
##름이
관련이
두렵
##산으로
이행
존재가
주시
##tt
이전의
찌라시
고양이
##활동을
##국민이
저주
개신
여가
방에
여기가
고등
들어올
프로그램을
증권
58
##스턴
##사냥
미래의
의사가
오를
가상
##기록
힘들고
이상은
##ST
내려오
안된
##불가
되지만
부과
비겁
않다는
##로서는
당대표
소득주도
##쳐야
##율은
##전과
시대를
동작
다니고
##하잖아
반란
했어요
차려라
주한미
바르
결혼을
대통령과
추구하는
##보게
만들지
철거
스탠
##관계가
##이긴
##래요
얻고
##없어서
타는
##사진
감정이
그놈의
##단으로
##틀딱
말해서
사태를
##리는거
##스포
##감과
number조
In
더럽고
방식을
2개
증오
장학금
39
가관
망한다
대고
길로
같으면
않는다면
##지키
##겁니까
##이거나
퀘스트
지역을
##년도
화염
맞다고
슬슬
##료가
지리
낮아
##방식
기준이
선거에
사이버
주력
열었다
이쯤되면
지켜야
##하겠냐
빠는
##받아서
스웨
##토리
역시나
말이지
돼요
철저한
기업은
특성상
관념
트위터
이번에도
나라다
개무시
많다는
유죄
거꾸로
들지
어머
초등학생
조선의
##처먹
제정
야마
##사용
시켜야
##파악
차이나
날카
현상이
##지않고
보입니다
났다
##세포
##카가
미소를
원정
방탄소년단
커뮤니케이션
##두면
그래요
댓글에
개혁을
파고
소화
8일
유형
하든
찾기
끼어
##이란다
김재
호기
나갔다
##내용
은폐
역으로
이르는
사악한
댓글들
사망자
##는지도
있어서는
새겨
##결을
##퍼센트
동반
정직
저정도
중국으로
##트랙
##공이
이끄
시장이
해제
##외교
소문
후진국
성과를
쓰기
##ep
선거에서
미국도
재산을
##팔아
유사한
올랐다
드라이
##둬라
##수호
편성
##ong
아들은
##독한
##보이는
머가
##들이지
적지
주범
##인이다
내리고
##시작
카르
구글
설명을
원내대표
같애
시스템을
떨어지
##시간이
디스
##드만
젊은이
버리
##늦게
말이냐
아들을
트리
국회의원이
분위기가
광우
##서와
맡고
금강
비가
##ra
검찰에
##약이
무상
할인
개돼
##동원
##희는
사라지고
좌파들은
표정으로
##차의
배울
조국과
##이구나
##이었으나
2019
팔을
기각
##경쟁
신설
표현을
엄마는
육체
국민과
##위기
오지게
개인적으로
유혹
다리를
막아야
##왕은
##림이
한결
세상은
이제야
마당에
그렇기
##소서
##비와
##est
새삼
말아라
6일
이러면
농담
당신도
된장
##선과
비정규
소비자
##들이네
활성화
인구가
속도가
비호
##중심
존재를
비참
할말이
제품을
오바
창업
정의가
##경북
191
법으로
##연은
##수저
##시와
##해온
북조선
이후의
수꼴
어쩜
까는
정통
못했던
지긋
모지리
##주와
당시에는
##여도
##크라
이후에는
가족을
나뉘
몹시
##관과
포인트
되었을
희망이
말장난
##님께서
##학은
##거네
파헤
불렀
심장
걸릴
3대
로스
엉뚱한
민경
동기
억울한
##내라
##가나
불공
##ip
제공하는
일개
##내면
감성팔이
해주고
판단을
임무
KT
없구나
사격
##수당
프로젝트
대갈
##태가
언론은
##올로
비즈
##지않은
##감으로
치킨
##실의
싶었다
정복
##동으로
##세한
초반에
포기하고
하라는
위키백과
일만
##치네
맥락
성취
##면에서
오리지
손이
몇명
능력은
죽음의
한방
##싫다
부른
할배
식물
장례
아스
전체적으로
밝히고
##는지는
##접한
건강한
심사
무능력
##건설
##타의
1등
선관
##분야
서울에
이넘
엉덩
##령의
스티
##시티
같다고
소리하고
이어지는
##판에서
아니니
쉽다
##어가고
##토가
무엇보다도
밥을
의미에서
##일보는
대표가
바뀌었다
##제와
##묘한
##이유
했나
아나운
위기를
어려움
##으라
구역질
친척
바가
종식
커뮤니티
##ang
##너무
의혹이
##부족
용기
##배로
##리던
시장에
녹음
간부
혈세
떨어지고
그토록
##시대에
특권
최후의
##치다
받아라
##포로
나머지는
미워
물론이고
긍정적인
유권
저래
##만원씩
하는거지
특성을
균형
##대책
편입
대책을
##주니
##것으로
##실은
고수
##터는
법적으로
##았지
어느나라
짓이
75
동급
악화
약속을
연재
##이후
##보소
있기에
인턴
전까지
number인
멍멍
42
줄을
##놀이
싸게
##사회의
##였네
생각만
##편의
##살인
9일
##dfasdfasdfasdfasdfasdfasdfasdfas
##공동
##걸까
##저런
강도
요약
상태를
##순이
##IA
##절로
따르
약간의
두둔
아울러
들먹
너희들은
##웨어
부모의
발목
##속도
##따위
국민들도
##해보면
바뀌면
##문서
생각으로
하루빨리
박멸
틀딱들
기록을
##몰이
하는짓이
##충이
##코의
##코가
인원
대마
과장
제법
27일
어두운
##등록
##청구
##버는
내뱉
귀국
##미널
시야
해가
내렸다
##웠던
쓰이는
생기면
맞네
버릇
##입고
퇴근
생각해서
저격
##재인
시사
베네수엘라
찾아가
여긴
##부터가
##운다
것이기
느끼게
결과적으로
26일
유족
내의
무시하는
불렀다
사실에
뭐고
##등등
브레이
접어
죽기
##줘야지
홈런
##종석
##보인다
색히
멀티
플레
2002년
밝은
법인
##더라면
수작
걸렸
보냈다
18일
지출
##애가
당연한거
할수있
소주
##리아의
법안
##구라
수준이다
##사들이
유공
##분간
박근혜는
피눈
##생의
지식을
##상품
생태
범법
맞습니다
전범
##아프
##것이고
이시국에
되었다고
number년에는
국가는
이가
교수가
있을지
독일의
한국당이
공안
정치인이
on
원래는
가라앉
##투를
명령을
면접
증거를
이고
##개입
텔레비전
##편을
16일
돌아갈
하나인
매입
합쳐
number번
##로에
시절에
여기에서
삼아
경우에도
맡겨
받기
스스로를
##게이트
##골을
이모
막는
웃긴다
##가루
##소송
자고
제대로된
산불
##방은
부지
원천
재건
좌파는
예로
요금
받으며
분쟁
실체
짓고
김제동
##련의
##ate
com
##인한
베르
##리라는
##시위
있네요
텍스트
베스트
여기까지
터져
반면에
허허
민낯
주어진
중국인들
하나님이
만들면
23일
메모
뜬금
내주
##중대
운명
반역
있겠지
##들과의
도덕적
##준비
놀라운
라도
마스크를
겁니까
##있다는
네덜
3개
##주의에
임진
또다른
21일
총을
돌아와
number개의
매력
남자의
##들면
목표로
6개월
의미로
대부분은
자식을
딸은
시비
권위
배우고
고맙다
##였으며
##내에
공소
메뉴
공짜로
인생의
있죠
##색의
##if
인력
등장인물
대공
기억을
근처에
시발
이나라가
웃기고
##신청
싸움을
##감도
회사를
하겠습니다
해먹
싫어서
왜이리
##ight
##분들은
12일
초기에
애쓴다
가능성
for
고인의
##해야합니다
보수는
남긴
아이들의
##리한
통상
쪽이
이모양
채권
주거
언덕
보좌
트레이
이태
number주
개정은
일반인
시작하는
##러리
여의
팀이
건담
투자를
막장
##았냐
##베르
역겹
##색히
47
갤럭
17일
정규직
주장했다
11일
회사에
소식
공동체
걸려서
유학생
울고
알면
바람이
동북
##내가
발로
하고는
씨를
노답
수를
저것들
싶은데
##국과
##꺼야
집구석
##철도
할려고
바퀴벌레
떨어진다
##면이
number명의
임영웅
##이너
계약을
부들부들
##광역시
붙잡
관종
점검
##집은
모르지
##안보
##의미
좌파가
구제
알면서도
거라
##부도
너희가
모양이다
##해졌
피고
했어
견디
신발
##권력
##하겠지만
학생이
##판은
##하느냐
2003년
##심에
불꽃
아닌거
했더니
구조를
이해하고
노는
게이트
##업이
##드립
아래로
퍼주
히어로
편가
##브라
##떨어진
선포
##색으로
24일
구해
절라도
부르고
22일
건가요
의도가
##토를
기업들
되었는데
가벼운
입장에
신경을
걸리
대통령으로
##드니
진실이
격려
13일
단어를
진압
좋으면
차지하고
##가는데
##하루
살아서
1개
이나라는
19일
않나요
##막고
##상승
누군가가
##ame
##EC
##층에
이용할
##거품
##되거나
특정한
##분한
전정권
줄이고
둘은
강대
##교는
##조에
##는거고
시킬
있었으며
##어지고
아버지를
##해봐야
한국당은
##수밖에
이끄는
하겠다는
##레이션
##임은
##ell
살아온
##나라의
##코로나
##구와
후퇴
되니까
제국의
합니까
문재앙과
공적
명백한
데는
배우는
일본한테
유입
##틀러
세계적으로
벌을
살피
무너뜨
##클럽
연구를
##곡을
모바
파트너
사람만
자기네
호의
각각의
모르면
##ard
민주주의를
청와대에
자가격리
제도를
돈에
##얘기
##된다면
너무도
##도우
비슷하게
##들이야
국어
해준
청와대는
##열을
##문으로
회수
##임에
국적
민주당과
작품의
29일
외에는
즐겨
귀여
공산화
경우를
안된다는
야당이
##FA
숨기고
성을
바위
멕시코
##재는
##전사
책임은
##오의
##들과는
민경욱
한국인이
내란
이꼴
않았습니다
우익
##히면
어때
##둘러
최신
알면서
##대장
어째서
##이었다고
다룬
##중앙
지극히
추모
##사퇴
##속의
마르크
##학이
직접적인
##병으로
바라보고
예쁘
습격
시리즈의
면상
##석의
##넘이
북에
##희가
짜파구리
##들처럼
살자
##숙이
차려
사이가
하나요
흐르는
모르겠네
##어버리고
북한에서
##해주면
##만원이
공기업
##했을까
글쎄
수신
##나지
결론은
준다고
축제
##니는
머리카
알수
##은거
##경우
목격
이럴때
웃기네
투수
##이닝
##대지
신선
##배상
##실험
##애들은
전력
코로나가
딸을
사도
글이
고사
##한가
지금처럼
지자체
##들끼리
자리가
엄격
시인
학생들은
##all
위선자
초등
근본적인
고개
소상공
탑승
조건을
먹지
요시
누군지
귀신
사는게
##디가
일곱
##놓는
찾아볼
##있어서
가리지
대구경북
쳐들어
기다리는
내릴
number만원
##다는건
HP
비틀
음주운전
##ie
피할
##마에
게임이
해결할
##터의
변형
돌대가리
아니잖아
저런게
실시간
백수
측근
작가의
우덜
순위
이런건
맞는데
낫지
버그
##주의가
구걸
##화점
국가대표
잡으면
세계적인
타락
고립
##말아
위치에
웃음을
##하다면
##는다면
##신고
최후
##se
##린이
No
##감염
이인
엄벌
##셨으면
골목
페이스
##정하게
##좀해라
##카의
싶을
##얼굴
커버
둘러싸
그레이
해외로
영상을
##거부
면허
정도였다
느꼈다
number학년
많아요
44
##평화
미국으로
맞아요
권력이
주위에
역적
기레기들
징계
##현의
다르지
통합당
해외여행
600
120
이유도
날짜
정치하는
##급의
##인간들
##두에
소릴
슬픈
아녀
##명도
자전거
똑똑한
원을
쥐어
##올림픽
체력이
##평을
싸우고
뿐이었다
##공장
숟가락
식량
교수는
주장이
##중국
총알
계좌
높고
따지면
##노릇
number백
##키를
##절이
##케이
없으니까
##론에
새끼들이
##군데
기반으로
##되지만
바둑
##일지
타카
이어서
##만들어
##등의
까고
오랜만에
출신의
##는거임
##설이
##ore
##레인
##다니엘
##아래
리더십
의전
##회장
구나
식품
##자라
견해
##함의
막대한
현장에서
만나고
##족을
의식을
##더라고요
##겟다
철회
##하구나
##봉사
모든걸
지키기
미소
##토의
갑니다
다음으로
투기꾼
어짜
돌이
책은
아이들에게
가톨릭
문화적
##각이
number년부터
안한
차이는
변태
아이디어
극히
##나온
땜에
구상
연령
##들지
##이란게
별다른
65
빼돌
##운동을
붙은
아리
##인것
##오니
##함으로
웃는
##놔라
##도안
할거
시장을
##새기
화려한
number년의
표현의
##잖어
전의
히트
##지긋
방송에서
소설을
폭로
##체제
앞의
아빠가
고등학생
전차
기레기야
##80
이루고
그녀에게
연평
##급이
관할
##왔고
##죽을
미투
스튜
기업을
##북한
않은가
많다고
말씀드
50대
업무를
##났는데
##피스
##았어
타협
튼튼
않다고
그곳에서
방패
##률은
##겠소
파기
그보다
헌신
아이러니
##시스
했네
##처분
##브리
매니
##자만
견찰
쓰여
썩을
##해야함
예능
우롱
무거운
접속
문이
기능이
속하는
마치고
보증
##열이
##더라구요
말라는
속을
마이너스
##나라에
##ers
고의
다물
##사인
##코는
49
자기는
회사는
망하는
##위반
오세
포항
프로듀
걸러
##먼저
아닥
선수가
집은
저의
천황
청와대에서
문화를
손잡고
역전
새누리당
여자들은
재생
심심
바꾸고
국정원
경찰에
국회의
##권도
왕의
##구도
법조
성경
언급한
여경
비중이
무책임
합리적인
##보니까
##조정
찾아서
참전
수준에
일방적으로
계기가
현정권
뻔한
재활
조센징
엑스
내다
지지자들
농촌
안락
다른데
명시
반응이
법치
##교도
비정규직
사귀
고마워
##이익
43
이영
쓸모
하다니
##현은
##새끼가
삶에
하겠다고
열쇠
##랍시고
질투
치워
생긴다
number년간
안해도
포지션
##변호
얘기는
화장실
##보라
게임의
선택을
망쳐
사이코
지워
성공을
적극적인
##달아
법대로
정신좀
전략을
정비
두들
스웨덴
태극기부대
두드러
우월
##으라는
전체의
않았는데
지저
##났네
유포
바닷
한창
al
급격
##오게
얼굴은
양심도
2015
##수준이
##자라는
이세
명품
서해
##자면
##금융
문빠들
읽을
정보가
소리로
##걱정
법과
##예술
누구는
##집권
몇백
순서
##폭망
##다녀
여지가
가증
광신도
필요합니다
##슈타
##유지
부끄럽다
할것
마나
있듯이
##구에서
줘라
사쿠
문명
높게
나타내는
웃으며
##호와
날씨
바라보았다
내보내
어그
팀을
##님께
개미
##석에
오늘의
##부러
펀드
담긴
환장
불쾌
##기에서
그곳에
얘는
##안에서
부도
근거로
김원
영장
관심도
##놈아
##간다고
좌파들이
봤는데
##호로
##우며
느낀다
얼음
이윤
예쁜
충격을
or
##망신
뻔히
##보드
만나게
이간
더불당
##ok
##영을
갖추고
아니네
##스에게
##써라
광역
불가능하다
버튼
조기
최대의
거친
##베이
관계는
##승리
어긋
기록했다
##란이
##새키
##정책을
복합
##매가
발악을
하시고
is
언젠가는
외출
윤지
밝혀진
치료를
낙태
개돼지들이
분명한
근혜
화폐
자부
선택한
절차
마지막에
항복
##하듯이
페이지
##연대
사람에
뜻은
SNS
필요도
선조
종목
##∼number
##르다
재앙이가
강다니엘
돌아간다
##도에서
OOO아
한꺼
주변의
브리
공산국가
##ik
정도를
##ine
##등한
중고
대가리에
##군으로
##중이다
완벽하게
케이스
##실하게
서로를
가슴을
##졌으면
##하였습니다
##판사
##자들도
정치적인
##거죠
##않는
교통사고
자손
줄줄이
실력이
이곳에
시장에서
인상을
목적은
남자들이
버는
성우는
살인마
대외
##갖고
##할텐데
##럽고
개시
담아
원본
죽지
##데이
2천
##론적
##하는것도
##지컬
아니죠
신성
오십
최상
클라스
건조
드러난
없는게
##지냐
방식이
##기며
들어와서
식구
##하였는데
포인
탑재
##AN
김기
화력
서브
##호선
##가는게
##싶어
현실적으로
답답하다
##건은
이제부터
교류
리가
##슬러
진작에
##들어서
뉴스를
억제
부수
인생이
석탄
어쩐
##쪽에서
승객
##능한
##청이
승인
행동에
이름의
싸그리
무기징
이데올로
미래에
##처를
개통
##침에
해고
테크
##변을
안맞
간단히
안좋은
##투기
중산
얻기
잘도
##내자
##족이
크루
가동
수련
떨고
##편에서
필요없다
누가봐도
##사령
참모
발굴
##카는
결심
필요하다고
신천지는
잘했다
##건만
남에게
그간
가도
싱가
800
##군다나
##그런
생색
전통적인
원인을
기자야
장점
##바다
사전에
약을
출동
강아지
##할머니
여론이
##인지라
재인이
한꺼번에
##있는지
관계에
예정이다
탁월
##층은
가는데
##지마세요
##인권
김영삼
##줄을
반납
살던
명문
뛰어넘
편지
##추는
이글
우스
단체로
할머니들
두려움
천주
지긋지긋
친박
시집
##단과
오류
##환자
놀이
우수한
쿠데
##랑은
##님과
유효
##인들에게
로켓
환상
실질적인
미련
안먹
확립
걸리는
패션
따위
기를
모아서
프랑스의
패널
사용하지
##레오
똘마니
친절
합리적
문죄인이
오리지널
학교를
##미에
##15
##들이고
부인이
남는
##민을
쫓겨
회사에서
칼로
우리나라를
일할
##그마
##불을
부모는
##액이
침입
그걸로
너무나도
길은
데서
퍼져
##xx
편향
##라와
##놈들아
조직의
돌아서
아직은
실패한
##여러
##으면서도
쓰게
##급으로
정서
멋대로
##방향
더불어민주당
비용을
as
##PC
증거인
##봤는데
##잡는
들어간다
##스도
빛이
원조
친한
늘려
끝났다
그땐
현실에
것이니
못난
태어났
일일
시가
데에
신화
폭풍
고속도로
윌리
추악한
##산다
넘은
방금
다를게
어짜피
양의
##능력이
세무
##어와
심판을
##페이
용병
관계로
베댓
대표하는
초과
때문이라고
##버려라
##복이
남자를
결정적인
더욱이
##무역
새끼야
즐기는
내려와
##라구
공무원이
##격으로
죽어야
##발로
##봅시다
부유
##단지
편파
테스트
망언
도구
##교육을
신입
상황이다
##대변인
간혹
같지만
기습
##였음
##IC
내버려
교훈
##주는게
김상
이리저리
PD
number월에
이것들이
오르는
만주
페이
아니었
짝이
너그
##미래
주인공이
바람직
치면
곱게
크레
김무
하실
사는데
갑작
과정이
##한거야
제외하고
실종
라이트
프리미
##AT
진실은
##애를
부정부
위주로
건국
한계가
뒤통수
내수
혐의
##린은
##권과
싸지
##히게
피로
##직에
##커녕
##였지
하도록
개개
입력
겸손
사건으로
##심으로
뿌려
##닫고
이거는
극혐
모른다는
##댕이
벼슬
후예
##내며
##째로
##신으로
공영
##되었지만
##파이
초청
쥐고
##하기만
석유
강연
크리
##알아
아니며
저축
뉴스에
확진자가
일어났다
고무
맡았다
죽을때
있습니까
판사가
월세
나치
원인은
##시도
많았
##철수
##롭지
옵션
##미야
했으며
##님도
##ath
##AR
##일수록
전국민이
오르고
2위
며느
않는데
뜨고
지원금
믿는다
##행위를
매체
한나라당
인지도
간신히
소형
이었다
자유가
편견
야기
나가고
안들어
##값이
합병
##나오는
법에
46
##라이더
고만
##ity
##일듯
인정하지
출장
신인
##놈을
행동으로
서로의
##강을
사람이라면
용인
##해준다
##리려고
설명할
장면을
모티브
미래통합
거덜
상기
안믿
인식이
때문인지
문득
의원은
더군다나
현명한
##되었으나
끔찍한
했다면
싸이코
##자들과
암흑
집어넣
나라와
저를
##시네
##100
진료
점프
##기게
검사를
정준
##내어
담고
분노를
##총을
아랍
콘서
불량
잇는
소외
제임
넘치는
이것들
사용되는
##맞은
##갱이
##공의
관련하여
##법과
불의
묻는
유지하고
바뀔
기사로
길에
좌절
##생긴
국민청원
신뢰를
필요할
작가가
조사해서
##점의
뽑는
재무
좋겠네요
##길로
오락
Re
선을
적혀
남편은
##세금
##문에서
은근히
든든
설레
##용의
중계
##꺼면
현상을
끊어
많음
무능하고
나팔
지금부터
눈에는
사생활
시장의
모바일
##미나
##국적
사라질
전부다
판결을
마녀사냥
##느냐고
오죽하면
있거나
밥먹
수소
진동
기자들
염려
여동생
##거늘
##세력이
서둘러
배고
190
관해
##집행
특이한
나섰다
3차
모습에
없애라
수시로
찍을
##판의
차원
나왔는데
##졌습니다
차명
좋지만
기대를
보이며
오줌
빨갱이가
##렸습니다
##킨다
무인
웃을
그다음에
이후에도
더욱더
도데
컨텐츠
테니
계엄
음악을
흉내
나오네
공식적으로
##나라를
포스트
의미하는
일들이
일제시대
##IN
실컷
정도다
상식이
개도
##채로
될지
교장
##원들은
##겠구만
민주당의
타다
##기인
##죄를
##싱턴
##주의는
소요
##기네
종로
##사장
##주냐
##인해
치밀
방구석
##ttp
공무원들
보석
어쩌구
만들려고
##수지
소문이
형태를
미드
##두를
동시
면역
##형에
지나친
바꾸는
몸으로
트로
모니
##되던
대답했다
##일랜드
2001년
꼴보기
AI
얼어
##적이라고
이르러
자연의
구사
##아니면
한건
이지경
어용
생각하니
조현
##ue
##살아
아라
냈다
안되는데
감독이
기준을
취직
정의는
##보여
예컨대
판타
반짝
않을까요
용어
마비
한대
민정수석
증거인멸
할듯
한방에
##놓았다
메이저
보유하고
실무
하죠
##린의
##심의
고난
##발의
낳은
지역은
담배를
회전
이은
세습
가속
거리는
이미지가
IT
고속
##루스
폭락
정해진
태워
끝나는
잘했다고
당이
비아
삼십
다죽
##들만의
대답을
똑같네
애써
에효
##만명이
마감
동정
내용의
구할
구성되어
구성된
멈춰
안되나
##대출
넣은
문어벙
한걸레
옳고
상태에
분야에서
보살
올렸다
편히
적당한
개검
포도
내어
태국
이외의
##등에
숙청
있을까요
가까워
캐릭터가
장르
콘텐츠
영감
치유
##매는
안보고
확인하고
그제
벽에
##된거
본질을
이르기까지
굴러
알겠다
생일
이종
기업들이
천국
실은
제number차
차지하는
##막이
##렸다는
##가에서
흑인
년이
없잖아
연간
않았다는
##조사를
해대
팔아먹
물어뜯
안간다
뒤에는
##읍니다
##ant
미칠
이놈의
##였기
때문이
수면
number∼number
트럭
공범
뒤늦게
두는
##드네
살림
그치
들었
밀어붙
분은
##년의
기껏
##까리
가능성도
미래는
재현
##시급
지금껏
제이
국경
타당
까다
##이용
한자
비율이
Th
일본여행
데미지를
##았으니
##계로
보여주었다
##판결
화해
대지
분산
말로는
입장이
패스
빌어
안전한
##먼트
박물
##갈이
맥주
도중에
의지를
어깨를
##백을
들어왔
너희는
보내라
##철이
자유로운
##스트로
이언주
비트
오오
만들어라
유아
강원
집단이
사용하면
안의
##루의
사라져야
##통제
##준이
어설
공매
사장이
얻게
##찍고
시작해서
이긴
##판으로
##잖은
명절
##한을
##마나
주작
측은
##란한
훈련을
승강
4대강
##크래
##안전
믿음이
어디까지나
##동물
사세요
관계자는
JT
문서를
욕할
대거
무의식
귀가
보여주기
##려다
주신
##ive
무방
##당했다
눈앞에
만원
빨갱이들이
갈등을
가이
You
선생님이
박쥐
쳐먹고
앞으로는
##고있네
저능아
에너지를
되기도
감빵
사후
없도록
나라꼴이
카카오
못믿
찌그러
실력을
묶어
2014
관하여
가격을
삼가
이땅
레이저
살아갈
점수
##모두
사례가
비판하는
본인들
교회의
부풀
여럿
마찬가지다
##행사
안티
수구꼴통
파렴치한
625
알리
장교
쪼개
간절히
국내에서
##두로
##인생
전세계가
##하시면
처음엔
남조선
머리는
영향력을
##봐서
##버리면
로드
sns
신종
기자님
문천지
비용이
담겨
해상
없으면서
##규제
단단히
대동
불과하다
면제
허나
##산물
말했
챙기는
문화재
##이라고는
헤드
시에
##혹한
클리
##롭다
개헌
부역
악플러
심각하게
좋다는
정책은
##채를
문장
개독
육성
수두
부칸
저질러
어울리는
##세트
모독
실수를
위성
맛을
OOO들아
돌리고
##논리
뮤직
의미는
##어머니
어우
한국과
말하며
##PS
##버려야
낙하
##내에서
행복하게
##연하게
Lv
촉구
현명
환경을
위법
해설
대신에
민주당만
너네가
세력을
마리아
##났다고
##사람을
시간과
이루어지는
버텨
모두들
정유라
##한텐
##디아
점에
기상
##70
모름
나오게
편의점
훠훠
유투브
관통
승부
알기
##들게
##화되고
죄인이
나을
이루는
악랄
유재
##지방
보컬
자폭
테이블
##들까지
##시하고
##포가
이러고
자체의
사주
##분별
제조업
깨진
감지
단호
못하냐
핵무
합성
조민
##셔요
짓밟
악용
교회가
내려와라
부당
##모의
않았다고
##kg
핵을
네트워크
신학
설사
동해
##ld
승진
그분
발표한
동굴
##것들아
##면은
좌파의
그만두
히틀러
찔러
포함되어
속도로
##파로
인간들아
##티즌
##ith
습관
인정할
이빨
##혼자
##민당
##바꾸
일으키는
##있는거
어느새
가격은
의무를
##프라
시민들이
작품이
방법이다
노골
점유
사랑이
안남
개척
사용하여
##같으면
현역
##뒤에
구출
##ort
교도소
사마
어려움을
##것에
책임지고
##꼬라지
한두번
시의
가야지
코메
후보자
##맘대로
과거를
##집어
상반
부친
호칭
##려니
##셨어요
가족의
변해
남부
되서
##공업
지칭
후에도
안전을
##끼가
심지어는
뭐하고
##졌지만
##HO
안드로
##일까요
##명이다
예고
용의
구름
외계
생명의
##왕을
현행
##지는게
없었습니다
##해보자
##ED
노력이
##층을
트럼프는
나가면
##화에서는
나오기
##께요
김동
##타이
여당이
100년
페미니즘
지었다
도무지
남기고
위하는
일일이
##ub
수시
해야할
중세
##가네
품고
맞나
들어왔다
number명이
##줄도
곁에
##다이
데미지
일러스트
##분석
문재인도
보이지만
넘어가는
댓글부대
촉진
못함
##궁창
일입니다
봐서
##현실
태평양
의지가
여학생
사라졌다
##사들
개설
CD
업그레이드
에서는
접수
직권
이수
증여
깨어나
설령
##카를
하나라도
고교
비리가
시를
제약
이로써
정신과
상대방의
##후가
나오냐
##조원
처분
엘리트
##위해서
##ain
##바이러스
동쪽
데스
학생들의
number만number
지켜보고
##문과
추정된다
트랙
화재
돈주고
싶다고
##니를
걸음
감독의
51
상의
##밀히
##붙어
콜라
중동
필연
주식을
##음악
##끄러
부실
##셔도
##수있다
도데체
택배
꼬박
가령
그후
보내야
임진왜
표현이
##대요
##태는
##투리
등교
으이
발음
선행
##령은
권한을
하자고
봤다
더듬어
망치고
걸까
입술
##표는
##없다는
31일
##강간
##되었습니다
##지인
종전
II
세탁
##반이
돌아오는
골든
코믹
낳고
아무렇
가지게
국회에
표본
요소가
사고로
세트
##대비
근원
어디가
##상관
고로
법도
날라
##루는
모집
갤럭시
것임
만나면
과도한
세금도
인형
못하지
중대
못했
신비
한계를
거북
##찰을
평가가
귀한
##드나
##버트
퍼주고
않으니
##다보니
정치인들이
##독립
우물
장제원
이렇게까지
커서
놀란
플랫
참을
높여
잃어버린
##답시고
경매
아쉬운
되었으며
내기
인류의
자들
안하
전적으로
아베는
##한거지
과잉
적에게
##없으니
##셨습니다
죽어서
직접적으로
책이
##병에
그러고도
글쓰
모두를
가중
똥을
약탈
맞음
좋습니다
하더라
빼면
있겠다
유력
시간의
곳이다
문제도
다니면서
##제국
당분간
효과는
봤을
비평
어쩌라고
아바
##치는데
피아노
여부를
있어야지
##베이터
들통
##식과
공격하는
##이었을
교회는
##였나
공인
씨의
잠이
망설
단편
임무를
곳곳에
누구에게
주한미군
인과
실질적으로
일기
진정으로
돌고
##길에
국민들한테
좌파들의
아마추어
5000
개는
마크
심상정
다하고
스파이
제정신이
봅시다
심어
##명과
파라
탈을
국민세금
찍는
특허
##카이
##대해
살이
##덕에
##오리
필살
초록
달래
##희롱
테마
시켜서
알파
보충
제갈
깔아
끼리끼리
정권잡
앞을
까발
조국딸
시스템이
##파탄
##사람도
CC
운송
중국도
번호
벗겨
한유
##위원장
100만원
실정
##다니고
503
입사
##책이
지붕
민좃
##급을
민주당에
작품은
도요
불리한
수익을
건네
number년이
본다면
이득을
대원
잘해서
너머
##희의
나발
누나
JTBC
마이클
##받으면
##년들
일상생활
못하니
##지길
수송
노려
##니의
창원
중얼
캠페
되었다는
닫고
한마디도
먹는다
##한거냐
매주
없었을
어렵고
앞잡이
꼼짝
짖어
똘똘
##시대의
유명하다
생각해보면
답을
섭취
모른다고
선임
금메달
##대신
늦은
돌아가신
이의
경제에
징글
결성
보았
소금
군림
##겟지
##버그
##소수
돌리는
##스팅
미친거
축적
모르니
흐름을
Al
행위는
고령
커플
문화의
##체육
인쇄
##됐다고
중요하지
한표
마스크도
##받침
프린
##이래
남들
##감하게
DNA
말든
형평
##적으로도
4차
일어나고
##면피
선량한
액션
아끼
한녀
##브를
3천
뜻으로
논리가
짓은
문통이
재미있는
기원전
불러일으
##해보지
민주노총
유럽의
근거가
직원이
##운이
대깨문들은
##슨은
서쪽
하러
지역감정
##해지면
박지
한국도
같다는
알려주
난이도
듭니다
한번에
없는거
조언
##역사
반일감정
사탄
박지원
윌리엄
세균
담은
때를
코리아
##보유
대해선
본인들이
교주
개인적
말의
것이나
이익이
차에
나와도
사냐
##ON
침투
서울에서
3억
사람한테
##시간을
col
지성
사우
병이
##문제가
아침부터
재발
##라나
사막
##마음
돌아올
글고
남자들은
평생을
클로
삼성은
규모의
경제도
보병
넘이
두루
##펀드
##문제를
##달고
약점
인권을
##돼서
하고싶은
생생
##노무
##메이
지켜보
##역에서
##전환
학대
소장
##소와
이쁘
미스
##들에겐
판을
지속적인
일어나지
##올려
불만을
하나이다
말이죠
##가기
사소한
많으니
이름도
##자격
구하기
올라가는
##미와
잘못은
갇혀
##겠고
##시한
##방해
100만
골드
##어에
##줬으면
##학에
화살
##역에
방송에
안중에도
짓는
##만하다
식사를
말야
말아먹고
블록
##질하는
예약
공간을
number회
처참
확률로
단어가
정치검찰
특수한
자발적으로
밸런
알렉산
총살
모자란
내년에
잊고
지각
처녀
기가막
이루어져
##화폐
수두룩
별거
있는것
de
누구냐
정체가
전도
http
숫자가
원수
적으로
품질
눈깔
##겠음
스폰
##야할
##또한
형님
위험을
살펴보면
누구보다
착취
망하고
잉글
##야만
##들에게도
형이
차리고
##처먹고
임대료
호위
##행동
##리우
춤을
##재의
잘만
했을까
진지하게
##본부
오사카
삼고
사안
##기면서
포괄
있기는
교묘
규모가
하던가
이해하는
이정권
대한항공
귀에
되겠다
안겨
##구장
##귀를
당일
안그래도
공화국
95
잡았다
시작되었다
여러모로
집값이
카톡
거라는
밝힌
반해
수의
많지만
해양
장모
전투에서
조리
요구를
##통은
##초에
슬퍼
##적에
소나
이치
에드
선거때
희대의
인내
초점을
부부가
##편은
비슷하다
쪽발이
문재인정부
끼워
##조국
한편으로는
싶네요
##해볼
인신
싫고
거칠
우방
##적일
1명
##하는걸
작살
모리
양육
선교
양념
기자는
유흥
여지
있다니
가능하게
종업
터트
##노는
광범
##바지
##린다는
##댄다
전쟁의
##age
56
선박
##부정
트집
현실이다
답답한
현직
언론에서
미처
봉인
뿐입니다
##자리를
버린다
한가지
##로스
총선에
충전
의혹을
##tbc
망치는
##물과
봐요
불가피
어리석
##듭니다
수수료
일대
##인간이
##짓은
동아시아
김정숙
싶다는
전철
##체계
주장한다
##오스
당신들은
유튜버
힘든데
교활한
##협의
새키
우유
고스란히
성희롱
##허가
패치
최근에는
세월이
수색
브라질
잡기
##림의
##되네
되풀이
나서는
비롯해
패러디
갔다가
시궁창
##갈등
한민족
##라기
치러
맞으면
모은
북핵
워싱턴
마인드
출범
끝을
크기
데이트
전날
현재까지
많으면
원거리
저소득
떠드는
일부를
의사를
의심이
정책에
우와
즐거운
단축
몸은
##갑을
옛날에
방안
##전에서는
사망한
##시게
초중
않았나
##방울
##성에서
검찰총장
추상
만들어낸
##있었다
도와주는
떠날
스쿨
저럴
##달창
##당한다
##해달라고
탈퇴
##결정
##페미
빨고
##파에
##해줘야
해줘야
기어나
과제
수만
##담한
저절로
우승을
하늘의
열리는
가득한
취약
유언
소수의
##안타
배부
공산당이
판에
종교의
##ho
종교적
구한
좌빨들은
##할수도
사과하고
1999년
##되길
##냄새
도모
병을
조약
이런저런
종북좌파
저승
말고는
쪽빠리
전진
잡아야
##죄가
관측
나몰
십자가
중심의
안주
시절의
똥개
입맛에
##란의
중대한
자동으로
말씀이
경력
##한의
개돼지들은
공지영
개수
정체를
어렸을
기절
시선
지위를
인건비
아내는
인간도
있겠냐
타워
어처구니
안사
맡아
못하도록
신은
대조
기둥
주된
깎아
##수입
닮은
백인
정부탓
59
왔는데
하루종일
##기구
될듯
나란히
##보내고
##초등학교
사상을
##국당
교수님
활약을
AP
습득
낡은
올리지
쪽에
##세와
##맙시다
동서
##만해도
##서비스
친구들
내놓고
비중
분노가
박원숭
불필요
##토는
못가
자들은
##사회에서
댓글알바
폭격
1500
고래
그돈
##업에
떼어
조건이
##위와
##박살
##EO
##여성
##합을
안희
be
하겠냐
검사가
스프
유감
##주의와
재단
선택할
엘지
보는데
##서에서
보이콧
##났고
부정부패
싸고
마니
사살
##하였던
평화가
생기고
탄핵이
##세다
잊혀
도배
알겠지만
##노가
인성이
피해는
미스터
##경제가
문제야
지연
무언가
##지않게
정은이가
개신교
##자들에
뜻하는
몇개
인스타
##례가
코드
앉은
대권
바와
##바닥에
검찰총
사이로
노르
외국에서
머리카락
시바
철면피
##피를
아니더라도
어색
주장은
두꺼
이외에도
그것에
##ly
허무
터질
했다가
동화
다이어
가능성은
구청
맞냐
경주
##위에서
##대가리가
때리고
비즈니스
통째로
지지하고
썩어빠진
기체
미나
##강한
할머니가
##ex
##초를
자이
##일텐데
되길
##상이다
##에게만
기록이
Sp
댓글은
출석
##곳은
대상을
눈감
밴드
관람
1998년
신사
돼서
##훈이
##안한
아닐까요
패스트트랙
##지랄
##스피
백두
팔아서
##퓰리즘
왜냐면
하지도
유시민이
대치
맞춤
직원들
안습
##는것
##전화
##범이
##수아
휩쓸
레전
쏘아
타격을
책상
침공
속한
변하지
어디다
하지않
해안
중국한테
극단적인
프라이
##주사
세금만
##드라마
분명하다
까불
키가
##시리즈
여론을
나와야
중국발
10대
kbs
여성을
매각
자세를
역임
청탁
폐간
서울특별
결과에
##억원
부류
책임질
정부도
백제
우호
나중에는
토끼
표정이
부가
올라온
팍팍
있는건
입주
살다가
광복
##정상
모금
하다하다
발라
가세요
러브
민심을
주연
##OS
들으면
잘사는
모색
가구
눈치를
소식이
관리를
##반을
모두에게
싶네
##원칙
밝혔
우상
중지
불명
특징을
웃었다
무작정
원시
터키
꼴을
대학원
##다는걸
의식이
이룩
남았다
마트
##폭력
##per
##하에서
얼마전
무난
쓰레기들이
살펴보
##없게
돌아왔다
전투를
만들었
##할래
헌법재판
기만
못배
세부
그러던
신재
선한
건강을
##하자마자
유키
53
##자리에서
있었으면
##야의
올라갈
이랬
생각하며
낯선
##씩이나
##av
윤석열이
가르치
없죠
##건의
넘어갈
손해를
좋겠어요
주주
국민세금으로
바꾸어
라이벌
모시고
대수
처먹고
전주
##양의
number가지
전멸
이하의
유지하는
당했다
죄없는
##행에
이기는
뽑을
공군
팀은
대다수의
메가
조항
##일때
불태
##퍼센
일산
##이란걸
강제징
##합의
저질렀
##권으로
이해하기
##리온
##안고
삼각
화물
약국
드러나는
김지
누구의
검을
발급
##청은
##거에
number배
녹색
마루
채무
##것네
최저시급
도주
무릎을
트레
##작이
해병
##실장
상장
교육의
##상식
조사해라
경악
술집
전체적인
사재
해서는
가나
##렸네
정신차려
원리
테니까
##액의
환자가
##테크
##근무
여왕
##부르크
도끼
부장
##중에서
자란
신부
초창
##선다
조씨
각본
맞는거
여자도
댓글로
##보지도
##키고
받으면서
하는거야
여유가
김진태
시작할
외환
힘없는
새끼들은
정상적으로
시원하게
국회의원들
마귀
##중학교
가사
뭘까
##려구
과정은
민주화운동
가다
자매
지원하는
##48
두산
지방의
계획이
육아
들어야
나카
따지고
일단은
거임
눈은
통하는
단점
실용
자슥
고추
일본어
정당화
끝으로
##데미
##혜택
##예산
##같네
##음의
##확인
동방
문의
국제적
주둥아리
뚫고
##였다면
##견이
실수로
토대로
그놈
설명했다
웃겨
##원인
병원에서
이준
옆으로
사단
다짐
숭배
포기한
##구성
실어
##이기에
마술
배포
민주당을
간다고
##립시다
##치자
이왕
##만들고
##중독
상품을
나가야
시작으로
사전투표
헝가리
##법도
후안
##리안
numberm
2013
##통의
##공간
목숨걸고
##워드
되도
먼저다
가깝다
피눈물
발생할
후계
##요금
주니
논리로
원자력
##저래
멀어
##시장이
떨어지면
있겠는가
블로그
후보가
영혼을
##니스트
##포기
돌진
FI
사회는
한복
베어
올리면
인간과
문화가
플로
비리를
##여러분
##올린
##친일
##훼손
방을
서명
##최고
선동에
급히
천만
re
맹목
광고를
밝혀졌다
방안을
##방위
##으리라
겪어
유동
장담
주소
속이고
버티고
##노의
싸가지
##ound
책의
수없이
##작은
##할때는
닥터
독서
했었다
한화
##구속
##박혀
3개월
서초동
오스
숨쉬
루이
올려서
##엄마
##풍이
##병은
사랑은
지오
천연
비난을
##나라로
살릴
조그만
김씨
전신
판정
##ry
##pp
정한
구단
낙선
##강이
쓰러뜨
용납
##심과
용이
##강의
하자는
해적
고시
##해져서
##OR
##팀이
클라
블랙리스트
진리
##퇴근
##지구
부근
1997년
바보로
대목
방위비
해봐야
떨어졌다
##하는것이
목이
사자
설문
안되니
내부의
남편의
사용해
여성은
좋아하고
이걸로
일부는
김용
줄이
국민도
생각해도
위태
그래픽
애는
##주나
아름답
성숙
조직을
성남
공격이
생리
##공원
좋아한다
넘들이
반려
##인양
##드레
낸다
##해하는
근거를
가족은
써도
방으로
유신
네덜란드
쓰인다
2억
국민에
##같지도
본격적인
기숙
역설
있단
MA
구독
가요
이것저
원칙을
##먹기
마신
##티를
##장군
평상
##속히
국민혈
각자의
때와
어렵지
이라크
##같아
정수기
짜증난다
##대며
실존
##질하고
대인
보러
그라
사찰
정글
700
득실
##하던가
##되는게
운전자
생각해봐라
##르네
##타운
제어
일자리를
완화
조금도
비교할
무료로
성적을
##했어야
여기서는
순간에
끝장
EX
##욕이
그외
##이었으며
두들겨
클릭
케이블
강하다
30분
##발언
벗고
편을
모를까
키우고
행복을
살수
정권바뀌
##부담
망치
##파괴
##낭비
글은
IS
사야
늘어나고
듀얼
그만좀
잊어버
묻은
주워
신뢰가
차리
##법인
묵묵
인물로
##전도
조회
무사히
싫어요
재개
##눈에
일본제품
##이었다는
목에
감상
이정부
전라도는
압수
생겼네
##진보
영향이
정치권
어머니를
부자가
혐의로
우두
##가스
없는지
후진
상을
##좋게
##딩이
##로와
##할수록
비교하면
위험이
출간
##목사
베이징
결과로
##능력을
놈의
##역은
아티
점도
달리는
2회
규정하고
64
##민들
아까운
주류
의미의
플랫폼
##론가
##변이
심히
못하다
헤아
응급
##대화
근본적으로
친구를
폭파
##iv
동양대
얘기하는
소울
보수의
이곳에서
어린이집
당당히
금속
##기들이
##천이
풀려
##하십니까
##당초
전무
##불이
종일
쌓여
##있어요
돌격
영화의
##작의
An
단위
사라지는
분단
타인의
##것임
사람인데
보아야
##총선
아야
인물이다
청렴
좃국
교육이
##해결
분배
번의
모르면서
펑펑
속도를
아메리카
망한
청춘
##터로
개막
2012
노인네
명중
내용에
대학에
일과
##포르
##에서나
아래에
유전자
개똥
먹어야
안걸
앉혀
주최
##할거다
느끼지
고졸
김원봉
들어도
개혁이
역사적으로
신을
분할
폐업
##남자
손자
할수있는
재빨리
불편한
다음의
답다
되었던
##는지를
쓸어
살리
정해
움직일
도는
페이스북
갑옷
안됐
파산
떡밥
스미
##창을
장본
아니기
뒷받침
기업에
가르치는
##없습니다
##아이가
정신승리
높이는
박영선
했기
납부
가족들이
차는
일련의
##디는
지낸
형식으로
##프레임
사정이
동경
##일이다
##졌으며
나쁘지
임종석
인구는
뿐이지
되는게
지겨
##이었기
현실적인
미치지
주무
메시지를
tv
쓰레기가
훔쳐
네이
##유치
현혹
##행은
불만이
##학원
소리에
##주차
적합한
천막
##ect
살길
##장면
걸친
대표는
사지
현장에
##받았
뒤로는
대책이
등도
연루
그리고는
북한도
직면
면이
한유총
쩝쩝이
찍소리도
메갈
자처
아나운서
현실의
선제
오라
이네
장래
알리는
황대표
자식은
때려잡
죄책
Sh
이렇듯
몇천
놈을
변화에
##갔는데
##편으로
##쓰면
더럽다
용기를
사무실
표면
##티비
들어가고
사상이
바라보며
속아
중학생
한국으로
보여줄
임진왜란
웃는다
가끔씩
취향
냄비
마법사
깊게
둘러싼
애도
스킬을
적고
성장을
황교안은
객관적으로
없어진
친문
##블릿
##진에
##오프
##이나마
##드냐
##린지
실내
아테
권유
다카
갖춰
굴복
1위를
##론과
카즈
전국에
파악하고
왜놈
뽑아서
##미사일
참여한
주의를
##말라
마련이다
문제점
천사
##나라에서
단정
##바가
리듬
즐길
시민들
아는게
뭐라도
나폴
애미
노리는
도를
##당해서
몰두
오마이
없애야
광화문에
##오나
날개
##yle
과정에
##징글
반사
준비가
따름
##말의
##없냐
토요일
별도로
결론을
동부
##선택
눈과
해볼
이따위
##16
바다에
소리만
##왔습니다
빚을
이번기
##지원금
##날을
이런데도
##갔고
서민들은
저번
말려
##혐의
일본에게
아무말
모양이
##이냐고
상대방이
후보로
운명을
보수를
고객의
실명
수요가
##검을
잘해라
바뀌고
씁쓸
드릴
##키로
손해배상
아일랜드
일본군
##하던지
이것저것
유머
있는데도
기관총
##면허
있는거지
간호사
##시키자
마친
57
박수를
감탄
##우니
##무니
제외하고는
가공
##지능
##스트라
##지기도
추격
##진과
이런기사
싶어요
생각과
가면서
시점에
생계
진주
부정하는
복무
갖지
##견을
비타
덕분
사진이
딱딱
기호
비해서
개성공단
아버지와
해준다
나타나고
인종차별
##들에서
연동
학생들을
##권분
##찮은
발생한다
미사일을
안찍
##PG
묻어
키운
##어서는
겪고
평창
##링을
멘탈
##드러
줄도
MB
할텐데
자기도
반대를
도우
##없나
같은데요
비교해
자빠졌
그까
맘충
##인거지
조준
##먹어
얻었다
화웨이
후지
쳐넣
수단으로
엄연히
공수처가
벌어지는
개구리
해킹
공공기관
##지말자
몇달
##ast
##사관
의료보험
두개
##중인데
함정
##안해
##지않아
입다
무리가
네티즌
최순실이
양이
보상을
##탄압
일자리가
군대도
생략
통일을
클린
아이템을
##연맹
##병의
서부
##에의
이후로는
당신에게
3위
편에
전성
##지않는
부분에서
##대면
헷갈
##저나
속보
관습
공시
무신
##냅시다
##sp
##환의
관련해서
##판에서는
뻔뻔하게
격파
건강보험
##남용
전쟁에
민원
이나라를
##해야하는
박근혜때
찾지
노부
인식을
주자
골라서
불린다
##만장
그립
##청에
좋겠네
한자리
횡령
발표했다
1996년
자식들이
##정권을
날로
중국산
과목
각기
바라보
##국회
생명이
개돼지들아
사고방
##ust
정상이
##천의
약화
##성향
건물을
생각하냐
3000
##TS
빛나는
상세
250
몸의
싫다고
##사키
충실
가문의
##이런
나옴
부끄러운줄
##싫어
지랄을
혈액
모릅니다
모셔
국가적
##직자
아이에게
알아야지
생각함
66
저지르고
유난
감싸고
세계는
##증에
##유공
시작하면
부리는
##라면서
듯했다
곡을
벤츠
바꿔야
그도
##디션
밑으로
말이나
손실
안함
##물어
총기
내려다
안쓰고
바꿔라
지냈
바라고
있느냐
##멋대로
넣는
저놈
등판
잉글랜드
헤이
흔들어
유교
무용
고민정
갔는데
##강에
도시락
지역이
정교
처치
떠나라
##단체가
##냐는
목욕
##을지
##공부
영화는
드러내는
##기부
나눈
아내의
속은
작년에
일들을
포퓰리즘
성질
##와대
##진영
사촌
문제지만
잘하면
첨단
국내에
봐주
##재단
##그냥
감독은
##넘들이
##크래프트
하향
작정
##유예
밖의
씨앗
##our
실려
떠났다
늘어난
거짓으로
##AM
추가된
국방부
2명
겪은
Ar
##할수있는
##청을
##과에
무기로
않았기
주십시오
아가씨
리스트
##만든
##료로
버틸
##진당
동지
##대문
고3
저런거
전북
##시킴
묻자
소지
##무슨
사실이라면
종교가
##대통령이
진학
결정하는
표출
##여론
대의
도적
설명이
##커가
방송국
하늘에서
뜻한다
잠잠
아주머니
##문제는
하늘에
빨라
##못차
어디갔
응징
아니란
냉장
마이너
행위가
사람입니다
문재인씨
다이아
권리가
바랄
영화가
주위를
있지요
안간
끝판
의회
내외
자한당과
##살다
때만
##되야
내각
주어야
지지한다
시기가
꿈꾸는
올렸
특징은
##했을때
##평등
조사하고
데다
막내
나섰
엄한
돌아가고
새퀴
태어났다
좌빨들이
무기징역
반성하고
땅이
우회
맑은
##티나
##티어
드러났다
매니저
최하
그레
##환으로
떠나는
위대
##라이언
총체
보물
분야의
보이냐
맞지만
빨개
저런걸
얘네
##러는
##나올
일요일
##맞아
2배
의도적으로
순실
##시브
권고
##구녕
가정을
##빠는
##직이
85
이듬
태도가
이런일이
##적이라
베풀
버려야
일등
부끄러워
쇼를
계층
달라는
다행이다
프라
미야
비열한
정책으로
##직으로
어이없는
해외에서
공업
##장사
im
개탄
밤새
일이나
장치
##삼아
빤스
있다는게
고유정
31번
서포
목표는
간단하게
당을
핑크
윤총장
빠지는
파이터
마시는
화성
##미디어
##자동차
하던지
싶다면
빛의
저러고
##리포
군부
친구들이
압도적인
빠뜨
##우파
나이를
수준은
쓰레기같은
안봐도
여신
##폐기
상향
##네시아
알바들
사법개혁
것이므로
노리고
풍부한
엄중
##rom
##AL
스페셜
규범
##차량
선수들이
##앉아
플레이어가
어떨까
비싸게
메달
입는
부담을
MS
탈취
정신들
운이
엘리베이터
나타날
먹었다
해봤
죽음에
정도껏
##게이
경제적으로
보기에
##작품
집사
##AS
언제고
시작하였다
안일
않은데
##지않나
부임
받아들일
##박을
빈곤
문재앙의
치사
해본
시험을
택시기사
4개
배당
##르면서
번이나
아니냐는
##빛이
##다니며
공헌
브로
애들도
두뇌
##거가
공권
국군
무지한
복구
하나님을
경제의
##반의
##두리
한숨을
융합
흔한
잘못하면
제4
종결
조원
일명
유우
자칫
##못하게
골로
질본
서방
알려졌다
아미
벌인
창설
것임을
호들
##하단
부상을
학술
있었다면
소독
몽땅
나타났
##판매
작고
거리에
중국인이
마이크로
기아
복원
꼼꼼
강조하는
다음에는
재인아
바꿨
얼굴도
요양
##셨네
가능할
##듣는
놓아
쪽에서
조국수호
스카이
득점
갖는다
풀고
##티가
##제도를
##귀한
보태
기지
##운을
##했겠지
수급
방출
노력하는
##근성
반격
심정
스스로가
##집으로
인맥
생각된다
인적
##협력
##에다가
##수하고
사회적으로
저쪽
언론을
되나요
살리는
프로토
도시의
##시즘
쪽은
바뀌는
정식으로
과학적
##벌을
했어야
##세끼
##는거죠
못했고
##것인가
줄은
징글징글
즐겁게
정의의
배후
해달라고
촛불집회
##통과
않는가
##주년
표현하는
부합
떨거지
##전에는
되야
랜덤
님이
유로
##고요
##소녀
number층
##냅니다
오프닝
팬들이
##같음
대성
언플
조구
Le
거지같은
편한
판단이
불러서
없이는
##리야
부담이
조국도
공격에
##ind
영남
배불
##인지를
비단
##ud
점수를
쓰면서
가족과
길어
불확
피터
꿈도
##진으로
뭘로
선동하는
쉬는
놓았다
일이라고
위험에
폭주
##츠의
이듬해
내려가
번에
느껴지는
누릴
배경으로
1만
선거를
##때로
##겠느냐
조금은
정신차리고
야간
##쩝쩝
죄송합니다
불안한
여성들이
줘도
레인
##가는구나
좋냐
번씩
이성을
직전에
##위병
부르짖
##리언
위해서라도
뭔가를
##이는데
##공작
특징이
조공
유인
노태
##자이다
스킨
자신에
할까요
급식
##역의
##국가가
단절
살았다
##노예
때면
##많다
브루
호도
기사도
##열에
주제를
기밀
##놓으면
감찰
##들하고
아휴
공원
##인상
차가운
2의
그리도
새해
공존
##새끼들이
발견한
더러워
##고시
발의
number위
장을
##기념
승격
추한
나서야
##반하
성공했다
털어서
바짝
돌리
방식은
남들이
##돈은
뭐든지
야생
이용하고
##애는
##데기
##보의
속한다
복사
공정하게
리버
주입
생각없이
##스킬
달콤
제도가
떠들고
볼수
sh
##르를
취한
순환
후려
죄는
##가진
이쪽은
##ove
미쳤다
비방
number년까지
함으로써
또라
집도
사기를
지방자치
생각했는데
허구헌
코메디
기록한
뒷통수
쉬고
##넘어
##값은
채우
##억이
등장했다
양자
파멸
소원
소규모
##움과
열차
학력
Bl
정화
쪽을
대구시민
뿌리를
영주
바에
논리를
세일
동원해서
기쁘
##하는거다
듣보
문준
정권에서
몽둥
개념은
내며
날아가
##이라면서
응용
김성태
매크로
질서
이전에는
무산
##해야된다
##장인
기성
##창이
오지네
##바퀴
폴란드
1시간
나누는
US
것의
##쯤은
노조가
성의
예민
비닐
받았다고
손바닥으로
가지를
1995년
##료는
길러
세웠다
지루
##비어
돌렸다
##키지
다주택
안되냐
군대는
피어
부드러운
힘은
한국에서는
엄격한
흡연
카드가
불로
##벽을
##등으로
관계없이
##이치
돕는
재고
본토
깨닫게
##넘은
아닌것
정성
부엉
안타깝네요
외치고
없었지만
##황을
의문이
자유의
##ff
##영상
늑대
##왔다고
##권분립
나눌
학생들에게
##밀하게
넘기
시간도
자리잡
이룰
사이를
##다닌
공개된
##물질
이보다
중장
행정부
증상
50년
노인들
##묻은
##처가
물어보
넉넉
잘한다고
사랑에
죽여야
가계
안받
키울
군복
##놓을
포착
된거
다투
남지
쏟아져
괜찮다
물러나라
입단
핵무기
민간인
##들로부터
##경제를
명명
##적이었다
수염
탐욕
종자
땅에서
##간다는
뒤져
##시적
지식인
숨어서
팩트는
##ian
유령
이외에
98
맛있는
##급여
##신과
꼬라지가
제임스
하나다
사장님
실로
잘먹고
##보상
보기엔
number원
막지
깨끗하게
나간다
유산
감염자
특기
대학을
##생겼
##과정에서
선별
방법도
친구는
뭡니까
로또
##리지말고
별도의
신나게
가져온
지키지
국가로
전수조사
SP
PS
레알
명확히
##이었으면
하였고
인민재판
있었는지
##초가
당의
욕도
때에도
수사가
생각하나
죽을때까지
연기를
##금도
어쩐지
날카로운
##하더만
돈과
왔던
##증은
숨겨진
적반하
자유와
안지
연말
##껀데
개한
##오염
##실패
의아
가방
거느
몇일
내정
지시를
토착왜구들
부럽
저들이
못하겠
##바이트
민주당도
##테인
##게는
없어질
자체에
중시
##침이
스스로의
길고
##뿐인
##데스
이와중에
순실이
맺고
바이오
##먼지
쓰나
대화가
88
##맨이
##들어가
취급을
##대갈
오게
침대
오너
##오카
나경원은
였다
어벙
고장
##크와
이석
it
행동하는
현기
챙기고
드러난다
신하
쳐도
휴전
##했구나
맞추어
힘의
시민의
엄마의
원흉
별개로
유의
있니
혐한
틀니
스튜디오
##쉽게
연결되어
누적
앞에서는
상급
어지간히
##두기
있을때
##테니까
##하시오
##가들이
총장님
안전하게
##업자득
1로
알아차
욕심이
##FC
사라진다
누구한테
이완용
오기
기차
##못할
아이콘
##하기전에
바보가
##어린
##그대로
##준은
지구의
먹기
군주
##국제
해보자
숨기
애국자
다시금
성능이
치명적인
##나갈
제안을
지롤
편리
역할이
웃겠다
##계열
쓸데없이
색출
한층
##것지
여객
정당이
보이나
붙잡고
동안에
일인데
라틴
애완
CEO
출국
##ory
백화점
일본가서
포르투
이상하다
단백
##우와
##풍을
마른
할지라도
받았고
광우병
종특
남발
아홉
##결이
김무성
지나가던
후의
왕국
##행하는
요소를
##린을
트라우
이원
##것냐
친일매국
##입은
박정희가
##수익
아하
개인정보
##ae
##체크
가져야
한통
##모르는
정도에
##하기까지
오스트리아
차로
가리키는
실체를
한없이
왜케
나뭇
조건으로
##작업
궁금하네
마법을
##취를
##이라는데
고객이
핑계로
안다고
못하네
싫지만
##머리를
괜찮아
활동이
인터뷰에서
있었나
짐을
두어
거세
잠재적
주제로
자업자득
그당시
##할줄
시장은
주면서
억울하게
도착한
않았다면
일어난다
다시한번
국가보
중복
나루
부천
##파이어
##사에게
반가
##주면서
금수저
달하는
보임
이산
조직이
감기
득표
부모를
UN
성인이
인간에게
서식
솔까
교과서
##질이나
기억하고
Un
##다시피
풍요
새벽에
형상
금강산
올라오
똥싸
지겹
쓸어버
넣을
줄일
연구가
안을
걱정하는
주가가
##원들의
구속수사
##오르
벗어날
분야에
울나라
##피가
준비하고
##린거
##되도록
양승
당연하지
경찰의
강력히
살려고
##야당
사다
천하의
##온이
저택
위해선
##렸지만
어마어마한
보이기
number의
이국
초상
민심이
다신
##어야한다
깔려
발명
80년대
눈동
줄서
여전
활짝
김정일
못하는데
연쇄
##무새
##피셜
악마의
없으나
그랬다
찾아야
아껴
주장하고
만들어놓고
사거리
움직이지
떠넘
벗어나지
급한
로맨
인해서
봐야지
##맞게
공허
##하냐고
OOO이
공간이
경쟁력
반공
심하다
염두에
김문
시민이
삼촌
##받기
입각
죽었
##변에
성역
지점
##터에
가문
밝히는
급격히
경찰서
바이러스가
##었다가
##피는
사퇴해라
좋아하지
영문
##림은
조선일보는
건의
에이스
정류
유착
사례를
##츠를
마스크가
환경에
소극
경기는
원장
##보에
##오르는
이르렀다
규정에
너만
포위
퍼부
##반에
것이냐
나나
북부
##하되
쓰냐
##시장에서
개나소나
개표
바람을
러시아의
##ear
갈등이
아니겠지
##생명
거기다가
대통령에
발전이
강성
관행
손절
어둠의
입수
승차
결제
##의원이
되잖아
이번기회에
정신못차
싸움이
도가
버리지
##보다가
캐릭터를
축복
이년
못한다는
찾아온
좋았
##줍시다
뭔지도
전까지는
검열
의문을
##했더니
귀엽
전반적으로
Pr
##프리
뒤질
데이비
물품
##시키려고
언론과
##라스틱
인생은
뭔소리
모양의
PR
##절에
교회를
한푼
나설
굽신
##미한
지목
세계로
##빨아
토왜
고성
##코스
밥은
##진다는
##해의
##프와
골수
문제라고
못한다고
우리집
##한걸
출퇴근
##관계에
지표
허구헌날
없었으면
##전까지
위원장
가죽
벌이는
병력
##증상
##주라
외의
서울특별시
휘말
메리
낚시
뉴스가
스트라이
벗어난
혀를
##물며
슬쩍
사양
전쟁은
성적이
비난하는
##론으로
취해
##ge
급하게
아내를
##했어도
불합
여덟
굴욕
소리도
발상
왕자
주간
것이지만
군데
증상이
##시키려는
웬만한
부문
단위로
탁월한
무단
어른이
우병
네일베
했음
뜬금없이
깨닫고
걱정이다
농사
시작했고
##52
잔인한
치졸
기술은
정시
##책으로
대하는
하루가
##식도
안뽑
문재인이가
절차를
소각
##본데
감금
개거품
거둔
나누고
백번
노숙
자주국
인도네시아
왔습니다
사탕
이면
한국인들
방관
##까고
메탈
##감이다
##증으로
신혼
왜이렇게
심리적
잡힌
##주의로
건보
운영하고
혼인
지내는
드럽게
##없을
마저
##한거고
계정
꼭두
바른말
소름끼
말도안되는
못합니다
모습이다
ch
주전
##백이
퇴임
돌입
애쓰
프로세
일인
앞뒤가
말이되냐
없었는데
##되는지
하는거다
여러번
당신같은
기다리
MP
유지할
##당도
실검
니도
##라이트
헌금
SS
##이라곤
소프트웨어
파생
양극
##과를
나몰라라
지난번
해를
2010
털고
존재로
##이라고도
서울시장
지구를
내용으로
##반도
대학의
몰라요
받아야지
종자들
처벌이
이집트
건립
칭송
##드릴
몰살
##안하는
보고서
주변에서
##꼬박
##열면
일조
열받
그늘
앉았다
##다의
조선이
조사해
빌딩
##리만
##레를
##티아
세웠
쳤다
기존에
관대
역을
열정
납니다
다닌다
단행
상태였다
꿈이
##나봐
있었지
기술의
영어로
가지로
##박스
원하지
할게
##ne
마스크는
되기를
트랜
그나저나
의원님
##없애
공영방송
##슨의
##될듯
반항
후기
에혀
토해
##버스터
##가지가
쓰던
이름만
대면
박혀
##짓이
남편을
모자를
주변을
천벌을
피난
벌고
장관은
정의연
투명하게
부인은
60대
##지던
지능이
뭉가
명확한
##죽이고
담당하는
저것들은
황당
웃음이
팩트를
by
위생
사정을
자금을
저작권
동포
카를
특히나
##경험
수감
아작
일가
##조심
못하
강철
상하
4번
##작용
한발
##end
여기고
똥인지
수술을
우주의
놈들아
제시한
시티
기운이
움직임
미국인
소홀
77
회장이
재개발
개발한
##공에
독재정권
안녕하세요
아니라서
소리하네
원주민
집단의
노망
발전에
압력
##TO
못사는
##이들아
망명
##천만
##거로
사용된다
##지대
조달
기후
신상공개
##기관의
당첨
관리하는
내서
##시원
차마
##르몬
지도자가
이것들아
감안하면
곳도
저러니
##공은
##13
##교체
입장에선
사이다
성찰
이방
##댔다
##거잖아
가졌다
삽입
##단에서
##리들
하차
##하셨습니다
이해하지
매춘
하나에
용돈
##세여
됐고
드립니다
##출산
강용
맘카페
올인
##아시아
스키
##LC
확인해
미만
스탈
지식이
난리를
됩니까
혈안이
NC
##마크
되려
많기
예전부터
상가
##시에는
효과적인
##찬다
상륙
더해
미세먼지가
검찰과
예전에는
국왕
소득이
##작가
언제든지
공모
천주교
##다닐
##론하고
조두
어쩌냐
고고
##lear
없으므로
싶어도
지났
이렇다
우리들의
교육부
부엌
##씨도
개소리를
일부가
박사모
부정적
알아보
MC
말았
보호를
무의미
새끼는
##연구소
##주제에
묻혀
##조와
##해주지
실업자
아들의
강남구
연락을
토벌
사학
혹시나
추가되었다
##진다고
##취소
우는
길이다
감옥에서
##했듯이
##슨이
##로당
##담이
던전
##치나
안민
신생
저렴한
이병
사회악
문제점을
별의
하느님
떨어져서
이제까지
도둑질
녀석이
조용한
##성이다
##있지만
##되도
종교를
교회에
동아일보
##현을
기사화
##킬로
##사회에
모르는데
붙어서
들었습니다
##안하면
jtbc
number달러
판타지
없었다고
다리가
비아냥
주권
차원의
##모르고
아비
##그렇게
척결
##할것이다
##사냐
##플렉
제발좀
대깨문들아
보이네
##움은
사람이라고
아지
이들에게
존재의
##뜨고
장하
뮤지컬
촛불을
대다수가
윤지오
##거에요
위임
##도르
상관이
입대
태영
##서울
##랄까봐
희한
해주면
왕은
소음
VS
그래놓고
다르고
지배하는
내놓은
##하고있다
인정을
야동
BG
학교가
못하나
##기획
##건으로
발자
섞여
보너스
##대왕
계란
사랑하고
##하기에는
것들아
베를
늘고
kt
##셔널
포털
한번씩
52시간
재건축
외신
그런다고
##입학
의원들
##청의
권장
말하는거
파이팅
이간질
##AC
##랭크
여기도
##주는데
##할꺼
최선
다큐
##적이라는
이제서야
신세
##이름
##츠가
##만큼이나
##량으로
스티브
##받아라
산을
혈압
인간으로
강제징용
일종
제사
입지
싸구려
기반을
##시키며
도와줄
아시안
KB
##시네요
사장은
한국전쟁
귀걸이
1인당
베이스
추세
소설의
##셨나
##프로그램
가진다
돈받고
외교를
기간이
정치꾼
##쇼핑
열일
엔터
보낸다
##바랍니다
압도적으로
직업이
number일에
##없어요
##이야기
야만
격추
견딜
산책
##백만
가리고
자랑하는
##본을
##구야
##들인데
##자원
재배
짜증나
시정
효과적으로
과일
##해야죠
여권
병력을
구하는
지름
##라는데
니미
DJ
결의
마음껏
저들은
##좋다
낮다
보나
모르겠습니다
당나라
##환은
어린아이
아르헨
깔끔하게
##마와
##넘게
##관념
대사를
콩밥
##학습
그리워
달에
##90
권총
개체
돌연
뽑고
전전
레이더
바가지
안나온다
법이다
일어서
##액은
움직임을
WHO
민주주의가
사물
##스럽습니다
그림자
선동하고
써먹
청와대와
것이죠
중요성을
카더라
지팡
쓰다
##내내
##덩이
수동
암울
툭하면
##래의
시작된다
수업을
언어를
##ord
방에서
3명
프리미엄
미친듯이
짧게
결국엔
알아보고
흘려
말해라
분명하게
체감
걷는
시국
고마운
좋았다
오세훈
못지
##다를
분해
##즈키
이새
##써서
부모님이
허위사실
##공감
##안된다
서슴
직업을
믿습니다
걸었다
##팀의
설명하는
줄이는
다가가
화장품
체제를
상대방을
황제의
외로
코치
##비서
부려
서울로
생김
이어져
즐기
이론을
##츠는
##one
엉터리
변질
부르며
업적
##와이
관점
않네
##뿐이
##밀리
무자
대표적
난이도가
한국경제
정의와
남성이
##목에
하노
게임은
모자랄
쓰는데
##줘요
##글을
보유한
사표
군의
##레일
세계적
우연
조화
저자
초기에는
1분
조선은
##ial
##겟네
누구든
모의
하수인
쿠팡
가담
성공적으로
치열한
입국금
싶냐
총독
비자
##합이
다른건
이도
연구에
##쪽이
##기업이
##레가
일찍이
던지는
옳다고
##놈도
환경이
납품
가둬
##일지도
한가운데
해보고
##망정
취미
못했을
맞춘
##모리
사랑과
전복
생활이
했어야지
묵묵히
그런게
꽃을
챙피
##gr
범죄가
##년동안
문제와
드문
하반
##회복
##ark
##ure
말한마디
현대의
차분
떡검
##락으로
던진
##탄이
##줬는데
##싶네
한미동맹
##동과
들리는
될수
##물이다
은하
자세로
##거라는
부지런
임마
없었기
기꺼
중요하게
##탈을
새끼들아
될것이다
들러
먹고사는
추하다
팬들은
핵심은
국격
##만이라도
독재를
중에서는
치열
데려다
전쟁에서
1994년
일본이랑
하에
##렸으면
장성
포트
후안무
백신
무리한
SM
안정적인
게임에
3D
무고
캐릭터의
않으면서
사고는
지킨
##지도록
개고생
유희
##어디
AT
##ob
개누리
##방지
알지도
타자
그런말
##즈와
있음에도
리스크
10만원
즉위
##생은
읽은
이윽
우동
김건
가는게
재앙이는
##자랑
사회생활
많은지
토나온다
나무를
임명한
인터뷰를
먹어도
에라
한것
뭐래
어버
무개념
청주
##었죠
##호에
촉새
##심도
참여하는
절대적인
하는거냐
앞세워
것과는
##제재
선생이
내장
원한다
##됐고
싸운
호응
국회가
##ont
##었구나
발병
만만치
놀랐
낭만
독립을
클레
붙인
바지
일원
메카
##학규
##과정을
##라에
나이는
지인
사람이나
크로스
않았으면
일회
##아파
사제
일체
다물고
기자들이
관련한
5개
보이면
통보
##ys
##번이
없다며
그전에
##으시고
밝혀야
성향이
장점이
비어
무례
여적
##하십니다
##나와서
style
말하는데
날마다
돌을
김민
해임
##상태가
느껴진다
우리한테
##마시고
크리스마스
##운의
드나
##야구
준우
망친
##하니깐
낯짝
않겠다
행성
##거지로
잃게
경제학
부당한
##주며
##라미
벽을
##시키려
##레나
전향
##새끼야
대꾸
원활
70년
오페
##문제로
##토론
모스크
로그
치가
귀여운
보기에는
해금
데미지가
CP
##용품
교양
한개
듣게
##잔을
생각나네
아니니까
##강도
발견할
욕설
##거릴
적다
해마다
대표적으로
균형을
지금보다
강조했다
고지
선심
이야기하는
버림
팔이
문희
당하지
생각했던
거들
피해자는
##악을
보육
소망
##스러울
손님이
강아
순진한
김수
##거리면서
재앙이다
쉬워
자질
지역으로
군인이
창문
계곡
시키면
닭그네
초토
난무
##면의
##달이
객관적인
기피
퍼포
##결에
##쾌한
무언가를
##반응
무너지고
대사가
욕만
##악의
비공개
멸종
생각해라
##믿고
number퍼센트
다니며
추석
무늬
씹어
##식품
나게
명확하게
눈먼
이윽고
협상을
따지
##였냐
##끼야
##14
계집
생겨서
고인
##iz
혼합
위와
슬로
시절부터
포용
1대
바닥을
국익을
지나고
날은
불법을
##수다
무얼
##내면서
누리고
드러운
##감의
죄지
유능한
##될까
위협을
놀랄
##강점
an
능가
이기고
##억을
갑시다
##두지
적화통일
프란
위헌
노회
밤을
전제로
2011
##들이라
##VE
데다가
하태
존재할
##트릭
이며
##한것도
##한다는게
동일하게
걷고
상대는
삼성전자
경험해보지
있던데
자영업자들
그돈으로
안경
전략적
62
##걸린
외노
정하는
##일만
##되었기
실험을
오타
##사라
추운
시기를
코르
다루고
백만
전승
왔다갔다
##워라
딜러
분별
고가
연구는
이식
재혼
그리스도의
나가지
스탯
이별
##시라
##위도
공부하고
정원
##불능
##다니면서
설쳐
상상도
인문
기대할
보아도
자네가
##스톤
직원들이
판결이
최다
모르네
##계와
공개적으로
##말자
##ere
이상황
구조가
사명
제명
##하마
외국에
번쩍
비롯하여
좌좀들
바래
##가능한
복종
하루하루
자각
일어나서
수사는
강릉
당한다
속지
##말종
##시장의
하시길
말처럼
이쁜
결단
다른사람
대문
탐구
##짓는
열려
조국장관
서울의
어휘
##ft
하고싶
이제라도
세입
똥만
##소릴
180석
마이크
져야
FA
생선
관련해
뜻대로
실화
못받
발끈
##리에서
어려움이
콘서트
갔을
##바꿔
운동이
솟아
시부
모방
##화학
울트라
문헌
검찰개혁을
삭감
##광고
##ies
선물을
객관적
스트레스를
대응을
경기에
10만
붙이고
가축
범인
빠지게
위치해
빠질
초보
현대차
선거운동
달이
남아있는
부패한
떠오르는
일의
이겼
호랑
##광이
어이없다
미화
찾은
악성
##위험
논리적으로
##에나
##협정
제공한다
##사무소
##더기
타고난
유저들이
지을
##시에서
우라
이북
1년에
가면라이더
##uc
대구는
##종합
꼭두각
적절히
##산에서
가성
놓인
##안다
189
속에는
요한
우리와
없어야
##보스
경쟁을
사업에
clear
##둘이
##고속도로
살아가
주인공의
농구
무너져
보유세
##작전
이노
##드리고
해당한다
##테면
의사소
##셨는데
노예로
##시리
##어버린
기부금
무법
예견
##스트가
한전
성조
3인
죽음으로
치부
자초
##마귀
늘어나는
중개
배정
안통
여우
그만두고
박스
군사를
##지거나
##DP
##코드
오늘날의
##가리고
생활에
전세계에
내재
##입을
관세
바르게
프랜
지원이
시작해
성능을
말씀하신
피해자의
혼란을
##되니까
공산주의자
조심스럽게
우려가
문재앙을
인물을
##곳을
72
조로남불
번째로
손상
온국민이
정찰
명백히
맞춰서
멈추고
당사자
##유는
벌벌
환율
떨어졌
이대
보이게
만들자
작가는
##깁니다
나보다
활동에
상주
무시무시
지뢰
선전선동
양파
대구에
아프다
나랑
합동
현실에서
주인공은
북한군
놀이터
하버
##기관이
##올리고
존경합니다
쳐서
모두의
##ood
명예를
76
목표가
##포는
더불어공산당
정치인들은
현존
끝난다
언행
심각하다
재판을
피의자
결여
임차
팬덤
격투
호들갑
De
네이버는
##화도
CJ
##변호사
교차
잡아먹
##티는
세월호는
의대
우체
##너지
웃으면서
하는건지
생각한다면
##간히
누군가의
주민들이
##돌아가
그해
##류는
사람들만
눈치보
le
경제성장
##한국당
게이지
##여라
IP
##수나
##수출
힘드
거시기
차원이
##살고
##ass
1호
비비
##질만
심화
막걸
시시
그들과
제목을
##조각
빠지고
폭력을
##입으로
틈을
내세워
자체도
살인자
##고발
성형
싶고
카운터
NO
##무능
질서를
##하시네
##국가로
전송
플라스틱
##마루
고위공
떠났
나발이고
두지
재직
##들이는
자중
타도
당연하다
정도이다
장로
머물러
기꺼이
공평하게
명박
내용도
의심을
환승
아이디어를
학교는
##천은
Com
##누가
대안을
요괴
목소리는
##탱이
우째
1주
놔두고
과학기술
회의를
##박고
존경하는
연세대
둘의
전체에
떠나고
왔다고
공룡
퍼포먼
장관을
반으로
거짓말로
배워라
조작이
홍위병
처한
##장이나
##왔을
##꾸라지
위를
##봤냐
##치던
##치냐
쉽고
의도를
삶과
##지도않
찐따
##바의
오르면
하겠네
##하였다고
글구
루트
인식하고
일한
돼지로
불통
##축구
조선일보가
발견된
실린
##호식
##잖냐
대통령에게
부모도
##월드
어울리지
덩어리
##IT
시작하여
메타
문제냐
63
모습도
정립
한몫
북한한테
아픔을
안하지
아내와
##것이지
정부야
왕창
##만원을
1990년
내려온
민주주의의
마츠
나옵니다
##qu
##거같은데
##참여
##코를
이냐
A4
구두
##리거나
이루어지고
재활용
아인
궤변
영향력
저것
자작
진보가
깜방
소가
초고
티켓
처벌해야
섹스
때리는
가량
안에는
국민들만
활용할
##시장은
알고도
가드
##줄은
민족주의
배송
가이드
몰아가
물은
모호
말레이
##문재인
않지
계몽
##업무
박힌
##커를
질러
민좃당
2부
골고
##VP
##꼬리
남겼다
음료
쓰라고
시장경제
댄스
해결될
조명
바른미래
구미
파이어
집행유예
말인데
내부에
부끄럽지
보람
##안으로
하겠지만
##오던
죽자
침착
답은
기용
##부턴
##기보다
남자와
인물은
거래를
손학규
정신차릴
노인이
지금이나
아베의
카타
현상은
사실로
깔고
넷째
통하지
무고한
준비해
같애요
책임져야
##석으로
감고
##형태
카나
꾸며
징용
하청
달라진
##머리가
number년을
의견도
에어컨
범죄자가
태어나서
##자니
정치의
문제이다
가졌
전국적으로
안좋아
3회
좌파정권
대학에서
##지라고
##서비
연수
자식들은
자발적
##었을까
끝내고
##정도는
변화는
손잡
살았던
예산을
노사
경험하지
태도는
되었지만
##물도
대표로
떠올랐다
아르바이트
야스
쓰레기들아
공개해라
설정이
안가고
##보장
지난달
##령으로
라이프
설탕
조아
명예훼손
허수아
변동
주목을
일주일에
마늘
국무총리
감이
배에
나오니
눈길을
꼬박꼬박
약점을
에는
2중대
이러는
##증명
없나요
##나오네
공격력이
마땅히
고맙습니다
농락
제네
잊을
##부르
영역을
됐다고
바빠
보단
사람들이다
명은
##타워
진행되는
##할땐
받아들이는
니네들
출신이
둘을
어린애
스캔
##더스
기업들은
##분도
대명
인하
들어가지
벌써부터
합의를
##생에
지지도
유해
행사를
##디의
NPC
느그들
막혀
쓰러져
고아
치를
때보다
##매한
임상
쓰레기는
비스
##일당
##저가
플레이를
##골이
##측의
옮긴
상해
##신다
악몽
총장이
배척
캐스팅
##질환
어떤지
싸다
통찰
건전한
이루어진다
소재로
부재
##였는지
##라고는
막론하고
시리아
사과는
조심해야
뚜껑
차릴
올라서
##천을
무너지는
매스
경제폭망
좋아할
쓰레기를
82
##라는걸
민식이법
남기
1조
특징이다
최강의
웃어
number일부터
##당하지
종속
나가라
일으킬
비열
##키와
##도없는
덮고
웹툰
것이오
달러를
살인을
ww
##IS
지들도
개웃
우릴
##녀는
한잔
##법상
1학년
모이는
사퇴하고
쓰래기
하물며
국뽕
##정지
정확히는
그때부터
힘들다고
다하는
##말이다
평가는
형태가
방학
시세
예수의
##자산
크지
5억
죽이기
정권바뀌면
##주네
##대원
세비
수행하는
인권이
브레
통수
삼청
절친
원치
영향으로
레전드
참된
##쪽은
##움에
##세기에
내편
하하
##택시
미안하다
비전
공연을
문통은
달인
비판이
##국민들
여인
편가르기
시작하고
버프
여론몰이
크기가
거부하고
위축
급증
세우는
자멸
달라질
보내서
바꿔서
최우선
컬러
벌어지고
존재하고
과거에는
##적한
대깨문들이
##된게
나쁜놈
##차이즈
알레
비추
무력화
터지는
씌우
트렌
할매
놓는
연일
욕하면
포르투갈
줄기
정체성을
죽어가는
미군이
변호사가
어그로
##됐는데
현충
거짓과
적폐로
임산
준다는
안막
삼성전
수필
##하고있네
사진은
선생님은
##심판
##족은
수월
뽑아야
##보라고
술에
##발표
기적
##짓고
시는
진행되고
드랍
낮춰
##김없이
clearing
방송이
##량에
다른게
짱께
호구로
정준영
치자
환원
알고나
##빈은
놀아나는
능력과
사료
쓰인
도리어
이런말
##가인
구슬
오지랖
##체와
걸린다
##스트의
##ite
김연
저하
제목이
거요
우리들
가격에
로스쿨
간과
##다가는
##으냐
이루어지지
자한당의
##군사
문재인정권
민망
젊은이들이
감추고
망상
비타민
되므로
##플레
비교가
그다음
일제강점
친구들과
말안
터지고
토마
##나나
##담당
짓거리를
괴롭히
띄워
왕조
다다
##손을
중심이
구호
말종
구성하는
국고
공부하는
##마로
거잖아
설명하고
가져가
##저지
중요한게
만드는데
있었기에
영웅이
##공학
굶주
##사회가
24시간
있소
지껄이는
자행
집필
##하였지만
바뀌어
복제
여기에는
압승
사용이
##시니
##키아
2루
한명도
시대는
##고리
##지역에
이러면서
한미일
반성해라
이루어졌다
일년
대우를
임금이
number쪽
변경되었다
나라경제
들어라
##있는게
치안
스님
##설치
한달에
##림으로
재산이
왜들
퍼주기
대가로
합작
심의
##포의
보려고
일식
백날
감방에
탄핵을
##익이
터무니
진행하는
광화문에서
타겟
with
분당
##채널
##더가
##팅을
듣는다
대주
데도
마도
솔직하게
이른다
영상이
##이사
날리고
시위를
설치는
##역할
##인격
##했기에
쿠데타
불필요한
창립
##디를
중산층
초에
완장
유한
##구치
소리냐
##생각을
##죽일
##책은
양식
빈번
생애
문쩝쩝
전반적인
##라는거
##림에
북한이랑
##색은
기사의
속셈
세게
찬양하는
고치
##인정
##하늘
극장판
표현할
포토
도서관
##레옹
구체적
노래가
끝판왕
대구에서
파일럿
##자한
경인
문학의
변한
국론
재검
필사
하잖아
벌이고
안산
지면
가능하며
스위스
금리
남양
목사가
몰수
값을
만났다
저것도
##나오면
일본보다
##종북
인공지능
선비
할것이다
##불매
더빙
쫒아
결국에는
##했죠
우리민족
선거가
선도
데이터를
2인
##했잖아
중요하지만
총리가
부르지
던지고
취하고
로버트
##메이크
XX
여러분이
키스
김여
싶어하는
북한만
취급하는
안그러
겪는
소상공인
공격할
개박살
머가리
기회는
그런건
사용된
논리는
정보는
유물
버젓
##증권
내포
저그
number명을
받았는데
성공할
질이
망각
##ib
날을
상한
##씨와
동행
지내고
##랗게
기웃
number퍼센
##랭이
He
##미네
고기를
빼고는
환자의
역쉬
7년
##규칙
기사라고
댓글다는
짤라
Se
안아
안하는데
##대나
##형과
분들도
##란은
일으켰
주며
보면은
##노스
##덩어
##들이냐
인터넷에
훠훠훠
옳다
##팀은
##대니
##이구만
신장
당원
##술이
##감사
수여
##ES
더는
고구
##힘을
용산
가산
지나간
성도
만드네
사각
오마
제자
주인은
흥미를
존엄
##파와
불법으로
한해
중국이나
##주길
파이널
##례로
새기
체력을
당근
대통령이란
휩싸
삼권분립
금전
퍼센트
놈아
죽어가
도시를
강하고
낮추
하느냐
찾아가서
삥뜯
죽었는데
##한다며
활동하는
비밀을
##범을
산출
스태
없어지고
뿌리는
무소불
낮게
꼬봉
정신적으로
열을
잉여
내부에서
변함
출신으로
뿌린
##법적
##ign
보는게
힘에
수사권
겨냥
괴로
2학년
극도로
해야합니다
##수없는
재능을
검찰에서
무슬
끝없이
들어오면
공식적인
바람직한
지원해
쳐맞
받았던
수치가
이중성
미네
속해
불사
따위는
퀄리티
1992년
녹취
##법이다
##나보다
가치는
##만으로는
정세
추잡한
댓가를
뿐인데
뚜렷한
##퍼스
일인가
따까리
성실
말이에요
같기도
강사
얻지
##텔레
안하나
소매
포스터
##mer
생각됩니다
동요
##일가
걱정된다
내용과
유난히
고요
##리포니아
사람이냐
업종
##아버지
퍼붓
행태를
팬들의
##서스
세르
하면서도
투표를
토론을
회상
그렇게도
작전을
설명해
넣어서
주장에
포함된
스물
##등은
선사
자살을
인간이다
노무현이
##곡이
불과한
인디
##ire
##ran
아베한테
휴식
##워야
강점
스크린
흡혈
21세기
당해도
비중을
##ment
##난리
##뿐이었다
비주
##했었는데
비굴
식탁
능력으로
알리고
##이신
서사
이즈
##무사
실상은
서로가
##음과
민주당에서
##눈치
시선이
한기
##다녔
활동하고
하였으나
유연
##을려고
장비를
될까요
number분의
1993년
무선
number호
##신한
중요하다고
##ary
받아들이고
number미터
예예
노비
##항을
##신에
사항을
##셔야죠
##리학
인정한다
되었으면
정책의
보건복지
탱크
바다를
규정을
바울
당뇨
장려
##런지
나폴레옹
잃지
##잔치
지방선거
소방관
##전용
##도도
환경단체
나부
뉴스는
##양아치
오른다
##이었지
몰카
남한테
어려서
##패거리
문죄인은
가뜩
성폭력
결혼한
수직
##보네요
감정에
앵커
##결한
폄하
막강한
안팔
반응은
버려라
토막
일으키고
감자
집안의
해온
딸의
일해서
풍경
올라간
##자한당
있는거다
원가
그러기
고스톱
##리얼
고려대
신봉
명목으로
##보려고
회색
작품이다
성향을
행위에
망가뜨
주재
계획이다
아래의
동생이
골고루
##채가
불려
자격도
공개하고
건물이
실드
##되므로
선봉
너와
생각하기
하나님은
그때도
본선
걸어서
유시민은
빼앗아
모른척
날리는
필드
이루어질
2기
밑바닥
number년대에
도피
구리
담보
숨은
알겠지
상자
있는지를
사람처럼
때나
본질은
국세
약자
인연
전쟁나면
스티븐
시절에는
능력에
되는거지
가릴
장거리
##차도
빠르고
##신경
##일리
##비율
있었어
정말이지
그랜드
지냈다
상황에서도
어둡
여부
개그맨
##가냐
검정
##것과
명성
똑똑히
꼬마
창궐
응시
제공하고
루시
덤으로
느린
줘서
##세우
마을에
천하
우아
늘어날
##부부
반찬
절벽
예선
허리를
##해왔다
##프로가
지녔
조립
##번을
에도
애매한
##급은
##모아
먹여살
경찰을
다이아몬
##이었어
굶어죽
냉정하게
##라고도
한국사람
아유
보도를
##살에
클래스
##쩌고
자원봉사
##중요
영혼이
안락사
쪽바
##녀의
유병
화합
##움의
속에서도
저들의
생각하는데
##ews
97
세계대전
블러
항일
양키
편협
그림이
것이라면
실버
뽑아준
해리
의무가
절로
Be
##테이션
디자이너
루머
##장악
시카
보답
##거니와
교수의
대는
받아도
##녀를
조국사태
주는데
##철은
개돼지가
##내리는
덤벼
있는듯
못사
목숨이
말미
##ctv
두려운
뒷북
전두환이
책임지는
누구인지
둔갑
조국아
실적
##았으며
2008
홧팅
걱정을
아니랄까봐
빅토
정차
##내요
암호
역사와
노리
알라
위함
##곳으로
제작한
##령에
손톱
##어졌다
##습을
들린다
130
순진
표현은
자이언
쌍둥이
모르겠네요
관리가
터지면
##객이
물건이
사교육
제보
틀림없이
신축
말아먹는
전방
끊고
이야기도
한심하고
외쳐
##블로
의심스럽다
고찰
##테러
사라져라
해당되는
대가를
사치
##면제
노력하고
정면
찌그러져
가뜩이나
걸음을
##만봐도
남성의
##날에
지럴
##락이
공매도
규명
##파리
분석을
있구만
내몰
중년
지우
소리나
김의
풀이
몸과
##ET
교사가
군수
보편적
자국의
범죄자를
살리고
저가
횡단
해결해
인정한
##설은
상징하는
뇌에
0으로
시체를
너한테
##읍시다
지지율은
소리지
도움으로
올라간다
노가다
##으니까요
준수
##당하게
늘리고
판단할
##링이
너네는
안되서
##말대로
작중에서
내려놓고
##자리가
##EN
우리보다
사용했다
패치로
출세
##도다
차관
개소리야
북돼지
빠져나가
죄값
끝은
김포
정무
남용
기고
들렸다
##국가에서
아케
틀림없다
앞장서
다르다고
장난하냐
구성원
##해보세요
어렵다고
뛰는
봉건
범위를
##오는데
싱가포르
##OC
안희정
km
##타와
고종
제5
##시청
싶었던
##박하고
##그레
노골적으로
강을
맞았다
##아닌가요
말하자
추종하는
듣보잡
니콜
가세
현실과
비겁한
FIFA
시청률
야당은
일삼는
설레발
##멘트
보여줘야
어렵다는
맡기고
열광
##지수
90년대
##당께
##시장에
##ical
주역
역할은
증말
누르고
반환
준비하는
환경에서
맡기
정신차리
입만열면
황당한
부러워
##man
고생이
##청년
따라서는
걸리고
조사가
들었는데
개혁은
아아
나타나지
고독
##코올
부럽다
순간이
글자
##말든
못해도
발견하고
국민청
문준용
부탁을
선의
상관없는
인테
일컫
##동강
##없었다
73
무시한
##체인
가맹
갖은
##길은
섞어
##에대한
정상회담
##네의
모니터
깨고
##래를
사용을
원의
깨달았다
월급을
뻔하다
전에도
잃을
학교의
그러는데
여러분의
##ov
조언을
영어를
랭킹
속상
게으
둘이서
캘리포니아
바로잡
조두순
인권은
맞아야
바미
밀접한
기본이
사이에는
반대하고
지위
외무
총동원
벤처
바뀐다
##함도
떠는
내지는
김병
맞벌이
못들어
얘기도
사업이
요청을
정해져
##학기
##ung
윤총장님
##야가
간첩이
단점이
관중
네이버에
돌릴
정신병자들
외교부
손수
전국의
##두가
주장한
##폭행
도지사
쏘는
리메이크
110
울부
의석
나팔수
의자
애들을
의거
##기사가
연료
##는거랑
무마
다니지
##할수있
애초부터
이를테면
징그
##직은
간판
중국입국
물량
사람들한테
데가
사케
멀리서
##토막
필요하다는
올려놓고
미츠
보지도
절단
진보는
상류
깨끗이
##사단
살다살다
정으니
무너진
동안의
담임
##새끼들은
##재난
무기가
증폭
잠복
노회찬
##카르
##들임
##버릇
모시
일보
어드
와우
임금을
##IP
분포
퇴진
number장
산에
석사
2009
친정
마리오
무당
##차원에서
나쁘다
사신
아사히
뒤지
연예인들
##평균
환호
반은
##새를
부분도
##할만한
##자키
공이
기세
아빠는
지상파
마음도
와라
여기저기서
하였습니다
맞는다
막은
혼돈
##개돼지
앞선
추악
부메
것이지요
##ide
xx
넣었다
친구의
견뎌
##운동의
배워야
캠프
진정성
##없지만
공립
##맨의
이르렀
##ice
##발생
댓글달
간이
##건강
사재기
도태
강의를
이마
미국한테
국산화
##근로
정령
말살
꼬투리
방어력
붕어
##더군
##위원회는
관리자
2대
김해
##일수도
세울
name
퍼줄
고민을
##변의
찾아와
다양하게
단어는
이해는
증거도
##억씩
어른들이
밤이
천문학
정보의
##속성
작품에
좌지
피우
부의
마을을
날조
오이
개월
영세
즐기고
말하기
##함께
다툼
##거려
장면은
사토
비교를
박통
전력을
##남이
##천원
##같은거
모양으로
노태우
밥도
실감
##홈런
##비판
3학년
이거지
용도로
해도해도
10분
좌빨들의
발발
호랑이
##일과
나오나
어이없네
##오로
##17
죽창들고
어땠
74
언론도
누리
게임에서
뇌피셜
가던
수렴
미래통합당
흥행
증거는
머냐
##창출
산하
내쉬
교육과
자리는
미국이나
될것
닦아
##기사를
전했다
##후는
##OL
마실
##죄는
범위가
많냐
##록을
##군에게
##거리로
얘길
##같지
se
문대통령님
빠져서
##소유
삼는
있기도
종교는
##양은
5G
포함해서
##기위해
##먹지
승용
상대에게
근로자
안해서
이케
없음을
유가
전대
맘이
##빈이
##투성이
##건에
일본에서는
캐릭터로
국가원
AR
분기
상처가
단합
감축
앞장서서
불신
증대
TH
##나오고
##생들
작성한
하는것도
교육은
머무
혈세로
만만한
이나라에
겉으로는
유비
컨설
##그리고
이메
##몰라
##벗고
##느라고
제품의
우기는
그리는
##사다
수평
견해를
믿음을
일시적으로
그따
##운운
끝이다
시어머니
인생에
방법에
##데가
##시키면서
##사업을
궁금해
불참
터널
먹어라
일반인이
꽃이
승려
않던
다가오는
장차
유용한
##장비
계절
생각해야
이놈은
달창들은
각하
한탄
분의
일본산
생기지
##천에
회장은
##시장을
홍준표가
불안해
##품으로
인간말종
뿌리고
졸개
과반
움켜
##안한다
되었는지
고도
악한
실효
##사들은
보고는
시끄럽게
주말에
피에
##창한
하소
허술
##명이나
신천지에
이어졌다
96
반일선동
댓글도
어디에서
대입
폭도
생각하게
해결하기
정이
골빈
붙이는
병행
정권과
이나라의
##주신
##나쁜
##속은
깨우
##동에서
mbc
위치가
했어도
##시나요
최선의
자유로
경상북도
##가지를
기준은
저술
어디에도
임원
흘리며
못쓰
병에
자한당을
값이
즈그
아따
부정하고
##코와
보기도
##너는
##대서
블라
때때로
##됐네
40년
미성년자
지쳐
올려라
끼들
세련
##발에
빨갱이는
신고를
카라
아이들과
오키
##손에
##짱깨
서른
국한
##겄다
가능하다고
원칙에
올라와
빠르
한다며
다중
방식의
웨이
##준의
##릴라
##입장
##할까봐
3만
보여줬
##오와
흡사
그것의
1991년
지분
발이
남로당
간다는
##는걸
##종자
검찰개혁은
알지만
##입어
장병
##했어야지
답변을
것만으로도
유촉
했겠지
거를
대대로
##고대
할머니는
장소를
치루
##하우
직무유
한중
긁어
등재
절대적으로
AC
##인거야
##될지
우기
외제
박아
두고보자
ar
##아빠
말좀
##준다는
기업과
외곽
나니
자격을
김명
아재
##UT
##브로
대여
외치며
안양
소집
공손
디젤
##그렇
그것이다
말했습니다
수확
음주운
##초의
선택하는
학생의
금액을
내구
청화
이어진
##회사의
후유
상상을
군사적
##연장
북송
제2차
##시키들
왔을
규제를
##ID
뒤덮
자유한국당은
이리도
되죠
##오른
고객을
민사
기구
비꼬
불행한
뭉쳐
파렴치
2번째
태그
거둬
위엄
정리해
##라노
국회의원은
말고도
알겠는데
나라다운
복용
젖어
드레
숨이
됐는데
머릿속에
정계
침범
##갔다가
##금에
국민한테
지으며
200만
나열
괜찮다고
모자이크
어머니와
변하는
울려
위주의
백종
한번은
동창
낳아
좃선일보
돌아오지
막무가
수반
뻘짓
하더만
아기를
##때문이다
##약의
죽음이
##외의
국민여러분
##으실
유유
실패를
여의도
가관이다
##르자
내라
##였구나
해답
##았어요
옮기
##수있게
차츰
일이지만
클래식
내놔
선택이
원이
워마
##틀어
##청정
배로
없겠지
##세도
표가
##계층
자연스러운
개발을
##ook
잃었다
##하셔서
걸림
죽이지
유료
홍영
##드는데
초토화
##EM
개수작
넓게
요인이
결사
##목은
##자꾸
##값에
걸어가
사악
감정적으로
인명
##서니
사람이었다
규탄
##근이
##자빠
생겼는데
포기하지
안개
스트리
땅의
드라
OOO들이
메세
##을까봐
저널
##업은
치켜
##르와
가로막
햇빛
신천지를
줄어든
쓰네
압력을
압니다
기병
넘을
문제인이
카트
##린데
울음
언어의
##팀을
##전인
짙은
끌어올
##공으로
심해
교섭
드러내고
뿐이
##차이
닮아
촛불로
언급이
알겠냐
##이들은
##려다가
다니냐
##면서요
언론들
소총
돌아갔다
탐험
유린
전담
되겠냐
##태섭
장사꾼
무거
사육
언제는
6년
##들이었다
한마
포함해
잔치
못했지만
##명하게
니들끼리
욕은
논문을
##무장
있을텐데
##해본
##바른
로비
어필
##좀비
미용
정신차리지
Pro
내비
와이프
설교
##yp
말없이
불리하면
구형
경쟁이
개구
지형
할말은
다듬
##김에
총선은
스텔
에이즈
교육감
향했다
엘리자
상정
주댕이
남편과
괜찮고
옳지
보여주며
거부하는
쥐새끼
찍어서
##량과
될텐데
먹어서
이상적인
과대
꼬리를
좀처럼
##기레기
##저를
##파티
모르겠고
은혜를
##도서
굳게
무엇일까
##항의
나이도
갤러
간직
셀프
진지한
번개
장인
알코올
##퍼가
일본차
확실하다
사실과
노선을
권력은
있겠나
##버리자
의논
되어있다
에디
업계
이토록
##관계는
다르냐
낙하산
저랬
생산하는
특성이
선거는
##있어야
지지자들이
말씀하셨
친하게
##그마한
의자에
김정은의
##번방
##매일
운동은
##기라도
##창에
치솟
등산
귀환
소송을
군인들
포함하여
##시효
눈앞
주는게
국민만
당신과
##리니까
하는것이
##줍니다
##테이
바치
##스럽네
꿈은
math
##꺼냐
대서
저녁에
통일이
비대
보호하는
건강에
공수처는
개망신
검찰개혁이
##커의
##싶으면
##아픈
적정
##정도면
볼때
상술
##인증
##회사가
맞는지
하는걸
하여야
기록은
동물의
생방송
집안에
부흥
되겠지
끝도
##대상이
마리가
일방적인
비판하고
##수용
장의
##더는
하룻
##이유가
요인
##닉스
더불어민주
160
최성
##였어요
요구하고
좌지우지
부착
아세요
적용되는
하지는
가냐
똥줄
헨리
계십니다
전임
##갔을
피는
있을지도
명에
본보
드림
대회에서
발걸
##줄께
##미세
##황이
태클
사용하기
보내면
밟고
Cl
반칙
외국으로
참수
약물
있더라도
##ich
말하면서
저것들이
##더의
편법
##온의
##안되
급급
이인간
##바위
암시
부엉이
받는데
승무원
##줄게
분신
따지는
안죽
##사유
##급적
대를
사령관
##기라
적발
불에
자유한국당이
익숙한
들었던
평가하는
##야는
짱깨들
콘크
할일이
손가락을
공무원은
입구
상인
##저럭
강대국
해결하는
2000년대
빡대가리
있다며
필요성을
부양
최고로
거슬
유태
브라운
##범은
쪽발
양을
후반에
느껴졌다
것으로서
진흙
##보낸
##안하냐
교묘하게
기사만
이내에
등이다
그들만의
없어지는
##온은
##이었다면
놀아나
무섭게
##대국
자신만의
##말만
했잖아
주유
도둑놈
소비자가
실리
##련을
마을의
바리
##오면서
짝사랑
있어서도
그럭
전투기
낫다고
주문을
국민성
장미
힘들지
강압
않았으며
심재
##겠다는데
##하리라
자한
위협하는
세번째
자르고
틀을
압축
모습과
조세
67
##꼬라
페미니스트
sk
##맛을
남게
비롯된
요코
환수
존재는
줄서서
인원이
지침
##쳤던
대통령이라고
어깨에
##신분
##했니
차명진
##내의
기도를
집안이
##아와
반갑
지주
##박물
##더니만
15년
지날
찌질이
##달을
안철수가
신속하게
달창들아
년간
초라
타케
발간
유니폼
단결
##메가
너무너무
쓰레기야
여러분은
물어야
##민들이
졸업하고
의사는
##셨나요
중요한건
교활이
책에
##았는지
사흘
측에서
모르쇠
화산
아니잖아요
전인
가능하고
주둥이로
걸렸다
의원직
탐색
자유는
아이스
##목적
뛰고
한양
나라팔아
일본하고
투자가
학부
대변인이
일차
##이라는걸
원로
##기사는
##기업의
친미
이같은
지체
##야지요
보시면
바늘
이곳은
먹으면서
##화수
독자적인
장기적으로
쳐다보았다
첨부터
가네
이천십
##질서
개념으로
법원이
2세
것에서
학과
이런일
방울
number세의
없을까
##바란다
위탁
브리핑
기간에
모델로
##버리지
없거나
분탕
입장은
문제입니다
부진
진리를
한순
##위원회의
바를
나왔던
손쉽게
응원하고
그때까지
채우고
따라가
중순
##어질
제시하고
대일
자립
빨대
경제적인
긍정적으로
그렇습니다
주부
알고보니
##랑께
##거리지
충남
볼모로
68
살어
훈장
OOO야
프로그램의
상황인데
부끄럽지도
운영을
자문
해결을
##고있는데
사원
모델을
스피드
태블릿
디스크
박찬
##정책이
1980년
##덜이
계단
백퍼
생각난다
##화할
부족하다
대상은
##듯하다
##ond
녹아
##토와
명분이
오라고
##레의
모르겠는데
양심을
##해선
일제히
일각
반쯤
있는거야
##hn
피하기
##쓰기
사냥꾼
달빛
전세계에서
줄어들고
두었다
수입이
잘돌아
협동
헤르
##손이
거나
팔레
뉴질
##머스
되돌려
##결혼
##oy
조선인
넘어간
김두
무적
##ock
마르크스
지저분
수단이
슬프다
하므로
발언은
손실을
아랑
파도
요리를
##밥을
못받고
##아닙
기술로
중에도
쓰는게
경우엔
물리적
상영
취하는
##오기
몰아넣
배트
코로나는
제품이
삶은소
무식하고
입술을
호박
없었다는
월급은
높을
최전
후보는
한국인은
수류
메시지
성격의
##거같다
##힘들
스무
안한다고
찾았다
메르스때
수사에
저지르는
소굴
##아침에
패시브
뛰쳐
그밥
끝나지
여자와
울부짖
너네들
키보드
반전
##ss
야외
자원을
차지했다
플랜
황제가
내로남불의
사적
침을
정의당은
와중에도
노력은
정신적인
이전부터
적립
##가보네
##점과
##나는데
국민적
저희는
##ECD
선수를
선관위
잘한거
군단
##오냐
##들한테는
공표
자유주의
##많고
자랑한다
버젓이
거에요
##문제에
비상식
##RA
그거는
##구장창
교실
##처에
##사회를
##지네요
개한민국
속옷
제왕
##았으나
##극을
##했다며
##무도
노릇을
##언정
무릎꿇
속국
##세력의
페르시아
문과
조국에
먹게
판단하는
달라진다
알겠네
##가치
소리야
##나베
방침
활용하는
사용되고
복음
맞죠
##너가
삼국지
이래저래
안되네
만들어내는
섞인
##일드
관계자
지방에
##키스탄
부작용
기본으로
해줬
편찬
하트
##어버리는
유망
얼만
##정말
##크랩
절약
넘어가면
숙련
##사전
용서를
기하
최적
호수
시범
넘는다
##BM
글쓴
대중교통
덧붙였다
집중적으로
부분이다
알아요
제작된
발버
##뭐냐
##공동체
놈이다
정도만
##인구
100프로
성공적인
##모독
##노를
청약
##많아
일으켰다
카리스
##박사
신성한
##데도
패턴이
벌어질
낙인
멜로
아머
움직임이
##쳐먹는
##러의
##구조가
##고와
##시까지
하고도
##임대
열렸다
수십년
말들이
운동의
레오
들어가야
##임명
판매하는
제목으로
시키지
빨갱이들은
달걀
천년
사직
하마
##하시죠
##틀랜드
천박한
8강
해피
밟아
능동
전재산
십자
보전
정년
청원합니다
##번은
##왔다는
번갈
모로
샌드
##아니야
##놨네
##중간
줄곧
경쟁력을
구분이
막아라
도래
불쌍타
높다고
##순환
me
사망자가
궁금해서
##정책은
깨끗한척
그깟
양국
빈부
움직여
보통은
신문에
시공
만도
니들의
그럭저럭
외교는
##겠노
마무
인재가
##오자
소련의
사리사
소용이
망하면
박근혜를
비춰
EU
대구시장
증인
내려놓
거짓말이
겉으로
깨시민
입국을
경멸
##수술
##아베
다니던
한편으로
양승태
##않나
안드로이드
##웠고
청취
TK
당대
##해는
레어
사천
쓸쓸
쓰리
못알아
##익은
경상남도
##상황에
힘도
큰일이다
답없다
경찰관
자료가
매개
강렬한
영향력이
있었네
학생은
##을때는
##구니가
##브가
##만하는
##하고있
성에
신문을
##200
전지
장례식
엉덩이
SC
이불
앞으로의
##비행
생활의
형성된
##애비
##연속
##네스
조사한
아카데미
안그래
묻는다
외국인이
##터진
사고의
엄마를
레스토
극치
정밀
##회로
두면
알권
##치는거
않더라도
OECD
##강화
AK
##광을
입금
평이
과시
##시계
일행이
나왔을
살아남은
만하다
안보는
##나가고
##전문가
섬나라
문제임
그로부터
전화가
소름돋
고리
책에서
너랑
가리킨다
좋네
900
교육에
실패로
##대접
다음엔
거룩
사설
##24
치며
프로그램이
증가하고
가능하다는
기록하고
##려야한다
##속까지
전투가
선거철
가지의
극대화
##pt
무기고
해에
자꾸만
얘긴
이상하지
참석한
된장인지
##생으로
실재
조져
준우승
산소
엔지니
착수
지휘관
선두
인터넷을
없었다면
글에
2시간
##들입니다
무릅
있겠습니까
쪼다
가려고
뒤의
처리하는
무책임한
개혁의
이슈가
##점도
구구
늘리는
산으로
모양이었다
자기편
천문
왕국의
변화의
헐뜯
보다가
기저
미혼
하기로
동의를
##무의
서울대학교
아크
##위조
##orld
엘프
아웅
뭔가요
다녀온
즈음
##연기
서민들이
장악하고
탄탄
세력의
지적했다
눈도
##투사
##장에게
##패로
운반
사노
##포인트
리처
사모펀드
##새퀴
시작되는
##경으로
##하든지
##호도
노트북
##손손
사람인
대책도
사람에게는
강조하고
##호텔
##시스트
수험
자녀가
꾸미
연관이
##새끼는
##저자
주구장창
연구소
##나기
여론조
많구나
파악할
디즈
##계산
wh
악수
속삭
기원합니다
94
말하지만
한국인의
아래에서
언론플레이
##리아는
자살한
몸통
사태에
친인척
##소니
줄줄
##됨에
집요
여성들은
배민
84
도깨
악을
배는
##투스
타이거
쿠로
외고
1988년
레벨이
##내는데
사위
##바는
아이구
##팩트
까라
먹이
김종인
##붙은
언제든
토모
충분하다
We
다룰
GS
자신들을
기다릴
물고기
시청자
흉악
##전투
생각해보
##내리고
##말씀
선택의
가면을
터치
경제보복
오프라인
오신
찌푸
사항은
의전원
작아
조사해야
토요
그녀와
##희를
##선도
면도
하느라
작업이
5분
인위
부리고
아네
AS
##OP
커맨
##정부를
언론인
확고
이인영
##작으로
분을
##내로
##이건
하길
가족들은
##더를
손꼽
##장구
피하고
##지니까
##을수
계획은
눈부
안속
가정의
믿기
성사
한번만
##되지는
##하겠나
산다고
똑같아
열폭
##이라든가
감염된
##포함
엘리자베
모친
장사를
전념
장난감
##국민들이
짜리
수단을
119
풍년
필자는
##하로
유지하기
##있어도
괴뢰
##하는데도
##훈은
기다려라
돕고
복수를
남는다
동계
상응
내용이다
금태섭
편안하게
서기
모델이
산맥
준공
cctv
초조
늙어
니네는
##수리
무엇이든
정치인은
사회적인
##개표
으이구
평안
##덕이
##놔서
돈의
##갔다고
선생님의
비추어
##싶어서
두껍
##봐야지
##사건을
집회를
말까지
건방
우리만
##진흥
##사건이
곧장
##겠다며
##목숨
##류에
이르게
유리하게
자체로
이어질
1989년
표현한
초콜
삼청교육
괴로워
함락
선수로
www
떳떳하게
En
나오면서
우짜
합당한
##모음
대미지
##시키는데
지지자들은
두세
처방
발버둥
쉬쉬
##데다
##이탈
정중
비용은
매진
가라고
보던
이러니까
##들기
근무하는
실체가
모양을
##석에서
##할까요
최근의
##제도가
##내려고
##노인
##국가의
수수께
우르르
전투에
##ace
반대의
끄는
욕구를
유익
고통이
죄값을
##짐을
소닉
고마해라
꿰뚫
이기주의
막가
너에게
컸다
청년들
김준
저사람
영혼의
발매된
한결같이
중국인들이
얘기하고
##탄의
업고
한번이라도
말아먹은
2020
##부문
후임
희생을
일행은
부모들이
있는거냐
거기가
신경쓰지
미군철수
국회는
욕망을
무리하게
86
##ime
유체
체인
민감한
생각없는
계시는
귀족노조
IC
##주식
##포에
돌아간
##여당
내려야
기준에
공장을
내려오는
대부분을
##추가
흐르고
##커스
##ish
##회와
너무하네
극좌
중증
##소비
과언이
할래
##하지요
교회에서
쓰세요
##죽이
생활비
쌍욕
##않은
명칭은
개국
##전기
아산
온전히
number면
여는
##란에
권영
헌법을
도미
##먹으면
디아
학자
분담
구로
녀석은
미필
신념을
살살
보편적인
뭐해
##1위
자한당에
조작을
##OM
반중
입찰
안동
진격
위력을
##집의
할아버지가
##하십시오
진행된
##르니
##이다가
공과
##해제
예상된다
사퇴하라
##란게
연구의
부추기는
말기
암컷
##블리
안중
연습을
차이로
140
##자들만
##발전소
number일까지
##봉을
흔드는
수상한
이상해
안들면
##메리카
할줄아
##금액
##속도가
보리
있었어요
##추를
헛소리를
샤워
##업으로
##학대
안되는거
전라도가
헌법에
##하리
78
단체가
##매고
유성
겹쳐
흰색
불문
항해
##청에서
갤러리
싹쓸
##사과
맡게
서열
본사
##히기
성격은
샤오
관제
지도를
스킬이
수혜
at
뿐이고
이만큼
입양
첫날
좋아하네
거시
전당
CCTV
현장을
젊은이들
사운드
누르면
무심
##넘들은
피땀
##팔고
거슬러
당선된
검새
형을
선생은
오크
##장치
준비한
##까는
차트
쌓인
순으로
number단계
데려가
동맹국
거미
돌아다니는
나와라
역풍
##바를
##가족이
전라남도
##채는
##았음
지식과
sc
##연방
기간을
포로
진중권이
미카
소니
##편향
하루아침에
사건과
김대
통산
남자도
##주사파
수당
##해보고
##뉴얼
작사
체계를
##했는데도
어이구
기가찬다
##생들이
못한다면
부부는
팬들
베를린
##렬하게
일이지
민족을
공고
성공한다
판단하고
##성이나
서두
저서
##저의
탈세
##리지만
LC
랭크
##락에
from
벌떡
##였으니
화제가
나타낸다
본편
양심은
험한
##경화
것보다는
믿냐
세기
연인
원고
강남에
인디언
아파트를
돼야
자연히
##효율
드리고
않느냐
도망가
모으고
##치매
경향을
상식적인
다까
뻗어
커피를
기분을
Gr
마음속에
하루라도
미적
##위권
##aw
사람들에
놈들이다
DLC
마련해
##사건은
월남
물의
확인한
올라갔다
팔아먹는
개량
짓이다
국회를
##크라이나
이질
몸부
치료비
##의혹
##높은
국민투표
이부
역사적인
사건도
##span
원리를
내면서
주둥아
바꾸면
쇼핑몰
미통당이
백배
도구로
출연한
우울증
##논문
중심에
##사구
부드럽게
number에
일본놈들
##도아니고
과거사
산다는
해운
도출
되어도
세속
##등하게
고조
당당한
됐지
조국같은
##난다고
대중의
눈가리고
창고
개발에
때문이지
했었는데
소득주도성장
지나서
##하지않고
숫자를
좋은거
있기를
##쳤고
##측은
답게
요정
만나러
스톤
떨어지지
물류
주축
하고있네
사라지
우리들은
국가보안
한의
한수
국내외
##층으로
운동에
제한이
말그대로
해야함
영화에
당신들의
어디가서
도심
칼럼
수석대변인
Wh
완공
언제쯤
직권남용
##거린다
월북
인재를
망해도
##처는
멋지다
탓으로
콜라보
유형의
헤쳐
강구
부족해서
##바탕
##저러
교역
상사
거니까
아님을
하루도
아리스
##한건데
넘긴
때린
##ake
##준거
##간은
이러다가
##즈에
뭐만
될거다
전액
GM
올림
##설에
문씨가
해야하는
##것같은데
##한은
##폐지
고르
기점으로
##상황을
직시
내렸
잘못한거
개만도
구멍이
애비가
독립운동가
##하지마세요
##수급
발톱
받았을
춘천
의구
아니요
절대적
얘기다
벌어졌다
나오며
다르다는
당하면
쓸모없는
필요없고
패러다
시원한
유적
##십쇼
찍으면
GDP
제의
들어보
끈질
##제작
백악
다친
충고
역사에서
못보
신흥
가해자가
효율적으로
자위대
본부
안타깝지만
100억
시민들의
영수
향하는
살만
정상이냐
##하였을
조직에
작자가
##체제를
배신자
보너
실전
용감
보고를
##맛이
종부
##주는거
뜻밖
골치
##왕조
위험하다
무시무시한
안쪽
##스나
가지가지한다
##미도
연예인이
요원
거주하는
##정책에
##출마
##인민공화국
돼지가
오랑
생각해요
생각이다
태도로
##다가도
##자로서의
업적을
원래의
훈훈
##혈을
봉사활동
시다
동맹을
##내를
##우스의
결정이
결혼은
말해도
##진행
멀지
둘러싸고
보라고
명성을
비참한
않으려고
##던거
##대네
들려왔다
##부대가
되살
시그
아갈
욕하지
##공신
##영장
##싫은
사이비종교
멀다
정형
뉴질랜드
##분해
같은거
들어선
삽질
골을
장소에
모가지
군대에
푸하하
##경과
팩트체크
제number의
입다물고
##로봇
최고다
##타도
브레이크
우크라이나
상태다
때였다
적와대
선수는
##년아
주위의
시민들은
장남
무한한
보더라도
놔두
##대냐
연산
이어진다
제시하는
##23
선수들
문제인데
유대인
윈도우
누군가를
핵개발
안정을
##조약
안하무
신음
마오
서너
뭉개
공동으로
##줄까
등극
잊은
피해자를
버스를
다케
컴퓨터를
##제공
날에
##터에서
도와주고
188
촛불들고
##돼야
사랑합니다
손목
그러니깐
##부수
리뷰
여름에
지금까지의
처리할
말던
세끼
나뉜
##업계
경계를
무차별
연락이
절도
굳건
##격에
##oon
용어를
울타
양심에
세계관
총선이
어찌할
7시
대안이
논리적
이곳을
이런것
전통을
박사는
싸돌아
해야만
죽이려
건강이
기억해
가식
시즈
자주국방
##싶냐
##대면서
한명이
이벤트를
것들이다
말아야지
##왔지만
검찰조사
정신의
감싸는
안가는
##버가
막말로
스쿨존
수사하고
BGM
4강
정면으로
##글이
그런걸
##ree
신중하게
주디
환자를
일꾼
할려면
##구조를
음식이
기술적
세무조사
엎드려
저기서
죽이려고
##버리네
##복은
죽음은
뜨는
직장을
동일하다
이라며
며느리
절라
가정이
무기는
권력과
검사는
##스포츠
##지향
수사해라
유럽에서
주접
국익에
악랄한
##미술
김유
시기는
성명
그러면서도
저런것들이
그대는
놀랐다
##자녀
가정에서
커지고
2030
##코인
##원숭
움직이고
자신들
pp
조국이가
박근혜대통령
안했다
폭넓
해석을
하지요
김부
문정부는
##방어
실질적
보조금
number도
가히
기자의
북유럽
힘입어
성소수
치욕
투표로
##침해
대응하는
게재
선호하는
목회
올라오는
의정부
안타깝습니다
후보를
##집안
논의를
##달에
정체는
빼박
자수
않겠다고
받는게
전동
부속
##규명
앵무새
늘어놓
##해야하는데
바란
말미암
서정
남겼
##빈의
중국이랑
##한줄
않자
##TE
지탱
##아줌마
##위원회가
자들을
창피하다
인류가
섬에
끄덕였다
추출
깍아
수사해서
공정하고
필요하지
가는구나
본래의
어따
그들도
##99
일이고
미안해
주일
어지럽
신경써
2만
##바야
##랄까
##의원님
맹세
요구에
태어날
##나가서
휴게
인간이냐
주둥이만
금세
시즌을
미쳤네
차량이
페북
줄여서
친다
국정운영
##러를
back
##있다가
##요청
##공급
따를
떠돌
우병우
전쟁으로
채찍
하구
##조장
스프링
뽑으면
소설가
니나
킹크랩
이정부는
주진
##ost
보내지
##은혜
들어가게
유저가
이라도
언더
연맹
사실이면
극심한
밀집
일본놈
어울려
기운을
하인
연합뉴스
현재도
에고
책임도
##철의
주석
내적
여가부
거긴
매달려
코를
지향하는
거짓을
학생을
가늠
변환
문다
##레는
##되기를
친일파가
낱낱
##민과
민족이
##렁이
##업소
두꺼운
Pl
떠받
##나네요
##놨다
##티드
무시할
욕나온다
자신감을
1기
##국이다
낮고
number월부터
운운하는
뻔뻔하고
개독교
##감각
이색
자민당
싫어한다
가치도
10명
내돈
읽기
##있다면
달콤한
친환경
자식도
##대구
알릴
해대는
생명과
힘과
궁금합니다
무궁
주민들
##행의
number천number
우러
지친
잡혔
먹었
형식을
정권이다
행하는
그러고는
않았을까
자들의
##상으로는
##브의
주제가
진단키
표방
최종적으로
타서
장외
얻는다
게시판
당초
2분
##겨라
진다
인정해
도시로
이광
나름의
그지같은
발탁
만든다고
##으로서는
##iver
가보
감당할
욕먹을
김의겸
##배의
주체가
2007
에릭
적법
성이
결집
주옥
##해지기
##축제
옮기는
파르
##항에
시대적
닥쳐
정리하고
없겠지만
##겟냐
기쁨을
##타입
number세기에
##막한
##만하게
수컷
욕구
꼴랑
정하고
죽었다고
와도
##집단이
##스트는
들어오고
일부분
유세
##실과
프로듀서
이하로
방해하는
아즈
##들일
달랐다
전세계적으로
관해서
왕복
뿐더러
##LL
보훈
##락의
크리티
##랑을
처넣
83
장악한
스틸
##많네
집단으로
잘하는게
열두
올해는
##바르
머리로
LA
만이
##거의
그제야
아니오
애낳
걸리지
살아도
레닌
흔들고
옆집
##걸려
애들한테
알았지
예가
1987년
신도시
자연을
##판단
주시기
팔면
무겁
살리기
##ence
이력
외치던
대두
싣고
보름
상관없다
하급
선택적
일본인이
초창기
MVP
꿈에
조조
채팅
##사정
##딸이
##지역의
말레이시아
발정
받아들이지
무섭고
떠벌
딸도
간만에
##량도
가지만
죽여도
등장하지
직결
않겠다는
힘써
##제일
보신
생체
##te
##님들이
사유재산
결정할
호르몬
프렌
임용
대단해
불타
##보조
##자너
넓고
심장이
때리
검찰도
총괄
유촉새
##ave
불확실
애정
##인다고
연구하는
##요구
상황이었다
개념없는
##봤으면
##티의
완결
불길
조화를
디자인이
잘못했다고
자백
진보의
##됐던
##시켜야한다
어쩌나
해치
건강하게
imf
##모습을
##종으로
노동조합
##일뿐이다
연기가
민중의
냄새를
시진핑이
싸질러
학창
표명
##대밭
##숨에
어느날
이야기로
급진
사쿠라
##는디
지사
##리히
번지
거네
될거
곳곳에서
카풀
##것보다
나왔고
조장하는
막히
##대로라면
중형
자세가
사이코패스
기가차
한반도의
안부
일반적
제목은
HD
마왕
알려지지
##마땅
가져올
차량을
브랜
##측이
주민들은
데에는
##IG
주먹을
삼성을
여태까지
네임
##았기
##자이
선동해서
여기서도
한통속
직선
##미달
활동은
월요일
##됐다는
되네
##먹는다
만나지
쇠퇴
닭대가리
##관계의
결론이
평을
투어
중견
집주
있는건지
오일
설명은
감사를
들게
공직자
계속되는
무주택
하기에
넣으면
##레이터
단골
스며
제6
한마리
면을
반란을
옛날부터
발표를
잠입
정동
##생물
##치니
미끄러
에구
##상가
노친
좋았을
##부탁
정쟁
반문
##식민
인간쓰레기
검찰수사
처음이다
숙박
쓴다고
집계
정국
밤낮
확인하는
수차례
아트
시키들
##듣지
전통적
공기가
사실이지만
담보로
정신은
발견했다
##우에
발목을
##화되는
연사
##볼까
연속으로
목구멍
##정치를
인물의
##하고있는
주특
뉘우
성과가
따질
즐겁
번째는
자궁
호화
##무서
벨기에
##기소
인간에
불구속
세력은
##와야
당부
날뛰는
해쳐먹
이명박이
##쇼를
##BA
##값도
안민석
##io
##졌기
##져요
쟤네
##number일
그랬냐
여타
여겼
가깝게
마셔
별개의
판국에
결혼식
##자야
사고방식
##ick
##체류
신동
무모
공격은
달려가
덧붙여
도리
참사
이해한다
집값은
버리면
이정도로
수십억
주적
##기적인
안은
꼭두각시
##방법을
##도없고
##정권에
누군데
각인
##개선
100명
올라가고
허수아비
##다오
##번의
리스
납득이
못잡
간접적으로
좆선
흔적이
진핑
국정을
##루살
프랜차이즈
자녀를
묶여
가혹
조직적으로
난리가
줄고
없애는
벌어서
이양반
고생을
저인간
않으
지켜라
노인은
##규가
##기간이
민감
신한
남에
반기
빠지지
##나라냐
##밤에
살인미
되어버린
보냐
##귀가
못했다는
포탑
주저앉
전문가가
하기야
평화의
환불
사회와
사실도
아들인
무분별
바글
발언이
사람들로
##같은소리
절실
발생했다
하시지
들어서는
자리잡고
##인디
민주주의는
##투어
다수가
지게
보이기도
고맙다고
공부는
##가봐
깽판
주려고
사적인
초반에는
##지라도
말인지
너부터
##깨문
##운동이
햇볕
연결된
소유하고
##위키
보험료
달창들이
올라가면
사람이면
명목
흥미로운
맺은
잘하세요
고유한
##쟁이들
놀랍다
##무늬
마땅하다
##가입
제목만
인간적인
그것으로
단숨에
흘리고
따위가
핵폭탄
도와준
3번째
##교육이
짐작할
보고싶
##시간은
안보를
입니까
고모
사임
얼룩
##해방
여하
전반에
번은
발레
보여줬다
챔피언스
뒤져라
##분으로
한쪽으로
거짓선동
이분은
너희들의
감독을
아들도
체류
주요한
##배치
그닥
띠고
반지
입문
줬다
수법
##인데다
김구
##래가
##직도
##94
지혜를
나이로
사람으로서
배터리
어딨냐
##관도
전화로
관해서는
##하시네요
상습
안하는게
캐릭터는
뚫린
지민
신선한
못했다고
뇌를
충실한
Me
넘들은
잡는다
##주려고
국제적으로
보시
##떨어지는
못하는게
##VD
조치가
터미널
언급된
님은
##더미
가다가
신빙
##트도
군산
연평도
##학적인
다뤄
##에이
##감정을
재촉
설명한
쓰는거
아무렇지도
##루살렘
##형제
이름에
한인
누군가는
탄도
오렌
바뀌지
대역
개명
싸웠
정반
일깨
물어보고
적절하게
오카
넘었다
캡틴
##act
대표팀
안써
##보증
WW
남경
미루어
책임지
우파가
##상태로
##츠키
##커니즘
종신
저출산
##수라
위원회
지구상에서
##꺼리
하든지
##오래
요구한다
소대가리가
신문사
##크라테
신형
##미리
무대에
참지
하루를
공수처를
하태경
시절을
사연
##남은
폴리
##가구
##마켓
##새기들
가리키
오해를
머니
죄앙
박대통령
욕이
반동
백작
원형
##책에
발각
술이
감행
개꿀
##당하면
우위를
강탈
절반이
돈많은
##하는거임
DM
1천
충성을
하시면
할거면
넘길
이루어져야
가급적
내신
광장
욕먹는
재해
##00만
세인트
들어가기
지원하고
##기적
개교
자유민주
서민을
##정부에
잘들
초기의
여튼
내로
찌질한
뭐임
##필드
작품으로
청년들이
편에서
방송사
받기도
소리와
##하거든
들어보면
더민주
##지옥
요란
종류가
중국어
참패
깨어있는
심부
##오네
앞날이
##측에서
결정적으로
벤치
입으로만
##기본
부도덕
##주시길
##청문회
해독
##지않다
##망의
##되네요
열매
물갈이
ex
투명한
빙신
외쳤다
##수인
##단위
줘야지
결혼하고
통행
##하군
##정책의
됐습니다
##통으로
##한다는데
##다보면
유격
웃긴게
101
이사장
##오라고
##여대
민심은
일본이나
##분들도
##곡으로
반증
##막지
상대적
헬기
묘한
##구름
10개
언어로
대미지를
Sc
##버림
건다
선생의
##킵시다
권위를
##지금
비위
해외에
날도
절감
기억에
업그레이
때처럼
쓰러진
리더가
플러스
나뉘어
끝없는
차례로
어딘가
가두
멋지게
효율적인
지긋지긋하다
못이
않니
합리화
위기가
GP
수긍
맞물
표지
방호
좋을듯
빵에
속이는
프로그래
인구의
직장인
고액
소리쳤다
부리
해결이
알려주는
황씨
내쫓
미달
장점을
##효과를
##계좌
Su
보냅니다
살아가고
씌워
##커는
##출을
블레이
##고사
버튼을
##이에게
꼴도
2006
##ork
##법안
##실점
전략이
##효과가
##iss
중구
신청을
##만원에
##거짓
##만큼의
역겨워
##슬링
못하였다
쿵쾅
치뤄
여당은
##받으며
둘로
협정
챙길
급기야
강용석
캐논
몰입
##니다가
의견에
것이라며
이경
감동을
남북한
##을거다
##인거다
잘할
마땅한
어르신들
##힘든
남학생
우편
##안함
피하는
##생각은
찰스
##테르
##나오게
묻지
포격
##했네요
공포에
족속들
하느님의
##잖니
상용
얘들아
이룬다
앞잡
있더라
잠수함
하고있다
여성단체
잡아라
평일
##대학원
함은
부모와
나타나서
하얗
방면
밀어부
외치면서
가상화폐
서지
한이
들리지
##곡은
올려야
놓치지
##셨던
늘었다
무제한
인조
도울
##단말
92
외양
규정이
전가
티베
꽂아
인상이
충동
전하는
신임
##비디오
옮겼다
여군
않거나
처해
형은
알수가
예루살렘
논리에
로마의
않다면
##등장
##빠지게
문정부가
홈런을
길에서
뇌는
문베
불순
유튜브에
싸움에서
누리는
전달하는
##래미
##우로
유급
투사
어처구니가
하는건데
##감치
##평이
##슬라
##렬히
캠페인
##하기보다는
설치된
##렸어
부시
##역과
정치와
초콜릿
입도
##보건
##그머니
##하는것은
몰랐던
청정
늘리
잡히
동물을
카드로
예금
경원
경제성
이념을
건들
##국민을
상점
러시아가
알고있
위치하고
화살을
수백만
항소
##하였다는
##하는거고
왜그러
##UN
넘나
드럼
쪽바리들
뒤에도
않았으나
느려
책정
몸소
한기총
받으
##셨네요
##린게
자유민주주의를
##개정
가전
브래
특집
기록하며
##수요
K리그
카피
한줄
상임
으휴
무슬림
최악이다
백년
##버를
##체계를
상황과
하다못해
철학적
키웠
##차단
의협
판단은
우발
크리티컬
별명이
오케
##봐주
접대
##na
다니면
##하시지
##에게로
##갔던
이야기의
거면
해줘라
월급이
기쁜
생겨난
냉전
망했다
OST
미국에서는
추정되는
상속세
여느
가르치고
회식
##혀라
떳떳하면
몇이나
정우
흠집
세대가
선거개입
맞추는
대행
품격
지식의
패턴을
수행할
공간에
광명
이용하면
음란
종북좌빨
벼락
해결해야
극한
서울은
동결
끄집어
흘리는
인물들이
상식을
##정보를
##장수
짝퉁
과세
##ms
나올까
미터
적용된다
보호하기
##ink
나비
면죄
시설을
기인
갖가지
##범으로
박물관
칭찬을
높이고
##했음을
파악하는
김호
안이
##는지요
섰다
##영과
명칭을
친근
##전대
고유의
닌텐
##리지도
##이라든지
##리아가
##바에
##모니
버티는
젖은
눈치만
대출을
됐네
자르
2년만에
대선때
이중인격
수준하고는
무관심
부상으로
##따로
이론적
아니겠습니까
봤냐
##괴한
굉장한
하사
성서
KO
no
똥칠
사사
이어지고
아쿠
sp
삼성의
국대
지갑
속성을
갈색
우루
##음식
##야를
따르고
사람보다
규칙을
야비한
충청도
나는데
요즈
피격
당해서
주름
##데나
깃발
##하구만
아이언
니네들이
재임
의식의
되어버렸다
##찬이
강경화
양반이
야근
##화하여
##벌어
시각을
예전의
배터
사이드
서리
소비자의
딱봐도
댓글러
밝힐
##그제
표창원
발표된
##문화의
다녔다
했죠
##이었음
에너지가
##하려다
통역
역량을
스톰
모토
대기업이
창을
##문화가
간파
##죽은
작곡가
짝짝
아베를
##갑시다
수수께끼
국회의원을
허탈
고생하는
대변하는
조국가족
욱일
##일자리
쯔쯔
##AP
저번에
한시
시절이
증거로
계단을
색이
자랐
이때다
편안한
명으로
해야죠
개업
주목할
미흡
김형
누워서
동북아
쪽팔린다
국방장관
미안한
부정한
착각하는
빨간색
불빛
왔다는
힘들어서
한순간
힘내라
##욕에
##졌어
현실적
광경을
안팎
건물주
단계에서
경성
신세계
##취한
합쳐서
어플
세컨
그렇기에
##따리
##거도
나온다고
일행을
170
플레이오프
##오줌
시즌2
##여름
가루
서운
누르
위해서라면
##히로
ST
비명을
##먹었다
노래는
코어
##산과
영화에서
북한하고
##했음에도
##만드는
엄벌에
편드는
##오르고
##주의적인
##찾아
쌍용
모기
당사자가
투자하는
세븐
##군에서
취할
크다고
망나니
사카
##속한
##ile
비판은
방식이다
느끼며
본적이
대통령이라는
논의가
##담은
참가한
싸움에
2로
너넨
기술과
##심사
괴롭히는
나오는지
이미지는
논란을
##기관에
일좀
##용지
김정은이가
##기술을
이때는
사리분별
질문이
문은
용기가
과감
다니엘
놓으면
##oll
##베르크
원래부터
끼치는
##중은
대피
참담
관심은
##병과
소설은
회귀
동등한
##답지
상태의
시녀
통장
트윈
##총독
대책은
잠실
떴다
출력
헌데
연명
늙은이
더하면
발암
병원을
헌터
이제껏
비공식
일괄
조사는
문주
편이라
하고자
계략
##연구원
높지
87
##사는데
예수가
넘기고
스쳐
3배
판사는
##봉쇄
깨끗하고
##지지만
##밖에는
정부나
곤충
날개를
##대행
수갑
재미를
내려서
하늘과
얘가
New
맞나요
결혼해서
의원의
방한
아시는
##게시
다문화
문장을
이여
##지처
설치되어
필요한데
제재를
##지시
간곡
밥이
##유학
돌아가서
어찌보면
##던데요
단계에
한판
얘기해
정상인
그랬던
특혜를
##은이
저따
니코
새우
음흉
##놔야
폐지하고
흑백
자기들은
##배기
배반
씻고
##ext
백색
아이들도
수치를
종말
윤미향이
여수
안타까워
잣대로
##거랑
##왔네
Ex
시작하면서
탈원
아이와
외교적
졸업한
공격으로
밝히지
사러
중이
것들도
설정을
대도
점과
구치
##악질
##파크
때문일
배경이
놈도
자체적으로
어린아
믿을수
완수
하듯
그래서인지
소스
따르지
것까지
파시즘
##역이다
##방문
위해서도
직원들은
조작으로
상하이
피같은
##측에
공신
소나무
##후반
기능은
표절
##점이다
4명
노선이
KIA
준표
허경영
혼밥
주의해야
##일수
##국민은
따온
공용
둘중
무술
8년
휘발
모시는
안도
3루
감성팔
##국장
신재민
낄낄
##안됨
조국처럼
귀중한
##모와
정부다
도장
어설픈
까도
에르
염색
대부
이명박그네
저에게
##명단
마법의
조연
웹사이트
통곡
막힌
마틴
##온을
못배운
My
불공정
구절
가격으로
이지랄
##생각이
##그랬
봐서는
상무
이끈
드러낸
응원하는
말해주
미끼
있단다
아니가
경과
대부분이다
오피스
조심해라
##브는
시뮬
##라는건
경부
포스
매월
##ome
스코틀랜드
일찌
집의
문화에
##22
수령님
모션
that
##탄에
대구가
두달
무더
발원
지독한
##러지
보자면
증가한다
가운데서
원동
윤석열은
여인이
##수단
폭탄을
number로
평택
등돌
곡이
붙었다
하필이면
꼴페미
결정에
되는가
금요일
현금으로
프레임을
문정
자극적인
측의
##cc
맥락에서
스타크래프트
##금리
술먹고
##문화를
my
다분
민변
중시하는
공무원들이
않겠습니까
여성들의
여러분들
조선을
공소시효
문제고
사니
여지껏
때로
김정은은
가봐라
사는거
애용
##마시
충실히
코로나에
93
최태
장관님
##쩌구
하늘로
공갈
공장에서
비명
주술
이재명이
성직
승리로
오냐
촛불이
옹호하고
발생하고
벽돌
자연과
기기
수로
싶지만
차리세요
의장
패싱
바치는
개천
##쳐먹은
잔을
이준석
신천지와
측면이
문빠들은
공부좀
설명한다
개망
거란
데이비드
가마
갔던
멀었다
##우스는
꼴깝
산업의
기관이
##지켜
전설의
됐을
돌아온다
시기의
콤보
되지도
아닌게
무너질
역동
##되는건
코로나를
합체
작작해라
장면에서
이현
##TN
독재가
##하셔야
##되겠네
제휴
어디를
주민등록
##주에서
성숙한
결정한
의도는
유배
불법이
문명의
팀에
아기가
세계최
되던
##는대
버섯
프로그램에
외압
이야기에
경찰도
바이러스를
##먹어서
뽑았
헤비
매출이
분홍
##대교
현관
##불로
띄는
서는
##마일
건보료
개소
이름과
경찰들
##사회는
자비
대깨문이
거래가
지겨워
집단은
정녕
69
시작하자
급격한
허다
##완전
수사하라
조작하는
##할거면
디버
##때나
서비스가
잡아다
존속
제대
톡톡
##기때문에
필요해
첨가
철밥
보통의
르네
##통치
돈이나
##지검
면모를
뚫어
아프고
충격적인
예배를
NH
성지
주인을
구워
푸는
프롤
질환
주민센터
돌보
박상
##마사
대세
인도의
##모드
알아볼
장군이
##유착
개솔
훌쩍
어떨까요
다르지만
문서에
높다는
사우디
말합니다
지나도
누구라도
오리발
##찍어
되었으니
신호를
##취업
백성들이
##아들이
소속의
공기청정
습관을
나쁘게
싫은데
언론들이
매너
재래
하지마세요
##규는
직장에서
아베야
##리노
##퍼를
##아닌데
사람이라
존나게
out
빠졌다
투자한
말하는게
약혼
당은
##질과
일제의
거짖
문화와
##치우고
전문가들이
##ix
##정리
크림
##햇다
정상화
사는지
해주지
##터미널
뜨거
제7
##걸음
없는듯
최소화
##이제
구하고
##밖으로
볼만
옷이
##운동에
공론
16강
적폐가
육상
상태이다
##때매
##통한
성능은
실세
조사하면
양은
기록되어
사로잡혀
아래와
거두었다
노린
보는거
진급
##만나
##베리아
속고
꿈의
대국
스토리를
##상대로
아티스트
카오
부탁한다
학사
가장한
무혐의
정숙
변하고
##약은
여자에게
알았어
새로이
기대가
안보이냐
소드
않으므로
프리큐
한거지
이탈리아의
##부채
기레
집단이다
##지급
실패하고
암만
장관으로
여혐
##슬쩍
집결
총으로
##주행
##루와
가부장
검경
몰빵
단독으로
감사드립니다
메이지
이야기하고
무식하면
열이
죄의
파괴하는
과다
대왕
부모에게
명박이
필립
동원해
해석이
아저씨가
##엄한
사가
거리에서
##주머니
반성은
그대가
반대한다
신체적
다큐멘
아이도
악마가
##후를
싸워야
넣어야
망해야
별반
포함된다
가뭄
##새끼들아
빨강
안성
후일
자존심도
자자
저마다
9시
##인대
##은게
군이
##사서
손가락으로
한들
##짜고
##임의
돈벌이
왕을
##잡아서
하고있
맞추고
##드려요
가는거
##글로
기회로
주행
##줬다고
않으나
이성적으로
미쳤구나
##저씨
##비나
뚱뚱
##층에서
현황
압박을
얘기하면
영역에
자국민을
##었더니
경각
자택
비정상적인
따서
##훈의
##품은
저러는
##통화
##갈때
일인지
청원을
까면
사사건
##같으니
발효
재앙을
##정책으로
공수처법
탈북자
항공기
짜장면
##지경
마시길
행운
에로
에미
##싸고
가며
사업은
이야기다
##중계
미라
허가를
경력이
배워서
지낼
3기
올라가서
아직까지도
왜곡된
##란드의
##겠군요
##운동은
능력치
착각하고
##부리는
기다렸다
경험한
계획에
AM
가르침
다른가
##만세
사용되었다
##재료
가지지
89
대포
협회
문학적
있는지도
멈추지
그사람
받았습니다
##이었어요
못하겠다
##꺼라
##매체
필요하고
묘사가
Br
높아서
##떼기
이하도
싸우게
감사의
정정
아닥하고
죄로
출산율
트루
주민들의
남한의
딸랑
타격이
방향이
부인의
##때처럼
##표로
##시설을
마당
의견은
UE
사과도
##탈출
리드
##소재
##득한
##연예
나라야
구태
안정된
매직
기다려야
자기만
후술
욕심을
##뿐이지
##포트
만성
조사에
##업의
##췄다
일간
여사
놓을
어려운데
학년
##느낌
침체
##가슴
연휴
문제점이
쓰레기들은
많았던
##민들은
거리로
덜떨어진
##ah
잦은
##비트
라이더
못하지만
철새
거스
사상의
##세스
186
이장
인터넷에서
중요합니다
외부의
##플러스
##기는게
국민분열
천명
플라톤
##하란
물가가
물로
퍼주는
선택은
아팠
어림
내린다
오빠가
##노트
원에
유승준
니같은
##잇는
공공의
SKT
넘버
##추진
##자들이다
한나라의
문슬람들
진영논
스토리가
##차원
봤나
생을
지배를
방문한
멍멍이
##티스
이지만
##드리겠습니다
##수준의
자랑스러운
눈치채
공부도
##해지자
넘으면
공안검사
골짜
서울시민
장치를
##할수가
##세력을
방가
소행
추리
의사의
콘스탄
선수들의
만져
아놔
##누스
오늘부터
##우한
한정으로
##sh
양정
고칠
나타내
찾아보
권한이
건전
망해라
대담
조문
7억
순간부터
정신줄
애시
동족
인텔
뽑지
콜로
##계급
신기한
올바르게
바램
카지
죽였다
범인이
##유학생
빨갱이라고
절제
좌표찍고
말해야
행사에
친구들은
일이라
##하는건데
입맛대로
빚내서
처벌해라
80년
로고
아마존
방문을
자기들의
자동차를
냉정
교정
##주시고
옥수수
지들만
있잖아요
우대
아니게
시급하다
##려던
발사체
너처럼
서류를
냉철
동거
이화
지랄도
지구가
트레이드
##학회
##선가
나무가
발렌
사형을
못지않게
몰아붙
고의로
오로
##공립
생각하면서
않네요
사사건건
간략
아이스크
황태
레스토랑
자한당도
뺏어
##단한
지금에
지지하지
##하우스
##만큼도
##계획을
미중
##식구
##소환
##ph
이때부터
자존심을
캐리
하버드
방식에
namenumber
공개되었다
먹고살기
##좋고
음식점
구도
##권자
사망했다
##윤리
잔당
놀랍게도
##순으로
시작이다
나노
사돈
그랬는데
문구
효율이
생각이나
용도
수준에서
진행하고
민좆
살아있
중요시
한순간에
지랄들
지켰
나락으로
구청장
꾸짖
악당
천하에
속임
보여서
주인공인
엔터테인
경직
명도
작금의
##소이다
##봉이
노멀
그려진
제도의
범죄에
토크
긍정적
심신
좋아라
조구기
공격해
정유라는
##주어
우파는
##ction
걱정하지
##마인
##수만
##한테만
설리
말이오
싸이코패스
백성을
##질도
북한주민
엉망진
성실히
##메라
이놈아
##own
없앤
##불러
혼자만
후세
뭘해도
검사들
##마스터
성장한
야쿠
##경기에서
부동산을
폐기물
It
년을
연고
진실로
##했구만
하기는
오토바이
난독
카드는
년에
대대적으로
혐의를
기사쓰
난장
무라
모델은
##란걸
##합리
없는가
보았을
맛있게
##쿠라
##느냐에
##을거
시체팔이
무증상
##렸다가
몸에서
##기냐
미통당은
덩어
노조는
나라망신
다하네
number킬로
있다는걸
이말
자숙
현실로
##꼴이
##유출
못할망정
북에서
실상
김문수
도시에
탈당
##조절
책임져라
대대적인
퍼진
짜고치는
1986년
떠난다
시계를
트라이
주에
##판과
집단을
방송은
강등
저런것들
아니냐고
사내가
##학적으로
그런식으로
앞둔
##짓만
##부리
깡통
단계를
##ach
무엇인가를
후속작
쏘고
어미
사이클
올해의
##그나
상황에서는
입었다
지켜보는
명분을
빌미로
##우나
자괴
##넣어
할머
##공격을
##프에
회개
따돌
혜택이
차도
##하오
##무죄
전원이
##절차
치르
베이비
뒤통
종교에
시도를
잘해야
핵실험
##기한
뉴스에서
##전이다
하나님께서
##릭스
대처를
빠지면
경우와
궁극적으로
주52
곡은
탐사
##체험
작게
장사가
##갔습니다
##플러
##반은
잃어
이문
군에
##는거는
걸려도
공사를
말지
없지요
##쳤다고
벌여
시신
여친
투덜
이국종
헛발
할거다
##국도
정권교체
국채
있냐고
살아야지
청와대의
자격증
##교육의
글의
애당초
챙겨라
지금까지도
##들인가
##교에
자연스레
4위
테러리스트
##아니라고
원산
##카드를
일본과의
쑥대밭
row
##상황이
나랏돈
##테일
저소득층
전함
정당하게
늙어서
뻥튀
들으며
김광
날리
##꺼고
부산대
##ase
의병
적당
보고싶다
우한에서
숨길
##지역에서
열등감
불황
THE
똥고
웨스트
북이
##기계
##터와
##움도
조국이나
시작은
있지는
일어나면
안하니
사용해서
제멋대로
##스틱
뒷돈
##밑에
변했다
나자
작품에서
꼴찌
미뤄
##싸게
오세요
들었을
##날의
나야
카오스
수익이
겨울에
남았
네오
남짓
못생긴
시스템은
모모
만났을
안잡
##되었다가
안했는데
호의호식
몇푼
배짱
중추
넘지
가짜뉴스로
멤버들이
기득권을
반하는
별이
하우스
빈틈
##인식
마을에서
승부를
그랜
남미
거기에는
짱개들
많으며
클라우
항구
##한거다
몰아가는
내리면
동학
어음
##이틀
##친다고
겁이
##이념
##orn
##사고가
586
##분양
아니라도
##간섭
##였기에
사실입니다
늘어났다
살라고
피자
받는다고
적힌
##마련
##구매
##의원은
신천지랑
근거는
일반화
종양
자신감
이런것도
재난지원금
오징
4천
고객에게
바다로
##자체를
지방자치단체
엄지
손녀
필요없는
없어진다
골때
뉘앙
참아
깜빡
자막
의미도
보도가
거기에서
서로에게
노래방
것인
살을
##전파
공화당
공격한다
절을
대깨문은
계열의
개로
사업의
우매한
그랬어
여실히
불상
##건물
##스럽지
문서의
마리의
일환으로
한반도에
제국주의
계엄령
##로마
북한처럼
외국인들
개차
패륜
가리는
##치산
희귀
##현상
##호흡
많이들
자네는
##쳤는데
화끈
##버려서
아폴
우선적으로
낳는
##다는데
##35
외국의
달려들
진즉
##인력
프로이트
보내자
연방제
##족한
전정부
작정하고
##장이다
##해지면서
독립군
재미있게
부사
가르침을
##세월
키리
중심을
김일성이
눈썹
가득찬
##교로
적나라
트래
장이
##겨운
국민연
있었을까
책임감
식은
와인
무지막지
관절
문예
사태는
상종
행세
한다는게
할당
##마세요
저정도면
댓글들이
정책과
##원짜리
##세워
사건이다
##해에
##벽이
트윗
기대하고
경제나
문자를
내팽
화나요
확고한
말같지도
법적인
당에
흩어져
다름없는
상품의
일상적인
재학
개판으로
사례는
##하는건지
아서
학폭
여대
호황
##하시나요
할수록
될지도
##행위가
휴가를
씨부리는
거리두기
로이
여담이지만
될것을
##원에게
대상에
돌로
나왔다고
##내역
##됨으로써
정신차리세요
도려
미꾸라지
깨달은
지만
##ens
발뺌
##상담
순천
##쳤을
서면
혜택은
광우뻥
##것인지
날씨가
가정에
나오는거
내뿜
달리고
아시죠
##가들은
보다도
전화해서
사형시켜라
국론분열
음악이
근래
추후
워크
돌려서
잘알
누구보다도
세월을
개처럼
드라이브
금액이
1세
##해체
이사를
##곳도
물어보면
고려하여
닭근혜
파격
아파서
79
조별
없이도
##프게
##왜곡
관계에서
서글
저주를
##니와
건물의
앓고
하룻밤
WTO
플레이어의
인간들을
난리인데
반토막
주게
##사회주의
관장
작용을
밸런스
곤두
##대던
무전
점포
##제대로
근처에서
있어서의
굵은
커넥
not
용접
쉬지
##의원들
동무
다르면
남아서
이론은
줄어드는
오페라
하아
눈알
마는
측면을
코코
##줄알고
그자리에
수사하는
학교도
부르기도
##불안
보호하고
##그가
##라니까
활용한
제한을
##치고는
효과로
##있어라
##자식이
침대에
돌아와서
교토
공간에서
##실록
만큼은
생각나는
갱신
su
엄밀히
자력
##ale
##시안
디자인을
##소리도
스턴
주동
##동포
나오기도
9회
5번
aid
나씨
필터
몰아내고
##출동
기사나
기름을
명단을
##저는
##디스
구멍을
선물로
##없네요
여자로
모아놓고
##명령
내심
가방을
머지않아
법대
한말
장소에서
또래
거지요
##척이
모텔
박정희는
##az
부자들
죽겠다
멍충
별명
슬라이
앤드
##잡기
어쩌다가
do
곳의
자존심이
빠짐
나르
드러나고
내려라
북한가서
이유다
그놈이
부가가
없어지면
꿇고
##평생
##연수
대량으로
##귀에
아틀
##변경
##같고
후원금
##MA
##욱이
받쳐
찍는다
##회계
##위치
##한듯
콘크리트
의상
길드
상황입니다
##민주화
달라지는
안되니까
들어오지
들어온다
진행된다
##수업
청문회에서
머지
터라
필름
역활
악취
##누구
엠비
마디로
남동
전격
거느리고
장기간
누른
되거나
마찰
덮으려고
수장이
##다며
##혐오
##피의
##말던
문화는
범죄는
디스플레이
쓰지마라
##들여서
양아
##니꽈
자랑스럽게
주시길
페널
줍니다
임산부
그곳을
대접을
안보인다
얘들은
최우수
샤를
##가시
Tr
그루
아담
갈고
##차지
휘청
지지층
##확진
잠겨
##보임
##olog
죽이면
욕하면서
책임져
답글
##정도의
연결하는
이따위로
BM
고딩
던졌다
없구만
산이
##old
사인
보이네요
신천지로
기자양반
주머니에
가격도
못마땅
기독교의
쳐다보고
자라는
담당하고
날린
슬그머니
예기
어두워
시스템의
정의로운척
거잖아요
##나갔다
이래라
과감하게
제자리
##할지도
독창
속시원
모양인데
##인간들이
협력을
##산업의
쓰지말고
일진
내던
같지도
냉동
##유키
##찬을
##칩니다
문재앙아
팔아먹고
위기의
마포
표적
수첩
경제파탄
판례
쪽팔려서
경제활동
카자
침뱉
한때는
##송이
두리
압색
어뢰
댓글보니
심각성을
예술의
##클리
바쳐
위력
결혼도
만드는게
예산이
설치하고
세워진
##자살
쌍판
##름한
얼마를
익스
길거리에서
##되어있다
DVD
똥은
행렬
일자리는
궁금한
허물
놓지
질렀다
##찮게
토착왜구당
정예
##본이
위협이
따른다
##성인
한심해
비율은
트롤
반이
##시기에
##건대
독일은
비난하고
징병
아니었나
외래
하는말
20만
철판
단군
상대할
아름답게
미쳐도
민첩
제품은
##이라는거
지저분한
##내용을
넥센
이소
5회
수년
##클레
모자라서
##서리
포함하는
숫자는
요런
전년
##으니깐
되는거야
벌였다
그치지
개개인의
만들어졌다
위배
##들어라
5배
더큰
받던
##국대
봉준
##군인
도사
고도의
고뇌
가늘
##nt
비리는
##하거라
온천
졸업식
쌓은
number천만
UEFA
받았다는
무수
시간만
환자는
##기어
소리다
조주
##축을
아르헨티나
이토
1부
이씨
##가보다
튀어
까마귀
카미
아들과
1985년
흔적
##뿐입니다
도시가
맡길
관계의
원소
목적에
편은
아슬
원하고
얘기할
담을
받으려고
괜한
병원으로
압류
##손가락
보인다고
##사자
검거
인질
##대다
세분
##이하
끊임없는
동감
일가족
무수한
마음과
숙이고
살펴보자
부조
아쉽다
프로필
없기에
이백
이회
시작을
공성
지금쯤
##dfasdf
몬스터를
퀘스트를
##dfasdfasdfasdfasdfasdfasdfasdfasdfasdfasdfasdfasdfasdfasdfasdfas
보좌관
asdfasdfasdfasdfasdfasdfasdfasdfasdfasdfasdfasdfasdfasdfasdfasdfas
asdfasdfasdfasdfasdfasdfasdfasdfasdfasdfasdfasdfasdfasdfasdfasdfasdfasdf
##빨고
일쑤
손혜원이
과거와
지옥으로
과실
순순
5만
시늉
##학에서
비공감
탄생한
퇴장
정보통신
지방에서
싸우지
글씨
##열의
찍었다
털면
제공할
##안돼
그려져
4인
원한
조사도
미쿡
다이어트
도약
##적이지만
인자
통용
신경도
포기할
안했으면
치즈
##퍼는
재일
착륙
한눈에
부르주
약하다
흔들리는
맡긴
주인공을
많네요
##토니
부르면
잘하네
기숙사
국방의
패닉
아니면서
만큼의
##가서는
빨갱이를
##화해서
머라
장소가
##질한
대표님
박근
방심
부분의
조금이나마
천박
검은색
기막
아자
##너의
##요소
평가할
##협상
온다고
##미친
##ax
##행위에
김승
선장
쪽의
##외에
자기에게
법안을
##과세
출신인
한국인들이
눈높
안되는게
안했
배설
##있으며
빠지
무기력
성관계
얘들
##디다
변호인
이득이
올드
기레기들이
인접
명령에
그제서야
있지도
택시를
이후부터
입성
##그림
고혈
더운
##제도의
개발이
노인네들
믿으면
법원에서
분도
적임
분열을
빈부격
다니는데
##비례
##우니까
혼란에
베테
하겠
똥물
개화
순수하게
차갑
넘어선
재선
##한들
##땜시
순서대로
삼척
상당수
딜레
##강은
삼천
코스트
일본기업
강기
싶었는데
달게
경제와
셋이
써야지
케이크
성차별
마누라가
##들이여
찌르는
##호구
아베와
박사가
안정적으로
##디에
##모임
##금과
태양의
사슴
##스럽네요
쓰다듬
실력은
##어가며
##되어도
사실인데
하나님께
모든것을
있었으니
관상
속속
숙명
##여객
커질
성조기
##나옴
시작했습니다
이사람은
##경기에
일본만
##냈고
없을듯
강요하는
##일어나
##외과
뱉어
number을
애꿎
아니었던
재미가
3분
회고
의원들이
간신배
##시스코
프로젝트를
우왕
순간적으로
지역사회
말미암아
군은
양호
대통령이냐
##oo
생각하는게
저와
비판적
관철
61
기회주의자
빵빵
##보나
정직하게
않았어
포기하는
야비
적시
##급히
##몰랑
##떨고
걱정은
선에서
##me
뒤가
##목의
187
조작하고
제각
생기게
##유치원
소아
든든한
청나라
시로
보드
판문
로맨스
가신
나서지
월간
##바글
성은
유부
승리는
하였는데
선구
##사이에
봤으면
영변
##없는거
뒤돌아
발생하지
부끄러움을
공개하라
we
드러났
대대손손
선천
##무식
##옷을
박근혜도
팬티
문재앙이가
알바비
광주시민
인간들의
영국에서
난입
이런것들이
판정이
##사실을
메디
믿었다
기본적
돈좀
그때의
사회주의자
티가
있을듯
살며
##망상
영화이다
영토를
몸매
한것도
알텐데
말이라고
너무한다
대응이
##상황에서
도라이
버프를
모으는
빡빡
않아야
열린다
아파트가
모처럼
이진
이외에는
배분
밥맛
딴나라
변한다
##사항을
밖에도
##심리
낙관
##세금으로
##이나하고
##뜯어
기침
##지배
고통은
투쟁을
상황으로
나두
마드리
##정에서
태영호
선의의
##못한다
하듯이
조국이랑
방황
##전에도
열악한
분노한
커리어
바보냐
달랐
설비
뭐여
문씨는
안하면서
##느니라
태우고
##리칸
사이에서는
사랑해
##시켰고
##칭을
새끼를
고소득
우세
하찮은
피라미
똥오줌
젊고
상납
찍힌
나중엔
면서
##뿐만이
설이
저래도
##글라
오스트레일
오우
사람인가
닥쳐라
추궁
##들면서
혼동
형량
우두머리
역은
불체
제독
올라왔다
선거조작
원한다면
존재한다는
죄악
가족도
활발한
개떡
시댁
크라
정기적으로
##증가
기사제
부모들
피드
집안에서
##크스
##스티벌
아들에게
순종
##하믄
반반
##질이냐
얼굴만
그대의
그만한
아랑곳
단죄
무리를
베타
세계대
자빠져
기업인
잘하지
##둔다
##족과
이러지
요구했다
number세기의
러시아는
한참을
모음
판명
살포
과태
재료를
##비에스
시라
##맨은
크기의
맥도
만들게
노스
##OT
진성
상환
에밀
##생도
Mar
##니아의
YG
차지한
코가
사업자
코난
강호
엄중한
제도는
휴지
##심에서
서양의
의사결
미디
망해가는
사람마다
이따금
소중히
났는데
올스타
추앙
2002
사라지게
대모
싸움은
목소리에
상대방에게
하냐고
발휘할
여인의
독립된
해당된다
1945년
미미
동상
수입을
연못
흔적을
알고는
##묵고
몰랐다고
임종
이해불가
즐거워
독도는
반정부
뿜어
많았는데
##피니
지능순
##pl
고려해야
분위기는
멋지
따라야
죽도록
한국만
재능이
국민혈세
못하며
정신으로
물질적
조차도
않기를
어딘지
보스턴
모스크바
##엇다
한성
##서나
##거여
농협
해보세요
태도에
부모들은
기어들어
제지
법관
결과다
논다
##폰을
유체이탈
호로
있었냐
동안은
달의
파울
아드
##교과
그림은
마산
있는걸
##시키는게
설립된
##지부
아무말도
그룹의
해수
비교하는
대선후보
오르지
노벨상
어쨋
올린다
주기도
실시간으로
나뉜다
검사도
이유에서
YTN
붙여서
신천지도
사노맹
##00원
##꾼들
노예가
오다
돌이켜
느닷
한국인들은
하이퍼
##진도
아플
아래서
시커
##존재
쿠키
스노
물러서
다스리는
유학을
묶어서
##ground
##타이어
햄버
열중
##차기
않았어요
기레기가
유은혜
입당
즐거움을
패배를
##계약을
국유
오래전부터
필연적으로
##라네
부어
극단적
대단하네
##있나요
##석과
정체성
찾아내
##찬성
필요에
사형이
게르
서민은
요동
이기지
노란색
할짓
시작이
말까
##하기위해
함박
노력으로
전문적인
땀을
못받는
##물인
평소에는
논술
회장의
##표의
##번호를
##진화
나라말아
도의
신랑
기대된다
단순하게
아버지에게
왔고
한타
##마법
##곡의
궁궐
성질을
있을수
비율을
말하기를
메커니즘
핵심적인
number살
전체주의
KBO
국제적인
매일매일
부작용이
교전
##갔으면
##소프트
아니란다
삽시다
나왔습니다
느낌이다
우정
##스틴
##프로는
무도
number점
주방
미세먼지는
집회는
이루지
시끄러운
엄격하게
못했습니다
야합
똥구멍
스페이스
하셨습니다
해줘
안중근
감정의
부대가
소속사
데드
##차와
필요성이
재수없는
##orm
뜻에
##세탁
숲을
영부인
##라든가
불균
##해줘라
평등한
##것인데
소프트웨
##론에서
사태로
출소
##크에
고갈
신조
요구되는
예전처럼
글러
치마
떠나지
캡쳐
환장한
공급이
법원에
광범위
당하게
짜파구
##림과
이런식
CN
선수의
##대표가
하하하
안듣
돈버는
문대통령이
무슨죄
##시절에
##내리
##할걸
딸과
중상
누가보면
동선
##여행을
지돈
후손들이
##이미
메이드
타면
항목을
속출
결정적
가오
쓰이고
깨뜨
채울
팔아먹은
난리네
##기엔
공포를
할머니를
##스러웠
##하셔
##예를
호감을
미국처럼
결정했다
활발하게
장하성
인간적으로
이러고도
국민의당
소유자
뒤따
원합니다
대통령이다
초반부터
##풍의
그런거지
섬의
때릴
아니어도
지오영
he
개선을
타인
##맣게
관심과
성당
암덩어리
흔들리지
봤습니다
텍사
희미
소비에
게스트
통틀어
##ition
단번에
불법체류
유저들은
##증의
장기집권
겪게
##가니
많았고
##도리
시카고
부탁합니다
팩트다
도덕성
뭐다
깊숙이
김태우
멈춘
##죄인
골키
죄수
유영
이재용이
EBS
타인에게
편으로
첨부
화웨
질문은
몰표
이슬
다름없다
주어지는
형식의
고통과
사태의
확충
늘어난다
국민으로
누드
포함하고
무성
시합
청년이
전국에서
퍼즐
올리기
지중
1984년
응원한다
행한
겁을
남침
샀다
실력으로
디질
현수
매운
판치는
수뇌
내일은
슈팅
시신을
쑤셔
반쪽
##올랐다
다녀라
섬유
나리
##일치
들리
##수준으로
어우러
##혁은
행동과
하였으며
루카
좁아
무게를
속여
채우는
이미지로
살인사건
생각해봐
##몬의
유닛을
한숨만
무릎꿇고
##이해
##집도
##홍어
##DA
슬픔을
##표현
극단적으로
구석에
빠르다
특급
참여하고
태생
##학교를
명분으로
체제가
##살아라
##대우
사채
죽인다
아들로
만능
텅텅
각별
##히며
##계속
효과도
아까워
신약
혁명을
샘플
평화와
도덕적으로
좌빨들아
난폭
울산시장
##박아
포르노
인사가
이익에
자도
수탈
끔찍하다
지구에
일말의
000원
탓을
##세계의
단계로
묵인
##픕니다
업무에
어김없이
순전히
인신공격
퇴사
무대를
##범의
도둑이
휴식을
살펴볼
파묻
전라디언
구구절
질을
##런트
다른거
호전
예수님
늦었다
독이
교훈을
정진
##졌는지
본질적으로
불허
##나불
보고만
##못하면
무덤을
##주니까
낙찰
불쑥
운운하며
윤리적
있으신
##키야
그랑
느긋
아쉬워
##담에
애꿎은
책으로
밤의
##out
먹이를
습관이
광범위한
형이상
사람이고
내시
먹으며
오산
##조치를
놀라게
sid
퉤퉤
##예정
쓰레기다
거에
십년
##할려면
문다혜
SF
##패가
##항쟁
잡아다가
봐줄
그때가
가래
치밀어
JR
그분이
심정을
하시죠
##사망
##거주
##위원회를
누구인가
##안과
없어져
깜도
영역에서
이만희가
4000
니시
##프란
저렇
지잡
관심없다
도대체가
이벤트가
세상이다
하고있는
높아지고
손도
힘듭니다
외상
으이그
##제기
반대합니다
##국가를
비관
묻지마
부여하는
자본주의의
가자고
돌아가라
##털이
가니
치료가
과자
치우고
매력적인
너보다
정치판
선동으로
미쓰
앞당
함유
모양이네
빨아대는
편곡
##식당
2005
마지막까지
##입장에서
잘못한게
박용
노동자의
pro
##대륙
문정권은
문희상
직원을
이거야
발현
정상으로
원칙적으로
내세운
알을
##자루
출시된
스텝
##21
미쳤다고
제공한
서독
##겠냐고
5천만
순순히
##지역은
거니
국정농
배우자
전통적으로
맞잖아
주를
다가왔다
혓바닥
일관성
나오자
go
##법원
후로
##류로
완성된
남쪽으로
##그는
구한말
요컨대
##상태에
##이었네
김남
눈감고
오천
중국에게
한테는
##드리는
보행
절반은
반성을
number초
pr
뭐했냐
##날은
하시오
못내
제도적
##지부지
매국노들
가설
일컬
느그들이
남기지
##덕을
문정권이
기대하는
##국어
##약품
총선을
프로그램은
연관된
비켜
오스만
군중
기여를
자질이
이야기할
만행을
양상을
주실
공권력
오니
중요하고
추월
열정을
추진하는
##위대
잘한게
##명씩
탓인지
레지
##나카
경찰청
둔다
경고를
돌린
##자료를
어여
걱정할
법원은
얼핏
원칙이
봉투
##맞지
이기면
##아녀
미친다
양현
중앙에
군인들이
이성윤
더블어
점거
형의
김현미
앵벌이
##사우
알어
인연이
주파
인가요
음원
하와이
##이니깐
CPU
발매되었다
##시기를
선수들은
우뚝
악마같은
밝고
떨어지게
##US
끓여
와서는
제number회
성격에
스포일러
##었겠지
등장하고
국가원수
머슴
구상권
방정
##소도
2004
할수가
##해줬
공감을
4월에
##지션
까다로운
안받고
찬성하는
죽창으로
집회에
넘기는
지적하고
##갑다
코믹스
##해야한다고
세월호때
기묘한
요렇게
조직은
bl
파헤쳐
##련이
년놈들
학업
경험과
이놈들
##할때도
바친
오토바
##뎅이
승리가
거랑
54조
품위
잡아넣
댓글모음
##먹을려고
주시고
할머니의
연예계
##ade
app
행보를
2년동안
하이에
되는구나
뒤흔
건드리지
##하시기
위안부할머니
남과
운명이
장기적인
OUT
전산
정신이상
하루이틀
이마트
등용
손아
갈기
줄여야
##신도시
전이
아름답고
없잖아요
##든말든
##모으
가능하면
장편
오바마
남동생
대표를
##킹을
형벌
확신을
걸면
육박
공격적인
정의당이
감춰
지그
##플루
그렇게까지
프랭
언뜻
##국민들은
제트
수준도
증발
유나이
##신가
소린
홍수
조선에
맞출
color
뭉쳐서
##장까지
돈벌어
경찰과
빠져나갈
혈세를
결탁
히데
##분과
머리도
##급식
폭이
보여주세요
##자네
극복하고
흐름에
##방송을
치면서
##하야
되겠네요
밝아
자에게
최상위
있노
##할때가
홍영표
곰곰
이례
##먹어라
장단
십일
그릴
놀라서
##룡의
라스
##상인
이상하네
완치
열흘
사상에
막말을
##만원짜리
웃기지
메모리
해결하고
식당에서
김세
오류가
청와대로
##왔으면
마찬가지였다
받을수
욕먹고
##베리
팔려
##테이너
##셔츠
##뱅이
적폐다
모터
옮기고
조가
김정은을
못잡아
##죽여
단단한
지적한
1순위
##여자가
조선민주주의
매몰
부숴
만난다
수억
갔으면
SD
선교사
##지지율
##회의에서
폴더
https
운전을
허벅
정직한
등장하며
하기사
할꺼
만드냐
자기들끼리
영리
아끼지
##빨간
사죄하고
쇼는
것이란
##펙트
보여주지
수순
의료진들
초인
대상의
세이버
책임자
산악
##탄은
##월급
상생
유지를
때문인
팩트로
악역
##안정
##겹게
창문을
##학급
##짐이
히로인
##그를
그것들을
##LE
빚이
공명
질려
살아남을
가꾸
변명을
주냐
##ps
닮았다
이번이
평상시
##만들어서
점수가
겨누
생각안
전하
도와주세요
들의
##변화
교복
편이지만
그때마다
##치아
오랑캐
사유가
##철학
##되었는지
쳐다보
박성
앞에선
##기로는
강해
한국보다
지름길
전략은
스모
희한한
밖에는
스스로도
팔레스타
Love
불분
플루
함께하는
청와대를
##성적
##키우
법원의
가능하지만
디비
근성
잘되는
실패했다
정권도
##처에서
다이아몬드
의결
뻔한데
화이트리스트
굴뚝
사춘
##보이지
올려다
받아들인
무소속
화상
과제를
봄이
밝혀질
국가간
뇌없는
부부의
거역
엮어
어벤
카드의
시중
터진다
##질이야
보았습니다
정은아
부유한
##린과
아닐텐데
치지
강조한다
##바나
공부해서
##생활에
그러면은
개종
##가르
시각이
싸워서
범행
되려면
푸틴
한장
사물을
증세
사기업
어떨지
매치
##소문
붙는
주인의
##사격
삼았다
그렇듯
로빈
쩔쩔
처리를
부산의
차별을
쓰며
시간문제
순간을
변화와
뒤틀
##아아
기사들
##ank
##해줘
좌천
트리플
##막은
궁금하네요
중부
근처의
##도하고
경기장
긴장을
댓글만
가져와
상담을
중요하냐
일찌감치
sec
##말라고
감정은
철폐
장애가
신탁
관련되어
돌려보내
투성이
월등
좋음
어디선가
유토
일제강점기
단말
호환
numberg
그래봤자
##천군
##정신을
##혁이
인프라
잘못해서
고려할
은행에
이긴다
교안
##제에서
질의
오디
##파일
##끝에
되지않
만화가
군대에서
사실대로
낱낱이
##경제는
##갔네
소설이
엄연한
국가유공자
##결과를
잔머리
성적으로
혁명의
보내주
평화는
작업에
##절하게
두려움을
신분을
##장기
재기
1의
나기
만들었고
판정을
오호
##었기에
했구나
처신
##우주
##발전을
챔피언십
할때는
두어야
이들도
##개소리
병사들이
읽는다
여태껏
리처드
안하네
지구에서
모가
##제발
##나왔다
동구
사람들에게는
배타
꼴에
매력을
끝낼
막대
어디든
예뻐
울면서
내에서도
드리는
sid1
죄냐
##양심
세치
남자에게
행동의
##우라
##약으로
친구인
공동체의
##대라
##리아를
##시킨다는
튕겨
제치고
신용카드
업로드
여자들도
연동형
버금
브랜드를
문신
저급한
논리면
속히
쪽팔린
확인을
##비용을
간지
야단
바라볼
무능력한
##지식
##즈마
외면하고
##아닐
영국은
살펴보고
일사
열거
##회사에
##현진
조건은
벌레들
부대를
##한테서
##바라기
잘생긴
아멘
들락
##다르
아는가
아줌마가
것만은
곽상도
벌려
##놓지
##여명
학기
개칭
관용
얘기만
진보를
모두다
해석하는
##하셨다
비는
3의
포섭
아바타
총수
사용하며
두가지
좌빠
##새는
여자친구
경이
##부품
구조조정
대도시
삐뚤
명단공개
진행되었다
독재국가
카르텔
맘껏
오는데
허구한
구만
##렸나
라이온
볼까
##으로의
여하튼
##조한
하는건가
선수이다
슬롯
호평을
수주
외화
해야하는데
뿐이야
어리둥
우리들이
애국심
항공모
주장하였다
약속한
명칭이
거짓이
##한마디
##쪽의
1990년대
임의
##안해도
능지처
학위
일탈
불릴
112
틀린말
시대에는
건물에
##거니까
짧고
그동안의
사용자의
세워야
적폐를
허덕
##화장
때문이라는
##보냐
거침
일류
체계적으로
참여연대
알수있
품에
##뽑아
신천지나
17년
기승
와타
가차
낯설
빌붙어
##마누
고려하면
미운
있겠
##전쟁을
청문회를
##초로
동물이
##하다보니
맞아서
몸도
비전을
해보면
##궁의
성장이
##회사는
잃는
##즈로
법위에
면마스크
괴물이
##가야지
##부동산
좌석
CG
온도
불투
국민들과
빼앗긴
박은
##사례
바글바글
##어울
##줄아나
##포스
수단과
학벌
##ts
경희
문제라는
아프게
##인민공화
니놈
흐지부지
동호
##소개
낙동강
##기생
증가하는
할아버지는
고등어
##IM
약점이
해결책을
이석기
토너
만나기
야당의
높이기
##한거임
버려진
1983년
분위기에
이달
달랑
그릇이
사투
25때
멍청아
육체적
별걸
아니었지만
넣어라
극에
싶었지만
상이
창단
생계를
##경도
##기반
##벨트
없앨
공제
일부로
##법무
쿨타임
조현병
문재인에게
나네
누군가에게
보구
여편
신과
EP
저지를
##망에
신뢰할
대답은
출연했다
구조는
실정이다
덤비
격렬한
##버렸네
말들을
##수령
계실
바치고
##룡이
물어봐라
유저들의
아몰랑
##후손
are
두말
##링크
행사가
편하다
만연
말던가
복직
열람
##인원
##화될
도로를
친구와
왤케
##데리고
그만해
비주얼
칼리
수록된
5대
느껴질
사상은
기자들은
방과
결핍
인질로
71
비워
##웃음
만들어준
막아서
알아봤다
##사법
##난거
기초를
이동하는
##중단
볼을
간행
이땅에
막았
남매
은신
넘고
방화
성적은
자선
##제도는
전문가들은
아에
잘못이지
찾으러
어찌나
명의로
SU
##시킴으로써
읽지
##프라이
오렌지
중첩
시민을
공자
불고
육십
즉사
잘못이다
정경심이
충북
밀리
외형
이것으로
아리스토
넘어가지
자국민은
냉장고
분들의
하질
##ail
중국인은
재밌는
장전
제정신인가
먹이고
와야
독려
Con
묵시적
엔진을
감형
소크라테
##시대를
방송의
딴지
비싸다
둥근
협박을
조원진
법규
얍삽
number년대의
받았지만
안올
앨리
돌아다니며
##일지라도
관계도
등장할
집단들
World
흐려
##박에
디즈니
사회복지
##뿐인데
있은
달려드는
##해봤자
##일이나
##지마시고
몸무
고위직
경전
통일은
재편
background
국보
##찬양
##해서라도
##아니지
부는
중국공산당
##기관을
굳은
근친
투척
대남
판다
위상을
잠자
레임
찾는다
생활은
계세요
몇시간
드러날
군을
대비해
##나쁘
동아리
기초로
따뜻하게
이름이다
하는구만
##봤습니다
당신네
##단위로
자기자
궁지에
닌자
##페이스
아이큐
스팀
주댕
사라지지
##주장
##드래
사랑으로
받자
##기밀
좌빨이
쯧쯧쯧
플레이어는
oid
벙어리
뿌리가
했었
장난질
제동
차근
##됐을
만들었는데
##워치
화면에
##권에서는
##OD
예전엔
마블
멍하니
위력이
악영
다를바
몸뚱
나아갈
이혼을
##리우스
체질
환기
플레이어를
##노래
비교해서
젠장
조선족들
거짓말쟁이
옛날에는
깔깔
정답이다
교인
##턴이
팬들에게
##테타
민영
짓이냐
##졌어요
비하여
##제국의
뻔뻔하다
##부분이
워마드
주는거
##궁금
난감
속도는
확신이
##빌딩
제1야당
##균이
마코
안갈
외국어
##센스
적중
##한적
불평등
뒤섞
밥먹고
##내린
우에
있으면서도
빨갱이로
귀속
공기를
문제삼
해결책
홍익
국경을
만기
쌀을
통제를
공중파
파란색
돼지고
파키스탄
##수산
이상도
범죄자들
실시한
사회로
예의를
##프리카
##받으면서
##방식을
다릅니다
나왔네
보상금
이성적인
예비군
꺼냈다
불타는
##할때까지
갖다바
##쓰레기들
##베이스
갔다고
##전형
어쨌거나
##CC
옮길
고려해
뮤직비디오
기대해
##나야
##저스
##렸지
속아서
##느끼
도망치
타지
동독
##부리고
시리즈를
실업률
만천
갉아
호시
김건모
도쿠
인도적
##애의
관점을
상냥
훤히
미드필
한도
흑자
한단
드러냈다
평등하게
구간이
좋을까
높았다
등골
흐름이
피해의식
잔인하게
쓰레기네
##플레이션
보고서를
pc
단언
오가는
진정성이
회장님
펼치는
##퍼런
아파트에
고질
##ous
병자
더러워서
각국의
##결과가
그나물에
명나라
##재해
진행을
지대로
좋아질
높일
전망이다
차용
##던가요
바라지
##이겠지
섬기는
혐의가
어른들
적페
도요타
일그러
##이라더니
잠도
##초는
필요하면
철학을
신격
중점을
##공주
키를
부정적으로
길이가
진행할
두고두고
해가지고
보여주기식
위상
일이냐
토착왜구들이
좋으니
성욕
심리학
##준화
##터널
어쩌니
조중동이
노력해서
이송
정대
개탄스럽다
체코
행위로
##했는가
늦지
독일이
##수사를
힘껏
심층
사용해야
살해한
##하겠어
국도
##긴한데
시설이
보고싶은
나오는게
입어
느낌은
고운
저새끼
##체스터
남한에
예술가
애시당초
글에서
손은
광대
쩐다
원상
초딩도
꿈과
가든
열쇠를
공방
텐트
오염된
성적인
논리도
##처의
성령
##안된
##요일에
밝혀지지
주52시간
동인
향하여
나눠서
사내는
제사를
사람인지
직속
##련한
##하려던
관대한
##이잖아
아우성
비고
왜자꾸
얇은
행진
천만원
numberkm
수양
참여할
문재인아
그러게요
한국남
##맞추
놈들을
##그때
국민으로서
거짓말에
말할수
하겠나
구석구석
강화를
주의할
꼼꼼히
라운
##발은
##to
소문을
전부가
형태는
풀어서
끼친
빠진다
국외
예수를
인터넷으로
세력들이
영광을
세일즈
박고
수강
이건뭐
벗어나는
대승
##흘려
탄약
사고에
##더구만
먹튀
수하
풍자
언급을
처리하고
시원찮
##한다니
거기까지
대신해
광주에
도망갈
불로소득
##유로
##대는데
개차반
말하였다
번식
없는것
김정은과
감각을
승계
영업을
이게나라냐
달려들어
대답이
줄어든다
곡이다
공의
##불리
사상과
##지휘
##좋겠다
좋은일
공개를
낮에
준수한
됐으면
못하여
철없는
##현대
않고서야
저지르
##프스
Ph
시비를
이것만
코스닥
걸까요
한껏
##자이자
##했나요
##레타
옮겼
코끼리
##타수
두둔하는
##제품을
##머리에
##문화재
달을
능력의
에반
진전
##학력
반만
##방망이
가져오
궁리
##사면
망원
다가와
의원을
시즌에
1982년
##한사람
##카이도
하는데요
조동
국회로
개발하고
했구만
##ding
우리나
르노
만들려는
##맥을
가능합니다
어택
문법
들어주
마운
##로이
이철
목사님
타인을
##입국금지
놀려
저자는
여겨진다
불멸
시작부터
신라의
##마리가
번갈아
안재
나쁜짓
예시
관리하고
베테랑
모함
##때를
말던지
고귀한
장소로
Go
고대의
갈아치
성접
국회의원들이
반대가
##발광
문빠들이
해병대
만든게
생명체
삽니다
일본처럼
참견
기울여
4회
전라북도
판사들
뜬다
말입니까
이해안
나눔
마라톤
##하겠죠
열매를
아테네
##연봉
의존하는
꺼지
패권
군사독재
좀만
과외
산타
중권
트레이닝
기믹
##세력은
##등신
##직업
소속된
문서가
자격으로
n번방
거거든요
번만
분야를
맞어
여길
말씀은
##양으로
##이라지만
수록곡
가출
비만
발생하면
1초
세계와
무색
쓸만한
정당의
##해산
news
막힌다
##hen
3류
##궁을
뉴스로
175
잘생
초기대응
농사를
##나가면
방이
OS
섭섭
얽매
결론적으로
발작
블로
##학교에
소인
적에
number년도
국적을
벼랑
입닥
우리땅
휘둘러
##종에
좌우로
모르겠어요
##자나요
공장이
루이스
조양
색깔이
##RE
혹시라도
돌이킬
믿을수가
은근슬쩍
정리한
김미
총체적
##치는게
number억원
신앙의
오락가락
부녀
신년
코인
대학은
징글징글하다
##법칙
##세우고
트럼프도
시각으로
들어있는
만들어지는
판매를
토로
##회의를
교민
서울을
5명
##거면서
상당수가
경쟁력이
눈의
네놈
다가올
것이야
삼은
시노
##ode
직관
이나라에서
접근할
고분
##oth
동문
발가락
리모델
비행기를
자책
건물은
##화나
이정도는
주휴
벌리고
우리끼리
자민
잘한건
##수에게
적폐세력
어지간한
##파인
아니었으면
number월에는
일회용
북의
잘하는거
정은이한테
르네상
병력이
하루하
없어졌다
##ance
접고
타이틀을
레이스
##II
생각하여
삶은소대가리
##개에
나라인데
주차장
음성이
저런식으로
국영
그곳은
물가는
뻔하지
너네들이
인천공항
단교
지적이
##클래
##유닛
손오
코스피
팔지
##어버릴
조건에
의류
로렌
애쓰는
자신감이
충청남도
##대통
당해봐야
수준이네
성향의
시대로
재테크
오거
##실업
아닌건
미숙
능지처참
해지
##어놓고
기대합니다
영적
여성가족
여부는
남탓만
뿐인
그짝
쓰기도
1970년
합리적으로
벚꽃
공격하고
쉴드치는
송파
지대
쏟아지는
과감히
말구
자극을
새키들
순찰
불펜
심정으로
##리에게
어렵습니다
##거리네
울며
측이
재조사
적극적
볼때마다
진한
무승
지르고
뛰어넘는
중화민국
저들
##졌냐
판단에
알기나
제목의
유치한
##연에
##민다
엉망진창
졌다
박종
있거든
##히트
먹히
와일드
##할건데
내에서는
인생에서
정적
전기를
##토착
하루는
주둥이를
10배
개발도
안경을
만지
구급
답없는
##ope
필살기
돼지들
거치면서
주시면
비교도
그것과
실수가
##스러웠다
살처분
기사에서
낳을
##주소
제정신이냐
##루션
상호작용
386
누구에게나
CS
##이었기에
##집단의
제게
##정부에서
누구든지
철밥통
색기
평행
##어찌
중인데
300만
아인슈타
삼일
##붕괴
##백화점
모녀
지나면서
실형
##PM
20분
대하여는
칼이
극악
3개의
행위의
특수부
핀란드
합법적으로
김윤
만들었다고
보기는
가능한데
Te
가보면
헤엄
##창은
##보이고
##ai
내세우는
갈아엎
##바가지
실화냐
대령
사십
코로
##쯤에
보였고
그것만
끊이지
땡깡
한놈
민노총이
까발려
##으려나
소홀히
기업가
없어지
투표권
마자
왔으면
인식의
당해야
떡볶
통칭
불공평
하얗게
딸년
알았냐
쭈욱
내려갔다
같던데
노인의
까닭에
포인트를
말했던
##링은
3세
##둬야
그럴싸
##지들
공산주의가
설문조사
반감
끼야
##브랜드
싫어도
##라야
약해
4억
Ad
시끄러
그랬지
할머니들을
보강
합치면
OOO같은
싫음
##념이
지방은
사법부가
밀리는
극복할
##교와
신세가
평온
님의
새기들
용서가
말이네
두목
무장한
이런글
우체국
##술의
뒤쳐
어려웠
##선거에서
독감
##겄네
우리동네
유병언
영탁
##5일
않고는
호주머니
바람의
활용해
죽었을
활용하여
##떻게
##사니
##한채
반대하면
##적이거나
number월number일
여유를
근거도
##듯하게
Kore
기증
보겠습니다
##틀을
한진
##보내는
성실하게
뺨을
승승
머뭇
지지할
국제공항
War
##여년
신속히
상실한
##넘의
자원이
##불쌍
구속하라
똥이
몹쓸
##백의
5g
##미국
안되게
멘붕
이마에
어느덧
정주
백화
##운은
미묘한
너도나도
미치겠다
CF
않겠지만
그럴까
AD
자본의
성균
지경에
##33
공시지가
##인터
미즈
덴마크
태반
##로부터의
고통받는
시인의
##할라고
집합소
고향이
엔지니어
##매장
지켜볼
보여야
땅으로
하는데도
놈들도
평화로운
씨와
언어가
##수준을
내는데
고향으로
분식
시조
조국이는
도살
조율
절실히
게을
발부
미쳐서
흐른
들어본
##때보다
치르고
뭣도
##셨고
구질
표현하고
업체가
온전한
구분도
고영
##속에는
쌓고
##시대가
무능의
뺑소니
##지않냐
출제
새마을
##졌으나
알았던
마피아
##시설이
##츠와
소를
##보는데
##석도
소재를
빨갱이들아
기록에
주도하는
자사
350
잖아
##신천지
넘겼
대통령께서
힘들다는
먹칠
레기
##들며
달라서
문제앙
몸부림
Man
합의가
대학이
디지몬
별개
나오지만
권리는
말바꾸
##론적인
앞으론
##머가
정치판에
적반하장
생산을
불안해서
꽁꽁
가재
익히
교수로
지원은
휘두르는
약이
초강
한지
문제였다
##나이트
개잡
지라
살펴본
늘릴
결정은
놈이네
##ox
한밤
##는거보면
##문재앙
부지런히
부관
지울
주도권을
친일매국노
##수기
운명의
선이
##개국
능력있는
81
마시면
사진에
본질적인
##채용
강서
##라는거야
자전거를
돈없는
상자를
국무총
##디스크
공통적으로
##적인데
용역
##남의
설치고
##버의
달라붙
일하기
꼬우면
벌이
##갔냐
드물게
여부에
확연히
소시오
안되요
답이없다
##경찰서
부산에서
우동사리
흐트
법무부장관이
역할에
##만하지
적어서
나온다는
알아듣
##쓰네
변호사는
저희가
##대통령은
##지는거
돌봄
시점이
스코어
공조
동작을
그랬더니
영등
모르는게
##티노
발언에
가하는
널려
온전
해보지
##복의
##낮은
아니까
못차리고
감각이
카스
광주사태
탱커
##버렸고
갇힌
로열
미사일이
##비슷
보듯
##현장
##났어
##교주
못하기
반복되는
##마리를
고려하지
동조하는
환자들
##떠는
모듈
서북
##올리는
걸그룹
최상의
갈래
칠십
과도하게
막으면
위정
##술은
경인선
모든것이
미치고
자금이
공통점이
쓸모가
성격으로
장난을
없더라
문제들을
인식하는
##꾸라
체제로
생각하지만
##불에
실물
원주
구조적
간편
요구할
되는거다
해변
##하든가
1981년
입국제한
쓰잘
중요하다는
되었네
눈만
소지가
실업급여
50만원
내밀었다
광해
뒤이어
시체가
##프다
하소연
##어지
이분이
그중에
##한답시고
##하기엔
스파이더
윗대가리
영화로
줄이기
대가리를
일본인들
포스코
##불어
민낯을
애정을
줄었다
빨갱이라
퇴보
비싸서
변모
그럴수록
별을
블러드
테라
주도한
스즈
물건너
소명
##제나
정조
엄마와
규제가
기래기
비둘
짓거리가
단연
과학의
니들만
##노선
닉네
number세가
2개의
##셨을
기다린다
##천국
로얄
거짓말은
전업
지독
##승이
##의사
##장소
우겨
마키
변함이
내놓는
전력이
환경부
구차
들으면서
일용
월급도
간담
급속히
손에서
##능을
경우의
그마저도
물결
물과
##검증
아니구나
까지는
해찬
##것들을
사회주의로
매일같이
##할배
본다고
##창호
##지역으로
봐주고
들끓
대통이
손주
##자로부터
흙수저
밝히면
##경비
##턴은
못했는데
제때
##급하게
뭐만하면
프레임으로
##불명
아니므로
##이었는지
##될것이다
당파
나타내고
지금과
이론이
신도들
##사적
손흥
중국처럼
낫겠다
일절
추대
##보존
이념에
##원들을
##질서를
꼴통들
따지지
순공감
좋아해
##널드
##어에서
불과했다
법제
석열
드네요
통제가
팬이
##주게
##록에
70년대
##현과
받음
출구
##ug
복잡하게
못참
작별
카네
기업도
그거를
##데는
웃기다
유리하다
곡의
이뻐
##남을
결혼할
어찌됐
스타일이
법학
신앙을
##죽이는
하나둘
참여했다
##방과
곰팡
##했을텐데
아내에게
GT
부회
오디션
##같아서
Part
논평
대응할
식별
##썼다
중성
##개도
광고가
막가파
##인가보네
히로시마
##한태
사람이야
##일비
기업에서
김선
20억
##맨을
생존을
국가대표팀
아그
##청탁
##찌라시
##보고도
부메랑
얼빠진
잡으려고
의문이다
음모론
뱀파이어
어긴
##거리에
자생
첫째는
미제
##난을
나온게
음식은
깨닫지
5초
생긴대로
##ina
##사기꾼
WWE
죽여라
드물다
이용하지
##토스
로즈
위인
니들이나
모양새
부족으로
##어야만
하느님이
보상이
##킵니다
##라고요
소유한
이기적
##시키거나
조선총독
땅은
생각의
사용자는
터지
이용수
EC
독도를
모노
노력한
연구하고
이태원
##으시면
이그
선동질에
##소리에
보았던
##리기도
사교
##상태를
##그려
움직이
##침략
##내게
##움으로
##퍼드
배우이다
##투자를
되는건
빌어먹을
co
##포인
국가들이
잔혹
지정된
니덜
제기한
포함한다
##책임을
에서도
배경을
##수첩
##VA
##거만
묘하게
##루미
해야하나
국회의원도
구분할
내리지
조그마한
##정권에서
무정부
##콜라
늬들
철퇴
##쓰지
되어가고
상도
##넘아
대사는
##바람이
아는지
##참사
고스트
물음에
안감
피카
솔선수
##재정
시킨다
민병
밝혀진다
본명은
현실입니다
사법농단
비치
number평
그러더니
장관에
##비용이
과격
싶음
##열차
약소
다녀야
해부
가성비
추천한다
도마
활개
사이좋게
추진하고
개장
본연의
이사가
##애미
엄마도
허허허
##OOO들
패망
##쪽을
주장도
그르
##쥐고
블랙홀
##우려
얼굴과
##ational
등장하는데
빅뱅
함선
##되요
공산당은
약하고
의욕
단호하게
소원을
제number장
상품이
할수도
구구절절
문빨
협약
연설을
시끄럽
쿠르
후자는
##사람들도
외제차
인체
타쿠
##아메리카
30프로
##어진다
생각해보자
가지면
##전엔
##열은
공간의
과정의
##참모
싸늘
원인으로
이성이
알고있다
기왕
떠서
퇴각
##해야하고
3040
않겠지
바르고
경험해
퍼센
##척을
캄보
##시켜주는
술은
국내의
에티
오자
외양간
시에는
커밍
꼴리는
##공과
난리야
학교로
구속이
저년
##처로
날아가는
낙마
목사는
꼴값
좃불
##ll
##되지않
##염을
꿈틀
살고있는
변증
##경제의
강북
결정한다
진도
##옥은
듣던
못해요
##직에서
배웠다
진행이
##are
요소는
적군
친일이
중얼거렸다
한채
회유
일관된
통계를
일반시민
애들아
손가락질
아무렇지
북극
단련
엔젤
변화하는
##분쟁
수괴
##AD
빨래
존재하며
호불
군대의
애착
아파트는
##하겠는가
아니나
친구도
촛불은
실증
참에
나네요
##맹이
정의롭고
작업은
들어섰다
북쪽으로
최민
##화되었다
각국
리틀
상원
온건
국민정
성공의
것인가를
##타자
국내에서는
견해가
본질이
치워라
문재인대통령님
##쿠스
볼넷
고구려의
##있기
호흡을
못살겠다
이정권은
전작의
PP
사물의
억울하면
닿는
구속시켜라
3주
##XX
필사적으로
##청소
김주
무대에서
2년간
던질
덮어씌
따름이다
##수선
열리고
뉴스도
대적
유력한
황폐
도산
언니가
용사
떨린다
호감
죽거나
뜻도
급격하게
##주셔서
뿐이라고
하니깐
보수꼴통
##교회의
기레기들아
있었음
##을때도
소년법
꿀꺽
질책
피워
개콘
##갔지만
죄질이
학문적
##ivers
강화하고
투구
안심하고
하는일
갈비
이럴줄
다녀오
##매국노
국가안보
남편에게
문가야
왼손
##부여
뼈를
구조조
프리큐어
##방사
##사령관
느슨
##언어
##렸냐
##으로부터의
요즈음
휠체
라면서
섭외
##겄냐
kr
위에는
##졌으니
사용하게
불화수
거두어
아세
##사람만
토지를
##기라고
여성들
수명이
2층
장학금을
##티에
##정부와
수화
정치도
몰아내자
##롭게도
SR
당대의
말에서
너거들
기껏해야
펼치고
수사도
1980년대
대본
##발전에
##팍한
찌라
헤겔
대선에서
좋았던
썼던
프랑스는
구세
직원은
허세
##내도
중국놈들
걱정하고
저항을
##바이러
서민이
트럼프의
분노의
##리코
화난다
있는건가
구조로
이유만으로
수준인데
낳았다
신문이
얽혀
간간히
제스
처지
##이상은
정몽
걷어서
단두
앞에는
##챙겨
맞아도
하셔
##버튼
알았네
글도
##교수님
만년
##류와
없는거지
도시에서
잘했다는
##세습
닭년
틀딱들이
이길수
애원
인연을
뜨면
사먹
##박은
맡는
##수행
괴롭히고
도깨비
걔네
양대
##더니즘
역겹고
9억
충격이
협조를
오만한
제20
발광을
##재팬
부적절한
성벽
##시부터
대통령한테
185
1979년
6개
Jo
##빠르게
허리케
##맞다
##잃고
사항이
친구들을
짚고
##위선
##휴가
남들은
##퍼의
대나무
##어버렸다
공격력을
##쓰냐
짐승만도
##불통
시작도
몰상식
엑스트라
가거라
mid
포획
##45
던지
돌아가지
버블
##아야한다
##내냐
사단이
수녀
##받던
범죄의
그어
플레이가
이때까지
문제인지
환경의
##놨는데
동원하여
진출을
이해관계
인민군
모종의
확보하고
비현실
호날
제작진
자랑스런
2달
아니었고
##이었나
화력이
유닛이
선수들을
자녀들
아끼는
##이고요
되는거냐
자사고
이누
미친개
##해주었다
팔아먹을
형사처벌
딜을
##지역을
황교활이
1루
##출연
고민하고
제품에
##성이라는
##복무
##덕분에
재회
그림자가
강조한
답답하고
##경기를
##잘하는
##관리를
비를
##그로
내주고
독보
105
조작된
때리면
잘된
끌어당
7회
##줄아냐
미친짓
뜯고
전하고
나왔으면
사람이라는
남해
기반이
상세히
##거예요
소년은
그자리
떨리는
##치더니
무명
영감을
##오빠
##언은
고위공직자
참내
가족에게
##폭이
박사의
울리는
창당
감격
불러야
##들에게서
청계
##순은
행적을
FTA
