<s>
<pad>
</s>
<unk>
<mask>
[UNK0]
[UNK1]
[UNK2]
[UNK3]
[UNK4]
[UNK5]
[UNK6]
[UNK7]
[UNK8]
[UNK9]
[unused0]
[unused1]
[unused2]
[unused3]
[unused4]
[unused5]
[unused6]
[unused7]
[unused8]
[unused9]
[unused10]
[unused11]
[unused12]
[unused13]
[unused14]
[unused15]
[unused16]
[unused17]
[unused18]
[unused19]
[unused20]
[unused21]
[unused22]
[unused23]
[unused24]
[unused25]
[unused26]
[unused27]
[unused28]
[unused29]
[unused30]
[unused31]
[unused32]
[unused33]
[unused34]
[unused35]
[unused36]
[unused37]
[unused38]
[unused39]
[unused40]
[unused41]
[unused42]
[unused43]
[unused44]
[unused45]
[unused46]
[unused47]
[unused48]
[unused49]
[unused50]
[unused51]
[unused52]
[unused53]
[unused54]
[unused55]
[unused56]
[unused57]
[unused58]
[unused59]
[unused60]
[unused61]
[unused62]
[unused63]
[unused64]
[unused65]
[unused66]
[unused67]
[unused68]
[unused69]
[unused70]
[unused71]
[unused72]
[unused73]
[unused74]
[unused75]
[unused76]
[unused77]
[unused78]
[unused79]
[unused80]
[unused81]
[unused82]
[unused83]
[unused84]
[unused85]
[unused86]
[unused87]
[unused88]
[unused89]
[unused90]
[unused91]
[unused92]
[unused93]
[unused94]
[unused95]
[unused96]
[unused97]
[unused98]
[unused99]
[unused100]
[unused101]
[unused102]
[unused103]
[unused104]
[unused105]
[unused106]
[unused107]
[unused108]
[unused109]
[unused110]
[unused111]
[unused112]
[unused113]
[unused114]
[unused115]
[unused116]
[unused117]
[unused118]
[unused119]
[unused120]
[unused121]
[unused122]
[unused123]
[unused124]
[unused125]
[unused126]
[unused127]
[unused128]
[unused129]
[unused130]
[unused131]
[unused132]
[unused133]
[unused134]
[unused135]
[unused136]
[unused137]
[unused138]
[unused139]
[unused140]
[unused141]
[unused142]
[unused143]
[unused144]
[unused145]
[unused146]
[unused147]
[unused148]
[unused149]
[unused150]
[unused151]
[unused152]
[unused153]
[unused154]
[unused155]
[unused156]
[unused157]
[unused158]
[unused159]
[unused160]
[unused161]
[unused162]
[unused163]
[unused164]
[unused165]
[unused166]
[unused167]
[unused168]
[unused169]
[unused170]
[unused171]
[unused172]
[unused173]
[unused174]
[unused175]
[unused176]
[unused177]
[unused178]
[unused179]
[unused180]
[unused181]
[unused182]
[unused183]
[unused184]
[unused185]
[unused186]
[unused187]
[unused188]
[unused189]
[unused190]
[unused191]
[unused192]
[unused193]
[unused194]
[unused195]
[unused196]
[unused197]
[unused198]
[unused199]
!
"
%
'
,
-
.
/
0
1
2
3
4
5
6
7
8
9
:
?
@
A
B
C
D
E
F
G
H
I
J
K
L
M
N
O
P
Q
R
S
T
U
V
W
X
Y
Z
a
b
c
d
e
f
g
h
i
j
k
l
m
n
o
p
q
r
s
t
u
v
w
x
y
z
~
·
♬
가
각
갂
갃
간
갅
갆
갇
갈
갉
갊
갋
갌
갍
갎
갏
감
갑
값
갓
갔
강
갖
갗
갘
같
갚
갛
개
객
갞
갟
갠
갢
갣
갤
갥
갧
갩
갫
갬
갭
갮
갯
갰
갱
갲
갳
갴
갵
갶
갷
갸
갹
갺
갼
갿
걀
걁
걃
걆
걇
걈
걉
걊
걋
걌
걍
걎
걐
걑
걒
걓
걔
걕
걖
걘
걜
걤
걥
걧
걨
걩
걬
걭
거
걱
걲
걳
건
걵
걶
걷
걸
걹
걺
걻
걼
걽
걾
걿
검
겁
겂
것
겄
겅
겆
겇
겈
겉
겊
겋
게
겍
겎
겏
겐
겒
겓
겔
겕
겗
겙
겚
겛
겜
겝
겞
겟
겠
겡
겢
겣
겤
겥
겦
겧
겨
격
겪
겫
견
겭
겮
겯
결
겱
겲
겳
겴
겵
겷
겸
겹
겺
겻
겼
경
겾
겿
곀
곁
곂
곃
계
곅
곆
곈
곋
곌
곔
곕
곖
곗
곘
곙
곚
곛
곜
곝
곟
고
곡
곢
곣
곤
곥
곧
골
곩
곪
곫
곬
곭
곮
곯
곰
곱
곲
곳
곴
공
곶
곷
곸
곹
곺
곻
과
곽
관
괁
괂
괃
괄
괅
괌
괍
괏
괐
광
괒
괓
괔
괕
괖
괗
괘
괙
괜
괝
괞
괠
괨
괫
괬
괭
괴
괵
괸
괺
괼
굄
굅
굇
굈
굉
굌
굎
교
굑
굔
굗
굘
굚
굠
굡
굣
굤
굥
굦
굧
굨
굩
굪
굫
구
국
굮
굯
군
굱
굲
굳
굴
굵
굶
굷
굺
굻
굼
굽
굾
굿
궀
궁
궂
궃
궄
궅
궆
궇
궈
궉
권
궍
궏
궐
궑
궓
궘
궙
궛
궜
궝
궠
궤
궥
궨
궬
궭
궮
궯
궲
궳
궵
궷
궸
궹
귀
귁
귄
귇
귈
귐
귑
귓
귔
귕
귖
귘
귛
규
귝
균
귣
귤
귥
귦
귬
귭
귯
귱
귴
귷
그
극
귺
귻
근
귽
귾
귿
글
긁
긂
긃
긄
긆
긇
금
급
긊
긋
긌
긍
긎
긏
긐
긑
긒
긓
긔
긕
긘
긛
긜
긞
긤
긥
긧
긩
긪
긬
긯
기
긱
긲
긴
긵
긶
긷
길
긹
긺
긻
긼
긿
김
깁
깂
깃
깄
깅
깆
깇
깈
깉
깊
깋
까
깍
깎
깐
깑
깒
깓
깔
깕
깖
깗
깛
깜
깝
깞
깟
깠
깡
깢
깣
깤
깥
깦
깧
깨
깩
깪
깬
깯
깰
깱
깵
깸
깹
깺
깻
깼
깽
깾
꺀
꺄
꺅
꺆
꺈
꺊
꺋
꺌
꺍
꺏
꺓
꺔
꺕
꺗
꺘
꺙
꺚
꺜
꺟
꺠
꺢
꺤
꺨
꺰
꺳
꺴
꺵
꺼
꺽
꺾
껀
껃
껄
껅
껇
껌
껍
껏
껐
껑
껒
껓
껔
껕
껗
께
껙
껚
껜
껠
껨
껩
껫
껬
껭
껰
껳
껴
껵
껶
껸
껼
꼄
꼅
꼇
꼈
꼉
꼊
꼌
꼍
꼏
꼐
꼣
꼤
꼥
꼨
꼬
꼭
꼮
꼰
꼲
꼳
꼴
꼵
꼶
꼷
꼹
꼻
꼼
꼽
꼿
꽀
꽁
꽂
꽃
꽄
꽅
꽆
꽇
꽈
꽉
꽊
꽌
꽐
꽑
꽘
꽙
꽛
꽜
꽝
꽠
꽤
꽥
꽦
꽨
꽭
꽳
꽴
꽹
꽼
꾀
꾁
꾄
꾈
꾐
꾕
꾜
꾝
꾠
꾤
꾬
꾭
꾱
꾳
꾸
꾹
꾺
꾼
꾾
꾿
꿀
꿁
꿂
꿃
꿄
꿇
꿈
꿉
꿋
꿌
꿍
꿎
꿏
꿐
꿑
꿓
꿔
꿕
꿘
꿜
꿝
꿤
꿥
꿧
꿨
꿩
꿬
꿯
꿰
꿱
꿲
꿴
꿸
꿹
꿻
꿿
뀀
뀃
뀄
뀅
뀈
뀌
뀍
뀐
뀔
뀜
뀝
뀟
뀠
뀡
뀤
뀨
뀩
뀪
뀬
뀰
뀱
뀳
뀷
뀸
뀹
뀻
뀽
끀
끄
끅
끆
끈
끉
끊
끋
끌
끍
끎
끏
끐
끓
끔
끕
끗
끘
끙
끚
끛
끜
끝
끞
끟
끠
끡
끤
끨
끯
끰
끵
끸
끼
끽
끾
낀
낂
낃
낄
낅
낋
낌
낍
낎
낏
낐
낑
낒
낓
낔
낕
낗
나
낙
낚
낛
난
낝
낞
낟
날
낡
낢
낣
낤
낥
낧
남
납
낪
낫
났
낭
낮
낯
낰
낱
낲
낳
내
낵
낶
낸
낻
낼
냄
냅
냇
냈
냉
냊
냋
냌
냍
냎
냏
냐
냑
냒
냔
냗
냘
냙
냠
냡
냣
냤
냥
냦
냧
냨
냩
냪
냫
냬
냰
냴
냼
냿
넀
넁
넄
너
넉
넊
넋
넌
넎
넏
널
넑
넒
넓
넔
넖
넗
넘
넙
넚
넛
넜
넝
넞
넟
넠
넡
넢
넣
네
넥
넦
넧
넨
넫
넬
넭
넴
넵
넶
넷
넸
넹
넺
넻
넼
넽
넾
넿
녀
녁
녂
년
녅
녆
녇
녈
념
녑
녓
녔
녕
녖
녗
녘
녙
녚
녛
녜
녝
녟
녠
녤
녬
녭
녯
녰
녱
녴
노
녹
녺
녻
논
녽
녾
녿
놀
놁
놂
놃
놇
놈
놉
놊
놋
놌
농
놎
놏
놐
놑
높
놓
놔
놕
놖
놘
놛
놜
놝
놤
놥
놧
놨
놩
놪
놬
놯
놰
놴
놸
뇀
뇁
뇄
뇅
뇌
뇍
뇐
뇔
뇜
뇝
뇟
뇠
뇡
뇤
뇨
뇩
뇬
뇰
뇸
뇹
뇻
뇽
눀
눂
눃
누
눅
눈
눉
눋
눌
눍
눓
눔
눕
눗
눙
눚
눛
눜
눝
눞
눟
눠
눤
눨
눰
눳
눴
눵
눸
눹
눼
눽
뉀
뉄
뉅
뉌
뉍
뉑
뉔
뉘
뉙
뉜
뉠
뉨
뉩
뉫
뉬
뉭
뉰
뉴
뉵
뉸
뉼
늄
늅
늇
늉
늌
늎
늏
느
늑
늒
늓
는
늕
늖
늗
늘
늙
늚
늛
늜
늟
늠
늡
늣
늤
능
늦
늧
늨
늩
늪
늫
늬
늭
늰
늴
늼
늽
늿
닁
닄
니
닉
닊
닋
닌
닍
닏
닐
닑
닒
닗
님
닙
닚
닛
닜
닝
닞
닟
닠
닡
닢
닣
다
닥
닦
닧
단
닩
닪
닫
달
닭
닮
닯
닰
닱
닲
닳
담
답
닶
닷
닸
당
닺
닻
닼
닽
닾
닿
대
댁
댂
댄
댇
댈
댉
댏
댐
댑
댓
댔
댕
댖
댗
댘
댙
댚
댛
댜
댝
댠
댣
댤
댥
댦
댬
댭
댯
댰
댱
댲
댴
댷
댸
댼
덀
덈
덋
덌
덍
더
덕
덖
덗
던
덙
덛
덜
덝
덞
덟
덢
덣
덤
덥
덦
덧
덨
덩
덪
덫
덬
덭
덮
덯
데
덱
덲
덴
덷
델
덹
뎀
뎁
뎂
뎃
뎄
뎅
뎆
뎇
뎈
뎉
뎊
뎋
뎌
뎍
뎐
뎓
뎔
뎜
뎝
뎟
뎠
뎡
뎤
뎦
뎧
뎨
뎬
뎻
뎽
도
독
돆
돇
돈
돉
돋
돌
돍
돎
돏
돐
돒
돓
돔
돕
돖
돗
돘
동
돚
돛
돜
돝
돞
돟
돠
돡
돤
돨
돩
돰
돱
돳
돴
돵
돸
돻
돼
돽
돾
됀
됃
됄
됌
됍
됏
됐
됑
됒
됔
됗
되
됙
됚
된
됝
됟
될
됡
됢
됤
됥
됧
됨
됩
됫
됬
됭
됮
됰
됱
됳
됴
됵
됸
됻
됼
둄
둅
둇
둉
둊
둋
둌
둏
두
둑
둒
둔
둗
둘
둙
둚
둛
둞
둟
둠
둡
둣
둥
둦
둧
둨
둩
둪
둫
둬
둭
둰
둴
둼
둽
둿
뒀
뒁
뒄
뒇
뒈
뒌
뒐
뒑
뒓
뒘
뒙
뒛
뒜
뒝
뒞
뒠
뒤
뒥
뒨
뒫
뒬
뒴
뒵
뒷
뒸
뒹
뒺
뒼
듀
듁
듄
듇
듈
듐
듑
듓
듕
듘
드
득
듞
듟
든
듡
듢
듣
들
듥
듦
듧
듨
듩
듪
듫
듬
듭
듯
듰
등
듲
듳
듴
듵
듶
듷
듸
듹
듼
딀
딈
딉
딋
딍
디
딕
딖
딘
딛
딜
딝
딞
딣
딤
딥
딧
딨
딩
딪
딫
딬
딭
딮
딯
따
딱
딲
딳
딴
딷
딸
딹
딺
딻
딿
땀
땁
땃
땄
땅
땆
땈
땉
땋
때
땍
땎
땐
땓
땔
땜
땝
땟
땠
땡
땢
땣
땤
땦
땧
땨
땩
땬
땰
땸
땽
떃
떄
떅
떈
떌
떔
떗
떘
떙
떠
떡
떢
떣
떤
떥
떦
떧
떨
떩
떪
떫
떮
떯
떰
떱
떳
떴
떵
떶
떷
떸
떹
떺
떻
떼
떽
떾
뗀
뗄
뗌
뗍
뗏
뗐
뗑
뗔
뗗
뗘
뗙
뗜
뗠
뗨
뗫
뗬
뗭
뗳
뗴
뗵
뗸
뗼
똇
똈
또
똑
똒
똔
똗
똘
똙
똚
똝
똟
똠
똡
똣
똥
똦
똧
똨
똩
똫
똬
똭
똮
똰
똴
똵
똷
똻
똼
똽
똿
뙀
뙁
뙄
뙇
뙈
뙌
뙓
뙛
뙜
뙝
뙤
뙥
뙨
뙬
뙴
뙷
뙸
뙹
뙿
뚀
뚁
뚄
뚈
뚊
뚕
뚜
뚝
뚞
뚠
뚢
뚣
뚤
뚥
뚦
뚧
뚨
뚫
뚬
뚭
뚯
뚱
뚴
뚵
뚷
뚸
뚹
뚼
뛀
뛃
뛋
뛌
뛍
뛓
뛔
뛕
뛝
뛟
뛣
뛥
뛧
뛨
뛰
뛱
뛴
뛸
뜀
뜁
뜃
뜄
뜅
뜌
뜍
뜐
뜔
뜛
뜜
뜝
뜡
뜨
뜩
뜪
뜬
뜮
뜯
뜰
뜱
뜳
뜷
뜸
뜹
뜻
뜼
뜽
뜾
뜿
띀
띁
띃
띄
띅
띈
띌
띔
띕
띙
띟
띠
띡
띤
띧
띨
띰
띱
띳
띴
띵
띶
띸
띻
라
락
띾
띿
란
랁
랂
랃
랄
랅
랆
랇
랈
랉
랊
랋
람
랍
랎
랏
랐
랑
랒
랓
랔
랕
랖
랗
래
랙
랚
랜
랟
랠
랡
램
랩
랫
랬
랭
랮
랯
랰
랱
랲
랳
랴
략
랸
랺
랻
랼
럄
럅
럇
럈
량
럊
럌
럎
럏
럐
럑
럔
럗
럘
럠
럣
럤
럥
러
럭
럮
럯
런
럱
럲
럳
럴
럵
럶
럷
럸
럻
럼
럽
럾
럿
렀
렁
렂
렃
렄
렅
렆
렇
레
렉
렊
렋
렌
렏
렐
렑
렓
렗
렘
렙
렚
렛
렜
렝
렞
렠
렡
렢
렣
려
력
렦
렧
련
렩
렪
렫
렬
렭
렴
렵
렷
렸
령
렺
렻
렼
렽
렾
렿
례
롁
롄
롈
롐
롑
롓
롔
롕
롘
로
록
롞
론
롡
롣
롤
롥
롫
롬
롭
롮
롯
롰
롱
롲
롳
롴
롵
롶
롷
롸
롹
롻
롼
뢀
뢁
뢈
뢉
뢋
뢌
뢍
뢐
뢓
뢔
뢕
뢘
뢜
뢥
뢨
뢩
뢰
뢱
뢴
뢸
룀
룁
룃
룄
룅
룈
료
룍
룐
룔
룜
룝
룟
룠
룡
룢
룤
룧
루
룩
룪
룬
룯
룰
룱
룷
룸
룹
룻
룽
룾
룿
뤀
뤁
뤂
뤃
뤄
뤅
뤈
뤌
뤔
뤕
뤗
뤘
뤙
뤜
뤟
뤠
뤡
뤤
뤨
뤩
뤫
뤰
뤱
뤳
뤵
뤸
뤼
뤽
륀
륄
륌
륍
륏
륐
륑
륔
류
륙
륜
륟
률
륨
륩
륫
륭
륮
륰
륲
륳
르
륵
륶
른
륹
륻
를
륽
륾
륿
릀
릁
릂
릃
름
릅
릆
릇
릈
릉
릊
릋
릌
릍
릎
릏
릐
릑
릔
릘
릠
릡
릣
릥
릫
리
릭
릮
린
릱
릲
릳
릴
릵
릶
릷
릸
릹
릻
림
립
릾
릿
맀
링
맂
맃
맄
맅
맆
맇
마
막
맊
맋
만
맍
많
맏
말
맑
맒
맓
맔
맕
맖
맗
맘
맙
맚
맛
맜
망
맞
맟
맠
맡
맢
맣
매
맥
맨
맩
맪
맫
맬
맴
맵
맷
맸
맹
맺
맻
맼
맽
맿
먀
먁
먄
먆
먇
먈
먐
먑
먓
먕
먖
먗
먘
먛
먜
먠
먤
먱
머
먹
먺
먻
먼
먽
먾
먿
멀
멁
멂
멈
멉
멊
멋
멌
멍
멎
멏
멐
멑
멒
멓
메
멕
멘
멛
멜
멤
멥
멧
멨
멩
멪
멫
멬
멭
멮
멯
며
멱
멲
면
멵
멶
멷
멸
멿
몀
몁
몃
몄
명
몆
몇
몈
몉
몊
몋
몌
몐
몔
몟
몡
몢
몣
모
목
몪
몫
몬
몮
몯
몰
몱
몲
몴
몷
몸
몹
몺
못
몼
몽
몾
몿
뫀
뫁
뫂
뫃
뫄
뫅
뫈
뫌
뫔
뫕
뫗
뫘
뫙
뫚
뫜
뫠
뫤
뫼
뫽
묀
묄
묏
묑
묘
묙
묜
묠
묨
묫
묭
묯
무
묵
묶
묷
문
묹
묺
묻
물
묽
묾
묿
뭀
뭁
뭃
뭄
뭅
뭇
뭈
뭉
뭊
뭋
뭌
뭍
뭎
뭏
뭐
뭑
뭔
뭕
뭗
뭘
뭙
뭚
뭟
뭠
뭡
뭣
뭤
뭥
뭦
뭧
뭨
뭩
뭫
뭬
뭭
뭰
뭴
뭵
뭷
뭽
뭿
뮁
뮈
뮉
뮌
뮏
뮐
뮘
뮙
뮛
뮜
뮝
뮤
뮥
뮦
뮨
뮫
뮬
뮴
뮷
뮹
뮻
뮼
므
믁
믂
믄
믆
믇
믈
믉
믌
믏
믐
믑
믓
믕
믖
믘
믙
믛
믜
믝
믠
믣
믤
믬
믯
믰
믱
미
믹
믺
믻
민
믽
믾
믿
밀
밁
밂
밇
밈
밉
밊
밋
밌
밍
밎
및
밐
밑
밒
밓
바
박
밖
밗
반
밙
밚
받
발
밝
밞
밟
밠
밡
밢
밣
밤
밥
밦
밧
밨
방
밪
밫
밬
밭
밮
밯
배
백
밲
밳
밴
밷
밸
밹
밿
뱀
뱁
뱃
뱄
뱅
뱆
뱇
뱈
뱉
뱊
뱋
뱌
뱍
뱎
뱐
뱓
뱔
뱕
뱗
뱛
뱜
뱝
뱟
뱡
뱤
뱥
뱨
뱩
뱬
뱰
뱸
뱽
벁
버
벅
벆
번
벉
벊
벋
벌
벍
벎
벏
벐
벑
벓
범
법
벖
벗
벘
벙
벚
벛
벜
벝
벞
벟
베
벡
벤
벧
벨
벩
벫
벯
벰
벱
벲
벳
벴
벵
벶
벷
벸
벹
벺
벻
벼
벽
벾
변
볁
볂
볃
별
볅
볆
볇
볈
볋
볌
볍
볎
볏
볐
병
볒
볓
볔
볕
볖
볗
볘
볙
볜
볠
볫
볭
보
복
볶
볷
본
볹
볻
볼
볽
볾
봀
봁
봃
봄
봅
봆
봇
봈
봉
봊
봋
봌
봍
봎
봏
봐
봑
봒
봔
봗
봘
봙
봟
봠
봡
봣
봤
봥
봦
봨
봩
봫
봬
봭
봰
봴
봵
봽
봿
뵀
뵁
뵈
뵉
뵌
뵏
뵐
뵑
뵘
뵙
뵛
뵜
뵝
뵞
뵠
뵤
뵥
뵨
뵬
뵴
뵵
뵷
뵹
뵺
부
북
붂
붃
분
붅
붆
붇
불
붉
붊
붋
붌
붍
붎
붏
붐
붑
붓
붔
붕
붖
붗
붘
붙
붚
붛
붜
붝
붠
붤
붥
붬
붭
붯
붰
붱
붴
붸
붹
붼
뷀
뷁
뷃
뷇
뷉
뷋
뷍
뷐
뷔
뷕
뷘
뷜
뷤
뷥
뷧
뷩
뷮
뷰
뷱
뷴
뷷
뷸
뷹
븀
븁
븂
븃
븅
븈
븉
븋
브
븍
븎
븏
븐
븓
블
븕
븛
븜
븝
븞
븟
븡
븢
븤
븥
븦
븧
븨
븩
븬
븰
븸
븹
븻
븽
빂
비
빅
빆
빇
빈
빋
빌
빍
빎
빏
빓
빔
빕
빖
빗
빘
빙
빚
빛
빜
빝
빞
빟
빠
빡
빢
빣
빤
빧
빨
빩
빪
빫
빬
빭
빯
빰
빱
빳
빴
빵
빶
빷
빸
빹
빺
빻
빼
빽
빾
뺀
뺃
뺄
뺅
뺌
뺍
뺏
뺐
뺑
뺒
뺓
뺔
뺕
뺗
뺘
뺙
뺚
뺜
뺠
뺡
뺨
뺩
뺫
뺭
뺴
뺵
뺶
뺸
뺼
뻁
뻄
뻇
뻈
뻉
뻐
뻑
뻒
뻔
뻕
뻖
뻗
뻘
뻙
뻠
뻡
뻣
뻤
뻥
뻦
뻨
뻩
뻪
뻫
뻬
뻭
뻰
뻴
뻼
뻿
뼀
뼁
뼈
뼉
뼊
뼌
뼏
뼐
뼑
뼘
뼙
뼛
뼜
뼝
뼠
뼡
뼤
뼬
뽀
뽁
뽂
뽄
뽇
뽈
뽐
뽑
뽓
뽕
뽖
뽘
뽚
뽛
뽜
뽝
뽞
뽠
뽤
뽥
뽫
뽬
뽭
뽯
뽰
뽱
뽴
뽷
뽸
뽹
뾀
뾃
뾔
뾥
뾰
뾱
뾲
뾴
뾸
뿁
뿃
뿅
뿌
뿍
뿎
뿐
뿑
뿓
뿔
뿕
뿛
뿜
뿝
뿟
뿠
뿡
뿤
뿥
뿧
뿨
뿩
뿬
뿰
뿱
뿳
뿹
뿽
쀀
쀄
쀅
쀈
쀌
쀍
쀏
쀒
쀓
쀠
쀡
쀨
쀳
쀵
쀼
쀽
쀾
쁀
쁄
쁌
쁍
쁏
쁐
쁑
쁘
쁙
쁜
쁝
쁟
쁠
쁨
쁩
쁫
쁭
쁮
쁰
쁴
쁸
쁼
삉
삐
삑
삒
삔
삗
삘
삠
삡
삣
삤
삥
삦
삧
삨
삫
사
삭
삮
삯
산
삱
삲
삳
살
삵
삶
삷
삸
삹
삺
삻
삼
삽
삾
삿
샀
상
샂
샃
샄
샅
샆
샇
새
색
샊
샋
샌
샎
샏
샐
샑
샒
샓
샔
샕
샗
샘
샙
샚
샛
샜
생
샞
샟
샠
샡
샢
샣
샤
샥
샦
샨
샫
샬
샮
샴
샵
샷
샸
샹
샼
샽
샾
샿
섀
섁
섂
섄
섈
섉
섊
섐
섑
섓
섔
섕
섘
서
석
섞
섟
선
섡
섢
섣
설
섥
섦
섧
섨
섩
섪
섫
섬
섭
섮
섯
섰
성
섲
섳
섴
섵
섶
섷
세
섹
섺
섻
센
섽
섿
셀
셁
셂
셃
셆
셇
셈
셉
셋
셌
셍
셎
셏
셐
셑
셒
셓
셔
셕
셖
션
셛
셜
셟
셤
셥
셧
셨
셩
셪
셫
셬
셭
셮
셯
셰
셱
셲
셴
셸
솀
솁
솃
솄
솅
솈
솉
솊
소
속
솎
솏
손
솑
솒
솓
솔
솕
솖
솛
솜
솝
솟
솠
송
솢
솣
솤
솥
솦
솧
솨
솩
솬
솰
솸
솹
솻
솼
솽
쇀
쇄
쇅
쇆
쇈
쇌
쇔
쇗
쇘
쇙
쇜
쇟
쇠
쇡
쇣
쇤
쇨
쇱
쇳
쇵
쇸
쇼
쇽
숀
숄
숌
숍
숏
숐
숑
숔
숖
숗
수
숙
숚
순
숝
숟
술
숡
숢
숤
숧
숨
숩
숪
숫
숬
숭
숮
숯
숰
숱
숲
숳
숴
숵
숶
숸
숼
쉄
쉅
쉇
쉈
쉉
쉌
쉐
쉑
쉒
쉓
쉔
쉗
쉘
쉙
쉚
쉛
쉜
쉞
쉟
쉠
쉡
쉣
쉤
쉥
쉧
쉨
쉩
쉪
쉫
쉬
쉭
쉮
쉰
쉲
쉳
쉴
쉻
쉼
쉽
쉾
쉿
슀
슁
슂
슄
슅
슆
슇
슈
슉
슌
슏
슐
슘
슙
슛
슝
슞
슟
슠
슢
스
슥
슦
슧
슨
슩
슫
슬
슭
슮
슯
슰
슲
슳
슴
습
슶
슷
슸
승
슺
슻
슼
슽
슾
슿
싀
싁
싄
싅
싆
싇
싈
싐
싑
싓
싕
싖
싘
싙
싚
시
식
싞
싟
신
싡
싢
싣
실
싥
싦
싧
싨
싩
싪
싫
심
십
싮
싯
싰
싱
싲
싳
싴
싵
싶
싷
싸
싹
싺
싻
싼
싾
싿
쌀
쌂
쌇
쌈
쌉
쌋
쌌
쌍
쌎
쌐
쌑
쌒
쌓
쌔
쌕
쌖
쌗
쌘
쌛
쌜
쌞
쌟
쌤
쌥
쌧
쌨
쌩
쌬
쌯
쌰
쌱
쌴
쌸
쌻
썀
썁
썃
썄
썅
썋
썌
썍
썎
썐
썔
썖
썜
썝
썟
썠
썡
써
썩
썪
썫
썬
썯
썰
썱
썳
썸
썹
썻
썼
썽
썾
쎀
쎁
쎂
쎃
쎄
쎅
쎆
쎇
쎈
쎌
쎍
쎓
쎔
쎕
쎗
쎘
쎙
쎜
쎝
쎟
쎠
쎡
쎤
쎨
쎰
쎱
쎳
쎴
쎵
쎼
쎽
쎾
쏀
쏃
쏄
쏌
쏏
쏐
쏔
쏖
쏘
쏙
쏚
쏜
쏟
쏠
쏨
쏩
쏫
쏬
쏭
쏮
쏰
쏱
쏳
쏴
쏵
쏸
쏼
쐄
쐅
쐇
쐈
쐉
쐌
쐏
쐐
쐑
쐒
쐣
쐤
쐥
쐨
쐬
쐭
쐰
쐴
쐼
쐽
쐿
쑀
쑈
쑉
쑌
쑐
쑙
쑛
쑝
쑤
쑥
쑦
쑨
쑫
쑬
쑴
쑵
쑷
쑹
쑻
쑼
쒀
쒁
쒂
쒄
쒈
쒐
쒑
쒓
쒔
쒕
쒘
쒜
쒝
쒞
쒠
쒤
쒥
쒧
쒫
쒭
쒯
쒰
쒱
쒴
쒵
쒸
쒹
쒼
쓀
쓃
쓈
쓉
쓊
쓋
쓌
쓍
쓐
쓑
쓒
쓔
쓕
쓘
쓜
쓤
쓥
쓩
쓰
쓱
쓲
쓴
쓷
쓸
쓹
쓺
쓿
씀
씁
씂
씃
씄
씅
씆
씇
씈
씉
씊
씋
씌
씍
씐
씔
씗
씜
씝
씞
씟
씡
씢
씤
씥
씦
씧
씨
씩
씪
씬
씮
씯
씰
씱
씳
씶
씷
씸
씹
씺
씻
씼
씽
씾
씿
앀
앁
앂
앃
아
악
앆
앇
안
앉
않
앋
알
앍
앎
앏
앐
앑
앒
앓
암
압
앖
앗
았
앙
앚
앛
앜
앝
앞
앟
애
액
앢
앣
앤
앦
앧
앨
앩
앰
앱
앲
앳
앴
앵
앶
앷
앸
앹
앺
앻
야
약
앾
앿
얀
얁
얂
얃
얄
얅
얆
얇
얉
얊
얋
얌
얍
얎
얏
얐
양
얒
얓
얔
얕
얖
얗
얘
얙
얜
얠
얨
얩
얪
얫
얬
얭
얮
얰
얳
어
억
얶
얷
언
얹
얺
얻
얼
얽
얾
얿
엀
엁
엂
엃
엄
업
없
엇
었
엉
엊
엋
엌
엍
엎
엏
에
엑
엒
엓
엔
엕
엗
엘
엙
엜
엞
엠
엡
엢
엣
엤
엥
엦
엧
엨
엩
엪
엫
여
역
엮
엯
연
엱
엲
엳
열
엵
엶
엷
엸
엹
엻
염
엽
엾
엿
였
영
옂
옃
옄
옅
옆
옇
예
옉
옌
옐
옘
옙
옛
옜
옝
옞
옟
옠
옢
옣
오
옥
옦
옧
온
옩
옪
옫
올
옭
옮
옯
옰
옱
옲
옳
옴
옵
옶
옷
옸
옹
옺
옻
옼
옽
옾
옿
와
왁
왂
완
왅
왆
왇
왈
왉
왐
왑
왓
왔
왕
왖
왗
왘
왙
왚
왛
왜
왝
왠
왡
왢
왤
왥
왬
왭
왯
왰
왱
왲
왳
왴
왶
왷
외
왹
왼
욀
욈
욉
욋
욌
욍
욎
욐
욓
요
욕
욖
욗
욘
욛
욜
욝
욣
욤
욥
욧
욨
용
욪
욫
욬
욭
욮
욯
우
욱
욲
욳
운
욵
욷
울
욹
욺
욻
욼
욽
욾
욿
움
웁
웂
웃
웄
웅
웆
웇
웈
웉
웊
웋
워
웍
웎
원
웑
웒
웓
월
웕
웖
웗
웘
웙
웚
웛
웜
웝
웞
웟
웠
웡
웢
웣
웤
웥
웦
웧
웨
웩
웪
웬
웯
웰
웱
웳
웸
웹
웺
웻
웼
웽
웾
윀
윁
윂
위
윅
윈
윋
윌
윔
윕
윖
윗
윘
윙
윚
윜
윝
윟
유
육
윢
윣
윤
윥
윧
율
윯
윰
윱
윳
융
윶
윷
윸
윹
윺
윻
으
윽
윾
윿
은
읁
읂
읃
을
읅
읆
읇
읈
읉
읊
읋
음
읍
읎
읏
읐
응
읒
읓
읔
읕
읖
읗
의
읙
읜
읟
읠
읨
읩
읪
읫
읬
읭
읮
읯
읰
읱
읲
읳
이
익
읶
읷
인
읹
읺
읻
일
읽
읾
읿
잀
잁
잂
잃
임
입
잆
잇
있
잉
잊
잋
잌
잍
잎
잏
자
작
잒
잓
잔
잕
잖
잗
잘
잙
잚
잛
잜
잝
잞
잟
잠
잡
잢
잣
잤
장
잦
잧
잨
잩
잪
잫
재
잭
잮
잰
잲
잳
잴
잼
잽
잿
쟀
쟁
쟂
쟃
쟄
쟅
쟆
쟇
쟈
쟉
쟌
쟎
쟏
쟐
쟘
쟙
쟛
쟜
쟝
쟞
쟟
쟠
쟡
쟣
쟤
쟥
쟨
쟬
쟴
쟸
쟹
쟼
저
적
젂
젃
전
젅
젆
젇
절
젉
젊
젋
젌
젍
젎
젏
점
접
젒
젓
젔
정
젖
젗
젘
젙
젚
젛
제
젝
젞
젠
젡
젣
젤
젬
젭
젯
젰
젱
젲
젳
젴
젵
젶
젷
져
젹
젺
젼
젾
젿
졀
졂
졈
졉
졋
졌
졍
졎
졏
졐
졑
졒
졓
졔
졘
졜
졨
조
족
졲
졳
존
졵
졶
졷
졸
졹
졺
졻
졽
졿
좀
좁
좂
좃
좄
종
좆
좇
좈
좉
좊
좋
좌
좍
좎
좐
좒
좓
좔
좜
좝
좟
좠
좡
좢
좣
좤
좥
좦
좧
좨
좩
좬
좭
좮
좯
좰
좱
좸
좼
좽
죄
죅
죈
죌
죔
죕
죗
죘
죙
죚
죜
죝
죠
죡
죢
죣
죤
죥
죧
죨
죰
죱
죳
죴
죵
죶
죷
죸
죹
죺
죻
주
죽
죾
죿
준
줁
줂
줃
줄
줅
줆
줈
줉
줊
줋
줌
줍
줏
줐
중
줒
줓
줔
줕
줖
줗
줘
줙
줚
줜
줝
줟
줠
줨
줩
줫
줬
줭
줮
줯
줰
줱
줳
줴
줵
줸
줼
쥄
쥅
쥇
쥈
쥉
쥐
쥑
쥔
쥘
쥠
쥡
쥣
쥤
쥥
쥦
쥨
쥫
쥬
쥭
쥰
쥳
쥴
쥼
쥽
쥿
즁
즂
즄
즇
즈
즉
즋
즌
즎
즏
즐
즑
즘
즙
즛
즜
증
즞
즟
즠
즡
즣
즤
즥
즨
즬
즴
즵
즷
즹
즺
즼
지
직
짂
짃
진
짅
짆
짇
질
짉
짊
짋
짌
짍
짎
짏
짐
집
짒
짓
짔
징
짖
짗
짘
짙
짚
짛
짜
짝
짞
짠
짢
짣
짤
짥
짦
짧
짪
짫
짬
짭
짮
짯
짰
짱
짲
짳
짴
짵
짶
짷
째
짹
짺
짼
짾
짿
쨀
쨈
쨉
쨋
쨌
쨍
쨎
쨐
쨓
쨔
쨕
쨖
쨘
쨚
쨜
쨟
쨤
쨥
쨧
쨨
쨩
쨬
쨰
쨱
쨲
쨴
쩀
쩁
쩃
쩄
쩅
쩌
쩍
쩎
쩐
쩑
쩓
쩔
쩕
쩖
쩗
쩘
쩛
쩜
쩝
쩟
쩠
쩡
쩢
쩣
쩤
쩦
쩧
쩨
쩩
쩬
쩰
쩸
쩹
쩻
쩼
쩽
쪄
쪅
쪈
쪌
쪔
쪕
쪗
쪘
쪙
쪚
쪜
쪟
쪠
쪵
쪹
쪻
쪼
쪽
쪾
쪿
쫀
쫂
쫃
쫄
쫅
쫌
쫍
쫏
쫐
쫑
쫒
쫓
쫔
쫕
쫖
쫗
쫘
쫙
쫚
쫛
쫜
쫟
쫠
쫨
쫩
쫫
쫭
쫰
쫴
쫵
쬈
쬎
쬐
쬑
쬔
쬘
쬠
쬡
쬥
쬬
쬭
쬮
쬰
쬲
쬴
쬼
쬽
쬿
쭀
쭁
쭂
쭃
쭄
쭅
쭈
쭉
쭊
쭌
쭏
쭐
쭕
쭘
쭙
쭛
쭝
쭞
쭟
쭠
쭤
쭥
쭨
쭬
쭭
쭵
쭷
쭸
쭹
쭻
쮀
쮁
쮇
쮉
쮑
쮓
쮔
쮕
쮜
쮝
쮠
쮤
쮭
쮱
쮸
쮹
쮼
쯀
쯈
쯉
쯋
쯍
쯎
쯔
쯕
쯘
쯛
쯜
쯤
쯥
쯧
쯨
쯩
쯪
쯫
쯰
쯱
쯴
찁
찅
찌
찍
찎
찏
찐
찓
찔
찗
찜
찝
찟
찠
찡
찢
찣
찤
찥
찦
찧
차
착
찪
찫
찬
찭
찮
찯
찰
찱
찲
찳
찴
찷
참
찹
찻
찼
창
찾
찿
챀
챁
챂
챃
채
책
챈
챊
챋
챌
챔
챕
챗
챘
챙
챚
챜
챝
챠
챡
챤
챦
챨
챫
챰
챱
챳
챴
챵
챶
챷
챸
챺
챻
챼
챽
첑
처
척
천
첝
첞
첟
철
첡
첢
첣
첤
첧
첨
첩
첪
첫
첬
청
첮
첯
첰
첱
첲
첳
체
첵
첸
첻
첼
쳄
쳅
쳇
쳈
쳉
쳊
쳋
쳌
쳍
쳏
쳐
쳑
쳒
쳔
쳗
쳘
쳠
쳡
쳢
쳣
쳤
쳥
쳦
쳧
쳨
쳫
쳬
쳭
쳰
쳴
촀
초
촉
촌
촏
촐
촔
촘
촙
촛
촜
총
촞
촟
촠
촡
촣
촤
촥
촨
촪
촬
촴
촵
촷
촹
촺
촼
쵀
쵁
쵕
최
쵝
쵠
쵤
쵭
쵮
쵯
쵱
쵴
쵸
쵹
쵼
쵿
춀
춈
춉
춋
춌
춍
춎
춏
춐
추
축
춘
춚
춛
출
춝
춞
춟
춠
춡
춣
춤
춥
춧
충
춪
춫
춬
춭
춮
춯
춰
춱
춴
춸
췁
췃
췄
췅
췆
췈
췌
췍
췐
췔
췕
췜
췝
췟
췡
췤
취
췩
췬
췰
췸
췹
췻
췼
췽
츀
츄
츅
츈
츌
츔
츕
츗
츙
츛
츜
츞
츠
측
츤
츧
츨
츰
츱
츳
층
츶
츷
츸
츹
츼
츽
칀
칄
칌
칍
칑
칔
치
칙
친
칝
칞
칟
칠
칡
칢
칤
칧
침
칩
칫
칬
칭
칮
칯
칰
칱
칲
칳
카
칵
칶
칸
칻
칼
칽
캄
캅
캆
캇
캈
캉
캊
캋
캌
캍
캎
캏
캐
캑
캔
캘
캙
캠
캡
캢
캣
캤
캥
캨
캩
캪
캬
캭
캮
캰
캴
캵
캼
캽
캿
컀
컁
컄
컅
컇
컈
커
컥
컨
컫
컬
컭
컯
컴
컵
컷
컸
컹
컺
컼
컽
컾
컿
케
켁
켄
켇
켈
켉
켐
켑
켓
켔
켕
켘
켙
켚
켛
켜
켝
켞
켠
켤
켬
켭
켯
켰
켱
켲
켴
켵
켷
켸
켼
콋
콌
코
콕
콘
콛
콜
콤
콥
콧
콩
콪
콫
콬
콭
콮
콯
콰
콱
콲
콴
콸
쾀
쾃
쾅
쾈
쾌
쾍
쾐
쾡
쾤
쾨
쾩
쾬
쾰
쾽
쿄
쿅
쿈
쿌
쿔
쿗
쿙
쿜
쿠
쿡
쿢
쿤
쿧
쿨
쿩
쿫
쿯
쿰
쿱
쿳
쿵
쿸
쿹
쿺
쿻
쿼
쿽
퀀
퀄
퀌
퀏
퀐
퀑
퀔
퀘
퀙
퀜
퀠
퀡
퀫
퀭
퀰
퀴
퀵
퀸
퀻
퀼
큄
큅
큇
큉
큌
큐
큑
큔
큘
큠
큡
큣
큥
큨
큩
큪
크
큭
큮
큰
큲
큳
클
큵
큷
큻
큼
큽
큿
킀
킁
킂
킄
킅
킆
킇
킈
킉
킌
킐
킘
킝
킠
키
킥
킦
킨
킫
킬
킴
킵
킶
킷
킸
킹
킺
킼
킽
킾
킿
타
탁
탂
탄
탅
탆
탇
탈
탉
탊
탍
탏
탐
탑
탓
탔
탕
탖
탗
탘
탙
탚
탛
태
택
탞
탟
탠
탣
탤
탬
탭
탯
탰
탱
탲
탴
탵
탶
탷
탸
탹
탼
턀
턈
턉
턋
턍
턐
턑
턔
턕
턘
턩
터
턱
턴
턷
털
턹
턺
텀
텁
텂
텃
텄
텅
텆
텇
텈
텉
텊
텋
테
텍
텐
텓
텔
템
텝
텟
텠
텡
텢
텣
텤
텥
텦
텧
텨
텩
텬
텰
텸
텹
텻
텼
텽
톀
톃
톄
톅
톈
톌
톔
토
톡
톢
톤
톧
톨
톩
톪
톰
톱
톳
통
톶
톷
톸
톹
톺
톻
톼
톽
퇀
퇄
퇌
퇍
퇏
퇑
퇔
퇘
퇙
퇜
퇧
퇫
퇬
퇭
퇮
퇴
퇵
퇶
퇸
퇼
툄
툅
툇
툈
툉
툊
툌
툐
툑
툠
툣
툥
툨
툩
투
툭
툰
툱
툲
툳
툴
툻
툼
툽
툿
퉁
퉂
퉄
퉅
퉆
퉈
퉉
퉌
퉐
퉛
퉜
퉝
퉤
퉥
퉨
퉬
퉵
퉷
퉸
퉹
퉼
퉽
튀
튁
튄
튈
튐
튑
튓
튔
튕
튘
튜
튝
튠
튤
튬
튭
튱
튴
튵
튶
트
특
튺
튻
튼
튽
튿
틀
틁
틂
틅
틇
틈
틉
틊
틋
틍
틎
틏
틐
틑
틒
틓
틔
틕
틘
틜
틤
틧
틩
티
틱
틳
틴
틷
틸
팀
팁
팃
팄
팅
팆
팈
팉
팊
파
팍
팎
팏
판
팑
팒
팓
팔
팕
팖
팗
팘
팙
팚
팛
팜
팝
팟
팠
팡
팢
팣
팤
팥
팦
팧
패
팩
팬
팯
팰
팸
팹
팻
팼
팽
퍀
퍁
퍄
퍅
퍈
퍌
퍔
퍙
퍝
퍞
퍠
퍡
퍤
퍵
퍼
퍽
퍾
펀
펃
펄
펅
펌
펍
펏
펐
펑
펒
펔
펕
펖
펗
페
펙
펜
펟
펠
펨
펩
펫
펭
펰
펲
펴
펵
편
펹
펺
펻
펼
폄
폅
폇
폈
평
폌
폐
폑
폔
폘
폠
폡
폣
폥
폨
포
폭
폮
폯
폰
폳
폴
폼
폽
폿
퐁
퐂
퐄
퐅
퐆
퐇
퐈
퐉
퐌
퐐
퐑
퐘
퐙
퐛
퐜
퐝
퐠
퐣
퐤
퐥
퐨
푀
푁
푄
푈
푕
표
푝
푠
푤
푬
푭
푯
푱
푲
푴
푶
푷
푸
푹
푼
푿
풀
풁
풂
풃
풇
품
풉
풋
풍
풎
풏
풐
풑
풒
풓
풔
풕
풘
풜
풩
풬
풰
풱
풴
풸
풹
퓅
퓌
퓍
퓐
퓔
퓟
퓡
퓨
퓩
퓬
퓰
퓸
퓹
퓻
퓽
퓿
픀
픂
프
픅
픈
픋
플
픍
픎
픓
픔
픕
픗
픙
픚
픜
픝
픞
픟
픠
픤
픨
픵
픹
피
픽
핀
핃
필
핆
핋
핌
핍
핏
핐
핑
핒
핓
핔
핕
핖
핗
하
학
핚
핛
한
핝
핞
핟
할
핡
핢
핣
핤
핥
핦
핧
함
합
핪
핫
핬
항
핮
핯
핰
핱
핲
핳
해
핵
핶
핷
핸
핺
핻
핼
핽
햄
햅
햇
했
행
햊
햋
햌
햍
햎
햏
햐
햑
햔
햘
햙
햚
햛
햝
햟
햠
햡
햣
햤
향
햨
햩
햫
햬
햭
햰
햿
헀
헁
허
헉
헊
헋
헌
헍
헏
헐
헑
헒
헓
헔
헕
헗
험
헙
헚
헛
헜
헝
헞
헟
헠
헡
헢
헣
헤
헥
헦
헧
헨
헫
헬
헭
헯
헰
헱
헲
헳
헴
헵
헶
헷
헸
헹
헼
헽
헾
헿
혀
혁
혂
혃
현
혅
혆
혇
혈
혉
혐
협
혒
혓
혔
형
혖
혘
혙
혚
혛
혜
혝
혠
혤
혬
혭
혯
혰
혱
혲
혴
혷
호
혹
혺
혻
혼
혽
혾
혿
홀
홁
홅
홇
홈
홉
홋
홍
홎
홐
홑
홒
홓
화
확
홖
홗
환
홙
홛
활
홝
홟
홡
홣
홤
홥
홧
홨
황
홪
홫
홬
홭
홮
홯
홰
홱
홴
횃
횄
횅
회
획
횐
횓
횔
횜
횝
횟
횠
횡
횢
횤
횧
효
횩
횬
횰
횸
횹
횻
횽
훀
훃
후
훅
훈
훉
훊
훋
훌
훍
훏
훑
훓
훔
훕
훗
훙
훚
훛
훜
훝
훞
훟
훠
훡
훤
훨
훯
훰
훱
훳
훵
훸
훻
훼
훽
휀
휄
휅
휇
휍
휏
휐
휑
휔
휗
휘
휙
휜
휟
휠
휨
휩
휫
휭
휰
휲
휳
휴
휵
휸
휼
흄
흅
흇
흉
흊
흌
흎
흏
흐
흑
흒
흓
흔
흗
흘
흙
흚
흛
흜
흝
흟
흠
흡
흣
흤
흥
흦
흨
흩
흪
흫
희
흭
흰
흳
흴
흵
흼
흽
흿
힁
힂
힄
힇
히
힉
힊
힌
힏
힐
힑
힒
힕
힗
힘
힙
힛
힜
힝
힞
힟
힠
힡
힢
힣
％
##예
##부
##흥
##기
##♬
##로
##서
##e
##l
##a
##라
##는
##과
##표
##피
##증
##식
##등
##값
##떨
##어
##지
##진
##키
##니
##요
##쿠
##고
##문
##버
##리
##게
##뇨
##세
##얼
##굴
##이
##연
##히
##거
##절
##하
##겠
##아
##시
##설
##도
##집
##갈
##까
##바
##러
##가
##수
##무
##원
##다
##님
##걸
##릿
##것
##픈
##조
##건
##주
##싶
##은
##상
##추
##모
##력
##교
##정
##학
##회
##감
##동
##만
##착
##할
##있
##본
##쌀
##란
##2
##자
##유
##대
##한
##민
##국
##을
##명
##내
##스
##파
##브
##랜
##드
##코
##멜
##렸
##왔
##찌
##깍
##료
##목
##재
##의
##점
##애
##춘
##랑
##즈
##테
##카
##와
##나
##올
##려
##를
##때
##씨
##셀
##프
##언
##보
##에
##레
##몇
##번
##꾸
##들
##으
##댓
##베
##저
##화
##촌
##엿
##면
##린
##포
##월
##중
##망
##제
##죽
##했
##캣
##싼
##마
##크
##사
##쓰
##느
##덕
##책
##선
##쫌
##치
##매
##인
##었
##단
##0
##맞
##았
##데
##용
##작
##물
##네
##곧
##찢
##구
##처
##년
##통
##금
##볍
##겨
##르
##효
##신
##적
##필
##준
##성
##일
##소
##형
##F
##O
##C
##U
##S
##권
##투
##탁
##H
##A
##촉
##억
##오
##냐
##뤘
##야
##되
##북
##경
##협
##루
##없
##배
##열
##친
##터
##떻
##결
##같
##얘
##급
##안
##출
##컷
##넷
##생
##각
##업
##뎃
##런
##함
##앞
##잡
##끝
##날
##그
##놔
##둬
##령
##므
##약
##칫
##햇
##분
##손
##6
##3
##댐
##해
##발
##짓
##달
##법
##캐
##휴
##타
##놓
##글
##공
##엘
##더
##태
##킨
##훈
##툰
##딩
##승
##계
##토
##록
##벽
##영
##역
##뭐
##놨
##남
##람
##너
##호
##음
##뢰
##져
##깃
##독
##백
##우
##래
##개
##장
##방
##줘
##반
##던
##팅
##돼
##겟
##양
##체
##험
##비
##든
##훠
##슽
##격
##차
##됐
##봐
##께
##7
##9
##전
##삼
##평
##얻
##먹
##팔
##줄
##쟁
##떠
##술
##군
##였
##며
##찐
##머
##행
##여
##박
##웨
##븐
##빨
##갱
##색
##깔
##미
##휘
##랬
##변
##론
##류
##당
##갔
##실
##케
##움
##잘
##못
##노
##쨍
##논
##직
##운
##청
##트
##왕
##쫄
##X
##혀
##않
##티
##패
##쉬
##렇
##락
##산
##K
##육
##눈
##1
##짜
##활
##살
##석
##속
##넘
##관
##른
##M
##섭
##취
##량
##갑
##먼
##질
##압
##강
##심
##껏
##납
##검
##뒤
##임
##벌
##확
##켜
##곳
##헤
##8
##밥
##럼
##뿐
##빠
##됨
##섹
##4
##뮤
##션
##밀
##따
##k
##g
##항
##허
##돈
##혼
##퍼
##클
##맺
##났
##잊
##합
##닼
##롤
##헐
##펙
##새
##간
##5
##불
##곸
##썻
##뵈
##껄
##말
##탕
##왼
##쪽
##m
##q
##p
##T
##륜
##센
##펑
##쥬
##궈
##두
##긴
##플
##깐
##멋
##긍
##롬
##쁜
##습
##팩
##꽂
##받
##순
##홍
##봤
##쇼
##창
##닌
##병
##녜
##외
##채
##땅
##득
##뺐
##숙
##눌
##둥
##견
##묘
##i
##r
##h
##챙
##흐
##최
##널
##종
##봄
##씬
##접
##닥
##응
##탄
##놀
##디
##워
##귀
##송
##퀴
##냠
##챔
##될
##힘
##잖
##I
##캠
##잼
##잉
##향
##팀
##욕
##웃
##념
##댔
##죠
##꺄
##츠
##액
##쉐
##닦
##위
##듯
##풀
##꼭
##끼
##잣
##볼
##판
##멍
##d
##c
##앤
##온
##솔
##택
##n
##족
##입
##엔
##넓
##난
##슴
##김
##규
##척
##알
##s
##t
##셔
##농
##j
##왓
##E
##N
##o
##y
##슬
##칙
##놈
##특
##례
##잭
##범
##샘
##칸
##킹
##많
##죄
##롭
##혔
##괘
##씸
##빛
##퀘
##턴
##후
##좋
##침
##렀
##꾼
##꿔
##몾
##믿
##된
##빡
##셨
##콧
##핑
##탐
##끄
##v
##누
##똥
##콥
##엄
##싫
##x
##럽
##품
##환
##싸
##익
##커
##메
##존
##초
##또
##u
##총
##현
##떼
##겁
##텐
##텍
##앙
##큼
##됩
##름
##혜
##땜
##읍
##삭
##냥
##숨
##왜
##랄
##천
##찍
##쌍
##털
##녀
##맛
##편
##랰
##랍
##찬
##쿡
##픔
##닫
##림
##축
##늘
##별
##찾
##꿀
##툴
##획
##갓
##률
##L
##쾅
##틀
##졸
##광
##닭
##탘
##윈
##넼
##춰
##똑
##D
##봉
##길
##능
##립
##셈
##폰
##녓
##담
##닐
##복
##엇
##징
##곡
##폐
##럴
##철
##늠
##뿌
##맹
##찮
##됀
##찰
##완
##얀
##악
##블
##셉
##돌
##욬
##솟
##울
##젓
##얔
##딱
##골
##랐
##낙
##넣
##련
##뎈
##줬
##늦
##뀐
##슨
##층
##렐
##뜬
##멱
##뵹
##콘
##탈
##퇴
##황
##풍
##롱
##젼
##꼈
##몸
##빵
##쇄
##b
##f
##펴
##페
##냨
##둘
##첨
##왠
##폭
##졌
##댑
##뜨
##럭
##막
##쩔
##잎
##즹
##씽
##잇
##뀔
##쳐
##섬
##덤
##쐬
##헬
##웹
##붙
##룰
##냔
##텔
##멈
##혹
##템
##잠
##싯
##율
##맡
##P
##꺼
##랭
##펀
##녘
##윗
##흡
##꼬
##싴
##뀌
##궁
##z
##륙
##탓
##섯
##갯
##탑
##긔
##껀
##츄
##십
##쮸
##룸
##힌
##낱
##앜
##릴
##빈
##덴
##쌤
##딴
##슷
##둣
##렴
##밤
##충
##측
##희
##쩐
##B
##콩
##릃
##쿤
##굽
##닳
##빗
##쿼
##몰
##끌
##맨
##렬
##삽
##V
##셧
##뿍
##덜
##햊
##켈
##웠
##낸
##쎄
##빼
##R
##덩
##씩
##곱
##컨
##샙
##써
##밌
##콕
##돠
##빌
##냼
##째
##쳤
##줌
##댘
##깽
##뤅
##킬
##융
##낳
##흉
##혁
##벨
##핸
##링
##좌
##꽃
##젠
##옄
##즌
##컹
##짐
##놉
##뚝
##및
##켰
##밖
##잔
##쿨
##띠
##w
##폄
##훼
##밍
##쓸
##욜
##벗
##겹
##쥐
##걷
##칭
##듀
##햌
##흰
##썹
##괴
##짱
##몽
##줫
##암
##묵
##닠
##근
##걍
##겼
##뒀
##답
##뜻
##겪
##첩
##렘
##깝
##얐
##쑈
##갤
##쌔
##봣
##됬
##쭈
##슈
##샤
##닙
##략
##싹
##쏀
##잃
##틸
##염
##졉
##쩌
##칠
##뚜
##뵜
##랫
##델
##넴
##믄
##퓨
##윘
##떡
##훌
##륭
##쪼
##렄
##걱
##넨
##뉘
##됫
##뚱
##옷
##옹
##굿
##빂
##껍
##촬
##돎
##잿
##딘
##띵
##짝
##갠
##뒹
##쉰
##숭
##룡
##좀
##읽
##냅
##릭
##옥
##낭
##렁
##삿
##팬
##웅
##젤
##즉
##객
##냇
##춧
##닉
##룹
##균
##셰
##셜
##쓱
##튼
##깨
##쿄
##즘
##캄
##쏴
##푸
##혈
##켓
##닽
##냉
##뽑
##G
##겐
##쏠
##컴
##꼼
##녔
##듣
##낌
##룬
##붤
##굼
##뱅
##푼
##높
##뜀
##뇬
##롣
##죵
##꼴
##홉
##됳
##믐
##팡
##랙
##참
##먄
##믹
##슥
##밑
##빙
##샠
##먀
##극
##팸
##슼
##첫
##쯤
##댄
##쯧
##읺
##뜯
##옴
##핵
##갖
##앗
##봇
##픽
##틐
##쏙
##늉
##뭄
##랴
##곰
##쑤
##쒀
##냈
##셍
##둔
##쉴
##컵
##맙
##핫
##뱉
##혐
##곤
##웜
##닷
##짤
##듈
##갚
##괄
##핳
##힙
##렌
##닛
##딪
##욯
##찡
##웡
##W
##틱
##힐
##헌
##쪄
##삑
##쏜
##눠
##삘
##깊
##샛
##닮
##앵
##퀸
##밋
##꽁
##뻘
##램
##셋
##쟈
##끊
##엉
##튀
##륵
##뉴
##씌
##뜰
##딸
##렷
##폼
##녹
##엣
##숯
##궐
##뎅
##긐
##갇
##덧
##뺏
##멸
##벅
##됌
##랏
##겄
##즐
##줍
##뒷
##뻣
##탠
##쏘
##쎵
##짘
##썸
##엌
##쎀
##옵
##쌉
##쁘
##찻
##꿈
##몬
##씁
##뻐
##떤
##횡
##쟤
##긋
##밟
##쑬
##콜
##굣
##홀
##퓰
##겻
##햏
##궂
##톤
##콤
##텅
##뺨
##뻡
##탬
##쫏
##찿
##탱
##겅
##훨
##밸
##윤
##렉
##릇
##깡
##옆
##뷰
##쟝
##잰
##뇽
##퀵
##숫
##볏
##짚
##괜
##쩍
##낼
##썼
##맘
##멘
##킵
##떳
##꾹
##쭉
##딤
##횽
##붹
##롸
##롯
##낀
##톱
##슌
##늼
##깎
##맥
##칩
##껴
##젝
##굉
##엠
##숲
##큰
##쌓
##엑
##흠
##썌
##릉
##J
##핍
##얖
##랩
##찜
##쉑
##춤
##톰
##칼
##묶
##눔
##쟌
##괭
##켠
##잏
##뷔
##넹
##껌
##텨
##뚫
##툭
##샀
##큐
##꽈
##첸
##렙
##뾰
##숍
##렵
##띄
##봅
##틴
##넌
##갬
##횟
##빔
##딨
##뻔
##둑
##찝
##첼
##샹
##섶
##댗
##뼈
##쫒
##턱
##흘
##릅
##녕
##롴
##놯
##챕
##녁
##괸
##딧
##늬
##텡
##펠
##벳
##씀
##쎈
##쩝
##쁨
##틔
##쉭
##튜
##닝
##뒈
##Y
##샵
##캉
##됄
##챝
##벤
##땐
##늑
##찼
##썩
##뜸
##뤼
##쿵
##낮
##겜
##뎁
##닄
##킷
##쉨
##챡
##듭
##캔
##닸
##흙
##섴
##딜
##뭔
##냘
##쾌
##땡
##먠
##곯
##멩
##낰
##늗
##붕
##춥
##눼
##뀜
##맄
##뱀
##곽
##멀
##샌
##끈
##욱
##뛰
##뱔
##짖
##팰
##룝
##켯
##웽
##쌌
##뻑
##츱
##쨘
##빤
##뇌
##Q
##쌰
##쵸
##꿉
##죈
##밨
##뤌
##걀
##룩
##쳦
##쉽
##윙
##짆
##엥
##핌
##끔
##꼰
##흑
##솥
##뎠
##똘
##콛
##듹
##껅
##킥
##앉
##펜
##묻
##댈
##뺄
##뼛
##낫
##밭
##쨩
##뽀
##뮬
##낄
##컬
##럿
##얄
##팍
##짧
##밴
##갸
##읒
##궉
##잌
##겸
##뮨
##앨
##젔
##썰
##섰
##톡
##츤
##Z
##븥
##탔
##둡
##쁠
##렝
##엽
##얹
##욧
##붓
##닣
##낯
##홈
##흔
##밎
##넬
##녠
##싱
##갹
##뎨
##왑
##밝
##둠
##쩜
##렛
##겡
##룽
##쯔
##옶
##돋
##밬
##즁
##팽
##엎
##귄
##겉
##굳
##껐
##쨋
##맵
##튕
##팜
##왈
##햄
##쓴
##닿
##톨
##돔
##좃
##됏
##릎
##욘
##윽
##쉥
##놬
##냄
##얌
##욥
##윾
##놧
##쉘
##뤄
##빅
##핏
##밉
##딕
##벼
##숸
##퀄
##꼇
##졋
##뜩
##뽕
##쎼
##퇘
##삐
##핀
##듬
##덮
##짠
##뎬
##늄
##덥
##잽
##튈
##슙
##맣
##큿
##밧
##쩡
##벙
##뎌
##볶
##헣
##흫
##엨
##헝
##틈
##놋
##앓
##댕
##셸
##몫
##힝
##끠
##옮
##쎅
##웟
##켄
##슘
##갰
##툥
##곶
##횝
##땍
##샬
##댸
##낵
##쌩
##쳔
##덱
##뿔
##쇠
##핡
##훔
##뭘
##룻
##뻥
##꺠
##툼
##뭍
##팎
##츙
##췄
##쿰
##젖
##튐
##욍
##좡
##뫅
##눞
##쉈
##셤
##늙
##뺌
##듡
##읃
##씮
##쨔
##뵤
##솜
##샸
##뿜
##깅
##꼽
##옌
##씹
##렏
##뭥
##빚
##뎐
##쓔
##띨
##젯
##샊
##넝
##듵
##콴
##겓
##챈
##앟
##읂
##퍽
##펫
##랗
##꺾
##낑
##챗
##촛
##떵
##깁
##촐
##깰
##댜
##윌
##큭
##탭
##빻
##튬
##캬
##눕
##궤
##쒼
##샷
##찟
##팤
##딥
##읔
##셕
##넽
##텟
##땀
##렜
##붇
##쟎
##킴
##쒸
##즙
##솝
##앴
##뎀
##셐
##옭
##읻
##쏟
##뉨
##듴
##짇
##겈
##턀
##즣
##욤
##삶
##랔
##갗
##쥇
##잤
##꺽
##췬
##얏
##웁
##큇
##봍
##셩
##앱
##캡
##좆
##궄
##좁
##솤
##멕
##렠
##뚤
##똬
##륨
##쥑
##짬
##혓
##겧
##샾
##깉
##쳣
##딬
##읰
##탯
##넥
##넵
##쌈
##팥
##랖
##쫓
##섀
##뗬
##졔
##쌘
##랸
##떄
##엤
##짏
##쐈
##쑥
##킁
##봨
##퉤
##젊
##됔
##꿰
##몹
##햐
##숴
##졐
##웤
##쨰
##붑
##햤
##쳇
##닺
##폴
##띳
##깠
##띁
##댱
##끗
##싄
##믈
##큨
##헀
##콱
##뛴
##졍
##쥘
##긱
##잪
##햔
##톳
##펼
##펄
##끓
##낟
##찹
##팝
##랟
##빜
##귈
##틋
##홰
##늣
##찔
##촘
##죸
##썬
##풰
##빕
##짴
##묜
##쵼
##뺀
##맏
##윰
##덬
##랠
##멧
##읈
##퐁
##갛
##꽤
##둰
##웧
##멤
##곁
##끅
##굶
##둗
##덨
##옳
##뫼
##웬
##텝
##쮠
##힉
##뵙
##맀
##먕
##앖
##쫑
##놰
##싣
##빽
##툽
##숩
##슦
##톄
##흒
##헠
##뻤
##헥
##뉵
##켬
##냬
##푹
##봏
##웰
##윳
##쨌
##뮴
##껑
##셥
##뭇
##뿡
##팟
##빸
##맸
##쎴
##빱
##궘
##띤
##펭
##밈
##곈
##둴
##숰
##땔
##뤗
##핬
##쪌
##즤
##겔
##땄
##뤽
##헛
##긁
##퉁
##킄
##돗
##븨
##븅
##뉸
##켤
##옛
##롹
##뱃
##낚
##넫
##뙤
##끙
##튭
##곪
##컥
##곘
##돕
##텃
##맜
##꾬
##퀼
##흩
##틩
##릐
##눜
##쌜
##딛
##듪
##깜
##몀
##옼
##땬
##돨
##녤
##쎌
##쎘
##궠
##짹
##덟
##펩
##꼐
##몃
##읅
##댁
##냑
##쫙
##쭐
##귐
##뽤
##죤
##찤
##슛
##앀
##왐
##섞
##졎
##꽉
##챵
##룐
##헡
##쟉
##몐
##쿽
##촨
##뱄
##큘
##젋
##멊
##솄
##킅
##졷
##긌
##땽
##윕
##뼉
##왲
##풋
##싢
##샎
##꺊
##끍
##깕
##젱
##벡
##볐
##갘
##쌕
##짗
##뭉
##핥
##냌
##얕
##벰
##밫
##쓥
##곗
##캪
##썽
##듦
##엡
##꼿
##벱
##뻬
##돜
##꺔
##쯱
##읎
##볹
##츰
##맬
##윷
##뎉
##겍
##뭣
##궜
##뎄
##헷
##쭛
##겎
##뺑
##겕
##엏
##깧
##퓡
##샐
##홧
##믜
##샅
##뭡
##땟
##뻗
##깟
##덲
##쉔
##쩨
##폇
##뽄
##땃
##핼
##멌
##씻
##밷
##곀
##칵
##땩
##슐
##햬
##뤠
##켘
##딫
##슭
##츨
##폿
##씰
##깋
##랃
##듷
##닯
##걐
##삥
##볕
##겆
##튠
##휩
##껜
##딹
##띡
##쬬
##빴
##냒
##붅
##넸
##뗄
##훅
##훜
##뺭
##맷
##몆
##뀨
##궇
##숌
##샥
##왤
##헙
##덯
##욌
##긕
##됰
##챀
##빧
##뽁
##팻
##펌
##맟
##쟜
##잦
##푱
##샨
##곙
##낍
##혠
##켁
##렿
##튄
##횐
##릍
##캍
##짢
##뷱
##벵
##뱐
##붐
##텀
##펏
##셴
##볌
##헹
##넉
##엮
##슾
##좉
##낡
##쨈
##헸
##륀
##쭞
##븜
##숏
##슝
##힛
##큪
##껼
##깈
##쮜
##똔
##븍
##켐
##큠
##읁
##읹
##릌
##앰
##헨
##옿
##헧
##꿎
##쪗
##솨
##줙
##캘
##졈
##싿
##뚯
##먈
##붉
##핝
##촙
##빰
##앸
##뺴
##홬
##뗘
##굠
##옇
##헿
##걔
##넛
##캇
##푲
##겝
##챠
##쿸
##펐
##킈
##잫
##닏
##콰
##쎔
##맠
##뮹
##팁
##섲
##걈
##쎠
##잨
##멓
##쉼
##뮌
##짛
##힣
##첬
##졓
##챌
##븉
##엾
##푠
##돤
##댬
##벞
##겂
##섮
##옜
##앋
##읶
##샜
##쟄
##숟
##줏
##읋
##컸
##셮
##뀪
##얇
##깇
##놑
##둿
##깼
##섺
##귤
##꿨
##겋
##걋
##깆
##훗
##돳
##겤
##읜
##왰
##좽
##맴
##봬
##웆
##뜡
##뱁
##볻
##놐
##얍
##엊
##켸
##칀
##뺠
##캥
##눅
##럈
##듸
##냰
##곺
##땈
##젵
##륔
##됒
##퐄
##셬
##긷
##줰
##폈
##빩
##깄
##깤
##흏
##줚
##얶
##겢
##섕
##챘
##쾨
##뙨
##쫗
##꼤
##짞
##퀀
##죡
##썅
##쁀
##팹
##껭
##왭
##탖
##뢀
##쐥
##됴
##잆
##흣
##뺘
##흄
##꼮
##탆
##큌
##킼
##헉
##땨
##뵐
##볋
##덛
##깓
##삔
##쥔
##홣
##껫
##굔
##탰
##욋
##겦
##챱
##몈
##깥
##궛
##챃
##뱓
##뗀
##왘
##잟
##췌
##핧
##홫
##햡
##핞
##뤀
##흼
##캌
##춉
##텁
##꽥
##릳
##쾡
##뉠
##꾤
##륑
##밣
##늨
##곻
##얜
##숑
##왛
##쉅
##궹
##엫
##뎋
##꿧
##줗
##쑨
##빳
##밞
##쒞
##셒
##럾
##걑
##줠
##옘
##쪙
##꿍
##쳬
##줔
##쏭
##쥤
##쳌
##뻇
##뭏
##잗
##팠
##쫘
##촏
##탷
##돚
##왱
##붛
##줭
##꽐
##눀
##귝
##롷
##짼
##뼜
##굵
##앩
##듓
##뢔
##덷
##쑵
##텈
##튤
##킸
##짒
##챤
##얽
##뽈
##뉭
##핰
##듳
##빋
##콌
##떴
##좍
##캤
##됃
##앍
##뀝
##켔
##띰
##땠
##챁
##쟘
##뫀
##큽
##죳
##캅
##릠
##싀
##뚣
##깻
##졵
##쒜
##햣
##옻
##괞
##썜
##끽
##짭
##뇟
##딍
##삡
##왁
##읉
##듐
##웩
##쏨
##뫠
##슉
##쳑
##땤
##탤
##뙇
##땸
##쯘
##뫄
##즛
##꺌
##븀
##뉰
##웾
##웈
##눤
##쬐
##닊
##뱜
##엍
##칮
##뷴
##힠
##옢
##왹
##첢
##뇠
##휜
##햅
##늫
##숄
##봈
##솹
##귘
##헍
##숔
##앐
##믁
##칟
##훙
##씐
##븟
##싳
##꽝
##촤
##덫
##댯
##륌
##됭
##꺜
##넿
##괼
##륐
##렂
##늴
##꺅
##풉
##쭘
##듄
##횔
##싰
##갳
##슫
##죙
##갭
##쯥
##넜
##숱
##굌
##껨
##얺
##늪
##롄
##캨
##멬
##첮
##컫
##걌
##봘
##쐐
##꿋
##앆
##뤈
##쉣
##핽
##뎡
##헜
##읠
##햘
##뼤
##멎
##끡
##샄
##홓
##옽
##듕
##짰
##밪
##젏
##늕
##랕
##퇄
##괵
##뒜
##젹
##쳥
##꼌
##눳
##칰
##셌
##뢨
##뇰
##팄
##쑴
##멐
##끕
##럐
##텬
##돵
##젛
##뽐
##쨐
##꽦
##뷸
##뱡
##텼
##춸
##톩
##픞
##묭
##펍
##녂
##샆
##쎳
##뮈
##씯
##샴
##럑
##껰
##짔
##홯
##켴
##봫
##쥴
##랳
##괌
##눴
##껒
##돞
##쫀
##휼
##얗
##쌧
##낏
##쥰
##쑹
##싑
##맑
##뭌
##넙
##앚
##꿇
##읙
##냡
##쿜
##욭
##휠
##췃
##컅
##탸
##턐
##컼
##씼
##컾
##찭
##텦
##졀
##픅
##럄
##갂
##웍
##쁩
##낲
##몿
##쟨
##뿰
##눰
##윅
##퐝
##곌
##싵
##눙
##맍
##쯜
##쏫
##엻
##긜
##냗
##뭬
##솖
##꾜
##샫
##댲
##챸
##샋
##씤
##슻
##삤
##뽱
##붜
##숼
##댠
##쿱
##촟
##냦
##멵
##팈
##쨉
##틳
##셯
##큮
##꺆
##흨
##젰
##얒
##뺩
##딲
##딈
##핦
##꾈
##됼
##넋
##듁
##볗
##컄
##텉
##곴
##삳
##싞
##즥
##쪜
##쭝
##뜼
##븓
##벚
##쉡
##솏
##낒
##촹
##쉙
##맊
##뫘
##짯
##꾀
##퐉
##싷
##챽
##쒥
##엵
##젬
##핮
##츕
##혬
##쥭
##갉
##늡
##첵
##믕
##냣
##뿅
##랼
##읗
##둛
##쉛
##뒓
##썪
##옐
##됙
##젇
##줃
##맆
##뵀
##쵹
##샏
##쇆
##럇
##럷
##떰
##눟
##꺙
##눗
##춴
##짙
##싧
##읭
##췍
##뷀
##휄
##췕
##뷇
##휇
##쌬
##뇻
##돴
##콸
##뾱
##낞
##렼
##떙
##뿟
##섁
##턺
##븡
##뎔
##쥡
##좇
##뭅
##쪹
##낃
##줒
##튱
##갺
##띸
##햑
##쨕
##냫
##붗
##숀
##읏
##픜
##슶
##짊
##틉
##핟
##떈
##뉜
##뽜
##닜
##뗔
##좦
##옫
##쐅
##낢
##웝
##렆
##씅
##릏
##귓
##혖
##첝
##넺
##뛸
##젲
##벻
##뺼
##뒄
##쭁
##쌨
##홋
##걩
##풒
##툿
##톧
##씝
##퓌
##넦
##춌
##땁
##짌
##뒝
##셱
##댴
##툇
##톈
##푯
##슺
##쩧
##툐
##랚
##잋
##롐
##늅
##뼝
##쎃
##쵕
##줆
##쓌
##땋
##펨
##놘
##핔
##띔
##긻
##퍈
##엦
##잴
##먿
##믾
##훟
##힇
##젚
##줳
##벋
##쯩
##껵
##꿘
##쳡
##듼
##쥽
##얙
##댇
##넠
##퇶
##귾
##닚
##긓
##츸
##쓕
##엙
##놌
##쎗
##퉵
##뗐
##꺵
##깖
##낔
##낕
##먗
##챜
##걵
##챦
##섷
##찧
##쒴
##늩
##뿝
##켭
##쨜
##왴
##뜽
##앎
##쾐
##뷕
##촵
##앂
##랅
##녈
##땝
##혘
##씋
##칞
##컈
##곷
##뤔
##줜
##봌
##꼵
##됍
##쟞
##뗏
##쯪
##맗
##뚬
##앳
##둟
##뱌
##탇
##깬
##퍠
##욷
##띃
##멨
##쀼
##챳
##뼘
##듫
##횃
##숵
##냍
##촣
##얿
##쭊
##꿂
##랒
##돸
##췡
##죻
##닢
##팗
##곂
##녴
##옺
##릫
##쫩
##퐤
##캏
##놇
##쇅
##끐
##볘
##띕
##캑
##큵
##뙥
##쭤
##뼌
##봠
##픗
##콯
##콭
##뫃
##띈
##귑
##뢋
##뚭
##뎊
##햝
##컁
##웂
##겾
##넄
##삯
##얬
##좈
##뼁
##솊
##넑
##쇽
##뭨
##풜
##톼
##핣
##깸
##쬼
##빟
##셖
##첲
##뤱
##쯕
##뉫
##멷
##뗴
##붖
##괙
##헳
##솓
##쌋
##뉔
##뺙
##끘
##꺀
##휸
##똇
##렺
##퐈
##봥
##듲
##쫭
##띾
##먾
##뮥
##깒
##뒙
##헑
##튘
##켱
##쵝
##얷
##륍
##쭬
##끆
##귺
##팧
##굑
##갞
##욪
##뫈
##맚
##텻
##돛
##췅
##꿩
##뛀
##쪘
##핷
##혽
##훰
##믇
##샂
##잍
##쭌
##밦
##읮
##맂
##팼
##짋
##챼
##퐌
##샇
##륩
##뢱
##슿
##퍄
##잧
##굨
##쌖
##냧
##퇵
##귴
##윸
##쐇
##괔
##뉑
##쌑
##댛
##랋
##쉒
##폨
##갼
##헴
##낗
##댝
##럳
##꾁
##됑
##츼
##렣
##롫
##꼹
##꿿
##랲
##깢
##먻
##릋
##쨚
##늛
##뱍
##싥
##쩖
##픕
##쳉
##쓉
##솧
##텋
##츌
##웕
##쒹
##큡
##붊
##넧
##츷
##츞
##긑
##뜹
##녿
##냤
##좨
##뱩
##욿
##룔
##좠
##봗
##빢
##똫
##젆
##댖
##즴
##륽
##텤
##앏
##흽
##캊
##큅
##쟐
##몪
##슁
##읐
##탉
##뱨
##탙
##튿
##퓸
##풔
##웋
##툅
##샣
##킫
##햭
##얃
##섻
##럤
##톅
##떽
##돟
##렊
##늰
##닪
##닶
##귁
##넒
##굡
##쨀
##죌
##댷
##헼
##쌥
##삸
##뤡
##퍀
##롲
##껠
##벐
##쌞
##뤕
##빝
##죗
##틑
##룟
##갲
##뽠
##팃
##믓
##읓
##뗜
##컿
##퐐
##쓒
##큥
##냪
##읕
##긿
##룁
##놜
##닁
##삠
##쥼
##헕
##묀
##껔
##썎
##앇
##휙
##뇸
##햛
##횤
##꿁
##쿧
##밯
##맢
##쫛
##싮
##옅
##녆
##탹
##띌
##믠
##쎕
##룅
##탂
##찅
##쾈
##줟
##핤
##줴
##몌
##줮
##껸
##홐
##툻
##쉇
##짫
##쬽
##텰
##뱝
##앛
##쐉
##곹
##섵
##뽝
##쉤
##뢈
##윜
##젭
##녇
##셁
##첟
##뗌
##놁
##켙
##봡
##햿
##볔
##슲
##썁
##찓
##엓
##삣
##싾
##똣
##걘
##홱
##훕
##훞
##솼
##탴
##섂
##뮐
##끜
##듨
##굇
##뷹
##씆
##뀬
##늏
##뺜
##챴
##솩
##쉾
##닾
##댣
##욽
##돱
##곬
##륫
##굥
##옞
##샟
##넻
##궝
##즂
##혇
##죔
##눵
##롥
##휀
##쎜
##퀐
##늧
##돻
##흭
##퇏
##긧
##헊
##벝
##퓔
##뿑
##륄
##꿻
##꿃
##옸
##롮
##솬
##떢
##옱
##솦
##뒴
##싡
##붘
##풑
##똗
##젺
##볓
##븰
##빪
##힞
##읨
##뽂
##굯
##웪
##좟
##퓽
##췝
##흴
##핲
##뀠
##퇬
##벖
##튴
##츈
##앲
##끰
##꽹
##씪
##뵥
##옦
##흎
##륶
##쪅
##띻
##죷
##엋
##갆
##룈
##곩
##킽
##즏
##톹
##돰
##쒕
##쑐
##듥
##쩬
##곜
##똠
##윂
##긎
##뿽
##뻰
##뙬
##횅
##먐
##쵠
##궙
##뼐
##퍌
##쪾
##쇤
##씾
##푤
##맇
##롔
##쭨
##밐
##븃
##킝
##쀽
##넞
##뗫
##킌
##젃
##겴
##흟
##몄
##벧
##콬
##좔
##쟙
##흦
##걻
##읬
##떔
##혤
##캽
##컽
##숮
##꽠
##햠
##뺕
##푴
##렢
##곃
##횩
##뚠
##뷁
##앝
##츀
##쿳
##걽
##갴
##떅
##꾠
##넚
##깞
##죰
##떗
##쏳
##뭊
##뤁
##쫴
##뚹
##헭
##뛔
##춬
##괂
##삉
##렦
##튽
##밮
##뙈
##돘
##빘
##쥠
##벹
##쇙
##톷
##쭙
##뒵
##즬
##퀑
##꿏
##퓬
##벜
##빆
##럥
##얅
##찳
##륿
##넗
##뻫
##좯
##큄
##렋
##렑
##끚
##펰
##틷
##랂
##쟼
##섘
##돝
##퉐
##읖
##뤤
##줸
##쾀
##읊
##롼
##믙
##땰
##솛
##얂
##긬
##쳈
##젴
##곅
##꿸
##룜
##힜
##긇
##찎
##뀰
##첰
##쥉
##죴
##쉿
##엪
##귱
##볜
##쨎
##헞
##릘
##됻
##먽
##봑
##랇
##젙
##쩼
##쀠
##뿹
##솅
##눨
##룀
##뀄
##엢
##떱
##엲
##끏
##훤
##뱗
##캭
##쎡
##닞
##춭
##맼
##깩
##갥
##죱
##굄
##댭
##텥
##쥥
##둉
##뢍
##삵
##뤃
##뵉
##챨
##삻
##쩟
##귬
##흌
##퉷
##끤
##뺍
##묄
##휑
##퉥
##얨
##푝
##떧
##뵨
##긤
##뵌
##뎟
##붂
##릊
##롁
##줐
##뜌
##덢
##쒈
##잛
##볭
##옂
##첪
##퀠
##웛
##씍
##캈
##쟴
##톽
##멉
##춯
##섣
##뉼
##끛
##줓
##숳
##녛
##굻
##뚀
##뎇
##홥
##뀟
##붭
##뺃
##츳
##퉈
##첯
##짪
##룠
##쉻
##럅
##쳄
##귷
##딉
##탛
##몁
##쟇
##뒘
##귔
##뜷
##훋
##쩛
##뭋
##쑝
##큔
##졘
##걥
##읇
##뜁
##샢
##쪕
##줁
##잮
##쳋
##쑌
##낓
##웑
##븝
##텄
##쿺
##혆
##잙
##읿
##휰
##턋
##늟
##긏
##꿑
##멫
##윔
##춮
##겊
##톔
##뗍
##쇡
##얠
##긘
##귣
##칬
##큉
##쯰
##앾
##횰
##닻
##짦
##릔
##럮
##쇳
##헁
##뢁
##곥
##봦
##혝
##얳
##뤨
##뽘
##윱
##귯
##쁭
##륻
##춫
##쉉
##밗
##닲
##싦
##췁
##꼅
##롕
##쎁
##욛
##륹
##욀
##틎
##쏩
##즵
##틍
##욮
##즠
##딳
##꼣
##붌
##읷
##뭰
##홭
##톀
##텓
##닟
##뺸
##혴
##졑
##썖
##섥
##툩
##벷
##걉
##켝
##뼙
##퇸
##짍
##뒸
##맅
##퉅
##녑
##솀
##솽
##퀰
##뫌
##갌
##룪
##셑
##쏱
##뇜
##핶
##픂
##쌎
##캰
##퀫
##뫗
##퉹
##덙
##팓
##췻
##궷
##픙
##햫
##얭
##윟
##싲
##짉
##춛
##깦
##뫕
##굷
##똒
##굈
##뫁
##폽
##뎍
##똴
##쵀
##틒
##혱
##젷
##붚
##쁫
##윝
##흗
##둙
##쫨
##덞
##풴
##쎾
##덪
##딝
##욫
##렩
##쐑
##횬
##껬
##잒
##긪
##곕
##싓
##닡
##랮
##훝
##틓
##뿧
##섿
##혿
##꼳
##쳨
##갋
##릈
##숐
##쇟
##쟡
##썋
##푿
##뽛
##웻
##쩃
##좭
##쫔
##뒨
##괠
##훑
##귕
##뀩
##벆
##굤
##췰
##뱤
##쎆
##믽
##렅
##웊
##븈
##짲
##샡
##뎤
##옝
##캎
##쨤
##엒
##뮷
##츔
##쪔
##멁
##퀙
##혲
##샦
##놤
##꿜
##츜
##쮝
##쩄
##쭵
##슩
##줩
##떸
##먺
##펔
##죧
##꺈
##욨
##뜃
##끾
##웄
##놕
##뗑
##핆
##줅
##퇼
##샑
##헱
##띿
##뎆
##쮼
##듧
##걖
##왝
##긩
##렭
##굪
##벍
##톶
##뺵
##붠
##쩕
##닧
##쀌
##퀭
##꽛
##딀
##톪
##팉
##겇
##깹
##눚
##궸
##윻
##줨
##햰
##봔
##짃
##끨
##춱
##젅
##뜝
##잚
##쌴
##벴
##빞
##힡
##뱈
##됟
##췹
##쀄
##썐
##빺
##춣
##쳘
##홑
##뛕
##옙
##뭫
##쳫
##귇
##뜍
##긄
##힏
##쬭
##싨
##붸
##헗
##댤
##엳
##킾
##룾
##냏
##싘
##릵
##앁
##뷉
##룤
##렫
##옯
##혂
##씜
##읩
##뵛
##굘
##슄
##쭸
##뜾
##춟
##줈
##숖
##쇸
##톸
##걕
##뗭
##읾
##읆
##픨
##씺
##웱
##꽌
##쩢
##웦
##짶
##갟
##쏼
##꼉
##훽
##끉
##돩
##꽇
##릂
##툱
##꺟
##욖
##썾
##딿
##젣
##앑
##돓
##룍
##겷
##썍
##턍
##욝
##껗
##몋
##헚
##뇐
##빭
##튁
##뢜
##덈
##멥
##쩦
##솎
##꼄
##죜
##춠
##첳
##걓
##씃
##켕
##딷
##꼍
##찣
##랱
##팙
##솁
##꿹
##뚥
##쥈
##셓
##괬
##롰
##귻
##슆
##릾
##뀡
##롳
##쳊
##굫
##낅
##좒
##봊
##븽
##씟
##씈
##쯴
##쓀
##켑
##봒
##홮
##쁼
##췈
##맃
##핱
##뤸
##벸
##뛱
##솸
##똨
##햨
##퍙
##벫
##뿥
##잀
##윧
##럻
##뻄
##쬘
##쯍
##릁
##뻖
##듩
##봭
##뷘
##싁
##괏
##쨟
##힄
##릀
##홁
##툲
##묫
##웥
##쁝
##쟀
##촥
##둭
##뷩
##탣
##칯
##쯈
##욵
##똡
##즎
##귿
##췽
##폑
##렧
##옠
##밢
##꺗
##퇀
##쏵
##꾺
##펵
##츧
##찯
##둊
##뙁
##쳅
##잕
##횠
##쾤
##챰
##쪈
##헯
##뢌
##쥣
##텊
##싕
##젿
##걜
##씄
##쳒
##챂
##뫙
##딯
##뺶
##낐
##챺
##훉
##궍
##퍔
##웼
##싟
##퉜
##긯
##킇
##앃
##맓
##둌
##걳
##긛
##롵
##옾
##픟
##벶
##뭀
##녅
##줝
##즞
##궆
##몱
##텂
##윶
##뤰
##쒝
##첞
##좩
##쇜
##갣
##쌸
##뢸
##봙
##넎
##붏
##픠
##칝
##붆
##곢
##솢
##읯
##묙
##퉛
##밳
##햟
##쥳
##삲
##앢
##퉬
##밠
##꽙
##띱
##뜅
##끋
##왚
##겣
##뢴
##쉌
##훓
##겵
##윹
##꼥
##줯
##좤
##짂
##횸
##긒
##갿
##떩
##깪
##옃
##벟
##줉
##칑
##뭁
##쬰
##왉
##좐
##퐂
##먑
##룯
##퐨
##죕
##뤳
##쬡
##쉞
##췟
##룢
##뭃
##엗
##똮
##읫
##갅
##왂
##빶
##헵
##킐
##욉
##렞
##꽄
##춡
##춍
##뉩
##탍
##쇗
##훡
##됝
##춐
##쒓
##춈
##됸
##폔
##낧
##뷍
##쩅
##뻨
##잜
##샒
##랎
##섟
##헔
##뚧
##먁
##슸
##홎
##붱
##궅
##쓺
##왯
##뛣
##녰
##쪵
##궨
##덣
##붔
##죅
##큳
##홤
##몯
##뿠
##넾
##걁
##밓
##텆
##쓤
##랓
##쉫
##럵
##밒
##쟂
##튶
##빍
##퓩
##엯
##룱
##촜
##퐛
##짣
##뚁
##섧
##덋
##꽑
##솰
##햙
##쌱
##얓
##껃
##뺫
##꼊
##힟
##켷
##낤
##웓
##탼
##뫜
##걹
##쨴
##흛
##볒
##끵
##씿
##롶
##댙
##팦
##쑀
##륾
##낻
##갏
##탵
##쎤
##싆
##죹
##쩗
##벉
##엃
##멶
##싈
##뵘
##넢
##봆
##쁴
##렓
##즋
##흓
##픋
##둦
##휵
##쭭
##닑
##쎙
##앺
##괗
##릱
##쁍
##쩁
##핻
##퇙
##왙
##팢
##퓻
##굮
##냙
##핛
##볷
##웉
##붬
##덖
##솃
##푀
##홪
##쓋
##짥
##팘
##쀨
##쫃
##솕
##훀
##뢕
##넖
##쨓
##롈
##웘
##훵
##놥
##틜
##쬥
##혭
##톻
##휨
##쭟
##꿓
##냿
##샼
##쒔
##뭠
##롑
##몼
##볠
##킺
##젘
##뵁
##푄
##썠
##몴
##쉳
##칌
##엧
##쩠
##륰
##굦
##뻴
##햋
##켇
##렡
##괁
##훍
##끎
##볽
##싖
##셂
##똭
##뜜
##촴
##웸
##봽
##쥅
##뒐
##줼
##젂
##긂
##둨
##랈
##뽭
##뷋
##잲
##낋
##뀍
##롻
##갫
##퀏
##쮹
##셎
##걾
##췐
##캴
##굲
##늽
##붍
##걼
##쨲
##퀜
##믱
##쿌
##냩
##밚
##꼏
##잢
##랉
##먜
##뷮
##꺘
##쐭
##쌐
##겱
##뇄
##뇡
##팒
##븤
##넁
##뭦
##뷜
##짅
##꺤
##쉠
##뀷
##댚
##촀
##헏
##럯
##믑
##깂
##떫
##쇣
##쉧
##갵
##찏
##퉄
##좜
##뿃
##섔
##뻿
##쬑
##빯
##졲
##헒
##뮫
##엷
##턔
##큣
##뭈
##죨
##칡
##맻
##쁙
##럣
##뉀
##븬
##짵
##묾
##쯀
##촪
##껙
##뇁
##죺
##괐
##흿
##뻩
##돇
##쉓
##뎝
##쐰
##벲
##뻠
##첑
##셇
##샓
##넟
##낝
##쒁
##췩
##촠
##퍅
##쫍
##겫
##꽆
##럌
##쐒
##캿
##옧
##븏
##뿨
##큻
##쮭
##삮
##췔
##뤙
##쵤
##굚
##씔
##뿤
##뚴
##춋
##쨥
##썟
##꾱
##럸
##벓
##젉
##낥
##쿙
##틘
##푶
##긹
##펖
##쁏
##띀
##즨
##핃
##윋
##쟛
##꺍
##멒
##떪
##혛
##쟸
##칲
##쾽
##갃
##옉
##툌
##롡
##몡
##좂
##넶
##읟
##휗
##폥
##옰
##뱛
##릷
##웒
##놩
##덀
##텸
##뮼
##윿
##욲
##뫔
##낶
##딋
##뚦
##풘
##꺴
##둞
##쀵
##뱆
##뇹
##뱋
##괍
##맔
##럶
##녙
##찱
##겒
##륲
##짳
##즇
##뚸
##쎽
##욹
##쇌
##캵
##묑
##둧
##녬
##롓
##켛
##좢
##깵
##싻
##벘
##앻
##퐅
##벺
##쵴
##떯
##닰
##좄
##럱
##덍
##궃
##됗
##푭
##먛
##칱
##샗
##꾾
##놴
##겮
##쫐
##쟠
##륏
##쭠
##츛
##밲
##힒
##뻉
##휏
##쉩
##룧
##궵
##젒
##꿐
##맋
##뿕
##쉟
##췼
##컇
##샿
##윁
##슧
##뺚
##댰
##퀻
##웇
##쳠
##팣
##겙
##긲
##쎱
##궯
##뗙
##릮
##벑
##뵬
##썀
##묠
##왆
##텹
##얾
##뜐
##잩
##얫
##곋
##봩
##닩
##찲
##풐
##뱇
##늖
##캮
##괖
##깛
##삷
##횻
##뉍
##핚
##칍
##쥨
##턷
##궭
##뤫
##렾
##휫
##쭀
##촞
##솈
##쁑
##즟
##됮
##큩
##푁
##쒘
##얩
##쏔
##넏
##꾿
##캼
##풂
##죚
##뽬
##밹
##픵
##궬
##뢐
##룿
##힑
##뮜
##랆
##껕
##긼
##릥
##꾳
##뽓
##붰
##췸
##퍝
##솉
##쀍
##욼
##뗳
##윚
##핓
##웞
##땓
##뒺
##콫
##뇅
##쒰
##춚
##퇍
##럲
##킆
##퉌
##럏
##킉
##풓
##껩
##춏
##팑
##둫
##찷
##젗
##햍
##섩
##삧
##쳧
##쉪
##뿛
##홛
##돡
##찥
##뷃
##놂
##뢩
##쪟
##폌
##늿
##꿤
##퍵
##뀹
##둇
##샞
##큑
##뫂
##셪
##셫
##굗
##풩
##칧
##쫟
##쨱
##믘
##앧
##꿕
##늭
##튵
##낛
##쭃
##쮀
##쪠
##뀅
##쇈
##텇
##픀
##늌
##듰
##퓹
##휭
##냊
##쮤
##쟆
##둼
##쟣
##퓐
##튝
##얪
##좝
##괒
##첤
##힁
##뒬
##뒁
##묹
##뺒
##땢
##궥
##괃
##퇫
##먖
##퉆
##쨬
##쩘
##훃
##닍
##탚
##쒑
##붝
##낂
##렪
##엶
##팕
##삱
##곚
##뮛
##겯
##겳
##쟬
##츶
##퉝
##뿓
##녾
##븞
##걧
##떦
##퉂
##꾄
##룃
##꽅
##섳
##럔
##넡
##껓
##낣
##먘
##쯉
##묽
##떌
##훱
##틕
##뤂
##췤
##횢
##읳
##홴
##맽
##뤩
##뉅
##쿹
##씡
##폳
##섪
##쟏
##슠
##왇
##뛋
##쁟
##똟
##쓩
##쬎
##꾐
##럊
##돍
##꽊
##쓜
##뚵
##퐜
##뀤
##풕
##흤
##썄
##눍
##쓈
##뗗
##뢉
##믺
##쇱
##빇
##쩻
##숧
##퇑
##컀
##뮉
##섓
##쵁
##꽀
##늤
##뎂
##쑷
##싺
##틤
##꼻
##똿
##븎
##숚
##뚨
##퉸
##횓
##놎
##핢
##뇀
##홇
##잝
##펟
##떾
##돽
##뎦
##걿
##롞
##틁
##쑉
##밡
##혚
##켉
##쌯
##쌛
##섦
##칤
##묷
##쬔
##끀
##귭
##븧
##칳
##뚕
##긶
##됥
##녖
##뱕
##뷷
##핯
##쓘
##뽫
##깾
##춪
##졒
##뒫
##졳
##닋
##싚
##됵
##뻈
##씊
##쉄
##쫠
##츽
##쩹
##얊
##뭤
##쩰
##눃
##츅
##똩
##홅
##띙
##뀳
##줕
##첻
##몺
##밇
##혷
##궮
##귦
##댉
##볃
##밂
##욻
##늚
##쇘
##뵞
##얆
##뇩
##떘
##찠
##멮
##멏
##륟
##뒥
##릑
##랻
##늒
##혰
##쀀
##칄
##핗
##땧
##섨
##떥
##렃
##닒
##왖
##쁌
##흪
##싐
##샽
##킦
##흝
##잂
##벁
##뗠
##묏
##흳
##퍤
##텽
##톃
##봀
##붃
##쒄
##섉
##뾃
##뛟
##뛝
##뙓
##꽭
##쮉
##쒧
##슅
##걨
##덹
##튑
##힕
##녱
##풱
##싩
##뻒
##탏
##땉
##뭴
##핺
##쟹
##룄
##핖
##꺳
##엩
##듟
##곟
##눝
##뱎
##뵷
##멑
##뙜
##볾
##겲
##봟
##캆
##쇨
##쾍
##믯
##졨
##맒
##숪
##뇍
##풸
##풹
##쒵
##껚
##튺
##훊
##뚷
##졶
##찁
##팆
##듶
##쑙
##겿
##혯
##좼
##웳
##벯
##욈
##뺔
##놊
##뽞
##푷
##쒯
##쳰
##묺
##즷
##흇
##넊
##뾔
##릡
##펃
##옲
##쎰
##쿩
##둚
##츗
##픤
##읪
##욎
##붯
##뿬
##걲
##둒
##븕
##횄
##뜿
##눹
##덭
##봃
##좥
##꼷
##퍞
##꼨
##괕
##롘
##괅
##뻭
##죿
##잁
##탶
##굩
##쒱
##뻦
##쁄
##힢
##웣
##뎓
##됱
##휳
##샃
##쵱
##촷
##벛
##븋
##맿
##팛
##줱
##쾃
##풎
##읲
##킿
##훳
##픝
##깣
##퐥
##땎
##뙷
##뙛
##윥
##탲
##젞
##뀸
##썡
##읱
##뽥
##홝
##숗
##듘
##믆
##뚼
##윀
##껳
##뚞
##븻
##륳
##즄
##줋
##뤟
##긵
##춞
##뙌
##욳
##훻
##똰
##럠
##놛
##줂
##긆
##숡
##렻
##쐽
##쓍
##핪
##냋
##뒑
##걊
##븦
##묨
##띧
##쓹
##삾
##돾
##겚
##잳
##쥿
##헢
##둋
##툠
##걤
##긊
##벊
##빬
##꿲
##욐
##곛
##슯
##젳
##뵵
##딖
##쭏
##횹
##꺢
##빹
##퇮
##뢥
##꿱
##잓
##뎜
##쒭
##됢
##몊
##뼊
##욺
##둪
##돐
##몉
##퀌
##갍
##씥
##핒
##벩
##쩩
##걺
##뗵
##긥
##먆
##땆
##퇭
##쫜
##씞
##엱
##넀
##쿈
##뷥
##퉼
##뾸
##쓐
##춝
##얮
##쿫
##퉉
##섈
##죾
##샚
##낎
##얎
##쇵
##챷
##컭
##봋
##싪
##뀽
##뾴
##빾
##낪
##갊
##툉
##턩
##툊
##뷧
##삨
##궳
##챋
##뽷
##쏐
##궀
##폡
##뭩
##뽰
##뻪
##짎
##픚
##섄
##휍
##뜮
##쭂
##꽜
##땣
##쌂
##냎
##뵏
##촼
##픎
##뽚
##솑
##둄
##뭕
##섑
##놪
##겥
##턑
##쏬
##뭑
##귽
##뛓
##볅
##돏
##눽
##븁
##쐨
##쥦
##쬴
##쬮
##홟
##툑
##숤
##굱
##셛
##쫕
##쀏
##갷
##폅
##듑
##쉗
##멭
##뒛
##혃
##댂
##끟
##윖
##쀈
##젌
##씢
##씂
##섊
##딮
##앶
##셃
##쏌
##쮱
##핐
##틏
##칻
##솻
##걶
##콪
##릣
##쿻
##톌
##뉙
##섡
##힂
##쮑
##굺
##뎽
##슏
##똙
##굾
##꿴
##좸
##퐆
##앿
##썃
##쭹
##쩑
##뿱
##탗
##벏
##앒
##숶
##섽
##텢
##쐌
##좬
##웚
##볂
##껶
##웯
##퉽
##쌟
##놸
##텣
##죥
##흜
##뙿
##썯
##긃
##쩀
##쩣
##뻕
##꿬
##쪚
##셆
##씉
##빏
##퉨
##굅
##싅
##맖
##랊
##믤
##킂
##쉚
##쫚
##쨧
##챶
##꿥
##녝
##쓃
##혙
##핕
##릸
##쩤
##헫
##졜
##쎂
##첱
##흚
##겗
##됡
##쏃
##즜
##쯨
##텩
##삫
##뱬
##릹
##쮓
##먤
##뛧
##쮕
##쌒
##칔
##퀔
##푈
##빣
##팯
##펒
##쭻
##쏮
##눓
##뇝
##꾕
##젡
##뢓
##믝
##펗
##똵
##쭷
##늎
##윺
##퐠
##뜪
##혾
##씦
##엕
##둏
##훛
##냴
##숝
##왬
##갢
##슇
##뽇
##뜔
##먓
##얰
##틂
##똽
##흅
##벎
##맕
##슀
##꾭
##궏
##쏸
##뒠
##뒼
##봁
##좎
##뵠
##쎨
##쟥
##겺
##쉜
##컺
##눸
##싇
##븹
##궑
##퓍
##꺕
##볫
##슮
##쮔
##뵑
##뢘
##퐙
##븛
##슟
##슢
##뱥
##뎻
##뉄
##솠
##셲
##뗸
##뽴
##뻼
##젾
##튔
##쁸
##찗
##꿄
##쿯
##졿
##뿁
##샔
##턕
##켲
##뱟
##똦
##쥄
##볈
##웢
##쾬
##졹
##썔
##휅
##펲
##꽘
##늜
##뮙
##졏
##믛
##썝
##찴
##쀓
##뮝
##깯
##뱽
##칽
##쏏
##딭
##셭
##헾
##툄
##횧
##햩
##힊
##녻
##뙹
##맫
##혒
##튓
##쯫
##큲
##눋
##왥
##뇤
##퀡
##뭵
##틧
##웎
##밁
##켞
##휔
##믻
##톢
##퍁
##괓
##쉲
##겞
##갎
##쓿
##쩎
##웗
##콋
##졻
##쵭
##봴
##캋
##뜱
##뵴
##륮
##떮
##듢
##툨
##숬
##섫
##똻
##촡
##씇
##뺅
##폘
##썫
##넭
##뙀
##렽
##띅
##뽯
##쌻
##뼬
##녽
##붋
##봿
##흵
##띟
##쨨
##섐
##됤
##틅
##뒌
##믏
##쾰
##젶
##뾀
##풇
##툳
##뤵
##솒
##뫤
##푕
##뚄
##뒇
##씳
##뺗
##쳏
##뾲
##팊
##좱
##뭽
##턉
##찫
##똷
##췆
##챻
##쐴
##켵
##럘
##갮
##녗
##걎
##곣
##굎
##펅
##쫖
##펹
##덗
##덝
##왗
##쏖
##쫫
##놏
##큷
##믬
##늇
##슰
##뻙
##탅
##럎
##찦
##딺
##혺
##팖
##몔
##앦
##쁮
##솣
##뀈
##볆
##퐑
##먇
##엸
##봎
##눂
##첧
##뙄
##젎
##멿
##뤜
##엜
##꽼
##럗
##쁰
##윢
##좣
##랺
##홒
##굧
##틊
##짷
##뀀
##툣
##녚
##됚
##쒠
##쿅
##왅
##퐘
##텧
##끞
##뱰
##뷤
##삒
##꺨
##렗
##헋
##뉌
##쬠
##밙
##웖
##윣
##딞
##씱
##돒
##퓅
##쟟
##욗
##섢
##죘
##쬿
##쯋
##쫰
##뭷
##썱
##긺
##멛
##쓷
##쓲
##닗
##쒫
##쩓
##휟
##킠
##갶
##녯
##떹
##깗
##껇
##쑛
##쳗
##돖
##삺
##옪
##둩
##짺
##즡
##랡
##뭭
##쐣
##빖
##턈
##릻
##삦
##햎
##뿎
##빫
##몷
##윯
##듇
##팏
##좊
##폠
##뺓
##첡
##겏
##뀃
##믖
##밊
##괫
##쟃
##팚
##줊
##헓
##쓑
##뭎
##붼
##뜄
##뱊
##뀱
##뚊
##빎
##쯛
##곭
##컯
##꺋
##룷
##탟
##헶
##꺰
##쿗
##긞
##쑼
##볖
##쿢
##뺡
##얋
##띶
##쟅
##펺
##빷
##뽖
##퐇
##곫
##쌇
##씷
##겭
##쒐
##슂
##붎
##눉
##펕
##먱
##턘
##칢
##웙
##떷
##뎧
##귥
##몲
##쳍
##뗼
##꿌
##쿔
##쑦
##댦
##똚
##묿
##쒤
##븩
##쳢
##맪
##쭥
##픓
##뽸
##셏
##랁
##탊
##릶
##혅
##땦
##휲
##쩸
##몣
##렚
##픹
##쎍
##뜛
##홨
##툈
##쒂
##쐤
##뙝
##홙
##퇌
##칶
##캩
##덦
##즑
##쏰
##뙸
##쀒
##엹
##헰
##핋
##놝
##훏
##왷
##깑
##췜
##뼠
##씶
##홡
##쀅
##챊
##댼
##떺
##탞
##꾝
##똧
##츹
##꽨
##눛
##풬
##띴
##앹
##쎟
##즺
##폯
##줖
##뛃
##얁
##쎝
##쳭
##톺
##뭟
##훸
##듞
##혉
##귛
##씧
##뭧
##뾥
##흊
##뷐
##옩
##뼏
##혻
##졽
##틇
##맩
##늓
##펻
##샕
##싙
##짮
##빓
##쐿
##븸
##떃
##볎
##즼
##쳴
##슳
##뛥
##횜
##떶
##쐏
##쪻
##왢
##갧
##훚
##곝
##둅
##믣
##몢
##쥫
##봰
##덌
##곮
##홗
##얉
##밿
##곔
##뜳
##녟
##꺚
##쐼
##텠
##웺
##뿩
##뮘
##뇔
##쯎
##힗
##귖
##쬈
##뱸
##랯
##쉮
##묯
##쀡
##퇜
##꿝
##퇧
##끯
##뼑
##끸
##푬
##옣
##쐄
##퓟
##휐
##쭕
##붥
##믂
##뮦
##쾩
##퍾
##헽
##놃
##꿯
##뫚
##챚
##삹
##옟
##쬲
##놖
##뉬
##뙴
##죢
##딣
##쨖
##춀
##튻
##좰
##곆
##깺
##딻
##찪
##댏
##쪿
##풁
##뚢
##짿
##졺
##픍
##킶
##뭙
##녺
##갩
##뼀
##돆
##뼡
##뛌
##몮
##뮁
##봵
##켼
##퓿
##엀
##뫽
##헟
##슞
##엁
##릆
##쏚
##뮻
##앣
##곲
##궲
##볁
##릲
##쩽
##븢
##쎇
##뀻
##쇀
##볇
##똼
##퐣
##폮
##햚
##쵿
##녭
##뒞
##좧
##썳
##줵
##첣
##킀
##쭄
##죶
##켚
##폣
##훯
##멪
##앷
##붴
##꺏
##돉
##댥
##턹
##쵮
##풏
##춎
##볙
##뚈
##뭿
##뵝
##괨
##엂
##챫
##쏄
##괺
##믰
##퍡
##킘
##떣
##콮
##삗
##캙
##좓
##헲
##닱
##쮁
##쫂
##뵺
##뛍
##욾
##됧
##걭
##쓊
##쀳
##퇔
##엞
##벾
##쵯
##걬
##홖
##깱
##뗨
##멯
##욣
##걒
##똈
##멂
##걃
##꽳
##꼶
##걆
##겛
##풃
##뻁
##헦
##꽴
##궓
##쑫
##둽
##욓
##샮
##젍
##왶
##쀾
##쌗
##촺
##짾
##꺓
##몟
##곖
##죝
##꼲
##졂
##믉
##뭗
##믌
##죣
##잞
##쎓
##쭅
##뛨
##똝
##쫵
##쑻
##뿳
##뽹
##셟
##캢
##넔
##멲
##쫅
##걇
##쁐
##븂
##왳
##괝
##뭚
##씗
##쇔
##콲
##숢
##뮏
##왡
##♬에
##♬이
##♬을
##♬의
##♬가
##♬는
##♬를
##♬들
##♬은
##♬도
##으로
♬에
##♬으로
♬을
##♬로
##♬에서
♬의
♬이
##하는
##니다
♬를
##♬과
##하고
##♬적
♬는
♬은
##는데
##이다
♬가
##♬만
##다고
##♬들♬이
##♬와
##지만
있다
사람
아니
♬으로
##라고
##했다
##00
##까지
♬에서
있는
♬로
##었다
##면서
♬도
##다는
##♬에게
생각
우리
##♬들♬은
♬들
##♬까지
##하게
##부터
##해서
♬과
대한
##리고
##이라
##한다
20
##♬님
하는
한다
한국
##보다
국민
##습니다
##♬적인
때문
♬적
##렇게
##으면
그러
영화
이런
진짜
##♬적♬으로
♬와
##니까
지금
##하지
##♬에♬는
일본
지난
##하면
##♬나
그런
문제
##♬이나
##♬부터
##♬들♬의
##하다
##♬보다
같은
너무
10
자신
다른
중국
##대로
##♬성
나라
##는거
하나
##처럼
위해
##통령
들어
그리고
만들
미국
그래
경우
##하기
정부
##♬화
##이고
##네요
201
##인데
##♬들♬을
##라는
아이
##어서
하고
이상
대통령
이제
19
이번
그냥
##세요
문재
작가
사실
##기♬를
다고
##♬처럼
##한테
된다
##어요
아닌
##해야
##지고
다시
##나라
##았다
것이다
##입니다
시작
함께
사회
따라
없는
정도
정치
##♬한테
경제
서울
##이라고
때문♬에
많이
통해
##라도
보고
가능
하지만
모르
인간
##이지
시간
가장
아무
나오
필요
기업
##♬에♬도
아니라
##하여
##되는
##♬에서♬는
##리는
정말
##리♬를
자기
북한
모두
##였다
상황
##자♬가
세계
##으며
지역
##다가
민주
200
이후
##리♬가
어떻
##같은
모든
##♬서
대표
##려고
것♬이
모습
좋아
시장
사업
관계
국가
이렇게
♬까지
것♬은
어떻게
문재인
사용
여자
관련
내♬가
없다
##스트
마음
##주의
다음
여기
대해
♬만
##된다
이유
##♬랑
해야
##합니다
이미
있었
많은
##이라는
위한
##겠다
댓글
이야
##사람
정신
지원
##는다
##기♬가
##보고
아직
현재
돌아
그렇게
처음
사이
했다
##♬권
계속
사랑
그러나
##하며
어떤
것♬으로
작가♬님
##어야
투자
것♬을
##♬아
##거나
얼마
##사♬를
라고
라는
무슨
프로
12
♬성
내용
##기♬도
역시
##민국
보여
경기
##으니
##구나
##는지
30
근데
있을
특히
##아서
좋은
##하면서
##인가
##인지
##어나
여성
남자
11
하지
##레이
밝혔
##♬들♬에게
이해
보면
이어
##지는
다는
조국
##기♬에
진행
##♬네
바로
여러
국내
100
##가는
대한민국
교육
##♬당
이용
그래서
##있는
##♬들♬도
기대
오늘
결과
수준
결국
##도록
검찰
##지♬를
##것♬도
##로운
방송
##력♬을
♬에게
중요
##인♬이
##잖아
피해
지만
있었다
기사
기술
어디
##이었다
면서
이름
그렇
##이었
##지막
최고
♬부터
##밖에
연구
최근
조사
15
##자♬는
##시키
자유
##없이
##♬엔
보이
국회
또한
이러
##는게
##소리
잘못
마지막
♬화
설명
살아
##이♬가
계획
♬고
떨어
민주당
상대
사람♬이
저런
경찰
이거
삼성
없이
대학
##가지
지지
##되고
개발
웹툰
친구
##장♬을
우리나라
어느
사건
당시
의원
##♬마
지난해
베댓
나♬는
가족
학교
##지♬도
물론
나타
세상
##레기
♬보다
당신
작품
##사♬가
정권
##해라
되는
같이
기록
감독
##어도
##머니
전문
올해
자신♬의
대상
이게
##지♬가
##으나
##비스
현실
##정♬을
알고
그럼
받아
관심
##♬에서♬도
정책
얼굴
##이야
이날
후보
제대로
##거리
만들어
얼마나
##시아
개인
주인
##동안
사진
##주는
##♬째
학생
##♬이랑
##졌다
정보
##♬들♬과
##시간
회사
##했던
18
그♬는
나온
누구
##♬자
않고
##인다
평가
이야기
##부분
##하는데
조선
##장♬은
배우
하면
그것
##되어
##력♬이
가지
다양
한번
##겠지
자체
문화
##수♬가
##기업
말했다
찾아
##더니
따르
있는데
않는
부분
실제
일반
##중♬에
어려
직접
활동
알려
그만
동안
예정
운영
공개
##이트
##지♬는
그리
금융
해서
그림
선거
완전
##없는
언제
##운데
##장♬이
위원
##해도
##0년
새로운
상태
언론
##놓고
일부
올라
존재
##주고
그런데
대구
조금
의미
결정
##진다
소리
##스크
있고
게임
않은
##하나
제발
스토
##전♬에
책임
##로나
세금
공격
않았
발생
누가
한다고
재미
현대
먼저
##기♬는
아주
##이면
미래
##하자
제공
기준
##정부
##보면
인터
방법
확인
기자
부모
가지고
♬나
인정
합니다
##같이
##이냐
전체
하루
것♬도
##다면
##하네
머리
지나
서비스
그녀
참여
있다는
관리
한편
준비
발표
만화
50
♬라고
성공
자리
##을까
아니고
##라이
있어
##하는거
힘들
##♬들♬아
##한거
엄마
해도
##상♬을
사고
수사
##정도
##원♬이
##♬씩
주장
등장
##학교
만나
코로나
반대
##말고
과정
외국
##렸다
역사
13
주인공
선수
가격
##♬마다
서로
##리아
국제
##하시
산업
가운데
생활
대부분
25
보는
##러운
무엇
##기♬로
과거
##♬상
16
##000
이건
최대
위해서
제품
행동
거의
##랜드
전국
증가
정상
성장
경쟁
더욱
기억
사람♬들♬이
시민
##다니
있습니다
판매
##이며
재밌
해외
생산
노동
기다
요즘
효과
어린
보내
내려
##치고
그래도
##자♬를
##OO
해결
##리지
말♬을
당연
이것
얘기
14
못한
선택
아닌가
##♬밖에
엄청
표현
나왔
##근혜
추가
##문♬에
##이는
예상
##린다
규모
스타
##♬형
운동
쓰레기
##만원
있다고
장관
사람♬들
그♬의
영향
환경
아들
시대
없어
##그램
##의원
아니다
추진
##식♬을
빨리
교수
느낌
##자♬의
아버
대해서
요구
##이스
##려는
앞♬으로
##시다
##가서
드러
한다는
포함
##치는
말♬이
##와대
##화♬를
만든
알아
같다
##나요
♬권
다며
##♬여
##들어
중심
기본
17
결혼
##♬성♬이
입장
##야지
문재앙
##주세요
청와대
##아요
##었는데
구성
노력
등♬을
감사
##됐다
역할
##릭터
##한다고
도시
##했는데
유지
때문이다
마련
전쟁
좌파
장면
지방
##시켜
발전
##하던
##스로
나♬도
되어
##라마
##와서
말고
##스럽
##하겠
##스터
부산
건강
정의
##인♬의
박근혜
소비
##아니
##도♬를
##정♬이
지적
보인다
##이란
##♬요
##위원
##히려
분석
자동
판단
넘어
##는건
상당
해당
##이네
절대
확대
##하지만
우리♬가
고객
##리스
오히려
업체
자연
그게
공부
40
보수
오후
경험
##도♬가
안전
##자리
매우
##하냐
캐릭터
경영
범죄
만큼
기존
##했고
비교
사라
##♬성♬을
##더라
##시고
##음♬을
##이지만
도움
비판
전망
##이라도
솔직
비슷
없고
강화
스스로
##었던
거짓
##이버
시즌
##가고
기회
다르
##사♬는
수♬도
강조
##수♬를
♬자
##스♬를
사람♬은
바이
##스템
그대로
기관
##파트
##이니
##어난
##치♬를
스토리
##명♬이
##디어
##♬께
##♬질
인물
제작
##원♬을
안되
##인♬은
##지않
상승
특별
주변
밝혔다
아직♬도
이루
하는데
##이♬를
거래
원래
공동
대비
##한다는
활용
##영화
미친
구조
대신
연기
능력
##므로
자한
빨갱
##♬대로
##가리
##되었다
프로그램
다만
되고
분명
행복
위험
##인♬을
순간
##드는
##르는
제일
##자기
OOO
그때
시키
치료
##점♬을
라며
##시♬에
##위♬를
인생
21
은행
이♬를
조직
기간
김정
지속
##텐데
##♬야
부족
아무리
제♬가
##스♬가
24
##♬로서
##으면서
##보니
변화
바람
전혀
전부
##이기
##했다고
이♬에
##거지
다니
방식
##이♬는
##♬에선
병원
모습♬을
상품
되었다
저렇게
도록
항상
혼자
적용
인사
집중
비롯
##하니
##무원
가진
##라인
##번♬째
않는다
마스크
##마트
##명♬을
회장
##르고
##정한
주민
##있다
일단
출연
분야
전략
내년
아니면
충분
않았다
지켜
네이버
걱정
♬이나
확실
##♬계
##한데
개선
는데
##겠지만
##동산
뭔가
##었고
##스타
같은데
의견
♬처럼
##수록
대체
##자♬들
##리♬는
공산
##♬뿐
##은행
또는
높은
중앙
분위
##BS
더불
건설
##되면
적극
일♬이
보호
아마
솔직히
##기고
199
받고
나가
문제♬가
이러한
주요
고려
목표
달러
검사
크게
있지만
아님
열린
나오는
직원
우선
어렵
그걸
달리
##제♬를
##려면
##겠네
행사
노래
##건가
##때문♬에
신천
있던
궁금
##스♬는
22
일♬을
느끼
23
시스템
♬여
##을때
##감♬을
나서
##♬이다
드라마
그동안
인해
##더라도
있어서
수출
##되지
##라면
여행
중요한
##이터
아파트
가치
가까
매출
니♬가
의료
부동산
친일
##심히
음악
계약
##아야
다양한
##지지
##시장
실제로
가져
신경
수익
##먹고
##해주
보니
인터넷
정도♬로
##하다고
단체
자신♬이
여기♬서
자식
##기는
현장
##려서
다가
##요일
기분
관계자
출신
못하고
대회
등♬의
업무
그룹
갑자기
##하는게
조작
바라
사과
안보
##운동
각각
여론
##♬용
전♬에
움직
앞서
##에요
오래
##사♬의
유럽
없었다
차지
하면서
선동
영업
우리♬는
세월
##스♬의
생각♬이
##대♬를
##리면
방문
부담
기능
##지마
나라♬가
##해요
##건데
어쩌
##사업
습니다
##드시
가슴
설치
이전
발견
부정
##대한
##성♬을
##조건
저♬는
##사회
##났다
##간다
사망
##물♬을
대단
빨갱이
아닐
따라서
주식
##돼지
##성♬이
##으니까
나이
♬밖에
확보
자동차
들어가
##교육
##새끼
##상♬이
시절
##♬률
모르는
어머니
##내고
외교
회의
지도
총선
주택
언급
##봐라
열심히
먹고
최소
광고
##하였다
사람♬들♬은
새끼
##자인
공감
나와
##른다
통합
공급
##구요
아버지
우려
않을
불법
대응
보험
정확
##오는
전문가
LG
##던데
못하는
##군요
집단
선생
##하라
##억원
비해
인천
##정권
##♬생
##보는
국민♬들
안정
##구만
남편
##거다
##거든
떠나
끝나
있지
처리
##전자
##대표
영국
하다
지구
##러스
##냐고
가는
광주
##8년
싶은
시험
##수♬도
글로
공무원
목적
유명
밝혀
알았
보도
구속
작업
##만♬에
입니다
여러분
##시는
거기
국회의원
자금
사는
바뀌
오전
##♬보다♬는
##이션
##자♬들♬이
나올
##조차
무시
##리즈
본인
단순
##학생
뭐♬가
안타
가서
카드
정당
반응
전화
영화♬를
##대체
대책
갖고
26
##생각
참석
개혁
27
##명♬의
탄핵
##자♬로
여전
##이상
이익
과학
##국민
##어진
##전♬을
글로벌
##수♬는
했는데
시청
##의♬를
나쁜
평균
아베
##난다
사기
의사
지키
라이
괜찮
고민
영상
##이라면
시설
##5년
무서
##간♬에
##까요
보기
##너지
불가
이뤄
##7년
처벌
위치
SK
##9년
##이자
##거야
이♬는
희망
달라
반면
강력
아래
##트♬를
되었
##이어
##없다
선정
제도
28
♬당
##했지만
제외
이동
뉴스
실시
따른
##♬끼
도대체
신고
관광
반드시
공식
##문♬을
있으며
##왔다
주는
훨씬
##세계
브랜드
군대
##선♬을
장기
받은
##제♬가
의해
소설
싸우
어찌
60
진심
♬상
제시
있으면
신천지
거리
잡아
최초
##♬님♬이
프랑
##갔다
##지면
소재
아는
무조건
##당♬이
투표
도입
되면
♬뿐
젊은
아빠
소속
말씀
권력
##♬으로서
평화
하여
좋아요
하늘
##생활
##BC
수♬가
##내는
##듯이
독일
성격
따르면
핵심
##겠다고
TV
##워서
남성
공간
유치
##라서
생각♬을
##6년
##럼프
중소
인식
시행
청소
##준다
등♬이
##하다는
롯데
사람♬을
해라
##지게
많다
사태
♬이라고
생각해
아프
만약
각종
아름
스포
감염
오른
스마트
마치
종교
##받고
불안
##했을
나중♬에
자세
보유
일어나
소개
##일♬이
니♬들
자주
너희
##지역
##단체
##점♬이
가정
심각
통신
느껴
##원♬은
비용
그거
그♬가
##개월
##지♬에
예산
모델
인상
논란
##이크
아니냐
##겠습니다
이젠
증거
##위♬에
사장
##♬쯤
##관계
있게
내부
##수있
##인트
진실
협력
수입
어려운
되지
보통
##겠다는
빠져
독립
점점
센터
싶다
트럼프
방향
연결
##어버
장애
돈♬을
음식
최종
##시민
선보
안나
##림픽
##인♬들
변호
자료
##♬으로써
작은
##♬율
불구
증권
회복
맞는
인권
주제
쉽게
사무
##대♬에
거짓말
공연
감정
애♬들
감소
당연히
##레스
전투
두고
##금♬을
없을
실패
고통
담당
##잖아요
대화
나라♬를
형태
올려
누군
그려
##어들
승리
202
29
여전히
##영♬이
다♬들
신청
##대♬가
대선
이래
행정
미리
제목
전자
##하거나
한심
♬님
##일♬을
출시
청년
국민♬의
방안
##임♬을
##가♬를
##운드
##할때
개념
도와
주고
단계
지금♬까지
김정은
대출
무능
감동
##냈다
마을
♬형
##물♬이
추천
때♬는
시켜
아내
##디오
위원회
##머리
##되었
##여서
##4년
공공
##2년
더불어
들고
사례
업계
있도록
본격
니♬들♬이
플레이
자본
불러
##프로
개돼지
러시아
의혹
##♬로♬는
##♬하고
마찬
않아
진출
관한
오는
1년
주목
정부♬가
국정
##♬으로♬는
##이드
노조
말하는
스트
##수♬의
포기
제기
##조사
소득
국민♬이
자꾸
힘♬을
모양
배댓
있기
나온다
재판
그럴
좋다
조정
타이
좌빨
일으
싫어
가짜
전개
수도
##위원회
당장
이기
강남
합의
지급
##서♬를
차량
##작가
위기
발언
##♬들♬에
수요
교회
그나
70
개최
지금♬은
관계자♬는
자체♬가
이끌
아침
##♬로부터
전환
나타나
참가
하기
못하
##경제
전기
##했다는
제주
사실♬을
##그룹
##일보
살인
##♬별
없었
마찬가지
혐의
인도
조용
응원
국민♬을
바꾸
국민♬들♬이
##대♬의
고용
조성
교통
대형
불쌍
##3년
좋아하는
외국인
##두고
저거
코스
촬영
필요한
하락
##깨문
자산
##♬과♬의
31
##센터
##부♬는
공정
상관
파악
##시면
시리즈
받아들
##져서
##기관
##든지
시간♬이
오랜
만드는
이야기♬를
##체♬가
##마디
유일
부탁
매일
##움♬을
##등학교
##세♬를
조건
자격
아시아
##하였
전달
프리
##라리
기획
##부♬가
##건지
예술
기반
할머니
##민주
##♬와♬의
연출
온라인
이유♬가
힘든
환자
##부♬를
지하
초반
민족
유리
혹은
##장♬에서
##♬꾼
##도♬로
확진
##심♬을
진보
인기
평생
##장♬에
##스코
##원♬의
독재
##고있
대중
##식♬이
##식♬으로
##는거지
##란다
##리기
##하세요
재앙
받는
우승
##어라
충분히
것이라고
논의
동생
불과
##♬조차
자랑
##산업
아예
이사
##다운
그러면
성과
펀드
법무
참고
제한
##반기
##♬들♬만
그저
##뉴스
동시♬에
종합
##함♬을
##르게
대통령♬이
하며
연합
영어
♬별
##리♬에
##것♬이
없다는
경우♬가
이걸
구축
동물
##만한
차이
##지어
##아버
이라
##하기♬도
받을
하자
세월호
##♬라고
으며
분량
인수
했던
##소♬를
성적
전통
가입
이때
실적
쓰는
조치
##기♬의
##리♬의
어디♬서
받았
##분♬에
거나
말♬도
##1년
훈련
##시킨
##많은
관객
재산
##감♬이
보여주
저♬도
완전히
해석
##가♬가
좋겠다
지난달
나머
이유♬는
500
행위
##봐야
비난
##느냐
단지
없다고
안되는
##습니까
##♬이♬가
건물
그랬
생각하는
취업
##스러운
##던가
베뎃
됐다
배경
요청
구매
됩니다
별로
##장♬의
주로
198
최저
해주
##우고
금지
대깨문
##해보
반영
##개♬를
2년
가르
서민
약간
신문
입국
##♬만큼
자살
♬마
♬률
시도
자신♬을
철저
끌어
##것같
##아가
생긴
##였던
복지
##비♬를
개정
검토
화장
설립
특징
##시키는
과연
프랑스
수상
있었던
설정
##들고
##인거
굉장
돌아가
황교
일자리
구체
##회사
##대♬로
대변
차례
강제
##지말고
약속
##어지
##장관
않다
##이든
목소리
이명
봐도
남아
규제
연속
상당히
##가락
차별
##구♬가
어린이
##무리
##씨♬는
##리오
신뢰
##일♬에
80
집♬에
보이는
선발
##겠냐
남북
강한
일정
혁신
그건
생명
애초
혹시
장난
인지
##자♬들♬은
가만
##♬적이고
부문
홍보
##한게
##서♬는
불편
##당♬은
지♬들
토착
달려
##이죠
##웹툰
##롭게
상처
##♬끼리
생겼
정리
##시키고
속♬에서
나무
민간
##문화
쓰고
하는거
##스럽게
귀여
모르고
갈등
##차피
하게
끝♬까지
마음♬을
차라리
있으니
##한다면
피해자
멤버
근무
의심
부르
하이
##드♬를
평소
올리
통일
보다
전라도
덧붙
오빠
사상
상상
##예요
##구♬를
##나게
##겁니다
노무
##랐다
##체♬를
죽은
역할♬을
올림픽
##♬론
##♬과♬는
싸움
소비자
##가요
미사
번♬째
통과
적♬이
작년
##페이지
##려야
내놓
눈♬에
알바
어차피
없애
목숨
저희
위원장
수행
직업
벌써
위♬에
거지
공장
##놈♬들
인터뷰
도로
눈치
분위기
연예
##원♬에
대사
##주♬가
아무♬도
는다
재미있
연재
지지율
군사
것♬처럼
##계♬를
##같은데
##투자
가능♬성♬이
애니
역대
듣고
물어
있음
아닙
영화♬는
##가지고
있어야
분노
한마디
사람♬의
최고♬의
##♬에서♬의
희생
규정
항공
그린
3년
##프트
##싶다
##인줄
##대통령
##하려고
살고
##er
##아라
미세
##위♬가
이르
놓고
##도♬는
이해♬가
##국가
♬계
##인♬들♬이
자기♬가
##먹는
타고
##개발
거부
확산
비중
국방
굉장히
##쳤다
본다
중소기업
문제♬는
제안
##♬만♬이
##♬에♬만
300
##♬다
죽음
모습♬이
많아
충격
어쩔
##지원
##분♬이
심지어
무기
알게
♬째
확정
근거
자한♬당
##하려
일상
우주
##♬에게♬는
##드립
##지♬로
전해
##것♬을
##비♬가
공사
##이♬의
지배
고양
중♬에
##어♬를
그러니까
##바로
##50
여름
못할
이명박
비슷한
다행
엄청난
그림체
이라는
늘어
##사고
니♬네
민주주의
##할수
##신♬이
똑같
##정책
기념
어서
이재
##나는
적폐
10년
##랍니다
마이
질문
##리게
아쉬
##당한
##도♬의
영향♬을
고생
중간
시점
##국♬의
촛불
게다가
4월
부끄
공포
포인트
##셔서
나♬만
예전
##관리
근로
그나마
생기
보면서
분양
향후
말♬은
자녀
##봐도
앞♬에
♬서
혜택
우리♬의
것입니다
이곳
있다면
신규
특수
맨날
졸업
오르
임명
후반
스포츠
통한
에너지
청소년
없어서
비율
##리카
완벽
야당
제조
전시
만족
바꿔
새로
동일
##개혁
이제♬는
저지
##법♬을
당선
수♬밖에
##보기
눈물
뛰어
못했
옛날
된다고
나누
방침
♬용
마음♬이
액션
물건
등록
지식
##기술
정부♬는
##나오
♬두
안♬에
속♬에
등♬에
##위♬로
직장
완성
##아닌
노무현
주도
##은거
바탕
가득
신용
##시지
독자
판결
바보
우수
##져야
##자고
없는데
레이
##하다가
##세대
중단
돌려
있나
##심♬이
진정
##원♬에서
1000
임금
했지만
##씨♬가
##우스
축구
전반
난리
연애
특정
겁니다
보장
데이터
유통
슈퍼
표정
무섭
아닌데
겨울
##시대
경기도
##텐츠
##것♬들
저러
기초
시기
돼지
맞춰
가면
##하신
접근
##문제
불구하고
문제♬를
##해야지
논리
몰아
예정이다
잠시
##다른
따로
있어요
같아요
##것이다
나머지
월드
선물
##우는
분기
##활동
마무리
##가면
##거운
형성
거쳐
벌어
존나
리그
##선거
밝히
윤석
##기♬만
현지
공주
##행♬을
##진♬이
##았는데
매력
시간♬을
앞♬에서
수술
조합
##업체
##퓨터
##았던
##하라고
90
##받는
인구
바다
##♬제
협상
3월
소유
모자
굳이
봐야
기부
재정
##시설
이루어
##것♬은
내일
영화♬가
##가족
##사♬에
멍청
##해진
위안
##환경
##겠죠
##수♬로
##회♬를
나♬의
##신♬을
활성
제출
인한
나경
##연구
##인간
##지♬의
##됩니다
##스러
반복
##석♬이
변경
세대
것♬에
현상
디지
##드♬가
##이기♬도
인간♬이
뒤♬에
대전
비밀
노인
개봉
달창
시각
##10
만들고
있네
똑같은
일베
##는거야
6월
##치♬가
지정
##0년대
위협
##걸로
♬제
체험
KBS
##려라
원칙
##가♬는
결론
##증권
답답
도전
일제
협의
살펴
미안
##사♬로
개월
##온다
##트♬가
이상한
원인
으면
않으면
##케팅
그것♬도
5월
사전
그러니
월급
##분♬들
동네
임대
##마라
된다는
##보자
악플
지분
사법
일본♬이
나♬를
둘러
대박
##방송
믿고
일어
##♬권♬을
가능한
집안
호텔
디자인
##니스
베트
##거같
서울시
꾸준
저기
어른
만드
무대
그♬들♬의
반성
프로젝
가구
##거든요
손♬을
황교안
선언
##리어
##이익
달성
##하려는
수♬는
##도♬에
폭력
안하고
토론
##했습니다
애초♬에
선진
대기업
그♬를
박정
경북
와서
##없고
##♬께서
하시
##개♬의
의식
삼성전자
투입
관심♬을
컴퓨터
##왜구
정주
##♬만♬으로
♬생
초기
##리그
미세먼
계열
창업
##♬와♬는
시작했다
이름♬을
골프
##주♬를
인간♬의
금리
##부♬의
##단♬을
##일까
못했다
총리
사회♬적
##느라
##줘야
##약♬을
지랄
하나님
태양
##만화
##지요
마라
돈♬이
버스
파괴
눈♬을
일♬은
##아지
보였
진정한
9월
##20
##국♬에
짜증
나름
##사건
##나서
보상
비행
측면
어울
##장♬으로
MBC
마법
10월
##♬인
세력
##도시
등♬으로
35
원하는
##국♬이
바이러스
아무것♬도
최악
예방
##♬들♬한테
공유
말해
12월
이미지
##메라
채용
구분
절차
##었다고
잘생
도망
불가능
늘어나
##♬같이
블랙
##거라
사퇴
요소
공수
되는데
7월
♬엔
만♬에
벗어나
##주♬의
드디어
##적♬이
심리
발행
상황♬에서
무역
서울대
미치
하네
##조선
받았다
베트남
##♬감
울산
싫어요
##짜리
수업
운용
##in
어제
무너
하나♬의
외모
##학년
운전
##는가
취급
대우
못해
##시켰
택시
다소
보였다
맞아
조심
##아이
지♬가
##민♬이
중국인
크리스
그만큼
긴장
흔들
동료
##웠다
##마자
##래도
뭐냐
너무나
빠른
##말♬이
바닥
##이었던
온갖
여기♬에
스마트폰
한반
심판
의무
이벤
무리
한국인
같습니다
그렇지
없습니다
##이에요
하나♬도
없음
##부♬에
##하도록
귀엽
##명♬은
아나
있는지
말아
##있는데
스타일
##있고
리더
##♬으로부터
그것♬은
긍정
소녀
놀라
##보단
마케팅
8월
나섰
##이♬에
특성
너♬네
여자♬가
쿠키
향해
노동자
##위♬는
이♬와
동원
소통
##받은
아니라고
하니
문죄
회원
##30
그♬들♬은
주가
1월
거야
것♬과
왔다
##바일
##되면서
정작
미사일
##수준
이번♬에
변호사
##하니까
는지
##말로
방어
##이팅
KT
필요♬가
영웅
경남
확실히
효율
흐름
인제
똑같이
않을까
##주시
이하
그녀♬의
펼쳐
담배
휴대
페미
##친구
아닐까
##하셨
브라
단어
메이
풀어
전년
선생♬님
실험
출발
저녁
000
과정♬에서
##만큼
##관♬이
이성
대답
본부
금액
무식
##그러
극복
자원
##겠네요
데뷔
##주면
##경기
당신♬이
문재인♬이
손해
친일파
생각하고
준다
체계
라면
사회주의
부인
♬율
##사람♬이
##이네요
무료
##♬까지♬는
##세♬가
불리
영역
##하네요
스페
##시오
봤는데
같아
절반
##안♬을
남♬의
##♬보고
고소
##부모
아까
보니까
있었는데
소름
전했
내용♬이
그것♬을
이리
수많은
##선♬이
수십
##on
##달라고
물러
토착왜구
장소
남녀
내용♬을
덕분♬에
##간♬의
적절
모바일
헌법
가고
대상♬으로
죽을
디지털
악마
동의
사형
아냐
위반
이탈
##한국
높이
폭발
##인듯
몰랐
가까운
지금♬도
##규모
매년
위해서♬는
교사
집회
더러운
##라스
상황♬이
먹는
문학
몸♬을
다이
안된다
##나고
법무부
않게
집행
영원
두려
##력♬은
사람♬도
말♬로
그녀♬는
나선
언어
허용
##겼다
자극
##보네
##해지
197
따뜻
##이♬로
##미♬가
한국♬의
통화
깨끗
##니아
대가리
테러
##자♬와
원작
조용히
##우♬가
정치인
외부
전형
##전♬이
매각
이유♬로
##때♬는
유튜
실망
본인♬이
##자♬들♬의
양심
##독교
드립
가만히
미국♬의
너♬는
작용
잘못된
여당
도움♬이
##♬마저
##♬만♬을
보건
사실상
##자♬에
검색
대해서♬는
2월
2차
##문♬이
그것♬이
말♬에
##군♬이
##받아
인증
아름다운
영화♬의
2000
강원
가수
언니
##량♬이
인근
##스토
채권
##단♬이
싶어
일주
누리
예고
##림♬이
##었을
모아
처음♬으로
아닙니다
소송
웃음
##잡고
별점
연금
11월
높아
설명했다
##정보
##거래
수호
부여
연장
프레
하던
##이였
전용
방역
유니
##하러
인데
명예
홍콩
커피
##했으면
하는게
종목
비리
내리
통해서
건축
눈♬이
##면서♬도
사항
##기사
나눠
바랍니다
정부♬의
기여
놈♬들
일본♬의
일본♬은
사이♬에
##카드
들여
이럴
콘텐츠
프로젝트
체제
수용
##플레이
추정
도착
아동
구입
있을까
체결
총장
##화♬가
공수처
##겠어요
##관♬을
폐지
들어오
예♬를
주말
정규
인력
중심♬으로
순수
부모♬님
앉아
##시킬
훌륭
의한
시위
##하는건
이상♬의
걸어
##조작
##돌아
##an
계산
작성
상징
##보험
우한
떠올
이나라
##♬루
진단
반도
##쳐서
##나무
지시
낮은
수정
##대는
제2
식품
뒤집
##건설
애플
축하
##사♬와
소중
카메라
점♬을
보지
국민♬들♬은
정치♬적
잡고
설계
피부
가끔
통제
흘러
신♬의
##나♬는
##이니까
냄새
##하기♬로
##량♬을
팩트
보이지
##리티
##으려고
해야지
기계
배치
삶♬을
5년
다면서
감옥
힘♬이
좋았
##쓰고
36
##영업
##주택
나와서
집♬에서
왠지
##있어
상담
뉴욕
##진짜
간다
부부
케이
##했으며
감안
##실♬을
상황♬을
남자♬가
마음♬에
##길래
##한건
##대♬는
##전♬에서
한나라
뭐라
##위해
합리
생존
##속♬에
내내
맞추
어떠
언제나
에이
있냐
평범
연락
45
봐라
회담
시원
##누리
나타났
없네
스킬
만난
후♬에
이중
51
다면
##리스트
##리며
자한당
예측
글♬을
법률
##가♬의
보자
억울
실천
법인
전했다
어이
##시♬가
##바리
백신
봉사
##세기
새벽
전세계
반일
나갈
##버린
##함♬이
##라니
다녀
비상
##려나
심사
##길♬을
교체
##놓은
정체
뭐야
##질♬을
매국
안타깝
##티브
##로♬를
##상♬에
♬씩
##이라니
##었지만
##드♬의
##라지
개그
##점♬은
화려
##말♬을
모른다
세상♬에
대처
이♬들♬은
밀어
자리♬를
##료♬를
흥미
베이
길♬을
당국
##워크
우연
인재
인간♬들
쏟아
가게
##히는
떨어진
왜이
그렇다고
조국♬이
투쟁
웃기
여부
한다면
정주행
##안♬에
제1
비정
나쁘
할인
자아
##달러
스크
거기♬에
알아서
남은
있으
##경♬이
없지
야구
전날
학습
##원♬으로
집값
##것♬들♬이
데려
라인
##고♬를
관심♬이
불만
기울
정신차
최소한
대로
##하겠다
개소리
내세
사람♬들♬의
마지막♬에
예비
유시민
##본다
쓰러
장비
공산주의
##아치
꾸준히
화면
공모
##대학
##주♬는
한계
먹을
속도
##시길
말할
##사랑
##모리
패션
창조
고위
홈페이지
아니야
##금융
가능♬성
출전
편의
실질
생겨
박정희
아쉽
애♬들♬이
##금지
들어서
주문
미군
적어도
소리♬를
제거
이♬들
간단
1위
탄생
명령
공산당
말한다
정신병
이승
##댓글
이정도
최순
연습
##제품
##쪽♬으로
말한
지♬들♬이
##었습니다
##피소
검은
##일♬부터
상대♬로
##이♬들
윤석열
##되기
사이트
생각한다
원내
##놈♬이
좋을
설마
기독교
태극
##지기
##드♬는
아무런
반도체
##인가요
도덕
##하는지
##회의
부상
##로그
것♬들♬이
신기
기소
가해
공항
##사는
겨우
##리자
##격♬을
이른
창출
것♬들
이슈
생각합니다
나오고
##따라
제정
결코
카페
##임금
챙겨
##바이
##리♬로
##기간
##방♬에
무서운
보게
나왔다
옆♬에
안좋
##거면
##먹을
32
정은
입고
##하시는
전남
혼란
없으면
쇼핑
등등
대통령♬은
가까이
뻔뻔
사랑♬을
집권
강력한
실현
##지마라
상식
채널
체육
다루
이론
통계
소년
안돼
올랐
이혼
이벤트
의도
나오면
##소득
할아버
활약
##질♬이
##대회
수석
가야
알려졌
클럽
##소리♬를
##라♬가
유사
김영
모여
분명히
##야말로
보낸
다음♬화
##서관
##어야지
청문
##자체
##대가리
##진♬을
틀딱
떠오
##이라며
아저
##호♬가
SBS
근본
♬마다
더이상
계획이다
##항공
판사
주사
철학
##유♬의
취소
나경원
유튜브
##범죄
##기♬와
기타
안내
##친다
실력
불매
##메이션
##나가
2015년
물리
느낄
##점♬으로
오픈
억지
작가♬님♬이
못하게
##차♬를
간첩
죽여
압박
##들아
##남불
때♬마다
한화
앨범
않나
현금
##바닥
몰라
지상
가능하다
##까봐
소식
수학
##겠어
상장
##군♬의
칭찬
감성
방해
##구조
##분♬을
##진♬은
##경♬을
그♬들♬이
개입
##19
이외
미술
##거냐
인류
여주
##게임
끝내
애국
초딩
저번
잠깐
이용해
그곳
동시
지수
때려
##일♬까지
최대한
밑♬에
모두♬가
식♬으로
선배
피해♬를
등급
갖추
소환
이름♬이
##♬들♬로
추구
초등
##화점
##정치
오해
모른
##받을
광화
손가락
##상태
만한
미세먼지
2016년
관련된
리얼
가라
처음♬부터
##호♬를
출마
수수
##라우
확률
##평가
괴롭
전면
##던지
일부러
돌아오
##♬보다♬도
단순히
상위
동성
동아
##리트
수능
경우♬에♬는
이달
해소
아니지만
경우♬는
##거고
##♬짜리
뽑아
##회장
##TV
고백
##된다고
미디어
##♬님♬은
확장
당신♬은
복귀
빼고
##♬두
법원
##여자
##서♬가
분리
##럽게
##개♬가
아이템
##먹은
사람♬들♬을
장르
재밌게
없지만
어깨
국토
정도♬의
무한
키우
##기지
##라며
33
다를
##기에
##정♬은
살려
이것♬은
그리스
플랫
국무
##단다
##피스
##당히
##우♬는
주의
고향
증명
것이었다
안철
미국♬이
연계
아르
듯한
대부분♬의
196
##치게
##싶은
##인♬으로
34
##였는데
38
##종♬의
여유
##ar
다리
##없어
##♬화♬를
##♬보단
경쟁력
키워
많은데
청구
차이♬가
기생
감사합니다
에피소
팔아
보여주는
네트
##애♬들
하냐
전력
느낌♬이
니♬들♬은
정보♬를
진지
상호
오지
관람
느낀
평등
자전
종북
설득
오늘♬도
##치지
수원
거듭
##한번
##니깐
##주지
한국♬은
##든가
필요하다
저게
말이다
고발
##아니라
차단
##상♬은
왜냐
어려움
끝난
점♬에서
했고
##방♬을
과제
점검
아니지
##수수
모집
착각
수치
빠르
지옥
깊은
이웃
대놓고
정확히
한데
##상황
##복♬을
부품
한반도
박사
있었고
세상♬을
##거임
인공
99
갈수록
요리
바란다
영혼
갔다
##일♬은
2017년
##♬적이다
##로♬가
##되는데
대만
##♬층
##비아
커플
##로지
교과
##안♬이
참고♬로
진입
##or
힘내
##는거다
대변인
복잡
내고
##카오
청원
재난
##그리
##음♬이
##프라
##져라
♬한테
사실♬은
둘♬이
걸쳐
문빠
라헬
##버리
경우♬도
발사
떨어지
투자자
##적♬을
##시♬는
##어♬가
##긴다
##정♬에
반발
했으나
##♬자♬가
종류
겁나
때♬도
작가♬의
##뮤니
얼굴♬을
부활
뛰어난
국민♬은
성폭
찬성
바른
너♬도
매수
협박
##동생
북한♬이
공천
유도
물고
노출
빨간
대기
여야
분♬들
괜히
##이라서
##노총
보조
##터리
최강
5000
검증
1인
들었다
사귀
아이♬가
고등학교
성능
인가
했다고
지루
발휘
조선일보
##버스
그♬에
2014년
직후
완화
이란
착한
##보내
##배우
##히고
##가♬에
투기
배달
##있네
2018년
원전
00
후회
##사람♬들
##여행
가량
##드리
연구원
배뎃
필수
짱깨
##의식
생각하면
소방
것이라는
기회♬를
김대
할수
경상
줄어들
##장♬과
자영업
지휘
이지
화학
때♬까지
입학
한미
위안부
표시
협회
##그래
##때♬마다
고급
재무
아이디어
♬보고
몰려
##명♬으로
패배
죽어
유료
결제
투명
방사
##슬람
##직원
둘다
어야
##영상
멀리
##단♬의
했으며
##겠는데
인민
육성
KB
철저히
애니메이션
대다
둘째
##공사
손♬에
##되서
올린
##나면
##미터
답변
응답
최순실
내♬로
아닌가요
못한다
국립
중간♬에
그렇고
동기
멋진
비례
고정
##부대
##시절
어요
##줌마
##용♬이
연간
월드컵
이번♬화
배신
가을
제재
지하철
모르겠다
엄마♬가
돌파
거기♬서
##현♬이
법♬을
그러고
양성
다름
현대차
매장
##비♬는
좋지
보인
##♬란
자율
이런거
이것♬이
##피언
♬로부터
중국♬에
##었으면
부대
어릴
맞고
고마
##장면
##향♬이
순위
상황♬에
생각♬은
책임♬을
자존
탈출
날아
실업
##전♬의
얘기♬를
줄어
이탈리아
남한
##전쟁
스테
학원
옹호
##주♬에
조선족
이민
일본♬에
경고
균형
주지
2018
무려
파트
세종
자전거
##상♬의
노예
세워
##였고
##해주는
악화
대학생
감독♬은
##다시
단독
##함♬으로써
방지
##된다는
언젠
검찰개혁
상반기
아울
##NS
이야기♬가
보안
성인
식당
형사
의지
부분♬이
##스♬와
일찍
수단
헤어
그다
##소♬가
책♬을
##점♬에서
대법
##동♬을
것이고
올라가
누구♬나
분류
떨어져
동양
IT
##♬님♬의
신체
씨♬는
##렀다
마주
느꼈
능력♬을
개판
김성
마침
정신♬이
##았고
##미♬를
봅니다
보이고
##연♬이
청문회
대결
##더만
##자나
받지
넘는
수준♬이
텔레
동맹
배려
당사
존경
##스포
안♬에서
한명
삶♬의
얻어
털어
아웃
커뮤니
공약
한정
##데이
모를
기준♬으로
뒤♬로
##이던
##을텐데
##협회
입주
이다
##소리♬가
중인
##하지말고
페이스
##셔야
##스티
400
##년♬이
시나
유명한
들어간
##자산
##시♬를
도움♬을
데리고
새누리
##동♬이
마약
##♬으
비롯한
##연금
2012년
##세력
임시
사용하는
##되며
파워
##수사
고등
하세요
활동♬을
##오고
##자♬도
기다리
긴급
3일
##호♬는
대표♬는
거주
끝♬에
##♬적♬으로♬는
다섯
지내
##보지
##힌다
트위
하는지
##구♬로
##먼트
방법♬을
##차♬가
##하겠다고
그날
##치기
물질
##드립니다
끌고
하반기
한다며
매달
나아
완료
마리
살짝
##으려
출산
##하긴
축제
결과♬를
♬로서
태어나
마찬가지♬로
뭔지
정기
1만
2013년
##총장
되게
시작한
비록
부처
경계
시킨
가난
근처
##♬만♬의
##성장
권리
##품♬을
것인가
스파
걸려
편집
##할까
북한♬에
2015
안타까
소화
무릎
향상
옮겨
머물
취임
나라♬의
주력
대한민국♬의
로봇
수백
모임
보고서
광화문
스피
예능
말하고
##분기
바탕♬으로
##om
두산
원자
##계획
서서
차원
##아도
죽이
##리라
예쁘
##래곤
##낸다
##있게
전두
실수
##했으나
거다
감독♬의
주세요
버섯
##자♬에게
화이팅
네트워크
##너무
##역♬을
중국♬의
고속
검찰♬이
##민지
맞지
대리
하셨
합격
##트♬는
소프트
부채
##버렸
촉구
##조♬가
##가능
사업♬을
빠진
2010년
주관
##♬뿐♬만
분열
##해주세요
작가♬가
많고
이념
압도
뮤지
것인지
스트레스
##럽다
##의회
우린
##가며
##발전
한나라당
##나♬가
##나다
##공업
죄송
치고
곳♬에
열어
##거리는
사랑하는
한국♬에
로맨
소리♬가
꺼내
빼앗
할지
후원
몇몇
신선
내♬로남불
지금♬의
명확
살해
연예인
공통
##♬별♬로
일으키
중♬에서
업종
이자
공직
문♬을
##러워
##단계
능력♬이
##었다는
중이다
##지도
##아아
전설
##조합
추억
##에도
마세요
##치면
최저임금
보일
사람♬들♬에게
도쿄
##하겠다는
이겨
좀비
접촉
##게요
##여야
1차
집♬을
우파
##단♬은
얼굴♬이
선진국
문재인♬은
좋고
양아치
전세
질병
주둥
하였다
##스럽다
아시
##든다
##레이드
##있음
살아남
눌러
##했는지
강해
없으니
한심한
시선
걸린
나타났다
높다
아울러
37
당황
다니는
##증♬을
##목♬을
카카오
짧은
##악한
##메달
호흡
선고
수비
프리미
관계♬를
##연합
자유한국
##모습
2019년
있는거
어쨌
라도
##문학
주인공♬이
요금
##구리
왕자
일어난
미쳤
워낙
55
나오지
대가
상대방
대북
##음♬에
도둑
장사
저항
해요
##♬성♬과
주차
챔피언
종료
1억
##드려
PC
##쪽♬에
어리
##성♬은
유저
죄다
마시
곳곳
당한
##다는게
##웨이
##감독
초대
버티
아이♬를
선호
취재
이라며
##스런
##었어요
한참
권한
특검
##경찰
머리♬를
같네요
과장
지닌
♬께
빠르게
##당♬을
♬하고
다르게
사정
##미디
알았는데
##너스
변신
앞두고
행동♬을
##en
기사♬를
##준♬이
가로
아우
##작가♬님
##분♬의
유학
♬다
##트♬의
##보이
아이돌
뿐이다
전두환
입♬을
원장
익숙
건너
치열
##위♬의
이길
맞춤
기사♬는
법안
2016
축소
사유
아야
##이프
몰입
##버리고
##군♬은
주체
##가라
아깝
그런거
##당♬에
대학교
##복지
맘♬에
개편
##하지않
##애♬가
원내대표
하다가
##대고
데이
시나리오
머리♬가
유일한
##판♬에
귀신
중국♬이
개성
저질
##르면
##제♬는
바뀐
징역
효과♬를
대단한
반박
획득
이래서
때♬가
찾는
##al
솔로
연대
그래야
감시
군인
내용♬은
자리♬에
##구♬는
##만명
##임♬이
하나♬로
스케
##아님
강요
##실♬에서
2014
##사람♬은
여의
##는거냐
한두
결승
##11
한달
특별한
원숭
2017
매국노
##어져
##라운드
단기
1일
##을듯
##사장
♬같이
일♬도
오직
덧붙였
대폭
강조했다
휴재
##♬에게♬도
싫다
발매
문통
52
이쁘
넣어
않습니다
점♬이
마감
자치
신한
150
폭행
태극기
고개♬를
여자♬는
왜곡
바이오
접수
가리
개방
##40
세금♬으로
##가야
가짜뉴스
뿌리
고구
재벌
똑똑
매입
##이었는데
깜짝
##다리
치매
잠재
SNS
점차
##연♬을
##었나
갖춘
하나♬가
##공자
비싸
##도로
아저씨
위♬로
뭐지
오늘♬은
고맙
##드라마
놈♬이
몰라도
시켰
사이다
##하고자
##하면서♬도
자빠
꿈♬을
만남
아프리카
되기
아줌마
노선
타격
과정♬을
배출
누군가
늘어난
##조♬를
정식
김종
##국♬을
레벨
##개♬로
단일
##♬스
그러한
조언
##으신
대충
##업♬을
의견♬을
##력♬으로
앞♬으로♬도
치킨
##♬화된
것이
##력♬과
저리
존중
48
##쓰는
코리아
헛소리
호주
버리고
쉬운
완결
예전♬에
##선수
##보♬를
명♬의
심각한
##겠나
건데
##산물
삭제
의회
함부
해체
안철수
활발
##at
알려진
##되어야
##로스
클래
핸드
결합
##란히
##무♬를
실행
뭐라고
임기
##했네
발굴
##답니다
아마도
오랜만♬에
개별
이딴
사실♬이
##♬들이다
거예요
나아가
호소
우리♬도
##답게
적은
##♬성♬은
##총리
혁명
일이다
시급
##라♬의
문죄인
기록했다
##아♬가
해양
모으
지능
천재
2011년
조기
이스
다운
##♬류
의원♬은
##점♬에
바라보
20대
한국♬이
오랫
토지
##법♬이
감독♬이
##영♬은
서류
##실♬이
##♬까지♬도
만날
친구♬가
무지
41
몸♬이
유엔
##병원
들려
##짓♬을
극장
♬대
39
##한것
##문♬의
좋다고
그럼에도
##자는
믿을
벤처
##st
##내용
격리
##니어
##할듯
출범
##프레
안경
연봉
비즈
해주세요
묘사
♬에선
##하는것
남겨
##라♬는
##조리
밝힌
##서♬에
알려졌다
아기
##이♬도
##권♬을
물가
연말
##봐요
쉴드
않지만
##마♬가
트위터
거죠
했을
♬네
부진
근대
4년
부자
♬만큼
##전♬은
얻을
교류
대통령♬의
##르크
아이♬들♬이
무능한
##이유
##당♬의
관광객
찍어
라디오
죽는
##♬로써
##달라
강의
메르
하나♬는
좋은데
##봤다
해명
천안
이놈
이♬처럼
사이비
지자체
학부모
##자금
##표♬를
##주기
전공
신설
##줄알
만들었다
이유♬를
심장
좀더
연주
객관
김태
끊임
오로지
빨아
한번♬도
있었지만
접종
부장
선임
알지
##우면
같음
주주
형제
재능
방식♬으로
하더라도
아이♬들
보스
인하
중반
이어지
타임
폐기
##지사
동반
유행
형식
##산♬을
베스트
파티
##등급
##같다
일주일
추측
##회♬에
가볍
##구♬의
평범한
매매
어째
##♬부터♬는
##석♬을
##♬만♬은
폐쇄
복합
3000
공원
이틀
베댓♬이
유치원
##이긴
며칠
질환
##어리
효과♬가
김경
혐오
한쪽
2008년
##진핑
##오면
당신♬의
기♬가
쪽바리
하니까
많아서
김치
이모
올바
맞다
깨달
##인♬과
위선
##합시다
사내
댓글♬이
든다
##야한다
사로
자♬가
알려져
만났
없어요
임신
내는
감싸
번역
인성
사진♬을
흔히
65
작품♬을
##줘서
생태
##이었고
##단♬에
사기♬꾼
올렸
42
##소년
집어
공기
주거
의존
백화점
몸♬에
##하♬에
아픈
고양이
무게
포장
물량
느그
보며
있어도
증시
##사태
동성애
##당하고
##었어
세상♬이
독특
뜻♬을
감각
한국♬에서
성향
합류
돈♬으로
개막
그녀♬가
농업
없었던
들어갔
무엇♬보다
나라♬는
편안
이내
그렇다면
예수
추세
면접
정비
이♬들♬이
했습니다
네♬가
##로♬는
이♬들♬의
##했기
취득
위하여
무관
다수
##왔는데
패턴
수립
##판♬을
##이게
##술♬을
무엇♬을
보고싶
내린
##있으면
품질
연구소
코미디
##말♬은
경제♬가
북한♬의
이경
그니까
합병
당연한
깨닫
등♬은
장면♬이
우울
가스
당초
아무래도
무죄
##자마자
AI
철수
하긴
##리♬와
미국♬은
의미♬를
##화♬에
김대중
##이즈
##화♬에서
시간♬에
영입
연관
##좋아
막아
달아
근육
깊이
공화
75
디스
부실
홈런
##과학
동남
영원히
복수
읽어
집계
##♬다가
##이도
구역
수시
##정♬의
2012
차기
제약
난다
요인
최악♬의
조절
최선
오바
비싼
회계
##시기
일방
적당히
##he
##타♬를
##웨어
진심♬으로
매주
세트
입장♬을
황제
##가면서
박원
##으므로
##하더니
2009년
하지말고
영화♬에
##♬들♬이나
맞이
석유
스카
반전
##효과
일하는
##때♬도
비롯해
구간
거론
부패
어려워
조만
재단
어쩌면
기아
##구♬에
2019
신속
##이름
##인물
사건♬을
##본부
디자
용서
텐데
에피소드
다음♬에
법정
정해
표출
충북
걸로
몰래
진영
때♬부터
배제
즐거
♬스
##저히
CJ
이것♬도
20년
##군♬을
오염
붙어
좌우
##훈♬이
거절
즐기
##람♬이
가상
통상
뜨거운
이정
받아야
메인
내게
말하면
주먹
믿는
패러
##정도♬로
##은데
##실♬에
적극♬적♬으로
오프
파업
우리나라♬는
##♬에게서
쉽지
##란드
##기♬까지
매체
##졌네
알리
친환경
이렇
주영♬이
즐길
상업
잔인
국가♬가
##하지♬도
언제♬까지
첫번♬째
##단지
공중
크다
##했어
##시즌
재료
려는
자국민
직전
사용할
죽이고
역사♬를
##필요
가시
자본주의
이끌어
분♬들♬이
지니
##케이션
대한민국♬을
##주인
게이
고자
욕♬을
대표♬적인
타이틀
짓♬을
에휴
개♬가
##했어요
발달
##지말
##통신
할까
개인♬의
두번♬째
##형♬이
##♬률♬이
몬스터
심한
##했지
##차례
##마스
고유
##능력
함부로
보여준다
보러
##♬에겐
허위
##해야한다
##♬성♬에
시진핑
방송된
어휴
##전문
고대
화♬가
##나이
드래곤
게시
한글
풍부
절대로
그러다
##졌고
바람♬에
곳♬이
기업♬의
음주
##보니까
##민주주의
유기
떨어지는
숨겨
전파
단속
중국♬은
대규모
있으나
##으러
출입
쳐다
##대상
범위
안될
휴대폰
운행
##♬한테♬는
김현
무언
##시켰다
오리
오늘날
저건
진화
5일
아니었다
파견
중학교
##았다고
참으로
조만간
##앞♬에
제3
매번
태도
셈이다
명♬이
막말
스토리♬가
부과
##입니까
##시간♬에
44
화재
기분♬이
지사
전원
##올라
##봤는데
미쳐
자고
최초♬로
대안
##석♬은
훌륭한
이른바
##때문
특허
흥행
##하시고
사로잡
허가
기름
재앙♬이
뭔데
인간♬은
표준
##빨리
초청
##후보
##사♬에서
드는
저렴
♬쯤
버리
##그네
받게
##줘라
##어♬로
등장하는
승인
일관
살기
미니
갖다
##르기
##시험
미래♬를
민주♬화
##진♬의
즉시
장악
3개
##금♬이
넘겨
##시마
의미♬가
일♬에
철도
##집단
##겹다
보증
똑바로
장학
음성
보여준
논문
왼쪽
유출
##십니다
남자♬는
아니라는
##작용
반응♬을
##었음
전염
늦게
43
기다려
##제♬로
##하죠
##TA
##만들
갤럭
마시고
##보세요
소수
체포
##이여
멈추
상태♬에서
##하려면
포항
물타
기생충
문자
부서
환율
욕하는
아버지♬가
그렇다
##저리
##때♬부터
지지하는
##서비스
대립
슬프
벌레
수록
오랫동안
##분♬은
더라도
어떠한
##규직
점유
##♬으론
주연
첫째
##펀드
##미♬는
구글
##♬으로♬도
너♬의
되는거
웃음♬을
부족한
##아♬는
조달
##국♬은
##는데♬도
나라♬에서
##마을
##12
##물♬에
##집니다
출판
연령
##쟁이
없게
포스코
시내
그러면서
조금♬씩
##으라고
##♬치
매출액
사건♬이
코♬로
##해주고
붉은
어렵다
195
베댓님
문서
역량
##노동
개인♬적♬으로
##아들
##신♬의
##물♬로
부드
극단
주사파
영양
으나
개♬의
환영
가려
가동
모르겠
휴가
페이스북
##매매
현실♬을
모습♬으로
##니♬가
한거
뮤지컬
CE
##관♬은
##운용
사람♬에게
천만
♬대로
오타
##책♬을
##트리
##해지는
같아서
##성♬의
##자♬들♬을
##가게
없나
##주♬로
##이어서
수도♬권
퇴직
##벌레
은근
무사
생각♬도
김일
##처리
2010
##마리
##다란
##이면서
##서트
무장
원♬을
스위
##선동
##했음
##세♬로
했으면
보냈
선전
죽고
연극
##60
##때♬까지
유발
##놈♬들♬이
이득
레드
선두
무상
##없음
의외
의장
처음♬에
진실♬을
마이크
연합뉴스
##스팅
거두
##♬로서♬의
맞서
아카
##공항
신분
##겠습니까
##으셨
하려고
외환
##함♬에
떡밥
최우
목사
충돌
출근
자연스럽게
덧붙였다
♬조차
47
선사
저축
판타
직무
재밋
곳♬에서
벌금
내면
##소♬에
##하자면
죽일
그렇지만
알았다
##모♬를
은퇴
어쨌든
##주민
기득
식사
##나와
##커녕
전북
##의♬가
10일
4대
194
폭탄
##할지
임원
북미
방법♬이
##해줄
정책♬을
데미
신종
유형
##이너
안다
눈길♬을
입증
##었네
미만
가졌
##싸움
대하여
동영상
취약
비정규직
2020
전교
뒤♬에서
49
##스♬에
사냥
생각나
비서
##없네
적자
각자
강간
##많이
##나간
국가♬의
##법♬은
귀여워
극우
##♬레기
##관광
##♬산
화이트
##로드
놈♬들♬이
고작
이시
##라고요
향한
##사이
두번
붕괴
##해♬를
가깝
##구역
결과♬가
바라는
흡수
한국당
##♬시
쪽♬으로
기업♬이
##테니
##경영
활성♬화
정말로
왜냐하면
##이구나
##검사
##드라
다음♬과
배운
힘들어
2013
했다는
♬루
할아버지
기술♬을
끌려
만들어서
느끼는
##망♬을
멍청한
소련
##아니고
♬감
멀쩡
간호
오브
2007년
##땜♬에
보급
##건가요
동참
읽고
홍준
소장
투수
##티즌
눈빛
급격
자리♬에서
죄♬를
기억♬이
62
목숨♬을
##억원♬을
입♬에
외치
리즈
##공개
대장
##리다
일일
##비용
갤럭시
본질
##80
같고
600
계열사
드러내
끝나고
##♬율♬이
##션♬을
점♬은
국산
어떨
정확한
##더군요
황금
##거라고
2일
##전♬으로
정도♬는
##수♬에
의문
안가
옷♬을
측♬은
부지
있음♬을
드리
몇년
##하라는
나라♬에
##시♬의
##우리
##였습니다
##센트
하나하나
##토록
관측
자라
블록
정수
어느정도
색깔
##마♬를
##해서♬는
듯이
보완
승부
미통
일자
진술
수영
협조
초등학교
열리
비즈니스
가질
##았습니다
인프라
갈아
##함♬과
기존♬의
정상♬적인
입장♬에서
중도
교수♬는
##관♬에서
장치
쓰지
교환
누적
위♬에서
##스테
받는다
부모♬가
사람♬들♬도
명단
씨♬가
잘하고
민생
##리네
캐나다
애♬들♬은
채택
담긴
다르다
##지면서
움직임
##하길
버린
과도
##안하고
한남
##차별
건지
15일
파트너
브라질
서비스♬를
주기
후배
전작
생각할
공략
들어갈
나간
##고♬는
##있지
##저기
타이밍
공짜
넘어서
시달
첨단
마지막♬으로
##해지고
댓글♬을
이번♬엔
평가♬를
세우
연방
해방
##하지마
외면
##이나
마땅
인원
거대한
진중
고집
범죄자
분♬이
챙기
좋게
쓸데
##통합
들어가는
인간♬들♬이
##명한
검찰♬은
죽인
##♬으로♬만
1도
얼굴♬에
##승♬을
엔딩
##아닌가
자는
종종
메시
국민♬들♬의
앞장
프레임
##해질
근로자
##어♬는
민주당♬이
유승
자제
노트
##민족
번호
##결과
그러므로
광역
조각
상영
##지♬에서
##어로
예쁜
항목
##과정
괴물
실시간
남주
오른쪽
캠페
호남
##집♬에
후속
당당
대한민국♬이
##보면서
##아리
특유♬의
##발♬을
정치♬를
여친
입은
실무
##직한
수천
유입
##정♬권
나가는
46
공시
##♬분
##식♬은
4일
##다는거
가치♬를
한일
##씨♬의
20일
가슴♬이
넘게
구라
서초
힘들게
빌려
자림♬이
증상
##호♬의
##구석
애♬가
##가격
##조♬는
수수료
그런지
누나
모르게
##르지
사업자
프리미엄
계기
구현
보세요
##속♬에서
7일
주변♬에
운운
홍준표
명품
##느니
수준♬의
유동
어지
처분
노란
##시스템
태어난
구청
##고기
모습♬은
건가
보아
지점
상대♬적♬으로
거라고
공격♬을
새롭게
제외한
점수
이만
##비♬로
민노총
작전
자신♬들♬의
그야말로
그녀♬를
##는데요
♬론
##해준
침해
##체♬의
##조♬의
착용
##았을
##폐렴
##비♬에
아끼
귀족
한때
##다니는
##타임
달고
각오
들이
마인
표창
##금♬으로
다이어
자국
적합
##수수색
신중
간부
부하
조금♬만
체력
던져
감히
문제인
##신♬은
장점
고교
어떡
말라
이행
지속♬적♬으로
54
재수
나면
##하지♬는
진료
담아
드러나
##교통
양산
보관
예약
##을까요
산다
협약
♬들♬이
##있냐
정신♬을
마스터
느낌♬을
찬양
코스피
실장
할때
돌아온
뿐♬만
후손
서양
##책임
감정♬을
##어지는
어려울
방탄
기다리고
##ou
한국♬을
기어
##치♬는
것♬만
급증
나중
노력♬을
##상품
드루
##♬대
자세히
##라엘
맞게
창원
꿈꾸
지각
##었지
고문
정지
당하고
양반
##았지만
밖♬으로
구멍
않도록
호랑
손실
추석
##동네
일대
모르겠지만
캠프
유닛
시킬
적응
강하게
충실
##♬만♬으로♬도
가벼
##가스
된다면
2개
일시
##버려
일반인
##회담
##십시오
말♬만
금방
인기♬를
아이폰
##대학교
아오
추락
단순한
스페인
끊임없이
경선
붙여
들어온
맡은
##♬님♬들
기원
##내기
사회♬의
급여
곧바로
관계♬가
돈벌
정권♬이
정유
##이브
관찰
하하
어두
계획♬을
거대
변동
줄이
전♬부터
기기
부각
조중
손♬으로
만들어진
넘어가
특이
기대♬를
무서워
IM
요새
##분간
정착
조종
이태
아픔
고기
러브
부분♬을
경찰♬이
일본♬을
##기준
끝날
열고
방사능
날♬이
##되게
종이
즐겁
당해
충남
##명♬에
컬러
1등
재생
민주당♬은
##렸는데
##색♬이
잘하는
##테크
채워
압수수색
너♬가
여겨
커다란
연설
그♬에게
졸라
##되었고
이후♬로
학생♬들♬이
매도
##직♬을
포함한
2011
아가
공작
##업계
지도자
유일하게
##듯한
어케
상당한
블루
부회장
집♬으로
나타난
시사
##후♬에
하는짓
규모♬의
##치♬로
##희♬가
그간
아닌지
14일
논란♬이
국개
이번♬에♬는
##는다고
##언론
##운♬이
무식한
##희♬는
김기
##♬들♬에게♬는
연기♬를
인형
로마
힘들다
##버렸다
##금♬은
이스라엘
생길
끝났
##스키
캡처
정경
지원♬을
처음♬에♬는
배당
신♬의탑
매니
청산
네티즌
여건
##우♬를
한가
해보
에어
##루션
본인♬의
보복
##et
투어
말았다
사이♬에서
♬으로서
##그런
동부
전망이다
테크
감추
##일♬로
##피아
소위
속♬으로
메뉴
메이저
##드♬로
##IA
비핵
##잡아
회견
##줬다
지껄
보여주고
##시켜야
생활♬을
시계
##사항
메시지
바퀴
파리
신입
##회♬에서
답♬이
기구
비하
스럽
감상
국내외
입법
##제한
앞두
김진
##와중♬에
더블
##es
##드러
현행
이름♬으로
트리
않아도
모니
뇌물
기레기
경제♬적
생물
런던
밀려
##보호
##있습니다
##회견
화제
내지
정은♬이
##트♬로
도저히
여기저기
♬으로부터
필리
이해할
개설
경기♬를
##일러
봤다
왕따
파란
밖♬에
물♬을
##it
##갑니다
맞은
화려한
달라고
##♬에서♬만
이영
생일
올바른
공인
전역
있는게
대량
추적
♬으로써
이익♬을
쓰면
##더라구요
##았으면
규칙
훼손
##력♬에
##국♬으로
중요하다
부르는
재건
담겨
청약
##이♬와
기도
변화♬를
늙은
중고
미개
만일
##선♬은
초과
1조
남친
하얀
불가피
수고
안드
설레
##편♬이
하네요
하겠다
##회♬는
홀로
라면서
##했나
고령
분위기♬를
안심
##년간
당부
##년♬을
이전♬에
위로
지출
##이래
윤미
##는것
지어
있다며
스릴
정의당
##움♬이
본래
진상
길♬이
허락
##신문
아가리
머리♬에
확진♬자
나이♬가
59
틀린
자기♬들
##옵니다
GS
##팔♬이
##이요
눈물♬이
시대♬에
선박
기회♬가
브리
신인
##좋은
국민♬들♬을
##소♬는
##럽고
급식
불행
세금♬을
##소한
만들기
##재♬를
##관련
##봤자
##공산
교도
지향
판정
##으시
불매운동
♬야
##15
##봅니다
부분♬은
##하♬의
회장♬은
요즘♬은
구단
트렌
##차♬는
##♬률♬을
##하이
짐승
고쳐
사드
재개
한강
현재♬의
수집
1천
문제♬로
##끼리
명칭
지혜
을까
경비
안쓰
내다
따뜻한
계층
마크
쪽팔
오토
주제♬에
지표
##중인
노사
부당
어르
120
북한♬은
허리
행복한
##버리는
법♬이
##00만
올리는
주최
욕심
##학♬을
이름♬은
##되는거
##심한
하라고
키로
세포
이라고
선출
명백
##자동
동남아
25일
중국♬에서
뒤집어
8일
탈락
걸리
평양
깔끔
같았다
##면♬을
오버
새끼♬들
유가
지진
와중♬에
실내
많네
주장했다
중립
취향
##장애
넣고
부딪
##투표
##모♬가
##겠는가
##산♬이
월요일
보편
성실
##사람♬들♬이
##관♬에
자신♬에게
##민♬은
에스
##라♬를
측정
아파
노후
계속해서
즉각
비디오
자발
편이다
##였지만
욕먹
58
짱개
권력♬을
끔찍
180
상실
얻은
문재앙♬이
귀여운
배워
느냐
기능♬을
시골
태어
화장실
##르트
돼야
강아지
박수
인용
##혀서
약한
경향
##행위
기상
리뷰
##혁명
어둠
##ic
##가는데
##일뿐
이순
저장
##♬성♬의
##계약
싶어서
점이다
유전
견제
##치♬의
##왔던
블로그
완벽한
6일
담보
차♬를
강원도
85
국방부
경력
없기
##공♬을
침묵
##남자
신호
##물고
##♬심
간담
소문
##식♬의
핸드폰
드라이
##경♬은
못생
대거
##법♬에
##체육
창작
이러니
##스♬로
##해진다
장착
찾을
체크
있죠
대화♬를
##지♬와
상무
계좌
중독
2009
기자회견
기♬레기
분쟁
11일
교육♬을
물타기
올랐다
날려
위대한
##리즘
마녀
##이었지만
95
알아야
무시하고
스크린
나설
눈물♬을
이수
있다가
뒤♬를
그♬들♬을
김재
가계
강경
12일
한심하다
##세♬의
봐서
구상
##렸을
썩은
좌좀
듣는
윤리
앞세
13일
결국♬은
지주
##구먼
감당
6개월
실종
##이므로
고수
아름다
뮤직
자유한국당
뚜렷
놓은
기쁨
창의
16일
부러
9일
찍은
##그리고
나오는데
스펙
걸고
##세♬에
줘야
많았다
나섰다
위험한
시청자
주위
물류
나베
입원
비행기
최후
##훈련
##화♬의
인생♬을
문제다
##추행
##선♬에
##으세요
##수있는
간♬의
자체♬를
행태
2008
안들
탄탄
먹어
56
성폭행
방영
가격♬이
고스
입시
##바라
핑계
금메달
곳♬은
지연
##선생
단식
비대
무척
살아라
재미있게
##감정
##림♬을
백성
##정부♬가
코믹
애기
잃어버
편성
CEO
##인♬들♬은
반대♬로
만만
##증♬이
숫자
사안
상태♬로
방치
23일
시끄
공주영
가치♬가
학교♬에서
##회♬가
##욕♬을
커뮤니티
천천
아들♬이
##러리
찾아가
그런가
보내고
콘서트
##리면서
충성
도발
싱글
간접
신♬이
##로우
10점
가족♬이
딱히
##새끼♬들
떨어졌
해고
슬픔
의료진
못하면
돈♬은
웃긴
2주
평점
정도♬가
그지
문제♬에
집착
우리나라♬가
27일
확신
♬보다♬는
화장품
##세♬는
주간
##했냐
전화♬를
어머
마친
도서관
##연히
##쓰레기
싸워
##좌파
불리는
##았네
코너
생각♬보다
제국
대통령♬을
엔진
17일
계급
##부지
특혜
지역♬의
형태♬로
18일
내수
##사진
22일
26일
왜구
한마디♬로
우연히
##이거나
배상
올리고
24일
사무실
거울
엄격
호기
##엄마
게임♬을
##할거
##무기
대법원
그♬들
28일
중대
박살
신발
차원♬에서
뽑은
##도♬에서
열정
어우
21일
##자식
19일
##ST
##재♬가
##즈♬를
오류
천천히
노래♬를
점령
##타고
성남
건립
너같은
려고
##세포
##♬에다
소형
여론조사
태풍
##민♬의
박지
소중한
최선♬을
##잡이
하드
##사무
PD
테스트
##작♬을
##디션
의학
죽음♬을
##소♬에서
없냐
일요일
##통♬을
위장
수리
구미
보라
##사♬들♬이
의뢰
##국제
대대
수준♬으로
설비
한대
일러
##하기♬는
있는가
수주
해군
침체
종사
마누
먹은
구경
영화♬에서
해피
##하실
내렸
전후
##었는지
날씨
##스레
수급
미통♬당
이어질
양국
누굴
귀찮
##아웃
##사실
하야
##물♬의
##사인
상속
사이버
관련해
이용한
518
방법♬은
뇌♬가
않기
##정신
##있나
MC
손님
씨부
대통령♬님
주면
##것♬처럼
제품♬을
모니터
유력
정부♬에서
증언
우리♬를
하도
자존심
어이♬가
##km
##놈♬은
회수
열리는
되찾
키스
불교
##레인
무력
##편♬을
응원합니다
여태
##까진
일어날
##미애
##겨서
호구
모조리
리스크
부추
##내려
##절한
살아가는
박원순
마음♬으로
치는
2006년
기본♬적♬으로
뜯어
코스닥
53
들어와
##보수
테마
녹색
마음♬의
발동
시상
신경쓰
유권
웹툰♬이
##집♬을
##시코
나♬서
막상
##기면
편리
##고♬도
자유민주주의
##민주당
##방♬에서
##브리
엘리
억지로
세운
방향♬으로
경험♬을
##는거임
한국♬당
사모
##프♬를
나♬에게
##했다면
##이었습니다
##있어요
##겟다
전형♬적인
이슬람
플래
김동
꼬라지
하지마
임상
안녕
진중권
크고
농협
납치
이낙
웃고
핑크
지경
##70
##베댓
불쌍한
정권♬을
말라고
원정
##법♬으로
웹툰♬을
##se
충족
##♬이네
미국♬에서
치명
터뜨
득점
마구
입국금지
조국♬을
내♬에서
노릇
세계♬를
버려
보았다
신세계
있었습니다
작곡
잘라
5천
합시다
##리우
시범
##기다
사회♬에
##봐서
유로
사이♬의
보는데
##제♬에
우와
탑재
이제와서
예외
##비♬의
##있을
##선♬의
##ED
##형♬을
되면서
30분
##거리♬가
##한지
미소
진모리
마침내
##제도
##하지마라
##트롤
우리♬에게
##있던
민감
♬에서♬는
별도
##데이트
질투
나갔
유공자
물려
예배
조국♬은
비극
다크
장식
##아니냐
중동
##소설
##고♬가
사령
##순간
하라
도중
끝♬이
비트
우습
2번
일행
##어♬의
않았던
폭망
웹툰♬은
##프로그램
##학♬의
파이
최신
감수
제조업
죄♬가
##정부♬는
프로그램♬을
항의
tv
##자치
이주
64
싸이
되어야
2020년
♬아
푸른
되었고
망가
어색
##해져
구제
인종
##거리♬를
조지
##현♬은
줄여
잡은
##해졌
일본인
싸우는
이종
##아♬의
논쟁
녀석
##했다가
##한거지
추종
연상
차관
##박한
세무
공부♬를
뛰어나
등♬에서
것이라
##살♬을
##이♬들♬이
30일
구체♬적인
일본♬에서
##성♬에
방법♬으로
외♬에♬도
어르신
##통♬이
드루킹
장애인
안하는
##우♬의
미칠
타령
외♬에
않는다는
이후♬에
위치한
##성한
포스터
미국♬에
##편♬에
것이며
라이브
등♬과
질질
일종♬의
##수♬와
주한
서구
나은
##원♬과
고통♬을
장례
##로♬의
피아
##재판
여의도
라운드
싸울
널리
북괴
대상♬이
스튜
한층
단단
길게
스티
영광
손혜
##그만
##시킨다
계시
##상♬으로
대다수
대한민국♬은
##해졌다
국장
##예술
##화♬는
과감
컨설
욕망
플러스
##씨♬를
##lo
두려워
잃은
갑니다
투자♬를
공단
대해서♬도
민심
가자
제압
##운전
##위한
조회
##작품
##전략
30대
##하겠지
##병♬을
벗어
##안전
단행
목격
여자♬를
얼른
담은
##린다고
민중
농촌
##둥이
##혔다
있으니까
목소리♬가
##하는거지
바쁘
##스러워
학년
역전
둘러싼
국세
다룬
시기♬에
##스카
잡을
성추행
청주
써야
새해
♬인
성과♬를
##력♬의
베네
##♬상♬의
5개
위♬의
800
상임
괜찮은
테이
저지른
가르쳐
모색
아서
않아서
혼자♬서
##버그
입♬만
##re
그릇
말투
최초♬의
##지다
##것같다
통보
CC
도심
##크♬가
해운
시선♬을
##조직
용인
대외
지불
발악
떠난
정권♬의
##적♬은
하나♬를
##얼굴
이따
정규직
국정원
그♬와
84
##♬들♬이랑
##패♬를
순식
조중동
살리
충청
확실한
아빠♬가
##이거
화폐
다큐
낮추
해주는
66
입사
놀아
들은
몇번
1번
4개
##페이지♬에
시인
무렵
비유
말이야
##는건데
##스탄
##조정
끌어올
##크♬를
##시티
지적했다
##le
이분
고전
아쉬운
##♬이♬는
##잘못
고등학생
일치
개국
후쿠
성범죄
당일
엔터
방안♬을
##♬로♬만
##테인
##보이는
##물관
의하면
해제
##있는거
##그림
점포
없던
비교♬적
아닙니까
오바마
면역
것♬보다
##나♬의
살아야
승진
이대로
더벨
조사♬를
구별
본사
미국♬과
유아
편하게
##나온
종로
인간♬을
개학
초등학생
멀티
시장♬에
♬치
##섰다
대표♬가
기사입니다
공익
##있다고
아메
선도
1회
공동체
우유
모순
쓰레기♬들
57
잘못♬을
입찰
안고
질문♬에
##지능
총괄
신념
##타령
돌입
##♬만♬도
##립니다
전무
싶지
##놈♬의
보다가
팀장
갈라
##레이션
##부♬와
##하기♬에
버렸
##거같은데
전사
큰일
크루
합법
추가♬로
예의
않았지만
생각했다
하위
##맞고
##올림픽
내♬에
도달
##♬감♬이
##락♬을
##감♬은
어마
##방♬이
인정받
자림
뜬금
운명
1위♬를
하지마라
존재하는
정치♬권
적어
단위
입맛
법♬적
##나보네
나빠
신앙
##있어서
제주도
잡는
다스
앞둔
슬픈
불어
아아
##미♬의
머릿
결의
유대
##♬로♬도
##♬자♬는
써서
막을
##시한
##am
마트
징계
본격♬적♬으로
스탠
##포르
3대
서서히
193
##십니까
이상♬이
임직원
수면
주자
##CD
일반♬적인
##하였고
태양광
지명
안해
맥주
댓글♬에
##보게
바르
##기♬들
태국
법무부장관
인격
##인♬에게
적절한
숨어
##세상
갖게
정도면
안팎
IP
건드
히어로
지은
##았다는
현재♬는
개정안
합쳐
##인데요
##할것
오면
역겨
아이고
##모르
뭐하는
전직
신상
2005년
이야기♬는
탓♬에
이만화
가능♬성♬을
품목
##공간
##고생
어디♬에
들여다
가볍게
88
##연♬은
또라이
##걸까
시작한다
계신
좋아서
느끼고
격려
원숭이
스님
증권사
##그릇
##웠던
생각하지
히로
눈길
늘려
태평
초래
영업이익
소식♬을
##하다니
모은
소모
##고한
##색♬을
보존
##모델
대체로
##제♬의
떨어뜨
생각♬에
업데이트
한숨
63
남부
##빨갱
지나가
탈북
만화♬를
크기
com
싫어하는
교활
캐스팅
는가
##령♬이
작동
##번에
않았고
##학♬과
사라진
##만원♬을
떠들
##18
뛰어넘
건전
언젠가
국민연금
점심
##시스
올릴
##자유
##장한
##이잖아
경찰♬은
이♬쯤
포르
평창
해상
표출된
떠나서
대륙
남탓
필리핀
시체
안나오
목적♬으로
결말
케이스
##바람
##거♬는
목소리♬를
말자
절감
양보
부적
아버지♬의
인턴
경매
전주
소외
저딴
갑♬질
##했으니
이상♬을
##OOO
토요일
캠페인
건조
초월
덕분
속♬이
사랑♬의
밤♬이
주행
당분간
29일
##통수
김민
일진
##는건가
어디♬까지
일반♬적♬으로
짐작
접속
뻔한
극혐
명절
##생명
자위
##이사
행보
##탄♬을
늘리
마르
주어
##였다고
메르스
하수
오오
배♬가
리더십
곳♬으로
##관♬의
##발♬이
민지
다녔
11시
문대통령
72
발생한
용기
##해놓고
넘치는
##돈♬으로
배터리
무엇인지
##건♬을
조롱
풀이
방위
솔루션
기사♬가
술♬을
##등♬을
##독재
어디♬로
하는건
MA
하시는
##속♬으로
플랫폼
충전
케이블
##얘기
되나
##면♬에
##곳♬에
장면♬을
로드
전제
##인데♬도
비전
이것♬을
하더니
30년
2000년
##내야
분위기♬가
어딘
바꿀
##하겠습니다
순환
지나치게
잡혀
회피
##싱턴
안됨
승리♬를
##병♬이
잊지
업그
찌질
강렬
꼴통
유연
독점
주인공♬은
김수
##니즘
않음
지리
##것♬만
있나요
##해온
융합
많지
##살♬이
짓거리
초반♬에
전쟁♬을
얘기♬가
혈액
비하면
##왕♬이
##물♬은
시대♬의
될까
상처♬를
전일
##였어
##♬로서♬는
작중
##것♬들♬은
딸♬이
♬류
미래♬에
2천
섭취
이끄
##으려는
동일한
펼치
자네
과거♬의
유료페이지♬에
청춘
과거♬에
관여
판타지
의원♬이
멸망
쓰레
##즈♬의
##부♬로
수사♬를
예상된다
분♬들♬은
재활
각성
사람♬과
넓은
해준
김상
도박
어쩔수
##공단
엄청나게
##바다
수소
교통사고
뒤늦
##클럽
##가루
극대
도와주
다음주
##지구
아무튼
클라우
정서
엉덩
또다시
사서
##하진
영장
진작
편견
먹으면
다행히
##♬까지♬만
정확하게
##아냐
기본♬적인
때♬의
몰고
바람직
대단하다
그림♬을
낫다
것♬들♬은
남편♬이
일각
##공격
추모
##사람♬들♬은
아니에요
##일듯
##시켜라
이재명
일으킨
누구♬도
남기
유용
##검찰
이천
정답
강행
육아
##렸던
영화♬로
2만
우한폐렴
##대책
있긴
지역♬에
안되고
농민
700
사죄
쫓아
##기능
더더
포스트
대목
절망
역사♬적
데이트
컨셉
려면
##♬계♬의
세계♬에서
##동♬에
상황이다
크리스마스
부작용
트레이
서버
##도♬와
중구
세뇌
성매매
하여간
편의점
스타트
##없다고
받아서
작품♬이
##식♬에
##일으
자신♬은
베이징
안달
갖춰
##적♬으로
문정♬권
같다고
##감♬에
소프트웨어
이미지♬를
합동
하루♬에
시장♬의
##량♬은
동화
##개념
들면
당첨
자회사
넘기
독특한
##♬님♬을
##치♬에
크로
세부
여기♬는
##법인
하지말
전수
윤미향
현황
##활동♬을
방금
촉진
계기♬로
NH
높여
무덤
##즈♬가
대해선
될지
4000
여신
했는지
##PG
이상하게
##릅니다
##와라
##♬화♬가
피고
마디
상환
한방
##그냥
##시네
나이트
떨어질
야권
사회♬가
##들여
변명
소상
IMF
혜택♬을
##구멍
여성♬의
FTA
##♬까진
위조
##내서
의해서
있겠지만
교육청
수구
주장하는
##고속
##인건
자유♬를
##위기
제외하고
##자♬나
타입
낭비
믿음
공♬을
##공원
아닐까요
##스럽고
운영하는
##재산
국민♬에게
사실이다
애♬를
##나가는
음식♬을
정황
넘쳐
발급
철거
돌아가는
경우♬에
연평
화성
나대
##령♬을
##리는게
무섭다
간신
##인♬들♬의
유독
한창
##장♬도
신도
확인할
##트라
1주
##음♬에♬도
기재
잃고
##♬마냥
버전
장군
심화
##스트라
싫은
디스플레이
##담♬을
지원금
누르
하나♬씩
억제
자영업♬자
최적
3번
자문
##열♬이
##애♬들♬이
수습
동작
타자
머리카
##♬으로서♬의
옳은
목표♬로
교과서
힐링
인기♬가
##임♬에♬도
식민지
병사
##시키기
결과♬는
놀이
##어주
##이건
하늘♬을
외계
대부분♬이
오피스
설문
회사♬가
해놓고
##한♬이
정통
그딴
##국♬에서
이룬
박영
##없어서
분량♬이
##소♬의
왜이리
##TBC
##셨다
##로워
##당하는
전라
가속
튀어나
치러
##의자
식물
궁금하다
##♬에서부터
보낼
##현실
찾기
인물♬이
모르지만
상관없이
골목
왤케
경주
느끼게
열린다
하신
추미애
미성
이라크
친중
소요
돈♬도
새롭
민원
공개된
한동안
아이♬들♬을
##스케
되냐
##빠진
시장♬에서
성별
주리
##대출
강연
##영♬의
신화
3개월
쩝쩝
메갈
모험
##되나
맘대로
침략
생겼다
사망자
경제♬를
준우
경찰서
시장♬을
임무
일어났
2004년
유족
##꺼야
모범
대구시
멕시코
##다는건
나가서
##놈♬들♬은
이용하는
운전자
##없는데
빠지
♬마저
상대♬가
시작된
여러가지
##기전♬에
##관계♬를
들어가서
##피탈
주었다
궁극
앞뒤
##하든
듯하다
정성
김지
맛♬이
##마음
올렸다
동해
사고♬를
좋겠습니다
티켓
##사기
어리석
##노조
기후
비중♬이
개웃
NC
부분♬에
시티
##함♬은
조장
다음날
##대문
파는
##타♬가
반려
옆♬에서
조합원
피곤
거냐
많을
입장♬에서♬는
애매
조명
##내♬가
##경북
세계♬의
냉장
인공지능
신라
##중앙
따져
종족
##보며
벌이
##근데
교육부
회사♬의
##리나
여권
창피
자까
민정
암살
##꾸로
##생활♬을
연휴
낮아
##하루
##이지요
일본♬과
작품♬은
엉망
이쁜
후진
##앞♬에서
실정
##ing
##겠지요
인사♬를
이어지는
##일본
##학♬적
거고
77
바꾼
혐의♬로
사랑해
김일성
##♬화♬는
서브
때♬에♬는
놀랍
죽이는
되어서
스트레
##데미
꼬리
시민단체
결심
##시작
대한항공
편입
귀국
##회♬의
정부♬와
전하
##대사
오만
갑작
보소
##자본
##폭력
눈♬으로
놀고
끌어내
##인게
받아들여
즐겨
##♬이란
대주
취지
힘내세요
세상♬에서
##토리
소멸
몸매
재밌는
치유
운동♬을
성공한
바깥
내용♬도
하나같이
히트
##프♬가
##환♬이
여자♬들
절실
파일
지네
40대
나♬한테
정원
기억♬을
박스
이♬들♬을
이적
싶은데
대접
아는데
살아있는
성숙
##TE
토끼
응급
##그라
##가치
스승
1화
주류
독립운동
힘입
바스코
얻고
학과
갖는
워싱턴
작가♬는
줄줄
요약
근접
택배
당하는
뭐니
명분
이정도면
반대하는
시키는
거친
친구♬들
미션
놀러
이해♬를
##자체♬가
후보♬는
살다
메리
##겠니
추경
강제♬로
##셨으면
싶습니다
수령
아침♬에
아샤
##가포르
틀림
##생산
교훈
##참♬에
연인
이쪽
67
##분♬들♬이
가공
저정도
인건
남자♬의
출석
못해서
사라지
중계
남긴
##지방
가해자
##터♬를
하느
##더러
퀄리티
##느낌
환상
국가♬를
벌어진
철회
그러자
##비율
경험♬이
포켓
##어준
커버
상향
변화♬가
살면서
보내는
##인것
##교수
상생
골드
먼지
##가운
급등
##평♬을
천연
준비♬를
아직♬까지
불♬을
98
##파크
##♬률♬은
선제
마사
##우지
김정은♬이
작업♬을
신임
로맨스
##테인먼트
걸렸
2021
##풀이
##약품
서술
총선♬에서
##정당
싱가포르
계약♬을
싶으면
바란
컨트롤
게재
엉뚱
##역시
음료
부끄러운
곤란
사고♬가
빌딩
의견♬이
시작♬으로
♬층
앞장서
성격♬이
연수
제이
않냐
패러디
깨끗한
하려
시장♬이
##가♬로
포트
##판♬이
목표♬를
코로나19
알렉
돌아다니
하여튼
##나♬를
##선♬에서
위축
이해찬
있네요
꺼져
##대♬에서
사람♬으로
찾고
##네시아
금속
성명
##놀이
##보드
##16
경제♬는
CG
내야
언론♬이
##추어
죽창
지인
##하기♬가
중국♬과
##로이드
##없으면
질문♬을
##위원장
있을지
vs
##정♬으로
본인♬은
##야구
##월드
##더라고요
붙잡
카운
생각한
끝나면
패널
미래♬가
세탁
생기는
그다지
비핵화
##빈♬이
##론♬을
구석
IB
조폭
##공화
길거리
##키는
##력♬도
전지
명작
##CC
가벼운
제공하는
1시간
##13
금강
##고♬에
거꾸로
마음대로
이병
등장한다
심상
놈♬들♬은
##즈♬는
2배
학살
##바지
##구니
감정♬이
아이♬들♬은
하나님♬의
추격
##아주
##사이트
시키고
모인
심하게
생생
서해
김용
보좌
##였음
2위
##종일
##대기
##청♬은
68
##컷♬에
납부
##14
위기♬에
방송♬을
##스♬에서
##시죠
사회♬에서
견해
플라
콜라
저작
##지상
1개
##순위
영토
공지
프린
##경쟁
조항
관세
자격♬이
움직이는
하여금
스코
정권♬은
사우
학교♬에
돌아와
김연
2002년
##나오는
##출신
##el
특화
등장한
만화♬가
정신나간
막장
페이
192
지침
74
##되냐
사장♬은
##만♬의
공기업
간♬에
욕하고
##운영
밤♬에
무엇♬이
막고
##니♬는
유전자
경호
##NA
세기
##가다
금요일
##봉사
나름♬대로
##연♬의
하거나
달린
기지
국민♬들♬에게
##인♬에
##둘러
##치료
바쁜
것♬들♬을
사면
경기♬가
즐거운
잔뜩
발목
노하
##알고
공무
##받침
철강
어머니♬가
##♬적이지
동북
컨설팅
##였으면
법칙
특별히
##편♬은
##호텔
시대♬가
100만
셋째
매니저
##중♬에♬도
앞선
##포♬를
같네
삼국
퇴출
인도네시아
말인가
간담회
##공♬이
에라이
걸릴
않았을
##왕♬의
골라
나♬랑
저자
나눔
재미있는
육군
##못해
이용자
전담
그치
별다른
##안되는
맡고
##버릴
##디언
착수
주머니
방학
아니었
과세
69
정면
##집♬에서
봉쇄
재현
##하듯
아이♬의
해줄
서명
##이후
##받지
##서♬의
##시피
##리는데
양쪽
재건축
현역
##동원
채무
유니클
희망♬을
안그
사랑♬이
##패스
실화
만나는
시중
아버지♬는
나서서
비타
확실하게
쓴다
정치♬적♬으로
##래요
##년♬에
##용차
##꺼다
살펴보
##부인
##축구
##인걸
탑승
적지
지나가는
정부♬에
국어
작가♬님♬은
##자리♬에
승객
미스터
아스
스웨
확충
♬경
강남구
말아야
선별
다닌
자료♬를
##이신
개척
납득
있었을
##아파트
내주
순식간♬에
물었다
올라오
##하더라도
아름답
들어왔
##일♬도
##줘요
코♬로♬나
클라우드
표기
##건♬이
저소득
편지
##다는걸
유혹
지역구
우리나라♬의
밴드
대개
어떨까
놀라운
경찰청
잡지
해산
거품
개연
목♬을
2007
미루
되돌
탄압
여동생
클래식
오를
##♬권♬에
일어나는
##♬대♬에
행정부
민폐
원천
누워
어딜
##터♬가
대항
AP
커지
플레이어
OOO♬들
최상
발♬을
##재♬는
권고
시스템♬을
그중
##어마
##시간♬이
징징
##양♬이
습관
포털
##해봐라
곳♬을
##상한
앉아서
##어지고
거♬는
받으면
조카
##미♬로
미리보기
가요
만화♬는
FC
가슴♬에
흥분
용산
와인
죽으면
##저나
힘♬으로
있구나
못했던
발표한
산하
250
협정
번♬도
티비
무엇인가
##하기♬를
##졌는데
자체♬는
##하자는
고딩
본격♬적인
##밀한
아나운
때문입니다
JTBC
##가기
것인데
하나♬만
##액♬을
한게
##100
##설♬을
73
거짓말♬을
사건♬의
##안타
조상
##졌다고
##연한
##대전
##우기
모래
인스타
##런스
##금리
과목
에너
##연맹
브리핑
시비
남는
물♬이
이웹툰
##들이
가이드
충분한
레전
손♬이
유가족
잠수
백만
지는
암튼
만나서
유재
있었다고
##분야
상가
상태♬가
##성♬과
늘어날
사회♬를
##♬라
포지
♬심
요구하는
개헌
##is
개인♬적인
피♬를
순수한
장면♬은
전체♬를
개돼지♬들
이용해서
##내지
심의
추방
캐릭터♬가
광장
생명♬을
##트♬에
워크
##보여
##♬화♬에
안됩니다
피♬가
열었다
보육
표절
측근
다짐
##리포
왔는데
사실♬상
##때♬가
거기♬다
안♬으로
더한
3D
##키지
##부♬에서
##교♬를
과시
화물
##주도
급속
##하고♬도
그대
국적
##양반
2003년
자세한
언제♬부터
##죄♬로
##체계
##천지
##하구
후보♬가
파고
삼성전
##트로
아리
##오빠
역대급
예뻐
신비
##드려요
키우는
전기차
방송♬에서
##마니
고스란히
##미널
바라보는
비로
지키는
지키고
##통일
하필
구름
아트
잘살
##버린다
고개
살게
라이프
순서
##id
조세
##FC
##달라는
드림
##재단
안맞
빛♬을
##어질
걸음
기다렸
주제♬로
결혼♬을
##달아
10대
가방
퇴근
모욕
불평
겨냥
##자료
들을
이낙연
거슬
제임
성립
적극♬적인
여긴
##겠군
임총
없네요
맞을
##밖♬에
##선♬으로
##시요
장수
구성원
##테고
##25
온다
부끄럽
전광
입지
울고
##골♬을
해봐라
예금
##아프
맥락
하는것
금호
초록
시장♬은
프라이
##카페
안산
위성
여파
문씨
89
으면서
읽는
다닐
세계♬적인
##스턴
문정부
행동♬이
##담♬으로
터져
거치
그쪽
수준♬을
##배♬를
##게♬도
국익
슬퍼
분산
병역
코드
##반대
클린
##인사
문가
등판
현직
면적
없는거
했지
저걸
성형
터키
기다리는
탁월
스러운
연료
난민
무작
개소
1점
##♬한테♬도
##테일
76
쌓아
최다
마이너스
소용
##기구
이집
##하자고
처음♬엔
##사리
##♬네♬들
##손♬으로
내릴
엄마♬는
##♬들♬과♬의
자칫
##각♬을
조금이라도
물건♬을
어디♬가
##운♬을
##자면
KIA
서부
##겟지
매력♬을
구원
어렵게
않아요
배웠
망할
오고
##못하는
##자원
##기♬나
##식품
중♬에서♬도
위기♬를
자부
IC
그레이
관종
##피해
##체♬는
포럼
없다면
시대♬를
대통
##일리
지났
모드
##의원♬이
브레이
##되자
속♬의
잘생긴
나불
화♬를
##걸고
여자♬의
슬슬
78
관료
등신
영화제
물♬에
면제
기온
##인척
현장♬에서
##거리고
봤을
독서
##장난
더구나
대학원
감탄
아이♬는
##재앙
재발
##부장
##♬이라도
##르르
클리
유쾌
주년
방침이다
##쇼핑
스토리♬를
내외
이제야
##줘도
학생♬들
원자력
출생
따지
어려움♬을
맙시다
단축
경기♬에서
자한당♬은
##녀♬가
##실험
엑스
호응
##ol
사립
다해
##마크
지켜보
꼼꼼
##이닝
##만♬이
##히지
인정하고
##이오
부디
여행♬을
기쁘
이마트
헤드
주재
어두운
대표팀
레알
영구
유해
##학자
전략♬을
무인
미성년
덕♬에
심심
발표했다
지지자
##걸이
##의♬로
##주얼
연기♬가
업그레이드
나타나는
나란히
차세대
사격
##17
공평
##종♬을
왜이렇게
사라져
뒷받침
안하면
지니고
떳떳
코난
##동♬의
어쩌고
막기
대미
기뻐
무선
전술
김제
같지
여섯
♬랑
농구
내밀
스튜디오
중시
몰랐다
현안
귀엽다
시간♬은
부른
♬커녕
문화재
##지않고
공개했다
자신♬도
##세여
마이클
문제점
본능
일본♬으로
가입자
얼음
고구마
자진
대구경북
납품
훈훈
땅♬을
대행
싫으면
영남
수장
중견
##는건지
비례대표
계절
제로
변태
정치♬에
간절
류현
니들
소지
이용할
기득♬권
##못하고
주장♬을
##♬용♬으로
장학금
무소
이루어진
에이스
사랑♬에
되었습니다
치우
##억원♬으로
##보소
이상♬으로
냄새♬가
젊은이
##♬자♬의
##소♬로
대깨문♬들
이참♬에
##디아
더욱이
전락
너♬를
##듣고
전체♬적♬으로
지목
##시켜서
##24
##수익
영상♬을
아닌듯
##하느라
비로소
소주
##양♬을
10억
보험료
보네
##문♬은
♬질
##냄새
짜증나
##닉스
크레
억압
##내며
##차♬에
이글
불량
##지네
일하고
보유하고
##컨대
##거죠
나리
계기♬가
박탈
이런식♬으로
주일
##기기
어린이집
그러지
침몰
맡아
발생하는
많습니다
##감♬과
##쳐먹
개통
##투자증권
경상도
원활
만약♬에
아깝다
나선다
온몸
##♬들♬보다
##il
없었고
명♬을
않다는
##입고
##권♬이
하는구나
대한민국♬에
담고
아니라면
지킬
##지수
내정
유산
전교조
페이지
트로
개♬를
알파
뭐든
미드
휴식
##♬만큼♬은
저래
아티
잘생겼
이♬로
##실♬로
가져다
수익♬을
공제
생각했는데
머리카락
##전♬부터
안타까운
왕자림
통치
##화학
하느님
땅♬에
##ac
보이는데
##하나요
##께요
##머스
어마어마
##수석
회장♬이
자신♬과
당할
김해
소름돋
##짓거리
없어도
카이
목포
고무
깡패
여기♬까지
한꺼
불쌍하다
이준
##미나
거뒀
##오프
결정♬을
이번♬에♬도
오죽
배정
버튼
##등♬이
녹음
##질러
05
참조
증여
3천
##♬든
##비리
##운다
그나저나
##기자
순이익
드물
범행
오락
복원
##중한
전♬에♬는
해당하는
준수
좌절
목요일
##었냐
둘러싸
1500
망해
##재밌
틀어
데모
일환
6000
##세한
이런게
이어진
한사람
기대하고
자빠졌네
##보인다
했더니
##언♬이
표정♬을
가족♬을
모르나
##번호
출동
기자♬가
##군♬에
무서워서
학대
##♬과♬도
문슬람
들어올
우리나라♬에
사용한
##ion
세계♬에
##뒤♬에
3차
최근♬에
로그
국가♬에서
배울
##부족
스릴러
발전♬을
웃겨
97
기금
아베♬가
일당
홍어
위탁
##가자
##한당
강해효
자한당♬이
스파이
거리♬가
##유럽
진학
조리
강세
시전
볼때♬마다
남을
##경우
##대응
##♬권♬이
주저
##같음
돌리
##라는게
죽어도
규모♬가
포착
마루
수련
##나♬도
존재한다
##전히
지난주
나고
한꺼번에
부천
##소시
MB
줄어든
평소♬에
흑인
일♬로
사랑해요
##아빠
명시
##았어
등장인물
전해졌
##기록
좋겠어요
골든
##지않은
통하여
##겠음
##라시
휘두
네덜
들어갔다
범인
인간♬들♬은
##길♬이
되돌아
##연대
##리우드
##거리며
만들어야
되도록
배급
페르
생계
국무총리
팀♬의
##애♬들♬은
건강한
이런데
드러났
폭풍
96
더더욱
간주
말♬대로
##일지
배틀
날카
베르
섬유
##♬성♬도
없으며
만나게
나옴
82
지고
서로♬를
##지상주의
볼수
##결♬을
부를
이윤
피할
모습♬에
회상
구성된
지소
배우♬들♬의
스키
##중심
피아노
##♬링
##하게♬도
커서
##보♬가
있었다는
##곳♬이
##교회
##쓴다
##기야
돼서
기술♬이
아니죠
차고
두드러
당시♬의
그림체가
사후
##파이어
수험
##청산
생성
무산
형편
##하하
##이시
##준비
경향♬이
시정
##미아
되며
맞춘
한결
놀란
자매
##안♬은
업무♬를
재미♬가
##례♬를
다시♬는
비웃
♬이란
자유롭게
언론♬에
정부♬를
##액♬은
묻고
##형♬은
중순
상한
까닭
수준이다
외교부
##싶어
##거에요
조치♬를
87
냈다
관점
이러면
법조
허무
지극
##서야
##내내
새삼
무거운
##됐고
점♬도
북한♬을
있으므로
불공
만기
만나고
손혜원
##같아
02
부도
##사♬도
##못한
썩어
##집회
풍경
입♬으로
종전
닮은
올해♬는
비정상
계란
##이야기
##트♬와
##타운
총회
놓여
##오♬가
중국♬을
독도
당원
♬산
단편
관행
##이런
육체
♬분
♬뿐♬만
##지노
어딨
몰라서
##나갈
##할려고
##하♬가
옵션
감축
하우스
3만
경유
마누라
##자동차
##빼고
##되기♬도
싶네요
부들
먹여
중재
고시
##역♬이
지우
무효
##자연
성우
긍정♬적인
쇼핑몰
사원
출장
등♬도
대략
끌어들
##ot
♬의미
피해♬가
오늘♬의
가능♬성♬도
이대
자사
좋지만
미치는
말하지
이르는
병행
정밀
##♬화하는
##스트♬를
제2♬의
##예산
아이♬들♬의
마음♬은
##꺼면
한진
있었기
텔레콤
나라냐
##나온다
##♬하고♬는
철저하게
또다른
실태
로스
좋았다
웃는
친절
프라
94
지역♬에서
불렀
적발
유효
행복하게
트럭
경찰♬에
방식♬을
느껴지는
데♬다
오지게
패스
재미♬를
캐릭터♬를
미래♬의
강도
구체♬적♬으로
스페셜
##신고
거래소
전♬까지
##드♬와
이사회
감동♬을
명문
##cm
아들♬을
기반♬으로
넥센
칼♬을
김포
##중간
내비
자기♬의
제정신
운송
나♬뿐
구해
합작
주시
날짜
통증
싶을
79
과일
했으니
10만
선수♬가
박물관
##음악
법무장관
당신♬을
달콤
##라라
찍고
차지하는
배♬를
방탄소년
면세
부정♬적인
역♬을
얻는
태도♬를
시작하는
상태다
꼰대
##하여야
오마
##니까요
##크♬는
방향♬을
측면♬에서
##언♬을
배송
개뿔
##알아
교섭
##렸고
♬짜리
스프
##사업♬을
##는거죠
유머
고구려
날뛰
86
뭐하냐
아이디
개♬나
기대할
##전화
클로
밖♬에서
##으면서♬도
보여줄
가까워
가기
완벽하게
패스트
##합니까
아랫
##겠구나
밑♬에서
##안♬의
열쇠
부탁드립니다
##PC
##저런
되자
##향♬을
##이었다고
##됐다고
나타난다
싶었다
서준
바닷
성분
##줬으면
문재인♬과
사건♬은
노벨
정신병자
출자
명목
높게
정의♬를
##롭고
댓글♬들
친한
반미
가난한
##고♬의
##집♬이
기각
기록한
마치고
어그
태권
선거법
##시♬와
그러는
그러다가
8000
메가
SM
##영웅
##할수있
비타민
지나면
기대감
♬우
즐기는
오프라인
차이♬를
음악♬을
컴백
##억원♬의
나뉘
감지
불꽃
##시리즈
커뮤니케이션
프로듀
작작
기적
역겹다
말입니다
겪고
아시안
고추
섹시
포켓몬
간섭
브로
이은
EU
거리♬를
이재용
적♬도
터진
않는다고
상공
수시로
##인지♬는
##라기
##격♬이
##놨다
던지
타당
노답
불륜
크리
고도
버릴
누군지
죽어나
진짜로
유포
생리
상대♬를
92
##테러
인생♬의
##셔널
시세
2006
현실♬은
##인생
버리는
##혼자
음모
어쩌다
어도
이뻐
신동
##충♬들
여성♬이
테이블
여자♬들♬이
우수한
가사
면허
##석♬의
내보
##셔도
##애♬는
들어오는
손석
원♬의
야마
조화
##과♬를
든든
##되었던
##크로
내용♬의
반♬대로
강사
여부♬를
1명
##코리아
올라온
##공동
응시
질서
바지
국세청
##un
했어요
개무
한지
##모양
애비
가전
소신
##편♬에서
##되니
두루
코치
##대♬와
신부
참석한
유니클로
##표♬가
93
옛날♬에
불러일으
한국어
##기네
성희
그리는
정신♬적
스크롤
##스티벌
딸♬을
상황♬은
꽤♬나
제고
을지
확률♬이
##기획
4차
2회
탄소
클리어
기록♬을
두개
물품
배우고
부른다
면♬에서
왜케
IS
할말
다이어트
##무역
##조♬로
##널리스트
더듬
쳐먹
부수
##액♬이
스타트업
아카데미
작가♬님♬의
오리지
의외♬로
##였다는
##조원
결론♬은
놈♬은
##세트
##취급
##량♬의
##거니
일으켜
##♬선
삶♬이
말하자면
##납니다
태평양
염두
발라
감방
총재
##체인
넘나
와이
열등
유망
헌신
신작
원가
요양
월세
폭로
싸우고
부정선거
비공
여왕
##밀리
무용
하향
카톡
주소
싶어요
일산
나이♬에
제휴
선포
부가
지낸
정의로운
##전환
상품♬을
장갑
어떻게든
저주
국민세
이뤄진
좋겠네요
되서
가중
학술
반란
중♬에♬는
하기♬도
첫날
내달
서로♬의
차지했다
허구
역사♬의
다수♬의
잘해
##톨릭
##묘한
##교사
힘드
모든게
한겨
랭킹
찾은
사태♬가
너희♬들
못된
형태♬의
##♬력
손상
입술
##퍼스
오세
분할
스웨덴
##채♬를
##주자
##케이
아내♬가
보고싶다
##캐피탈
##말♬에
##진흥
##업자
못하면서
요원
분야♬에서
대통령♬과
10분
생각해서
중♬의
새겨
강하
진다
역사♬에
2시간
돌아갈
만다
##지마세요
사단
##경♬의
때♬에
지위
교황
진지하게
너무나♬도
##동♬은
말♬과
##베이터
정준
행위♬를
비판♬을
후쿠시마
청장
자아냈다
시공
##♬율♬을
##받는다
고의
재고
##드릴
나왔는데
대국민
##지라
재배
##아래
##돈♬을
##ve
지지율♬이
팀♬이
##bs
##종합
얼굴♬로
관절
좌익
##아♬를
회사♬를
대단히
적정
평택
##비♬와
##처분
과잉
##이군
자식♬이
온통
애정
기성
추리
빠졌
남자♬들
분당
시점♬에서
살아온
물론이고
버렸다
반응♬이
발♬로
##하던데
10시
새누리♬당
믿어
몇십
날라
적게
##날♬이
일삼
##연재
##는구나
나지
정도다
미워
##하시길
증거♬가
지지♬를
드러난
노블
으니
해주고
190
유죄
불쾌
tvN
##값♬을
국회♬에서
83
같애
잘난
잘한다
##은행♬은
트라우
##국인
식량
##등록
##코인
해킹
무대♬를
전체♬가
전국민
##것입니다
진로
감옥♬에
##현♬의
용역
학생♬이
포함해
집♬이
미소♬를
세상♬의
즐겁게
발언♬을
각국
##농단
참여한
의미한다
##부문
맛♬을
기업♬은
보입니다
검찰♬의
##는거고
참가자
밝은
신혼
##♬권♬의
성희롱
##진한
##알바
자금♬을
죽게
수작
둘♬은
의류
잇따라
위해선
복잡한
##하드
##하는거야
달한다
파크
병원♬에
아사
야외
정우
중개
호랑이
03
이른다
적대
원유
##었으니
놀랐
소원
##식이
다같이
몰락
디자이너
로운
해야한다
소셜
대책♬을
줄일
2명
##으려면
##다음
♬들♬은
##♬자♬들
현실♬이
무뇌
트랙
야간
수요♬가
##일♬의
싶다고
식♬의
지켜야
저격
끼고
비교해
열차
레전드
물러나
임대료
사건♬에
국내♬에서
##리니
원인♬이
##을수
필요하다고
증오
몽골
도구
비♬가
##하므로
대원
살았
##포먼
##받았다
##폭탄
역사♬상
우리집
##경♬에
박근혜♬가
##엘라
음반
되지만
안겨
끌었다
교장
##것같은데
찾아볼
발광
기대된다
위주
급격히
##래기
뭐고
쌍용
관점♬에서
##통♬에
##무지
바닥♬에
공군
바뀔
남자♬를
보유한
할배
학문
특성♬상
닥터
손바닥
양도
사라졌
달라진
축적
유승민
반해
##대한민국
도배
##수저
##름♬을
어울리는
잠♬을
살아가
##90
##망♬이
##스포츠
##ay
##투리
##말♬로
바이러
고사
개시
##년♬은
정글
믿지
전염병
##밀히
신경♬을
연맹
두려움
유상
역♬으로
모여서
힘들고
선택♬을
바둑
##주♬와
##의료
##일랜드
##할게
라이트
##차게
설명♬을
반장
진행된
세련
회전
##산♬의
부양
##르♬의
외모지상주의
2억
걷어
그만하고
북한♬과
##버트
ES
경로
직장인
되는지
건국
재밌다
선보인다
스틸
구도
달하는
잠실
동서
밥♬을
양측
##이용
귀♬를
##있으니
나♬가
##적♬도
악플러
한류
타워
##어어
내렸다
정해진
소매
지워
이별
출국
해설
단장
이니
##하시면
##살아
맞는데
##이라는게
누리꾼
사찰
저♬의
선보인
##♬조차♬도
거라
우습게
상하
적혀
10♬여
이승만
##침♬을
최소한♬의
그러게
##였네
##박스
##♬이가
당내
것일
한번♬에
##방식
약화
하던데
여자친구
##나라♬가
이해하고
들어가면
##넣고
인상♬을
때문이었다
문제지
가격♬은
##이구만
##애♬를
##오지
##덩어리
##살인
이순신
뒤늦게
당뇨
##보았다
##대비
북부
##파이
돌아왔
##입국
막내
받으며
그림♬이
##레벨
그때♬는
떨어지고
까는
자신♬들♬이
##♬자♬를
##켰다
##드리고
##특별
##나올
주유
드러냈다
권위
##♬마저♬도
흡연
않습니까
당사자
말씀♬을
원조
##니당
##파♬가
대작
원리
표현♬을
철저한
않으며
견디
상승세
세계♬가
##가구
수색
##협력
들어와서
##분♬들♬은
자유당
2005
그와중♬에
##만들어
충격♬을
제천
##나니
여수
01
선행
건가요
피로
출현
건네
삼성♬이
여지
관해
진주
뜻♬이
배경♬으로
##린거
##하겠네
저번♬에
불가능한
퍼포먼
##공장
영화다
레오
관중
##하지말
봤습니다
하죠
##워드
자이
학생♬들♬은
오래된
무료♬로
로켓
용어
이사장
유인
2001년
##었기
제외하면
##리냐
들지
성폭력
실력♬을
노총
##크♬의
대표하는
##꼴통
조선시대
##상♬과
2부
것이지
모자라
수요일
최정
대한민국♬에서
9시
##다녀
사연
대지
7000
타이어
그러냐
구나
생각♬으로
기업♬을
최근♬에♬는
##않고
공헌
##거같다
연세대
카리스
중학생
산책
숨♬을
##는다는
고3
사자
안된다고
않나요
댓글♬은
냐는
교육감
기준♬이
##kg
니♬네♬가
오페
부사장
금감
닥치고
손흥
실용
어느새
댄스
##약한
지나지
화해
성취
전당
신장
##같은거
남쪽
##직자
카르
##더냐
##금♬의
결성
편♬이
선택한
안타깝다
트럼프♬가
부사
저희♬가
치료♬를
안할
친척
정세
##더라면
당했
타는
삶♬에
김병
##♬레
##방♬의
이말
##희♬의
벌인
일일이
이노
제법
늘었다
성격♬을
같다는
싶다는
배포
가족♬의
선관
좌파♬들
유감
기아차
이끌고
##릭스
##보는데
##물질
받기
##하는구나
협업
##ig
학생♬들♬의
행사♬를
느낀다
짜고
##해야할
마켓
해안
##세이
가맹
이런걸
빨라
##떨어
##조치
버닝
말해서
장미
모리
회사♬는
부담♬이
더럽
저승
이를
##포인트
##♬도안
같지만
들어간다
거북
##지나
##사용
내리는
영원한
##as
갖추고
마비
##되어서
사람♬들♬과
1분
##상승
복구
##이기에
치면
어머니♬는
잇는
08
130
본다면
언론사
약간♬의
인연
사업♬에
손목
막컷
경기장
많았
약속♬을
##래프트
##브라
마술
상사
바꿨
##받아서
플랜
사과♬를
더럽게
구사
흑자
만들면
##엔터
##마♬의
3명
##공산당
##였을
다른데
한도
제임스
협의회
사물
그정도
인테
알수
당당하게
표면
기업♬들♬이
텔레비
##od
되겠네
주인공♬의
아키
규명
##진영
윌리
자♬는
에어컨
중공업
CD
♬이하
출간
공고
바란다고
##이겠지
죄인
##키로
개조
탈원
##러니
##동물
반짝
거임
##된다면
작품♬의
실체
보인다고
함정
부담♬을
##중공업
성공했다
이인
소재♬로
##보다가
유리한
패거리
위주♬로
추구하는
교실
있잖아
전쟁♬이
준공
##기♬에♬는
메달
부끄러
포기하고
계단
국경
머무
##♬인♬들
님♬들
멈춰
유래
##다보니
##처벌
직면
바람♬이
##먹어
특집
운동♬권
실감
##리는거
시야
자식♬들
뛰어들
삶♬은
그만해라
튼튼
##편♬의
평론
글♬이
방♬에
봤어요
그래픽
수지
국가대표
폐렴
스킨
우려♬가
중공
모티브
##시키지
어우러
실제로♬는
스위스
수준♬에
언더
건들
성장♬을
게이트
대치
##ct
터지
김무
저하
외출
속도♬가
표명
7년
다루는
간단한
##베이
31일
##되네
꼽힌다
##없지
차려
우승♬을
까다
만들지
묻는
##방♬으로
짓고
##돌♬이
카드♬를
##매도
##호선
기사♬에
##조사♬를
다리♬를
##되었으며
수신
우리나라♬에서
수렴
팬티
문화♬를
##드♬에
선♬을
문구
비호
##새키
위생
북♬으로
##준다고
스토리♬는
않다고
벌어지
살면
##지니어
비슷하게
교수♬가
살피
낙태
##사카
##하더라
퍼트
음원
입대
메시지♬를
알면
죽는다
파헤
이러고
숙박
목욕
팀♬을
창립
싹다
어설
구두
##자다
달창♬들
##독한
##관♬으로
DB
석탄
##였으나
현실♬에
밥그릇
앞세워
##서울
백수
씨♬의
쯧쯧
친박
회사♬에
떨어진다
##처♬를
##mm
발암
약물
클릭
기절
스토리♬도
지도부
##23
제목♬이
생각함
저♬를
10개
악역
합성
안보고
빨갱이♬들
계승
형♬님
##셔츠
잡았다
##어머니
가라앉
하려는
##재♬로
악질
존재♬를
백악
이끄는
아랍
무난
너거
우월
보냈다
타협
##됐던
권유
단백
고마워
##NG
##리♬도
##따위
사운드
알려주
어쩜
##방법
피해자♬가
걸까
##줄아
거세
광복
미쳤다
##통합♬당
지역♬을
##린지
현상♬이
기조
베이스
09
동조
동생♬이
##파♬를
조금♬은
파탄
입력
흔한
이상♬은
차지하고
신재
##블릿
개미
##소송
파라
GM
드릴
♬요
한복
배고
4대강
##마♬는
싫어서
일기
살지
##언니
중산
초중
때로♬는
여학생
치료제
##체♬로
내뱉
07
공짜♬로
권리♬를
어머니♬의
어때
늘고
시♬는
지키기
##데요
##이치
않았는데
##수지
이십
이어서
##내♬에
정한
##당시
##된거
낯선
나타내
주무
는다고
공백
썼다
##당할
##PS
원망
사람이다
이명박근혜
진압
아군
네덜란드
##♬까지♬의
감자
이유♬도
것이라며
연동
당신♬들
잘못한
손잡고
예선
거둔
국개의원
공영
요건
횡령
##색♬으로
비용♬을
##타♬의
강릉
수혜
어긋
된장
완공
##파♬의
어쩐
##신청
##주의♬적
개개
주어진
##IC
##라스틱
좁은
십자
하늘♬이
소음
야생
##ed
참모
##트랙
잊혀
##프♬의
링크
격차
천벌
압력
훗날
했었
##해왔다
도약
##건강
다른나라
농담
##걸음
신성
우정
표정♬으로
흐름♬을
간호사
안되지
참전
시켜야
죽어라
##엔딩
시상식
##텔레
천사
문재앙♬은
##이제
사라지고
##하곤
마리아
누구♬를
현실♬적♬으로
##미디어
시가
휘둘
##십시요
포도
여론조작
##들었다
##바이트
일원
목적♬을
##종♬이
무너지
안정♬적인
문제♬의
듣기
황교활
참사
산불
비율♬이
7시
##플러스
화합
유나
구호
생기면
지극히
이러다
지금이라도
##행정
##폴리오
비추
공공기관
는다는
강점
떠오르
여우
주석
있었으면
고지
전개♬가
##말♬도
50대
주부
발효
너무너무
헷갈
대권
이용하여
기동
##일수♬도
하나인
##바뀌
그♬들♬에게
나타날
과정♬이
없애고
소설♬을
쓸데없는
봤던
박그네
파격
존재♬가
춘천
##관계♬가
대상자
다큐멘
천안함
삼각
며느
상용
##정권♬이
한가지
확립
아티스트
김경수
##속♬의
달하
##프♬는
왕♬이
싸움♬을
성적♬을
##요한
리스트
맡았다
재판부
통합♬당
##연구소
##되지만
지원하는
북쪽
없으니까
긴장감
사시
##철♬이
형♬이
자기♬를
##관♬과
후♬에♬는
지속♬적인
양육
조례
헬스
##당♬에서
##타♬는
수송
아버지♬를
##곡♬을
죽음♬의
채♬로
##디스
그만두
범죄♬를
김원
##동맹
베네수
내기
아라
사용하고
고립
제작진
듣지
얼마든지
작가♬님♬도
검찰♬에
지나친
따지면
총♬을
##준♬은
엘리트
##투♬를
지금♬이
이긴
가람♬이
##봉♬이
제도♬를
학교♬를
재학
웹툰♬에
고조
줄이고
보조금
되니
둘이
입구
가득한
단호
죽었다
운영하고
않았나
##♬더러
애널리스트
변해
2층
##도르
불편한
차분
##의사
걸맞
움직이
아니겠지
##급♬으로
석방
가격♬을
꺼져라
세우고
신사
같냐
##안보
##이한
너♬나
정치인♬들
부친
##♬에♬요
마인드
떠났
##년♬의
예언
정직
김광
의결
관련♬이
##리안
니까
체중
간판
가슴♬을
나♬와
조현
내리고
라이벌
찾아서
수아
##행사
맡겨
많다는
마포
감염증
다니고
모르겠네
이제♬부터
##열♬을
국면
둔화
노동조합
갈등♬을
위치♬를
##생♬을
동계
스카이
##판매
##배♬는
안되면
생긴다
선수♬들♬이
되니까
삼아
공정한
사용한다
오리지널
세계♬적♬으로
난이
제어
전성
코스프레
준다고
사나
결혼식
속성
줄줄이
##렸다고
유지하고
죽기
간편
##주셔서
아무렇
침대
초점♬을
답이다
상식♬적♬으로
심정
변형
미개한
뱅크
적립
싸이코
났다
밀고
##♬계♬에
맞다고
제자
구독
##시♬로
가족♬들
재해
이진
900
##교육♬을
##받아야
국채
의하여
##돼야
##마♬에
체감
멀쩡한
##시간♬을
이어졌
##여성
한국영화
##♬든지
얘기♬는
주영
상태♬를
시너지
세상♬은
행진
죄책
##정부♬의
##린♬이
##량한
문의
##가네
교복
##동강
친구♬들♬이
처벌♬을
바위
##타♬로
농가
아부
역설
누릴
염려
안양
궁금해
공연♬을
김준
모지
##차고
##청원
##막♬을
윤석렬
무더
##는지♬도
사례♬가
보석
##하겠지만
부총리
굴러
항공기
인건비
##ER
꾸며
내려오
알면서♬도
단점
포괄
들어선
##았나
하실
많다고
##im
넣은
안좋은
비틀
##주의자
고려대
소금
싸가지
판단♬을
점수♬를
안된
모든걸
것일까
##받게
선보이
##영화♬를
주둔
##♬님♬도
편지♬를
##교♬가
원고
동력
##거♬를
문재인♬을
장면♬에서
사실♬에
박성
##환♬을
정화
아무♬나
콘셉
특권
하트
아니냐는
표♬를
기준♬을
##시키면
유한
6개
##목♬이
안주
데♬는
청와대♬가
##르바
지♬들♬끼리
스테이지
지♬들♬은
빈곤
개념♬이
5분
많아요
##한텐
매치
임진
중장
국가♬에
나오네
입양
##다나
치솟
한국♬과
의혹♬이
밤♬을
실명
무언가
상당수
##하는것♬도
집합
식구
##♬님♬과
3억
선동질
다음♬은
##팀♬이
##선언
표정♬이
##리라고
양념
당기
##싫다
##♬께서♬는
스피드
##♬적이
일까
안들어
케어
여객
조연
접한
기숙
6시
부시
남양
기억♬에
스태
안티
이완
책상
아이♬들♬에게
##태♬가
사이코
토대♬로
##사한
##시장♬에서
날개
사전♬에
삼촌
수♬를
교차
종류♬의
##인권
친북
냉정
외치는
##법♬의
##였나
쓰기
않는다면
##ad
##나지
문명
가는데
##♬화하고
신흥
##타이
MS
FA
의사♬가
사태♬를
##했었다
숨겨진
포지션
##의미
당시♬에
2002
오줌
제공한다
여자애
구리
##♬즈
글고
공직자
감기
##감♬으로
CCTV
허허
나누어
##정말
현재♬까지
위대
좋습니다
모른다는
여담♬으로
하겠지
씨♬를
트레
##군♬과
할수있
##의♬의
미스
##대요
레이저
그토록
미용
우아
##인지♬도
##연구원
후기
##모토
중심♬의
점프
##해주면
오빠♬가
프랜
전신
##치네
판다
지냈
더불어민주당
##베르
##훈♬은
대사♬가
차♬가
은근히
극히
##디♬가
깨어
소속사
된다며
입♬에서
110
욕할
땜♬에
보시면
그걸로
단정
느껴진다
노력♬이
##었으며
##ow
잔잔
부유
자화
이불
모금
돈♬만
이미지♬가
양상
다이아
참신
##방향
늘어났
하려면
##산♬에
의사♬를
##IP
올라갈
장관♬이
실수♬로
은혜
여인
한계♬가
골프장
##르몬
의지♬를
##내면
각자♬의
##쳐도
불황
치열한
아래♬로
하겠다고
공간♬을
이기♬적인
없는게
##했을때
공업
감안하면
결과♬적♬으로
##♬인♬들♬이
양자
이♬로써
아닌거
기대♬가
생애
천지
망설
망하게
##일세
##있다는
##보라
말이죠
04
##당해
##을지
안한다
법♬은
사법부
##하잖아
걱정♬이
송파
##교♬의
##22
주범
휩쓸
1층
##♬성♬으로
암호
자기♬들♬이
그릴
진행할
같으면
브루
신탁
남♬을
인터뷰♬에서
##♬에다가
##간히
옹호하는
떠들어
발음
포토
초콜
너희♬들♬이
높고
전체♬의
후퇴
필요♬는
더해
여배우
행동♬은
총알
보수♬가
뷰티
06
시집
책임♬이
##본♬을
##사냥
얼굴♬은
다르지
2번♬째
맞는말
##는걸
김어준
농산물
##사람♬도
##화♬로
보컬
일정한
좌빨들
문어
자칭
그♬로
독재자
##는다면
전방
##어린
##건♬의
역사♬가
성사
##지금
않을까요
이경우
##히면
리얼미터
흐르는
##가♬도
약♬을
연쇄
두렵
당신♬들♬이
정무
해결할
##주의♬를
##영♬을
##♬권♬은
쪼개
시즌2
##bc
특성♬을
팔고
##아시아
##데스
도모
##도우
##으라
훈련♬을
대마
주식♬을
찐따
##이었으나
회사채
중국몽
어째서
##가는게
##지않나
##불가
서둘러
중점
사리
##접한
능력♬도
미국♬을
에드
##환자
##돈♬이
##모두
걸리면
비참
그랜드
만세
##건♬은
높일
그쳤
입♬이
##♬분♬들
경쟁력♬을
남자♬들♬이
사이♬가
##ch
환경♬을
바꾸고
그렇기
정책♬이
관련한
던진
있었으나
배후
비비
공존
바퀴벌레
##메이
생각♬만
우울증
소규모
##빨갱이
##수도
문재인♬의
##이란게
등교
살림
이닝
이어져
##름♬이
나노
잘못♬이
알고보니
어렸을
아직♬은
##벌이
##즈니
##쳐라
그♬보다
온도
##요웹툰
폭락
나머지♬는
무너뜨
때리고
마블
하차
##간다고
삭발
시신
##되었다고
뿌려
##마귀
뜨겁
옮기
실질♬적인
이뤄질
베어
##확실
나라♬도
피터
베댓♬에
##키♬가
6년
플라스틱
##사회♬의
개념♬을
일곱
##카♬가
부풀
그분
하든
##폭행
박형
시발
##아니다
##되었는데
##졌던
미국인
걸친
잃어버린
우익
의미♬로
포트폴리오
##대가
실리
존재하지
박찬
KBO
##♬쟁이
##하♬를
관할
스쿨
한전
##작업
목적♬이
고장
61
얘♬네
완전한
나왔던
이♬쯤되면
하루하루
그래요
확인하고
##♬부터♬가
##에스
##공무원
이빨
팔♬을
이단
무겁
생각해보면
##위원회♬는
##체♬에
위법
말하는거
##하기♬만
##♬화♬의
세일
화력
드러났다
##퍼센트
신뢰♬를
단말
##미래
줄♬을
치밀
출연한
주가♬가
재밌어요
시청♬률
페스티벌
##♬니
증대
북한♬으로
무작정
쿠베
장성
KBS2
연일
##해봐
안된다는
더러
슬로
많음
재직
소리♬는
낚시
부합
##줘야지
밝히고
고로
일베충
우호
누구♬보다
휩싸
잡아서
저소득층
##과장
언론♬의
##배♬가
파산
무의식
적시
##종♬은
플로
출처
탈퇴
지겹다
검정
##조♬에
2004
건의
태어났
##전사
좋아하고
돼요
현실♬적인
프롤
♬들어
덮어
후임
나가고
가르치
##학원
보려고
파렴
km
부드러운
119
##겁니까
원료
불거
사장♬이
관념
김정일
대고
♬란
채우
인정하는
##진보
느꼈다
퍼뜨
영국♬의
세웠
이세
부모♬의
윌리엄
##돼서
자기♬는
##타는
나와야
아나운서
자리♬가
치르
성공♬을
##투쟁
##주년
문장
1♬로
이만희
공안
보충
조율
상반
##차♬로
아니잖아
##끼고
한양
원♬으로
##피♬를
나눈
멘탈
반납
야기
늦은
지갑
평화♬를
다가오
조건♬을
엑소
191
부위
오너
개돼지♬로
도서
##틀러
참나
웃기는
##판♬에서
벌어지는
관람객
몇개
명심
유흥
연루
##스토리
쟤♬네
##대장
회사♬에서
##미사
##시나
##비♬도
있을까요
##대변
막대한
학력
조작♬질
##키고
폭등
뜻이다
영등
##신다
예민
양극
달래
##랄까
몇명
찾아온
##였어요
##5000
사생활
증가했다
아들♬은
머♬가
포스
항소
기록하며
The
박태
씁쓸
게스트
창문
##에너지
전액
##프리
공학
##는지♬는
##치한
똑같다
깜빵
정도♬를
나라♬로
잊고
##이였다
불과하다
♬만든다
데스
못차
동구
사업장
어머님
엇갈
필요♬로
소극
##설♬이
클라스
##커♬가
침입
오피스텔
곳곳♬에
##여도
복무
##용품
##철도
##시장♬의
방탄소년단
##람회
##감사
제갈
베뎃이
##역♬으로
동행
##머리♬가
##급한
적♬을
고난
빼돌
LA
##마나
못살
사인
과거♬를
##보도
단어♬를
3위
나쁘지
##청♬이
책정
음란
네이
주변♬의
##속♬을
학기
##고요
원래♬는
비서관
임종
외신
활용해
3번♬째
강동
##린다는
사촌
백인
##버스터
구조♬를
##군데
뭘까
지금껏
##겟네
꼬박
토크
##채널
LTE
페미니즘
역임
처형
노리
광우
걸려서
안동
아놔
고성
하는거지
##신도
의혹♬을
악당
진모
니♬들♬도
##석♬에
결과♬에
매월
의약품
주인♬이
보건복지
##마켓
출신♬의
변수
명복♬을
친구♬를
##것다
프레이
유사한
##♬들♬에게♬도
기업♬에
회장♬의
##씨♬와
능력♬은
##먼저
##♬자♬들♬이
모터
판매량
자란
멘토
있겠지
##나왔
대세
안무
끈다
클라
패키지
세제
카라
이데
##ns
설사
재계
##대해
않았다는
##루♬를
##기부
본인♬도
군수
취하
##중♬의
봐요
의도♬가
후계
발레
므로
복용
문득
아바
중복
작정
RD
부분♬에서
웃기네
해수
##갖고
세계관
##갔는데
신축
상인
이산
진동
죽지
고래
레스토
만나면
보전
세번♬째
무단
사고♬로
##가♬에서
반갑
##널드
##론♬이
동정
괜찮아
##♬님♬께서
아마추어
##지는게
군대♬를
##남♬이
강아
분♬은
좋으면
어처
수강
소홀
##발♬로
할일
전체♬적인
개꿀
하는가
밀어붙
##더스
함유
단절
흐르
##근무
트렌드
♬엘
##분양
돌아올
모으고
될듯
차입
사각
레스토랑
##♬꼴
##올레
기능♬이
구청장
##ir
평가♬가
갇혀
상대♬의
하겠습니다
발병
천억
안전한
##떨어진
짧게
길♬로
##함♬으로
삶은
##중♬에서
##았어요
받아들이
##놓는
##곳♬에서
나갔다
##주행
터치
남매
##되거나
이같은
해병
읽을
여자♬들♬은
했냐
프로세
발생할
##배상
##좋다
인식♬이
##운동♬을
##권력
##잡을
무대♬에
중앙일보
매진
부근
중지
오르는
떨어졌다
##호♬와
정당한
따르는
본선
청탁
곳이다
사진♬이
##줄♬은
혈압
다음♬으로
고인
교도소
화요일
5만
그리하여
봉인
공룡
수여
증인
아이러니
재산♬을
똥꼬
악용
세금♬이
스스로♬를
##민♬을
대조
시작해
장관♬은
민식이
있겠다
인생♬이
정권♬에
##초♬에
김학
언덕
##것♬으로
급락
진행되는
처음이다
막는
출연해
##기념
세균
맞음
직접♬적인
노트북
그런데♬도
부럽
##니♬를
국가♬와
##려다
참여하는
짜파
##해야♬만
정복
말레이
내려가
최우선
팬♬들♬의
안되나
##맨♬이
표지
##♬제♬를
동향
하루빨리
슈팅
절차♬를
일방♬적♬으로
시국♬에
##공부
연기♬는
엄마♬의
모두♬를
산림
메이크
토대
전시회
듭니다
처먹
버닝썬
아도
140
종식
살♬이
쫓겨
톡톡
목록
책♬은
##새기
##했다며
꼬라
안지
보이며
터트
준비하고
무기♬를
##크라
갤러리
남기고
##가♬와
##학습
사업♬이
기습
되었는데
예산♬을
이겼
전도
##백화점
당연한거
##♬적이며
##지않는
##투성
1인♬당
##수♬밖에
이루어지
가톨릭
##란♬이
##잔아
감면
리듬
아르바이트
하겠다는
희망♬이
##간♬을
피의자
##졌을
도우
진태
##아내
망신
이래도
노숙
소폭
##었으나
서민♬들
걸레
##채♬로
서울♬에
고려해
##잖어
71
돌아왔다
암시
몸♬으로
인구♬가
보살
맞물
사랑♬은
##할머니
##역사
음주운전
##리한
선거♬에
사주
안죽
##해양
##지며
살아갈
크로스
꼼수
수당
##줄♬을
실효
##오♬는
##중국
알면서
않는데
외무
중화
##니스트
광범
지식♬을
독자♬들♬이
BM
##하는가
토론회
처방
##개♬는
##대신
않았다고
종업
병맛
자식♬을
마냥
잉글
유권자
답♬을
이현
실은
인테리어
##퇴근
진흥
사도
##소녀
기회♬에
내각
오스트
미투
기차
이치
끼워
쓸모
##올려
말이지
퍼져
##과♬의
##체제
바라보고
애써
사라질
##눈♬에
아랑
##셨어요
것이란
보임
아쉬움
보이지만
##FA
##졌다는
학자
##♬율♬은
수성
##계층
김희
인내
##같네
##♬감♬을
했어
갔는데
오라
전문가♬들♬은
백두
##코♬가
취직
##♬한텐
##게이트
언급한
미련
구할
##였으며
##등등
the
서준♬이
먹지
##라이언
보신
##만든
해외여행
풍부한
사람이라면
가능♬성♬은
감찰
사정♬이
배우는
##지인
퀘스트
목소리♬로
많지만
아니니
사흘
##쳐야
저능
##마스크
됐다고
메세
##셔요
##하우스
##유예
가리지
하시고
대공
##팀♬은
##하느냐
운항
각각♬의
니♬는
대부분♬은
벤츠
이었다
생각하게
##스타일
아미
반사
##간첩
사막
우스
가지는
새끼♬가
관계없이
장인
육박
커질
##히게
실력♬이
토로
써라
일주일♬에
처한
때문이라고
대통령♬도
열매
노골
장제
너무♬도
선생♬님♬이
줄기
##되네요
솔까
일♬만
찍소리
시민♬들♬이
작품♬에
천국
##보러
무시하는
##패♬로
엉뚱한
사람♬한테
잘한
큰소리
보태
아메리카
이거♬는
##그마
##끄러
전격
연구♬를
살아서
직권
배우♬가
증정
조국♬의
##투기
신생
##치며
지요
신천지♬가
빠질
비열
이런건
키우고
재미없
##OS
리플
돌아서
누르면
묶어
##오스
##티나
사우디
이루고
짝사랑
만성
아녀
등산
관심♬도
이름♬도
랜드
사람♬만
##번♬에
발전소
뻔뻔한
삭감
이후♬에♬는
##보증
##지대
아이언
버디
지방선거
##엔터테인먼트
해봐
사대
8시
DNA
차트
쥐어
트랜
누군가♬가
##확인
없어져야
##♬들♬과♬는
유투
근본♬적인
##거품
취미
낭만
오페라
##♬들♬처럼
말하며
인하여
사용해
쌓여
##로♬로
습격
당시♬에♬는
##만원♬씩
늑대
활약♬을
##좌빨
그놈♬의
최후♬의
말아먹
증폭
♬끼리
##DP
지분♬을
##선♬과
키운
양식
여주인
낙하
리버
어리석은
##지않아
레이스
저럴
##아니면
것이기
개같은
다시한번
1학년
주차장
이고
하다니
##리케이션
대면
##출산
의미♬에서
임차
체육관
##차이즈
소대가리
발간
차♬에
했나
상주
##진♬과
바뀌었다
모의
##지는데
##오르
수목
뭐하러
쓰여
할거
가졌다
소상공
안되는데
아이스
가죽
아산
##태♬를
강력하게
요소♬가
##♬들♬까지
노동당
아일랜드
접목
개인♬이
내보내
넘은
조조
##오오
비중♬을
부르고
다른사람
숨기고
이언
시작해서
##부들
영등포
스폰
1999년
2030
상금
아그
적♬은
보고♬도
이룰
비용♬이
사람♬에
전월
모양새
##루♬가
카타
##서♬도
##200
of
키울
##질♬의
##이♬한테
우리나라♬도
부회
샤워
아마존
호기심
##여러
죽어서
버릇
##어버리고
저런거
안남
빛♬이
##판♬으로
현장♬에
♬이벤
##즈♬아
##년♬도
##안♬에서
엘리베이터
까고
초콜릿
유세
개장
US
접어들
##있었다
화염
지금♬처럼
##계♬의
##방울
마왕
되풀이
알아보
재원
인쇄
##지주
한자
##숙한
##토♬를
한건
마당♬에
##등♬의
바꾸는
더니
침투
태블릿
##자산운용
걸러
우리국민
얼어
보던
크림
##것이고
통산
없죠
##터♬는
선보일
##련♬의
160
장모
##지않게
이메
분야♬의
##오♬를
노는
벗겨
일이었다
음식점
조속
넘치
아니네
원피스
도시락
없잖아
##야마
수차례
여기♬가
협동
나서는
고리
##48
현실♬에서
3회
만든다
##nd
낸다
간혹
오랜만
해골
##을거
##닫고
지소미아
##값♬이
폭동
어짜
끄덕
동급
되었다고
##할텐데
무엇♬보다♬도
##초♬를
시리즈♬의
##코♬의
지상파
장례식
SP
그립
##토♬가
정보♬가
못보
다시금
베를
##하늘
눈동
##두면
##수호
김영삼
##정책♬을
권력♬의
차이♬는
예매
만주
스캔
##망신
걸리는
이후♬에♬도
청사
탄력
##키스탄
나오게
노잼
강호
##르♬가
##♬화한
선거♬에서
가람
어쩌구
이집트
누가봐도
합리♬적인
정시
말♬로♬만
기운
전진
파생
추첨
##입장
행복♬을
##로움
더욱더
살던
뻔히
됐으며
시리아
딱딱
법♬적♬으로
##보복
20♬여
낫지
대여
부류
안하냐
경영자
열풍
ST
거칠
정교
##유공자
##싫어
개신
수확
편한
이후♬의
비겁
##꼴♬이
약점
영향력
순천
개그맨
원인♬을
단체♬로
##하였으며
한번♬씩
일러스트
시절♬에
모르냐
붙은
신선한
입수
담당자
춤♬을
제대로된
그녀♬에게
모르면
DJ
##평화
쳐맞
받아들일
장담
자기♬네
와우
형석
모아서
외♬에♬는
##나와서
##자라
볼넷
할리우드
##면♬에서
##민♬당
3주
검찰♬을
1997년
결정♬적인
여자♬도
돌고
우회
신약
##해준다
김승
유니폼
속도♬를
##색♬의
걸림
##담당
##오♬의
##영화제
마쳤
나는
표현♬이
상기
맛있는
미뤄
저기♬서
##중이다
##시대♬에
모니터링
##중독
검사♬를
전경
##MC
동아시아
##리포니아
비트코인
##♬행
발탁
막강
선보였다
마당
안성
진행하고
따위
이해하기
##♬치고
역겹
광명
##수산
여럿
예컨대
필요할
화상
억울한
동지
득표
이전♬의
비아
훔쳐
관리♬를
해♬가
똑똑한
방식♬이
##새끼♬가
좃선
주장♬이
댓글♬로
##나♬서
배댓♬이
무사히
##멘트
비판하는
집어넣
내장
정도였다
타락
달달
쓰게
##코♬는
내놓은
##액♬의
##되던
과도한
##순♬이
##형♬의
##올로
키♬가
##는대
없었는데
##무라
##시장♬에
삼성♬은
주위♬에
현명
어떻게♬든
강대
싸게
1998년
같은데요
할려고
##분별
내용♬에
지붕
추신
##정상
미미
기다릴
이원
지킨
나오기
##구려
여사
##투어
##반♬이
##니♬의
속한
일자리♬를
얻기
커지고
전부다
만들어낸
계정
SS
여지♬가
사는데
##유지
##중♬이
세미나
뚱뚱
숨기
##나봐
##♬나마
말라는
공방
동굴
##르♬는
환경부
막판
##기금
OE
모름
같으니
못함
남용
앞♬으로♬는
간신히
얘♬들♬아
##♬들♬끼리
##조트
##로♬에
##26
실패한
있잖아요
최대♬의
지성
생각없이
총기
안해도
소독
레인
친구♬는
유령
미흡
전산
91
경제학
않은데
채소
같기♬도
토마
통장
불♬이
돌이
LH
지령
그림자
청렴
곁♬에
증진
강력히
##린♬은
왔습니다
약국
나루
가족♬과
부분♬도
##능력♬이
불만♬을
사무총장
권력♬에
강렬한
비교하면
역시나
##쓰면
승용차
공화국
##♬경
개혁♬을
##길♬에
##평균
이화
근처♬에
파기
부모♬님♬이
버텨
독자♬들
한계♬를
쥐고
##정권♬은
사랑♬과
##주의♬의
##론♬은
식민
빼면
##것♬에
아요
있어라
박수♬를
##OC
남♬이
부재
분담
양심♬이
탈탈
##겠고
##28
##류♬를
살릴
비춰
##넘어
찢어
지대
손석희
##버리면
##하노
진도
은폐
쪽♬이
코로나♬로
열려
지금♬부터
러닝
안드로이드
천주
쿠팡
쿠데
##us
캘리포니아
9000
##수당
보강
##반♬을
##다며
넘어갈
비닐
적당한
할말♬이
원♬에
누르고
떠날
스토어
나옵니다
##35
##군다나
전송
뭐하나
당하
세력♬이
##그려
목♬에
##하는걸
차장
되었을
심해
배우♬들
##계열
##스피
##ag
중년
자격증
##비한
##느냐고
##체험
하고싶
##져도
##또한
안락
##코드
주목♬을
대입
불사
면담
살펴보면
베네수엘라
##이해
##명♬과
2학년
한국은행
용병
냉장고
대중교통
##판♬은
딸♬은
안먹
##키♬의
##격리
이듬
##순환
타율
게임♬이
깊게
박진
했네
장교
상관없
해임
산♬으로
##혹한
차리
##잡는
훌쩍
상세
빕니다
명확히
신한은행
##DI
##ut
공격력
추이
들었
김주
##청구
손톱
나랏
##메이크
##op
예♬로
##도전
갖췄
도데
눈앞♬에
때리
역겨운
쉽다
죄송합니다
로그인
일제히
불신
##미♬와
모습이다
노하우
일본군
##파티
터널
찾지
데♬서
프랜차이즈
생기고
돈주고
다채
맞습니다
일간
드립니다
##남도
##시위
맞네
12시
건수
악♬의
##파악
열릴
##도는
##변♬을
생각좀
파면
없도록
작품이다
심어
편히
법♬의
수염
##자치단체
방한
벌이고
얻었다
점♬에
주한미
형평
중부
새키
있으면서
엉덩이
좋다는
높이는
기업인
유타
센스
##뉴얼
별거
농사
그땐
관통
끔찍한
##다닌
버그
대상♬을
박주
손쉽
이영화
소집
간단히
시사회
##족♬을
##일베
폐업
족속
##일텐데
하더라
귀엽고
##결정
시간♬과
줄서
갔다가
##국적
등이다
한방♬에
##절로
맞으면
##고사
좋음
알레
일종
##문서
##셨네
분명한
2003
쉬고
부산시
내년♬에
##♬들♬만♬의
오십
##기♬보다♬는
##카♬의
영감
아테
행동♬에
각기
마니
4번
##분열
낳은
♬에이
묵묵
증거♬를
하지않
##왔고
소문♬이
들으면
세입
선택할
##무슨
보는게
말레이시아
##억원♬에
두근
이례
아쉽다
하라는
##모로
도요
##걸리
분배
위치♬에
분해
##♬와♬도
꼬집
1분기
##같으면
드러냈
장병
꼬마
실수♬를
국고
##27
처단
할듯
이랬
##간다는
쓰이는
웃으며
##테이너
있기♬에
##매국
##범♬이
작품♬으로
있는건
SF
젠장
베뎃님
100년
다시는
##쳐먹고
헬조선
선동♬질
추진하고
기둥
##상관
시작할
사랑합니다
디즈니
세븐
##일때
근거♬로
##♬만해도
##요금
##되었다는
알리는
##보♬는
우대
##집행
##버드
##사람♬을
근원
발상
##좋게
오글
##치♬와
당당히
##롭지
##45
있어서♬는
말♬까지
후♬에♬도
찔러
책임자
문♬이
군부
잡으면
##함께
바뀌면
뭐임
이듬해
##위♬에서
호수
학회
세금♬은
##돌이
어짜피
유미
조센
보시
멍멍
북측
고민♬을
상정
알기
심각하게
있거나
유난
##한거야
역사♬는
##광고
비해서
시크
무방
가능할
두뇌
밥먹
1호
썸♬네
3학년
하러
현정부
반격
##구장
할머니♬가
맞는거
낳고
##소연
후보♬로
호감
그다음♬에
사건♬으로
획기
있는것
한해
가관
없다며
손꼽
##실장
빛나는
할것
부착
두들
분노♬를
아르헨
##lose
착공
수많
브라운
약자
##xx
활용할
벗어난
개발한
##업뎃
왕♬의
사람인데
사는게
속도♬로
늘어나고
하청
야이
##려니
장♬을
치워
줄거리
##미술
벽♬에
서울♬에서
##텔레콤
달리는
해보고
##방♬은
##리라는
일상생활
꾸미
##카♬를
국민♬과
전차
주작
시원하게
##모♬는
고객♬의
차가운
한발
터질
매출♬이
##포트
언론♬은
형석♬이
진행된다
사료
일개
##베스트
탈원전
아이콘
좋네요
원화
##스틴
민경
##저축
베댓♬들
노르
주권
24시간
##건♬으로
굶어
기술력
##두리
흥미진
얻게
생김
에너지♬를
제네
정동
남다른
있다니
제공하고
잠정
김형
차질
태워
##그렇
됐고
답했다
앞당
##됐다는
왜냐면
부들부들
현장♬을
대가리♬가
상자
##협의회
청정
전임
밝혀진
##인해
생각하니
일할
두꺼
♬꼴
##TS
남겼
멋대로
되길
주제♬를
베댓♬은
##했었는데
나경원♬이
였다
오징
##게이
벌써♬부터
인천시
밀리
찍는
잔인한
##있는지
벗고
소나
우즈
##♬들♬로부터
##고있네
한번♬만
##♬상♬에서
찾았다
그곳♬에서
꼴♬이
##줄♬이
잇따
더럽고
##MA
반면♬에
양호
##란♬을
소감♬을
##왕♬은
올리면
겁니까
하이브리
짓는
해외♬로
김혜
##시원
##심♬은
집♬은
김선
경우♬에♬도
부부♬가
않았습니다
구걸
몇백
표창장
단백질
펑펑
초보
품고
##수입
해결책
1대
##잇는
시술
##유♬를
취한
색다른
변함
아니더라도
겸손
안한
명성
##편♬으로
##급식
지역♬은
혹시나
경우♬를
용품
헬기
##고등학교
진짜♬로
아이스크
보는거
##슈타
수직
일♬들♬이
##경기♬에서
한걸
다음달
인질
##했더니
올라가는
지나치
민낯
close
##냐는
착취
국내♬에
인맥
미국♬으로
활용한
더군다나
뒤통수
정치♬는
##21
영화입니다
##족♬의
지면
##산♬은
##셨는데
##치킨
주역
##서치
##자찬
의식♬을
꿈꾸는
도데체
책임지
숟가락
81
보도했다
뒤지
바♬가
고객♬이
##한거다
##일수록
분야♬에
대주주
차명
##한가
##임♬은
일본어
이르기♬까지
시바
최하
##플러
종일
나눌
##억달러
궁금해서
영향♬이
끝♬으로
##매김
대수
마나
민족♬의
구하기
성경
연기♬도
구워
스미
##터♬의
대금
낮춰
창고
##있는게
FI
한라
##말라
관계♬에
정신차려라
사탕
장려
조선♬의
##볼까
##하다면
주방
끝♬을
겪는
구출
##르며
##테랑
되기♬도
오르고
일부♬를
##사상
##말아
수년
♬의무
컨텐츠
##친구♬가
어쩐지
장벽
##실♬의
##비디오
기다려야
초기♬에
갓오
이석
길♬에
저절로
비올레
##그렇게
##그룹♬은
동결
마스크♬를
이어졌다
먹고살
주된
내놓고
##절♬을
##시장♬이
수감
잡기
##던거
연다
박지원
##스틱
편향
규모♬는
##저래
인과
##발표
너머
노랑
거점
휘말
자리매김
경쟁♬을
##우며
복사
그러던
가령
국민은행
직원♬이
귀한
가지게
##주었다
##였지
건강♬을
얘기다
경찰관
이리저리
남자♬들♬은
##비드
박상
겪은
##등한
메모리
각본
실점
##어울
특이한
무책임
kt
좋아할
깨알
종로구
최우수
선조
보기♬엔
애♬는
고아
강정
언젠가♬는
후보♬를
##플렉
전철
주전
사업♬은
##이었을
국정농단
도덕♬적
피자
지검
정체♬를
##통제
매력♬적인
안전♬을
민간인
있듯이
갈등♬이
넘어가는
대두
##피♬가
노력하는
자♬들♬이
중국♬으로
리스
자랑하는
분신
도깨
HP
백악관
50년
맞지만
그려졌다
이♬가
이외♬에♬도
외화
역량♬을
##종교
거라는
국회의원♬이
스티븐
##♬질♬을
##능력♬을
##주신
가담
스윙
2인
했다면
얘♬는
##져요
나가면
있느냐
조짐
##이란걸
무개념
증세
내놔
불참
웃기고
이곳♬에
발의
##외교
##♬들♬에겐
##린♬의
비주얼
##공화국
##어내
살인마
##99
맡기
면세점
의상
넉넉
명령♬을
유희
수술♬을
##하자마자
이렇게♬까지
응용
법♬으로
요구♬를
문재인대통령
화살
바이든
소득세
여론♬이
안아
시간♬의
좌표
##전♬과
느껴지
화제♬를
차익
머저리
없구나
마음껏
한겨레
뜨고
신용카드
중2
결단
상권
##나나
열렸
초점
타이거
모른다고
적♬의
면상
##차이
청와대♬는
열면
벌이는
사용하지
된거
진리
##부턴
전범
재개발
##달고
정상회담
가져야
특징이다
다문화
쌍둥이
고요
웃을
합리♬적
광고♬를
이어진다
##환♬은
##하는거냐
생략
필요♬도
바꿔야
♬님♬이
넘어선
현상♬을
불확실
되겠다
의자
LED
저렴한
그리워
추산
추출
##이었다는
올라와
##라이더
비평
우는
출퇴근
문화♬적
즐거움
모르지
##유치
도와주는
##팔아
아까운
##재인
영화관
##레나
한두번
♬시
##걱정
똑같네
대동
##집♬은
##졌으면
##쓰기
##♬님♬께
##물어
제보
정경♬심
##더라고
취해
##♬하♬에
##족♬이
학업
##위해서
싶네
뱀파이어
##♬인♬들♬은
그라
유능
##아는
##간♬이
오프닝
2루
로맨틱
##행동
해먹
깨어나
설명이다
돈♬에
박용
벤치
4천
##덕♬에
##역♬에
하나요
##법♬과
내세워
나누는
인문
##급♬의
김명
동아리
##들게
심장♬이
어렵고
자유로운
요한
이름♬의
##급♬이
주워
##한듯
식사♬를
자화자찬
##OP
##반♬에
##견♬을
##기인
들어왔다
실사
사소한
##자라고
##이♬에게
##북도
종결
##벤처
신곡
모르겠는데
사악한
주경♬이
용감
♬자한당
뚫고
##인원
어디갔
놓인
##았음
앨리스
소식♬이
문제♬도
별도♬로
몰두
간절히
잉글랜드
##배♬로
겪어
참석해
3인
삼십
일본♬도
핵무기
##복♬이
돌연
팍팍
동방
텍사
방패
여러분♬은
##코올
다큐멘터리
##완전
##치면서
일가
오렌
쳐들어
극한
짓밟
노려
##맞은
##대지
둘♬의
업적
그제
채팅
한표
쉬는
조아
##인터
오디션
병원♬에서
누구♬는
##파♬는
견인
펼쳤
##링♬을
이럴때
금강산
낙찰
떠나는
환자♬가
##제발
생선
재밌는데
가져가
싸운
##역♬에서
##병♬으로
단어♬가
비결
후유
역할♬이
기증
주입
보여주기
강성
김무성
##되요
네이버♬에
##이냐고
속속
##묘하게
밀집
##령♬의
주신
##슨♬은
발주
##재♬의
폴리
뒤♬에♬는
속상
메디
##나오면
모두♬에게
15년
##이길
0♬으로
100만원
성공♬적♬으로
힘입어
싶었던
있는데요
깔려
아껴
영향력♬을
바뀌는
유공
##잖은
어그♬로
♬레
##바꾸
##추진
전해졌다
좀처럼
개인♬적
입장♬에선
통행
탄탄한
##카♬는
만났다
해온
##되었을
자기♬도
때문인지
관계♬는
욕구
우상
한중
##변호
여기♬에서
##플레이션
원인♬은
몹시
##일까요
망쳐
폐기물
진행하는
있는거지
한시
##속♬이
하루종일
환호
추잡
해리
##쪽♬에서
절약
##인지라
그런게
이뤘
##병♬에
교양
##팩트
벌여
##중인데
적폐청산
섹스
보여줬
혈세
미처
달라질
안함
확고
시카
엄중
도민
##셀러
이걸로
알겠다
필드
체력♬이
죽을때
##박이
##랍시고
##들면
문죄앙
##ur
담배♬를
반환
유진
강철
폭넓
풀려
실전
어릴때
이뤄지지
해본
황당
##의♬는
흔적
설탕
과정♬에
절친
텍스트
도출
사명
##처먹
##욱♬이
불필요
##페이
럭키
인터뷰♬를
욕설
나타내는
이색
피눈
##그럼
캡쳐
마산
##문제♬를
생각하며
순간♬에
##되는게
병력
면♬이
탐구
간다고
묻자
##함♬의
판결♬을
방송♬에
##자격
##타워
♬도내
중증
돌아오는
인명
유언
재미♬도
외곽
힘든데
용납
##거렸다
김구
##하겠냐
CP
행성
St
엔지니어
##됐지만
일등
지칭
묻어
##됐는데
리메이크
움직일
##정지
##안해
마늘
송도
##학과
내려와
생각하는데
##이었으면
직접♬적♬으로
두는
높이고
막아야
팬♬들♬이
##막고
CN
밤새
이기고
##심♬으로
나비
표현하는
길고
이면
설명♬이
시켜라
바람♬을
타격♬을
##있지만
자동♬으로
치즈
검거
소재♬를
안그래도
녹화
##작♬이
구린
주민♬들♬이
군대♬가
결론♬을
가지가지
봐야지
이루는
이광
프로모
상태♬에
인디
남♬에게
남자친구
진행한다
##놓을
이사람
##DB
##하는거다
이어지고
폭주
쪽♬에
관계♬로
멜로
귀♬에
백제
진실♬이
##개입
산정
등극
영세
##테니까
##용♬을
행운
국가♬는
너희♬가
불태
##올린
베테랑
똘똘
회색
##주의♬에
못지
지지층
복제
##재미
애인
##롭다
##감치
습득
통째
증가한
맞아요
화보
이것저
지저
##기게
입단
재밌고
##재료
대성
##적으로
색히
##듭니다
지긋
정치♬가
새벽♬에
남편♬은
##태♬는
뽑는
학교♬가
##싶은데
시스템♬이
영화♬도
##해봐야
위험♬을
##써서
화제♬가
호르몬
##29
잡힌
쏟아져
전♬의
그네
숨진
##전♬까지
##봅시다
손자
##♬화♬와
##조각
변화♬에
다죽
남았다
역적
이와중♬에
돌봄
불명
기업♬들
그다음
로버트
당했다
보람
쿠폰
2시
해준다
##하듯이
유지하는
됐는데
게시판
알겠는데
설명할
인스타그램
웃으면서
여성♬을
##겨운
벌♬을
##허가
뉴스♬를
깨진
김윤
메일
티셔츠
행동♬으로
못생긴
모르겠고
조직♬의
전반♬적♬으로
##인한
##빠리
미국♬도
##TO
강구
##축제
##바퀴
군데
혼합
폭격
했다가
익숙한
단원
사교육
꿈♬이
##소수
##웠는데
신년
##행위♬를
찌라시
##문♬으로
만원
부정♬적
비자
##과정♬을
미얀
두기
똥♬을
메모
카리스마
교정
구로
히틀러
장마
필요하다는
형상
##0년♬대
외식
책♬이
지었다
장자연
##하단
표현♬의
기세
라인업
필름
몇달
자처
답답한
명백한
다툼
게임♬의
여성부
이력
입소
##학기
##우♬와
일선
정체♬가
베♬도
가산
##만하면
정의♬가
##년♬들
발명
믿는다
취하고
##♬랑♬은
체질
##드백
팀♬은
볼때
##있었는데
남지
원본
##네트
상원
##놓았다
##청♬에
악몽
돌아가신
국회♬에
때♬보다
반기
버는
스트라이
대갈
머리♬는
##질랜드
학생♬들♬을
모습♬과
조원
간지
신세
기껏
글자
여러모로
삼고
설령
##라♬와
밑♬으로
하도록
말아라
##없게
##화♬와
##대원
책임♬은
끝났다
##는지♬를
##해보면
느끼지
인신
말했
성찰
##오리
보았
##의식♬을
일회
영화라고
교원
소아
위상
##연기
##00만원
##면적
##급♬을
##지자
좋아한다
평상
비슷하다
##시장♬을
