{"version":"1.0","truncation":null,"padding":null,"added_tokens":[{"id":0,"special":true,"content":"<s>","single_word":false,"lstrip":false,"rstrip":false,"normalized":false},{"id":1,"special":true,"content":"<pad>","single_word":false,"lstrip":false,"rstrip":false,"normalized":false},{"id":2,"special":true,"content":"</s>","single_word":false,"lstrip":false,"rstrip":false,"normalized":false},{"id":3,"special":true,"content":"<unk>","single_word":false,"lstrip":false,"rstrip":false,"normalized":false},{"id":4,"special":true,"content":"<mask>","single_word":false,"lstrip":false,"rstrip":false,"normalized":false},{"id":5,"special":true,"content":"[UNK0]","single_word":false,"lstrip":false,"rstrip":false,"normalized":false},{"id":6,"special":true,"content":"[UNK1]","single_word":false,"lstrip":false,"rstrip":false,"normalized":false},{"id":7,"special":true,"content":"[UNK2]","single_word":false,"lstrip":false,"rstrip":false,"normalized":false},{"id":8,"special":true,"content":"[UNK3]","single_word":false,"lstrip":false,"rstrip":false,"normalized":false},{"id":9,"special":true,"content":"[UNK4]","single_word":false,"lstrip":false,"rstrip":false,"normalized":false},{"id":10,"special":true,"content":"[UNK5]","single_word":false,"lstrip":false,"rstrip":false,"normalized":false},{"id":11,"special":true,"content":"[UNK6]","single_word":false,"lstrip":false,"rstrip":false,"normalized":false},{"id":12,"special":true,"content":"[UNK7]","single_word":false,"lstrip":false,"rstrip":false,"normalized":false},{"id":13,"special":true,"content":"[UNK8]","single_word":false,"lstrip":false,"rstrip":false,"normalized":false},{"id":14,"special":true,"content":"[UNK9]","single_word":false,"lstrip":false,"rstrip":false,"normalized":false},{"id":15,"special":true,"content":"[unused0]","single_word":false,"lstrip":false,"rstrip":false,"normalized":false},{"id":16,"special":true,"content":"[unused1]","single_word":false,"lstrip":false,"rstrip":false,"normalized":false},{"id":17,"special":true,"content":"[unused2]","single_word":false,"lstrip":false,"rstrip":false,"normalized":false},{"id":18,"special":true,"content":"[unused3]","single_word":false,"lstrip":false,"rstrip":false,"normalized":false},{"id":19,"special":true,"content":"[unused4]","single_word":false,"lstrip":false,"rstrip":false,"normalized":false},{"id":20,"special":true,"content":"[unused5]","single_word":false,"lstrip":false,"rstrip":false,"normalized":false},{"id":21,"special":true,"content":"[unused6]","single_word":false,"lstrip":false,"rstrip":false,"normalized":false},{"id":22,"special":true,"content":"[unused7]","single_word":false,"lstrip":false,"rstrip":false,"normalized":false},{"id":23,"special":true,"content":"[unused8]","single_word":false,"lstrip":false,"rstrip":false,"normalized":false},{"id":24,"special":true,"content":"[unused9]","single_word":false,"lstrip":false,"rstrip":false,"normalized":false},{"id":25,"special":true,"content":"[unused10]","single_word":false,"lstrip":false,"rstrip":false,"normalized":false},{"id":26,"special":true,"content":"[unused11]","single_word":false,"lstrip":false,"rstrip":false,"normalized":false},{"id":27,"special":true,"content":"[unused12]","single_word":false,"lstrip":false,"rstrip":false,"normalized":false},{"id":28,"special":true,"content":"[unused13]","single_word":false,"lstrip":false,"rstrip":false,"normalized":false},{"id":29,"special":true,"content":"[unused14]","single_word":false,"lstrip":false,"rstrip":false,"normalized":false},{"id":30,"special":true,"content":"[unused15]","single_word":false,"lstrip":false,"rstrip":false,"normalized":false},{"id":31,"special":true,"content":"[unused16]","single_word":false,"lstrip":false,"rstrip":false,"normalized":false},{"id":32,"special":true,"content":"[unused17]","single_word":false,"lstrip":false,"rstrip":false,"normalized":false},{"id":33,"special":true,"content":"[unused18]","single_word":false,"lstrip":false,"rstrip":false,"normalized":false},{"id":34,"special":true,"content":"[unused19]","single_word":false,"lstrip":false,"rstrip":false,"normalized":false},{"id":35,"special":true,"content":"[unused20]","single_word":false,"lstrip":false,"rstrip":false,"normalized":false},{"id":36,"special":true,"content":"[unused21]","single_word":false,"lstrip":false,"rstrip":false,"normalized":false},{"id":37,"special":true,"content":"[unused22]","single_word":false,"lstrip":false,"rstrip":false,"normalized":false},{"id":38,"special":true,"content":"[unused23]","single_word":false,"lstrip":false,"rstrip":false,"normalized":false},{"id":39,"special":true,"content":"[unused24]","single_word":false,"lstrip":false,"rstrip":false,"normalized":false},{"id":40,"special":true,"content":"[unused25]","single_word":false,"lstrip":false,"rstrip":false,"normalized":false},{"id":41,"special":true,"content":"[unused26]","single_word":false,"lstrip":false,"rstrip":false,"normalized":false},{"id":42,"special":true,"content":"[unused27]","single_word":false,"lstrip":false,"rstrip":false,"normalized":false},{"id":43,"special":true,"content":"[unused28]","single_word":false,"lstrip":false,"rstrip":false,"normalized":false},{"id":44,"special":true,"content":"[unused29]","single_word":false,"lstrip":false,"rstrip":false,"normalized":false},{"id":45,"special":true,"content":"[unused30]","single_word":false,"lstrip":false,"rstrip":false,"normalized":false},{"id":46,"special":true,"content":"[unused31]","single_word":false,"lstrip":false,"rstrip":false,"normalized":false},{"id":47,"special":true,"content":"[unused32]","single_word":false,"lstrip":false,"rstrip":false,"normalized":false},{"id":48,"special":true,"content":"[unused33]","single_word":false,"lstrip":false,"rstrip":false,"normalized":false},{"id":49,"special":true,"content":"[unused34]","single_word":false,"lstrip":false,"rstrip":false,"normalized":false},{"id":50,"special":true,"content":"[unused35]","single_word":false,"lstrip":false,"rstrip":false,"normalized":false},{"id":51,"special":true,"content":"[unused36]","single_word":false,"lstrip":false,"rstrip":false,"normalized":false},{"id":52,"special":true,"content":"[unused37]","single_word":false,"lstrip":false,"rstrip":false,"normalized":false},{"id":53,"special":true,"content":"[unused38]","single_word":false,"lstrip":false,"rstrip":false,"normalized":false},{"id":54,"special":true,"content":"[unused39]","single_word":false,"lstrip":false,"rstrip":false,"normalized":false},{"id":55,"special":true,"content":"[unused40]","single_word":false,"lstrip":false,"rstrip":false,"normalized":false},{"id":56,"special":true,"content":"[unused41]","single_word":false,"lstrip":false,"rstrip":false,"normalized":false},{"id":57,"special":true,"content":"[unused42]","single_word":false,"lstrip":false,"rstrip":false,"normalized":false},{"id":58,"special":true,"content":"[unused43]","single_word":false,"lstrip":false,"rstrip":false,"normalized":false},{"id":59,"special":true,"content":"[unused44]","single_word":false,"lstrip":false,"rstrip":false,"normalized":false},{"id":60,"special":true,"content":"[unused45]","single_word":false,"lstrip":false,"rstrip":false,"normalized":false},{"id":61,"special":true,"content":"[unused46]","single_word":false,"lstrip":false,"rstrip":false,"normalized":false},{"id":62,"special":true,"content":"[unused47]","single_word":false,"lstrip":false,"rstrip":false,"normalized":false},{"id":63,"special":true,"content":"[unused48]","single_word":false,"lstrip":false,"rstrip":false,"normalized":false},{"id":64,"special":true,"content":"[unused49]","single_word":false,"lstrip":false,"rstrip":false,"normalized":false},{"id":65,"special":true,"content":"[unused50]","single_word":false,"lstrip":false,"rstrip":false,"normalized":false},{"id":66,"special":true,"content":"[unused51]","single_word":false,"lstrip":false,"rstrip":false,"normalized":false},{"id":67,"special":true,"content":"[unused52]","single_word":false,"lstrip":false,"rstrip":false,"normalized":false},{"id":68,"special":true,"content":"[unused53]","single_word":false,"lstrip":false,"rstrip":false,"normalized":false},{"id":69,"special":true,"content":"[unused54]","single_word":false,"lstrip":false,"rstrip":false,"normalized":false},{"id":70,"special":true,"content":"[unused55]","single_word":false,"lstrip":false,"rstrip":false,"normalized":false},{"id":71,"special":true,"content":"[unused56]","single_word":false,"lstrip":false,"rstrip":false,"normalized":false},{"id":72,"special":true,"content":"[unused57]","single_word":false,"lstrip":false,"rstrip":false,"normalized":false},{"id":73,"special":true,"content":"[unused58]","single_word":false,"lstrip":false,"rstrip":false,"normalized":false},{"id":74,"special":true,"content":"[unused59]","single_word":false,"lstrip":false,"rstrip":false,"normalized":false},{"id":75,"special":true,"content":"[unused60]","single_word":false,"lstrip":false,"rstrip":false,"normalized":false},{"id":76,"special":true,"content":"[unused61]","single_word":false,"lstrip":false,"rstrip":false,"normalized":false},{"id":77,"special":true,"content":"[unused62]","single_word":false,"lstrip":false,"rstrip":false,"normalized":false},{"id":78,"special":true,"content":"[unused63]","single_word":false,"lstrip":false,"rstrip":false,"normalized":false},{"id":79,"special":true,"content":"[unused64]","single_word":false,"lstrip":false,"rstrip":false,"normalized":false},{"id":80,"special":true,"content":"[unused65]","single_word":false,"lstrip":false,"rstrip":false,"normalized":false},{"id":81,"special":true,"content":"[unused66]","single_word":false,"lstrip":false,"rstrip":false,"normalized":false},{"id":82,"special":true,"content":"[unused67]","single_word":false,"lstrip":false,"rstrip":false,"normalized":false},{"id":83,"special":true,"content":"[unused68]","single_word":false,"lstrip":false,"rstrip":false,"normalized":false},{"id":84,"special":true,"content":"[unused69]","single_word":false,"lstrip":false,"rstrip":false,"normalized":false},{"id":85,"special":true,"content":"[unused70]","single_word":false,"lstrip":false,"rstrip":false,"normalized":false},{"id":86,"special":true,"content":"[unused71]","single_word":false,"lstrip":false,"rstrip":false,"normalized":false},{"id":87,"special":true,"content":"[unused72]","single_word":false,"lstrip":false,"rstrip":false,"normalized":false},{"id":88,"special":true,"content":"[unused73]","single_word":false,"lstrip":false,"rstrip":false,"normalized":false},{"id":89,"special":true,"content":"[unused74]","single_word":false,"lstrip":false,"rstrip":false,"normalized":false},{"id":90,"special":true,"content":"[unused75]","single_word":false,"lstrip":false,"rstrip":false,"normalized":false},{"id":91,"special":true,"content":"[unused76]","single_word":false,"lstrip":false,"rstrip":false,"normalized":false},{"id":92,"special":true,"content":"[unused77]","single_word":false,"lstrip":false,"rstrip":false,"normalized":false},{"id":93,"special":true,"content":"[unused78]","single_word":false,"lstrip":false,"rstrip":false,"normalized":false},{"id":94,"special":true,"content":"[unused79]","single_word":false,"lstrip":false,"rstrip":false,"normalized":false},{"id":95,"special":true,"content":"[unused80]","single_word":false,"lstrip":false,"rstrip":false,"normalized":false},{"id":96,"special":true,"content":"[unused81]","single_word":false,"lstrip":false,"rstrip":false,"normalized":false},{"id":97,"special":true,"content":"[unused82]","single_word":false,"lstrip":false,"rstrip":false,"normalized":false},{"id":98,"special":true,"content":"[unused83]","single_word":false,"lstrip":false,"rstrip":false,"normalized":false},{"id":99,"special":true,"content":"[unused84]","single_word":false,"lstrip":false,"rstrip":false,"normalized":false},{"id":100,"special":true,"content":"[unused85]","single_word":false,"lstrip":false,"rstrip":false,"normalized":false},{"id":101,"special":true,"content":"[unused86]","single_word":false,"lstrip":false,"rstrip":false,"normalized":false},{"id":102,"special":true,"content":"[unused87]","single_word":false,"lstrip":false,"rstrip":false,"normalized":false},{"id":103,"special":true,"content":"[unused88]","single_word":false,"lstrip":false,"rstrip":false,"normalized":false},{"id":104,"special":true,"content":"[unused89]","single_word":false,"lstrip":false,"rstrip":false,"normalized":false},{"id":105,"special":true,"content":"[unused90]","single_word":false,"lstrip":false,"rstrip":false,"normalized":false},{"id":106,"special":true,"content":"[unused91]","single_word":false,"lstrip":false,"rstrip":false,"normalized":false},{"id":107,"special":true,"content":"[unused92]","single_word":false,"lstrip":false,"rstrip":false,"normalized":false},{"id":108,"special":true,"content":"[unused93]","single_word":false,"lstrip":false,"rstrip":false,"normalized":false},{"id":109,"special":true,"content":"[unused94]","single_word":false,"lstrip":false,"rstrip":false,"normalized":false},{"id":110,"special":true,"content":"[unused95]","single_word":false,"lstrip":false,"rstrip":false,"normalized":false},{"id":111,"special":true,"content":"[unused96]","single_word":false,"lstrip":false,"rstrip":false,"normalized":false},{"id":112,"special":true,"content":"[unused97]","single_word":false,"lstrip":false,"rstrip":false,"normalized":false},{"id":113,"special":true,"content":"[unused98]","single_word":false,"lstrip":false,"rstrip":false,"normalized":false},{"id":114,"special":true,"content":"[unused99]","single_word":false,"lstrip":false,"rstrip":false,"normalized":false},{"id":115,"special":true,"content":"[unused100]","single_word":false,"lstrip":false,"rstrip":false,"normalized":false},{"id":116,"special":true,"content":"[unused101]","single_word":false,"lstrip":false,"rstrip":false,"normalized":false},{"id":117,"special":true,"content":"[unused102]","single_word":false,"lstrip":false,"rstrip":false,"normalized":false},{"id":118,"special":true,"content":"[unused103]","single_word":false,"lstrip":false,"rstrip":false,"normalized":false},{"id":119,"special":true,"content":"[unused104]","single_word":false,"lstrip":false,"rstrip":false,"normalized":false},{"id":120,"special":true,"content":"[unused105]","single_word":false,"lstrip":false,"rstrip":false,"normalized":false},{"id":121,"special":true,"content":"[unused106]","single_word":false,"lstrip":false,"rstrip":false,"normalized":false},{"id":122,"special":true,"content":"[unused107]","single_word":false,"lstrip":false,"rstrip":false,"normalized":false},{"id":123,"special":true,"content":"[unused108]","single_word":false,"lstrip":false,"rstrip":false,"normalized":false},{"id":124,"special":true,"content":"[unused109]","single_word":false,"lstrip":false,"rstrip":false,"normalized":false},{"id":125,"special":true,"content":"[unused110]","single_word":false,"lstrip":false,"rstrip":false,"normalized":false},{"id":126,"special":true,"content":"[unused111]","single_word":false,"lstrip":false,"rstrip":false,"normalized":false},{"id":127,"special":true,"content":"[unused112]","single_word":false,"lstrip":false,"rstrip":false,"normalized":false},{"id":128,"special":true,"content":"[unused113]","single_word":false,"lstrip":false,"rstrip":false,"normalized":false},{"id":129,"special":true,"content":"[unused114]","single_word":false,"lstrip":false,"rstrip":false,"normalized":false},{"id":130,"special":true,"content":"[unused115]","single_word":false,"lstrip":false,"rstrip":false,"normalized":false},{"id":131,"special":true,"content":"[unused116]","single_word":false,"lstrip":false,"rstrip":false,"normalized":false},{"id":132,"special":true,"content":"[unused117]","single_word":false,"lstrip":false,"rstrip":false,"normalized":false},{"id":133,"special":true,"content":"[unused118]","single_word":false,"lstrip":false,"rstrip":false,"normalized":false},{"id":134,"special":true,"content":"[unused119]","single_word":false,"lstrip":false,"rstrip":false,"normalized":false},{"id":135,"special":true,"content":"[unused120]","single_word":false,"lstrip":false,"rstrip":false,"normalized":false},{"id":136,"special":true,"content":"[unused121]","single_word":false,"lstrip":false,"rstrip":false,"normalized":false},{"id":137,"special":true,"content":"[unused122]","single_word":false,"lstrip":false,"rstrip":false,"normalized":false},{"id":138,"special":true,"content":"[unused123]","single_word":false,"lstrip":false,"rstrip":false,"normalized":false},{"id":139,"special":true,"content":"[unused124]","single_word":false,"lstrip":false,"rstrip":false,"normalized":false},{"id":140,"special":true,"content":"[unused125]","single_word":false,"lstrip":false,"rstrip":false,"normalized":false},{"id":141,"special":true,"content":"[unused126]","single_word":false,"lstrip":false,"rstrip":false,"normalized":false},{"id":142,"special":true,"content":"[unused127]","single_word":false,"lstrip":false,"rstrip":false,"normalized":false},{"id":143,"special":true,"content":"[unused128]","single_word":false,"lstrip":false,"rstrip":false,"normalized":false},{"id":144,"special":true,"content":"[unused129]","single_word":false,"lstrip":false,"rstrip":false,"normalized":false},{"id":145,"special":true,"content":"[unused130]","single_word":false,"lstrip":false,"rstrip":false,"normalized":false},{"id":146,"special":true,"content":"[unused131]","single_word":false,"lstrip":false,"rstrip":false,"normalized":false},{"id":147,"special":true,"content":"[unused132]","single_word":false,"lstrip":false,"rstrip":false,"normalized":false},{"id":148,"special":true,"content":"[unused133]","single_word":false,"lstrip":false,"rstrip":false,"normalized":false},{"id":149,"special":true,"content":"[unused134]","single_word":false,"lstrip":false,"rstrip":false,"normalized":false},{"id":150,"special":true,"content":"[unused135]","single_word":false,"lstrip":false,"rstrip":false,"normalized":false},{"id":151,"special":true,"content":"[unused136]","single_word":false,"lstrip":false,"rstrip":false,"normalized":false},{"id":152,"special":true,"content":"[unused137]","single_word":false,"lstrip":false,"rstrip":false,"normalized":false},{"id":153,"special":true,"content":"[unused138]","single_word":false,"lstrip":false,"rstrip":false,"normalized":false},{"id":154,"special":true,"content":"[unused139]","single_word":false,"lstrip":false,"rstrip":false,"normalized":false},{"id":155,"special":true,"content":"[unused140]","single_word":false,"lstrip":false,"rstrip":false,"normalized":false},{"id":156,"special":true,"content":"[unused141]","single_word":false,"lstrip":false,"rstrip":false,"normalized":false},{"id":157,"special":true,"content":"[unused142]","single_word":false,"lstrip":false,"rstrip":false,"normalized":false},{"id":158,"special":true,"content":"[unused143]","single_word":false,"lstrip":false,"rstrip":false,"normalized":false},{"id":159,"special":true,"content":"[unused144]","single_word":false,"lstrip":false,"rstrip":false,"normalized":false},{"id":160,"special":true,"content":"[unused145]","single_word":false,"lstrip":false,"rstrip":false,"normalized":false},{"id":161,"special":true,"content":"[unused146]","single_word":false,"lstrip":false,"rstrip":false,"normalized":false},{"id":162,"special":true,"content":"[unused147]","single_word":false,"lstrip":false,"rstrip":false,"normalized":false},{"id":163,"special":true,"content":"[unused148]","single_word":false,"lstrip":false,"rstrip":false,"normalized":false},{"id":164,"special":true,"content":"[unused149]","single_word":false,"lstrip":false,"rstrip":false,"normalized":false},{"id":165,"special":true,"content":"[unused150]","single_word":false,"lstrip":false,"rstrip":false,"normalized":false},{"id":166,"special":true,"content":"[unused151]","single_word":false,"lstrip":false,"rstrip":false,"normalized":false},{"id":167,"special":true,"content":"[unused152]","single_word":false,"lstrip":false,"rstrip":false,"normalized":false},{"id":168,"special":true,"content":"[unused153]","single_word":false,"lstrip":false,"rstrip":false,"normalized":false},{"id":169,"special":true,"content":"[unused154]","single_word":false,"lstrip":false,"rstrip":false,"normalized":false},{"id":170,"special":true,"content":"[unused155]","single_word":false,"lstrip":false,"rstrip":false,"normalized":false},{"id":171,"special":true,"content":"[unused156]","single_word":false,"lstrip":false,"rstrip":false,"normalized":false},{"id":172,"special":true,"content":"[unused157]","single_word":false,"lstrip":false,"rstrip":false,"normalized":false},{"id":173,"special":true,"content":"[unused158]","single_word":false,"lstrip":false,"rstrip":false,"normalized":false},{"id":174,"special":true,"content":"[unused159]","single_word":false,"lstrip":false,"rstrip":false,"normalized":false},{"id":175,"special":true,"content":"[unused160]","single_word":false,"lstrip":false,"rstrip":false,"normalized":false},{"id":176,"special":true,"content":"[unused161]","single_word":false,"lstrip":false,"rstrip":false,"normalized":false},{"id":177,"special":true,"content":"[unused162]","single_word":false,"lstrip":false,"rstrip":false,"normalized":false},{"id":178,"special":true,"content":"[unused163]","single_word":false,"lstrip":false,"rstrip":false,"normalized":false},{"id":179,"special":true,"content":"[unused164]","single_word":false,"lstrip":false,"rstrip":false,"normalized":false},{"id":180,"special":true,"content":"[unused165]","single_word":false,"lstrip":false,"rstrip":false,"normalized":false},{"id":181,"special":true,"content":"[unused166]","single_word":false,"lstrip":false,"rstrip":false,"normalized":false},{"id":182,"special":true,"content":"[unused167]","single_word":false,"lstrip":false,"rstrip":false,"normalized":false},{"id":183,"special":true,"content":"[unused168]","single_word":false,"lstrip":false,"rstrip":false,"normalized":false},{"id":184,"special":true,"content":"[unused169]","single_word":false,"lstrip":false,"rstrip":false,"normalized":false},{"id":185,"special":true,"content":"[unused170]","single_word":false,"lstrip":false,"rstrip":false,"normalized":false},{"id":186,"special":true,"content":"[unused171]","single_word":false,"lstrip":false,"rstrip":false,"normalized":false},{"id":187,"special":true,"content":"[unused172]","single_word":false,"lstrip":false,"rstrip":false,"normalized":false},{"id":188,"special":true,"content":"[unused173]","single_word":false,"lstrip":false,"rstrip":false,"normalized":false},{"id":189,"special":true,"content":"[unused174]","single_word":false,"lstrip":false,"rstrip":false,"normalized":false},{"id":190,"special":true,"content":"[unused175]","single_word":false,"lstrip":false,"rstrip":false,"normalized":false},{"id":191,"special":true,"content":"[unused176]","single_word":false,"lstrip":false,"rstrip":false,"normalized":false},{"id":192,"special":true,"content":"[unused177]","single_word":false,"lstrip":false,"rstrip":false,"normalized":false},{"id":193,"special":true,"content":"[unused178]","single_word":false,"lstrip":false,"rstrip":false,"normalized":false},{"id":194,"special":true,"content":"[unused179]","single_word":false,"lstrip":false,"rstrip":false,"normalized":false},{"id":195,"special":true,"content":"[unused180]","single_word":false,"lstrip":false,"rstrip":false,"normalized":false},{"id":196,"special":true,"content":"[unused181]","single_word":false,"lstrip":false,"rstrip":false,"normalized":false},{"id":197,"special":true,"content":"[unused182]","single_word":false,"lstrip":false,"rstrip":false,"normalized":false},{"id":198,"special":true,"content":"[unused183]","single_word":false,"lstrip":false,"rstrip":false,"normalized":false},{"id":199,"special":true,"content":"[unused184]","single_word":false,"lstrip":false,"rstrip":false,"normalized":false},{"id":200,"special":true,"content":"[unused185]","single_word":false,"lstrip":false,"rstrip":false,"normalized":false},{"id":201,"special":true,"content":"[unused186]","single_word":false,"lstrip":false,"rstrip":false,"normalized":false},{"id":202,"special":true,"content":"[unused187]","single_word":false,"lstrip":false,"rstrip":false,"normalized":false},{"id":203,"special":true,"content":"[unused188]","single_word":false,"lstrip":false,"rstrip":false,"normalized":false},{"id":204,"special":true,"content":"[unused189]","single_word":false,"lstrip":false,"rstrip":false,"normalized":false},{"id":205,"special":true,"content":"[unused190]","single_word":false,"lstrip":false,"rstrip":false,"normalized":false},{"id":206,"special":true,"content":"[unused191]","single_word":false,"lstrip":false,"rstrip":false,"normalized":false},{"id":207,"special":true,"content":"[unused192]","single_word":false,"lstrip":false,"rstrip":false,"normalized":false},{"id":208,"special":true,"content":"[unused193]","single_word":false,"lstrip":false,"rstrip":false,"normalized":false},{"id":209,"special":true,"content":"[unused194]","single_word":false,"lstrip":false,"rstrip":false,"normalized":false},{"id":210,"special":true,"content":"[unused195]","single_word":false,"lstrip":false,"rstrip":false,"normalized":false},{"id":211,"special":true,"content":"[unused196]","single_word":false,"lstrip":false,"rstrip":false,"normalized":false},{"id":212,"special":true,"content":"[unused197]","single_word":false,"lstrip":false,"rstrip":false,"normalized":false},{"id":213,"special":true,"content":"[unused198]","single_word":false,"lstrip":false,"rstrip":false,"normalized":false},{"id":214,"special":true,"content":"[unused199]","single_word":false,"lstrip":false,"rstrip":false,"normalized":false}],"normalizer":{"type":"BertNormalizer","clean_text":true,"handle_chinese_chars":true,"strip_accents":false,"lowercase":false},"pre_tokenizer":{"type":"BertPreTokenizer"},"post_processor":null,"decoder":{"type":"WordPiece","prefix":"##","cleanup":true},"model":{"type":"WordPiece","unk_token":"[UNK]","continuing_subword_prefix":"##","max_input_chars_per_word":100,"vocab":{"<s>":0,"<pad>":1,"</s>":2,"<unk>":3,"<mask>":4,"[UNK0]":5,"[UNK1]":6,"[UNK2]":7,"[UNK3]":8,"[UNK4]":9,"[UNK5]":10,"[UNK6]":11,"[UNK7]":12,"[UNK8]":13,"[UNK9]":14,"[unused0]":15,"[unused1]":16,"[unused2]":17,"[unused3]":18,"[unused4]":19,"[unused5]":20,"[unused6]":21,"[unused7]":22,"[unused8]":23,"[unused9]":24,"[unused10]":25,"[unused11]":26,"[unused12]":27,"[unused13]":28,"[unused14]":29,"[unused15]":30,"[unused16]":31,"[unused17]":32,"[unused18]":33,"[unused19]":34,"[unused20]":35,"[unused21]":36,"[unused22]":37,"[unused23]":38,"[unused24]":39,"[unused25]":40,"[unused26]":41,"[unused27]":42,"[unused28]":43,"[unused29]":44,"[unused30]":45,"[unused31]":46,"[unused32]":47,"[unused33]":48,"[unused34]":49,"[unused35]":50,"[unused36]":51,"[unused37]":52,"[unused38]":53,"[unused39]":54,"[unused40]":55,"[unused41]":56,"[unused42]":57,"[unused43]":58,"[unused44]":59,"[unused45]":60,"[unused46]":61,"[unused47]":62,"[unused48]":63,"[unused49]":64,"[unused50]":65,"[unused51]":66,"[unused52]":67,"[unused53]":68,"[unused54]":69,"[unused55]":70,"[unused56]":71,"[unused57]":72,"[unused58]":73,"[unused59]":74,"[unused60]":75,"[unused61]":76,"[unused62]":77,"[unused63]":78,"[unused64]":79,"[unused65]":80,"[unused66]":81,"[unused67]":82,"[unused68]":83,"[unused69]":84,"[unused70]":85,"[unused71]":86,"[unused72]":87,"[unused73]":88,"[unused74]":89,"[unused75]":90,"[unused76]":91,"[unused77]":92,"[unused78]":93,"[unused79]":94,"[unused80]":95,"[unused81]":96,"[unused82]":97,"[unused83]":98,"[unused84]":99,"[unused85]":100,"[unused86]":101,"[unused87]":102,"[unused88]":103,"[unused89]":104,"[unused90]":105,"[unused91]":106,"[unused92]":107,"[unused93]":108,"[unused94]":109,"[unused95]":110,"[unused96]":111,"[unused97]":112,"[unused98]":113,"[unused99]":114,"[unused100]":115,"[unused101]":116,"[unused102]":117,"[unused103]":118,"[unused104]":119,"[unused105]":120,"[unused106]":121,"[unused107]":122,"[unused108]":123,"[unused109]":124,"[unused110]":125,"[unused111]":126,"[unused112]":127,"[unused113]":128,"[unused114]":129,"[unused115]":130,"[unused116]":131,"[unused117]":132,"[unused118]":133,"[unused119]":134,"[unused120]":135,"[unused121]":136,"[unused122]":137,"[unused123]":138,"[unused124]":139,"[unused125]":140,"[unused126]":141,"[unused127]":142,"[unused128]":143,"[unused129]":144,"[unused130]":145,"[unused131]":146,"[unused132]":147,"[unused133]":148,"[unused134]":149,"[unused135]":150,"[unused136]":151,"[unused137]":152,"[unused138]":153,"[unused139]":154,"[unused140]":155,"[unused141]":156,"[unused142]":157,"[unused143]":158,"[unused144]":159,"[unused145]":160,"[unused146]":161,"[unused147]":162,"[unused148]":163,"[unused149]":164,"[unused150]":165,"[unused151]":166,"[unused152]":167,"[unused153]":168,"[unused154]":169,"[unused155]":170,"[unused156]":171,"[unused157]":172,"[unused158]":173,"[unused159]":174,"[unused160]":175,"[unused161]":176,"[unused162]":177,"[unused163]":178,"[unused164]":179,"[unused165]":180,"[unused166]":181,"[unused167]":182,"[unused168]":183,"[unused169]":184,"[unused170]":185,"[unused171]":186,"[unused172]":187,"[unused173]":188,"[unused174]":189,"[unused175]":190,"[unused176]":191,"[unused177]":192,"[unused178]":193,"[unused179]":194,"[unused180]":195,"[unused181]":196,"[unused182]":197,"[unused183]":198,"[unused184]":199,"[unused185]":200,"[unused186]":201,"[unused187]":202,"[unused188]":203,"[unused189]":204,"[unused190]":205,"[unused191]":206,"[unused192]":207,"[unused193]":208,"[unused194]":209,"[unused195]":210,"[unused196]":211,"[unused197]":212,"[unused198]":213,"[unused199]":214,"!":215,"\"":216,"%":217,"'":218,",":219,"-":220,".":221,"/":222,"0":223,"1":224,"2":225,"3":226,"4":227,"5":228,"6":229,"7":230,"8":231,"9":232,":":233,"?":234,"@":235,"A":236,"B":237,"C":238,"D":239,"E":240,"F":241,"G":242,"H":243,"I":244,"J":245,"K":246,"L":247,"M":248,"N":249,"O":250,"P":251,"Q":252,"R":253,"S":254,"T":255,"U":256,"V":257,"W":258,"X":259,"Y":260,"Z":261,"a":262,"b":263,"c":264,"d":265,"e":266,"f":267,"g":268,"h":269,"i":270,"j":271,"k":272,"l":273,"m":274,"n":275,"o":276,"p":277,"q":278,"r":279,"s":280,"t":281,"u":282,"v":283,"w":284,"x":285,"y":286,"z":287,"~":288,"·":289,"♬":290,"가":291,"각":292,"갂":293,"갃":294,"간":295,"갅":296,"갆":297,"갇":298,"갈":299,"갉":300,"갊":301,"갋":302,"갌":303,"갍":304,"갎":305,"갏":306,"감":307,"갑":308,"값":309,"갓":310,"갔":311,"강":312,"갖":313,"갗":314,"갘":315,"같":316,"갚":317,"갛":318,"개":319,"객":320,"갞":321,"갟":322,"갠":323,"갢":324,"갣":325,"갤":326,"갥":327,"갧":328,"갩":329,"갫":330,"갬":331,"갭":332,"갮":333,"갯":334,"갰":335,"갱":336,"갲":337,"갳":338,"갴":339,"갵":340,"갶":341,"갷":342,"갸":343,"갹":344,"갺":345,"갼":346,"갿":347,"걀":348,"걁":349,"걃":350,"걆":351,"걇":352,"걈":353,"걉":354,"걊":355,"걋":356,"걌":357,"걍":358,"걎":359,"걐":360,"걑":361,"걒":362,"걓":363,"걔":364,"걕":365,"걖":366,"걘":367,"걜":368,"걤":369,"걥":370,"걧":371,"걨":372,"걩":373,"걬":374,"걭":375,"거":376,"걱":377,"걲":378,"걳":379,"건":380,"걵":381,"걶":382,"걷":383,"걸":384,"걹":385,"걺":386,"걻":387,"걼":388,"걽":389,"걾":390,"걿":391,"검":392,"겁":393,"겂":394,"것":395,"겄":396,"겅":397,"겆":398,"겇":399,"겈":400,"겉":401,"겊":402,"겋":403,"게":404,"겍":405,"겎":406,"겏":407,"겐":408,"겒":409,"겓":410,"겔":411,"겕":412,"겗":413,"겙":414,"겚":415,"겛":416,"겜":417,"겝":418,"겞":419,"겟":420,"겠":421,"겡":422,"겢":423,"겣":424,"겤":425,"겥":426,"겦":427,"겧":428,"겨":429,"격":430,"겪":431,"겫":432,"견":433,"겭":434,"겮":435,"겯":436,"결":437,"겱":438,"겲":439,"겳":440,"겴":441,"겵":442,"겷":443,"겸":444,"겹":445,"겺":446,"겻":447,"겼":448,"경":449,"겾":450,"겿":451,"곀":452,"곁":453,"곂":454,"곃":455,"계":456,"곅":457,"곆":458,"곈":459,"곋":460,"곌":461,"곔":462,"곕":463,"곖":464,"곗":465,"곘":466,"곙":467,"곚":468,"곛":469,"곜":470,"곝":471,"곟":472,"고":473,"곡":474,"곢":475,"곣":476,"곤":477,"곥":478,"곧":479,"골":480,"곩":481,"곪":482,"곫":483,"곬":484,"곭":485,"곮":486,"곯":487,"곰":488,"곱":489,"곲":490,"곳":491,"곴":492,"공":493,"곶":494,"곷":495,"곸":496,"곹":497,"곺":498,"곻":499,"과":500,"곽":501,"관":502,"괁":503,"괂":504,"괃":505,"괄":506,"괅":507,"괌":508,"괍":509,"괏":510,"괐":511,"광":512,"괒":513,"괓":514,"괔":515,"괕":516,"괖":517,"괗":518,"괘":519,"괙":520,"괜":521,"괝":522,"괞":523,"괠":524,"괨":525,"괫":526,"괬":527,"괭":528,"괴":529,"괵":530,"괸":531,"괺":532,"괼":533,"굄":534,"굅":535,"굇":536,"굈":537,"굉":538,"굌":539,"굎":540,"교":541,"굑":542,"굔":543,"굗":544,"굘":545,"굚":546,"굠":547,"굡":548,"굣":549,"굤":550,"굥":551,"굦":552,"굧":553,"굨":554,"굩":555,"굪":556,"굫":557,"구":558,"국":559,"굮":560,"굯":561,"군":562,"굱":563,"굲":564,"굳":565,"굴":566,"굵":567,"굶":568,"굷":569,"굺":570,"굻":571,"굼":572,"굽":573,"굾":574,"굿":575,"궀":576,"궁":577,"궂":578,"궃":579,"궄":580,"궅":581,"궆":582,"궇":583,"궈":584,"궉":585,"권":586,"궍":587,"궏":588,"궐":589,"궑":590,"궓":591,"궘":592,"궙":593,"궛":594,"궜":595,"궝":596,"궠":597,"궤":598,"궥":599,"궨":600,"궬":601,"궭":602,"궮":603,"궯":604,"궲":605,"궳":606,"궵":607,"궷":608,"궸":609,"궹":610,"귀":611,"귁":612,"귄":613,"귇":614,"귈":615,"귐":616,"귑":617,"귓":618,"귔":619,"귕":620,"귖":621,"귘":622,"귛":623,"규":624,"귝":625,"균":626,"귣":627,"귤":628,"귥":629,"귦":630,"귬":631,"귭":632,"귯":633,"귱":634,"귴":635,"귷":636,"그":637,"극":638,"귺":639,"귻":640,"근":641,"귽":642,"귾":643,"귿":644,"글":645,"긁":646,"긂":647,"긃":648,"긄":649,"긆":650,"긇":651,"금":652,"급":653,"긊":654,"긋":655,"긌":656,"긍":657,"긎":658,"긏":659,"긐":660,"긑":661,"긒":662,"긓":663,"긔":664,"긕":665,"긘":666,"긛":667,"긜":668,"긞":669,"긤":670,"긥":671,"긧":672,"긩":673,"긪":674,"긬":675,"긯":676,"기":677,"긱":678,"긲":679,"긴":680,"긵":681,"긶":682,"긷":683,"길":684,"긹":685,"긺":686,"긻":687,"긼":688,"긿":689,"김":690,"깁":691,"깂":692,"깃":693,"깄":694,"깅":695,"깆":696,"깇":697,"깈":698,"깉":699,"깊":700,"깋":701,"까":702,"깍":703,"깎":704,"깐":705,"깑":706,"깒":707,"깓":708,"깔":709,"깕":710,"깖":711,"깗":712,"깛":713,"깜":714,"깝":715,"깞":716,"깟":717,"깠":718,"깡":719,"깢":720,"깣":721,"깤":722,"깥":723,"깦":724,"깧":725,"깨":726,"깩":727,"깪":728,"깬":729,"깯":730,"깰":731,"깱":732,"깵":733,"깸":734,"깹":735,"깺":736,"깻":737,"깼":738,"깽":739,"깾":740,"꺀":741,"꺄":742,"꺅":743,"꺆":744,"꺈":745,"꺊":746,"꺋":747,"꺌":748,"꺍":749,"꺏":750,"꺓":751,"꺔":752,"꺕":753,"꺗":754,"꺘":755,"꺙":756,"꺚":757,"꺜":758,"꺟":759,"꺠":760,"꺢":761,"꺤":762,"꺨":763,"꺰":764,"꺳":765,"꺴":766,"꺵":767,"꺼":768,"꺽":769,"꺾":770,"껀":771,"껃":772,"껄":773,"껅":774,"껇":775,"껌":776,"껍":777,"껏":778,"껐":779,"껑":780,"껒":781,"껓":782,"껔":783,"껕":784,"껗":785,"께":786,"껙":787,"껚":788,"껜":789,"껠":790,"껨":791,"껩":792,"껫":793,"껬":794,"껭":795,"껰":796,"껳":797,"껴":798,"껵":799,"껶":800,"껸":801,"껼":802,"꼄":803,"꼅":804,"꼇":805,"꼈":806,"꼉":807,"꼊":808,"꼌":809,"꼍":810,"꼏":811,"꼐":812,"꼣":813,"꼤":814,"꼥":815,"꼨":816,"꼬":817,"꼭":818,"꼮":819,"꼰":820,"꼲":821,"꼳":822,"꼴":823,"꼵":824,"꼶":825,"꼷":826,"꼹":827,"꼻":828,"꼼":829,"꼽":830,"꼿":831,"꽀":832,"꽁":833,"꽂":834,"꽃":835,"꽄":836,"꽅":837,"꽆":838,"꽇":839,"꽈":840,"꽉":841,"꽊":842,"꽌":843,"꽐":844,"꽑":845,"꽘":846,"꽙":847,"꽛":848,"꽜":849,"꽝":850,"꽠":851,"꽤":852,"꽥":853,"꽦":854,"꽨":855,"꽭":856,"꽳":857,"꽴":858,"꽹":859,"꽼":860,"꾀":861,"꾁":862,"꾄":863,"꾈":864,"꾐":865,"꾕":866,"꾜":867,"꾝":868,"꾠":869,"꾤":870,"꾬":871,"꾭":872,"꾱":873,"꾳":874,"꾸":875,"꾹":876,"꾺":877,"꾼":878,"꾾":879,"꾿":880,"꿀":881,"꿁":882,"꿂":883,"꿃":884,"꿄":885,"꿇":886,"꿈":887,"꿉":888,"꿋":889,"꿌":890,"꿍":891,"꿎":892,"꿏":893,"꿐":894,"꿑":895,"꿓":896,"꿔":897,"꿕":898,"꿘":899,"꿜":900,"꿝":901,"꿤":902,"꿥":903,"꿧":904,"꿨":905,"꿩":906,"꿬":907,"꿯":908,"꿰":909,"꿱":910,"꿲":911,"꿴":912,"꿸":913,"꿹":914,"꿻":915,"꿿":916,"뀀":917,"뀃":918,"뀄":919,"뀅":920,"뀈":921,"뀌":922,"뀍":923,"뀐":924,"뀔":925,"뀜":926,"뀝":927,"뀟":928,"뀠":929,"뀡":930,"뀤":931,"뀨":932,"뀩":933,"뀪":934,"뀬":935,"뀰":936,"뀱":937,"뀳":938,"뀷":939,"뀸":940,"뀹":941,"뀻":942,"뀽":943,"끀":944,"끄":945,"끅":946,"끆":947,"끈":948,"끉":949,"끊":950,"끋":951,"끌":952,"끍":953,"끎":954,"끏":955,"끐":956,"끓":957,"끔":958,"끕":959,"끗":960,"끘":961,"끙":962,"끚":963,"끛":964,"끜":965,"끝":966,"끞":967,"끟":968,"끠":969,"끡":970,"끤":971,"끨":972,"끯":973,"끰":974,"끵":975,"끸":976,"끼":977,"끽":978,"끾":979,"낀":980,"낂":981,"낃":982,"낄":983,"낅":984,"낋":985,"낌":986,"낍":987,"낎":988,"낏":989,"낐":990,"낑":991,"낒":992,"낓":993,"낔":994,"낕":995,"낗":996,"나":997,"낙":998,"낚":999,"낛":1000,"난":1001,"낝":1002,"낞":1003,"낟":1004,"날":1005,"낡":1006,"낢":1007,"낣":1008,"낤":1009,"낥":1010,"낧":1011,"남":1012,"납":1013,"낪":1014,"낫":1015,"났":1016,"낭":1017,"낮":1018,"낯":1019,"낰":1020,"낱":1021,"낲":1022,"낳":1023,"내":1024,"낵":1025,"낶":1026,"낸":1027,"낻":1028,"낼":1029,"냄":1030,"냅":1031,"냇":1032,"냈":1033,"냉":1034,"냊":1035,"냋":1036,"냌":1037,"냍":1038,"냎":1039,"냏":1040,"냐":1041,"냑":1042,"냒":1043,"냔":1044,"냗":1045,"냘":1046,"냙":1047,"냠":1048,"냡":1049,"냣":1050,"냤":1051,"냥":1052,"냦":1053,"냧":1054,"냨":1055,"냩":1056,"냪":1057,"냫":1058,"냬":1059,"냰":1060,"냴":1061,"냼":1062,"냿":1063,"넀":1064,"넁":1065,"넄":1066,"너":1067,"넉":1068,"넊":1069,"넋":1070,"넌":1071,"넎":1072,"넏":1073,"널":1074,"넑":1075,"넒":1076,"넓":1077,"넔":1078,"넖":1079,"넗":1080,"넘":1081,"넙":1082,"넚":1083,"넛":1084,"넜":1085,"넝":1086,"넞":1087,"넟":1088,"넠":1089,"넡":1090,"넢":1091,"넣":1092,"네":1093,"넥":1094,"넦":1095,"넧":1096,"넨":1097,"넫":1098,"넬":1099,"넭":1100,"넴":1101,"넵":1102,"넶":1103,"넷":1104,"넸":1105,"넹":1106,"넺":1107,"넻":1108,"넼":1109,"넽":1110,"넾":1111,"넿":1112,"녀":1113,"녁":1114,"녂":1115,"년":1116,"녅":1117,"녆":1118,"녇":1119,"녈":1120,"념":1121,"녑":1122,"녓":1123,"녔":1124,"녕":1125,"녖":1126,"녗":1127,"녘":1128,"녙":1129,"녚":1130,"녛":1131,"녜":1132,"녝":1133,"녟":1134,"녠":1135,"녤":1136,"녬":1137,"녭":1138,"녯":1139,"녰":1140,"녱":1141,"녴":1142,"노":1143,"녹":1144,"녺":1145,"녻":1146,"논":1147,"녽":1148,"녾":1149,"녿":1150,"놀":1151,"놁":1152,"놂":1153,"놃":1154,"놇":1155,"놈":1156,"놉":1157,"놊":1158,"놋":1159,"놌":1160,"농":1161,"놎":1162,"놏":1163,"놐":1164,"놑":1165,"높":1166,"놓":1167,"놔":1168,"놕":1169,"놖":1170,"놘":1171,"놛":1172,"놜":1173,"놝":1174,"놤":1175,"놥":1176,"놧":1177,"놨":1178,"놩":1179,"놪":1180,"놬":1181,"놯":1182,"놰":1183,"놴":1184,"놸":1185,"뇀":1186,"뇁":1187,"뇄":1188,"뇅":1189,"뇌":1190,"뇍":1191,"뇐":1192,"뇔":1193,"뇜":1194,"뇝":1195,"뇟":1196,"뇠":1197,"뇡":1198,"뇤":1199,"뇨":1200,"뇩":1201,"뇬":1202,"뇰":1203,"뇸":1204,"뇹":1205,"뇻":1206,"뇽":1207,"눀":1208,"눂":1209,"눃":1210,"누":1211,"눅":1212,"눈":1213,"눉":1214,"눋":1215,"눌":1216,"눍":1217,"눓":1218,"눔":1219,"눕":1220,"눗":1221,"눙":1222,"눚":1223,"눛":1224,"눜":1225,"눝":1226,"눞":1227,"눟":1228,"눠":1229,"눤":1230,"눨":1231,"눰":1232,"눳":1233,"눴":1234,"눵":1235,"눸":1236,"눹":1237,"눼":1238,"눽":1239,"뉀":1240,"뉄":1241,"뉅":1242,"뉌":1243,"뉍":1244,"뉑":1245,"뉔":1246,"뉘":1247,"뉙":1248,"뉜":1249,"뉠":1250,"뉨":1251,"뉩":1252,"뉫":1253,"뉬":1254,"뉭":1255,"뉰":1256,"뉴":1257,"뉵":1258,"뉸":1259,"뉼":1260,"늄":1261,"늅":1262,"늇":1263,"늉":1264,"늌":1265,"늎":1266,"늏":1267,"느":1268,"늑":1269,"늒":1270,"늓":1271,"는":1272,"늕":1273,"늖":1274,"늗":1275,"늘":1276,"늙":1277,"늚":1278,"늛":1279,"늜":1280,"늟":1281,"늠":1282,"늡":1283,"늣":1284,"늤":1285,"능":1286,"늦":1287,"늧":1288,"늨":1289,"늩":1290,"늪":1291,"늫":1292,"늬":1293,"늭":1294,"늰":1295,"늴":1296,"늼":1297,"늽":1298,"늿":1299,"닁":1300,"닄":1301,"니":1302,"닉":1303,"닊":1304,"닋":1305,"닌":1306,"닍":1307,"닏":1308,"닐":1309,"닑":1310,"닒":1311,"닗":1312,"님":1313,"닙":1314,"닚":1315,"닛":1316,"닜":1317,"닝":1318,"닞":1319,"닟":1320,"닠":1321,"닡":1322,"닢":1323,"닣":1324,"다":1325,"닥":1326,"닦":1327,"닧":1328,"단":1329,"닩":1330,"닪":1331,"닫":1332,"달":1333,"닭":1334,"닮":1335,"닯":1336,"닰":1337,"닱":1338,"닲":1339,"닳":1340,"담":1341,"답":1342,"닶":1343,"닷":1344,"닸":1345,"당":1346,"닺":1347,"닻":1348,"닼":1349,"닽":1350,"닾":1351,"닿":1352,"대":1353,"댁":1354,"댂":1355,"댄":1356,"댇":1357,"댈":1358,"댉":1359,"댏":1360,"댐":1361,"댑":1362,"댓":1363,"댔":1364,"댕":1365,"댖":1366,"댗":1367,"댘":1368,"댙":1369,"댚":1370,"댛":1371,"댜":1372,"댝":1373,"댠":1374,"댣":1375,"댤":1376,"댥":1377,"댦":1378,"댬":1379,"댭":1380,"댯":1381,"댰":1382,"댱":1383,"댲":1384,"댴":1385,"댷":1386,"댸":1387,"댼":1388,"덀":1389,"덈":1390,"덋":1391,"덌":1392,"덍":1393,"더":1394,"덕":1395,"덖":1396,"덗":1397,"던":1398,"덙":1399,"덛":1400,"덜":1401,"덝":1402,"덞":1403,"덟":1404,"덢":1405,"덣":1406,"덤":1407,"덥":1408,"덦":1409,"덧":1410,"덨":1411,"덩":1412,"덪":1413,"덫":1414,"덬":1415,"덭":1416,"덮":1417,"덯":1418,"데":1419,"덱":1420,"덲":1421,"덴":1422,"덷":1423,"델":1424,"덹":1425,"뎀":1426,"뎁":1427,"뎂":1428,"뎃":1429,"뎄":1430,"뎅":1431,"뎆":1432,"뎇":1433,"뎈":1434,"뎉":1435,"뎊":1436,"뎋":1437,"뎌":1438,"뎍":1439,"뎐":1440,"뎓":1441,"뎔":1442,"뎜":1443,"뎝":1444,"뎟":1445,"뎠":1446,"뎡":1447,"뎤":1448,"뎦":1449,"뎧":1450,"뎨":1451,"뎬":1452,"뎻":1453,"뎽":1454,"도":1455,"독":1456,"돆":1457,"돇":1458,"돈":1459,"돉":1460,"돋":1461,"돌":1462,"돍":1463,"돎":1464,"돏":1465,"돐":1466,"돒":1467,"돓":1468,"돔":1469,"돕":1470,"돖":1471,"돗":1472,"돘":1473,"동":1474,"돚":1475,"돛":1476,"돜":1477,"돝":1478,"돞":1479,"돟":1480,"돠":1481,"돡":1482,"돤":1483,"돨":1484,"돩":1485,"돰":1486,"돱":1487,"돳":1488,"돴":1489,"돵":1490,"돸":1491,"돻":1492,"돼":1493,"돽":1494,"돾":1495,"됀":1496,"됃":1497,"됄":1498,"됌":1499,"됍":1500,"됏":1501,"됐":1502,"됑":1503,"됒":1504,"됔":1505,"됗":1506,"되":1507,"됙":1508,"됚":1509,"된":1510,"됝":1511,"됟":1512,"될":1513,"됡":1514,"됢":1515,"됤":1516,"됥":1517,"됧":1518,"됨":1519,"됩":1520,"됫":1521,"됬":1522,"됭":1523,"됮":1524,"됰":1525,"됱":1526,"됳":1527,"됴":1528,"됵":1529,"됸":1530,"됻":1531,"됼":1532,"둄":1533,"둅":1534,"둇":1535,"둉":1536,"둊":1537,"둋":1538,"둌":1539,"둏":1540,"두":1541,"둑":1542,"둒":1543,"둔":1544,"둗":1545,"둘":1546,"둙":1547,"둚":1548,"둛":1549,"둞":1550,"둟":1551,"둠":1552,"둡":1553,"둣":1554,"둥":1555,"둦":1556,"둧":1557,"둨":1558,"둩":1559,"둪":1560,"둫":1561,"둬":1562,"둭":1563,"둰":1564,"둴":1565,"둼":1566,"둽":1567,"둿":1568,"뒀":1569,"뒁":1570,"뒄":1571,"뒇":1572,"뒈":1573,"뒌":1574,"뒐":1575,"뒑":1576,"뒓":1577,"뒘":1578,"뒙":1579,"뒛":1580,"뒜":1581,"뒝":1582,"뒞":1583,"뒠":1584,"뒤":1585,"뒥":1586,"뒨":1587,"뒫":1588,"뒬":1589,"뒴":1590,"뒵":1591,"뒷":1592,"뒸":1593,"뒹":1594,"뒺":1595,"뒼":1596,"듀":1597,"듁":1598,"듄":1599,"듇":1600,"듈":1601,"듐":1602,"듑":1603,"듓":1604,"듕":1605,"듘":1606,"드":1607,"득":1608,"듞":1609,"듟":1610,"든":1611,"듡":1612,"듢":1613,"듣":1614,"들":1615,"듥":1616,"듦":1617,"듧":1618,"듨":1619,"듩":1620,"듪":1621,"듫":1622,"듬":1623,"듭":1624,"듯":1625,"듰":1626,"등":1627,"듲":1628,"듳":1629,"듴":1630,"듵":1631,"듶":1632,"듷":1633,"듸":1634,"듹":1635,"듼":1636,"딀":1637,"딈":1638,"딉":1639,"딋":1640,"딍":1641,"디":1642,"딕":1643,"딖":1644,"딘":1645,"딛":1646,"딜":1647,"딝":1648,"딞":1649,"딣":1650,"딤":1651,"딥":1652,"딧":1653,"딨":1654,"딩":1655,"딪":1656,"딫":1657,"딬":1658,"딭":1659,"딮":1660,"딯":1661,"따":1662,"딱":1663,"딲":1664,"딳":1665,"딴":1666,"딷":1667,"딸":1668,"딹":1669,"딺":1670,"딻":1671,"딿":1672,"땀":1673,"땁":1674,"땃":1675,"땄":1676,"땅":1677,"땆":1678,"땈":1679,"땉":1680,"땋":1681,"때":1682,"땍":1683,"땎":1684,"땐":1685,"땓":1686,"땔":1687,"땜":1688,"땝":1689,"땟":1690,"땠":1691,"땡":1692,"땢":1693,"땣":1694,"땤":1695,"땦":1696,"땧":1697,"땨":1698,"땩":1699,"땬":1700,"땰":1701,"땸":1702,"땽":1703,"떃":1704,"떄":1705,"떅":1706,"떈":1707,"떌":1708,"떔":1709,"떗":1710,"떘":1711,"떙":1712,"떠":1713,"떡":1714,"떢":1715,"떣":1716,"떤":1717,"떥":1718,"떦":1719,"떧":1720,"떨":1721,"떩":1722,"떪":1723,"떫":1724,"떮":1725,"떯":1726,"떰":1727,"떱":1728,"떳":1729,"떴":1730,"떵":1731,"떶":1732,"떷":1733,"떸":1734,"떹":1735,"떺":1736,"떻":1737,"떼":1738,"떽":1739,"떾":1740,"뗀":1741,"뗄":1742,"뗌":1743,"뗍":1744,"뗏":1745,"뗐":1746,"뗑":1747,"뗔":1748,"뗗":1749,"뗘":1750,"뗙":1751,"뗜":1752,"뗠":1753,"뗨":1754,"뗫":1755,"뗬":1756,"뗭":1757,"뗳":1758,"뗴":1759,"뗵":1760,"뗸":1761,"뗼":1762,"똇":1763,"똈":1764,"또":1765,"똑":1766,"똒":1767,"똔":1768,"똗":1769,"똘":1770,"똙":1771,"똚":1772,"똝":1773,"똟":1774,"똠":1775,"똡":1776,"똣":1777,"똥":1778,"똦":1779,"똧":1780,"똨":1781,"똩":1782,"똫":1783,"똬":1784,"똭":1785,"똮":1786,"똰":1787,"똴":1788,"똵":1789,"똷":1790,"똻":1791,"똼":1792,"똽":1793,"똿":1794,"뙀":1795,"뙁":1796,"뙄":1797,"뙇":1798,"뙈":1799,"뙌":1800,"뙓":1801,"뙛":1802,"뙜":1803,"뙝":1804,"뙤":1805,"뙥":1806,"뙨":1807,"뙬":1808,"뙴":1809,"뙷":1810,"뙸":1811,"뙹":1812,"뙿":1813,"뚀":1814,"뚁":1815,"뚄":1816,"뚈":1817,"뚊":1818,"뚕":1819,"뚜":1820,"뚝":1821,"뚞":1822,"뚠":1823,"뚢":1824,"뚣":1825,"뚤":1826,"뚥":1827,"뚦":1828,"뚧":1829,"뚨":1830,"뚫":1831,"뚬":1832,"뚭":1833,"뚯":1834,"뚱":1835,"뚴":1836,"뚵":1837,"뚷":1838,"뚸":1839,"뚹":1840,"뚼":1841,"뛀":1842,"뛃":1843,"뛋":1844,"뛌":1845,"뛍":1846,"뛓":1847,"뛔":1848,"뛕":1849,"뛝":1850,"뛟":1851,"뛣":1852,"뛥":1853,"뛧":1854,"뛨":1855,"뛰":1856,"뛱":1857,"뛴":1858,"뛸":1859,"뜀":1860,"뜁":1861,"뜃":1862,"뜄":1863,"뜅":1864,"뜌":1865,"뜍":1866,"뜐":1867,"뜔":1868,"뜛":1869,"뜜":1870,"뜝":1871,"뜡":1872,"뜨":1873,"뜩":1874,"뜪":1875,"뜬":1876,"뜮":1877,"뜯":1878,"뜰":1879,"뜱":1880,"뜳":1881,"뜷":1882,"뜸":1883,"뜹":1884,"뜻":1885,"뜼":1886,"뜽":1887,"뜾":1888,"뜿":1889,"띀":1890,"띁":1891,"띃":1892,"띄":1893,"띅":1894,"띈":1895,"띌":1896,"띔":1897,"띕":1898,"띙":1899,"띟":1900,"띠":1901,"띡":1902,"띤":1903,"띧":1904,"띨":1905,"띰":1906,"띱":1907,"띳":1908,"띴":1909,"띵":1910,"띶":1911,"띸":1912,"띻":1913,"라":1914,"락":1915,"띾":1916,"띿":1917,"란":1918,"랁":1919,"랂":1920,"랃":1921,"랄":1922,"랅":1923,"랆":1924,"랇":1925,"랈":1926,"랉":1927,"랊":1928,"랋":1929,"람":1930,"랍":1931,"랎":1932,"랏":1933,"랐":1934,"랑":1935,"랒":1936,"랓":1937,"랔":1938,"랕":1939,"랖":1940,"랗":1941,"래":1942,"랙":1943,"랚":1944,"랜":1945,"랟":1946,"랠":1947,"랡":1948,"램":1949,"랩":1950,"랫":1951,"랬":1952,"랭":1953,"랮":1954,"랯":1955,"랰":1956,"랱":1957,"랲":1958,"랳":1959,"랴":1960,"략":1961,"랸":1962,"랺":1963,"랻":1964,"랼":1965,"럄":1966,"럅":1967,"럇":1968,"럈":1969,"량":1970,"럊":1971,"럌":1972,"럎":1973,"럏":1974,"럐":1975,"럑":1976,"럔":1977,"럗":1978,"럘":1979,"럠":1980,"럣":1981,"럤":1982,"럥":1983,"러":1984,"럭":1985,"럮":1986,"럯":1987,"런":1988,"럱":1989,"럲":1990,"럳":1991,"럴":1992,"럵":1993,"럶":1994,"럷":1995,"럸":1996,"럻":1997,"럼":1998,"럽":1999,"럾":2000,"럿":2001,"렀":2002,"렁":2003,"렂":2004,"렃":2005,"렄":2006,"렅":2007,"렆":2008,"렇":2009,"레":2010,"렉":2011,"렊":2012,"렋":2013,"렌":2014,"렏":2015,"렐":2016,"렑":2017,"렓":2018,"렗":2019,"렘":2020,"렙":2021,"렚":2022,"렛":2023,"렜":2024,"렝":2025,"렞":2026,"렠":2027,"렡":2028,"렢":2029,"렣":2030,"려":2031,"력":2032,"렦":2033,"렧":2034,"련":2035,"렩":2036,"렪":2037,"렫":2038,"렬":2039,"렭":2040,"렴":2041,"렵":2042,"렷":2043,"렸":2044,"령":2045,"렺":2046,"렻":2047,"렼":2048,"렽":2049,"렾":2050,"렿":2051,"례":2052,"롁":2053,"롄":2054,"롈":2055,"롐":2056,"롑":2057,"롓":2058,"롔":2059,"롕":2060,"롘":2061,"로":2062,"록":2063,"롞":2064,"론":2065,"롡":2066,"롣":2067,"롤":2068,"롥":2069,"롫":2070,"롬":2071,"롭":2072,"롮":2073,"롯":2074,"롰":2075,"롱":2076,"롲":2077,"롳":2078,"롴":2079,"롵":2080,"롶":2081,"롷":2082,"롸":2083,"롹":2084,"롻":2085,"롼":2086,"뢀":2087,"뢁":2088,"뢈":2089,"뢉":2090,"뢋":2091,"뢌":2092,"뢍":2093,"뢐":2094,"뢓":2095,"뢔":2096,"뢕":2097,"뢘":2098,"뢜":2099,"뢥":2100,"뢨":2101,"뢩":2102,"뢰":2103,"뢱":2104,"뢴":2105,"뢸":2106,"룀":2107,"룁":2108,"룃":2109,"룄":2110,"룅":2111,"룈":2112,"료":2113,"룍":2114,"룐":2115,"룔":2116,"룜":2117,"룝":2118,"룟":2119,"룠":2120,"룡":2121,"룢":2122,"룤":2123,"룧":2124,"루":2125,"룩":2126,"룪":2127,"룬":2128,"룯":2129,"룰":2130,"룱":2131,"룷":2132,"룸":2133,"룹":2134,"룻":2135,"룽":2136,"룾":2137,"룿":2138,"뤀":2139,"뤁":2140,"뤂":2141,"뤃":2142,"뤄":2143,"뤅":2144,"뤈":2145,"뤌":2146,"뤔":2147,"뤕":2148,"뤗":2149,"뤘":2150,"뤙":2151,"뤜":2152,"뤟":2153,"뤠":2154,"뤡":2155,"뤤":2156,"뤨":2157,"뤩":2158,"뤫":2159,"뤰":2160,"뤱":2161,"뤳":2162,"뤵":2163,"뤸":2164,"뤼":2165,"뤽":2166,"륀":2167,"륄":2168,"륌":2169,"륍":2170,"륏":2171,"륐":2172,"륑":2173,"륔":2174,"류":2175,"륙":2176,"륜":2177,"륟":2178,"률":2179,"륨":2180,"륩":2181,"륫":2182,"륭":2183,"륮":2184,"륰":2185,"륲":2186,"륳":2187,"르":2188,"륵":2189,"륶":2190,"른":2191,"륹":2192,"륻":2193,"를":2194,"륽":2195,"륾":2196,"륿":2197,"릀":2198,"릁":2199,"릂":2200,"릃":2201,"름":2202,"릅":2203,"릆":2204,"릇":2205,"릈":2206,"릉":2207,"릊":2208,"릋":2209,"릌":2210,"릍":2211,"릎":2212,"릏":2213,"릐":2214,"릑":2215,"릔":2216,"릘":2217,"릠":2218,"릡":2219,"릣":2220,"릥":2221,"릫":2222,"리":2223,"릭":2224,"릮":2225,"린":2226,"릱":2227,"릲":2228,"릳":2229,"릴":2230,"릵":2231,"릶":2232,"릷":2233,"릸":2234,"릹":2235,"릻":2236,"림":2237,"립":2238,"릾":2239,"릿":2240,"맀":2241,"링":2242,"맂":2243,"맃":2244,"맄":2245,"맅":2246,"맆":2247,"맇":2248,"마":2249,"막":2250,"맊":2251,"맋":2252,"만":2253,"맍":2254,"많":2255,"맏":2256,"말":2257,"맑":2258,"맒":2259,"맓":2260,"맔":2261,"맕":2262,"맖":2263,"맗":2264,"맘":2265,"맙":2266,"맚":2267,"맛":2268,"맜":2269,"망":2270,"맞":2271,"맟":2272,"맠":2273,"맡":2274,"맢":2275,"맣":2276,"매":2277,"맥":2278,"맨":2279,"맩":2280,"맪":2281,"맫":2282,"맬":2283,"맴":2284,"맵":2285,"맷":2286,"맸":2287,"맹":2288,"맺":2289,"맻":2290,"맼":2291,"맽":2292,"맿":2293,"먀":2294,"먁":2295,"먄":2296,"먆":2297,"먇":2298,"먈":2299,"먐":2300,"먑":2301,"먓":2302,"먕":2303,"먖":2304,"먗":2305,"먘":2306,"먛":2307,"먜":2308,"먠":2309,"먤":2310,"먱":2311,"머":2312,"먹":2313,"먺":2314,"먻":2315,"먼":2316,"먽":2317,"먾":2318,"먿":2319,"멀":2320,"멁":2321,"멂":2322,"멈":2323,"멉":2324,"멊":2325,"멋":2326,"멌":2327,"멍":2328,"멎":2329,"멏":2330,"멐":2331,"멑":2332,"멒":2333,"멓":2334,"메":2335,"멕":2336,"멘":2337,"멛":2338,"멜":2339,"멤":2340,"멥":2341,"멧":2342,"멨":2343,"멩":2344,"멪":2345,"멫":2346,"멬":2347,"멭":2348,"멮":2349,"멯":2350,"며":2351,"멱":2352,"멲":2353,"면":2354,"멵":2355,"멶":2356,"멷":2357,"멸":2358,"멿":2359,"몀":2360,"몁":2361,"몃":2362,"몄":2363,"명":2364,"몆":2365,"몇":2366,"몈":2367,"몉":2368,"몊":2369,"몋":2370,"몌":2371,"몐":2372,"몔":2373,"몟":2374,"몡":2375,"몢":2376,"몣":2377,"모":2378,"목":2379,"몪":2380,"몫":2381,"몬":2382,"몮":2383,"몯":2384,"몰":2385,"몱":2386,"몲":2387,"몴":2388,"몷":2389,"몸":2390,"몹":2391,"몺":2392,"못":2393,"몼":2394,"몽":2395,"몾":2396,"몿":2397,"뫀":2398,"뫁":2399,"뫂":2400,"뫃":2401,"뫄":2402,"뫅":2403,"뫈":2404,"뫌":2405,"뫔":2406,"뫕":2407,"뫗":2408,"뫘":2409,"뫙":2410,"뫚":2411,"뫜":2412,"뫠":2413,"뫤":2414,"뫼":2415,"뫽":2416,"묀":2417,"묄":2418,"묏":2419,"묑":2420,"묘":2421,"묙":2422,"묜":2423,"묠":2424,"묨":2425,"묫":2426,"묭":2427,"묯":2428,"무":2429,"묵":2430,"묶":2431,"묷":2432,"문":2433,"묹":2434,"묺":2435,"묻":2436,"물":2437,"묽":2438,"묾":2439,"묿":2440,"뭀":2441,"뭁":2442,"뭃":2443,"뭄":2444,"뭅":2445,"뭇":2446,"뭈":2447,"뭉":2448,"뭊":2449,"뭋":2450,"뭌":2451,"뭍":2452,"뭎":2453,"뭏":2454,"뭐":2455,"뭑":2456,"뭔":2457,"뭕":2458,"뭗":2459,"뭘":2460,"뭙":2461,"뭚":2462,"뭟":2463,"뭠":2464,"뭡":2465,"뭣":2466,"뭤":2467,"뭥":2468,"뭦":2469,"뭧":2470,"뭨":2471,"뭩":2472,"뭫":2473,"뭬":2474,"뭭":2475,"뭰":2476,"뭴":2477,"뭵":2478,"뭷":2479,"뭽":2480,"뭿":2481,"뮁":2482,"뮈":2483,"뮉":2484,"뮌":2485,"뮏":2486,"뮐":2487,"뮘":2488,"뮙":2489,"뮛":2490,"뮜":2491,"뮝":2492,"뮤":2493,"뮥":2494,"뮦":2495,"뮨":2496,"뮫":2497,"뮬":2498,"뮴":2499,"뮷":2500,"뮹":2501,"뮻":2502,"뮼":2503,"므":2504,"믁":2505,"믂":2506,"믄":2507,"믆":2508,"믇":2509,"믈":2510,"믉":2511,"믌":2512,"믏":2513,"믐":2514,"믑":2515,"믓":2516,"믕":2517,"믖":2518,"믘":2519,"믙":2520,"믛":2521,"믜":2522,"믝":2523,"믠":2524,"믣":2525,"믤":2526,"믬":2527,"믯":2528,"믰":2529,"믱":2530,"미":2531,"믹":2532,"믺":2533,"믻":2534,"민":2535,"믽":2536,"믾":2537,"믿":2538,"밀":2539,"밁":2540,"밂":2541,"밇":2542,"밈":2543,"밉":2544,"밊":2545,"밋":2546,"밌":2547,"밍":2548,"밎":2549,"및":2550,"밐":2551,"밑":2552,"밒":2553,"밓":2554,"바":2555,"박":2556,"밖":2557,"밗":2558,"반":2559,"밙":2560,"밚":2561,"받":2562,"발":2563,"밝":2564,"밞":2565,"밟":2566,"밠":2567,"밡":2568,"밢":2569,"밣":2570,"밤":2571,"밥":2572,"밦":2573,"밧":2574,"밨":2575,"방":2576,"밪":2577,"밫":2578,"밬":2579,"밭":2580,"밮":2581,"밯":2582,"배":2583,"백":2584,"밲":2585,"밳":2586,"밴":2587,"밷":2588,"밸":2589,"밹":2590,"밿":2591,"뱀":2592,"뱁":2593,"뱃":2594,"뱄":2595,"뱅":2596,"뱆":2597,"뱇":2598,"뱈":2599,"뱉":2600,"뱊":2601,"뱋":2602,"뱌":2603,"뱍":2604,"뱎":2605,"뱐":2606,"뱓":2607,"뱔":2608,"뱕":2609,"뱗":2610,"뱛":2611,"뱜":2612,"뱝":2613,"뱟":2614,"뱡":2615,"뱤":2616,"뱥":2617,"뱨":2618,"뱩":2619,"뱬":2620,"뱰":2621,"뱸":2622,"뱽":2623,"벁":2624,"버":2625,"벅":2626,"벆":2627,"번":2628,"벉":2629,"벊":2630,"벋":2631,"벌":2632,"벍":2633,"벎":2634,"벏":2635,"벐":2636,"벑":2637,"벓":2638,"범":2639,"법":2640,"벖":2641,"벗":2642,"벘":2643,"벙":2644,"벚":2645,"벛":2646,"벜":2647,"벝":2648,"벞":2649,"벟":2650,"베":2651,"벡":2652,"벤":2653,"벧":2654,"벨":2655,"벩":2656,"벫":2657,"벯":2658,"벰":2659,"벱":2660,"벲":2661,"벳":2662,"벴":2663,"벵":2664,"벶":2665,"벷":2666,"벸":2667,"벹":2668,"벺":2669,"벻":2670,"벼":2671,"벽":2672,"벾":2673,"변":2674,"볁":2675,"볂":2676,"볃":2677,"별":2678,"볅":2679,"볆":2680,"볇":2681,"볈":2682,"볋":2683,"볌":2684,"볍":2685,"볎":2686,"볏":2687,"볐":2688,"병":2689,"볒":2690,"볓":2691,"볔":2692,"볕":2693,"볖":2694,"볗":2695,"볘":2696,"볙":2697,"볜":2698,"볠":2699,"볫":2700,"볭":2701,"보":2702,"복":2703,"볶":2704,"볷":2705,"본":2706,"볹":2707,"볻":2708,"볼":2709,"볽":2710,"볾":2711,"봀":2712,"봁":2713,"봃":2714,"봄":2715,"봅":2716,"봆":2717,"봇":2718,"봈":2719,"봉":2720,"봊":2721,"봋":2722,"봌":2723,"봍":2724,"봎":2725,"봏":2726,"봐":2727,"봑":2728,"봒":2729,"봔":2730,"봗":2731,"봘":2732,"봙":2733,"봟":2734,"봠":2735,"봡":2736,"봣":2737,"봤":2738,"봥":2739,"봦":2740,"봨":2741,"봩":2742,"봫":2743,"봬":2744,"봭":2745,"봰":2746,"봴":2747,"봵":2748,"봽":2749,"봿":2750,"뵀":2751,"뵁":2752,"뵈":2753,"뵉":2754,"뵌":2755,"뵏":2756,"뵐":2757,"뵑":2758,"뵘":2759,"뵙":2760,"뵛":2761,"뵜":2762,"뵝":2763,"뵞":2764,"뵠":2765,"뵤":2766,"뵥":2767,"뵨":2768,"뵬":2769,"뵴":2770,"뵵":2771,"뵷":2772,"뵹":2773,"뵺":2774,"부":2775,"북":2776,"붂":2777,"붃":2778,"분":2779,"붅":2780,"붆":2781,"붇":2782,"불":2783,"붉":2784,"붊":2785,"붋":2786,"붌":2787,"붍":2788,"붎":2789,"붏":2790,"붐":2791,"붑":2792,"붓":2793,"붔":2794,"붕":2795,"붖":2796,"붗":2797,"붘":2798,"붙":2799,"붚":2800,"붛":2801,"붜":2802,"붝":2803,"붠":2804,"붤":2805,"붥":2806,"붬":2807,"붭":2808,"붯":2809,"붰":2810,"붱":2811,"붴":2812,"붸":2813,"붹":2814,"붼":2815,"뷀":2816,"뷁":2817,"뷃":2818,"뷇":2819,"뷉":2820,"뷋":2821,"뷍":2822,"뷐":2823,"뷔":2824,"뷕":2825,"뷘":2826,"뷜":2827,"뷤":2828,"뷥":2829,"뷧":2830,"뷩":2831,"뷮":2832,"뷰":2833,"뷱":2834,"뷴":2835,"뷷":2836,"뷸":2837,"뷹":2838,"븀":2839,"븁":2840,"븂":2841,"븃":2842,"븅":2843,"븈":2844,"븉":2845,"븋":2846,"브":2847,"븍":2848,"븎":2849,"븏":2850,"븐":2851,"븓":2852,"블":2853,"븕":2854,"븛":2855,"븜":2856,"븝":2857,"븞":2858,"븟":2859,"븡":2860,"븢":2861,"븤":2862,"븥":2863,"븦":2864,"븧":2865,"븨":2866,"븩":2867,"븬":2868,"븰":2869,"븸":2870,"븹":2871,"븻":2872,"븽":2873,"빂":2874,"비":2875,"빅":2876,"빆":2877,"빇":2878,"빈":2879,"빋":2880,"빌":2881,"빍":2882,"빎":2883,"빏":2884,"빓":2885,"빔":2886,"빕":2887,"빖":2888,"빗":2889,"빘":2890,"빙":2891,"빚":2892,"빛":2893,"빜":2894,"빝":2895,"빞":2896,"빟":2897,"빠":2898,"빡":2899,"빢":2900,"빣":2901,"빤":2902,"빧":2903,"빨":2904,"빩":2905,"빪":2906,"빫":2907,"빬":2908,"빭":2909,"빯":2910,"빰":2911,"빱":2912,"빳":2913,"빴":2914,"빵":2915,"빶":2916,"빷":2917,"빸":2918,"빹":2919,"빺":2920,"빻":2921,"빼":2922,"빽":2923,"빾":2924,"뺀":2925,"뺃":2926,"뺄":2927,"뺅":2928,"뺌":2929,"뺍":2930,"뺏":2931,"뺐":2932,"뺑":2933,"뺒":2934,"뺓":2935,"뺔":2936,"뺕":2937,"뺗":2938,"뺘":2939,"뺙":2940,"뺚":2941,"뺜":2942,"뺠":2943,"뺡":2944,"뺨":2945,"뺩":2946,"뺫":2947,"뺭":2948,"뺴":2949,"뺵":2950,"뺶":2951,"뺸":2952,"뺼":2953,"뻁":2954,"뻄":2955,"뻇":2956,"뻈":2957,"뻉":2958,"뻐":2959,"뻑":2960,"뻒":2961,"뻔":2962,"뻕":2963,"뻖":2964,"뻗":2965,"뻘":2966,"뻙":2967,"뻠":2968,"뻡":2969,"뻣":2970,"뻤":2971,"뻥":2972,"뻦":2973,"뻨":2974,"뻩":2975,"뻪":2976,"뻫":2977,"뻬":2978,"뻭":2979,"뻰":2980,"뻴":2981,"뻼":2982,"뻿":2983,"뼀":2984,"뼁":2985,"뼈":2986,"뼉":2987,"뼊":2988,"뼌":2989,"뼏":2990,"뼐":2991,"뼑":2992,"뼘":2993,"뼙":2994,"뼛":2995,"뼜":2996,"뼝":2997,"뼠":2998,"뼡":2999,"뼤":3000,"뼬":3001,"뽀":3002,"뽁":3003,"뽂":3004,"뽄":3005,"뽇":3006,"뽈":3007,"뽐":3008,"뽑":3009,"뽓":3010,"뽕":3011,"뽖":3012,"뽘":3013,"뽚":3014,"뽛":3015,"뽜":3016,"뽝":3017,"뽞":3018,"뽠":3019,"뽤":3020,"뽥":3021,"뽫":3022,"뽬":3023,"뽭":3024,"뽯":3025,"뽰":3026,"뽱":3027,"뽴":3028,"뽷":3029,"뽸":3030,"뽹":3031,"뾀":3032,"뾃":3033,"뾔":3034,"뾥":3035,"뾰":3036,"뾱":3037,"뾲":3038,"뾴":3039,"뾸":3040,"뿁":3041,"뿃":3042,"뿅":3043,"뿌":3044,"뿍":3045,"뿎":3046,"뿐":3047,"뿑":3048,"뿓":3049,"뿔":3050,"뿕":3051,"뿛":3052,"뿜":3053,"뿝":3054,"뿟":3055,"뿠":3056,"뿡":3057,"뿤":3058,"뿥":3059,"뿧":3060,"뿨":3061,"뿩":3062,"뿬":3063,"뿰":3064,"뿱":3065,"뿳":3066,"뿹":3067,"뿽":3068,"쀀":3069,"쀄":3070,"쀅":3071,"쀈":3072,"쀌":3073,"쀍":3074,"쀏":3075,"쀒":3076,"쀓":3077,"쀠":3078,"쀡":3079,"쀨":3080,"쀳":3081,"쀵":3082,"쀼":3083,"쀽":3084,"쀾":3085,"쁀":3086,"쁄":3087,"쁌":3088,"쁍":3089,"쁏":3090,"쁐":3091,"쁑":3092,"쁘":3093,"쁙":3094,"쁜":3095,"쁝":3096,"쁟":3097,"쁠":3098,"쁨":3099,"쁩":3100,"쁫":3101,"쁭":3102,"쁮":3103,"쁰":3104,"쁴":3105,"쁸":3106,"쁼":3107,"삉":3108,"삐":3109,"삑":3110,"삒":3111,"삔":3112,"삗":3113,"삘":3114,"삠":3115,"삡":3116,"삣":3117,"삤":3118,"삥":3119,"삦":3120,"삧":3121,"삨":3122,"삫":3123,"사":3124,"삭":3125,"삮":3126,"삯":3127,"산":3128,"삱":3129,"삲":3130,"삳":3131,"살":3132,"삵":3133,"삶":3134,"삷":3135,"삸":3136,"삹":3137,"삺":3138,"삻":3139,"삼":3140,"삽":3141,"삾":3142,"삿":3143,"샀":3144,"상":3145,"샂":3146,"샃":3147,"샄":3148,"샅":3149,"샆":3150,"샇":3151,"새":3152,"색":3153,"샊":3154,"샋":3155,"샌":3156,"샎":3157,"샏":3158,"샐":3159,"샑":3160,"샒":3161,"샓":3162,"샔":3163,"샕":3164,"샗":3165,"샘":3166,"샙":3167,"샚":3168,"샛":3169,"샜":3170,"생":3171,"샞":3172,"샟":3173,"샠":3174,"샡":3175,"샢":3176,"샣":3177,"샤":3178,"샥":3179,"샦":3180,"샨":3181,"샫":3182,"샬":3183,"샮":3184,"샴":3185,"샵":3186,"샷":3187,"샸":3188,"샹":3189,"샼":3190,"샽":3191,"샾":3192,"샿":3193,"섀":3194,"섁":3195,"섂":3196,"섄":3197,"섈":3198,"섉":3199,"섊":3200,"섐":3201,"섑":3202,"섓":3203,"섔":3204,"섕":3205,"섘":3206,"서":3207,"석":3208,"섞":3209,"섟":3210,"선":3211,"섡":3212,"섢":3213,"섣":3214,"설":3215,"섥":3216,"섦":3217,"섧":3218,"섨":3219,"섩":3220,"섪":3221,"섫":3222,"섬":3223,"섭":3224,"섮":3225,"섯":3226,"섰":3227,"성":3228,"섲":3229,"섳":3230,"섴":3231,"섵":3232,"섶":3233,"섷":3234,"세":3235,"섹":3236,"섺":3237,"섻":3238,"센":3239,"섽":3240,"섿":3241,"셀":3242,"셁":3243,"셂":3244,"셃":3245,"셆":3246,"셇":3247,"셈":3248,"셉":3249,"셋":3250,"셌":3251,"셍":3252,"셎":3253,"셏":3254,"셐":3255,"셑":3256,"셒":3257,"셓":3258,"셔":3259,"셕":3260,"셖":3261,"션":3262,"셛":3263,"셜":3264,"셟":3265,"셤":3266,"셥":3267,"셧":3268,"셨":3269,"셩":3270,"셪":3271,"셫":3272,"셬":3273,"셭":3274,"셮":3275,"셯":3276,"셰":3277,"셱":3278,"셲":3279,"셴":3280,"셸":3281,"솀":3282,"솁":3283,"솃":3284,"솄":3285,"솅":3286,"솈":3287,"솉":3288,"솊":3289,"소":3290,"속":3291,"솎":3292,"솏":3293,"손":3294,"솑":3295,"솒":3296,"솓":3297,"솔":3298,"솕":3299,"솖":3300,"솛":3301,"솜":3302,"솝":3303,"솟":3304,"솠":3305,"송":3306,"솢":3307,"솣":3308,"솤":3309,"솥":3310,"솦":3311,"솧":3312,"솨":3313,"솩":3314,"솬":3315,"솰":3316,"솸":3317,"솹":3318,"솻":3319,"솼":3320,"솽":3321,"쇀":3322,"쇄":3323,"쇅":3324,"쇆":3325,"쇈":3326,"쇌":3327,"쇔":3328,"쇗":3329,"쇘":3330,"쇙":3331,"쇜":3332,"쇟":3333,"쇠":3334,"쇡":3335,"쇣":3336,"쇤":3337,"쇨":3338,"쇱":3339,"쇳":3340,"쇵":3341,"쇸":3342,"쇼":3343,"쇽":3344,"숀":3345,"숄":3346,"숌":3347,"숍":3348,"숏":3349,"숐":3350,"숑":3351,"숔":3352,"숖":3353,"숗":3354,"수":3355,"숙":3356,"숚":3357,"순":3358,"숝":3359,"숟":3360,"술":3361,"숡":3362,"숢":3363,"숤":3364,"숧":3365,"숨":3366,"숩":3367,"숪":3368,"숫":3369,"숬":3370,"숭":3371,"숮":3372,"숯":3373,"숰":3374,"숱":3375,"숲":3376,"숳":3377,"숴":3378,"숵":3379,"숶":3380,"숸":3381,"숼":3382,"쉄":3383,"쉅":3384,"쉇":3385,"쉈":3386,"쉉":3387,"쉌":3388,"쉐":3389,"쉑":3390,"쉒":3391,"쉓":3392,"쉔":3393,"쉗":3394,"쉘":3395,"쉙":3396,"쉚":3397,"쉛":3398,"쉜":3399,"쉞":3400,"쉟":3401,"쉠":3402,"쉡":3403,"쉣":3404,"쉤":3405,"쉥":3406,"쉧":3407,"쉨":3408,"쉩":3409,"쉪":3410,"쉫":3411,"쉬":3412,"쉭":3413,"쉮":3414,"쉰":3415,"쉲":3416,"쉳":3417,"쉴":3418,"쉻":3419,"쉼":3420,"쉽":3421,"쉾":3422,"쉿":3423,"슀":3424,"슁":3425,"슂":3426,"슄":3427,"슅":3428,"슆":3429,"슇":3430,"슈":3431,"슉":3432,"슌":3433,"슏":3434,"슐":3435,"슘":3436,"슙":3437,"슛":3438,"슝":3439,"슞":3440,"슟":3441,"슠":3442,"슢":3443,"스":3444,"슥":3445,"슦":3446,"슧":3447,"슨":3448,"슩":3449,"슫":3450,"슬":3451,"슭":3452,"슮":3453,"슯":3454,"슰":3455,"슲":3456,"슳":3457,"슴":3458,"습":3459,"슶":3460,"슷":3461,"슸":3462,"승":3463,"슺":3464,"슻":3465,"슼":3466,"슽":3467,"슾":3468,"슿":3469,"싀":3470,"싁":3471,"싄":3472,"싅":3473,"싆":3474,"싇":3475,"싈":3476,"싐":3477,"싑":3478,"싓":3479,"싕":3480,"싖":3481,"싘":3482,"싙":3483,"싚":3484,"시":3485,"식":3486,"싞":3487,"싟":3488,"신":3489,"싡":3490,"싢":3491,"싣":3492,"실":3493,"싥":3494,"싦":3495,"싧":3496,"싨":3497,"싩":3498,"싪":3499,"싫":3500,"심":3501,"십":3502,"싮":3503,"싯":3504,"싰":3505,"싱":3506,"싲":3507,"싳":3508,"싴":3509,"싵":3510,"싶":3511,"싷":3512,"싸":3513,"싹":3514,"싺":3515,"싻":3516,"싼":3517,"싾":3518,"싿":3519,"쌀":3520,"쌂":3521,"쌇":3522,"쌈":3523,"쌉":3524,"쌋":3525,"쌌":3526,"쌍":3527,"쌎":3528,"쌐":3529,"쌑":3530,"쌒":3531,"쌓":3532,"쌔":3533,"쌕":3534,"쌖":3535,"쌗":3536,"쌘":3537,"쌛":3538,"쌜":3539,"쌞":3540,"쌟":3541,"쌤":3542,"쌥":3543,"쌧":3544,"쌨":3545,"쌩":3546,"쌬":3547,"쌯":3548,"쌰":3549,"쌱":3550,"쌴":3551,"쌸":3552,"쌻":3553,"썀":3554,"썁":3555,"썃":3556,"썄":3557,"썅":3558,"썋":3559,"썌":3560,"썍":3561,"썎":3562,"썐":3563,"썔":3564,"썖":3565,"썜":3566,"썝":3567,"썟":3568,"썠":3569,"썡":3570,"써":3571,"썩":3572,"썪":3573,"썫":3574,"썬":3575,"썯":3576,"썰":3577,"썱":3578,"썳":3579,"썸":3580,"썹":3581,"썻":3582,"썼":3583,"썽":3584,"썾":3585,"쎀":3586,"쎁":3587,"쎂":3588,"쎃":3589,"쎄":3590,"쎅":3591,"쎆":3592,"쎇":3593,"쎈":3594,"쎌":3595,"쎍":3596,"쎓":3597,"쎔":3598,"쎕":3599,"쎗":3600,"쎘":3601,"쎙":3602,"쎜":3603,"쎝":3604,"쎟":3605,"쎠":3606,"쎡":3607,"쎤":3608,"쎨":3609,"쎰":3610,"쎱":3611,"쎳":3612,"쎴":3613,"쎵":3614,"쎼":3615,"쎽":3616,"쎾":3617,"쏀":3618,"쏃":3619,"쏄":3620,"쏌":3621,"쏏":3622,"쏐":3623,"쏔":3624,"쏖":3625,"쏘":3626,"쏙":3627,"쏚":3628,"쏜":3629,"쏟":3630,"쏠":3631,"쏨":3632,"쏩":3633,"쏫":3634,"쏬":3635,"쏭":3636,"쏮":3637,"쏰":3638,"쏱":3639,"쏳":3640,"쏴":3641,"쏵":3642,"쏸":3643,"쏼":3644,"쐄":3645,"쐅":3646,"쐇":3647,"쐈":3648,"쐉":3649,"쐌":3650,"쐏":3651,"쐐":3652,"쐑":3653,"쐒":3654,"쐣":3655,"쐤":3656,"쐥":3657,"쐨":3658,"쐬":3659,"쐭":3660,"쐰":3661,"쐴":3662,"쐼":3663,"쐽":3664,"쐿":3665,"쑀":3666,"쑈":3667,"쑉":3668,"쑌":3669,"쑐":3670,"쑙":3671,"쑛":3672,"쑝":3673,"쑤":3674,"쑥":3675,"쑦":3676,"쑨":3677,"쑫":3678,"쑬":3679,"쑴":3680,"쑵":3681,"쑷":3682,"쑹":3683,"쑻":3684,"쑼":3685,"쒀":3686,"쒁":3687,"쒂":3688,"쒄":3689,"쒈":3690,"쒐":3691,"쒑":3692,"쒓":3693,"쒔":3694,"쒕":3695,"쒘":3696,"쒜":3697,"쒝":3698,"쒞":3699,"쒠":3700,"쒤":3701,"쒥":3702,"쒧":3703,"쒫":3704,"쒭":3705,"쒯":3706,"쒰":3707,"쒱":3708,"쒴":3709,"쒵":3710,"쒸":3711,"쒹":3712,"쒼":3713,"쓀":3714,"쓃":3715,"쓈":3716,"쓉":3717,"쓊":3718,"쓋":3719,"쓌":3720,"쓍":3721,"쓐":3722,"쓑":3723,"쓒":3724,"쓔":3725,"쓕":3726,"쓘":3727,"쓜":3728,"쓤":3729,"쓥":3730,"쓩":3731,"쓰":3732,"쓱":3733,"쓲":3734,"쓴":3735,"쓷":3736,"쓸":3737,"쓹":3738,"쓺":3739,"쓿":3740,"씀":3741,"씁":3742,"씂":3743,"씃":3744,"씄":3745,"씅":3746,"씆":3747,"씇":3748,"씈":3749,"씉":3750,"씊":3751,"씋":3752,"씌":3753,"씍":3754,"씐":3755,"씔":3756,"씗":3757,"씜":3758,"씝":3759,"씞":3760,"씟":3761,"씡":3762,"씢":3763,"씤":3764,"씥":3765,"씦":3766,"씧":3767,"씨":3768,"씩":3769,"씪":3770,"씬":3771,"씮":3772,"씯":3773,"씰":3774,"씱":3775,"씳":3776,"씶":3777,"씷":3778,"씸":3779,"씹":3780,"씺":3781,"씻":3782,"씼":3783,"씽":3784,"씾":3785,"씿":3786,"앀":3787,"앁":3788,"앂":3789,"앃":3790,"아":3791,"악":3792,"앆":3793,"앇":3794,"안":3795,"앉":3796,"않":3797,"앋":3798,"알":3799,"앍":3800,"앎":3801,"앏":3802,"앐":3803,"앑":3804,"앒":3805,"앓":3806,"암":3807,"압":3808,"앖":3809,"앗":3810,"았":3811,"앙":3812,"앚":3813,"앛":3814,"앜":3815,"앝":3816,"앞":3817,"앟":3818,"애":3819,"액":3820,"앢":3821,"앣":3822,"앤":3823,"앦":3824,"앧":3825,"앨":3826,"앩":3827,"앰":3828,"앱":3829,"앲":3830,"앳":3831,"앴":3832,"앵":3833,"앶":3834,"앷":3835,"앸":3836,"앹":3837,"앺":3838,"앻":3839,"야":3840,"약":3841,"앾":3842,"앿":3843,"얀":3844,"얁":3845,"얂":3846,"얃":3847,"얄":3848,"얅":3849,"얆":3850,"얇":3851,"얉":3852,"얊":3853,"얋":3854,"얌":3855,"얍":3856,"얎":3857,"얏":3858,"얐":3859,"양":3860,"얒":3861,"얓":3862,"얔":3863,"얕":3864,"얖":3865,"얗":3866,"얘":3867,"얙":3868,"얜":3869,"얠":3870,"얨":3871,"얩":3872,"얪":3873,"얫":3874,"얬":3875,"얭":3876,"얮":3877,"얰":3878,"얳":3879,"어":3880,"억":3881,"얶":3882,"얷":3883,"언":3884,"얹":3885,"얺":3886,"얻":3887,"얼":3888,"얽":3889,"얾":3890,"얿":3891,"엀":3892,"엁":3893,"엂":3894,"엃":3895,"엄":3896,"업":3897,"없":3898,"엇":3899,"었":3900,"엉":3901,"엊":3902,"엋":3903,"엌":3904,"엍":3905,"엎":3906,"엏":3907,"에":3908,"엑":3909,"엒":3910,"엓":3911,"엔":3912,"엕":3913,"엗":3914,"엘":3915,"엙":3916,"엜":3917,"엞":3918,"엠":3919,"엡":3920,"엢":3921,"엣":3922,"엤":3923,"엥":3924,"엦":3925,"엧":3926,"엨":3927,"엩":3928,"엪":3929,"엫":3930,"여":3931,"역":3932,"엮":3933,"엯":3934,"연":3935,"엱":3936,"엲":3937,"엳":3938,"열":3939,"엵":3940,"엶":3941,"엷":3942,"엸":3943,"엹":3944,"엻":3945,"염":3946,"엽":3947,"엾":3948,"엿":3949,"였":3950,"영":3951,"옂":3952,"옃":3953,"옄":3954,"옅":3955,"옆":3956,"옇":3957,"예":3958,"옉":3959,"옌":3960,"옐":3961,"옘":3962,"옙":3963,"옛":3964,"옜":3965,"옝":3966,"옞":3967,"옟":3968,"옠":3969,"옢":3970,"옣":3971,"오":3972,"옥":3973,"옦":3974,"옧":3975,"온":3976,"옩":3977,"옪":3978,"옫":3979,"올":3980,"옭":3981,"옮":3982,"옯":3983,"옰":3984,"옱":3985,"옲":3986,"옳":3987,"옴":3988,"옵":3989,"옶":3990,"옷":3991,"옸":3992,"옹":3993,"옺":3994,"옻":3995,"옼":3996,"옽":3997,"옾":3998,"옿":3999,"와":4000,"왁":4001,"왂":4002,"완":4003,"왅":4004,"왆":4005,"왇":4006,"왈":4007,"왉":4008,"왐":4009,"왑":4010,"왓":4011,"왔":4012,"왕":4013,"왖":4014,"왗":4015,"왘":4016,"왙":4017,"왚":4018,"왛":4019,"왜":4020,"왝":4021,"왠":4022,"왡":4023,"왢":4024,"왤":4025,"왥":4026,"왬":4027,"왭":4028,"왯":4029,"왰":4030,"왱":4031,"왲":4032,"왳":4033,"왴":4034,"왶":4035,"왷":4036,"외":4037,"왹":4038,"왼":4039,"욀":4040,"욈":4041,"욉":4042,"욋":4043,"욌":4044,"욍":4045,"욎":4046,"욐":4047,"욓":4048,"요":4049,"욕":4050,"욖":4051,"욗":4052,"욘":4053,"욛":4054,"욜":4055,"욝":4056,"욣":4057,"욤":4058,"욥":4059,"욧":4060,"욨":4061,"용":4062,"욪":4063,"욫":4064,"욬":4065,"욭":4066,"욮":4067,"욯":4068,"우":4069,"욱":4070,"욲":4071,"욳":4072,"운":4073,"욵":4074,"욷":4075,"울":4076,"욹":4077,"욺":4078,"욻":4079,"욼":4080,"욽":4081,"욾":4082,"욿":4083,"움":4084,"웁":4085,"웂":4086,"웃":4087,"웄":4088,"웅":4089,"웆":4090,"웇":4091,"웈":4092,"웉":4093,"웊":4094,"웋":4095,"워":4096,"웍":4097,"웎":4098,"원":4099,"웑":4100,"웒":4101,"웓":4102,"월":4103,"웕":4104,"웖":4105,"웗":4106,"웘":4107,"웙":4108,"웚":4109,"웛":4110,"웜":4111,"웝":4112,"웞":4113,"웟":4114,"웠":4115,"웡":4116,"웢":4117,"웣":4118,"웤":4119,"웥":4120,"웦":4121,"웧":4122,"웨":4123,"웩":4124,"웪":4125,"웬":4126,"웯":4127,"웰":4128,"웱":4129,"웳":4130,"웸":4131,"웹":4132,"웺":4133,"웻":4134,"웼":4135,"웽":4136,"웾":4137,"윀":4138,"윁":4139,"윂":4140,"위":4141,"윅":4142,"윈":4143,"윋":4144,"윌":4145,"윔":4146,"윕":4147,"윖":4148,"윗":4149,"윘":4150,"윙":4151,"윚":4152,"윜":4153,"윝":4154,"윟":4155,"유":4156,"육":4157,"윢":4158,"윣":4159,"윤":4160,"윥":4161,"윧":4162,"율":4163,"윯":4164,"윰":4165,"윱":4166,"윳":4167,"융":4168,"윶":4169,"윷":4170,"윸":4171,"윹":4172,"윺":4173,"윻":4174,"으":4175,"윽":4176,"윾":4177,"윿":4178,"은":4179,"읁":4180,"읂":4181,"읃":4182,"을":4183,"읅":4184,"읆":4185,"읇":4186,"읈":4187,"읉":4188,"읊":4189,"읋":4190,"음":4191,"읍":4192,"읎":4193,"읏":4194,"읐":4195,"응":4196,"읒":4197,"읓":4198,"읔":4199,"읕":4200,"읖":4201,"읗":4202,"의":4203,"읙":4204,"읜":4205,"읟":4206,"읠":4207,"읨":4208,"읩":4209,"읪":4210,"읫":4211,"읬":4212,"읭":4213,"읮":4214,"읯":4215,"읰":4216,"읱":4217,"읲":4218,"읳":4219,"이":4220,"익":4221,"읶":4222,"읷":4223,"인":4224,"읹":4225,"읺":4226,"읻":4227,"일":4228,"읽":4229,"읾":4230,"읿":4231,"잀":4232,"잁":4233,"잂":4234,"잃":4235,"임":4236,"입":4237,"잆":4238,"잇":4239,"있":4240,"잉":4241,"잊":4242,"잋":4243,"잌":4244,"잍":4245,"잎":4246,"잏":4247,"자":4248,"작":4249,"잒":4250,"잓":4251,"잔":4252,"잕":4253,"잖":4254,"잗":4255,"잘":4256,"잙":4257,"잚":4258,"잛":4259,"잜":4260,"잝":4261,"잞":4262,"잟":4263,"잠":4264,"잡":4265,"잢":4266,"잣":4267,"잤":4268,"장":4269,"잦":4270,"잧":4271,"잨":4272,"잩":4273,"잪":4274,"잫":4275,"재":4276,"잭":4277,"잮":4278,"잰":4279,"잲":4280,"잳":4281,"잴":4282,"잼":4283,"잽":4284,"잿":4285,"쟀":4286,"쟁":4287,"쟂":4288,"쟃":4289,"쟄":4290,"쟅":4291,"쟆":4292,"쟇":4293,"쟈":4294,"쟉":4295,"쟌":4296,"쟎":4297,"쟏":4298,"쟐":4299,"쟘":4300,"쟙":4301,"쟛":4302,"쟜":4303,"쟝":4304,"쟞":4305,"쟟":4306,"쟠":4307,"쟡":4308,"쟣":4309,"쟤":4310,"쟥":4311,"쟨":4312,"쟬":4313,"쟴":4314,"쟸":4315,"쟹":4316,"쟼":4317,"저":4318,"적":4319,"젂":4320,"젃":4321,"전":4322,"젅":4323,"젆":4324,"젇":4325,"절":4326,"젉":4327,"젊":4328,"젋":4329,"젌":4330,"젍":4331,"젎":4332,"젏":4333,"점":4334,"접":4335,"젒":4336,"젓":4337,"젔":4338,"정":4339,"젖":4340,"젗":4341,"젘":4342,"젙":4343,"젚":4344,"젛":4345,"제":4346,"젝":4347,"젞":4348,"젠":4349,"젡":4350,"젣":4351,"젤":4352,"젬":4353,"젭":4354,"젯":4355,"젰":4356,"젱":4357,"젲":4358,"젳":4359,"젴":4360,"젵":4361,"젶":4362,"젷":4363,"져":4364,"젹":4365,"젺":4366,"젼":4367,"젾":4368,"젿":4369,"졀":4370,"졂":4371,"졈":4372,"졉":4373,"졋":4374,"졌":4375,"졍":4376,"졎":4377,"졏":4378,"졐":4379,"졑":4380,"졒":4381,"졓":4382,"졔":4383,"졘":4384,"졜":4385,"졨":4386,"조":4387,"족":4388,"졲":4389,"졳":4390,"존":4391,"졵":4392,"졶":4393,"졷":4394,"졸":4395,"졹":4396,"졺":4397,"졻":4398,"졽":4399,"졿":4400,"좀":4401,"좁":4402,"좂":4403,"좃":4404,"좄":4405,"종":4406,"좆":4407,"좇":4408,"좈":4409,"좉":4410,"좊":4411,"좋":4412,"좌":4413,"좍":4414,"좎":4415,"좐":4416,"좒":4417,"좓":4418,"좔":4419,"좜":4420,"좝":4421,"좟":4422,"좠":4423,"좡":4424,"좢":4425,"좣":4426,"좤":4427,"좥":4428,"좦":4429,"좧":4430,"좨":4431,"좩":4432,"좬":4433,"좭":4434,"좮":4435,"좯":4436,"좰":4437,"좱":4438,"좸":4439,"좼":4440,"좽":4441,"죄":4442,"죅":4443,"죈":4444,"죌":4445,"죔":4446,"죕":4447,"죗":4448,"죘":4449,"죙":4450,"죚":4451,"죜":4452,"죝":4453,"죠":4454,"죡":4455,"죢":4456,"죣":4457,"죤":4458,"죥":4459,"죧":4460,"죨":4461,"죰":4462,"죱":4463,"죳":4464,"죴":4465,"죵":4466,"죶":4467,"죷":4468,"죸":4469,"죹":4470,"죺":4471,"죻":4472,"주":4473,"죽":4474,"죾":4475,"죿":4476,"준":4477,"줁":4478,"줂":4479,"줃":4480,"줄":4481,"줅":4482,"줆":4483,"줈":4484,"줉":4485,"줊":4486,"줋":4487,"줌":4488,"줍":4489,"줏":4490,"줐":4491,"중":4492,"줒":4493,"줓":4494,"줔":4495,"줕":4496,"줖":4497,"줗":4498,"줘":4499,"줙":4500,"줚":4501,"줜":4502,"줝":4503,"줟":4504,"줠":4505,"줨":4506,"줩":4507,"줫":4508,"줬":4509,"줭":4510,"줮":4511,"줯":4512,"줰":4513,"줱":4514,"줳":4515,"줴":4516,"줵":4517,"줸":4518,"줼":4519,"쥄":4520,"쥅":4521,"쥇":4522,"쥈":4523,"쥉":4524,"쥐":4525,"쥑":4526,"쥔":4527,"쥘":4528,"쥠":4529,"쥡":4530,"쥣":4531,"쥤":4532,"쥥":4533,"쥦":4534,"쥨":4535,"쥫":4536,"쥬":4537,"쥭":4538,"쥰":4539,"쥳":4540,"쥴":4541,"쥼":4542,"쥽":4543,"쥿":4544,"즁":4545,"즂":4546,"즄":4547,"즇":4548,"즈":4549,"즉":4550,"즋":4551,"즌":4552,"즎":4553,"즏":4554,"즐":4555,"즑":4556,"즘":4557,"즙":4558,"즛":4559,"즜":4560,"증":4561,"즞":4562,"즟":4563,"즠":4564,"즡":4565,"즣":4566,"즤":4567,"즥":4568,"즨":4569,"즬":4570,"즴":4571,"즵":4572,"즷":4573,"즹":4574,"즺":4575,"즼":4576,"지":4577,"직":4578,"짂":4579,"짃":4580,"진":4581,"짅":4582,"짆":4583,"짇":4584,"질":4585,"짉":4586,"짊":4587,"짋":4588,"짌":4589,"짍":4590,"짎":4591,"짏":4592,"짐":4593,"집":4594,"짒":4595,"짓":4596,"짔":4597,"징":4598,"짖":4599,"짗":4600,"짘":4601,"짙":4602,"짚":4603,"짛":4604,"짜":4605,"짝":4606,"짞":4607,"짠":4608,"짢":4609,"짣":4610,"짤":4611,"짥":4612,"짦":4613,"짧":4614,"짪":4615,"짫":4616,"짬":4617,"짭":4618,"짮":4619,"짯":4620,"짰":4621,"짱":4622,"짲":4623,"짳":4624,"짴":4625,"짵":4626,"짶":4627,"짷":4628,"째":4629,"짹":4630,"짺":4631,"짼":4632,"짾":4633,"짿":4634,"쨀":4635,"쨈":4636,"쨉":4637,"쨋":4638,"쨌":4639,"쨍":4640,"쨎":4641,"쨐":4642,"쨓":4643,"쨔":4644,"쨕":4645,"쨖":4646,"쨘":4647,"쨚":4648,"쨜":4649,"쨟":4650,"쨤":4651,"쨥":4652,"쨧":4653,"쨨":4654,"쨩":4655,"쨬":4656,"쨰":4657,"쨱":4658,"쨲":4659,"쨴":4660,"쩀":4661,"쩁":4662,"쩃":4663,"쩄":4664,"쩅":4665,"쩌":4666,"쩍":4667,"쩎":4668,"쩐":4669,"쩑":4670,"쩓":4671,"쩔":4672,"쩕":4673,"쩖":4674,"쩗":4675,"쩘":4676,"쩛":4677,"쩜":4678,"쩝":4679,"쩟":4680,"쩠":4681,"쩡":4682,"쩢":4683,"쩣":4684,"쩤":4685,"쩦":4686,"쩧":4687,"쩨":4688,"쩩":4689,"쩬":4690,"쩰":4691,"쩸":4692,"쩹":4693,"쩻":4694,"쩼":4695,"쩽":4696,"쪄":4697,"쪅":4698,"쪈":4699,"쪌":4700,"쪔":4701,"쪕":4702,"쪗":4703,"쪘":4704,"쪙":4705,"쪚":4706,"쪜":4707,"쪟":4708,"쪠":4709,"쪵":4710,"쪹":4711,"쪻":4712,"쪼":4713,"쪽":4714,"쪾":4715,"쪿":4716,"쫀":4717,"쫂":4718,"쫃":4719,"쫄":4720,"쫅":4721,"쫌":4722,"쫍":4723,"쫏":4724,"쫐":4725,"쫑":4726,"쫒":4727,"쫓":4728,"쫔":4729,"쫕":4730,"쫖":4731,"쫗":4732,"쫘":4733,"쫙":4734,"쫚":4735,"쫛":4736,"쫜":4737,"쫟":4738,"쫠":4739,"쫨":4740,"쫩":4741,"쫫":4742,"쫭":4743,"쫰":4744,"쫴":4745,"쫵":4746,"쬈":4747,"쬎":4748,"쬐":4749,"쬑":4750,"쬔":4751,"쬘":4752,"쬠":4753,"쬡":4754,"쬥":4755,"쬬":4756,"쬭":4757,"쬮":4758,"쬰":4759,"쬲":4760,"쬴":4761,"쬼":4762,"쬽":4763,"쬿":4764,"쭀":4765,"쭁":4766,"쭂":4767,"쭃":4768,"쭄":4769,"쭅":4770,"쭈":4771,"쭉":4772,"쭊":4773,"쭌":4774,"쭏":4775,"쭐":4776,"쭕":4777,"쭘":4778,"쭙":4779,"쭛":4780,"쭝":4781,"쭞":4782,"쭟":4783,"쭠":4784,"쭤":4785,"쭥":4786,"쭨":4787,"쭬":4788,"쭭":4789,"쭵":4790,"쭷":4791,"쭸":4792,"쭹":4793,"쭻":4794,"쮀":4795,"쮁":4796,"쮇":4797,"쮉":4798,"쮑":4799,"쮓":4800,"쮔":4801,"쮕":4802,"쮜":4803,"쮝":4804,"쮠":4805,"쮤":4806,"쮭":4807,"쮱":4808,"쮸":4809,"쮹":4810,"쮼":4811,"쯀":4812,"쯈":4813,"쯉":4814,"쯋":4815,"쯍":4816,"쯎":4817,"쯔":4818,"쯕":4819,"쯘":4820,"쯛":4821,"쯜":4822,"쯤":4823,"쯥":4824,"쯧":4825,"쯨":4826,"쯩":4827,"쯪":4828,"쯫":4829,"쯰":4830,"쯱":4831,"쯴":4832,"찁":4833,"찅":4834,"찌":4835,"찍":4836,"찎":4837,"찏":4838,"찐":4839,"찓":4840,"찔":4841,"찗":4842,"찜":4843,"찝":4844,"찟":4845,"찠":4846,"찡":4847,"찢":4848,"찣":4849,"찤":4850,"찥":4851,"찦":4852,"찧":4853,"차":4854,"착":4855,"찪":4856,"찫":4857,"찬":4858,"찭":4859,"찮":4860,"찯":4861,"찰":4862,"찱":4863,"찲":4864,"찳":4865,"찴":4866,"찷":4867,"참":4868,"찹":4869,"찻":4870,"찼":4871,"창":4872,"찾":4873,"찿":4874,"챀":4875,"챁":4876,"챂":4877,"챃":4878,"채":4879,"책":4880,"챈":4881,"챊":4882,"챋":4883,"챌":4884,"챔":4885,"챕":4886,"챗":4887,"챘":4888,"챙":4889,"챚":4890,"챜":4891,"챝":4892,"챠":4893,"챡":4894,"챤":4895,"챦":4896,"챨":4897,"챫":4898,"챰":4899,"챱":4900,"챳":4901,"챴":4902,"챵":4903,"챶":4904,"챷":4905,"챸":4906,"챺":4907,"챻":4908,"챼":4909,"챽":4910,"첑":4911,"처":4912,"척":4913,"천":4914,"첝":4915,"첞":4916,"첟":4917,"철":4918,"첡":4919,"첢":4920,"첣":4921,"첤":4922,"첧":4923,"첨":4924,"첩":4925,"첪":4926,"첫":4927,"첬":4928,"청":4929,"첮":4930,"첯":4931,"첰":4932,"첱":4933,"첲":4934,"첳":4935,"체":4936,"첵":4937,"첸":4938,"첻":4939,"첼":4940,"쳄":4941,"쳅":4942,"쳇":4943,"쳈":4944,"쳉":4945,"쳊":4946,"쳋":4947,"쳌":4948,"쳍":4949,"쳏":4950,"쳐":4951,"쳑":4952,"쳒":4953,"쳔":4954,"쳗":4955,"쳘":4956,"쳠":4957,"쳡":4958,"쳢":4959,"쳣":4960,"쳤":4961,"쳥":4962,"쳦":4963,"쳧":4964,"쳨":4965,"쳫":4966,"쳬":4967,"쳭":4968,"쳰":4969,"쳴":4970,"촀":4971,"초":4972,"촉":4973,"촌":4974,"촏":4975,"촐":4976,"촔":4977,"촘":4978,"촙":4979,"촛":4980,"촜":4981,"총":4982,"촞":4983,"촟":4984,"촠":4985,"촡":4986,"촣":4987,"촤":4988,"촥":4989,"촨":4990,"촪":4991,"촬":4992,"촴":4993,"촵":4994,"촷":4995,"촹":4996,"촺":4997,"촼":4998,"쵀":4999,"쵁":5000,"쵕":5001,"최":5002,"쵝":5003,"쵠":5004,"쵤":5005,"쵭":5006,"쵮":5007,"쵯":5008,"쵱":5009,"쵴":5010,"쵸":5011,"쵹":5012,"쵼":5013,"쵿":5014,"춀":5015,"춈":5016,"춉":5017,"춋":5018,"춌":5019,"춍":5020,"춎":5021,"춏":5022,"춐":5023,"추":5024,"축":5025,"춘":5026,"춚":5027,"춛":5028,"출":5029,"춝":5030,"춞":5031,"춟":5032,"춠":5033,"춡":5034,"춣":5035,"춤":5036,"춥":5037,"춧":5038,"충":5039,"춪":5040,"춫":5041,"춬":5042,"춭":5043,"춮":5044,"춯":5045,"춰":5046,"춱":5047,"춴":5048,"춸":5049,"췁":5050,"췃":5051,"췄":5052,"췅":5053,"췆":5054,"췈":5055,"췌":5056,"췍":5057,"췐":5058,"췔":5059,"췕":5060,"췜":5061,"췝":5062,"췟":5063,"췡":5064,"췤":5065,"취":5066,"췩":5067,"췬":5068,"췰":5069,"췸":5070,"췹":5071,"췻":5072,"췼":5073,"췽":5074,"츀":5075,"츄":5076,"츅":5077,"츈":5078,"츌":5079,"츔":5080,"츕":5081,"츗":5082,"츙":5083,"츛":5084,"츜":5085,"츞":5086,"츠":5087,"측":5088,"츤":5089,"츧":5090,"츨":5091,"츰":5092,"츱":5093,"츳":5094,"층":5095,"츶":5096,"츷":5097,"츸":5098,"츹":5099,"츼":5100,"츽":5101,"칀":5102,"칄":5103,"칌":5104,"칍":5105,"칑":5106,"칔":5107,"치":5108,"칙":5109,"친":5110,"칝":5111,"칞":5112,"칟":5113,"칠":5114,"칡":5115,"칢":5116,"칤":5117,"칧":5118,"침":5119,"칩":5120,"칫":5121,"칬":5122,"칭":5123,"칮":5124,"칯":5125,"칰":5126,"칱":5127,"칲":5128,"칳":5129,"카":5130,"칵":5131,"칶":5132,"칸":5133,"칻":5134,"칼":5135,"칽":5136,"캄":5137,"캅":5138,"캆":5139,"캇":5140,"캈":5141,"캉":5142,"캊":5143,"캋":5144,"캌":5145,"캍":5146,"캎":5147,"캏":5148,"캐":5149,"캑":5150,"캔":5151,"캘":5152,"캙":5153,"캠":5154,"캡":5155,"캢":5156,"캣":5157,"캤":5158,"캥":5159,"캨":5160,"캩":5161,"캪":5162,"캬":5163,"캭":5164,"캮":5165,"캰":5166,"캴":5167,"캵":5168,"캼":5169,"캽":5170,"캿":5171,"컀":5172,"컁":5173,"컄":5174,"컅":5175,"컇":5176,"컈":5177,"커":5178,"컥":5179,"컨":5180,"컫":5181,"컬":5182,"컭":5183,"컯":5184,"컴":5185,"컵":5186,"컷":5187,"컸":5188,"컹":5189,"컺":5190,"컼":5191,"컽":5192,"컾":5193,"컿":5194,"케":5195,"켁":5196,"켄":5197,"켇":5198,"켈":5199,"켉":5200,"켐":5201,"켑":5202,"켓":5203,"켔":5204,"켕":5205,"켘":5206,"켙":5207,"켚":5208,"켛":5209,"켜":5210,"켝":5211,"켞":5212,"켠":5213,"켤":5214,"켬":5215,"켭":5216,"켯":5217,"켰":5218,"켱":5219,"켲":5220,"켴":5221,"켵":5222,"켷":5223,"켸":5224,"켼":5225,"콋":5226,"콌":5227,"코":5228,"콕":5229,"콘":5230,"콛":5231,"콜":5232,"콤":5233,"콥":5234,"콧":5235,"콩":5236,"콪":5237,"콫":5238,"콬":5239,"콭":5240,"콮":5241,"콯":5242,"콰":5243,"콱":5244,"콲":5245,"콴":5246,"콸":5247,"쾀":5248,"쾃":5249,"쾅":5250,"쾈":5251,"쾌":5252,"쾍":5253,"쾐":5254,"쾡":5255,"쾤":5256,"쾨":5257,"쾩":5258,"쾬":5259,"쾰":5260,"쾽":5261,"쿄":5262,"쿅":5263,"쿈":5264,"쿌":5265,"쿔":5266,"쿗":5267,"쿙":5268,"쿜":5269,"쿠":5270,"쿡":5271,"쿢":5272,"쿤":5273,"쿧":5274,"쿨":5275,"쿩":5276,"쿫":5277,"쿯":5278,"쿰":5279,"쿱":5280,"쿳":5281,"쿵":5282,"쿸":5283,"쿹":5284,"쿺":5285,"쿻":5286,"쿼":5287,"쿽":5288,"퀀":5289,"퀄":5290,"퀌":5291,"퀏":5292,"퀐":5293,"퀑":5294,"퀔":5295,"퀘":5296,"퀙":5297,"퀜":5298,"퀠":5299,"퀡":5300,"퀫":5301,"퀭":5302,"퀰":5303,"퀴":5304,"퀵":5305,"퀸":5306,"퀻":5307,"퀼":5308,"큄":5309,"큅":5310,"큇":5311,"큉":5312,"큌":5313,"큐":5314,"큑":5315,"큔":5316,"큘":5317,"큠":5318,"큡":5319,"큣":5320,"큥":5321,"큨":5322,"큩":5323,"큪":5324,"크":5325,"큭":5326,"큮":5327,"큰":5328,"큲":5329,"큳":5330,"클":5331,"큵":5332,"큷":5333,"큻":5334,"큼":5335,"큽":5336,"큿":5337,"킀":5338,"킁":5339,"킂":5340,"킄":5341,"킅":5342,"킆":5343,"킇":5344,"킈":5345,"킉":5346,"킌":5347,"킐":5348,"킘":5349,"킝":5350,"킠":5351,"키":5352,"킥":5353,"킦":5354,"킨":5355,"킫":5356,"킬":5357,"킴":5358,"킵":5359,"킶":5360,"킷":5361,"킸":5362,"킹":5363,"킺":5364,"킼":5365,"킽":5366,"킾":5367,"킿":5368,"타":5369,"탁":5370,"탂":5371,"탄":5372,"탅":5373,"탆":5374,"탇":5375,"탈":5376,"탉":5377,"탊":5378,"탍":5379,"탏":5380,"탐":5381,"탑":5382,"탓":5383,"탔":5384,"탕":5385,"탖":5386,"탗":5387,"탘":5388,"탙":5389,"탚":5390,"탛":5391,"태":5392,"택":5393,"탞":5394,"탟":5395,"탠":5396,"탣":5397,"탤":5398,"탬":5399,"탭":5400,"탯":5401,"탰":5402,"탱":5403,"탲":5404,"탴":5405,"탵":5406,"탶":5407,"탷":5408,"탸":5409,"탹":5410,"탼":5411,"턀":5412,"턈":5413,"턉":5414,"턋":5415,"턍":5416,"턐":5417,"턑":5418,"턔":5419,"턕":5420,"턘":5421,"턩":5422,"터":5423,"턱":5424,"턴":5425,"턷":5426,"털":5427,"턹":5428,"턺":5429,"텀":5430,"텁":5431,"텂":5432,"텃":5433,"텄":5434,"텅":5435,"텆":5436,"텇":5437,"텈":5438,"텉":5439,"텊":5440,"텋":5441,"테":5442,"텍":5443,"텐":5444,"텓":5445,"텔":5446,"템":5447,"텝":5448,"텟":5449,"텠":5450,"텡":5451,"텢":5452,"텣":5453,"텤":5454,"텥":5455,"텦":5456,"텧":5457,"텨":5458,"텩":5459,"텬":5460,"텰":5461,"텸":5462,"텹":5463,"텻":5464,"텼":5465,"텽":5466,"톀":5467,"톃":5468,"톄":5469,"톅":5470,"톈":5471,"톌":5472,"톔":5473,"토":5474,"톡":5475,"톢":5476,"톤":5477,"톧":5478,"톨":5479,"톩":5480,"톪":5481,"톰":5482,"톱":5483,"톳":5484,"통":5485,"톶":5486,"톷":5487,"톸":5488,"톹":5489,"톺":5490,"톻":5491,"톼":5492,"톽":5493,"퇀":5494,"퇄":5495,"퇌":5496,"퇍":5497,"퇏":5498,"퇑":5499,"퇔":5500,"퇘":5501,"퇙":5502,"퇜":5503,"퇧":5504,"퇫":5505,"퇬":5506,"퇭":5507,"퇮":5508,"퇴":5509,"퇵":5510,"퇶":5511,"퇸":5512,"퇼":5513,"툄":5514,"툅":5515,"툇":5516,"툈":5517,"툉":5518,"툊":5519,"툌":5520,"툐":5521,"툑":5522,"툠":5523,"툣":5524,"툥":5525,"툨":5526,"툩":5527,"투":5528,"툭":5529,"툰":5530,"툱":5531,"툲":5532,"툳":5533,"툴":5534,"툻":5535,"툼":5536,"툽":5537,"툿":5538,"퉁":5539,"퉂":5540,"퉄":5541,"퉅":5542,"퉆":5543,"퉈":5544,"퉉":5545,"퉌":5546,"퉐":5547,"퉛":5548,"퉜":5549,"퉝":5550,"퉤":5551,"퉥":5552,"퉨":5553,"퉬":5554,"퉵":5555,"퉷":5556,"퉸":5557,"퉹":5558,"퉼":5559,"퉽":5560,"튀":5561,"튁":5562,"튄":5563,"튈":5564,"튐":5565,"튑":5566,"튓":5567,"튔":5568,"튕":5569,"튘":5570,"튜":5571,"튝":5572,"튠":5573,"튤":5574,"튬":5575,"튭":5576,"튱":5577,"튴":5578,"튵":5579,"튶":5580,"트":5581,"특":5582,"튺":5583,"튻":5584,"튼":5585,"튽":5586,"튿":5587,"틀":5588,"틁":5589,"틂":5590,"틅":5591,"틇":5592,"틈":5593,"틉":5594,"틊":5595,"틋":5596,"틍":5597,"틎":5598,"틏":5599,"틐":5600,"틑":5601,"틒":5602,"틓":5603,"틔":5604,"틕":5605,"틘":5606,"틜":5607,"틤":5608,"틧":5609,"틩":5610,"티":5611,"틱":5612,"틳":5613,"틴":5614,"틷":5615,"틸":5616,"팀":5617,"팁":5618,"팃":5619,"팄":5620,"팅":5621,"팆":5622,"팈":5623,"팉":5624,"팊":5625,"파":5626,"팍":5627,"팎":5628,"팏":5629,"판":5630,"팑":5631,"팒":5632,"팓":5633,"팔":5634,"팕":5635,"팖":5636,"팗":5637,"팘":5638,"팙":5639,"팚":5640,"팛":5641,"팜":5642,"팝":5643,"팟":5644,"팠":5645,"팡":5646,"팢":5647,"팣":5648,"팤":5649,"팥":5650,"팦":5651,"팧":5652,"패":5653,"팩":5654,"팬":5655,"팯":5656,"팰":5657,"팸":5658,"팹":5659,"팻":5660,"팼":5661,"팽":5662,"퍀":5663,"퍁":5664,"퍄":5665,"퍅":5666,"퍈":5667,"퍌":5668,"퍔":5669,"퍙":5670,"퍝":5671,"퍞":5672,"퍠":5673,"퍡":5674,"퍤":5675,"퍵":5676,"퍼":5677,"퍽":5678,"퍾":5679,"펀":5680,"펃":5681,"펄":5682,"펅":5683,"펌":5684,"펍":5685,"펏":5686,"펐":5687,"펑":5688,"펒":5689,"펔":5690,"펕":5691,"펖":5692,"펗":5693,"페":5694,"펙":5695,"펜":5696,"펟":5697,"펠":5698,"펨":5699,"펩":5700,"펫":5701,"펭":5702,"펰":5703,"펲":5704,"펴":5705,"펵":5706,"편":5707,"펹":5708,"펺":5709,"펻":5710,"펼":5711,"폄":5712,"폅":5713,"폇":5714,"폈":5715,"평":5716,"폌":5717,"폐":5718,"폑":5719,"폔":5720,"폘":5721,"폠":5722,"폡":5723,"폣":5724,"폥":5725,"폨":5726,"포":5727,"폭":5728,"폮":5729,"폯":5730,"폰":5731,"폳":5732,"폴":5733,"폼":5734,"폽":5735,"폿":5736,"퐁":5737,"퐂":5738,"퐄":5739,"퐅":5740,"퐆":5741,"퐇":5742,"퐈":5743,"퐉":5744,"퐌":5745,"퐐":5746,"퐑":5747,"퐘":5748,"퐙":5749,"퐛":5750,"퐜":5751,"퐝":5752,"퐠":5753,"퐣":5754,"퐤":5755,"퐥":5756,"퐨":5757,"푀":5758,"푁":5759,"푄":5760,"푈":5761,"푕":5762,"표":5763,"푝":5764,"푠":5765,"푤":5766,"푬":5767,"푭":5768,"푯":5769,"푱":5770,"푲":5771,"푴":5772,"푶":5773,"푷":5774,"푸":5775,"푹":5776,"푼":5777,"푿":5778,"풀":5779,"풁":5780,"풂":5781,"풃":5782,"풇":5783,"품":5784,"풉":5785,"풋":5786,"풍":5787,"풎":5788,"풏":5789,"풐":5790,"풑":5791,"풒":5792,"풓":5793,"풔":5794,"풕":5795,"풘":5796,"풜":5797,"풩":5798,"풬":5799,"풰":5800,"풱":5801,"풴":5802,"풸":5803,"풹":5804,"퓅":5805,"퓌":5806,"퓍":5807,"퓐":5808,"퓔":5809,"퓟":5810,"퓡":5811,"퓨":5812,"퓩":5813,"퓬":5814,"퓰":5815,"퓸":5816,"퓹":5817,"퓻":5818,"퓽":5819,"퓿":5820,"픀":5821,"픂":5822,"프":5823,"픅":5824,"픈":5825,"픋":5826,"플":5827,"픍":5828,"픎":5829,"픓":5830,"픔":5831,"픕":5832,"픗":5833,"픙":5834,"픚":5835,"픜":5836,"픝":5837,"픞":5838,"픟":5839,"픠":5840,"픤":5841,"픨":5842,"픵":5843,"픹":5844,"피":5845,"픽":5846,"핀":5847,"핃":5848,"필":5849,"핆":5850,"핋":5851,"핌":5852,"핍":5853,"핏":5854,"핐":5855,"핑":5856,"핒":5857,"핓":5858,"핔":5859,"핕":5860,"핖":5861,"핗":5862,"하":5863,"학":5864,"핚":5865,"핛":5866,"한":5867,"핝":5868,"핞":5869,"핟":5870,"할":5871,"핡":5872,"핢":5873,"핣":5874,"핤":5875,"핥":5876,"핦":5877,"핧":5878,"함":5879,"합":5880,"핪":5881,"핫":5882,"핬":5883,"항":5884,"핮":5885,"핯":5886,"핰":5887,"핱":5888,"핲":5889,"핳":5890,"해":5891,"핵":5892,"핶":5893,"핷":5894,"핸":5895,"핺":5896,"핻":5897,"핼":5898,"핽":5899,"햄":5900,"햅":5901,"햇":5902,"했":5903,"행":5904,"햊":5905,"햋":5906,"햌":5907,"햍":5908,"햎":5909,"햏":5910,"햐":5911,"햑":5912,"햔":5913,"햘":5914,"햙":5915,"햚":5916,"햛":5917,"햝":5918,"햟":5919,"햠":5920,"햡":5921,"햣":5922,"햤":5923,"향":5924,"햨":5925,"햩":5926,"햫":5927,"햬":5928,"햭":5929,"햰":5930,"햿":5931,"헀":5932,"헁":5933,"허":5934,"헉":5935,"헊":5936,"헋":5937,"헌":5938,"헍":5939,"헏":5940,"헐":5941,"헑":5942,"헒":5943,"헓":5944,"헔":5945,"헕":5946,"헗":5947,"험":5948,"헙":5949,"헚":5950,"헛":5951,"헜":5952,"헝":5953,"헞":5954,"헟":5955,"헠":5956,"헡":5957,"헢":5958,"헣":5959,"헤":5960,"헥":5961,"헦":5962,"헧":5963,"헨":5964,"헫":5965,"헬":5966,"헭":5967,"헯":5968,"헰":5969,"헱":5970,"헲":5971,"헳":5972,"헴":5973,"헵":5974,"헶":5975,"헷":5976,"헸":5977,"헹":5978,"헼":5979,"헽":5980,"헾":5981,"헿":5982,"혀":5983,"혁":5984,"혂":5985,"혃":5986,"현":5987,"혅":5988,"혆":5989,"혇":5990,"혈":5991,"혉":5992,"혐":5993,"협":5994,"혒":5995,"혓":5996,"혔":5997,"형":5998,"혖":5999,"혘":6000,"혙":6001,"혚":6002,"혛":6003,"혜":6004,"혝":6005,"혠":6006,"혤":6007,"혬":6008,"혭":6009,"혯":6010,"혰":6011,"혱":6012,"혲":6013,"혴":6014,"혷":6015,"호":6016,"혹":6017,"혺":6018,"혻":6019,"혼":6020,"혽":6021,"혾":6022,"혿":6023,"홀":6024,"홁":6025,"홅":6026,"홇":6027,"홈":6028,"홉":6029,"홋":6030,"홍":6031,"홎":6032,"홐":6033,"홑":6034,"홒":6035,"홓":6036,"화":6037,"확":6038,"홖":6039,"홗":6040,"환":6041,"홙":6042,"홛":6043,"활":6044,"홝":6045,"홟":6046,"홡":6047,"홣":6048,"홤":6049,"홥":6050,"홧":6051,"홨":6052,"황":6053,"홪":6054,"홫":6055,"홬":6056,"홭":6057,"홮":6058,"홯":6059,"홰":6060,"홱":6061,"홴":6062,"횃":6063,"횄":6064,"횅":6065,"회":6066,"획":6067,"횐":6068,"횓":6069,"횔":6070,"횜":6071,"횝":6072,"횟":6073,"횠":6074,"횡":6075,"횢":6076,"횤":6077,"횧":6078,"효":6079,"횩":6080,"횬":6081,"횰":6082,"횸":6083,"횹":6084,"횻":6085,"횽":6086,"훀":6087,"훃":6088,"후":6089,"훅":6090,"훈":6091,"훉":6092,"훊":6093,"훋":6094,"훌":6095,"훍":6096,"훏":6097,"훑":6098,"훓":6099,"훔":6100,"훕":6101,"훗":6102,"훙":6103,"훚":6104,"훛":6105,"훜":6106,"훝":6107,"훞":6108,"훟":6109,"훠":6110,"훡":6111,"훤":6112,"훨":6113,"훯":6114,"훰":6115,"훱":6116,"훳":6117,"훵":6118,"훸":6119,"훻":6120,"훼":6121,"훽":6122,"휀":6123,"휄":6124,"휅":6125,"휇":6126,"휍":6127,"휏":6128,"휐":6129,"휑":6130,"휔":6131,"휗":6132,"휘":6133,"휙":6134,"휜":6135,"휟":6136,"휠":6137,"휨":6138,"휩":6139,"휫":6140,"휭":6141,"휰":6142,"휲":6143,"휳":6144,"휴":6145,"휵":6146,"휸":6147,"휼":6148,"흄":6149,"흅":6150,"흇":6151,"흉":6152,"흊":6153,"흌":6154,"흎":6155,"흏":6156,"흐":6157,"흑":6158,"흒":6159,"흓":6160,"흔":6161,"흗":6162,"흘":6163,"흙":6164,"흚":6165,"흛":6166,"흜":6167,"흝":6168,"흟":6169,"흠":6170,"흡":6171,"흣":6172,"흤":6173,"흥":6174,"흦":6175,"흨":6176,"흩":6177,"흪":6178,"흫":6179,"희":6180,"흭":6181,"흰":6182,"흳":6183,"흴":6184,"흵":6185,"흼":6186,"흽":6187,"흿":6188,"힁":6189,"힂":6190,"힄":6191,"힇":6192,"히":6193,"힉":6194,"힊":6195,"힌":6196,"힏":6197,"힐":6198,"힑":6199,"힒":6200,"힕":6201,"힗":6202,"힘":6203,"힙":6204,"힛":6205,"힜":6206,"힝":6207,"힞":6208,"힟":6209,"힠":6210,"힡":6211,"힢":6212,"힣":6213,"％":6214,"##예":6215,"##부":6216,"##흥":6217,"##기":6218,"##♬":6219,"##로":6220,"##서":6221,"##e":6222,"##l":6223,"##a":6224,"##라":6225,"##는":6226,"##과":6227,"##표":6228,"##피":6229,"##증":6230,"##식":6231,"##등":6232,"##값":6233,"##떨":6234,"##어":6235,"##지":6236,"##진":6237,"##키":6238,"##니":6239,"##요":6240,"##쿠":6241,"##고":6242,"##문":6243,"##버":6244,"##리":6245,"##게":6246,"##뇨":6247,"##세":6248,"##얼":6249,"##굴":6250,"##이":6251,"##연":6252,"##히":6253,"##거":6254,"##절":6255,"##하":6256,"##겠":6257,"##아":6258,"##시":6259,"##설":6260,"##도":6261,"##집":6262,"##갈":6263,"##까":6264,"##바":6265,"##러":6266,"##가":6267,"##수":6268,"##무":6269,"##원":6270,"##다":6271,"##님":6272,"##걸":6273,"##릿":6274,"##것":6275,"##픈":6276,"##조":6277,"##건":6278,"##주":6279,"##싶":6280,"##은":6281,"##상":6282,"##추":6283,"##모":6284,"##력":6285,"##교":6286,"##정":6287,"##학":6288,"##회":6289,"##감":6290,"##동":6291,"##만":6292,"##착":6293,"##할":6294,"##있":6295,"##본":6296,"##쌀":6297,"##란":6298,"##2":6299,"##자":6300,"##유":6301,"##대":6302,"##한":6303,"##민":6304,"##국":6305,"##을":6306,"##명":6307,"##내":6308,"##스":6309,"##파":6310,"##브":6311,"##랜":6312,"##드":6313,"##코":6314,"##멜":6315,"##렸":6316,"##왔":6317,"##찌":6318,"##깍":6319,"##료":6320,"##목":6321,"##재":6322,"##의":6323,"##점":6324,"##애":6325,"##춘":6326,"##랑":6327,"##즈":6328,"##테":6329,"##카":6330,"##와":6331,"##나":6332,"##올":6333,"##려":6334,"##를":6335,"##때":6336,"##씨":6337,"##셀":6338,"##프":6339,"##언":6340,"##보":6341,"##에":6342,"##레":6343,"##몇":6344,"##번":6345,"##꾸":6346,"##들":6347,"##으":6348,"##댓":6349,"##베":6350,"##저":6351,"##화":6352,"##촌":6353,"##엿":6354,"##면":6355,"##린":6356,"##포":6357,"##월":6358,"##중":6359,"##망":6360,"##제":6361,"##죽":6362,"##했":6363,"##캣":6364,"##싼":6365,"##마":6366,"##크":6367,"##사":6368,"##쓰":6369,"##느":6370,"##덕":6371,"##책":6372,"##선":6373,"##쫌":6374,"##치":6375,"##매":6376,"##인":6377,"##었":6378,"##단":6379,"##0":6380,"##맞":6381,"##았":6382,"##데":6383,"##용":6384,"##작":6385,"##물":6386,"##네":6387,"##곧":6388,"##찢":6389,"##구":6390,"##처":6391,"##년":6392,"##통":6393,"##금":6394,"##볍":6395,"##겨":6396,"##르":6397,"##효":6398,"##신":6399,"##적":6400,"##필":6401,"##준":6402,"##성":6403,"##일":6404,"##소":6405,"##형":6406,"##F":6407,"##O":6408,"##C":6409,"##U":6410,"##S":6411,"##권":6412,"##투":6413,"##탁":6414,"##H":6415,"##A":6416,"##촉":6417,"##억":6418,"##오":6419,"##냐":6420,"##뤘":6421,"##야":6422,"##되":6423,"##북":6424,"##경":6425,"##협":6426,"##루":6427,"##없":6428,"##배":6429,"##열":6430,"##친":6431,"##터":6432,"##떻":6433,"##결":6434,"##같":6435,"##얘":6436,"##급":6437,"##안":6438,"##출":6439,"##컷":6440,"##넷":6441,"##생":6442,"##각":6443,"##업":6444,"##뎃":6445,"##런":6446,"##함":6447,"##앞":6448,"##잡":6449,"##끝":6450,"##날":6451,"##그":6452,"##놔":6453,"##둬":6454,"##령":6455,"##므":6456,"##약":6457,"##칫":6458,"##햇":6459,"##분":6460,"##손":6461,"##6":6462,"##3":6463,"##댐":6464,"##해":6465,"##발":6466,"##짓":6467,"##달":6468,"##법":6469,"##캐":6470,"##휴":6471,"##타":6472,"##놓":6473,"##글":6474,"##공":6475,"##엘":6476,"##더":6477,"##태":6478,"##킨":6479,"##훈":6480,"##툰":6481,"##딩":6482,"##승":6483,"##계":6484,"##토":6485,"##록":6486,"##벽":6487,"##영":6488,"##역":6489,"##뭐":6490,"##놨":6491,"##남":6492,"##람":6493,"##너":6494,"##호":6495,"##음":6496,"##뢰":6497,"##져":6498,"##깃":6499,"##독":6500,"##백":6501,"##우":6502,"##래":6503,"##개":6504,"##장":6505,"##방":6506,"##줘":6507,"##반":6508,"##던":6509,"##팅":6510,"##돼":6511,"##겟":6512,"##양":6513,"##체":6514,"##험":6515,"##비":6516,"##든":6517,"##훠":6518,"##슽":6519,"##격":6520,"##차":6521,"##됐":6522,"##봐":6523,"##께":6524,"##7":6525,"##9":6526,"##전":6527,"##삼":6528,"##평":6529,"##얻":6530,"##먹":6531,"##팔":6532,"##줄":6533,"##쟁":6534,"##떠":6535,"##술":6536,"##군":6537,"##였":6538,"##며":6539,"##찐":6540,"##머":6541,"##행":6542,"##여":6543,"##박":6544,"##웨":6545,"##븐":6546,"##빨":6547,"##갱":6548,"##색":6549,"##깔":6550,"##미":6551,"##휘":6552,"##랬":6553,"##변":6554,"##론":6555,"##류":6556,"##당":6557,"##갔":6558,"##실":6559,"##케":6560,"##움":6561,"##잘":6562,"##못":6563,"##노":6564,"##쨍":6565,"##논":6566,"##직":6567,"##운":6568,"##청":6569,"##트":6570,"##왕":6571,"##쫄":6572,"##X":6573,"##혀":6574,"##않":6575,"##티":6576,"##패":6577,"##쉬":6578,"##렇":6579,"##락":6580,"##산":6581,"##K":6582,"##육":6583,"##눈":6584,"##1":6585,"##짜":6586,"##활":6587,"##살":6588,"##석":6589,"##속":6590,"##넘":6591,"##관":6592,"##른":6593,"##M":6594,"##섭":6595,"##취":6596,"##량":6597,"##갑":6598,"##먼":6599,"##질":6600,"##압":6601,"##강":6602,"##심":6603,"##껏":6604,"##납":6605,"##검":6606,"##뒤":6607,"##임":6608,"##벌":6609,"##확":6610,"##켜":6611,"##곳":6612,"##헤":6613,"##8":6614,"##밥":6615,"##럼":6616,"##뿐":6617,"##빠":6618,"##됨":6619,"##섹":6620,"##4":6621,"##뮤":6622,"##션":6623,"##밀":6624,"##따":6625,"##k":6626,"##g":6627,"##항":6628,"##허":6629,"##돈":6630,"##혼":6631,"##퍼":6632,"##클":6633,"##맺":6634,"##났":6635,"##잊":6636,"##합":6637,"##닼":6638,"##롤":6639,"##헐":6640,"##펙":6641,"##새":6642,"##간":6643,"##5":6644,"##불":6645,"##곸":6646,"##썻":6647,"##뵈":6648,"##껄":6649,"##말":6650,"##탕":6651,"##왼":6652,"##쪽":6653,"##m":6654,"##q":6655,"##p":6656,"##T":6657,"##륜":6658,"##센":6659,"##펑":6660,"##쥬":6661,"##궈":6662,"##두":6663,"##긴":6664,"##플":6665,"##깐":6666,"##멋":6667,"##긍":6668,"##롬":6669,"##쁜":6670,"##습":6671,"##팩":6672,"##꽂":6673,"##받":6674,"##순":6675,"##홍":6676,"##봤":6677,"##쇼":6678,"##창":6679,"##닌":6680,"##병":6681,"##녜":6682,"##외":6683,"##채":6684,"##땅":6685,"##득":6686,"##뺐":6687,"##숙":6688,"##눌":6689,"##둥":6690,"##견":6691,"##묘":6692,"##i":6693,"##r":6694,"##h":6695,"##챙":6696,"##흐":6697,"##최":6698,"##널":6699,"##종":6700,"##봄":6701,"##씬":6702,"##접":6703,"##닥":6704,"##응":6705,"##탄":6706,"##놀":6707,"##디":6708,"##워":6709,"##귀":6710,"##송":6711,"##퀴":6712,"##냠":6713,"##챔":6714,"##될":6715,"##힘":6716,"##잖":6717,"##I":6718,"##캠":6719,"##잼":6720,"##잉":6721,"##향":6722,"##팀":6723,"##욕":6724,"##웃":6725,"##념":6726,"##댔":6727,"##죠":6728,"##꺄":6729,"##츠":6730,"##액":6731,"##쉐":6732,"##닦":6733,"##위":6734,"##듯":6735,"##풀":6736,"##꼭":6737,"##끼":6738,"##잣":6739,"##볼":6740,"##판":6741,"##멍":6742,"##d":6743,"##c":6744,"##앤":6745,"##온":6746,"##솔":6747,"##택":6748,"##n":6749,"##족":6750,"##입":6751,"##엔":6752,"##넓":6753,"##난":6754,"##슴":6755,"##김":6756,"##규":6757,"##척":6758,"##알":6759,"##s":6760,"##t":6761,"##셔":6762,"##농":6763,"##j":6764,"##왓":6765,"##E":6766,"##N":6767,"##o":6768,"##y":6769,"##슬":6770,"##칙":6771,"##놈":6772,"##특":6773,"##례":6774,"##잭":6775,"##범":6776,"##샘":6777,"##칸":6778,"##킹":6779,"##많":6780,"##죄":6781,"##롭":6782,"##혔":6783,"##괘":6784,"##씸":6785,"##빛":6786,"##퀘":6787,"##턴":6788,"##후":6789,"##좋":6790,"##침":6791,"##렀":6792,"##꾼":6793,"##꿔":6794,"##몾":6795,"##믿":6796,"##된":6797,"##빡":6798,"##셨":6799,"##콧":6800,"##핑":6801,"##탐":6802,"##끄":6803,"##v":6804,"##누":6805,"##똥":6806,"##콥":6807,"##엄":6808,"##싫":6809,"##x":6810,"##럽":6811,"##품":6812,"##환":6813,"##싸":6814,"##익":6815,"##커":6816,"##메":6817,"##존":6818,"##초":6819,"##또":6820,"##u":6821,"##총":6822,"##현":6823,"##떼":6824,"##겁":6825,"##텐":6826,"##텍":6827,"##앙":6828,"##큼":6829,"##됩":6830,"##름":6831,"##혜":6832,"##땜":6833,"##읍":6834,"##삭":6835,"##냥":6836,"##숨":6837,"##왜":6838,"##랄":6839,"##천":6840,"##찍":6841,"##쌍":6842,"##털":6843,"##녀":6844,"##맛":6845,"##편":6846,"##랰":6847,"##랍":6848,"##찬":6849,"##쿡":6850,"##픔":6851,"##닫":6852,"##림":6853,"##축":6854,"##늘":6855,"##별":6856,"##찾":6857,"##꿀":6858,"##툴":6859,"##획":6860,"##갓":6861,"##률":6862,"##L":6863,"##쾅":6864,"##틀":6865,"##졸":6866,"##광":6867,"##닭":6868,"##탘":6869,"##윈":6870,"##넼":6871,"##춰":6872,"##똑":6873,"##D":6874,"##봉":6875,"##길":6876,"##능":6877,"##립":6878,"##셈":6879,"##폰":6880,"##녓":6881,"##담":6882,"##닐":6883,"##복":6884,"##엇":6885,"##징":6886,"##곡":6887,"##폐":6888,"##럴":6889,"##철":6890,"##늠":6891,"##뿌":6892,"##맹":6893,"##찮":6894,"##됀":6895,"##찰":6896,"##완":6897,"##얀":6898,"##악":6899,"##블":6900,"##셉":6901,"##돌":6902,"##욬":6903,"##솟":6904,"##울":6905,"##젓":6906,"##얔":6907,"##딱":6908,"##골":6909,"##랐":6910,"##낙":6911,"##넣":6912,"##련":6913,"##뎈":6914,"##줬":6915,"##늦":6916,"##뀐":6917,"##슨":6918,"##층":6919,"##렐":6920,"##뜬":6921,"##멱":6922,"##뵹":6923,"##콘":6924,"##탈":6925,"##퇴":6926,"##황":6927,"##풍":6928,"##롱":6929,"##젼":6930,"##꼈":6931,"##몸":6932,"##빵":6933,"##쇄":6934,"##b":6935,"##f":6936,"##펴":6937,"##페":6938,"##냨":6939,"##둘":6940,"##첨":6941,"##왠":6942,"##폭":6943,"##졌":6944,"##댑":6945,"##뜨":6946,"##럭":6947,"##막":6948,"##쩔":6949,"##잎":6950,"##즹":6951,"##씽":6952,"##잇":6953,"##뀔":6954,"##쳐":6955,"##섬":6956,"##덤":6957,"##쐬":6958,"##헬":6959,"##웹":6960,"##붙":6961,"##룰":6962,"##냔":6963,"##텔":6964,"##멈":6965,"##혹":6966,"##템":6967,"##잠":6968,"##싯":6969,"##율":6970,"##맡":6971,"##P":6972,"##꺼":6973,"##랭":6974,"##펀":6975,"##녘":6976,"##윗":6977,"##흡":6978,"##꼬":6979,"##싴":6980,"##뀌":6981,"##궁":6982,"##z":6983,"##륙":6984,"##탓":6985,"##섯":6986,"##갯":6987,"##탑":6988,"##긔":6989,"##껀":6990,"##츄":6991,"##십":6992,"##쮸":6993,"##룸":6994,"##힌":6995,"##낱":6996,"##앜":6997,"##릴":6998,"##빈":6999,"##덴":7000,"##쌤":7001,"##딴":7002,"##슷":7003,"##둣":7004,"##렴":7005,"##밤":7006,"##충":7007,"##측":7008,"##희":7009,"##쩐":7010,"##B":7011,"##콩":7012,"##릃":7013,"##쿤":7014,"##굽":7015,"##닳":7016,"##빗":7017,"##쿼":7018,"##몰":7019,"##끌":7020,"##맨":7021,"##렬":7022,"##삽":7023,"##V":7024,"##셧":7025,"##뿍":7026,"##덜":7027,"##햊":7028,"##켈":7029,"##웠":7030,"##낸":7031,"##쎄":7032,"##빼":7033,"##R":7034,"##덩":7035,"##씩":7036,"##곱":7037,"##컨":7038,"##샙":7039,"##써":7040,"##밌":7041,"##콕":7042,"##돠":7043,"##빌":7044,"##냼":7045,"##째":7046,"##쳤":7047,"##줌":7048,"##댘":7049,"##깽":7050,"##뤅":7051,"##킬":7052,"##융":7053,"##낳":7054,"##흉":7055,"##혁":7056,"##벨":7057,"##핸":7058,"##링":7059,"##좌":7060,"##꽃":7061,"##젠":7062,"##옄":7063,"##즌":7064,"##컹":7065,"##짐":7066,"##놉":7067,"##뚝":7068,"##및":7069,"##켰":7070,"##밖":7071,"##잔":7072,"##쿨":7073,"##띠":7074,"##w":7075,"##폄":7076,"##훼":7077,"##밍":7078,"##쓸":7079,"##욜":7080,"##벗":7081,"##겹":7082,"##쥐":7083,"##걷":7084,"##칭":7085,"##듀":7086,"##햌":7087,"##흰":7088,"##썹":7089,"##괴":7090,"##짱":7091,"##몽":7092,"##줫":7093,"##암":7094,"##묵":7095,"##닠":7096,"##근":7097,"##걍":7098,"##겼":7099,"##뒀":7100,"##답":7101,"##뜻":7102,"##겪":7103,"##첩":7104,"##렘":7105,"##깝":7106,"##얐":7107,"##쑈":7108,"##갤":7109,"##쌔":7110,"##봣":7111,"##됬":7112,"##쭈":7113,"##슈":7114,"##샤":7115,"##닙":7116,"##략":7117,"##싹":7118,"##쏀":7119,"##잃":7120,"##틸":7121,"##염":7122,"##졉":7123,"##쩌":7124,"##칠":7125,"##뚜":7126,"##뵜":7127,"##랫":7128,"##델":7129,"##넴":7130,"##믄":7131,"##퓨":7132,"##윘":7133,"##떡":7134,"##훌":7135,"##륭":7136,"##쪼":7137,"##렄":7138,"##걱":7139,"##넨":7140,"##뉘":7141,"##됫":7142,"##뚱":7143,"##옷":7144,"##옹":7145,"##굿":7146,"##빂":7147,"##껍":7148,"##촬":7149,"##돎":7150,"##잿":7151,"##딘":7152,"##띵":7153,"##짝":7154,"##갠":7155,"##뒹":7156,"##쉰":7157,"##숭":7158,"##룡":7159,"##좀":7160,"##읽":7161,"##냅":7162,"##릭":7163,"##옥":7164,"##낭":7165,"##렁":7166,"##삿":7167,"##팬":7168,"##웅":7169,"##젤":7170,"##즉":7171,"##객":7172,"##냇":7173,"##춧":7174,"##닉":7175,"##룹":7176,"##균":7177,"##셰":7178,"##셜":7179,"##쓱":7180,"##튼":7181,"##깨":7182,"##쿄":7183,"##즘":7184,"##캄":7185,"##쏴":7186,"##푸":7187,"##혈":7188,"##켓":7189,"##닽":7190,"##냉":7191,"##뽑":7192,"##G":7193,"##겐":7194,"##쏠":7195,"##컴":7196,"##꼼":7197,"##녔":7198,"##듣":7199,"##낌":7200,"##룬":7201,"##붤":7202,"##굼":7203,"##뱅":7204,"##푼":7205,"##높":7206,"##뜀":7207,"##뇬":7208,"##롣":7209,"##죵":7210,"##꼴":7211,"##홉":7212,"##됳":7213,"##믐":7214,"##팡":7215,"##랙":7216,"##참":7217,"##먄":7218,"##믹":7219,"##슥":7220,"##밑":7221,"##빙":7222,"##샠":7223,"##먀":7224,"##극":7225,"##팸":7226,"##슼":7227,"##첫":7228,"##쯤":7229,"##댄":7230,"##쯧":7231,"##읺":7232,"##뜯":7233,"##옴":7234,"##핵":7235,"##갖":7236,"##앗":7237,"##봇":7238,"##픽":7239,"##틐":7240,"##쏙":7241,"##늉":7242,"##뭄":7243,"##랴":7244,"##곰":7245,"##쑤":7246,"##쒀":7247,"##냈":7248,"##셍":7249,"##둔":7250,"##쉴":7251,"##컵":7252,"##맙":7253,"##핫":7254,"##뱉":7255,"##혐":7256,"##곤":7257,"##웜":7258,"##닷":7259,"##짤":7260,"##듈":7261,"##갚":7262,"##괄":7263,"##핳":7264,"##힙":7265,"##렌":7266,"##닛":7267,"##딪":7268,"##욯":7269,"##찡":7270,"##웡":7271,"##W":7272,"##틱":7273,"##힐":7274,"##헌":7275,"##쪄":7276,"##삑":7277,"##쏜":7278,"##눠":7279,"##삘":7280,"##깊":7281,"##샛":7282,"##닮":7283,"##앵":7284,"##퀸":7285,"##밋":7286,"##꽁":7287,"##뻘":7288,"##램":7289,"##셋":7290,"##쟈":7291,"##끊":7292,"##엉":7293,"##튀":7294,"##륵":7295,"##뉴":7296,"##씌":7297,"##뜰":7298,"##딸":7299,"##렷":7300,"##폼":7301,"##녹":7302,"##엣":7303,"##숯":7304,"##궐":7305,"##뎅":7306,"##긐":7307,"##갇":7308,"##덧":7309,"##뺏":7310,"##멸":7311,"##벅":7312,"##됌":7313,"##랏":7314,"##겄":7315,"##즐":7316,"##줍":7317,"##뒷":7318,"##뻣":7319,"##탠":7320,"##쏘":7321,"##쎵":7322,"##짘":7323,"##썸":7324,"##엌":7325,"##쎀":7326,"##옵":7327,"##쌉":7328,"##쁘":7329,"##찻":7330,"##꿈":7331,"##몬":7332,"##씁":7333,"##뻐":7334,"##떤":7335,"##횡":7336,"##쟤":7337,"##긋":7338,"##밟":7339,"##쑬":7340,"##콜":7341,"##굣":7342,"##홀":7343,"##퓰":7344,"##겻":7345,"##햏":7346,"##궂":7347,"##톤":7348,"##콤":7349,"##텅":7350,"##뺨":7351,"##뻡":7352,"##탬":7353,"##쫏":7354,"##찿":7355,"##탱":7356,"##겅":7357,"##훨":7358,"##밸":7359,"##윤":7360,"##렉":7361,"##릇":7362,"##깡":7363,"##옆":7364,"##뷰":7365,"##쟝":7366,"##잰":7367,"##뇽":7368,"##퀵":7369,"##숫":7370,"##볏":7371,"##짚":7372,"##괜":7373,"##쩍":7374,"##낼":7375,"##썼":7376,"##맘":7377,"##멘":7378,"##킵":7379,"##떳":7380,"##꾹":7381,"##쭉":7382,"##딤":7383,"##횽":7384,"##붹":7385,"##롸":7386,"##롯":7387,"##낀":7388,"##톱":7389,"##슌":7390,"##늼":7391,"##깎":7392,"##맥":7393,"##칩":7394,"##껴":7395,"##젝":7396,"##굉":7397,"##엠":7398,"##숲":7399,"##큰":7400,"##쌓":7401,"##엑":7402,"##흠":7403,"##썌":7404,"##릉":7405,"##J":7406,"##핍":7407,"##얖":7408,"##랩":7409,"##찜":7410,"##쉑":7411,"##춤":7412,"##톰":7413,"##칼":7414,"##묶":7415,"##눔":7416,"##쟌":7417,"##괭":7418,"##켠":7419,"##잏":7420,"##뷔":7421,"##넹":7422,"##껌":7423,"##텨":7424,"##뚫":7425,"##툭":7426,"##샀":7427,"##큐":7428,"##꽈":7429,"##첸":7430,"##렙":7431,"##뾰":7432,"##숍":7433,"##렵":7434,"##띄":7435,"##봅":7436,"##틴":7437,"##넌":7438,"##갬":7439,"##횟":7440,"##빔":7441,"##딨":7442,"##뻔":7443,"##둑":7444,"##찝":7445,"##첼":7446,"##샹":7447,"##섶":7448,"##댗":7449,"##뼈":7450,"##쫒":7451,"##턱":7452,"##흘":7453,"##릅":7454,"##녕":7455,"##롴":7456,"##놯":7457,"##챕":7458,"##녁":7459,"##괸":7460,"##딧":7461,"##늬":7462,"##텡":7463,"##펠":7464,"##벳":7465,"##씀":7466,"##쎈":7467,"##쩝":7468,"##쁨":7469,"##틔":7470,"##쉭":7471,"##튜":7472,"##닝":7473,"##뒈":7474,"##Y":7475,"##샵":7476,"##캉":7477,"##됄":7478,"##챝":7479,"##벤":7480,"##땐":7481,"##늑":7482,"##찼":7483,"##썩":7484,"##뜸":7485,"##뤼":7486,"##쿵":7487,"##낮":7488,"##겜":7489,"##뎁":7490,"##닄":7491,"##킷":7492,"##쉨":7493,"##챡":7494,"##듭":7495,"##캔":7496,"##닸":7497,"##흙":7498,"##섴":7499,"##딜":7500,"##뭔":7501,"##냘":7502,"##쾌":7503,"##땡":7504,"##먠":7505,"##곯":7506,"##멩":7507,"##낰":7508,"##늗":7509,"##붕":7510,"##춥":7511,"##눼":7512,"##뀜":7513,"##맄":7514,"##뱀":7515,"##곽":7516,"##멀":7517,"##샌":7518,"##끈":7519,"##욱":7520,"##뛰":7521,"##뱔":7522,"##짖":7523,"##팰":7524,"##룝":7525,"##켯":7526,"##웽":7527,"##쌌":7528,"##뻑":7529,"##츱":7530,"##쨘":7531,"##빤":7532,"##뇌":7533,"##Q":7534,"##쌰":7535,"##쵸":7536,"##꿉":7537,"##죈":7538,"##밨":7539,"##뤌":7540,"##걀":7541,"##룩":7542,"##쳦":7543,"##쉽":7544,"##윙":7545,"##짆":7546,"##엥":7547,"##핌":7548,"##끔":7549,"##꼰":7550,"##흑":7551,"##솥":7552,"##뎠":7553,"##똘":7554,"##콛":7555,"##듹":7556,"##껅":7557,"##킥":7558,"##앉":7559,"##펜":7560,"##묻":7561,"##댈":7562,"##뺄":7563,"##뼛":7564,"##낫":7565,"##밭":7566,"##쨩":7567,"##뽀":7568,"##뮬":7569,"##낄":7570,"##컬":7571,"##럿":7572,"##얄":7573,"##팍":7574,"##짧":7575,"##밴":7576,"##갸":7577,"##읒":7578,"##궉":7579,"##잌":7580,"##겸":7581,"##뮨":7582,"##앨":7583,"##젔":7584,"##썰":7585,"##섰":7586,"##톡":7587,"##츤":7588,"##Z":7589,"##븥":7590,"##탔":7591,"##둡":7592,"##쁠":7593,"##렝":7594,"##엽":7595,"##얹":7596,"##욧":7597,"##붓":7598,"##닣":7599,"##낯":7600,"##홈":7601,"##흔":7602,"##밎":7603,"##넬":7604,"##녠":7605,"##싱":7606,"##갹":7607,"##뎨":7608,"##왑":7609,"##밝":7610,"##둠":7611,"##쩜":7612,"##렛":7613,"##겡":7614,"##룽":7615,"##쯔":7616,"##옶":7617,"##돋":7618,"##밬":7619,"##즁":7620,"##팽":7621,"##엎":7622,"##귄":7623,"##겉":7624,"##굳":7625,"##껐":7626,"##쨋":7627,"##맵":7628,"##튕":7629,"##팜":7630,"##왈":7631,"##햄":7632,"##쓴":7633,"##닿":7634,"##톨":7635,"##돔":7636,"##좃":7637,"##됏":7638,"##릎":7639,"##욘":7640,"##윽":7641,"##쉥":7642,"##놬":7643,"##냄":7644,"##얌":7645,"##욥":7646,"##윾":7647,"##놧":7648,"##쉘":7649,"##뤄":7650,"##빅":7651,"##핏":7652,"##밉":7653,"##딕":7654,"##벼":7655,"##숸":7656,"##퀄":7657,"##꼇":7658,"##졋":7659,"##뜩":7660,"##뽕":7661,"##쎼":7662,"##퇘":7663,"##삐":7664,"##핀":7665,"##듬":7666,"##덮":7667,"##짠":7668,"##뎬":7669,"##늄":7670,"##덥":7671,"##잽":7672,"##튈":7673,"##슙":7674,"##맣":7675,"##큿":7676,"##밧":7677,"##쩡":7678,"##벙":7679,"##뎌":7680,"##볶":7681,"##헣":7682,"##흫":7683,"##엨":7684,"##헝":7685,"##틈":7686,"##놋":7687,"##앓":7688,"##댕":7689,"##셸":7690,"##몫":7691,"##힝":7692,"##끠":7693,"##옮":7694,"##쎅":7695,"##웟":7696,"##켄":7697,"##슘":7698,"##갰":7699,"##툥":7700,"##곶":7701,"##횝":7702,"##땍":7703,"##샬":7704,"##댸":7705,"##낵":7706,"##쌩":7707,"##쳔":7708,"##덱":7709,"##뿔":7710,"##쇠":7711,"##핡":7712,"##훔":7713,"##뭘":7714,"##룻":7715,"##뻥":7716,"##꺠":7717,"##툼":7718,"##뭍":7719,"##팎":7720,"##츙":7721,"##췄":7722,"##쿰":7723,"##젖":7724,"##튐":7725,"##욍":7726,"##좡":7727,"##뫅":7728,"##눞":7729,"##쉈":7730,"##셤":7731,"##늙":7732,"##뺌":7733,"##듡":7734,"##읃":7735,"##씮":7736,"##쨔":7737,"##뵤":7738,"##솜":7739,"##샸":7740,"##뿜":7741,"##깅":7742,"##꼽":7743,"##옌":7744,"##씹":7745,"##렏":7746,"##뭥":7747,"##빚":7748,"##뎐":7749,"##쓔":7750,"##띨":7751,"##젯":7752,"##샊":7753,"##넝":7754,"##듵":7755,"##콴":7756,"##겓":7757,"##챈":7758,"##앟":7759,"##읂":7760,"##퍽":7761,"##펫":7762,"##랗":7763,"##꺾":7764,"##낑":7765,"##챗":7766,"##촛":7767,"##떵":7768,"##깁":7769,"##촐":7770,"##깰":7771,"##댜":7772,"##윌":7773,"##큭":7774,"##탭":7775,"##빻":7776,"##튬":7777,"##캬":7778,"##눕":7779,"##궤":7780,"##쒼":7781,"##샷":7782,"##찟":7783,"##팤":7784,"##딥":7785,"##읔":7786,"##셕":7787,"##넽":7788,"##텟":7789,"##땀":7790,"##렜":7791,"##붇":7792,"##쟎":7793,"##킴":7794,"##쒸":7795,"##즙":7796,"##솝":7797,"##앴":7798,"##뎀":7799,"##셐":7800,"##옭":7801,"##읻":7802,"##쏟":7803,"##뉨":7804,"##듴":7805,"##짇":7806,"##겈":7807,"##턀":7808,"##즣":7809,"##욤":7810,"##삶":7811,"##랔":7812,"##갗":7813,"##쥇":7814,"##잤":7815,"##꺽":7816,"##췬":7817,"##얏":7818,"##웁":7819,"##큇":7820,"##봍":7821,"##셩":7822,"##앱":7823,"##캡":7824,"##좆":7825,"##궄":7826,"##좁":7827,"##솤":7828,"##멕":7829,"##렠":7830,"##뚤":7831,"##똬":7832,"##륨":7833,"##쥑":7834,"##짬":7835,"##혓":7836,"##겧":7837,"##샾":7838,"##깉":7839,"##쳣":7840,"##딬":7841,"##읰":7842,"##탯":7843,"##넥":7844,"##넵":7845,"##쌈":7846,"##팥":7847,"##랖":7848,"##쫓":7849,"##섀":7850,"##뗬":7851,"##졔":7852,"##쌘":7853,"##랸":7854,"##떄":7855,"##엤":7856,"##짏":7857,"##쐈":7858,"##쑥":7859,"##킁":7860,"##봨":7861,"##퉤":7862,"##젊":7863,"##됔":7864,"##꿰":7865,"##몹":7866,"##햐":7867,"##숴":7868,"##졐":7869,"##웤":7870,"##쨰":7871,"##붑":7872,"##햤":7873,"##쳇":7874,"##닺":7875,"##폴":7876,"##띳":7877,"##깠":7878,"##띁":7879,"##댱":7880,"##끗":7881,"##싄":7882,"##믈":7883,"##큨":7884,"##헀":7885,"##콱":7886,"##뛴":7887,"##졍":7888,"##쥘":7889,"##긱":7890,"##잪":7891,"##햔":7892,"##톳":7893,"##펼":7894,"##펄":7895,"##끓":7896,"##낟":7897,"##찹":7898,"##팝":7899,"##랟":7900,"##빜":7901,"##귈":7902,"##틋":7903,"##홰":7904,"##늣":7905,"##찔":7906,"##촘":7907,"##죸":7908,"##썬":7909,"##풰":7910,"##빕":7911,"##짴":7912,"##묜":7913,"##쵼":7914,"##뺀":7915,"##맏":7916,"##윰":7917,"##덬":7918,"##랠":7919,"##멧":7920,"##읈":7921,"##퐁":7922,"##갛":7923,"##꽤":7924,"##둰":7925,"##웧":7926,"##멤":7927,"##곁":7928,"##끅":7929,"##굶":7930,"##둗":7931,"##덨":7932,"##옳":7933,"##뫼":7934,"##웬":7935,"##텝":7936,"##쮠":7937,"##힉":7938,"##뵙":7939,"##맀":7940,"##먕":7941,"##앖":7942,"##쫑":7943,"##놰":7944,"##싣":7945,"##빽":7946,"##툽":7947,"##숩":7948,"##슦":7949,"##톄":7950,"##흒":7951,"##헠":7952,"##뻤":7953,"##헥":7954,"##뉵":7955,"##켬":7956,"##냬":7957,"##푹":7958,"##봏":7959,"##웰":7960,"##윳":7961,"##쨌":7962,"##뮴":7963,"##껑":7964,"##셥":7965,"##뭇":7966,"##뿡":7967,"##팟":7968,"##빸":7969,"##맸":7970,"##쎴":7971,"##빱":7972,"##궘":7973,"##띤":7974,"##펭":7975,"##밈":7976,"##곈":7977,"##둴":7978,"##숰":7979,"##땔":7980,"##뤗":7981,"##핬":7982,"##쪌":7983,"##즤":7984,"##겔":7985,"##땄":7986,"##뤽":7987,"##헛":7988,"##긁":7989,"##퉁":7990,"##킄":7991,"##돗":7992,"##븨":7993,"##븅":7994,"##뉸":7995,"##켤":7996,"##옛":7997,"##롹":7998,"##뱃":7999,"##낚":8000,"##넫":8001,"##뙤":8002,"##끙":8003,"##튭":8004,"##곪":8005,"##컥":8006,"##곘":8007,"##돕":8008,"##텃":8009,"##맜":8010,"##꾬":8011,"##퀼":8012,"##흩":8013,"##틩":8014,"##릐":8015,"##눜":8016,"##쌜":8017,"##딛":8018,"##듪":8019,"##깜":8020,"##몀":8021,"##옼":8022,"##땬":8023,"##돨":8024,"##녤":8025,"##쎌":8026,"##쎘":8027,"##궠":8028,"##짹":8029,"##덟":8030,"##펩":8031,"##꼐":8032,"##몃":8033,"##읅":8034,"##댁":8035,"##냑":8036,"##쫙":8037,"##쭐":8038,"##귐":8039,"##뽤":8040,"##죤":8041,"##찤":8042,"##슛":8043,"##앀":8044,"##왐":8045,"##섞":8046,"##졎":8047,"##꽉":8048,"##챵":8049,"##룐":8050,"##헡":8051,"##쟉":8052,"##몐":8053,"##쿽":8054,"##촨":8055,"##뱄":8056,"##큘":8057,"##젋":8058,"##멊":8059,"##솄":8060,"##킅":8061,"##졷":8062,"##긌":8063,"##땽":8064,"##윕":8065,"##뼉":8066,"##왲":8067,"##풋":8068,"##싢":8069,"##샎":8070,"##꺊":8071,"##끍":8072,"##깕":8073,"##젱":8074,"##벡":8075,"##볐":8076,"##갘":8077,"##쌕":8078,"##짗":8079,"##뭉":8080,"##핥":8081,"##냌":8082,"##얕":8083,"##벰":8084,"##밫":8085,"##쓥":8086,"##곗":8087,"##캪":8088,"##썽":8089,"##듦":8090,"##엡":8091,"##꼿":8092,"##벱":8093,"##뻬":8094,"##돜":8095,"##꺔":8096,"##쯱":8097,"##읎":8098,"##볹":8099,"##츰":8100,"##맬":8101,"##윷":8102,"##뎉":8103,"##겍":8104,"##뭣":8105,"##궜":8106,"##뎄":8107,"##헷":8108,"##쭛":8109,"##겎":8110,"##뺑":8111,"##겕":8112,"##엏":8113,"##깧":8114,"##퓡":8115,"##샐":8116,"##홧":8117,"##믜":8118,"##샅":8119,"##뭡":8120,"##땟":8121,"##뻗":8122,"##깟":8123,"##덲":8124,"##쉔":8125,"##쩨":8126,"##폇":8127,"##뽄":8128,"##땃":8129,"##핼":8130,"##멌":8131,"##씻":8132,"##밷":8133,"##곀":8134,"##칵":8135,"##땩":8136,"##슐":8137,"##햬":8138,"##뤠":8139,"##켘":8140,"##딫":8141,"##슭":8142,"##츨":8143,"##폿":8144,"##씰":8145,"##깋":8146,"##랃":8147,"##듷":8148,"##닯":8149,"##걐":8150,"##삥":8151,"##볕":8152,"##겆":8153,"##튠":8154,"##휩":8155,"##껜":8156,"##딹":8157,"##띡":8158,"##쬬":8159,"##빴":8160,"##냒":8161,"##붅":8162,"##넸":8163,"##뗄":8164,"##훅":8165,"##훜":8166,"##뺭":8167,"##맷":8168,"##몆":8169,"##뀨":8170,"##궇":8171,"##숌":8172,"##샥":8173,"##왤":8174,"##헙":8175,"##덯":8176,"##욌":8177,"##긕":8178,"##됰":8179,"##챀":8180,"##빧":8181,"##뽁":8182,"##팻":8183,"##펌":8184,"##맟":8185,"##쟜":8186,"##잦":8187,"##푱":8188,"##샨":8189,"##곙":8190,"##낍":8191,"##혠":8192,"##켁":8193,"##렿":8194,"##튄":8195,"##횐":8196,"##릍":8197,"##캍":8198,"##짢":8199,"##뷱":8200,"##벵":8201,"##뱐":8202,"##붐":8203,"##텀":8204,"##펏":8205,"##셴":8206,"##볌":8207,"##헹":8208,"##넉":8209,"##엮":8210,"##슾":8211,"##좉":8212,"##낡":8213,"##쨈":8214,"##헸":8215,"##륀":8216,"##쭞":8217,"##븜":8218,"##숏":8219,"##슝":8220,"##힛":8221,"##큪":8222,"##껼":8223,"##깈":8224,"##쮜":8225,"##똔":8226,"##븍":8227,"##켐":8228,"##큠":8229,"##읁":8230,"##읹":8231,"##릌":8232,"##앰":8233,"##헨":8234,"##옿":8235,"##헧":8236,"##꿎":8237,"##쪗":8238,"##솨":8239,"##줙":8240,"##캘":8241,"##졈":8242,"##싿":8243,"##뚯":8244,"##먈":8245,"##붉":8246,"##핝":8247,"##촙":8248,"##빰":8249,"##앸":8250,"##뺴":8251,"##홬":8252,"##뗘":8253,"##굠":8254,"##옇":8255,"##헿":8256,"##걔":8257,"##넛":8258,"##캇":8259,"##푲":8260,"##겝":8261,"##챠":8262,"##쿸":8263,"##펐":8264,"##킈":8265,"##잫":8266,"##닏":8267,"##콰":8268,"##쎔":8269,"##맠":8270,"##뮹":8271,"##팁":8272,"##섲":8273,"##걈":8274,"##쎠":8275,"##잨":8276,"##멓":8277,"##쉼":8278,"##뮌":8279,"##짛":8280,"##힣":8281,"##첬":8282,"##졓":8283,"##챌":8284,"##븉":8285,"##엾":8286,"##푠":8287,"##돤":8288,"##댬":8289,"##벞":8290,"##겂":8291,"##섮":8292,"##옜":8293,"##앋":8294,"##읶":8295,"##샜":8296,"##쟄":8297,"##숟":8298,"##줏":8299,"##읋":8300,"##컸":8301,"##셮":8302,"##뀪":8303,"##얇":8304,"##깇":8305,"##놑":8306,"##둿":8307,"##깼":8308,"##섺":8309,"##귤":8310,"##꿨":8311,"##겋":8312,"##걋":8313,"##깆":8314,"##훗":8315,"##돳":8316,"##겤":8317,"##읜":8318,"##왰":8319,"##좽":8320,"##맴":8321,"##봬":8322,"##웆":8323,"##뜡":8324,"##뱁":8325,"##볻":8326,"##놐":8327,"##얍":8328,"##엊":8329,"##켸":8330,"##칀":8331,"##뺠":8332,"##캥":8333,"##눅":8334,"##럈":8335,"##듸":8336,"##냰":8337,"##곺":8338,"##땈":8339,"##젵":8340,"##륔":8341,"##됒":8342,"##퐄":8343,"##셬":8344,"##긷":8345,"##줰":8346,"##폈":8347,"##빩":8348,"##깄":8349,"##깤":8350,"##흏":8351,"##줚":8352,"##얶":8353,"##겢":8354,"##섕":8355,"##챘":8356,"##쾨":8357,"##뙨":8358,"##쫗":8359,"##꼤":8360,"##짞":8361,"##퀀":8362,"##죡":8363,"##썅":8364,"##쁀":8365,"##팹":8366,"##껭":8367,"##왭":8368,"##탖":8369,"##뢀":8370,"##쐥":8371,"##됴":8372,"##잆":8373,"##흣":8374,"##뺘":8375,"##흄":8376,"##꼮":8377,"##탆":8378,"##큌":8379,"##킼":8380,"##헉":8381,"##땨":8382,"##뵐":8383,"##볋":8384,"##덛":8385,"##깓":8386,"##삔":8387,"##쥔":8388,"##홣":8389,"##껫":8390,"##굔":8391,"##탰":8392,"##욋":8393,"##겦":8394,"##챱":8395,"##몈":8396,"##깥":8397,"##궛":8398,"##챃":8399,"##뱓":8400,"##뗀":8401,"##왘":8402,"##잟":8403,"##췌":8404,"##핧":8405,"##홫":8406,"##햡":8407,"##핞":8408,"##뤀":8409,"##흼":8410,"##캌":8411,"##춉":8412,"##텁":8413,"##꽥":8414,"##릳":8415,"##쾡":8416,"##뉠":8417,"##꾤":8418,"##륑":8419,"##밣":8420,"##늨":8421,"##곻":8422,"##얜":8423,"##숑":8424,"##왛":8425,"##쉅":8426,"##궹":8427,"##엫":8428,"##뎋":8429,"##꿧":8430,"##줗":8431,"##쑨":8432,"##빳":8433,"##밞":8434,"##쒞":8435,"##셒":8436,"##럾":8437,"##걑":8438,"##줠":8439,"##옘":8440,"##쪙":8441,"##꿍":8442,"##쳬":8443,"##줔":8444,"##쏭":8445,"##쥤":8446,"##쳌":8447,"##뻇":8448,"##뭏":8449,"##잗":8450,"##팠":8451,"##쫘":8452,"##촏":8453,"##탷":8454,"##돚":8455,"##왱":8456,"##붛":8457,"##줭":8458,"##꽐":8459,"##눀":8460,"##귝":8461,"##롷":8462,"##짼":8463,"##뼜":8464,"##굵":8465,"##앩":8466,"##듓":8467,"##뢔":8468,"##덷":8469,"##쑵":8470,"##텈":8471,"##튤":8472,"##킸":8473,"##짒":8474,"##챤":8475,"##얽":8476,"##뽈":8477,"##뉭":8478,"##핰":8479,"##듳":8480,"##빋":8481,"##콌":8482,"##떴":8483,"##좍":8484,"##캤":8485,"##됃":8486,"##앍":8487,"##뀝":8488,"##켔":8489,"##띰":8490,"##땠":8491,"##챁":8492,"##쟘":8493,"##뫀":8494,"##큽":8495,"##죳":8496,"##캅":8497,"##릠":8498,"##싀":8499,"##뚣":8500,"##깻":8501,"##졵":8502,"##쒜":8503,"##햣":8504,"##옻":8505,"##괞":8506,"##썜":8507,"##끽":8508,"##짭":8509,"##뇟":8510,"##딍":8511,"##삡":8512,"##왁":8513,"##읉":8514,"##듐":8515,"##웩":8516,"##쏨":8517,"##뫠":8518,"##슉":8519,"##쳑":8520,"##땤":8521,"##탤":8522,"##뙇":8523,"##땸":8524,"##쯘":8525,"##뫄":8526,"##즛":8527,"##꺌":8528,"##븀":8529,"##뉰":8530,"##웾":8531,"##웈":8532,"##눤":8533,"##쬐":8534,"##닊":8535,"##뱜":8536,"##엍":8537,"##칮":8538,"##뷴":8539,"##힠":8540,"##옢":8541,"##왹":8542,"##첢":8543,"##뇠":8544,"##휜":8545,"##햅":8546,"##늫":8547,"##숄":8548,"##봈":8549,"##솹":8550,"##귘":8551,"##헍":8552,"##숔":8553,"##앐":8554,"##믁":8555,"##칟":8556,"##훙":8557,"##씐":8558,"##븟":8559,"##싳":8560,"##꽝":8561,"##촤":8562,"##덫":8563,"##댯":8564,"##륌":8565,"##됭":8566,"##꺜":8567,"##넿":8568,"##괼":8569,"##륐":8570,"##렂":8571,"##늴":8572,"##꺅":8573,"##풉":8574,"##쭘":8575,"##듄":8576,"##횔":8577,"##싰":8578,"##갳":8579,"##슫":8580,"##죙":8581,"##갭":8582,"##쯥":8583,"##넜":8584,"##숱":8585,"##굌":8586,"##껨":8587,"##얺":8588,"##늪":8589,"##롄":8590,"##캨":8591,"##멬":8592,"##첮":8593,"##컫":8594,"##걌":8595,"##봘":8596,"##쐐":8597,"##꿋":8598,"##앆":8599,"##뤈":8600,"##쉣":8601,"##핽":8602,"##뎡":8603,"##헜":8604,"##읠":8605,"##햘":8606,"##뼤":8607,"##멎":8608,"##끡":8609,"##샄":8610,"##홓":8611,"##옽":8612,"##듕":8613,"##짰":8614,"##밪":8615,"##젏":8616,"##늕":8617,"##랕":8618,"##퇄":8619,"##괵":8620,"##뒜":8621,"##젹":8622,"##쳥":8623,"##꼌":8624,"##눳":8625,"##칰":8626,"##셌":8627,"##뢨":8628,"##뇰":8629,"##팄":8630,"##쑴":8631,"##멐":8632,"##끕":8633,"##럐":8634,"##텬":8635,"##돵":8636,"##젛":8637,"##뽐":8638,"##쨐":8639,"##꽦":8640,"##뷸":8641,"##뱡":8642,"##텼":8643,"##춸":8644,"##톩":8645,"##픞":8646,"##묭":8647,"##펍":8648,"##녂":8649,"##샆":8650,"##쎳":8651,"##뮈":8652,"##씯":8653,"##샴":8654,"##럑":8655,"##껰":8656,"##짔":8657,"##홯":8658,"##켴":8659,"##봫":8660,"##쥴":8661,"##랳":8662,"##괌":8663,"##눴":8664,"##껒":8665,"##돞":8666,"##쫀":8667,"##휼":8668,"##얗":8669,"##쌧":8670,"##낏":8671,"##쥰":8672,"##쑹":8673,"##싑":8674,"##맑":8675,"##뭌":8676,"##넙":8677,"##앚":8678,"##꿇":8679,"##읙":8680,"##냡":8681,"##쿜":8682,"##욭":8683,"##휠":8684,"##췃":8685,"##컅":8686,"##탸":8687,"##턐":8688,"##컼":8689,"##씼":8690,"##컾":8691,"##찭":8692,"##텦":8693,"##졀":8694,"##픅":8695,"##럄":8696,"##갂":8697,"##웍":8698,"##쁩":8699,"##낲":8700,"##몿":8701,"##쟨":8702,"##뿰":8703,"##눰":8704,"##윅":8705,"##퐝":8706,"##곌":8707,"##싵":8708,"##눙":8709,"##맍":8710,"##쯜":8711,"##쏫":8712,"##엻":8713,"##긜":8714,"##냗":8715,"##뭬":8716,"##솖":8717,"##꾜":8718,"##샫":8719,"##댲":8720,"##챸":8721,"##샋":8722,"##씤":8723,"##슻":8724,"##삤":8725,"##뽱":8726,"##붜":8727,"##숼":8728,"##댠":8729,"##쿱":8730,"##촟":8731,"##냦":8732,"##멵":8733,"##팈":8734,"##쨉":8735,"##틳":8736,"##셯":8737,"##큮":8738,"##꺆":8739,"##흨":8740,"##젰":8741,"##얒":8742,"##뺩":8743,"##딲":8744,"##딈":8745,"##핦":8746,"##꾈":8747,"##됼":8748,"##넋":8749,"##듁":8750,"##볗":8751,"##컄":8752,"##텉":8753,"##곴":8754,"##삳":8755,"##싞":8756,"##즥":8757,"##쪜":8758,"##쭝":8759,"##뜼":8760,"##븓":8761,"##벚":8762,"##쉡":8763,"##솏":8764,"##낒":8765,"##촹":8766,"##쉙":8767,"##맊":8768,"##뫘":8769,"##짯":8770,"##꾀":8771,"##퐉":8772,"##싷":8773,"##챽":8774,"##쒥":8775,"##엵":8776,"##젬":8777,"##핮":8778,"##츕":8779,"##혬":8780,"##쥭":8781,"##갉":8782,"##늡":8783,"##첵":8784,"##믕":8785,"##냣":8786,"##뿅":8787,"##랼":8788,"##읗":8789,"##둛":8790,"##쉛":8791,"##뒓":8792,"##썪":8793,"##옐":8794,"##됙":8795,"##젇":8796,"##줃":8797,"##맆":8798,"##뵀":8799,"##쵹":8800,"##샏":8801,"##쇆":8802,"##럇":8803,"##럷":8804,"##떰":8805,"##눟":8806,"##꺙":8807,"##눗":8808,"##춴":8809,"##짙":8810,"##싧":8811,"##읭":8812,"##췍":8813,"##뷀":8814,"##휄":8815,"##췕":8816,"##뷇":8817,"##휇":8818,"##쌬":8819,"##뇻":8820,"##돴":8821,"##콸":8822,"##뾱":8823,"##낞":8824,"##렼":8825,"##떙":8826,"##뿟":8827,"##섁":8828,"##턺":8829,"##븡":8830,"##뎔":8831,"##쥡":8832,"##좇":8833,"##뭅":8834,"##쪹":8835,"##낃":8836,"##줒":8837,"##튱":8838,"##갺":8839,"##띸":8840,"##햑":8841,"##쨕":8842,"##냫":8843,"##붗":8844,"##숀":8845,"##읏":8846,"##픜":8847,"##슶":8848,"##짊":8849,"##틉":8850,"##핟":8851,"##떈":8852,"##뉜":8853,"##뽜":8854,"##닜":8855,"##뗔":8856,"##좦":8857,"##옫":8858,"##쐅":8859,"##낢":8860,"##웝":8861,"##렆":8862,"##씅":8863,"##릏":8864,"##귓":8865,"##혖":8866,"##첝":8867,"##넺":8868,"##뛸":8869,"##젲":8870,"##벻":8871,"##뺼":8872,"##뒄":8873,"##쭁":8874,"##쌨":8875,"##홋":8876,"##걩":8877,"##풒":8878,"##툿":8879,"##톧":8880,"##씝":8881,"##퓌":8882,"##넦":8883,"##춌":8884,"##땁":8885,"##짌":8886,"##뒝":8887,"##셱":8888,"##댴":8889,"##툇":8890,"##톈":8891,"##푯":8892,"##슺":8893,"##쩧":8894,"##툐":8895,"##랚":8896,"##잋":8897,"##롐":8898,"##늅":8899,"##뼝":8900,"##쎃":8901,"##쵕":8902,"##줆":8903,"##쓌":8904,"##땋":8905,"##펨":8906,"##놘":8907,"##핔":8908,"##띔":8909,"##긻":8910,"##퍈":8911,"##엦":8912,"##잴":8913,"##먿":8914,"##믾":8915,"##훟":8916,"##힇":8917,"##젚":8918,"##줳":8919,"##벋":8920,"##쯩":8921,"##껵":8922,"##꿘":8923,"##쳡":8924,"##듼":8925,"##쥽":8926,"##얙":8927,"##댇":8928,"##넠":8929,"##퇶":8930,"##귾":8931,"##닚":8932,"##긓":8933,"##츸":8934,"##쓕":8935,"##엙":8936,"##놌":8937,"##쎗":8938,"##퉵":8939,"##뗐":8940,"##꺵":8941,"##깖":8942,"##낔":8943,"##낕":8944,"##먗":8945,"##챜":8946,"##걵":8947,"##챦":8948,"##섷":8949,"##찧":8950,"##쒴":8951,"##늩":8952,"##뿝":8953,"##켭":8954,"##쨜":8955,"##왴":8956,"##뜽":8957,"##앎":8958,"##쾐":8959,"##뷕":8960,"##촵":8961,"##앂":8962,"##랅":8963,"##녈":8964,"##땝":8965,"##혘":8966,"##씋":8967,"##칞":8968,"##컈":8969,"##곷":8970,"##뤔":8971,"##줜":8972,"##봌":8973,"##꼵":8974,"##됍":8975,"##쟞":8976,"##뗏":8977,"##쯪":8978,"##맗":8979,"##뚬":8980,"##앳":8981,"##둟":8982,"##뱌":8983,"##탇":8984,"##깬":8985,"##퍠":8986,"##욷":8987,"##띃":8988,"##멨":8989,"##쀼":8990,"##챳":8991,"##뼘":8992,"##듫":8993,"##횃":8994,"##숵":8995,"##냍":8996,"##촣":8997,"##얿":8998,"##쭊":8999,"##꿂":9000,"##랒":9001,"##돸":9002,"##췡":9003,"##죻":9004,"##닢":9005,"##팗":9006,"##곂":9007,"##녴":9008,"##옺":9009,"##릫":9010,"##쫩":9011,"##퐤":9012,"##캏":9013,"##놇":9014,"##쇅":9015,"##끐":9016,"##볘":9017,"##띕":9018,"##캑":9019,"##큵":9020,"##뙥":9021,"##쭤":9022,"##뼌":9023,"##봠":9024,"##픗":9025,"##콯":9026,"##콭":9027,"##뫃":9028,"##띈":9029,"##귑":9030,"##뢋":9031,"##뚭":9032,"##뎊":9033,"##햝":9034,"##컁":9035,"##웂":9036,"##겾":9037,"##넄":9038,"##삯":9039,"##얬":9040,"##좈":9041,"##뼁":9042,"##솊":9043,"##넑":9044,"##쇽":9045,"##뭨":9046,"##풜":9047,"##톼":9048,"##핣":9049,"##깸":9050,"##쬼":9051,"##빟":9052,"##셖":9053,"##첲":9054,"##뤱":9055,"##쯕":9056,"##뉫":9057,"##멷":9058,"##뗴":9059,"##붖":9060,"##괙":9061,"##헳":9062,"##솓":9063,"##쌋":9064,"##뉔":9065,"##뺙":9066,"##끘":9067,"##꺀":9068,"##휸":9069,"##똇":9070,"##렺":9071,"##퐈":9072,"##봥":9073,"##듲":9074,"##쫭":9075,"##띾":9076,"##먾":9077,"##뮥":9078,"##깒":9079,"##뒙":9080,"##헑":9081,"##튘":9082,"##켱":9083,"##쵝":9084,"##얷":9085,"##륍":9086,"##쭬":9087,"##끆":9088,"##귺":9089,"##팧":9090,"##굑":9091,"##갞":9092,"##욪":9093,"##뫈":9094,"##맚":9095,"##텻":9096,"##돛":9097,"##췅":9098,"##꿩":9099,"##뛀":9100,"##쪘":9101,"##핷":9102,"##혽":9103,"##훰":9104,"##믇":9105,"##샂":9106,"##잍":9107,"##쭌":9108,"##밦":9109,"##읮":9110,"##맂":9111,"##팼":9112,"##짋":9113,"##챼":9114,"##퐌":9115,"##샇":9116,"##륩":9117,"##뢱":9118,"##슿":9119,"##퍄":9120,"##잧":9121,"##굨":9122,"##쌖":9123,"##냧":9124,"##퇵":9125,"##귴":9126,"##윸":9127,"##쐇":9128,"##괔":9129,"##뉑":9130,"##쌑":9131,"##댛":9132,"##랋":9133,"##쉒":9134,"##폨":9135,"##갼":9136,"##헴":9137,"##낗":9138,"##댝":9139,"##럳":9140,"##꾁":9141,"##됑":9142,"##츼":9143,"##렣":9144,"##롫":9145,"##꼹":9146,"##꿿":9147,"##랲":9148,"##깢":9149,"##먻":9150,"##릋":9151,"##쨚":9152,"##늛":9153,"##뱍":9154,"##싥":9155,"##쩖":9156,"##픕":9157,"##쳉":9158,"##쓉":9159,"##솧":9160,"##텋":9161,"##츌":9162,"##웕":9163,"##쒹":9164,"##큡":9165,"##붊":9166,"##넧":9167,"##츷":9168,"##츞":9169,"##긑":9170,"##뜹":9171,"##녿":9172,"##냤":9173,"##좨":9174,"##뱩":9175,"##욿":9176,"##룔":9177,"##좠":9178,"##봗":9179,"##빢":9180,"##똫":9181,"##젆":9182,"##댖":9183,"##즴":9184,"##륽":9185,"##텤":9186,"##앏":9187,"##흽":9188,"##캊":9189,"##큅":9190,"##쟐":9191,"##몪":9192,"##슁":9193,"##읐":9194,"##탉":9195,"##뱨":9196,"##탙":9197,"##튿":9198,"##퓸":9199,"##풔":9200,"##웋":9201,"##툅":9202,"##샣":9203,"##킫":9204,"##햭":9205,"##얃":9206,"##섻":9207,"##럤":9208,"##톅":9209,"##떽":9210,"##돟":9211,"##렊":9212,"##늰":9213,"##닪":9214,"##닶":9215,"##귁":9216,"##넒":9217,"##굡":9218,"##쨀":9219,"##죌":9220,"##댷":9221,"##헼":9222,"##쌥":9223,"##삸":9224,"##뤡":9225,"##퍀":9226,"##롲":9227,"##껠":9228,"##벐":9229,"##쌞":9230,"##뤕":9231,"##빝":9232,"##죗":9233,"##틑":9234,"##룟":9235,"##갲":9236,"##뽠":9237,"##팃":9238,"##믓":9239,"##읓":9240,"##뗜":9241,"##컿":9242,"##퐐":9243,"##쓒":9244,"##큥":9245,"##냪":9246,"##읕":9247,"##긿":9248,"##룁":9249,"##놜":9250,"##닁":9251,"##삠":9252,"##쥼":9253,"##헕":9254,"##묀":9255,"##껔":9256,"##썎":9257,"##앇":9258,"##휙":9259,"##뇸":9260,"##햛":9261,"##횤":9262,"##꿁":9263,"##쿧":9264,"##밯":9265,"##맢":9266,"##쫛":9267,"##싮":9268,"##옅":9269,"##녆":9270,"##탹":9271,"##띌":9272,"##믠":9273,"##쎕":9274,"##룅":9275,"##탂":9276,"##찅":9277,"##쾈":9278,"##줟":9279,"##핤":9280,"##줴":9281,"##몌":9282,"##줮":9283,"##껸":9284,"##홐":9285,"##툻":9286,"##쉇":9287,"##짫":9288,"##쬽":9289,"##텰":9290,"##뱝":9291,"##앛":9292,"##쐉":9293,"##곹":9294,"##섵":9295,"##뽝":9296,"##쉤":9297,"##뢈":9298,"##윜":9299,"##젭":9300,"##녇":9301,"##셁":9302,"##첟":9303,"##뗌":9304,"##놁":9305,"##켙":9306,"##봡":9307,"##햿":9308,"##볔":9309,"##슲":9310,"##썁":9311,"##찓":9312,"##엓":9313,"##삣":9314,"##싾":9315,"##똣":9316,"##걘":9317,"##홱":9318,"##훕":9319,"##훞":9320,"##솼":9321,"##탴":9322,"##섂":9323,"##뮐":9324,"##끜":9325,"##듨":9326,"##굇":9327,"##뷹":9328,"##씆":9329,"##뀬":9330,"##늏":9331,"##뺜":9332,"##챴":9333,"##솩":9334,"##쉾":9335,"##닾":9336,"##댣":9337,"##욽":9338,"##돱":9339,"##곬":9340,"##륫":9341,"##굥":9342,"##옞":9343,"##샟":9344,"##넻":9345,"##궝":9346,"##즂":9347,"##혇":9348,"##죔":9349,"##눵":9350,"##롥":9351,"##휀":9352,"##쎜":9353,"##퀐":9354,"##늧":9355,"##돻":9356,"##흭":9357,"##퇏":9358,"##긧":9359,"##헊":9360,"##벝":9361,"##퓔":9362,"##뿑":9363,"##륄":9364,"##꿻":9365,"##꿃":9366,"##옸":9367,"##롮":9368,"##솬":9369,"##떢":9370,"##옱":9371,"##솦":9372,"##뒴":9373,"##싡":9374,"##붘":9375,"##풑":9376,"##똗":9377,"##젺":9378,"##볓":9379,"##븰":9380,"##빪":9381,"##힞":9382,"##읨":9383,"##뽂":9384,"##굯":9385,"##웪":9386,"##좟":9387,"##퓽":9388,"##췝":9389,"##흴":9390,"##핲":9391,"##뀠":9392,"##퇬":9393,"##벖":9394,"##튴":9395,"##츈":9396,"##앲":9397,"##끰":9398,"##꽹":9399,"##씪":9400,"##뵥":9401,"##옦":9402,"##흎":9403,"##륶":9404,"##쪅":9405,"##띻":9406,"##죷":9407,"##엋":9408,"##갆":9409,"##룈":9410,"##곩":9411,"##킽":9412,"##즏":9413,"##톹":9414,"##돰":9415,"##쒕":9416,"##쑐":9417,"##듥":9418,"##쩬":9419,"##곜":9420,"##똠":9421,"##윂":9422,"##긎":9423,"##뿽":9424,"##뻰":9425,"##뙬":9426,"##횅":9427,"##먐":9428,"##쵠":9429,"##궙":9430,"##뼐":9431,"##퍌":9432,"##쪾":9433,"##쇤":9434,"##씾":9435,"##푤":9436,"##맇":9437,"##롔":9438,"##쭨":9439,"##밐":9440,"##븃":9441,"##킝":9442,"##쀽":9443,"##넞":9444,"##뗫":9445,"##킌":9446,"##젃":9447,"##겴":9448,"##흟":9449,"##몄":9450,"##벧":9451,"##콬":9452,"##좔":9453,"##쟙":9454,"##흦":9455,"##걻":9456,"##읬":9457,"##떔":9458,"##혤":9459,"##캽":9460,"##컽":9461,"##숮":9462,"##꽠":9463,"##햠":9464,"##뺕":9465,"##푴":9466,"##렢":9467,"##곃":9468,"##횩":9469,"##뚠":9470,"##뷁":9471,"##앝":9472,"##츀":9473,"##쿳":9474,"##걽":9475,"##갴":9476,"##떅":9477,"##꾠":9478,"##넚":9479,"##깞":9480,"##죰":9481,"##떗":9482,"##쏳":9483,"##뭊":9484,"##뤁":9485,"##쫴":9486,"##뚹":9487,"##헭":9488,"##뛔":9489,"##춬":9490,"##괂":9491,"##삉":9492,"##렦":9493,"##튽":9494,"##밮":9495,"##뙈":9496,"##돘":9497,"##빘":9498,"##쥠":9499,"##벹":9500,"##쇙":9501,"##톷":9502,"##쭙":9503,"##뒵":9504,"##즬":9505,"##퀑":9506,"##꿏":9507,"##퓬":9508,"##벜":9509,"##빆":9510,"##럥":9511,"##얅":9512,"##찳":9513,"##륿":9514,"##넗":9515,"##뻫":9516,"##좯":9517,"##큄":9518,"##렋":9519,"##렑":9520,"##끚":9521,"##펰":9522,"##틷":9523,"##랂":9524,"##쟼":9525,"##섘":9526,"##돝":9527,"##퉐":9528,"##읖":9529,"##뤤":9530,"##줸":9531,"##쾀":9532,"##읊":9533,"##롼":9534,"##믙":9535,"##땰":9536,"##솛":9537,"##얂":9538,"##긬":9539,"##쳈":9540,"##젴":9541,"##곅":9542,"##꿸":9543,"##룜":9544,"##힜":9545,"##긇":9546,"##찎":9547,"##뀰":9548,"##첰":9549,"##쥉":9550,"##죴":9551,"##쉿":9552,"##엪":9553,"##귱":9554,"##볜":9555,"##쨎":9556,"##헞":9557,"##릘":9558,"##됻":9559,"##먽":9560,"##봑":9561,"##랇":9562,"##젙":9563,"##쩼":9564,"##쀠":9565,"##뿹":9566,"##솅":9567,"##눨":9568,"##룀":9569,"##뀄":9570,"##엢":9571,"##떱":9572,"##엲":9573,"##끏":9574,"##훤":9575,"##뱗":9576,"##캭":9577,"##쎡":9578,"##닞":9579,"##춭":9580,"##맼":9581,"##깩":9582,"##갥":9583,"##죱":9584,"##굄":9585,"##댭":9586,"##텥":9587,"##쥥":9588,"##둉":9589,"##뢍":9590,"##삵":9591,"##뤃":9592,"##뵉":9593,"##챨":9594,"##삻":9595,"##쩟":9596,"##귬":9597,"##흌":9598,"##퉷":9599,"##끤":9600,"##뺍":9601,"##묄":9602,"##휑":9603,"##퉥":9604,"##얨":9605,"##푝":9606,"##떧":9607,"##뵨":9608,"##긤":9609,"##뵌":9610,"##뎟":9611,"##붂":9612,"##릊":9613,"##롁":9614,"##줐":9615,"##뜌":9616,"##덢":9617,"##쒈":9618,"##잛":9619,"##볭":9620,"##옂":9621,"##첪":9622,"##퀠":9623,"##웛":9624,"##씍":9625,"##캈":9626,"##쟴":9627,"##톽":9628,"##멉":9629,"##춯":9630,"##섣":9631,"##뉼":9632,"##끛":9633,"##줓":9634,"##숳":9635,"##녛":9636,"##굻":9637,"##뚀":9638,"##뎇":9639,"##홥":9640,"##뀟":9641,"##붭":9642,"##뺃":9643,"##츳":9644,"##퉈":9645,"##첯":9646,"##짪":9647,"##룠":9648,"##쉻":9649,"##럅":9650,"##쳄":9651,"##귷":9652,"##딉":9653,"##탛":9654,"##몁":9655,"##쟇":9656,"##뒘":9657,"##귔":9658,"##뜷":9659,"##훋":9660,"##쩛":9661,"##뭋":9662,"##쑝":9663,"##큔":9664,"##졘":9665,"##걥":9666,"##읇":9667,"##뜁":9668,"##샢":9669,"##쪕":9670,"##줁":9671,"##잮":9672,"##쳋":9673,"##쑌":9674,"##낓":9675,"##웑":9676,"##븝":9677,"##텄":9678,"##쿺":9679,"##혆":9680,"##잙":9681,"##읿":9682,"##휰":9683,"##턋":9684,"##늟":9685,"##긏":9686,"##꿑":9687,"##멫":9688,"##윔":9689,"##춮":9690,"##겊":9691,"##톔":9692,"##뗍":9693,"##쇡":9694,"##얠":9695,"##긘":9696,"##귣":9697,"##칬":9698,"##큉":9699,"##쯰":9700,"##앾":9701,"##횰":9702,"##닻":9703,"##짦":9704,"##릔":9705,"##럮":9706,"##쇳":9707,"##헁":9708,"##뢁":9709,"##곥":9710,"##봦":9711,"##혝":9712,"##얳":9713,"##뤨":9714,"##뽘":9715,"##윱":9716,"##귯":9717,"##쁭":9718,"##륻":9719,"##춫":9720,"##쉉":9721,"##밗":9722,"##닲":9723,"##싦":9724,"##췁":9725,"##꼅":9726,"##롕":9727,"##쎁":9728,"##욛":9729,"##륹":9730,"##욀":9731,"##틎":9732,"##쏩":9733,"##즵":9734,"##틍":9735,"##욮":9736,"##즠":9737,"##딳":9738,"##꼣":9739,"##붌":9740,"##읷":9741,"##뭰":9742,"##홭":9743,"##톀":9744,"##텓":9745,"##닟":9746,"##뺸":9747,"##혴":9748,"##졑":9749,"##썖":9750,"##섥":9751,"##툩":9752,"##벷":9753,"##걉":9754,"##켝":9755,"##뼙":9756,"##퇸":9757,"##짍":9758,"##뒸":9759,"##맅":9760,"##퉅":9761,"##녑":9762,"##솀":9763,"##솽":9764,"##퀰":9765,"##뫌":9766,"##갌":9767,"##룪":9768,"##셑":9769,"##쏱":9770,"##뇜":9771,"##핶":9772,"##픂":9773,"##쌎":9774,"##캰":9775,"##퀫":9776,"##뫗":9777,"##퉹":9778,"##덙":9779,"##팓":9780,"##췻":9781,"##궷":9782,"##픙":9783,"##햫":9784,"##얭":9785,"##윟":9786,"##싲":9787,"##짉":9788,"##춛":9789,"##깦":9790,"##뫕":9791,"##굷":9792,"##똒":9793,"##굈":9794,"##뫁":9795,"##폽":9796,"##뎍":9797,"##똴":9798,"##쵀":9799,"##틒":9800,"##혱":9801,"##젷":9802,"##붚":9803,"##쁫":9804,"##윝":9805,"##흗":9806,"##둙":9807,"##쫨":9808,"##덞":9809,"##풴":9810,"##쎾":9811,"##덪":9812,"##딝":9813,"##욫":9814,"##렩":9815,"##쐑":9816,"##횬":9817,"##껬":9818,"##잒":9819,"##긪":9820,"##곕":9821,"##싓":9822,"##닡":9823,"##랮":9824,"##훝":9825,"##틓":9826,"##뿧":9827,"##섿":9828,"##혿":9829,"##꼳":9830,"##쳨":9831,"##갋":9832,"##릈":9833,"##숐":9834,"##쇟":9835,"##쟡":9836,"##썋":9837,"##푿":9838,"##뽛":9839,"##웻":9840,"##쩃":9841,"##좭":9842,"##쫔":9843,"##뒨":9844,"##괠":9845,"##훑":9846,"##귕":9847,"##뀩":9848,"##벆":9849,"##굤":9850,"##췰":9851,"##뱤":9852,"##쎆":9853,"##믽":9854,"##렅":9855,"##웊":9856,"##븈":9857,"##짲":9858,"##샡":9859,"##뎤":9860,"##옝":9861,"##캎":9862,"##쨤":9863,"##엒":9864,"##뮷":9865,"##츔":9866,"##쪔":9867,"##멁":9868,"##퀙":9869,"##혲":9870,"##샦":9871,"##놤":9872,"##꿜":9873,"##츜":9874,"##쮝":9875,"##쩄":9876,"##쭵":9877,"##슩":9878,"##줩":9879,"##떸":9880,"##먺":9881,"##펔":9882,"##죧":9883,"##꺈":9884,"##욨":9885,"##뜃":9886,"##끾":9887,"##웄":9888,"##놕":9889,"##뗑":9890,"##핆":9891,"##줅":9892,"##퇼":9893,"##샑":9894,"##헱":9895,"##띿":9896,"##뎆":9897,"##쮼":9898,"##듧":9899,"##걖":9900,"##왝":9901,"##긩":9902,"##렭":9903,"##굪":9904,"##벍":9905,"##톶":9906,"##뺵":9907,"##붠":9908,"##쩕":9909,"##닧":9910,"##쀌":9911,"##퀭":9912,"##꽛":9913,"##딀":9914,"##톪":9915,"##팉":9916,"##겇":9917,"##깹":9918,"##눚":9919,"##궸":9920,"##윻":9921,"##줨":9922,"##햰":9923,"##봔":9924,"##짃":9925,"##끨":9926,"##춱":9927,"##젅":9928,"##뜝":9929,"##잚":9930,"##쌴":9931,"##벴":9932,"##빞":9933,"##힡":9934,"##뱈":9935,"##됟":9936,"##췹":9937,"##쀄":9938,"##썐":9939,"##빺":9940,"##춣":9941,"##쳘":9942,"##홑":9943,"##뛕":9944,"##옙":9945,"##뭫":9946,"##쳫":9947,"##귇":9948,"##뜍":9949,"##긄":9950,"##힏":9951,"##쬭":9952,"##싨":9953,"##붸":9954,"##헗":9955,"##댤":9956,"##엳":9957,"##킾":9958,"##룾":9959,"##냏":9960,"##싘":9961,"##릵":9962,"##앁":9963,"##뷉":9964,"##룤":9965,"##렫":9966,"##옯":9967,"##혂":9968,"##씜":9969,"##읩":9970,"##뵛":9971,"##굘":9972,"##슄":9973,"##쭸":9974,"##뜾":9975,"##춟":9976,"##줈":9977,"##숖":9978,"##쇸":9979,"##톸":9980,"##걕":9981,"##뗭":9982,"##읾":9983,"##읆":9984,"##픨":9985,"##씺":9986,"##웱":9987,"##꽌":9988,"##쩢":9989,"##웦":9990,"##짶":9991,"##갟":9992,"##쏼":9993,"##꼉":9994,"##훽":9995,"##끉":9996,"##돩":9997,"##꽇":9998,"##릂":9999,"##툱":10000,"##꺟":10001,"##욖":10002,"##썾":10003,"##딿":10004,"##젣":10005,"##앑":10006,"##돓":10007,"##룍":10008,"##겷":10009,"##썍":10010,"##턍":10011,"##욝":10012,"##껗":10013,"##몋":10014,"##헚":10015,"##뇐":10016,"##빭":10017,"##튁":10018,"##뢜":10019,"##덈":10020,"##멥":10021,"##쩦":10022,"##솎":10023,"##꼄":10024,"##죜":10025,"##춠":10026,"##첳":10027,"##걓":10028,"##씃":10029,"##켕":10030,"##딷":10031,"##꼍":10032,"##찣":10033,"##랱":10034,"##팙":10035,"##솁":10036,"##꿹":10037,"##뚥":10038,"##쥈":10039,"##셓":10040,"##괬":10041,"##롰":10042,"##귻":10043,"##슆":10044,"##릾":10045,"##뀡":10046,"##롳":10047,"##쳊":10048,"##굫":10049,"##낅":10050,"##좒":10051,"##봊":10052,"##븽":10053,"##씟":10054,"##씈":10055,"##쯴":10056,"##쓀":10057,"##켑":10058,"##봒":10059,"##홮":10060,"##쁼":10061,"##췈":10062,"##맃":10063,"##핱":10064,"##뤸":10065,"##벸":10066,"##뛱":10067,"##솸":10068,"##똨":10069,"##햨":10070,"##퍙":10071,"##벫":10072,"##뿥":10073,"##잀":10074,"##윧":10075,"##럻":10076,"##뻄":10077,"##쬘":10078,"##쯍":10079,"##릁":10080,"##뻖":10081,"##듩":10082,"##봭":10083,"##뷘":10084,"##싁":10085,"##괏":10086,"##쨟":10087,"##힄":10088,"##릀":10089,"##홁":10090,"##툲":10091,"##묫":10092,"##웥":10093,"##쁝":10094,"##쟀":10095,"##촥":10096,"##둭":10097,"##뷩":10098,"##탣":10099,"##칯":10100,"##쯈":10101,"##욵":10102,"##똡":10103,"##즎":10104,"##귿":10105,"##췽":10106,"##폑":10107,"##렧":10108,"##옠":10109,"##밢":10110,"##꺗":10111,"##퇀":10112,"##쏵":10113,"##꾺":10114,"##펵":10115,"##츧":10116,"##찯":10117,"##둊":10118,"##뙁":10119,"##쳅":10120,"##잕":10121,"##횠":10122,"##쾤":10123,"##챰":10124,"##쪈":10125,"##헯":10126,"##뢌":10127,"##쥣":10128,"##텊":10129,"##싕":10130,"##젿":10131,"##걜":10132,"##씄":10133,"##쳒":10134,"##챂":10135,"##뫙":10136,"##딯":10137,"##뺶":10138,"##낐":10139,"##챺":10140,"##훉":10141,"##궍":10142,"##퍔":10143,"##웼":10144,"##싟":10145,"##퉜":10146,"##긯":10147,"##킇":10148,"##앃":10149,"##맓":10150,"##둌":10151,"##걳":10152,"##긛":10153,"##롵":10154,"##옾":10155,"##픟":10156,"##벶":10157,"##뭀":10158,"##녅":10159,"##줝":10160,"##즞":10161,"##궆":10162,"##몱":10163,"##텂":10164,"##윶":10165,"##뤰":10166,"##쒝":10167,"##첞":10168,"##좩":10169,"##쇜":10170,"##갣":10171,"##쌸":10172,"##뢸":10173,"##봙":10174,"##넎":10175,"##붏":10176,"##픠":10177,"##칝":10178,"##붆":10179,"##곢":10180,"##솢":10181,"##읯":10182,"##묙":10183,"##퉛":10184,"##밳":10185,"##햟":10186,"##쥳":10187,"##삲":10188,"##앢":10189,"##퉬":10190,"##밠":10191,"##꽙":10192,"##띱":10193,"##뜅":10194,"##끋":10195,"##왚":10196,"##겣":10197,"##뢴":10198,"##쉌":10199,"##훓":10200,"##겵":10201,"##윹":10202,"##꼥":10203,"##줯":10204,"##좤":10205,"##짂":10206,"##횸":10207,"##긒":10208,"##갿":10209,"##떩":10210,"##깪":10211,"##옃":10212,"##벟":10213,"##줉":10214,"##칑":10215,"##뭁":10216,"##쬰":10217,"##왉":10218,"##좐":10219,"##퐂":10220,"##먑":10221,"##룯":10222,"##퐨":10223,"##죕":10224,"##뤳":10225,"##쬡":10226,"##쉞":10227,"##췟":10228,"##룢":10229,"##뭃":10230,"##엗":10231,"##똮":10232,"##읫":10233,"##갅":10234,"##왂":10235,"##빶":10236,"##헵":10237,"##킐":10238,"##욉":10239,"##렞":10240,"##꽄":10241,"##춡":10242,"##춍":10243,"##뉩":10244,"##탍":10245,"##쇗":10246,"##훡":10247,"##됝":10248,"##춐":10249,"##쒓":10250,"##춈":10251,"##됸":10252,"##폔":10253,"##낧":10254,"##뷍":10255,"##쩅":10256,"##뻨":10257,"##잜":10258,"##샒":10259,"##랎":10260,"##섟":10261,"##헔":10262,"##뚧":10263,"##먁":10264,"##슸":10265,"##홎":10266,"##붱":10267,"##궅":10268,"##쓺":10269,"##왯":10270,"##뛣":10271,"##녰":10272,"##쪵":10273,"##궨":10274,"##덣":10275,"##붔":10276,"##죅":10277,"##큳":10278,"##홤":10279,"##몯":10280,"##뿠":10281,"##넾":10282,"##걁":10283,"##밓":10284,"##텆":10285,"##쓤":10286,"##랓":10287,"##쉫":10288,"##럵":10289,"##밒":10290,"##쟂":10291,"##튶":10292,"##빍":10293,"##퓩":10294,"##엯":10295,"##룱":10296,"##촜":10297,"##퐛":10298,"##짣":10299,"##뚁":10300,"##섧":10301,"##덋":10302,"##꽑":10303,"##솰":10304,"##햙":10305,"##쌱":10306,"##얓":10307,"##껃":10308,"##뺫":10309,"##꼊":10310,"##힟":10311,"##켷":10312,"##낤":10313,"##웓":10314,"##탼":10315,"##뫜":10316,"##걹":10317,"##쨴":10318,"##흛":10319,"##볒":10320,"##끵":10321,"##씿":10322,"##롶":10323,"##댙":10324,"##팦":10325,"##쑀":10326,"##륾":10327,"##낻":10328,"##갏":10329,"##탵":10330,"##쎤":10331,"##싆":10332,"##죹":10333,"##쩗":10334,"##벉":10335,"##엃":10336,"##멶":10337,"##싈":10338,"##뵘":10339,"##넢":10340,"##봆":10341,"##쁴":10342,"##렓":10343,"##즋":10344,"##흓":10345,"##픋":10346,"##둦":10347,"##휵":10348,"##쭭":10349,"##닑":10350,"##쎙":10351,"##앺":10352,"##괗":10353,"##릱":10354,"##쁍":10355,"##쩁":10356,"##핻":10357,"##퇙":10358,"##왙":10359,"##팢":10360,"##퓻":10361,"##굮":10362,"##냙":10363,"##핛":10364,"##볷":10365,"##웉":10366,"##붬":10367,"##덖":10368,"##솃":10369,"##푀":10370,"##홪":10371,"##쓋":10372,"##짥":10373,"##팘":10374,"##쀨":10375,"##쫃":10376,"##솕":10377,"##훀":10378,"##뢕":10379,"##넖":10380,"##쨓":10381,"##롈":10382,"##웘":10383,"##훵":10384,"##놥":10385,"##틜":10386,"##쬥":10387,"##혭":10388,"##톻":10389,"##휨":10390,"##쭟":10391,"##꿓":10392,"##냿":10393,"##샼":10394,"##쒔":10395,"##뭠":10396,"##롑":10397,"##몼":10398,"##볠":10399,"##킺":10400,"##젘":10401,"##뵁":10402,"##푄":10403,"##썠":10404,"##몴":10405,"##쉳":10406,"##칌":10407,"##엧":10408,"##쩠":10409,"##륰":10410,"##굦":10411,"##뻴":10412,"##햋":10413,"##켇":10414,"##렡":10415,"##괁":10416,"##훍":10417,"##끎":10418,"##볽":10419,"##싖":10420,"##셂":10421,"##똭":10422,"##뜜":10423,"##촴":10424,"##웸":10425,"##봽":10426,"##쥅":10427,"##뒐":10428,"##줼":10429,"##젂":10430,"##긂":10431,"##둨":10432,"##랈":10433,"##뽭":10434,"##뷋":10435,"##잲":10436,"##낋":10437,"##뀍":10438,"##롻":10439,"##갫":10440,"##퀏":10441,"##쮹":10442,"##셎":10443,"##걾":10444,"##췐":10445,"##캴":10446,"##굲":10447,"##늽":10448,"##붍":10449,"##걼":10450,"##쨲":10451,"##퀜":10452,"##믱":10453,"##쿌":10454,"##냩":10455,"##밚":10456,"##꼏":10457,"##잢":10458,"##랉":10459,"##먜":10460,"##뷮":10461,"##꺘":10462,"##쐭":10463,"##쌐":10464,"##겱":10465,"##뇄":10466,"##뇡":10467,"##팒":10468,"##븤":10469,"##넁":10470,"##뭦":10471,"##뷜":10472,"##짅":10473,"##꺤":10474,"##쉠":10475,"##뀷":10476,"##댚":10477,"##촀":10478,"##헏":10479,"##럯":10480,"##믑":10481,"##깂":10482,"##떫":10483,"##쇣":10484,"##쉧":10485,"##갵":10486,"##찏":10487,"##퉄":10488,"##좜":10489,"##뿃":10490,"##섔":10491,"##뻿":10492,"##쬑":10493,"##빯":10494,"##졲":10495,"##헒":10496,"##뮫":10497,"##엷":10498,"##턔":10499,"##큣":10500,"##뭈":10501,"##죨":10502,"##칡":10503,"##맻":10504,"##쁙":10505,"##럣":10506,"##뉀":10507,"##븬":10508,"##짵":10509,"##묾":10510,"##쯀":10511,"##촪":10512,"##껙":10513,"##뇁":10514,"##죺":10515,"##괐":10516,"##흿":10517,"##뻩":10518,"##돇":10519,"##쉓":10520,"##뎝":10521,"##쐰":10522,"##벲":10523,"##뻠":10524,"##첑":10525,"##셇":10526,"##샓":10527,"##넟":10528,"##낝":10529,"##쒁":10530,"##췩":10531,"##촠":10532,"##퍅":10533,"##쫍":10534,"##겫":10535,"##꽆":10536,"##럌":10537,"##쐒":10538,"##캿":10539,"##옧":10540,"##븏":10541,"##뿨":10542,"##큻":10543,"##쮭":10544,"##삮":10545,"##췔":10546,"##뤙":10547,"##쵤":10548,"##굚":10549,"##씔":10550,"##뿤":10551,"##뚴":10552,"##춋":10553,"##쨥":10554,"##썟":10555,"##꾱":10556,"##럸":10557,"##벓":10558,"##젉":10559,"##낥":10560,"##쿙":10561,"##틘":10562,"##푶":10563,"##긹":10564,"##펖":10565,"##쁏":10566,"##띀":10567,"##즨":10568,"##핃":10569,"##윋":10570,"##쟛":10571,"##꺍":10572,"##멒":10573,"##떪":10574,"##혛":10575,"##쟸":10576,"##칲":10577,"##쾽":10578,"##갃":10579,"##옉":10580,"##툌":10581,"##롡":10582,"##몡":10583,"##좂":10584,"##넶":10585,"##읟":10586,"##휗":10587,"##폥":10588,"##옰":10589,"##뱛":10590,"##릷":10591,"##웒":10592,"##놩":10593,"##덀":10594,"##텸":10595,"##뮼":10596,"##윿":10597,"##욲":10598,"##뫔":10599,"##낶":10600,"##딋":10601,"##뚦":10602,"##풘":10603,"##꺴":10604,"##둞":10605,"##쀵":10606,"##뱆":10607,"##뇹":10608,"##뱋":10609,"##괍":10610,"##맔":10611,"##럶":10612,"##녙":10613,"##찱":10614,"##겒":10615,"##륲":10616,"##짳":10617,"##즇":10618,"##뚸":10619,"##쎽":10620,"##욹":10621,"##쇌":10622,"##캵":10623,"##묑":10624,"##둧":10625,"##녬":10626,"##롓":10627,"##켛":10628,"##좢":10629,"##깵":10630,"##싻":10631,"##벘":10632,"##앻":10633,"##퐅":10634,"##벺":10635,"##쵴":10636,"##떯":10637,"##닰":10638,"##좄":10639,"##럱":10640,"##덍":10641,"##궃":10642,"##됗":10643,"##푭":10644,"##먛":10645,"##칱":10646,"##샗":10647,"##꾾":10648,"##놴":10649,"##겮":10650,"##쫐":10651,"##쟠":10652,"##륏":10653,"##쭠":10654,"##츛":10655,"##밲":10656,"##힒":10657,"##뻉":10658,"##휏":10659,"##쉩":10660,"##룧":10661,"##궵":10662,"##젒":10663,"##꿐":10664,"##맋":10665,"##뿕":10666,"##쉟":10667,"##췼":10668,"##컇":10669,"##샿":10670,"##윁":10671,"##슧":10672,"##뺚":10673,"##댰":10674,"##퀻":10675,"##웇":10676,"##쳠":10677,"##팣":10678,"##겙":10679,"##긲":10680,"##쎱":10681,"##궯":10682,"##뗙":10683,"##릮":10684,"##벑":10685,"##뵬":10686,"##썀":10687,"##묠":10688,"##왆":10689,"##텹":10690,"##얾":10691,"##뜐":10692,"##잩":10693,"##얫":10694,"##곋":10695,"##봩":10696,"##닩":10697,"##찲":10698,"##풐":10699,"##뱇":10700,"##늖":10701,"##캮":10702,"##괖":10703,"##깛":10704,"##삷":10705,"##횻":10706,"##뉍":10707,"##핚":10708,"##칍":10709,"##쥨":10710,"##턷":10711,"##궭":10712,"##뤫":10713,"##렾":10714,"##휫":10715,"##쭀":10716,"##촞":10717,"##솈":10718,"##쁑":10719,"##즟":10720,"##됮":10721,"##큩":10722,"##푁":10723,"##쒘":10724,"##얩":10725,"##쏔":10726,"##넏":10727,"##꾿":10728,"##캼":10729,"##풂":10730,"##죚":10731,"##뽬":10732,"##밹":10733,"##픵":10734,"##궬":10735,"##뢐":10736,"##룿":10737,"##힑":10738,"##뮜":10739,"##랆":10740,"##껕":10741,"##긼":10742,"##릥":10743,"##꾳":10744,"##뽓":10745,"##붰":10746,"##췸":10747,"##퍝":10748,"##솉":10749,"##쀍":10750,"##욼":10751,"##뗳":10752,"##윚":10753,"##핓":10754,"##웞":10755,"##땓":10756,"##뒺":10757,"##콫":10758,"##뇅":10759,"##쒰":10760,"##춚":10761,"##퇍":10762,"##럲":10763,"##킆":10764,"##퉌":10765,"##럏":10766,"##킉":10767,"##풓":10768,"##껩":10769,"##춏":10770,"##팑":10771,"##둫":10772,"##찷":10773,"##젗":10774,"##햍":10775,"##섩":10776,"##삧":10777,"##쳧":10778,"##쉪":10779,"##뿛":10780,"##홛":10781,"##돡":10782,"##찥":10783,"##뷃":10784,"##놂":10785,"##뢩":10786,"##쪟":10787,"##폌":10788,"##늿":10789,"##꿤":10790,"##퍵":10791,"##뀹":10792,"##둇":10793,"##샞":10794,"##큑":10795,"##뫂":10796,"##셪":10797,"##셫":10798,"##굗":10799,"##풩":10800,"##칧":10801,"##쫟":10802,"##쨱":10803,"##믘":10804,"##앧":10805,"##꿕":10806,"##늭":10807,"##튵":10808,"##낛":10809,"##쭃":10810,"##쮀":10811,"##쪠":10812,"##뀅":10813,"##쇈":10814,"##텇":10815,"##픀":10816,"##늌":10817,"##듰":10818,"##퓹":10819,"##휭":10820,"##냊":10821,"##쮤":10822,"##쟆":10823,"##둼":10824,"##쟣":10825,"##퓐":10826,"##튝":10827,"##얪":10828,"##좝":10829,"##괒":10830,"##첤":10831,"##힁":10832,"##뒬":10833,"##뒁":10834,"##묹":10835,"##뺒":10836,"##땢":10837,"##궥":10838,"##괃":10839,"##퇫":10840,"##먖":10841,"##퉆":10842,"##쨬":10843,"##쩘":10844,"##훃":10845,"##닍":10846,"##탚":10847,"##쒑":10848,"##붝":10849,"##낂":10850,"##렪":10851,"##엶":10852,"##팕":10853,"##삱":10854,"##곚":10855,"##뮛":10856,"##겯":10857,"##겳":10858,"##쟬":10859,"##츶":10860,"##퉝":10861,"##뿓":10862,"##녾":10863,"##븞":10864,"##걧":10865,"##떦":10866,"##퉂":10867,"##꾄":10868,"##룃":10869,"##꽅":10870,"##섳":10871,"##럔":10872,"##넡":10873,"##껓":10874,"##낣":10875,"##먘":10876,"##쯉":10877,"##묽":10878,"##떌":10879,"##훱":10880,"##틕":10881,"##뤂":10882,"##췤":10883,"##횢":10884,"##읳":10885,"##홴":10886,"##맽":10887,"##뤩":10888,"##뉅":10889,"##쿹":10890,"##씡":10891,"##폳":10892,"##섪":10893,"##쟏":10894,"##슠":10895,"##왇":10896,"##뛋":10897,"##쁟":10898,"##똟":10899,"##쓩":10900,"##쬎":10901,"##꾐":10902,"##럊":10903,"##돍":10904,"##꽊":10905,"##쓜":10906,"##뚵":10907,"##퐜":10908,"##뀤":10909,"##풕":10910,"##흤":10911,"##썄":10912,"##눍":10913,"##쓈":10914,"##뗗":10915,"##뢉":10916,"##믺":10917,"##쇱":10918,"##빇":10919,"##쩻":10920,"##숧":10921,"##퇑":10922,"##컀":10923,"##뮉":10924,"##섓":10925,"##쵁":10926,"##꽀":10927,"##늤":10928,"##뎂":10929,"##쑷":10930,"##싺":10931,"##틤":10932,"##꼻":10933,"##똿":10934,"##븎":10935,"##숚":10936,"##뚨":10937,"##퉸":10938,"##횓":10939,"##놎":10940,"##핢":10941,"##뇀":10942,"##홇":10943,"##잝":10944,"##펟":10945,"##떾":10946,"##돽":10947,"##뎦":10948,"##걿":10949,"##롞":10950,"##틁":10951,"##쑉":10952,"##밡":10953,"##혚":10954,"##켉":10955,"##쌯":10956,"##쌛":10957,"##섦":10958,"##칤":10959,"##묷":10960,"##쬔":10961,"##끀":10962,"##귭":10963,"##븧":10964,"##칳":10965,"##뚕":10966,"##긶":10967,"##됥":10968,"##녖":10969,"##뱕":10970,"##뷷":10971,"##핯":10972,"##쓘":10973,"##뽫":10974,"##깾":10975,"##춪":10976,"##졒":10977,"##뒫":10978,"##졳":10979,"##닋":10980,"##싚":10981,"##됵":10982,"##뻈":10983,"##씊":10984,"##쉄":10985,"##쫠":10986,"##츽":10987,"##쩹":10988,"##얊":10989,"##뭤":10990,"##쩰":10991,"##눃":10992,"##츅":10993,"##똩":10994,"##홅":10995,"##띙":10996,"##뀳":10997,"##줕":10998,"##첻":10999,"##몺":11000,"##밇":11001,"##혷":11002,"##궮":11003,"##귦":11004,"##댉":11005,"##볃":11006,"##밂":11007,"##욻":11008,"##늚":11009,"##쇘":11010,"##뵞":11011,"##얆":11012,"##뇩":11013,"##떘":11014,"##찠":11015,"##멮":11016,"##멏":11017,"##륟":11018,"##뒥":11019,"##릑":11020,"##랻":11021,"##늒":11022,"##혰":11023,"##쀀":11024,"##칄":11025,"##핗":11026,"##땧":11027,"##섨":11028,"##떥":11029,"##렃":11030,"##닒":11031,"##왖":11032,"##쁌":11033,"##흪":11034,"##싐":11035,"##샽":11036,"##킦":11037,"##흝":11038,"##잂":11039,"##벁":11040,"##뗠":11041,"##묏":11042,"##흳":11043,"##퍤":11044,"##텽":11045,"##톃":11046,"##봀":11047,"##붃":11048,"##쒄":11049,"##섉":11050,"##뾃":11051,"##뛟":11052,"##뛝":11053,"##뙓":11054,"##꽭":11055,"##쮉":11056,"##쒧":11057,"##슅":11058,"##걨":11059,"##덹":11060,"##튑":11061,"##힕":11062,"##녱":11063,"##풱":11064,"##싩":11065,"##뻒":11066,"##탏":11067,"##땉":11068,"##뭴":11069,"##핺":11070,"##쟹":11071,"##룄":11072,"##핖":11073,"##꺳":11074,"##엩":11075,"##듟":11076,"##곟":11077,"##눝":11078,"##뱎":11079,"##뵷":11080,"##멑":11081,"##뙜":11082,"##볾":11083,"##겲":11084,"##봟":11085,"##캆":11086,"##쇨":11087,"##쾍":11088,"##믯":11089,"##졨":11090,"##맒":11091,"##숪":11092,"##뇍":11093,"##풸":11094,"##풹":11095,"##쒵":11096,"##껚":11097,"##튺":11098,"##훊":11099,"##뚷":11100,"##졶":11101,"##찁":11102,"##팆":11103,"##듶":11104,"##쑙":11105,"##겿":11106,"##혯":11107,"##좼":11108,"##웳":11109,"##벯":11110,"##욈":11111,"##뺔":11112,"##놊":11113,"##뽞":11114,"##푷":11115,"##쒯":11116,"##쳰":11117,"##묺":11118,"##즷":11119,"##흇":11120,"##넊":11121,"##뾔":11122,"##릡":11123,"##펃":11124,"##옲":11125,"##쎰":11126,"##쿩":11127,"##둚":11128,"##츗":11129,"##픤":11130,"##읪":11131,"##욎":11132,"##붯":11133,"##뿬":11134,"##걲":11135,"##둒":11136,"##븕":11137,"##횄":11138,"##뜿":11139,"##눹":11140,"##덭":11141,"##봃":11142,"##좥":11143,"##꼷":11144,"##퍞":11145,"##꼨":11146,"##괕":11147,"##롘":11148,"##괅":11149,"##뻭":11150,"##죿":11151,"##잁":11152,"##탶":11153,"##굩":11154,"##쒱":11155,"##뻦":11156,"##쁄":11157,"##힢":11158,"##웣":11159,"##뎓":11160,"##됱":11161,"##휳":11162,"##샃":11163,"##쵱":11164,"##촷":11165,"##벛":11166,"##븋":11167,"##맿":11168,"##팛":11169,"##줱":11170,"##쾃":11171,"##풎":11172,"##읲":11173,"##킿":11174,"##훳":11175,"##픝":11176,"##깣":11177,"##퐥":11178,"##땎":11179,"##뙷":11180,"##뙛":11181,"##윥":11182,"##탲":11183,"##젞":11184,"##뀸":11185,"##썡":11186,"##읱":11187,"##뽥":11188,"##홝":11189,"##숗":11190,"##듘":11191,"##믆":11192,"##뚼":11193,"##윀":11194,"##껳":11195,"##뚞":11196,"##븻":11197,"##륳":11198,"##즄":11199,"##줋":11200,"##뤟":11201,"##긵":11202,"##춞":11203,"##뙌":11204,"##욳":11205,"##훻":11206,"##똰":11207,"##럠":11208,"##놛":11209,"##줂":11210,"##긆":11211,"##숡":11212,"##렻":11213,"##쐽":11214,"##쓍":11215,"##핪":11216,"##냋":11217,"##뒑":11218,"##걊":11219,"##븦":11220,"##묨":11221,"##띧":11222,"##쓹":11223,"##삾":11224,"##돾":11225,"##겚":11226,"##잳":11227,"##쥿":11228,"##헢":11229,"##둋":11230,"##툠":11231,"##걤":11232,"##긊":11233,"##벊":11234,"##빬":11235,"##꿲":11236,"##욐":11237,"##곛":11238,"##슯":11239,"##젳":11240,"##뵵":11241,"##딖":11242,"##쭏":11243,"##횹":11244,"##꺢":11245,"##빹":11246,"##퇮":11247,"##뢥":11248,"##꿱":11249,"##잓":11250,"##뎜":11251,"##쒭":11252,"##됢":11253,"##몊":11254,"##뼊":11255,"##욺":11256,"##둪":11257,"##돐":11258,"##몉":11259,"##퀌":11260,"##갍":11261,"##씥":11262,"##핒":11263,"##벩":11264,"##쩩":11265,"##걺":11266,"##뗵":11267,"##긥":11268,"##먆":11269,"##땆":11270,"##퇭":11271,"##쫜":11272,"##씞":11273,"##엱":11274,"##넀":11275,"##쿈":11276,"##뷥":11277,"##퉼":11278,"##뾸":11279,"##쓐":11280,"##춝":11281,"##얮":11282,"##쿫":11283,"##퉉":11284,"##섈":11285,"##죾":11286,"##샚":11287,"##낎":11288,"##얎":11289,"##쇵":11290,"##챷":11291,"##컭":11292,"##봋":11293,"##싪":11294,"##뀽":11295,"##뾴":11296,"##빾":11297,"##낪":11298,"##갊":11299,"##툉":11300,"##턩":11301,"##툊":11302,"##뷧":11303,"##삨":11304,"##궳":11305,"##챋":11306,"##뽷":11307,"##쏐":11308,"##궀":11309,"##폡":11310,"##뭩":11311,"##뽰":11312,"##뻪":11313,"##짎":11314,"##픚":11315,"##섄":11316,"##휍":11317,"##뜮":11318,"##쭂":11319,"##꽜":11320,"##땣":11321,"##쌂":11322,"##냎":11323,"##뵏":11324,"##촼":11325,"##픎":11326,"##뽚":11327,"##솑":11328,"##둄":11329,"##뭕":11330,"##섑":11331,"##놪":11332,"##겥":11333,"##턑":11334,"##쏬":11335,"##뭑":11336,"##귽":11337,"##뛓":11338,"##볅":11339,"##돏":11340,"##눽":11341,"##븁":11342,"##쐨":11343,"##쥦":11344,"##쬴":11345,"##쬮":11346,"##홟":11347,"##툑":11348,"##숤":11349,"##굱":11350,"##셛":11351,"##쫕":11352,"##쀏":11353,"##갷":11354,"##폅":11355,"##듑":11356,"##쉗":11357,"##멭":11358,"##뒛":11359,"##혃":11360,"##댂":11361,"##끟":11362,"##윖":11363,"##쀈":11364,"##젌":11365,"##씢":11366,"##씂":11367,"##섊":11368,"##딮":11369,"##앶":11370,"##셃":11371,"##쏌":11372,"##쮱":11373,"##핐":11374,"##틏":11375,"##칻":11376,"##솻":11377,"##걶":11378,"##콪":11379,"##릣":11380,"##쿻":11381,"##톌":11382,"##뉙":11383,"##섡":11384,"##힂":11385,"##쮑":11386,"##굺":11387,"##뎽":11388,"##슏":11389,"##똙":11390,"##굾":11391,"##꿴":11392,"##좸":11393,"##퐆":11394,"##앿":11395,"##썃":11396,"##쭹":11397,"##쩑":11398,"##뿱":11399,"##탗":11400,"##벏":11401,"##앒":11402,"##숶":11403,"##섽":11404,"##텢":11405,"##쐌":11406,"##좬":11407,"##웚":11408,"##볂":11409,"##껶":11410,"##웯":11411,"##퉽":11412,"##쌟":11413,"##놸":11414,"##텣":11415,"##죥":11416,"##흜":11417,"##뙿":11418,"##썯":11419,"##긃":11420,"##쩀":11421,"##쩣":11422,"##뻕":11423,"##꿬":11424,"##쪚":11425,"##셆":11426,"##씉":11427,"##빏":11428,"##퉨":11429,"##굅":11430,"##싅":11431,"##맖":11432,"##랊":11433,"##믤":11434,"##킂":11435,"##쉚":11436,"##쫚":11437,"##쨧":11438,"##챶":11439,"##꿥":11440,"##녝":11441,"##쓃":11442,"##혙":11443,"##핕":11444,"##릸":11445,"##쩤":11446,"##헫":11447,"##졜":11448,"##쎂":11449,"##첱":11450,"##흚":11451,"##겗":11452,"##됡":11453,"##쏃":11454,"##즜":11455,"##쯨":11456,"##텩":11457,"##삫":11458,"##뱬":11459,"##릹":11460,"##쮓":11461,"##먤":11462,"##뛧":11463,"##쮕":11464,"##쌒":11465,"##칔":11466,"##퀔":11467,"##푈":11468,"##빣":11469,"##팯":11470,"##펒":11471,"##쭻":11472,"##쏮":11473,"##눓":11474,"##뇝":11475,"##꾕":11476,"##젡":11477,"##뢓":11478,"##믝":11479,"##펗":11480,"##똵":11481,"##쭷":11482,"##늎":11483,"##윺":11484,"##퐠":11485,"##뜪":11486,"##혾":11487,"##씦":11488,"##엕":11489,"##둏":11490,"##훛":11491,"##냴":11492,"##숝":11493,"##왬":11494,"##갢":11495,"##슇":11496,"##뽇":11497,"##뜔":11498,"##먓":11499,"##얰":11500,"##틂":11501,"##똽":11502,"##흅":11503,"##벎":11504,"##맕":11505,"##슀":11506,"##꾭":11507,"##궏":11508,"##쏸":11509,"##뒠":11510,"##뒼":11511,"##봁":11512,"##좎":11513,"##뵠":11514,"##쎨":11515,"##쟥":11516,"##겺":11517,"##쉜":11518,"##컺":11519,"##눸":11520,"##싇":11521,"##븹":11522,"##궑":11523,"##퓍":11524,"##꺕":11525,"##볫":11526,"##슮":11527,"##쮔":11528,"##뵑":11529,"##뢘":11530,"##퐙":11531,"##븛":11532,"##슟":11533,"##슢":11534,"##뱥":11535,"##뎻":11536,"##뉄":11537,"##솠":11538,"##셲":11539,"##뗸":11540,"##뽴":11541,"##뻼":11542,"##젾":11543,"##튔":11544,"##쁸":11545,"##찗":11546,"##꿄":11547,"##쿯":11548,"##졿":11549,"##뿁":11550,"##샔":11551,"##턕":11552,"##켲":11553,"##뱟":11554,"##똦":11555,"##쥄":11556,"##볈":11557,"##웢":11558,"##쾬":11559,"##졹":11560,"##썔":11561,"##휅":11562,"##펲":11563,"##꽘":11564,"##늜":11565,"##뮙":11566,"##졏":11567,"##믛":11568,"##썝":11569,"##찴":11570,"##쀓":11571,"##뮝":11572,"##깯":11573,"##뱽":11574,"##칽":11575,"##쏏":11576,"##딭":11577,"##셭":11578,"##헾":11579,"##툄":11580,"##횧":11581,"##햩":11582,"##힊":11583,"##녻":11584,"##뙹":11585,"##맫":11586,"##혒":11587,"##튓":11588,"##쯫":11589,"##큲":11590,"##눋":11591,"##왥":11592,"##뇤":11593,"##퀡":11594,"##뭵":11595,"##틧":11596,"##웎":11597,"##밁":11598,"##켞":11599,"##휔":11600,"##믻":11601,"##톢":11602,"##퍁":11603,"##괓":11604,"##쉲":11605,"##겞":11606,"##갎":11607,"##쓿":11608,"##쩎":11609,"##웗":11610,"##콋":11611,"##졻":11612,"##쵭":11613,"##봴":11614,"##캋":11615,"##뜱":11616,"##뵴":11617,"##륮":11618,"##떮":11619,"##듢":11620,"##툨":11621,"##숬":11622,"##섫":11623,"##똻":11624,"##촡":11625,"##씇":11626,"##뺅":11627,"##폘":11628,"##썫":11629,"##넭":11630,"##뙀":11631,"##렽":11632,"##띅":11633,"##뽯":11634,"##쌻":11635,"##뼬":11636,"##녽":11637,"##붋":11638,"##봿":11639,"##흵":11640,"##띟":11641,"##쨨":11642,"##섐":11643,"##됤":11644,"##틅":11645,"##뒌":11646,"##믏":11647,"##쾰":11648,"##젶":11649,"##뾀":11650,"##풇":11651,"##툳":11652,"##뤵":11653,"##솒":11654,"##뫤":11655,"##푕":11656,"##뚄":11657,"##뒇":11658,"##씳":11659,"##뺗":11660,"##쳏":11661,"##뾲":11662,"##팊":11663,"##좱":11664,"##뭽":11665,"##턉":11666,"##찫":11667,"##똷":11668,"##췆":11669,"##챻":11670,"##쐴":11671,"##켵":11672,"##럘":11673,"##갮":11674,"##녗":11675,"##걎":11676,"##곣":11677,"##굎":11678,"##펅":11679,"##쫖":11680,"##펹":11681,"##덗":11682,"##덝":11683,"##왗":11684,"##쏖":11685,"##쫫":11686,"##놏":11687,"##큷":11688,"##믬":11689,"##늇":11690,"##슰":11691,"##뻙":11692,"##탅":11693,"##럎":11694,"##찦":11695,"##딺":11696,"##혺":11697,"##팖":11698,"##몔":11699,"##앦":11700,"##쁮":11701,"##솣":11702,"##뀈":11703,"##볆":11704,"##퐑":11705,"##먇":11706,"##엸":11707,"##봎":11708,"##눂":11709,"##첧":11710,"##뙄":11711,"##젎":11712,"##멿":11713,"##뤜":11714,"##엜":11715,"##꽼":11716,"##럗":11717,"##쁰":11718,"##윢":11719,"##좣":11720,"##랺":11721,"##홒":11722,"##굧":11723,"##틊":11724,"##짷":11725,"##뀀":11726,"##툣":11727,"##녚":11728,"##됚":11729,"##쒠":11730,"##쿅":11731,"##왅":11732,"##퐘":11733,"##텧":11734,"##끞":11735,"##뱰":11736,"##뷤":11737,"##삒":11738,"##꺨":11739,"##렗":11740,"##헋":11741,"##뉌":11742,"##쬠":11743,"##밙":11744,"##웖":11745,"##윣":11746,"##딞":11747,"##씱":11748,"##돒":11749,"##퓅":11750,"##쟟":11751,"##욗":11752,"##섢":11753,"##죘":11754,"##쬿":11755,"##쯋":11756,"##쫰":11757,"##뭷":11758,"##썱":11759,"##긺":11760,"##멛":11761,"##쓷":11762,"##쓲":11763,"##닗":11764,"##쒫":11765,"##쩓":11766,"##휟":11767,"##킠":11768,"##갶":11769,"##녯":11770,"##떹":11771,"##깗":11772,"##껇":11773,"##쑛":11774,"##쳗":11775,"##돖":11776,"##삺":11777,"##옪":11778,"##둩":11779,"##짺":11780,"##즡":11781,"##랡":11782,"##뭭":11783,"##쐣":11784,"##빖":11785,"##턈":11786,"##릻":11787,"##삦":11788,"##햎":11789,"##뿎":11790,"##빫":11791,"##몷":11792,"##윯":11793,"##듇":11794,"##팏":11795,"##좊":11796,"##폠":11797,"##뺓":11798,"##첡":11799,"##겏":11800,"##뀃":11801,"##믖":11802,"##밊":11803,"##괫":11804,"##쟃":11805,"##팚":11806,"##줊":11807,"##헓":11808,"##쓑":11809,"##뭎":11810,"##붼":11811,"##뜄":11812,"##뱊":11813,"##뀱":11814,"##뚊":11815,"##빎":11816,"##쯛":11817,"##곭":11818,"##컯":11819,"##꺋":11820,"##룷":11821,"##탟":11822,"##헶":11823,"##꺰":11824,"##쿗":11825,"##긞":11826,"##쑼":11827,"##볖":11828,"##쿢":11829,"##뺡":11830,"##얋":11831,"##띶":11832,"##쟅":11833,"##펺":11834,"##빷":11835,"##뽖":11836,"##퐇":11837,"##곫":11838,"##쌇":11839,"##씷":11840,"##겭":11841,"##쒐":11842,"##슂":11843,"##붎":11844,"##눉":11845,"##펕":11846,"##먱":11847,"##턘":11848,"##칢":11849,"##웙":11850,"##떷":11851,"##뎧":11852,"##귥":11853,"##몲":11854,"##쳍":11855,"##뗼":11856,"##꿌":11857,"##쿔":11858,"##쑦":11859,"##댦":11860,"##똚":11861,"##묿":11862,"##쒤":11863,"##븩":11864,"##쳢":11865,"##맪":11866,"##쭥":11867,"##픓":11868,"##뽸":11869,"##셏":11870,"##랁":11871,"##탊":11872,"##릶":11873,"##혅":11874,"##땦":11875,"##휲":11876,"##쩸":11877,"##몣":11878,"##렚":11879,"##픹":11880,"##쎍":11881,"##뜛":11882,"##홨":11883,"##툈":11884,"##쒂":11885,"##쐤":11886,"##뙝":11887,"##홙":11888,"##퇌":11889,"##칶":11890,"##캩":11891,"##덦":11892,"##즑":11893,"##쏰":11894,"##뙸":11895,"##쀒":11896,"##엹":11897,"##헰":11898,"##핋":11899,"##놝":11900,"##훏":11901,"##왷":11902,"##깑":11903,"##췜":11904,"##뼠":11905,"##씶":11906,"##홡":11907,"##쀅":11908,"##챊":11909,"##댼":11910,"##떺":11911,"##탞":11912,"##꾝":11913,"##똧":11914,"##츹":11915,"##꽨":11916,"##눛":11917,"##풬":11918,"##띴":11919,"##앹":11920,"##쎟":11921,"##즺":11922,"##폯":11923,"##줖":11924,"##뛃":11925,"##얁":11926,"##쎝":11927,"##쳭":11928,"##톺":11929,"##뭟":11930,"##훸":11931,"##듞":11932,"##혉":11933,"##귛":11934,"##씧":11935,"##뭧":11936,"##뾥":11937,"##흊":11938,"##뷐":11939,"##옩":11940,"##뼏":11941,"##혻":11942,"##졽":11943,"##틇":11944,"##맩":11945,"##늓":11946,"##펻":11947,"##샕":11948,"##싙":11949,"##짮":11950,"##빓":11951,"##쐿":11952,"##븸":11953,"##떃":11954,"##볎":11955,"##즼":11956,"##쳴":11957,"##슳":11958,"##뛥":11959,"##횜":11960,"##떶":11961,"##쐏":11962,"##쪻":11963,"##왢":11964,"##갧":11965,"##훚":11966,"##곝":11967,"##둅":11968,"##믣":11969,"##몢":11970,"##쥫":11971,"##봰":11972,"##덌":11973,"##곮":11974,"##홗":11975,"##얉":11976,"##밿":11977,"##곔":11978,"##뜳":11979,"##녟":11980,"##꺚":11981,"##쐼":11982,"##텠":11983,"##웺":11984,"##뿩":11985,"##뮘":11986,"##뇔":11987,"##쯎":11988,"##힗":11989,"##귖":11990,"##쬈":11991,"##뱸":11992,"##랯":11993,"##쉮":11994,"##묯":11995,"##쀡":11996,"##퇜":11997,"##꿝":11998,"##퇧":11999,"##끯":12000,"##뼑":12001,"##끸":12002,"##푬":12003,"##옣":12004,"##쐄":12005,"##퓟":12006,"##휐":12007,"##쭕":12008,"##붥":12009,"##믂":12010,"##뮦":12011,"##쾩":12012,"##퍾":12013,"##헽":12014,"##놃":12015,"##꿯":12016,"##뫚":12017,"##챚":12018,"##삹":12019,"##옟":12020,"##쬲":12021,"##놖":12022,"##뉬":12023,"##뙴":12024,"##죢":12025,"##딣":12026,"##쨖":12027,"##춀":12028,"##튻":12029,"##좰":12030,"##곆":12031,"##깺":12032,"##딻":12033,"##찪":12034,"##댏":12035,"##쪿":12036,"##풁":12037,"##뚢":12038,"##짿":12039,"##졺":12040,"##픍":12041,"##킶":12042,"##뭙":12043,"##녺":12044,"##갩":12045,"##뼀":12046,"##돆":12047,"##뼡":12048,"##뛌":12049,"##몮":12050,"##뮁":12051,"##봵":12052,"##켼":12053,"##퓿":12054,"##엀":12055,"##뫽":12056,"##헟":12057,"##슞":12058,"##엁":12059,"##릆":12060,"##쏚":12061,"##뮻":12062,"##앣":12063,"##곲":12064,"##궲":12065,"##볁":12066,"##릲":12067,"##쩽":12068,"##븢":12069,"##쎇":12070,"##뀻":12071,"##쇀":12072,"##볇":12073,"##똼":12074,"##퐣":12075,"##폮":12076,"##햚":12077,"##쵿":12078,"##녭":12079,"##뒞":12080,"##좧":12081,"##썳":12082,"##줵":12083,"##첣":12084,"##킀":12085,"##쭄":12086,"##죶":12087,"##켚":12088,"##폣":12089,"##훯":12090,"##멪":12091,"##앷":12092,"##붴":12093,"##꺏":12094,"##돉":12095,"##댥":12096,"##턹":12097,"##쵮":12098,"##풏":12099,"##춎":12100,"##볙":12101,"##뚈":12102,"##뭿":12103,"##뵝":12104,"##괨":12105,"##엂":12106,"##챫":12107,"##쏄":12108,"##괺":12109,"##믰":12110,"##퍡":12111,"##킘":12112,"##떣":12113,"##콮":12114,"##삗":12115,"##캙":12116,"##좓":12117,"##헲":12118,"##닱":12119,"##쮁":12120,"##쫂":12121,"##뵺":12122,"##뛍":12123,"##욾":12124,"##됧":12125,"##걭":12126,"##쓊":12127,"##쀳":12128,"##퇔":12129,"##엞":12130,"##벾":12131,"##쵯":12132,"##걬":12133,"##홖":12134,"##깱":12135,"##뗨":12136,"##멯":12137,"##욣":12138,"##걒":12139,"##똈":12140,"##멂":12141,"##걃":12142,"##꽳":12143,"##꼶":12144,"##걆":12145,"##겛":12146,"##풃":12147,"##뻁":12148,"##헦":12149,"##꽴":12150,"##궓":12151,"##쑫":12152,"##둽":12153,"##욓":12154,"##샮":12155,"##젍":12156,"##왶":12157,"##쀾":12158,"##쌗":12159,"##촺":12160,"##짾":12161,"##꺓":12162,"##몟":12163,"##곖":12164,"##죝":12165,"##꼲":12166,"##졂":12167,"##믉":12168,"##뭗":12169,"##믌":12170,"##죣":12171,"##잞":12172,"##쎓":12173,"##쭅":12174,"##뛨":12175,"##똝":12176,"##쫵":12177,"##쑻":12178,"##뿳":12179,"##뽹":12180,"##셟":12181,"##캢":12182,"##넔":12183,"##멲":12184,"##쫅":12185,"##걇":12186,"##쁐":12187,"##븂":12188,"##왳":12189,"##괝":12190,"##뭚":12191,"##씗":12192,"##쇔":12193,"##콲":12194,"##숢":12195,"##뮏":12196,"##왡":12197,"##♬에":12198,"##♬이":12199,"##♬을":12200,"##♬의":12201,"##♬가":12202,"##♬는":12203,"##♬를":12204,"##♬들":12205,"##♬은":12206,"##♬도":12207,"##으로":12208,"♬에":12209,"##♬으로":12210,"♬을":12211,"##♬로":12212,"##♬에서":12213,"♬의":12214,"♬이":12215,"##하는":12216,"##니다":12217,"♬를":12218,"##♬과":12219,"##하고":12220,"##♬적":12221,"♬는":12222,"♬은":12223,"##는데":12224,"##이다":12225,"♬가":12226,"##♬만":12227,"##다고":12228,"##♬들♬이":12229,"##♬와":12230,"##지만":12231,"있다":12232,"사람":12233,"아니":12234,"♬으로":12235,"##라고":12236,"##했다":12237,"##00":12238,"##까지":12239,"♬에서":12240,"있는":12241,"♬로":12242,"##었다":12243,"##면서":12244,"♬도":12245,"##다는":12246,"##♬에게":12247,"생각":12248,"우리":12249,"##♬들♬은":12250,"♬들":12251,"##♬까지":12252,"##하게":12253,"##부터":12254,"##해서":12255,"♬과":12256,"대한":12257,"##리고":12258,"##이라":12259,"##한다":12260,"20":12261,"##♬님":12262,"하는":12263,"한다":12264,"한국":12265,"##보다":12266,"국민":12267,"##습니다":12268,"##♬적인":12269,"때문":12270,"♬적":12271,"##렇게":12272,"##으면":12273,"그러":12274,"영화":12275,"이런":12276,"진짜":12277,"##♬적♬으로":12278,"♬와":12279,"##니까":12280,"지금":12281,"##하지":12282,"##♬에♬는":12283,"일본":12284,"지난":12285,"##하면":12286,"##♬나":12287,"그런":12288,"문제":12289,"##♬이나":12290,"##♬부터":12291,"##♬들♬의":12292,"##하다":12293,"##♬보다":12294,"같은":12295,"너무":12296,"10":12297,"자신":12298,"다른":12299,"중국":12300,"##대로":12301,"##♬성":12302,"나라":12303,"##는거":12304,"하나":12305,"##처럼":12306,"위해":12307,"##통령":12308,"들어":12309,"그리고":12310,"만들":12311,"미국":12312,"그래":12313,"경우":12314,"##하기":12315,"정부":12316,"##♬화":12317,"##이고":12318,"##네요":12319,"201":12320,"##인데":12321,"##♬들♬을":12322,"##라는":12323,"아이":12324,"##어서":12325,"하고":12326,"이상":12327,"대통령":12328,"이제":12329,"19":12330,"이번":12331,"그냥":12332,"##세요":12333,"문재":12334,"작가":12335,"사실":12336,"##기♬를":12337,"다고":12338,"##♬처럼":12339,"##한테":12340,"된다":12341,"##어요":12342,"아닌":12343,"##해야":12344,"##지고":12345,"다시":12346,"##나라":12347,"##았다":12348,"것이다":12349,"##입니다":12350,"시작":12351,"함께":12352,"사회":12353,"따라":12354,"없는":12355,"정도":12356,"정치":12357,"##♬한테":12358,"경제":12359,"서울":12360,"##이라고":12361,"때문♬에":12362,"많이":12363,"통해":12364,"##라도":12365,"보고":12366,"가능":12367,"하지만":12368,"모르":12369,"인간":12370,"##이지":12371,"시간":12372,"가장":12373,"아무":12374,"나오":12375,"필요":12376,"기업":12377,"##♬에♬도":12378,"아니라":12379,"##하여":12380,"##되는":12381,"##♬에서♬는":12382,"##리는":12383,"정말":12384,"##리♬를":12385,"자기":12386,"북한":12387,"모두":12388,"##였다":12389,"상황":12390,"##자♬가":12391,"세계":12392,"##으며":12393,"지역":12394,"##다가":12395,"민주":12396,"200":12397,"이후":12398,"##리♬가":12399,"어떻":12400,"##같은":12401,"모든":12402,"##♬서":12403,"대표":12404,"##려고":12405,"것♬이":12406,"모습":12407,"좋아":12408,"시장":12409,"사업":12410,"관계":12411,"국가":12412,"이렇게":12413,"♬까지":12414,"것♬은":12415,"어떻게":12416,"문재인":12417,"사용":12418,"여자":12419,"관련":12420,"내♬가":12421,"없다":12422,"##스트":12423,"마음":12424,"##주의":12425,"다음":12426,"여기":12427,"대해":12428,"♬만":12429,"##된다":12430,"이유":12431,"##♬랑":12432,"해야":12433,"##합니다":12434,"이미":12435,"있었":12436,"많은":12437,"##이라는":12438,"위한":12439,"##겠다":12440,"댓글":12441,"이야":12442,"##사람":12443,"정신":12444,"지원":12445,"##는다":12446,"##기♬가":12447,"##보고":12448,"아직":12449,"현재":12450,"돌아":12451,"그렇게":12452,"처음":12453,"사이":12454,"했다":12455,"##♬권":12456,"계속":12457,"사랑":12458,"그러나":12459,"##하며":12460,"어떤":12461,"것♬으로":12462,"작가♬님":12463,"##어야":12464,"투자":12465,"것♬을":12466,"##♬아":12467,"##거나":12468,"얼마":12469,"##사♬를":12470,"라고":12471,"라는":12472,"무슨":12473,"프로":12474,"12":12475,"♬성":12476,"내용":12477,"##기♬도":12478,"역시":12479,"##민국":12480,"보여":12481,"경기":12482,"##으니":12483,"##구나":12484,"##는지":12485,"30":12486,"근데":12487,"있을":12488,"특히":12489,"##아서":12490,"좋은":12491,"##하면서":12492,"##인가":12493,"##인지":12494,"##어나":12495,"여성":12496,"남자":12497,"11":12498,"하지":12499,"##레이":12500,"밝혔":12501,"##♬들♬에게":12502,"이해":12503,"보면":12504,"이어":12505,"##지는":12506,"다는":12507,"조국":12508,"##기♬에":12509,"진행":12510,"##♬네":12511,"바로":12512,"여러":12513,"국내":12514,"100":12515,"##가는":12516,"대한민국":12517,"교육":12518,"##♬당":12519,"이용":12520,"그래서":12521,"##있는":12522,"##♬들♬도":12523,"기대":12524,"오늘":12525,"결과":12526,"수준":12527,"결국":12528,"##도록":12529,"검찰":12530,"##지♬를":12531,"##것♬도":12532,"##로운":12533,"방송":12534,"##력♬을":12535,"♬에게":12536,"중요":12537,"##인♬이":12538,"##잖아":12539,"피해":12540,"지만":12541,"있었다":12542,"기사":12543,"기술":12544,"어디":12545,"##이었다":12546,"면서":12547,"이름":12548,"그렇":12549,"##이었":12550,"##지막":12551,"최고":12552,"♬부터":12553,"##밖에":12554,"연구":12555,"최근":12556,"조사":12557,"15":12558,"##자♬는":12559,"##시키":12560,"자유":12561,"##없이":12562,"##♬엔":12563,"보이":12564,"국회":12565,"또한":12566,"이러":12567,"##는게":12568,"##소리":12569,"잘못":12570,"마지막":12571,"♬화":12572,"설명":12573,"살아":12574,"##이♬가":12575,"계획":12576,"♬고":12577,"떨어":12578,"민주당":12579,"상대":12580,"사람♬이":12581,"저런":12582,"경찰":12583,"이거":12584,"삼성":12585,"없이":12586,"대학":12587,"##가지":12588,"지지":12589,"##되고":12590,"개발":12591,"웹툰":12592,"친구":12593,"##장♬을":12594,"우리나라":12595,"어느":12596,"사건":12597,"당시":12598,"의원":12599,"##♬마":12600,"지난해":12601,"베댓":12602,"나♬는":12603,"가족":12604,"학교":12605,"##지♬도":12606,"물론":12607,"나타":12608,"세상":12609,"##레기":12610,"♬보다":12611,"당신":12612,"작품":12613,"##사♬가":12614,"정권":12615,"##해라":12616,"되는":12617,"같이":12618,"기록":12619,"감독":12620,"##어도":12621,"##머니":12622,"전문":12623,"올해":12624,"자신♬의":12625,"대상":12626,"이게":12627,"##지♬가":12628,"##으나":12629,"##비스":12630,"현실":12631,"##정♬을":12632,"알고":12633,"그럼":12634,"받아":12635,"관심":12636,"##♬에서♬도":12637,"정책":12638,"얼굴":12639,"##이야":12640,"이날":12641,"후보":12642,"제대로":12643,"##거리":12644,"만들어":12645,"얼마나":12646,"##시아":12647,"개인":12648,"주인":12649,"##동안":12650,"사진":12651,"##주는":12652,"##♬째":12653,"학생":12654,"##♬이랑":12655,"##졌다":12656,"정보":12657,"##♬들♬과":12658,"##시간":12659,"회사":12660,"##했던":12661,"18":12662,"그♬는":12663,"나온":12664,"누구":12665,"##♬자":12666,"않고":12667,"##인다":12668,"평가":12669,"이야기":12670,"##부분":12671,"##하는데":12672,"조선":12673,"##장♬은":12674,"배우":12675,"하면":12676,"그것":12677,"##되어":12678,"##력♬이":12679,"가지":12680,"다양":12681,"한번":12682,"##겠지":12683,"자체":12684,"문화":12685,"##수♬가":12686,"##기업":12687,"말했다":12688,"찾아":12689,"##더니":12690,"따르":12691,"있는데":12692,"않는":12693,"부분":12694,"실제":12695,"일반":12696,"##중♬에":12697,"어려":12698,"직접":12699,"활동":12700,"알려":12701,"그만":12702,"동안":12703,"예정":12704,"운영":12705,"공개":12706,"##이트":12707,"##지♬는":12708,"그리":12709,"금융":12710,"해서":12711,"그림":12712,"선거":12713,"완전":12714,"##없는":12715,"언제":12716,"##운데":12717,"##장♬이":12718,"위원":12719,"##해도":12720,"##0년":12721,"새로운":12722,"상태":12723,"언론":12724,"##놓고":12725,"일부":12726,"올라":12727,"존재":12728,"##주고":12729,"그런데":12730,"대구":12731,"조금":12732,"의미":12733,"결정":12734,"##진다":12735,"소리":12736,"##스크":12737,"있고":12738,"게임":12739,"않은":12740,"##하나":12741,"제발":12742,"스토":12743,"##전♬에":12744,"책임":12745,"##로나":12746,"세금":12747,"공격":12748,"않았":12749,"발생":12750,"누가":12751,"한다고":12752,"재미":12753,"현대":12754,"먼저":12755,"##기♬는":12756,"아주":12757,"##이면":12758,"미래":12759,"##하자":12760,"제공":12761,"기준":12762,"##정부":12763,"##보면":12764,"인터":12765,"방법":12766,"확인":12767,"기자":12768,"부모":12769,"가지고":12770,"♬나":12771,"인정":12772,"합니다":12773,"##같이":12774,"##이냐":12775,"전체":12776,"하루":12777,"것♬도":12778,"##다면":12779,"##하네":12780,"머리":12781,"지나":12782,"서비스":12783,"그녀":12784,"참여":12785,"있다는":12786,"관리":12787,"한편":12788,"준비":12789,"발표":12790,"만화":12791,"50":12792,"♬라고":12793,"성공":12794,"자리":12795,"##을까":12796,"아니고":12797,"##라이":12798,"있어":12799,"##하는거":12800,"힘들":12801,"##♬들♬아":12802,"##한거":12803,"엄마":12804,"해도":12805,"##상♬을":12806,"사고":12807,"수사":12808,"##정도":12809,"##원♬이":12810,"##♬씩":12811,"주장":12812,"등장":12813,"##학교":12814,"만나":12815,"코로나":12816,"반대":12817,"##말고":12818,"과정":12819,"외국":12820,"##렸다":12821,"역사":12822,"13":12823,"주인공":12824,"선수":12825,"가격":12826,"##♬마다":12827,"서로":12828,"##리아":12829,"국제":12830,"##하시":12831,"산업":12832,"가운데":12833,"생활":12834,"대부분":12835,"25":12836,"보는":12837,"##러운":12838,"무엇":12839,"##기♬로":12840,"과거":12841,"##♬상":12842,"16":12843,"##000":12844,"이건":12845,"최대":12846,"위해서":12847,"제품":12848,"행동":12849,"거의":12850,"##랜드":12851,"전국":12852,"증가":12853,"정상":12854,"성장":12855,"경쟁":12856,"더욱":12857,"기억":12858,"사람♬들♬이":12859,"시민":12860,"##다니":12861,"있습니다":12862,"판매":12863,"##이며":12864,"재밌":12865,"해외":12866,"생산":12867,"노동":12868,"기다":12869,"요즘":12870,"효과":12871,"어린":12872,"보내":12873,"내려":12874,"##치고":12875,"그래도":12876,"##자♬를":12877,"##OO":12878,"해결":12879,"##리지":12880,"말♬을":12881,"당연":12882,"이것":12883,"얘기":12884,"14":12885,"못한":12886,"선택":12887,"아닌가":12888,"##♬밖에":12889,"엄청":12890,"표현":12891,"나왔":12892,"##근혜":12893,"추가":12894,"##문♬에":12895,"##이는":12896,"예상":12897,"##린다":12898,"규모":12899,"스타":12900,"##♬형":12901,"운동":12902,"쓰레기":12903,"##만원":12904,"있다고":12905,"장관":12906,"사람♬들":12907,"그♬의":12908,"영향":12909,"환경":12910,"아들":12911,"시대":12912,"없어":12913,"##그램":12914,"##의원":12915,"아니다":12916,"추진":12917,"##식♬을":12918,"빨리":12919,"교수":12920,"느낌":12921,"##자♬의":12922,"아버":12923,"대해서":12924,"요구":12925,"##이스":12926,"##려는":12927,"앞♬으로":12928,"##시다":12929,"##가서":12930,"드러":12931,"한다는":12932,"포함":12933,"##치는":12934,"말♬이":12935,"##와대":12936,"##화♬를":12937,"만든":12938,"알아":12939,"같다":12940,"##나요":12941,"♬권":12942,"다며":12943,"##♬여":12944,"##들어":12945,"중심":12946,"기본":12947,"17":12948,"결혼":12949,"##♬성♬이":12950,"입장":12951,"##야지":12952,"문재앙":12953,"##주세요":12954,"청와대":12955,"##아요":12956,"##었는데":12957,"구성":12958,"노력":12959,"등♬을":12960,"감사":12961,"##됐다":12962,"역할":12963,"##릭터":12964,"##한다고":12965,"도시":12966,"##했는데":12967,"유지":12968,"때문이다":12969,"마련":12970,"전쟁":12971,"좌파":12972,"장면":12973,"지방":12974,"##시켜":12975,"발전":12976,"##하던":12977,"##스로":12978,"나♬도":12979,"되어":12980,"##라마":12981,"##와서":12982,"말고":12983,"##스럽":12984,"##하겠":12985,"##스터":12986,"부산":12987,"건강":12988,"정의":12989,"##인♬의":12990,"박근혜":12991,"소비":12992,"##아니":12993,"##도♬를":12994,"##정♬이":12995,"지적":12996,"보인다":12997,"##이란":12998,"##♬요":12999,"##위원":13000,"##히려":13001,"분석":13002,"자동":13003,"판단":13004,"넘어":13005,"##는건":13006,"상당":13007,"해당":13008,"##이네":13009,"절대":13010,"확대":13011,"##하지만":13012,"우리♬가":13013,"고객":13014,"##리스":13015,"오히려":13016,"업체":13017,"자연":13018,"그게":13019,"공부":13020,"40":13021,"보수":13022,"오후":13023,"경험":13024,"##도♬가":13025,"안전":13026,"##자리":13027,"매우":13028,"##하냐":13029,"캐릭터":13030,"경영":13031,"범죄":13032,"만큼":13033,"기존":13034,"##했고":13035,"비교":13036,"사라":13037,"##♬성♬을":13038,"##더라":13039,"##시고":13040,"##음♬을":13041,"##이지만":13042,"도움":13043,"비판":13044,"전망":13045,"##이라도":13046,"솔직":13047,"비슷":13048,"없고":13049,"강화":13050,"스스로":13051,"##었던":13052,"거짓":13053,"##이버":13054,"시즌":13055,"##가고":13056,"기회":13057,"다르":13058,"##사♬는":13059,"수♬도":13060,"강조":13061,"##수♬를":13062,"♬자":13063,"##스♬를":13064,"사람♬은":13065,"바이":13066,"##스템":13067,"그대로":13068,"기관":13069,"##파트":13070,"##이니":13071,"##어난":13072,"##치♬를":13073,"스토리":13074,"##명♬이":13075,"##디어":13076,"##♬께":13077,"##♬질":13078,"인물":13079,"제작":13080,"##원♬을":13081,"안되":13082,"##인♬은":13083,"##지않":13084,"상승":13085,"특별":13086,"주변":13087,"밝혔다":13088,"아직♬도":13089,"이루":13090,"하는데":13091,"##이♬를":13092,"거래":13093,"원래":13094,"공동":13095,"대비":13096,"##한다는":13097,"활용":13098,"##영화":13099,"미친":13100,"구조":13101,"대신":13102,"연기":13103,"능력":13104,"##므로":13105,"자한":13106,"빨갱":13107,"##♬대로":13108,"##가리":13109,"##되었다":13110,"프로그램":13111,"다만":13112,"되고":13113,"분명":13114,"행복":13115,"위험":13116,"##인♬을":13117,"순간":13118,"##드는":13119,"##르는":13120,"제일":13121,"##자기":13122,"OOO":13123,"그때":13124,"시키":13125,"치료":13126,"##점♬을":13127,"라며":13128,"##시♬에":13129,"##위♬를":13130,"인생":13131,"21":13132,"은행":13133,"이♬를":13134,"조직":13135,"기간":13136,"김정":13137,"지속":13138,"##텐데":13139,"##♬야":13140,"부족":13141,"아무리":13142,"제♬가":13143,"##스♬가":13144,"24":13145,"##♬로서":13146,"##으면서":13147,"##보니":13148,"변화":13149,"바람":13150,"전혀":13151,"전부":13152,"##이기":13153,"##했다고":13154,"이♬에":13155,"##거지":13156,"다니":13157,"방식":13158,"##이♬는":13159,"##♬에선":13160,"병원":13161,"모습♬을":13162,"상품":13163,"되었다":13164,"저렇게":13165,"도록":13166,"항상":13167,"혼자":13168,"적용":13169,"인사":13170,"집중":13171,"비롯":13172,"##하니":13173,"##무원":13174,"가진":13175,"##라인":13176,"##번♬째":13177,"않는다":13178,"마스크":13179,"##마트":13180,"##명♬을":13181,"회장":13182,"##르고":13183,"##정한":13184,"주민":13185,"##있다":13186,"일단":13187,"출연":13188,"분야":13189,"전략":13190,"내년":13191,"아니면":13192,"충분":13193,"않았다":13194,"지켜":13195,"네이버":13196,"걱정":13197,"♬이나":13198,"확실":13199,"##♬계":13200,"##한데":13201,"개선":13202,"는데":13203,"##겠지만":13204,"##동산":13205,"뭔가":13206,"##었고":13207,"##스타":13208,"같은데":13209,"의견":13210,"♬처럼":13211,"##수록":13212,"대체":13213,"##자♬들":13214,"##리♬는":13215,"공산":13216,"##♬뿐":13217,"##은행":13218,"또는":13219,"높은":13220,"중앙":13221,"분위":13222,"##BS":13223,"더불":13224,"건설":13225,"##되면":13226,"적극":13227,"일♬이":13228,"보호":13229,"아마":13230,"솔직히":13231,"##기고":13232,"199":13233,"받고":13234,"나가":13235,"문제♬가":13236,"이러한":13237,"주요":13238,"고려":13239,"목표":13240,"달러":13241,"검사":13242,"크게":13243,"있지만":13244,"아님":13245,"열린":13246,"나오는":13247,"직원":13248,"우선":13249,"어렵":13250,"그걸":13251,"달리":13252,"##제♬를":13253,"##려면":13254,"##겠네":13255,"행사":13256,"노래":13257,"##건가":13258,"##때문♬에":13259,"신천":13260,"있던":13261,"궁금":13262,"##스♬는":13263,"22":13264,"일♬을":13265,"느끼":13266,"23":13267,"시스템":13268,"♬여":13269,"##을때":13270,"##감♬을":13271,"나서":13272,"##♬이다":13273,"드라마":13274,"그동안":13275,"인해":13276,"##더라도":13277,"있어서":13278,"수출":13279,"##되지":13280,"##라면":13281,"여행":13282,"중요한":13283,"##이터":13284,"아파트":13285,"가치":13286,"가까":13287,"매출":13288,"니♬가":13289,"의료":13290,"부동산":13291,"친일":13292,"##심히":13293,"음악":13294,"계약":13295,"##아야":13296,"다양한":13297,"##지지":13298,"##시장":13299,"실제로":13300,"가져":13301,"신경":13302,"수익":13303,"##먹고":13304,"##해주":13305,"보니":13306,"인터넷":13307,"정도♬로":13308,"##하다고":13309,"단체":13310,"자신♬이":13311,"여기♬서":13312,"자식":13313,"##기는":13314,"현장":13315,"##려서":13316,"다가":13317,"##요일":13318,"기분":13319,"관계자":13320,"출신":13321,"못하고":13322,"대회":13323,"등♬의":13324,"업무":13325,"그룹":13326,"갑자기":13327,"##하는게":13328,"조작":13329,"바라":13330,"사과":13331,"안보":13332,"##운동":13333,"각각":13334,"여론":13335,"##♬용":13336,"전♬에":13337,"움직":13338,"앞서":13339,"##에요":13340,"오래":13341,"##사♬의":13342,"유럽":13343,"없었다":13344,"차지":13345,"하면서":13346,"선동":13347,"영업":13348,"우리♬는":13349,"세월":13350,"##스♬의":13351,"생각♬이":13352,"##대♬를":13353,"##리면":13354,"방문":13355,"부담":13356,"기능":13357,"##지마":13358,"나라♬가":13359,"##해요":13360,"##건데":13361,"어쩌":13362,"##사업":13363,"습니다":13364,"##드시":13365,"가슴":13366,"설치":13367,"이전":13368,"발견":13369,"부정":13370,"##대한":13371,"##성♬을":13372,"##조건":13373,"저♬는":13374,"##사회":13375,"##났다":13376,"##간다":13377,"사망":13378,"##물♬을":13379,"대단":13380,"빨갱이":13381,"아닐":13382,"따라서":13383,"주식":13384,"##돼지":13385,"##성♬이":13386,"##으니까":13387,"나이":13388,"♬밖에":13389,"확보":13390,"자동차":13391,"들어가":13392,"##교육":13393,"##새끼":13394,"##상♬이":13395,"시절":13396,"##♬률":13397,"모르는":13398,"어머니":13399,"##내고":13400,"외교":13401,"회의":13402,"지도":13403,"총선":13404,"주택":13405,"언급":13406,"##봐라":13407,"열심히":13408,"먹고":13409,"최소":13410,"광고":13411,"##하였다":13412,"사람♬들♬은":13413,"새끼":13414,"##자인":13415,"공감":13416,"나와":13417,"##른다":13418,"통합":13419,"공급":13420,"##구요":13421,"아버지":13422,"우려":13423,"않을":13424,"불법":13425,"대응":13426,"보험":13427,"정확":13428,"##오는":13429,"전문가":13430,"LG":13431,"##던데":13432,"못하는":13433,"##군요":13434,"집단":13435,"선생":13436,"##하라":13437,"##억원":13438,"비해":13439,"인천":13440,"##정권":13441,"##♬생":13442,"##보는":13443,"국민♬들":13444,"안정":13445,"##구만":13446,"남편":13447,"##거다":13448,"##거든":13449,"떠나":13450,"끝나":13451,"있지":13452,"처리":13453,"##전자":13454,"##대표":13455,"영국":13456,"하다":13457,"지구":13458,"##러스":13459,"##냐고":13460,"가는":13461,"광주":13462,"##8년":13463,"싶은":13464,"시험":13465,"##수♬도":13466,"글로":13467,"공무원":13468,"목적":13469,"유명":13470,"밝혀":13471,"알았":13472,"보도":13473,"구속":13474,"작업":13475,"##만♬에":13476,"입니다":13477,"여러분":13478,"##시는":13479,"거기":13480,"국회의원":13481,"자금":13482,"사는":13483,"바뀌":13484,"오전":13485,"##♬보다♬는":13486,"##이션":13487,"##자♬들♬이":13488,"나올":13489,"##조차":13490,"무시":13491,"##리즈":13492,"본인":13493,"단순":13494,"##학생":13495,"뭐♬가":13496,"안타":13497,"가서":13498,"카드":13499,"정당":13500,"반응":13501,"전화":13502,"영화♬를":13503,"##대체":13504,"대책":13505,"갖고":13506,"26":13507,"##생각":13508,"참석":13509,"개혁":13510,"27":13511,"##명♬의":13512,"탄핵":13513,"##자♬로":13514,"여전":13515,"##이상":13516,"이익":13517,"과학":13518,"##국민":13519,"##어진":13520,"##전♬을":13521,"글로벌":13522,"##수♬는":13523,"했는데":13524,"시청":13525,"##의♬를":13526,"나쁜":13527,"평균":13528,"아베":13529,"##난다":13530,"사기":13531,"의사":13532,"지키":13533,"라이":13534,"괜찮":13535,"고민":13536,"영상":13537,"##이라면":13538,"시설":13539,"##5년":13540,"무서":13541,"##간♬에":13542,"##까요":13543,"보기":13544,"##너지":13545,"불가":13546,"이뤄":13547,"##7년":13548,"처벌":13549,"위치":13550,"SK":13551,"##9년":13552,"##이자":13553,"##거야":13554,"이♬는":13555,"희망":13556,"달라":13557,"반면":13558,"강력":13559,"아래":13560,"##트♬를":13561,"되었":13562,"##이어":13563,"##없다":13564,"선정":13565,"제도":13566,"28":13567,"♬당":13568,"##했지만":13569,"제외":13570,"이동":13571,"뉴스":13572,"실시":13573,"따른":13574,"##♬끼":13575,"도대체":13576,"신고":13577,"관광":13578,"반드시":13579,"공식":13580,"##문♬을":13581,"있으며":13582,"##왔다":13583,"주는":13584,"훨씬":13585,"##세계":13586,"브랜드":13587,"군대":13588,"##선♬을":13589,"장기":13590,"받은":13591,"##제♬가":13592,"의해":13593,"소설":13594,"싸우":13595,"어찌":13596,"60":13597,"진심":13598,"♬상":13599,"제시":13600,"있으면":13601,"신천지":13602,"거리":13603,"잡아":13604,"최초":13605,"##♬님♬이":13606,"프랑":13607,"##갔다":13608,"##지면":13609,"소재":13610,"아는":13611,"무조건":13612,"##당♬이":13613,"투표":13614,"도입":13615,"되면":13616,"♬뿐":13617,"젊은":13618,"아빠":13619,"소속":13620,"말씀":13621,"권력":13622,"##♬으로서":13623,"평화":13624,"하여":13625,"좋아요":13626,"하늘":13627,"##생활":13628,"##BC":13629,"수♬가":13630,"##내는":13631,"##듯이":13632,"독일":13633,"성격":13634,"따르면":13635,"핵심":13636,"##겠다고":13637,"TV":13638,"##워서":13639,"남성":13640,"공간":13641,"유치":13642,"##라서":13643,"생각♬을":13644,"##6년":13645,"##럼프":13646,"중소":13647,"인식":13648,"시행":13649,"청소":13650,"##준다":13651,"등♬이":13652,"##하다는":13653,"롯데":13654,"사람♬을":13655,"해라":13656,"##지게":13657,"많다":13658,"사태":13659,"♬이라고":13660,"생각해":13661,"아프":13662,"만약":13663,"각종":13664,"아름":13665,"스포":13666,"감염":13667,"오른":13668,"스마트":13669,"마치":13670,"종교":13671,"##받고":13672,"불안":13673,"##했을":13674,"나중♬에":13675,"자세":13676,"보유":13677,"일어나":13678,"소개":13679,"##일♬이":13680,"니♬들":13681,"자주":13682,"너희":13683,"##지역":13684,"##단체":13685,"##점♬이":13686,"가정":13687,"심각":13688,"통신":13689,"느껴":13690,"##원♬은":13691,"비용":13692,"그거":13693,"그♬가":13694,"##개월":13695,"##지♬에":13696,"예산":13697,"모델":13698,"인상":13699,"논란":13700,"##이크":13701,"아니냐":13702,"##겠습니다":13703,"이젠":13704,"증거":13705,"##위♬에":13706,"사장":13707,"##♬쯤":13708,"##관계":13709,"있게":13710,"내부":13711,"##수있":13712,"##인트":13713,"진실":13714,"협력":13715,"수입":13716,"어려운":13717,"되지":13718,"보통":13719,"##겠다는":13720,"빠져":13721,"독립":13722,"점점":13723,"센터":13724,"싶다":13725,"트럼프":13726,"방향":13727,"연결":13728,"##어버":13729,"장애":13730,"돈♬을":13731,"음식":13732,"최종":13733,"##시민":13734,"선보":13735,"안나":13736,"##림픽":13737,"##인♬들":13738,"변호":13739,"자료":13740,"##♬으로써":13741,"작은":13742,"##♬율":13743,"불구":13744,"증권":13745,"회복":13746,"맞는":13747,"인권":13748,"주제":13749,"쉽게":13750,"사무":13751,"##대♬에":13752,"거짓말":13753,"공연":13754,"감정":13755,"애♬들":13756,"감소":13757,"당연히":13758,"##레스":13759,"전투":13760,"두고":13761,"##금♬을":13762,"없을":13763,"실패":13764,"고통":13765,"담당":13766,"##잖아요":13767,"대화":13768,"나라♬를":13769,"형태":13770,"올려":13771,"누군":13772,"그려":13773,"##어들":13774,"승리":13775,"202":13776,"29":13777,"여전히":13778,"##영♬이":13779,"다♬들":13780,"신청":13781,"##대♬가":13782,"대선":13783,"이래":13784,"행정":13785,"미리":13786,"제목":13787,"전자":13788,"##하거나":13789,"한심":13790,"♬님":13791,"##일♬을":13792,"출시":13793,"청년":13794,"국민♬의":13795,"방안":13796,"##임♬을":13797,"##가♬를":13798,"##운드":13799,"##할때":13800,"개념":13801,"도와":13802,"주고":13803,"단계":13804,"지금♬까지":13805,"김정은":13806,"대출":13807,"무능":13808,"감동":13809,"##냈다":13810,"마을":13811,"♬형":13812,"##물♬이":13813,"추천":13814,"때♬는":13815,"시켜":13816,"아내":13817,"##디오":13818,"위원회":13819,"##머리":13820,"##되었":13821,"##여서":13822,"##4년":13823,"공공":13824,"##2년":13825,"더불어":13826,"들고":13827,"사례":13828,"업계":13829,"있도록":13830,"본격":13831,"니♬들♬이":13832,"플레이":13833,"자본":13834,"불러":13835,"##프로":13836,"개돼지":13837,"러시아":13838,"의혹":13839,"##♬로♬는":13840,"##♬하고":13841,"마찬":13842,"않아":13843,"진출":13844,"관한":13845,"오는":13846,"1년":13847,"주목":13848,"정부♬가":13849,"국정":13850,"##♬으로♬는":13851,"##이드":13852,"노조":13853,"말하는":13854,"스트":13855,"##수♬의":13856,"포기":13857,"제기":13858,"##조사":13859,"소득":13860,"국민♬이":13861,"자꾸":13862,"힘♬을":13863,"모양":13864,"배댓":13865,"있기":13866,"나온다":13867,"재판":13868,"그럴":13869,"좋다":13870,"조정":13871,"타이":13872,"좌빨":13873,"일으":13874,"싫어":13875,"가짜":13876,"전개":13877,"수도":13878,"##위원회":13879,"당장":13880,"이기":13881,"강남":13882,"합의":13883,"지급":13884,"##서♬를":13885,"차량":13886,"##작가":13887,"위기":13888,"발언":13889,"##♬들♬에":13890,"수요":13891,"교회":13892,"그나":13893,"70":13894,"개최":13895,"지금♬은":13896,"관계자♬는":13897,"자체♬가":13898,"이끌":13899,"아침":13900,"##♬로부터":13901,"전환":13902,"나타나":13903,"참가":13904,"하기":13905,"못하":13906,"##경제":13907,"전기":13908,"##했다는":13909,"제주":13910,"사실♬을":13911,"##그룹":13912,"##일보":13913,"살인":13914,"##♬별":13915,"없었":13916,"마찬가지":13917,"혐의":13918,"인도":13919,"조용":13920,"응원":13921,"국민♬을":13922,"바꾸":13923,"국민♬들♬이":13924,"##대♬의":13925,"고용":13926,"조성":13927,"교통":13928,"대형":13929,"불쌍":13930,"##3년":13931,"좋아하는":13932,"외국인":13933,"##두고":13934,"저거":13935,"코스":13936,"촬영":13937,"필요한":13938,"하락":13939,"##깨문":13940,"자산":13941,"##♬과♬의":13942,"31":13943,"##센터":13944,"##부♬는":13945,"공정":13946,"상관":13947,"파악":13948,"##시면":13949,"시리즈":13950,"받아들":13951,"##져서":13952,"##기관":13953,"##든지":13954,"시간♬이":13955,"오랜":13956,"만드는":13957,"이야기♬를":13958,"##체♬가":13959,"##마디":13960,"유일":13961,"부탁":13962,"매일":13963,"##움♬을":13964,"##등학교":13965,"##세♬를":13966,"조건":13967,"자격":13968,"아시아":13969,"##하였":13970,"전달":13971,"프리":13972,"##라리":13973,"기획":13974,"##부♬가":13975,"##건지":13976,"예술":13977,"기반":13978,"할머니":13979,"##민주":13980,"##♬와♬의":13981,"연출":13982,"온라인":13983,"이유♬가":13984,"힘든":13985,"환자":13986,"##부♬를":13987,"지하":13988,"초반":13989,"민족":13990,"유리":13991,"혹은":13992,"##장♬에서":13993,"##♬꾼":13994,"##도♬로":13995,"확진":13996,"##심♬을":13997,"진보":13998,"인기":13999,"평생":14000,"##장♬에":14001,"##스코":14002,"##원♬의":14003,"독재":14004,"##고있":14005,"대중":14006,"##식♬이":14007,"##식♬으로":14008,"##는거지":14009,"##란다":14010,"##리기":14011,"##하세요":14012,"재앙":14013,"받는":14014,"우승":14015,"##어라":14016,"충분히":14017,"것이라고":14018,"논의":14019,"동생":14020,"불과":14021,"##♬조차":14022,"자랑":14023,"##산업":14024,"아예":14025,"이사":14026,"##다운":14027,"그러면":14028,"성과":14029,"펀드":14030,"법무":14031,"참고":14032,"제한":14033,"##반기":14034,"##♬들♬만":14035,"그저":14036,"##뉴스":14037,"동시♬에":14038,"종합":14039,"##함♬을":14040,"##르게":14041,"대통령♬이":14042,"하며":14043,"연합":14044,"영어":14045,"♬별":14046,"##리♬에":14047,"##것♬이":14048,"없다는":14049,"경우♬가":14050,"이걸":14051,"구축":14052,"동물":14053,"##만한":14054,"차이":14055,"##지어":14056,"##아버":14057,"이라":14058,"##하기♬도":14059,"받을":14060,"하자":14061,"세월호":14062,"##♬라고":14063,"으며":14064,"분량":14065,"인수":14066,"했던":14067,"##소♬를":14068,"성적":14069,"전통":14070,"가입":14071,"이때":14072,"실적":14073,"쓰는":14074,"조치":14075,"##기♬의":14076,"##리♬의":14077,"어디♬서":14078,"받았":14079,"##분♬에":14080,"거나":14081,"말♬도":14082,"##1년":14083,"훈련":14084,"##시킨":14085,"##많은":14086,"관객":14087,"재산":14088,"##감♬이":14089,"보여주":14090,"저♬도":14091,"완전히":14092,"해석":14093,"##가♬가":14094,"좋겠다":14095,"지난달":14096,"나머":14097,"이유♬는":14098,"500":14099,"행위":14100,"##봐야":14101,"비난":14102,"##느냐":14103,"단지":14104,"없다고":14105,"안되는":14106,"##습니까":14107,"##♬이♬가":14108,"건물":14109,"그랬":14110,"생각하는":14111,"취업":14112,"##스러운":14113,"##던가":14114,"베뎃":14115,"됐다":14116,"배경":14117,"요청":14118,"구매":14119,"됩니다":14120,"별로":14121,"##장♬의":14122,"주로":14123,"198":14124,"최저":14125,"해주":14126,"##우고":14127,"금지":14128,"대깨문":14129,"##해보":14130,"반영":14131,"##개♬를":14132,"2년":14133,"가르":14134,"서민":14135,"약간":14136,"신문":14137,"입국":14138,"##♬만큼":14139,"자살":14140,"♬마":14141,"♬률":14142,"시도":14143,"자신♬을":14144,"철저":14145,"끌어":14146,"##것같":14147,"##아가":14148,"생긴":14149,"##였던":14150,"복지":14151,"##비♬를":14152,"개정":14153,"검토":14154,"화장":14155,"설립":14156,"특징":14157,"##시키는":14158,"과연":14159,"프랑스":14160,"수상":14161,"있었던":14162,"설정":14163,"##들고":14164,"##인거":14165,"굉장":14166,"돌아가":14167,"황교":14168,"일자리":14169,"구체":14170,"##회사":14171,"##대♬로":14172,"대변":14173,"차례":14174,"강제":14175,"##지말고":14176,"약속":14177,"##어지":14178,"##장관":14179,"않다":14180,"##이든":14181,"목소리":14182,"이명":14183,"봐도":14184,"남아":14185,"규제":14186,"연속":14187,"상당히":14188,"##가락":14189,"차별":14190,"##구♬가":14191,"어린이":14192,"##무리":14193,"##씨♬는":14194,"##리오":14195,"신뢰":14196,"##일♬에":14197,"80":14198,"집♬에":14199,"보이는":14200,"선발":14201,"##겠냐":14202,"남북":14203,"강한":14204,"일정":14205,"혁신":14206,"그건":14207,"생명":14208,"애초":14209,"혹시":14210,"장난":14211,"인지":14212,"##자♬들♬은":14213,"가만":14214,"##♬적이고":14215,"부문":14216,"홍보":14217,"##한게":14218,"##서♬는":14219,"불편":14220,"##당♬은":14221,"지♬들":14222,"토착":14223,"달려":14224,"##이죠":14225,"##웹툰":14226,"##롭게":14227,"상처":14228,"##♬끼리":14229,"생겼":14230,"정리":14231,"##시키고":14232,"속♬에서":14233,"나무":14234,"민간":14235,"##문화":14236,"쓰고":14237,"하는거":14238,"##스럽게":14239,"귀여":14240,"모르고":14241,"갈등":14242,"##차피":14243,"하게":14244,"끝♬까지":14245,"마음♬을":14246,"차라리":14247,"있으니":14248,"##한다면":14249,"피해자":14250,"멤버":14251,"근무":14252,"의심":14253,"부르":14254,"하이":14255,"##드♬를":14256,"평소":14257,"올리":14258,"통일":14259,"보다":14260,"전라도":14261,"덧붙":14262,"오빠":14263,"사상":14264,"상상":14265,"##예요":14266,"##구♬를":14267,"##나게":14268,"##겁니다":14269,"노무":14270,"##랐다":14271,"##체♬를":14272,"죽은":14273,"역할♬을":14274,"올림픽":14275,"##♬론":14276,"##♬과♬는":14277,"싸움":14278,"소비자":14279,"##가요":14280,"미사":14281,"번♬째":14282,"통과":14283,"적♬이":14284,"작년":14285,"##페이지":14286,"##려야":14287,"내놓":14288,"눈♬에":14289,"알바":14290,"어차피":14291,"없애":14292,"목숨":14293,"저희":14294,"위원장":14295,"수행":14296,"직업":14297,"벌써":14298,"위♬에":14299,"거지":14300,"공장":14301,"##놈♬들":14302,"인터뷰":14303,"도로":14304,"눈치":14305,"분위기":14306,"연예":14307,"##원♬에":14308,"대사":14309,"##주♬가":14310,"아무♬도":14311,"는다":14312,"재미있":14313,"연재":14314,"지지율":14315,"군사":14316,"것♬처럼":14317,"##계♬를":14318,"##같은데":14319,"##투자":14320,"가능♬성♬이":14321,"애니":14322,"역대":14323,"듣고":14324,"물어":14325,"있음":14326,"아닙":14327,"영화♬는":14328,"##가지고":14329,"있어야":14330,"분노":14331,"한마디":14332,"사람♬의":14333,"최고♬의":14334,"##♬에서♬의":14335,"희생":14336,"규정":14337,"항공":14338,"그린":14339,"3년":14340,"##프트":14341,"##싶다":14342,"##인줄":14343,"##대통령":14344,"##하려고":14345,"살고":14346,"##er":14347,"##아라":14348,"미세":14349,"##위♬가":14350,"이르":14351,"놓고":14352,"##도♬는":14353,"이해♬가":14354,"##국가":14355,"♬계":14356,"##인♬들♬이":14357,"자기♬가":14358,"##먹는":14359,"타고":14360,"##개발":14361,"거부":14362,"확산":14363,"비중":14364,"국방":14365,"굉장히":14366,"##쳤다":14367,"본다":14368,"중소기업":14369,"문제♬는":14370,"제안":14371,"##♬만♬이":14372,"##♬에♬만":14373,"300":14374,"##♬다":14375,"죽음":14376,"모습♬이":14377,"많아":14378,"충격":14379,"어쩔":14380,"##지원":14381,"##분♬이":14382,"심지어":14383,"무기":14384,"알게":14385,"♬째":14386,"확정":14387,"근거":14388,"자한♬당":14389,"##하려":14390,"일상":14391,"우주":14392,"##♬에게♬는":14393,"##드립":14394,"##지♬로":14395,"전해":14396,"##것♬을":14397,"##비♬가":14398,"공사":14399,"##이♬의":14400,"지배":14401,"고양":14402,"중♬에":14403,"##어♬를":14404,"그러니까":14405,"##바로":14406,"##50":14407,"여름":14408,"못할":14409,"이명박":14410,"비슷한":14411,"다행":14412,"엄청난":14413,"그림체":14414,"이라는":14415,"늘어":14416,"##사고":14417,"니♬네":14418,"민주주의":14419,"##할수":14420,"##신♬이":14421,"똑같":14422,"##정책":14423,"기념":14424,"어서":14425,"이재":14426,"##나는":14427,"적폐":14428,"10년":14429,"##랍니다":14430,"마이":14431,"질문":14432,"##리게":14433,"아쉬":14434,"##당한":14435,"##도♬의":14436,"영향♬을":14437,"고생":14438,"중간":14439,"시점":14440,"##국♬의":14441,"촛불":14442,"게다가":14443,"4월":14444,"부끄":14445,"공포":14446,"포인트":14447,"##셔서":14448,"나♬만":14449,"예전":14450,"##관리":14451,"근로":14452,"그나마":14453,"생기":14454,"보면서":14455,"분양":14456,"향후":14457,"말♬은":14458,"자녀":14459,"##봐도":14460,"앞♬에":14461,"♬서":14462,"혜택":14463,"우리♬의":14464,"것입니다":14465,"이곳":14466,"있다면":14467,"신규":14468,"특수":14469,"맨날":14470,"졸업":14471,"오르":14472,"임명":14473,"후반":14474,"스포츠":14475,"통한":14476,"에너지":14477,"청소년":14478,"없어서":14479,"비율":14480,"##리카":14481,"완벽":14482,"야당":14483,"제조":14484,"전시":14485,"만족":14486,"바꿔":14487,"새로":14488,"동일":14489,"##개혁":14490,"이제♬는":14491,"저지":14492,"##법♬을":14493,"당선":14494,"수♬밖에":14495,"##보기":14496,"눈물":14497,"뛰어":14498,"못했":14499,"옛날":14500,"된다고":14501,"나누":14502,"방침":14503,"♬용":14504,"마음♬이":14505,"액션":14506,"물건":14507,"등록":14508,"지식":14509,"##기술":14510,"정부♬는":14511,"##나오":14512,"♬두":14513,"안♬에":14514,"속♬에":14515,"등♬에":14516,"##위♬로":14517,"직장":14518,"완성":14519,"##아닌":14520,"노무현":14521,"주도":14522,"##은거":14523,"바탕":14524,"가득":14525,"신용":14526,"##시지":14527,"독자":14528,"판결":14529,"바보":14530,"우수":14531,"##져야":14532,"##자고":14533,"없는데":14534,"레이":14535,"##하다가":14536,"##세대":14537,"중단":14538,"돌려":14539,"있나":14540,"##심♬이":14541,"진정":14542,"##원♬에서":14543,"1000":14544,"임금":14545,"했지만":14546,"##씨♬가":14547,"##우스":14548,"축구":14549,"전반":14550,"난리":14551,"연애":14552,"특정":14553,"겁니다":14554,"보장":14555,"데이터":14556,"유통":14557,"슈퍼":14558,"표정":14559,"무섭":14560,"아닌데":14561,"겨울":14562,"##시대":14563,"경기도":14564,"##텐츠":14565,"##것♬들":14566,"저러":14567,"기초":14568,"시기":14569,"돼지":14570,"맞춰":14571,"가면":14572,"##하신":14573,"접근":14574,"##문제":14575,"불구하고":14576,"문제♬를":14577,"##해야지":14578,"논리":14579,"몰아":14580,"예정이다":14581,"잠시":14582,"##다른":14583,"따로":14584,"있어요":14585,"같아요":14586,"##것이다":14587,"나머지":14588,"월드":14589,"선물":14590,"##우는":14591,"분기":14592,"##활동":14593,"마무리":14594,"##가면":14595,"##거운":14596,"형성":14597,"거쳐":14598,"벌어":14599,"존나":14600,"리그":14601,"##선거":14602,"밝히":14603,"윤석":14604,"##기♬만":14605,"현지":14606,"공주":14607,"##행♬을":14608,"##진♬이":14609,"##았는데":14610,"매력":14611,"시간♬을":14612,"앞♬에서":14613,"수술":14614,"조합":14615,"##업체":14616,"##퓨터":14617,"##았던":14618,"##하라고":14619,"90":14620,"##받는":14621,"인구":14622,"바다":14623,"##♬제":14624,"협상":14625,"3월":14626,"소유":14627,"모자":14628,"굳이":14629,"봐야":14630,"기부":14631,"재정":14632,"##시설":14633,"이루어":14634,"##것♬은":14635,"내일":14636,"영화♬가":14637,"##가족":14638,"##사♬에":14639,"멍청":14640,"##해진":14641,"위안":14642,"##환경":14643,"##겠죠":14644,"##수♬로":14645,"##회♬를":14646,"나♬의":14647,"##신♬을":14648,"활성":14649,"제출":14650,"인한":14651,"나경":14652,"##연구":14653,"##인간":14654,"##지♬의":14655,"##됩니다":14656,"##스러":14657,"반복":14658,"##석♬이":14659,"변경":14660,"세대":14661,"것♬에":14662,"현상":14663,"디지":14664,"##드♬가":14665,"##이기♬도":14666,"인간♬이":14667,"뒤♬에":14668,"대전":14669,"비밀":14670,"노인":14671,"개봉":14672,"달창":14673,"시각":14674,"##10":14675,"만들고":14676,"있네":14677,"똑같은":14678,"일베":14679,"##는거야":14680,"6월":14681,"##치♬가":14682,"지정":14683,"##0년대":14684,"위협":14685,"##걸로":14686,"♬제":14687,"체험":14688,"KBS":14689,"##려라":14690,"원칙":14691,"##가♬는":14692,"결론":14693,"##증권":14694,"답답":14695,"도전":14696,"일제":14697,"협의":14698,"살펴":14699,"미안":14700,"##사♬로":14701,"개월":14702,"##온다":14703,"##트♬가":14704,"이상한":14705,"원인":14706,"으면":14707,"않으면":14708,"##케팅":14709,"그것♬도":14710,"5월":14711,"사전":14712,"그러니":14713,"월급":14714,"##분♬들":14715,"동네":14716,"임대":14717,"##마라":14718,"된다는":14719,"##보자":14720,"악플":14721,"지분":14722,"사법":14723,"일본♬이":14724,"나♬를":14725,"둘러":14726,"대박":14727,"##방송":14728,"믿고":14729,"일어":14730,"##♬권♬을":14731,"가능한":14732,"집안":14733,"호텔":14734,"디자인":14735,"##니스":14736,"베트":14737,"##거같":14738,"서울시":14739,"꾸준":14740,"저기":14741,"어른":14742,"만드":14743,"무대":14744,"그♬들♬의":14745,"반성":14746,"프로젝":14747,"가구":14748,"##거든요":14749,"손♬을":14750,"황교안":14751,"선언":14752,"##리어":14753,"##이익":14754,"달성":14755,"##하려는":14756,"수♬는":14757,"##도♬에":14758,"폭력":14759,"안하고":14760,"토론":14761,"##했습니다":14762,"애초♬에":14763,"선진":14764,"대기업":14765,"그♬를":14766,"박정":14767,"경북":14768,"와서":14769,"##없고":14770,"##♬께서":14771,"하시":14772,"##개♬의":14773,"의식":14774,"삼성전자":14775,"투입":14776,"관심♬을":14777,"컴퓨터":14778,"##왜구":14779,"정주":14780,"##♬만♬으로":14781,"♬생":14782,"초기":14783,"##리그":14784,"미세먼":14785,"계열":14786,"창업":14787,"##♬와♬는":14788,"시작했다":14789,"이름♬을":14790,"골프":14791,"##주♬를":14792,"인간♬의":14793,"금리":14794,"##부♬의":14795,"##단♬을":14796,"##일까":14797,"못했다":14798,"총리":14799,"사회♬적":14800,"##느라":14801,"##줘야":14802,"##약♬을":14803,"지랄":14804,"하나님":14805,"태양":14806,"##만화":14807,"##지요":14808,"마라":14809,"돈♬이":14810,"버스":14811,"파괴":14812,"눈♬을":14813,"일♬은":14814,"##아지":14815,"보였":14816,"진정한":14817,"9월":14818,"##20":14819,"##국♬에":14820,"짜증":14821,"나름":14822,"##사건":14823,"##나서":14824,"보상":14825,"비행":14826,"측면":14827,"어울":14828,"##장♬으로":14829,"MBC":14830,"마법":14831,"10월":14832,"##♬인":14833,"세력":14834,"##도시":14835,"등♬으로":14836,"35":14837,"원하는":14838,"##국♬이":14839,"바이러스":14840,"아무것♬도":14841,"최악":14842,"예방":14843,"##♬들♬한테":14844,"공유":14845,"말해":14846,"12월":14847,"이미지":14848,"##메라":14849,"채용":14850,"구분":14851,"절차":14852,"##었다고":14853,"잘생":14854,"도망":14855,"불가능":14856,"늘어나":14857,"##♬같이":14858,"블랙":14859,"##거라":14860,"사퇴":14861,"요소":14862,"공수":14863,"되는데":14864,"7월":14865,"♬엔":14866,"만♬에":14867,"벗어나":14868,"##주♬의":14869,"드디어":14870,"##적♬이":14871,"심리":14872,"발행":14873,"상황♬에서":14874,"무역":14875,"서울대":14876,"미치":14877,"하네":14878,"##조선":14879,"받았다":14880,"베트남":14881,"##♬감":14882,"울산":14883,"싫어요":14884,"##짜리":14885,"수업":14886,"운용":14887,"##in":14888,"어제":14889,"무너":14890,"하나♬의":14891,"외모":14892,"##학년":14893,"운전":14894,"##는가":14895,"취급":14896,"대우":14897,"못해":14898,"##시켰":14899,"택시":14900,"다소":14901,"보였다":14902,"맞아":14903,"조심":14904,"##아이":14905,"지♬가":14906,"##민♬이":14907,"중국인":14908,"크리스":14909,"그만큼":14910,"긴장":14911,"흔들":14912,"동료":14913,"##웠다":14914,"##마자":14915,"##래도":14916,"뭐냐":14917,"너무나":14918,"빠른":14919,"##말♬이":14920,"바닥":14921,"##이었던":14922,"온갖":14923,"여기♬에":14924,"스마트폰":14925,"한반":14926,"심판":14927,"의무":14928,"이벤":14929,"무리":14930,"한국인":14931,"같습니다":14932,"그렇지":14933,"없습니다":14934,"##이에요":14935,"하나♬도":14936,"없음":14937,"##부♬에":14938,"##하도록":14939,"귀엽":14940,"##명♬은":14941,"아나":14942,"있는지":14943,"말아":14944,"##있는데":14945,"스타일":14946,"##있고":14947,"리더":14948,"##♬으로부터":14949,"그것♬은":14950,"긍정":14951,"소녀":14952,"놀라":14953,"##보단":14954,"마케팅":14955,"8월":14956,"나섰":14957,"##이♬에":14958,"특성":14959,"너♬네":14960,"여자♬가":14961,"쿠키":14962,"향해":14963,"노동자":14964,"##위♬는":14965,"이♬와":14966,"동원":14967,"소통":14968,"##받은":14969,"아니라고":14970,"하니":14971,"문죄":14972,"회원":14973,"##30":14974,"그♬들♬은":14975,"주가":14976,"1월":14977,"거야":14978,"것♬과":14979,"왔다":14980,"##바일":14981,"##되면서":14982,"정작":14983,"미사일":14984,"##수준":14985,"이번♬에":14986,"변호사":14987,"##하니까":14988,"는지":14989,"##말로":14990,"방어":14991,"##이팅":14992,"KT":14993,"필요♬가":14994,"영웅":14995,"경남":14996,"확실히":14997,"효율":14998,"흐름":14999,"인제":15000,"똑같이":15001,"않을까":15002,"##주시":15003,"이하":15004,"그녀♬의":15005,"펼쳐":15006,"담배":15007,"휴대":15008,"페미":15009,"##친구":15010,"아닐까":15011,"##하셨":15012,"브라":15013,"단어":15014,"메이":15015,"풀어":15016,"전년":15017,"선생♬님":15018,"실험":15019,"출발":15020,"저녁":15021,"000":15022,"과정♬에서":15023,"##만큼":15024,"##관♬이":15025,"이성":15026,"대답":15027,"본부":15028,"금액":15029,"무식":15030,"##그러":15031,"극복":15032,"자원":15033,"##겠네요":15034,"데뷔":15035,"##주면":15036,"##경기":15037,"당신♬이":15038,"문재인♬이":15039,"손해":15040,"친일파":15041,"생각하고":15042,"준다":15043,"체계":15044,"라면":15045,"사회주의":15046,"부인":15047,"♬율":15048,"##사람♬이":15049,"##이네요":15050,"무료":15051,"##♬까지♬는":15052,"##세♬가":15053,"불리":15054,"영역":15055,"##하네요":15056,"스페":15057,"##시오":15058,"봤는데":15059,"같아":15060,"절반":15061,"##안♬을":15062,"남♬의":15063,"##♬보고":15064,"고소":15065,"##부모":15066,"아까":15067,"보니까":15068,"있었는데":15069,"소름":15070,"전했":15071,"내용♬이":15072,"그것♬을":15073,"이리":15074,"수많은":15075,"##선♬이":15076,"수십":15077,"##on":15078,"##달라고":15079,"물러":15080,"토착왜구":15081,"장소":15082,"남녀":15083,"내용♬을":15084,"덕분♬에":15085,"##간♬의":15086,"적절":15087,"모바일":15088,"헌법":15089,"가고":15090,"대상♬으로":15091,"죽을":15092,"디지털":15093,"악마":15094,"동의":15095,"사형":15096,"아냐":15097,"위반":15098,"이탈":15099,"##한국":15100,"높이":15101,"폭발":15102,"##인듯":15103,"몰랐":15104,"가까운":15105,"지금♬도":15106,"##규모":15107,"매년":15108,"위해서♬는":15109,"교사":15110,"집회":15111,"더러운":15112,"##라스":15113,"상황♬이":15114,"먹는":15115,"문학":15116,"몸♬을":15117,"다이":15118,"안된다":15119,"##나고":15120,"법무부":15121,"않게":15122,"집행":15123,"영원":15124,"두려":15125,"##력♬은":15126,"사람♬도":15127,"말♬로":15128,"그녀♬는":15129,"나선":15130,"언어":15131,"허용":15132,"##겼다":15133,"자극":15134,"##보네":15135,"##해지":15136,"197":15137,"따뜻":15138,"##이♬로":15139,"##미♬가":15140,"한국♬의":15141,"통화":15142,"깨끗":15143,"##니아":15144,"대가리":15145,"테러":15146,"##자♬와":15147,"원작":15148,"조용히":15149,"##우♬가":15150,"정치인":15151,"외부":15152,"전형":15153,"##전♬이":15154,"매각":15155,"이유♬로":15156,"##때♬는":15157,"유튜":15158,"실망":15159,"본인♬이":15160,"##자♬들♬의":15161,"양심":15162,"##독교":15163,"드립":15164,"가만히":15165,"미국♬의":15166,"너♬는":15167,"작용":15168,"잘못된":15169,"여당":15170,"도움♬이":15171,"##♬마저":15172,"##♬만♬을":15173,"보건":15174,"사실상":15175,"##자♬에":15176,"검색":15177,"대해서♬는":15178,"2월":15179,"2차":15180,"##문♬이":15181,"그것♬이":15182,"말♬에":15183,"##군♬이":15184,"##받아":15185,"인증":15186,"아름다운":15187,"영화♬의":15188,"2000":15189,"강원":15190,"가수":15191,"언니":15192,"##량♬이":15193,"인근":15194,"##스토":15195,"채권":15196,"##단♬이":15197,"싶어":15198,"일주":15199,"누리":15200,"예고":15201,"##림♬이":15202,"##었을":15203,"모아":15204,"처음♬으로":15205,"아닙니다":15206,"소송":15207,"웃음":15208,"##잡고":15209,"별점":15210,"연금":15211,"11월":15212,"높아":15213,"설명했다":15214,"##정보":15215,"##거래":15216,"수호":15217,"부여":15218,"연장":15219,"프레":15220,"하던":15221,"##이였":15222,"전용":15223,"방역":15224,"유니":15225,"##하러":15226,"인데":15227,"명예":15228,"홍콩":15229,"커피":15230,"##했으면":15231,"하는게":15232,"종목":15233,"비리":15234,"내리":15235,"통해서":15236,"건축":15237,"눈♬이":15238,"##면서♬도":15239,"사항":15240,"##기사":15241,"나눠":15242,"바랍니다":15243,"정부♬의":15244,"기여":15245,"놈♬들":15246,"일본♬의":15247,"일본♬은":15248,"사이♬에":15249,"##카드":15250,"들여":15251,"이럴":15252,"콘텐츠":15253,"프로젝트":15254,"체제":15255,"수용":15256,"##플레이":15257,"추정":15258,"도착":15259,"아동":15260,"구입":15261,"있을까":15262,"체결":15263,"총장":15264,"##화♬가":15265,"공수처":15266,"##겠어요":15267,"##관♬을":15268,"폐지":15269,"들어오":15270,"예♬를":15271,"주말":15272,"정규":15273,"인력":15274,"중심♬으로":15275,"순수":15276,"부모♬님":15277,"앉아":15278,"##시킬":15279,"훌륭":15280,"의한":15281,"시위":15282,"##하는건":15283,"이상♬의":15284,"걸어":15285,"##조작":15286,"##돌아":15287,"##an":15288,"계산":15289,"작성":15290,"상징":15291,"##보험":15292,"우한":15293,"떠올":15294,"이나라":15295,"##♬루":15296,"진단":15297,"반도":15298,"##쳐서":15299,"##나무":15300,"지시":15301,"낮은":15302,"수정":15303,"##대는":15304,"제2":15305,"식품":15306,"뒤집":15307,"##건설":15308,"애플":15309,"축하":15310,"##사♬와":15311,"소중":15312,"카메라":15313,"점♬을":15314,"보지":15315,"국민♬들♬은":15316,"정치♬적":15317,"잡고":15318,"설계":15319,"피부":15320,"가끔":15321,"통제":15322,"흘러":15323,"신♬의":15324,"##나♬는":15325,"##이니까":15326,"냄새":15327,"##하기♬로":15328,"##량♬을":15329,"팩트":15330,"보이지":15331,"##리티":15332,"##으려고":15333,"해야지":15334,"기계":15335,"배치":15336,"삶♬을":15337,"5년":15338,"다면서":15339,"감옥":15340,"힘♬이":15341,"좋았":15342,"##쓰고":15343,"36":15344,"##영업":15345,"##주택":15346,"나와서":15347,"집♬에서":15348,"왠지":15349,"##있어":15350,"상담":15351,"뉴욕":15352,"##진짜":15353,"간다":15354,"부부":15355,"케이":15356,"##했으며":15357,"감안":15358,"##실♬을":15359,"상황♬을":15360,"남자♬가":15361,"마음♬에":15362,"##길래":15363,"##한건":15364,"##대♬는":15365,"##전♬에서":15366,"한나라":15367,"뭐라":15368,"##위해":15369,"합리":15370,"생존":15371,"##속♬에":15372,"내내":15373,"맞추":15374,"어떠":15375,"언제나":15376,"에이":15377,"있냐":15378,"평범":15379,"연락":15380,"45":15381,"봐라":15382,"회담":15383,"시원":15384,"##누리":15385,"나타났":15386,"없네":15387,"스킬":15388,"만난":15389,"후♬에":15390,"이중":15391,"51":15392,"다면":15393,"##리스트":15394,"##리며":15395,"자한당":15396,"예측":15397,"글♬을":15398,"법률":15399,"##가♬의":15400,"보자":15401,"억울":15402,"실천":15403,"법인":15404,"전했다":15405,"어이":15406,"##시♬가":15407,"##바리":15408,"백신":15409,"봉사":15410,"##세기":15411,"새벽":15412,"전세계":15413,"반일":15414,"나갈":15415,"##버린":15416,"##함♬이":15417,"##라니":15418,"다녀":15419,"비상":15420,"##려나":15421,"심사":15422,"##길♬을":15423,"교체":15424,"##놓은":15425,"정체":15426,"뭐야":15427,"##질♬을":15428,"매국":15429,"안타깝":15430,"##티브":15431,"##로♬를":15432,"##상♬에":15433,"♬씩":15434,"##이라니":15435,"##었지만":15436,"##드♬의":15437,"##라지":15438,"개그":15439,"##점♬은":15440,"화려":15441,"##말♬을":15442,"모른다":15443,"세상♬에":15444,"대처":15445,"이♬들♬은":15446,"밀어":15447,"자리♬를":15448,"##료♬를":15449,"흥미":15450,"베이":15451,"길♬을":15452,"당국":15453,"##워크":15454,"우연":15455,"인재":15456,"인간♬들":15457,"쏟아":15458,"가게":15459,"##히는":15460,"떨어진":15461,"왜이":15462,"그렇다고":15463,"조국♬이":15464,"투쟁":15465,"웃기":15466,"여부":15467,"한다면":15468,"정주행":15469,"##안♬에":15470,"제1":15471,"비정":15472,"나쁘":15473,"할인":15474,"자아":15475,"##달러":15476,"스크":15477,"거기♬에":15478,"알아서":15479,"남은":15480,"있으":15481,"##경♬이":15482,"없지":15483,"야구":15484,"전날":15485,"학습":15486,"##원♬으로":15487,"집값":15488,"##것♬들♬이":15489,"데려":15490,"라인":15491,"##고♬를":15492,"관심♬이":15493,"불만":15494,"기울":15495,"정신차":15496,"최소한":15497,"대로":15498,"##하겠다":15499,"개소리":15500,"내세":15501,"사람♬들♬의":15502,"마지막♬에":15503,"예비":15504,"유시민":15505,"##본다":15506,"쓰러":15507,"장비":15508,"공산주의":15509,"##아치":15510,"꾸준히":15511,"화면":15512,"공모":15513,"##대학":15514,"##주♬는":15515,"한계":15516,"먹을":15517,"속도":15518,"##시길":15519,"말할":15520,"##사랑":15521,"##모리":15522,"패션":15523,"창조":15524,"고위":15525,"홈페이지":15526,"아니야":15527,"##금융":15528,"가능♬성":15529,"출전":15530,"편의":15531,"실질":15532,"생겨":15533,"박정희":15534,"아쉽":15535,"애♬들♬이":15536,"##금지":15537,"들어서":15538,"주문":15539,"미군":15540,"적어도":15541,"소리♬를":15542,"제거":15543,"이♬들":15544,"간단":15545,"1위":15546,"탄생":15547,"명령":15548,"공산당":15549,"말한다":15550,"정신병":15551,"이승":15552,"##댓글":15553,"이정도":15554,"최순":15555,"연습":15556,"##제품":15557,"##쪽♬으로":15558,"말한":15559,"지♬들♬이":15560,"##었습니다":15561,"##피소":15562,"검은":15563,"##일♬부터":15564,"상대♬로":15565,"##이♬들":15566,"윤석열":15567,"##되기":15568,"사이트":15569,"생각한다":15570,"원내":15571,"##놈♬이":15572,"좋을":15573,"설마":15574,"기독교":15575,"태극":15576,"##지기":15577,"##드♬는":15578,"아무런":15579,"반도체":15580,"##인가요":15581,"도덕":15582,"##하는지":15583,"##회의":15584,"부상":15585,"##로그":15586,"것♬들♬이":15587,"신기":15588,"기소":15589,"가해":15590,"공항":15591,"##사는":15592,"겨우":15593,"##리자":15594,"##격♬을":15595,"이른":15596,"창출":15597,"것♬들":15598,"이슈":15599,"생각합니다":15600,"나오고":15601,"##따라":15602,"제정":15603,"결코":15604,"카페":15605,"##임금":15606,"챙겨":15607,"##바이":15608,"##리♬로":15609,"##기간":15610,"##방♬에":15611,"무서운":15612,"보게":15613,"나왔다":15614,"옆♬에":15615,"안좋":15616,"##거면":15617,"##먹을":15618,"32":15619,"정은":15620,"입고":15621,"##하시는":15622,"전남":15623,"혼란":15624,"없으면":15625,"쇼핑":15626,"등등":15627,"대통령♬은":15628,"가까이":15629,"뻔뻔":15630,"사랑♬을":15631,"집권":15632,"강력한":15633,"실현":15634,"##지마라":15635,"상식":15636,"채널":15637,"체육":15638,"다루":15639,"이론":15640,"통계":15641,"소년":15642,"안돼":15643,"올랐":15644,"이혼":15645,"이벤트":15646,"의도":15647,"나오면":15648,"##소득":15649,"할아버":15650,"활약":15651,"##질♬이":15652,"##대회":15653,"수석":15654,"가야":15655,"알려졌":15656,"클럽":15657,"##소리♬를":15658,"##라♬가":15659,"유사":15660,"김영":15661,"모여":15662,"분명히":15663,"##야말로":15664,"보낸":15665,"다음♬화":15666,"##서관":15667,"##어야지":15668,"청문":15669,"##자체":15670,"##대가리":15671,"##진♬을":15672,"틀딱":15673,"떠오":15674,"##이라며":15675,"아저":15676,"##호♬가":15677,"SBS":15678,"근본":15679,"♬마다":15680,"더이상":15681,"계획이다":15682,"##항공":15683,"판사":15684,"주사":15685,"철학":15686,"##유♬의":15687,"취소":15688,"나경원":15689,"유튜브":15690,"##범죄":15691,"##기♬와":15692,"기타":15693,"안내":15694,"##친다":15695,"실력":15696,"불매":15697,"##메이션":15698,"##나가":15699,"2015년":15700,"물리":15701,"느낄":15702,"##점♬으로":15703,"오픈":15704,"억지":15705,"작가♬님♬이":15706,"못하게":15707,"##차♬를":15708,"간첩":15709,"죽여":15710,"압박":15711,"##들아":15712,"##남불":15713,"때♬마다":15714,"한화":15715,"앨범":15716,"않나":15717,"현금":15718,"##바닥":15719,"몰라":15720,"지상":15721,"가능하다":15722,"##까봐":15723,"소식":15724,"수학":15725,"##겠어":15726,"상장":15727,"##군♬의":15728,"칭찬":15729,"감성":15730,"방해":15731,"##구조":15732,"##분♬을":15733,"##진♬은":15734,"##경♬을":15735,"그♬들♬이":15736,"개입":15737,"##19":15738,"이외":15739,"미술":15740,"##거냐":15741,"인류":15742,"여주":15743,"##게임":15744,"끝내":15745,"애국":15746,"초딩":15747,"저번":15748,"잠깐":15749,"이용해":15750,"그곳":15751,"동시":15752,"지수":15753,"때려":15754,"##일♬까지":15755,"최대한":15756,"밑♬에":15757,"모두♬가":15758,"식♬으로":15759,"선배":15760,"피해♬를":15761,"등급":15762,"갖추":15763,"소환":15764,"이름♬이":15765,"##♬들♬로":15766,"추구":15767,"초등":15768,"##화점":15769,"##정치":15770,"오해":15771,"모른":15772,"##받을":15773,"광화":15774,"손가락":15775,"##상태":15776,"만한":15777,"미세먼지":15778,"2016년":15779,"관련된":15780,"리얼":15781,"가라":15782,"처음♬부터":15783,"##호♬를":15784,"출마":15785,"수수":15786,"##라우":15787,"확률":15788,"##평가":15789,"괴롭":15790,"전면":15791,"##던지":15792,"일부러":15793,"돌아오":15794,"##♬보다♬도":15795,"단순히":15796,"상위":15797,"동성":15798,"동아":15799,"##리트":15800,"수능":15801,"경우♬에♬는":15802,"이달":15803,"해소":15804,"아니지만":15805,"경우♬는":15806,"##거고":15807,"##♬짜리":15808,"뽑아":15809,"##회장":15810,"##TV":15811,"고백":15812,"##된다고":15813,"미디어":15814,"##♬님♬은":15815,"확장":15816,"당신♬은":15817,"복귀":15818,"빼고":15819,"##♬두":15820,"법원":15821,"##여자":15822,"##서♬가":15823,"분리":15824,"##럽게":15825,"##개♬가":15826,"아이템":15827,"##먹은":15828,"사람♬들♬을":15829,"장르":15830,"재밌게":15831,"없지만":15832,"어깨":15833,"국토":15834,"정도♬의":15835,"무한":15836,"키우":15837,"##기지":15838,"##라며":15839,"33":15840,"다를":15841,"##기에":15842,"##정♬은":15843,"살려":15844,"이것♬은":15845,"그리스":15846,"플랫":15847,"국무":15848,"##단다":15849,"##피스":15850,"##당히":15851,"##우♬는":15852,"주의":15853,"고향":15854,"증명":15855,"것이었다":15856,"안철":15857,"미국♬이":15858,"연계":15859,"아르":15860,"듯한":15861,"대부분♬의":15862,"196":15863,"##치게":15864,"##싶은":15865,"##인♬으로":15866,"34":15867,"##였는데":15868,"38":15869,"##종♬의":15870,"여유":15871,"##ar":15872,"다리":15873,"##없어":15874,"##♬화♬를":15875,"##♬보단":15876,"경쟁력":15877,"키워":15878,"많은데":15879,"청구":15880,"차이♬가":15881,"기생":15882,"감사합니다":15883,"에피소":15884,"팔아":15885,"보여주는":15886,"네트":15887,"##애♬들":15888,"하냐":15889,"전력":15890,"느낌♬이":15891,"니♬들♬은":15892,"정보♬를":15893,"진지":15894,"상호":15895,"오지":15896,"관람":15897,"느낀":15898,"평등":15899,"자전":15900,"종북":15901,"설득":15902,"오늘♬도":15903,"##치지":15904,"수원":15905,"거듭":15906,"##한번":15907,"##니깐":15908,"##주지":15909,"한국♬은":15910,"##든가":15911,"필요하다":15912,"저게":15913,"말이다":15914,"고발":15915,"##아니라":15916,"차단":15917,"##상♬은":15918,"왜냐":15919,"어려움":15920,"끝난":15921,"점♬에서":15922,"했고":15923,"##방♬을":15924,"과제":15925,"점검":15926,"아니지":15927,"##수수":15928,"모집":15929,"착각":15930,"수치":15931,"빠르":15932,"지옥":15933,"깊은":15934,"이웃":15935,"대놓고":15936,"정확히":15937,"한데":15938,"##상황":15939,"##복♬을":15940,"부품":15941,"한반도":15942,"박사":15943,"있었고":15944,"세상♬을":15945,"##거임":15946,"인공":15947,"99":15948,"갈수록":15949,"요리":15950,"바란다":15951,"영혼":15952,"갔다":15953,"##일♬은":15954,"2017년":15955,"##♬적이다":15956,"##로♬가":15957,"##되는데":15958,"대만":15959,"##♬층":15960,"##비아":15961,"커플":15962,"##로지":15963,"교과":15964,"##안♬이":15965,"참고♬로":15966,"진입":15967,"##or":15968,"힘내":15969,"##는거다":15970,"대변인":15971,"복잡":15972,"내고":15973,"##카오":15974,"청원":15975,"재난":15976,"##그리":15977,"##음♬이":15978,"##프라":15979,"##져라":15980,"♬한테":15981,"사실♬은":15982,"둘♬이":15983,"걸쳐":15984,"문빠":15985,"라헬":15986,"##버리":15987,"경우♬도":15988,"발사":15989,"떨어지":15990,"투자자":15991,"##적♬을":15992,"##시♬는":15993,"##어♬가":15994,"##긴다":15995,"##정♬에":15996,"반발":15997,"했으나":15998,"##♬자♬가":15999,"종류":16000,"겁나":16001,"때♬도":16002,"작가♬의":16003,"##뮤니":16004,"얼굴♬을":16005,"부활":16006,"뛰어난":16007,"국민♬은":16008,"성폭":16009,"찬성":16010,"바른":16011,"너♬도":16012,"매수":16013,"협박":16014,"##동생":16015,"북한♬이":16016,"공천":16017,"유도":16018,"물고":16019,"노출":16020,"빨간":16021,"대기":16022,"여야":16023,"분♬들":16024,"괜히":16025,"##이라서":16026,"##노총":16027,"보조":16028,"##터리":16029,"최강":16030,"5000":16031,"검증":16032,"1인":16033,"들었다":16034,"사귀":16035,"아이♬가":16036,"고등학교":16037,"성능":16038,"인가":16039,"했다고":16040,"지루":16041,"발휘":16042,"조선일보":16043,"##버스":16044,"그♬에":16045,"2014년":16046,"직후":16047,"완화":16048,"이란":16049,"착한":16050,"##보내":16051,"##배우":16052,"##히고":16053,"##가♬에":16054,"투기":16055,"배달":16056,"##있네":16057,"2018년":16058,"원전":16059,"00":16060,"후회":16061,"##사람♬들":16062,"##여행":16063,"가량":16064,"##드리":16065,"연구원":16066,"배뎃":16067,"필수":16068,"짱깨":16069,"##의식":16070,"생각하면":16071,"소방":16072,"것이라는":16073,"기회♬를":16074,"김대":16075,"할수":16076,"경상":16077,"줄어들":16078,"##장♬과":16079,"자영업":16080,"지휘":16081,"이지":16082,"화학":16083,"때♬까지":16084,"입학":16085,"한미":16086,"위안부":16087,"표시":16088,"협회":16089,"##그래":16090,"##때♬마다":16091,"고급":16092,"재무":16093,"아이디어":16094,"♬보고":16095,"몰려":16096,"##명♬으로":16097,"패배":16098,"죽어":16099,"유료":16100,"결제":16101,"투명":16102,"방사":16103,"##슬람":16104,"##직원":16105,"둘다":16106,"어야":16107,"##영상":16108,"멀리":16109,"##단♬의":16110,"했으며":16111,"##겠는데":16112,"인민":16113,"육성":16114,"KB":16115,"철저히":16116,"애니메이션":16117,"대다":16118,"둘째":16119,"##공사":16120,"손♬에":16121,"##되서":16122,"올린":16123,"##나면":16124,"##미터":16125,"답변":16126,"응답":16127,"최순실":16128,"내♬로":16129,"아닌가요":16130,"못한다":16131,"국립":16132,"중간♬에":16133,"그렇고":16134,"동기":16135,"멋진":16136,"비례":16137,"고정":16138,"##부대":16139,"##시절":16140,"어요":16141,"##줌마":16142,"##용♬이":16143,"연간":16144,"월드컵":16145,"이번♬화":16146,"배신":16147,"가을":16148,"제재":16149,"지하철":16150,"모르겠다":16151,"엄마♬가":16152,"돌파":16153,"거기♬서":16154,"##현♬이":16155,"법♬을":16156,"그러고":16157,"양성":16158,"다름":16159,"현대차":16160,"매장":16161,"##비♬는":16162,"좋지":16163,"보인":16164,"##♬란":16165,"자율":16166,"이런거":16167,"이것♬이":16168,"##피언":16169,"♬로부터":16170,"중국♬에":16171,"##었으면":16172,"부대":16173,"어릴":16174,"맞고":16175,"고마":16176,"##장면":16177,"##향♬이":16178,"순위":16179,"상황♬에":16180,"생각♬은":16181,"책임♬을":16182,"자존":16183,"탈출":16184,"날아":16185,"실업":16186,"##전♬의":16187,"얘기♬를":16188,"줄어":16189,"이탈리아":16190,"남한":16191,"##전쟁":16192,"스테":16193,"학원":16194,"옹호":16195,"##주♬에":16196,"조선족":16197,"이민":16198,"일본♬에":16199,"경고":16200,"균형":16201,"주지":16202,"2018":16203,"무려":16204,"파트":16205,"세종":16206,"자전거":16207,"##상♬의":16208,"노예":16209,"세워":16210,"##였고":16211,"##해주는":16212,"악화":16213,"대학생":16214,"감독♬은":16215,"##다시":16216,"단독":16217,"##함♬으로써":16218,"방지":16219,"##된다는":16220,"언젠":16221,"검찰개혁":16222,"상반기":16223,"아울":16224,"##NS":16225,"이야기♬가":16226,"보안":16227,"성인":16228,"식당":16229,"형사":16230,"의지":16231,"부분♬이":16232,"##스♬와":16233,"일찍":16234,"수단":16235,"헤어":16236,"그다":16237,"##소♬가":16238,"책♬을":16239,"##점♬에서":16240,"대법":16241,"##동♬을":16242,"것이고":16243,"올라가":16244,"누구♬나":16245,"분류":16246,"떨어져":16247,"동양":16248,"IT":16249,"##♬님♬의":16250,"신체":16251,"씨♬는":16252,"##렀다":16253,"마주":16254,"느꼈":16255,"능력♬을":16256,"개판":16257,"김성":16258,"마침":16259,"정신♬이":16260,"##았고":16261,"##미♬를":16262,"봅니다":16263,"보이고":16264,"##연♬이":16265,"청문회":16266,"대결":16267,"##더만":16268,"##자나":16269,"받지":16270,"넘는":16271,"수준♬이":16272,"텔레":16273,"동맹":16274,"배려":16275,"당사":16276,"존경":16277,"##스포":16278,"안♬에서":16279,"한명":16280,"삶♬의":16281,"얻어":16282,"털어":16283,"아웃":16284,"커뮤니":16285,"공약":16286,"한정":16287,"##데이":16288,"모를":16289,"기준♬으로":16290,"뒤♬로":16291,"##이던":16292,"##을텐데":16293,"##협회":16294,"입주":16295,"이다":16296,"##소리♬가":16297,"중인":16298,"##하지말고":16299,"페이스":16300,"##셔야":16301,"##스티":16302,"400":16303,"##년♬이":16304,"시나":16305,"유명한":16306,"들어간":16307,"##자산":16308,"##시♬를":16309,"도움♬을":16310,"데리고":16311,"새누리":16312,"##동♬이":16313,"마약":16314,"##♬으":16315,"비롯한":16316,"##연금":16317,"2012년":16318,"##세력":16319,
[...]
