{"version":"1.0","truncation":null,"padding":null,"added_tokens":[{"id":0,"special":true,"content":"<s>","single_word":false,"lstrip":false,"rstrip":false,"normalized":false},{"id":1,"special":true,"content":"<pad>","single_word":false,"lstrip":false,"rstrip":false,"normalized":false},{"id":2,"special":true,"content":"</s>","single_word":false,"lstrip":false,"rstrip":false,"normalized":false},{"id":3,"special":true,"content":"<unk>","single_word":false,"lstrip":false,"rstrip":false,"normalized":false},{"id":4,"special":true,"content":"<mask>","single_word":false,"lstrip":false,"rstrip":false,"normalized":false},{"id":5,"special":true,"content":"[UNK0]","single_word":false,"lstrip":false,"rstrip":false,"normalized":false},{"id":6,"special":true,"content":"[UNK1]","single_word":false,"lstrip":false,"rstrip":false,"normalized":false},{"id":7,"special":true,"content":"[UNK2]","single_word":false,"lstrip":false,"rstrip":false,"normalized":false},{"id":8,"special":true,"content":"[UNK3]","single_word":false,"lstrip":false,"rstrip":false,"normalized":false},{"id":9,"special":true,"content":"[UNK4]","single_word":false,"lstrip":false,"rstrip":false,"normalized":false},{"id":10,"special":true,"content":"[UNK5]","single_word":false,"lstrip":false,"rstrip":false,"normalized":false},{"id":11,"special":true,"content":"[UNK6]","single_word":false,"lstrip":false,"rstrip":false,"normalized":false},{"id":12,"special":true,"content":"[UNK7]","single_word":false,"lstrip":false,"rstrip":false,"normalized":false},{"id":13,"special":true,"content":"[UNK8]","single_word":false,"lstrip":false,"rstrip":false,"normalized":false},{"id":14,"special":true,"content":"[UNK9]","single_word":false,"lstrip":false,"rstrip":false,"normalized":false},{"id":15,"special":true,"content":"[unused0]","single_word":false,"lstrip":false,"rstrip":false,"normalized":false},{"id":16,"special":true,"content":"[unused1]","single_word":false,"lstrip":false,"rstrip":false,"normalized":false},{"id":17,"special":true,"content":"[unused2]","single_word":false,"lstrip":false,"rstrip":false,"normalized":false},{"id":18,"special":true,"content":"[unused3]","single_word":false,"lstrip":false,"rstrip":false,"normalized":false},{"id":19,"special":true,"content":"[unused4]","single_word":false,"lstrip":false,"rstrip":false,"normalized":false},{"id":20,"special":true,"content":"[unused5]","single_word":false,"lstrip":false,"rstrip":false,"normalized":false},{"id":21,"special":true,"content":"[unused6]","single_word":false,"lstrip":false,"rstrip":false,"normalized":false},{"id":22,"special":true,"content":"[unused7]","single_word":false,"lstrip":false,"rstrip":false,"normalized":false},{"id":23,"special":true,"content":"[unused8]","single_word":false,"lstrip":false,"rstrip":false,"normalized":false},{"id":24,"special":true,"content":"[unused9]","single_word":false,"lstrip":false,"rstrip":false,"normalized":false},{"id":25,"special":true,"content":"[unused10]","single_word":false,"lstrip":false,"rstrip":false,"normalized":false},{"id":26,"special":true,"content":"[unused11]","single_word":false,"lstrip":false,"rstrip":false,"normalized":false},{"id":27,"special":true,"content":"[unused12]","single_word":false,"lstrip":false,"rstrip":false,"normalized":false},{"id":28,"special":true,"content":"[unused13]","single_word":false,"lstrip":false,"rstrip":false,"normalized":false},{"id":29,"special":true,"content":"[unused14]","single_word":false,"lstrip":false,"rstrip":false,"normalized":false},{"id":30,"special":true,"content":"[unused15]","single_word":false,"lstrip":false,"rstrip":false,"normalized":false},{"id":31,"special":true,"content":"[unused16]","single_word":false,"lstrip":false,"rstrip":false,"normalized":false},{"id":32,"special":true,"content":"[unused17]","single_word":false,"lstrip":false,"rstrip":false,"normalized":false},{"id":33,"special":true,"content":"[unused18]","single_word":false,"lstrip":false,"rstrip":false,"normalized":false},{"id":34,"special":true,"content":"[unused19]","single_word":false,"lstrip":false,"rstrip":false,"normalized":false},{"id":35,"special":true,"content":"[unused20]","single_word":false,"lstrip":false,"rstrip":false,"normalized":false},{"id":36,"special":true,"content":"[unused21]","single_word":false,"lstrip":false,"rstrip":false,"normalized":false},{"id":37,"special":true,"content":"[unused22]","single_word":false,"lstrip":false,"rstrip":false,"normalized":false},{"id":38,"special":true,"content":"[unused23]","single_word":false,"lstrip":false,"rstrip":false,"normalized":false},{"id":39,"special":true,"content":"[unused24]","single_word":false,"lstrip":false,"rstrip":false,"normalized":false},{"id":40,"special":true,"content":"[unused25]","single_word":false,"lstrip":false,"rstrip":false,"normalized":false},{"id":41,"special":true,"content":"[unused26]","single_word":false,"lstrip":false,"rstrip":false,"normalized":false},{"id":42,"special":true,"content":"[unused27]","single_word":false,"lstrip":false,"rstrip":false,"normalized":false},{"id":43,"special":true,"content":"[unused28]","single_word":false,"lstrip":false,"rstrip":false,"normalized":false},{"id":44,"special":true,"content":"[unused29]","single_word":false,"lstrip":false,"rstrip":false,"normalized":false},{"id":45,"special":true,"content":"[unused30]","single_word":false,"lstrip":false,"rstrip":false,"normalized":false},{"id":46,"special":true,"content":"[unused31]","single_word":false,"lstrip":false,"rstrip":false,"normalized":false},{"id":47,"special":true,"content":"[unused32]","single_word":false,"lstrip":false,"rstrip":false,"normalized":false},{"id":48,"special":true,"content":"[unused33]","single_word":false,"lstrip":false,"rstrip":false,"normalized":false},{"id":49,"special":true,"content":"[unused34]","single_word":false,"lstrip":false,"rstrip":false,"normalized":false},{"id":50,"special":true,"content":"[unused35]","single_word":false,"lstrip":false,"rstrip":false,"normalized":false},{"id":51,"special":true,"content":"[unused36]","single_word":false,"lstrip":false,"rstrip":false,"normalized":false},{"id":52,"special":true,"content":"[unused37]","single_word":false,"lstrip":false,"rstrip":false,"normalized":false},{"id":53,"special":true,"content":"[unused38]","single_word":false,"lstrip":false,"rstrip":false,"normalized":false},{"id":54,"special":true,"content":"[unused39]","single_word":false,"lstrip":false,"rstrip":false,"normalized":false},{"id":55,"special":true,"content":"[unused40]","single_word":false,"lstrip":false,"rstrip":false,"normalized":false},{"id":56,"special":true,"content":"[unused41]","single_word":false,"lstrip":false,"rstrip":false,"normalized":false},{"id":57,"special":true,"content":"[unused42]","single_word":false,"lstrip":false,"rstrip":false,"normalized":false},{"id":58,"special":true,"content":"[unused43]","single_word":false,"lstrip":false,"rstrip":false,"normalized":false},{"id":59,"special":true,"content":"[unused44]","single_word":false,"lstrip":false,"rstrip":false,"normalized":false},{"id":60,"special":true,"content":"[unused45]","single_word":false,"lstrip":false,"rstrip":false,"normalized":false},{"id":61,"special":true,"content":"[unused46]","single_word":false,"lstrip":false,"rstrip":false,"normalized":false},{"id":62,"special":true,"content":"[unused47]","single_word":false,"lstrip":false,"rstrip":false,"normalized":false},{"id":63,"special":true,"content":"[unused48]","single_word":false,"lstrip":false,"rstrip":false,"normalized":false},{"id":64,"special":true,"content":"[unused49]","single_word":false,"lstrip":false,"rstrip":false,"normalized":false},{"id":65,"special":true,"content":"[unused50]","single_word":false,"lstrip":false,"rstrip":false,"normalized":false},{"id":66,"special":true,"content":"[unused51]","single_word":false,"lstrip":false,"rstrip":false,"normalized":false},{"id":67,"special":true,"content":"[unused52]","single_word":false,"lstrip":false,"rstrip":false,"normalized":false},{"id":68,"special":true,"content":"[unused53]","single_word":false,"lstrip":false,"rstrip":false,"normalized":false},{"id":69,"special":true,"content":"[unused54]","single_word":false,"lstrip":false,"rstrip":false,"normalized":false},{"id":70,"special":true,"content":"[unused55]","single_word":false,"lstrip":false,"rstrip":false,"normalized":false},{"id":71,"special":true,"content":"[unused56]","single_word":false,"lstrip":false,"rstrip":false,"normalized":false},{"id":72,"special":true,"content":"[unused57]","single_word":false,"lstrip":false,"rstrip":false,"normalized":false},{"id":73,"special":true,"content":"[unused58]","single_word":false,"lstrip":false,"rstrip":false,"normalized":false},{"id":74,"special":true,"content":"[unused59]","single_word":false,"lstrip":false,"rstrip":false,"normalized":false},{"id":75,"special":true,"content":"[unused60]","single_word":false,"lstrip":false,"rstrip":false,"normalized":false},{"id":76,"special":true,"content":"[unused61]","single_word":false,"lstrip":false,"rstrip":false,"normalized":false},{"id":77,"special":true,"content":"[unused62]","single_word":false,"lstrip":false,"rstrip":false,"normalized":false},{"id":78,"special":true,"content":"[unused63]","single_word":false,"lstrip":false,"rstrip":false,"normalized":false},{"id":79,"special":true,"content":"[unused64]","single_word":false,"lstrip":false,"rstrip":false,"normalized":false},{"id":80,"special":true,"content":"[unused65]","single_word":false,"lstrip":false,"rstrip":false,"normalized":false},{"id":81,"special":true,"content":"[unused66]","single_word":false,"lstrip":false,"rstrip":false,"normalized":false},{"id":82,"special":true,"content":"[unused67]","single_word":false,"lstrip":false,"rstrip":false,"normalized":false},{"id":83,"special":true,"content":"[unused68]","single_word":false,"lstrip":false,"rstrip":false,"normalized":false},{"id":84,"special":true,"content":"[unused69]","single_word":false,"lstrip":false,"rstrip":false,"normalized":false},{"id":85,"special":true,"content":"[unused70]","single_word":false,"lstrip":false,"rstrip":false,"normalized":false},{"id":86,"special":true,"content":"[unused71]","single_word":false,"lstrip":false,"rstrip":false,"normalized":false},{"id":87,"special":true,"content":"[unused72]","single_word":false,"lstrip":false,"rstrip":false,"normalized":false},{"id":88,"special":true,"content":"[unused73]","single_word":false,"lstrip":false,"rstrip":false,"normalized":false},{"id":89,"special":true,"content":"[unused74]","single_word":false,"lstrip":false,"rstrip":false,"normalized":false},{"id":90,"special":true,"content":"[unused75]","single_word":false,"lstrip":false,"rstrip":false,"normalized":false},{"id":91,"special":true,"content":"[unused76]","single_word":false,"lstrip":false,"rstrip":false,"normalized":false},{"id":92,"special":true,"content":"[unused77]","single_word":false,"lstrip":false,"rstrip":false,"normalized":false},{"id":93,"special":true,"content":"[unused78]","single_word":false,"lstrip":false,"rstrip":false,"normalized":false},{"id":94,"special":true,"content":"[unused79]","single_word":false,"lstrip":false,"rstrip":false,"normalized":false},{"id":95,"special":true,"content":"[unused80]","single_word":false,"lstrip":false,"rstrip":false,"normalized":false},{"id":96,"special":true,"content":"[unused81]","single_word":false,"lstrip":false,"rstrip":false,"normalized":false},{"id":97,"special":true,"content":"[unused82]","single_word":false,"lstrip":false,"rstrip":false,"normalized":false},{"id":98,"special":true,"content":"[unused83]","single_word":false,"lstrip":false,"rstrip":false,"normalized":false},{"id":99,"special":true,"content":"[unused84]","single_word":false,"lstrip":false,"rstrip":false,"normalized":false},{"id":100,"special":true,"content":"[unused85]","single_word":false,"lstrip":false,"rstrip":false,"normalized":false},{"id":101,"special":true,"content":"[unused86]","single_word":false,"lstrip":false,"rstrip":false,"normalized":false},{"id":102,"special":true,"content":"[unused87]","single_word":false,"lstrip":false,"rstrip":false,"normalized":false},{"id":103,"special":true,"content":"[unused88]","single_word":false,"lstrip":false,"rstrip":false,"normalized":false},{"id":104,"special":true,"content":"[unused89]","single_word":false,"lstrip":false,"rstrip":false,"normalized":false},{"id":105,"special":true,"content":"[unused90]","single_word":false,"lstrip":false,"rstrip":false,"normalized":false},{"id":106,"special":true,"content":"[unused91]","single_word":false,"lstrip":false,"rstrip":false,"normalized":false},{"id":107,"special":true,"content":"[unused92]","single_word":false,"lstrip":false,"rstrip":false,"normalized":false},{"id":108,"special":true,"content":"[unused93]","single_word":false,"lstrip":false,"rstrip":false,"normalized":false},{"id":109,"special":true,"content":"[unused94]","single_word":false,"lstrip":false,"rstrip":false,"normalized":false},{"id":110,"special":true,"content":"[unused95]","single_word":false,"lstrip":false,"rstrip":false,"normalized":false},{"id":111,"special":true,"content":"[unused96]","single_word":false,"lstrip":false,"rstrip":false,"normalized":false},{"id":112,"special":true,"content":"[unused97]","single_word":false,"lstrip":false,"rstrip":false,"normalized":false},{"id":113,"special":true,"content":"[unused98]","single_word":false,"lstrip":false,"rstrip":false,"normalized":false},{"id":114,"special":true,"content":"[unused99]","single_word":false,"lstrip":false,"rstrip":false,"normalized":false},{"id":115,"special":true,"content":"[unused100]","single_word":false,"lstrip":false,"rstrip":false,"normalized":false},{"id":116,"special":true,"content":"[unused101]","single_word":false,"lstrip":false,"rstrip":false,"normalized":false},{"id":117,"special":true,"content":"[unused102]","single_word":false,"lstrip":false,"rstrip":false,"normalized":false},{"id":118,"special":true,"content":"[unused103]","single_word":false,"lstrip":false,"rstrip":false,"normalized":false},{"id":119,"special":true,"content":"[unused104]","single_word":false,"lstrip":false,"rstrip":false,"normalized":false},{"id":120,"special":true,"content":"[unused105]","single_word":false,"lstrip":false,"rstrip":false,"normalized":false},{"id":121,"special":true,"content":"[unused106]","single_word":false,"lstrip":false,"rstrip":false,"normalized":false},{"id":122,"special":true,"content":"[unused107]","single_word":false,"lstrip":false,"rstrip":false,"normalized":false},{"id":123,"special":true,"content":"[unused108]","single_word":false,"lstrip":false,"rstrip":false,"normalized":false},{"id":124,"special":true,"content":"[unused109]","single_word":false,"lstrip":false,"rstrip":false,"normalized":false},{"id":125,"special":true,"content":"[unused110]","single_word":false,"lstrip":false,"rstrip":false,"normalized":false},{"id":126,"special":true,"content":"[unused111]","single_word":false,"lstrip":false,"rstrip":false,"normalized":false},{"id":127,"special":true,"content":"[unused112]","single_word":false,"lstrip":false,"rstrip":false,"normalized":false},{"id":128,"special":true,"content":"[unused113]","single_word":false,"lstrip":false,"rstrip":false,"normalized":false},{"id":129,"special":true,"content":"[unused114]","single_word":false,"lstrip":false,"rstrip":false,"normalized":false},{"id":130,"special":true,"content":"[unused115]","single_word":false,"lstrip":false,"rstrip":false,"normalized":false},{"id":131,"special":true,"content":"[unused116]","single_word":false,"lstrip":false,"rstrip":false,"normalized":false},{"id":132,"special":true,"content":"[unused117]","single_word":false,"lstrip":false,"rstrip":false,"normalized":false},{"id":133,"special":true,"content":"[unused118]","single_word":false,"lstrip":false,"rstrip":false,"normalized":false},{"id":134,"special":true,"content":"[unused119]","single_word":false,"lstrip":false,"rstrip":false,"normalized":false},{"id":135,"special":true,"content":"[unused120]","single_word":false,"lstrip":false,"rstrip":false,"normalized":false},{"id":136,"special":true,"content":"[unused121]","single_word":false,"lstrip":false,"rstrip":false,"normalized":false},{"id":137,"special":true,"content":"[unused122]","single_word":false,"lstrip":false,"rstrip":false,"normalized":false},{"id":138,"special":true,"content":"[unused123]","single_word":false,"lstrip":false,"rstrip":false,"normalized":false},{"id":139,"special":true,"content":"[unused124]","single_word":false,"lstrip":false,"rstrip":false,"normalized":false},{"id":140,"special":true,"content":"[unused125]","single_word":false,"lstrip":false,"rstrip":false,"normalized":false},{"id":141,"special":true,"content":"[unused126]","single_word":false,"lstrip":false,"rstrip":false,"normalized":false},{"id":142,"special":true,"content":"[unused127]","single_word":false,"lstrip":false,"rstrip":false,"normalized":false},{"id":143,"special":true,"content":"[unused128]","single_word":false,"lstrip":false,"rstrip":false,"normalized":false},{"id":144,"special":true,"content":"[unused129]","single_word":false,"lstrip":false,"rstrip":false,"normalized":false},{"id":145,"special":true,"content":"[unused130]","single_word":false,"lstrip":false,"rstrip":false,"normalized":false},{"id":146,"special":true,"content":"[unused131]","single_word":false,"lstrip":false,"rstrip":false,"normalized":false},{"id":147,"special":true,"content":"[unused132]","single_word":false,"lstrip":false,"rstrip":false,"normalized":false},{"id":148,"special":true,"content":"[unused133]","single_word":false,"lstrip":false,"rstrip":false,"normalized":false},{"id":149,"special":true,"content":"[unused134]","single_word":false,"lstrip":false,"rstrip":false,"normalized":false},{"id":150,"special":true,"content":"[unused135]","single_word":false,"lstrip":false,"rstrip":false,"normalized":false},{"id":151,"special":true,"content":"[unused136]","single_word":false,"lstrip":false,"rstrip":false,"normalized":false},{"id":152,"special":true,"content":"[unused137]","single_word":false,"lstrip":false,"rstrip":false,"normalized":false},{"id":153,"special":true,"content":"[unused138]","single_word":false,"lstrip":false,"rstrip":false,"normalized":false},{"id":154,"special":true,"content":"[unused139]","single_word":false,"lstrip":false,"rstrip":false,"normalized":false},{"id":155,"special":true,"content":"[unused140]","single_word":false,"lstrip":false,"rstrip":false,"normalized":false},{"id":156,"special":true,"content":"[unused141]","single_word":false,"lstrip":false,"rstrip":false,"normalized":false},{"id":157,"special":true,"content":"[unused142]","single_word":false,"lstrip":false,"rstrip":false,"normalized":false},{"id":158,"special":true,"content":"[unused143]","single_word":false,"lstrip":false,"rstrip":false,"normalized":false},{"id":159,"special":true,"content":"[unused144]","single_word":false,"lstrip":false,"rstrip":false,"normalized":false},{"id":160,"special":true,"content":"[unused145]","single_word":false,"lstrip":false,"rstrip":false,"normalized":false},{"id":161,"special":true,"content":"[unused146]","single_word":false,"lstrip":false,"rstrip":false,"normalized":false},{"id":162,"special":true,"content":"[unused147]","single_word":false,"lstrip":false,"rstrip":false,"normalized":false},{"id":163,"special":true,"content":"[unused148]","single_word":false,"lstrip":false,"rstrip":false,"normalized":false},{"id":164,"special":true,"content":"[unused149]","single_word":false,"lstrip":false,"rstrip":false,"normalized":false},{"id":165,"special":true,"content":"[unused150]","single_word":false,"lstrip":false,"rstrip":false,"normalized":false},{"id":166,"special":true,"content":"[unused151]","single_word":false,"lstrip":false,"rstrip":false,"normalized":false},{"id":167,"special":true,"content":"[unused152]","single_word":false,"lstrip":false,"rstrip":false,"normalized":false},{"id":168,"special":true,"content":"[unused153]","single_word":false,"lstrip":false,"rstrip":false,"normalized":false},{"id":169,"special":true,"content":"[unused154]","single_word":false,"lstrip":false,"rstrip":false,"normalized":false},{"id":170,"special":true,"content":"[unused155]","single_word":false,"lstrip":false,"rstrip":false,"normalized":false},{"id":171,"special":true,"content":"[unused156]","single_word":false,"lstrip":false,"rstrip":false,"normalized":false},{"id":172,"special":true,"content":"[unused157]","single_word":false,"lstrip":false,"rstrip":false,"normalized":false},{"id":173,"special":true,"content":"[unused158]","single_word":false,"lstrip":false,"rstrip":false,"normalized":false},{"id":174,"special":true,"content":"[unused159]","single_word":false,"lstrip":false,"rstrip":false,"normalized":false},{"id":175,"special":true,"content":"[unused160]","single_word":false,"lstrip":false,"rstrip":false,"normalized":false},{"id":176,"special":true,"content":"[unused161]","single_word":false,"lstrip":false,"rstrip":false,"normalized":false},{"id":177,"special":true,"content":"[unused162]","single_word":false,"lstrip":false,"rstrip":false,"normalized":false},{"id":178,"special":true,"content":"[unused163]","single_word":false,"lstrip":false,"rstrip":false,"normalized":false},{"id":179,"special":true,"content":"[unused164]","single_word":false,"lstrip":false,"rstrip":false,"normalized":false},{"id":180,"special":true,"content":"[unused165]","single_word":false,"lstrip":false,"rstrip":false,"normalized":false},{"id":181,"special":true,"content":"[unused166]","single_word":false,"lstrip":false,"rstrip":false,"normalized":false},{"id":182,"special":true,"content":"[unused167]","single_word":false,"lstrip":false,"rstrip":false,"normalized":false},{"id":183,"special":true,"content":"[unused168]","single_word":false,"lstrip":false,"rstrip":false,"normalized":false},{"id":184,"special":true,"content":"[unused169]","single_word":false,"lstrip":false,"rstrip":false,"normalized":false},{"id":185,"special":true,"content":"[unused170]","single_word":false,"lstrip":false,"rstrip":false,"normalized":false},{"id":186,"special":true,"content":"[unused171]","single_word":false,"lstrip":false,"rstrip":false,"normalized":false},{"id":187,"special":true,"content":"[unused172]","single_word":false,"lstrip":false,"rstrip":false,"normalized":false},{"id":188,"special":true,"content":"[unused173]","single_word":false,"lstrip":false,"rstrip":false,"normalized":false},{"id":189,"special":true,"content":"[unused174]","single_word":false,"lstrip":false,"rstrip":false,"normalized":false},{"id":190,"special":true,"content":"[unused175]","single_word":false,"lstrip":false,"rstrip":false,"normalized":false},{"id":191,"special":true,"content":"[unused176]","single_word":false,"lstrip":false,"rstrip":false,"normalized":false},{"id":192,"special":true,"content":"[unused177]","single_word":false,"lstrip":false,"rstrip":false,"normalized":false},{"id":193,"special":true,"content":"[unused178]","single_word":false,"lstrip":false,"rstrip":false,"normalized":false},{"id":194,"special":true,"content":"[unused179]","single_word":false,"lstrip":false,"rstrip":false,"normalized":false},{"id":195,"special":true,"content":"[unused180]","single_word":false,"lstrip":false,"rstrip":false,"normalized":false},{"id":196,"special":true,"content":"[unused181]","single_word":false,"lstrip":false,"rstrip":false,"normalized":false},{"id":197,"special":true,"content":"[unused182]","single_word":false,"lstrip":false,"rstrip":false,"normalized":false},{"id":198,"special":true,"content":"[unused183]","single_word":false,"lstrip":false,"rstrip":false,"normalized":false},{"id":199,"special":true,"content":"[unused184]","single_word":false,"lstrip":false,"rstrip":false,"normalized":false},{"id":200,"special":true,"content":"[unused185]","single_word":false,"lstrip":false,"rstrip":false,"normalized":false},{"id":201,"special":true,"content":"[unused186]","single_word":false,"lstrip":false,"rstrip":false,"normalized":false},{"id":202,"special":true,"content":"[unused187]","single_word":false,"lstrip":false,"rstrip":false,"normalized":false},{"id":203,"special":true,"content":"[unused188]","single_word":false,"lstrip":false,"rstrip":false,"normalized":false},{"id":204,"special":true,"content":"[unused189]","single_word":false,"lstrip":false,"rstrip":false,"normalized":false},{"id":205,"special":true,"content":"[unused190]","single_word":false,"lstrip":false,"rstrip":false,"normalized":false},{"id":206,"special":true,"content":"[unused191]","single_word":false,"lstrip":false,"rstrip":false,"normalized":false},{"id":207,"special":true,"content":"[unused192]","single_word":false,"lstrip":false,"rstrip":false,"normalized":false},{"id":208,"special":true,"content":"[unused193]","single_word":false,"lstrip":false,"rstrip":false,"normalized":false},{"id":209,"special":true,"content":"[unused194]","single_word":false,"lstrip":false,"rstrip":false,"normalized":false},{"id":210,"special":true,"content":"[unused195]","single_word":false,"lstrip":false,"rstrip":false,"normalized":false},{"id":211,"special":true,"content":"[unused196]","single_word":false,"lstrip":false,"rstrip":false,"normalized":false},{"id":212,"special":true,"content":"[unused197]","single_word":false,"lstrip":false,"rstrip":false,"normalized":false},{"id":213,"special":true,"content":"[unused198]","single_word":false,"lstrip":false,"rstrip":false,"normalized":false},{"id":214,"special":true,"content":"[unused199]","single_word":false,"lstrip":false,"rstrip":false,"normalized":false}],"normalizer":{"type":"BertNormalizer","clean_text":true,"handle_chinese_chars":true,"strip_accents":false,"lowercase":false},"pre_tokenizer":{"type":"BertPreTokenizer"},"post_processor":null,"decoder":{"type":"WordPiece","prefix":"##","cleanup":true},"model":{"type":"WordPiece","unk_token":"[UNK]","continuing_subword_prefix":"##","max_input_chars_per_word":100,"vocab":{"<s>":0,"<pad>":1,"</s>":2,"<unk>":3,"<mask>":4,"[UNK0]":5,"[UNK1]":6,"[UNK2]":7,"[UNK3]":8,"[UNK4]":9,"[UNK5]":10,"[UNK6]":11,"[UNK7]":12,"[UNK8]":13,"[UNK9]":14,"[unused0]":15,"[unused1]":16,"[unused2]":17,"[unused3]":18,"[unused4]":19,"[unused5]":20,"[unused6]":21,"[unused7]":22,"[unused8]":23,"[unused9]":24,"[unused10]":25,"[unused11]":26,"[unused12]":27,"[unused13]":28,"[unused14]":29,"[unused15]":30,"[unused16]":31,"[unused17]":32,"[unused18]":33,"[unused19]":34,"[unused20]":35,"[unused21]":36,"[unused22]":37,"[unused23]":38,"[unused24]":39,"[unused25]":40,"[unused26]":41,"[unused27]":42,"[unused28]":43,"[unused29]":44,"[unused30]":45,"[unused31]":46,"[unused32]":47,"[unused33]":48,"[unused34]":49,"[unused35]":50,"[unused36]":51,"[unused37]":52,"[unused38]":53,"[unused39]":54,"[unused40]":55,"[unused41]":56,"[unused42]":57,"[unused43]":58,"[unused44]":59,"[unused45]":60,"[unused46]":61,"[unused47]":62,"[unused48]":63,"[unused49]":64,"[unused50]":65,"[unused51]":66,"[unused52]":67,"[unused53]":68,"[unused54]":69,"[unused55]":70,"[unused56]":71,"[unused57]":72,"[unused58]":73,"[unused59]":74,"[unused60]":75,"[unused61]":76,"[unused62]":77,"[unused63]":78,"[unused64]":79,"[unused65]":80,"[unused66]":81,"[unused67]":82,"[unused68]":83,"[unused69]":84,"[unused70]":85,"[unused71]":86,"[unused72]":87,"[unused73]":88,"[unused74]":89,"[unused75]":90,"[unused76]":91,"[unused77]":92,"[unused78]":93,"[unused79]":94,"[unused80]":95,"[unused81]":96,"[unused82]":97,"[unused83]":98,"[unused84]":99,"[unused85]":100,"[unused86]":101,"[unused87]":102,"[unused88]":103,"[unused89]":104,"[unused90]":105,"[unused91]":106,"[unused92]":107,"[unused93]":108,"[unused94]":109,"[unused95]":110,"[unused96]":111,"[unused97]":112,"[unused98]":113,"[unused99]":114,"[unused100]":115,"[unused101]":116,"[unused102]":117,"[unused103]":118,"[unused104]":119,"[unused105]":120,"[unused106]":121,"[unused107]":122,"[unused108]":123,"[unused109]":124,"[unused110]":125,"[unused111]":126,"[unused112]":127,"[unused113]":128,"[unused114]":129,"[unused115]":130,"[unused116]":131,"[unused117]":132,"[unused118]":133,"[unused119]":134,"[unused120]":135,"[unused121]":136,"[unused122]":137,"[unused123]":138,"[unused124]":139,"[unused125]":140,"[unused126]":141,"[unused127]":142,"[unused128]":143,"[unused129]":144,"[unused130]":145,"[unused131]":146,"[unused132]":147,"[unused133]":148,"[unused134]":149,"[unused135]":150,"[unused136]":151,"[unused137]":152,"[unused138]":153,"[unused139]":154,"[unused140]":155,"[unused141]":156,"[unused142]":157,"[unused143]":158,"[unused144]":159,"[unused145]":160,"[unused146]":161,"[unused147]":162,"[unused148]":163,"[unused149]":164,"[unused150]":165,"[unused151]":166,"[unused152]":167,"[unused153]":168,"[unused154]":169,"[unused155]":170,"[unused156]":171,"[unused157]":172,"[unused158]":173,"[unused159]":174,"[unused160]":175,"[unused161]":176,"[unused162]":177,"[unused163]":178,"[unused164]":179,"[unused165]":180,"[unused166]":181,"[unused167]":182,"[unused168]":183,"[unused169]":184,"[unused170]":185,"[unused171]":186,"[unused172]":187,"[unused173]":188,"[unused174]":189,"[unused175]":190,"[unused176]":191,"[unused177]":192,"[unused178]":193,"[unused179]":194,"[unused180]":195,"[unused181]":196,"[unused182]":197,"[unused183]":198,"[unused184]":199,"[unused185]":200,"[unused186]":201,"[unused187]":202,"[unused188]":203,"[unused189]":204,"[unused190]":205,"[unused191]":206,"[unused192]":207,"[unused193]":208,"[unused194]":209,"[unused195]":210,"[unused196]":211,"[unused197]":212,"[unused198]":213,"[unused199]":214,"!":215,"\"":216,"%":217,"'":218,",":219,"-":220,".":221,"/":222,"0":223,"1":224,"2":225,"3":226,"4":227,"5":228,"6":229,"7":230,"8":231,"9":232,":":233,"?":234,"@":235,"A":236,"B":237,"C":238,"D":239,"E":240,"F":241,"G":242,"H":243,"I":244,"J":245,"K":246,"L":247,"M":248,"N":249,"O":250,"P":251,"Q":252,"R":253,"S":254,"T":255,"U":256,"V":257,"W":258,"X":259,"Y":260,"Z":261,"a":262,"b":263,"c":264,"d":265,"e":266,"f":267,"g":268,"h":269,"i":270,"j":271,"k":272,"l":273,"m":274,"n":275,"o":276,"p":277,"q":278,"r":279,"s":280,"t":281,"u":282,"v":283,"w":284,"x":285,"y":286,"z":287,"~":288,"·":289,"♬":290,"가":291,"각":292,"갂":293,"갃":294,"간":295,"갅":296,"갆":297,"갇":298,"갈":299,"갉":300,"갊":301,"갋":302,"갌":303,"갍":304,"갎":305,"갏":306,"감":307,"갑":308,"값":309,"갓":310,"갔":311,"강":312,"갖":313,"갗":314,"갘":315,"같":316,"갚":317,"갛":318,"개":319,"객":320,"갞":321,"갟":322,"갠":323,"갢":324,"갣":325,"갤":326,"갥":327,"갧":328,"갩":329,"갫":330,"갬":331,"갭":332,"갮":333,"갯":334,"갰":335,"갱":336,"갲":337,"갳":338,"갴":339,"갵":340,"갶":341,"갷":342,"갸":343,"갹":344,"갺":345,"갼":346,"갿":347,"걀":348,"걁":349,"걃":350,"걆":351,"걇":352,"걈":353,"걉":354,"걊":355,"걋":356,"걌":357,"걍":358,"걎":359,"걐":360,"걑":361,"걒":362,"걓":363,"걔":364,"걕":365,"걖":366,"걘":367,"걜":368,"걤":369,"걥":370,"걧":371,"걨":372,"걩":373,"걬":374,"걭":375,"거":376,"걱":377,"걲":378,"걳":379,"건":380,"걵":381,"걶":382,"걷":383,"걸":384,"걹":385,"걺":386,"걻":387,"걼":388,"걽":389,"걾":390,"걿":391,"검":392,"겁":393,"겂":394,"것":395,"겄":396,"겅":397,"겆":398,"겇":399,"겈":400,"겉":401,"겊":402,"겋":403,"게":404,"겍":405,"겎":406,"겏":407,"겐":408,"겒":409,"겓":410,"겔":411,"겕":412,"겗":413,"겙":414,"겚":415,"겛":416,"겜":417,"겝":418,"겞":419,"겟":420,"겠":421,"겡":422,"겢":423,"겣":424,"겤":425,"겥":426,"겦":427,"겧":428,"겨":429,"격":430,"겪":431,"겫":432,"견":433,"겭":434,"겮":435,"겯":436,"결":437,"겱":438,"겲":439,"겳":440,"겴":441,"겵":442,"겷":443,"겸":444,"겹":445,"겺":446,"겻":447,"겼":448,"경":449,"겾":450,"겿":451,"곀":452,"곁":453,"곂":454,"곃":455,"계":456,"곅":457,"곆":458,"곈":459,"곋":460,"곌":461,"곔":462,"곕":463,"곖":464,"곗":465,"곘":466,"곙":467,"곚":468,"곛":469,"곜":470,"곝":471,"곟":472,"고":473,"곡":474,"곢":475,"곣":476,"곤":477,"곥":478,"곧":479,"골":480,"곩":481,"곪":482,"곫":483,"곬":484,"곭":485,"곮":486,"곯":487,"곰":488,"곱":489,"곲":490,"곳":491,"곴":492,"공":493,"곶":494,"곷":495,"곸":496,"곹":497,"곺":498,"곻":499,"과":500,"곽":501,"관":502,"괁":503,"괂":504,"괃":505,"괄":506,"괅":507,"괌":508,"괍":509,"괏":510,"괐":511,"광":512,"괒":513,"괓":514,"괔":515,"괕":516,"괖":517,"괗":518,"괘":519,"괙":520,"괜":521,"괝":522,"괞":523,"괠":524,"괨":525,"괫":526,"괬":527,"괭":528,"괴":529,"괵":530,"괸":531,"괺":532,"괼":533,"굄":534,"굅":535,"굇":536,"굈":537,"굉":538,"굌":539,"굎":540,"교":541,"굑":542,"굔":543,"굗":544,"굘":545,"굚":546,"굠":547,"굡":548,"굣":549,"굤":550,"굥":551,"굦":552,"굧":553,"굨":554,"굩":555,"굪":556,"굫":557,"구":558,"국":559,"굮":560,"굯":561,"군":562,"굱":563,"굲":564,"굳":565,"굴":566,"굵":567,"굶":568,"굷":569,"굺":570,"굻":571,"굼":572,"굽":573,"굾":574,"굿":575,"궀":576,"궁":577,"궂":578,"궃":579,"궄":580,"궅":581,"궆":582,"궇":583,"궈":584,"궉":585,"권":586,"궍":587,"궏":588,"궐":589,"궑":590,"궓":591,"궘":592,"궙":593,"궛":594,"궜":595,"궝":596,"궠":597,"궤":598,"궥":599,"궨":600,"궬":601,"궭":602,"궮":603,"궯":604,"궲":605,"궳":606,"궵":607,"궷":608,"궸":609,"궹":610,"귀":611,"귁":612,"귄":613,"귇":614,"귈":615,"귐":616,"귑":617,"귓":618,"귔":619,"귕":620,"귖":621,"귘":622,"귛":623,"규":624,"귝":625,"균":626,"귣":627,"귤":628,"귥":629,"귦":630,"귬":631,"귭":632,"귯":633,"귱":634,"귴":635,"귷":636,"그":637,"극":638,"귺":639,"귻":640,"근":641,"귽":642,"귾":643,"귿":644,"글":645,"긁":646,"긂":647,"긃":648,"긄":649,"긆":650,"긇":651,"금":652,"급":653,"긊":654,"긋":655,"긌":656,"긍":657,"긎":658,"긏":659,"긐":660,"긑":661,"긒":662,"긓":663,"긔":664,"긕":665,"긘":666,"긛":667,"긜":668,"긞":669,"긤":670,"긥":671,"긧":672,"긩":673,"긪":674,"긬":675,"긯":676,"기":677,"긱":678,"긲":679,"긴":680,"긵":681,"긶":682,"긷":683,"길":684,"긹":685,"긺":686,"긻":687,"긼":688,"긿":689,"김":690,"깁":691,"깂":692,"깃":693,"깄":694,"깅":695,"깆":696,"깇":697,"깈":698,"깉":699,"깊":700,"깋":701,"까":702,"깍":703,"깎":704,"깐":705,"깑":706,"깒":707,"깓":708,"깔":709,"깕":710,"깖":711,"깗":712,"깛":713,"깜":714,"깝":715,"깞":716,"깟":717,"깠":718,"깡":719,"깢":720,"깣":721,"깤":722,"깥":723,"깦":724,"깧":725,"깨":726,"깩":727,"깪":728,"깬":729,"깯":730,"깰":731,"깱":732,"깵":733,"깸":734,"깹":735,"깺":736,"깻":737,"깼":738,"깽":739,"깾":740,"꺀":741,"꺄":742,"꺅":743,"꺆":744,"꺈":745,"꺊":746,"꺋":747,"꺌":748,"꺍":749,"꺏":750,"꺓":751,"꺔":752,"꺕":753,"꺗":754,"꺘":755,"꺙":756,"꺚":757,"꺜":758,"꺟":759,"꺠":760,"꺢":761,"꺤":762,"꺨":763,"꺰":764,"꺳":765,"꺴":766,"꺵":767,"꺼":768,"꺽":769,"꺾":770,"껀":771,"껃":772,"껄":773,"껅":774,"껇":775,"껌":776,"껍":777,"껏":778,"껐":779,"껑":780,"껒":781,"껓":782,"껔":783,"껕":784,"껗":785,"께":786,"껙":787,"껚":788,"껜":789,"껠":790,"껨":791,"껩":792,"껫":793,"껬":794,"껭":795,"껰":796,"껳":797,"껴":798,"껵":799,"껶":800,"껸":801,"껼":802,"꼄":803,"꼅":804,"꼇":805,"꼈":806,"꼉":807,"꼊":808,"꼌":809,"꼍":810,"꼏":811,"꼐":812,"꼣":813,"꼤":814,"꼥":815,"꼨":816,"꼬":817,"꼭":818,"꼮":819,"꼰":820,"꼲":821,"꼳":822,"꼴":823,"꼵":824,"꼶":825,"꼷":826,"꼹":827,"꼻":828,"꼼":829,"꼽":830,"꼿":831,"꽀":832,"꽁":833,"꽂":834,"꽃":835,"꽄":836,"꽅":837,"꽆":838,"꽇":839,"꽈":840,"꽉":841,"꽊":842,"꽌":843,"꽐":844,"꽑":845,"꽘":846,"꽙":847,"꽛":848,"꽜":849,"꽝":850,"꽠":851,"꽤":852,"꽥":853,"꽦":854,"꽨":855,"꽭":856,"꽳":857,"꽴":858,"꽹":859,"꽼":860,"꾀":861,"꾁":862,"꾄":863,"꾈":864,"꾐":865,"꾕":866,"꾜":867,"꾝":868,"꾠":869,"꾤":870,"꾬":871,"꾭":872,"꾱":873,"꾳":874,"꾸":875,"꾹":876,"꾺":877,"꾼":878,"꾾":879,"꾿":880,"꿀":881,"꿁":882,"꿂":883,"꿃":884,"꿄":885,"꿇":886,"꿈":887,"꿉":888,"꿋":889,"꿌":890,"꿍":891,"꿎":892,"꿏":893,"꿐":894,"꿑":895,"꿓":896,"꿔":897,"꿕":898,"꿘":899,"꿜":900,"꿝":901,"꿤":902,"꿥":903,"꿧":904,"꿨":905,"꿩":906,"꿬":907,"꿯":908,"꿰":909,"꿱":910,"꿲":911,"꿴":912,"꿸":913,"꿹":914,"꿻":915,"꿿":916,"뀀":917,"뀃":918,"뀄":919,"뀅":920,"뀈":921,"뀌":922,"뀍":923,"뀐":924,"뀔":925,"뀜":926,"뀝":927,"뀟":928,"뀠":929,"뀡":930,"뀤":931,"뀨":932,"뀩":933,"뀪":934,"뀬":935,"뀰":936,"뀱":937,"뀳":938,"뀷":939,"뀸":940,"뀹":941,"뀻":942,"뀽":943,"끀":944,"끄":945,"끅":946,"끆":947,"끈":948,"끉":949,"끊":950,"끋":951,"끌":952,"끍":953,"끎":954,"끏":955,"끐":956,"끓":957,"끔":958,"끕":959,"끗":960,"끘":961,"끙":962,"끚":963,"끛":964,"끜":965,"끝":966,"끞":967,"끟":968,"끠":969,"끡":970,"끤":971,"끨":972,"끯":973,"끰":974,"끵":975,"끸":976,"끼":977,"끽":978,"끾":979,"낀":980,"낂":981,"낃":982,"낄":983,"낅":984,"낋":985,"낌":986,"낍":987,"낎":988,"낏":989,"낐":990,"낑":991,"낒":992,"낓":993,"낔":994,"낕":995,"낗":996,"나":997,"낙":998,"낚":999,"낛":1000,"난":1001,"낝":1002,"낞":1003,"낟":1004,"날":1005,"낡":1006,"낢":1007,"낣":1008,"낤":1009,"낥":1010,"낧":1011,"남":1012,"납":1013,"낪":1014,"낫":1015,"났":1016,"낭":1017,"낮":1018,"낯":1019,"낰":1020,"낱":1021,"낲":1022,"낳":1023,"내":1024,"낵":1025,"낶":1026,"낸":1027,"낻":1028,"낼":1029,"냄":1030,"냅":1031,"냇":1032,"냈":1033,"냉":1034,"냊":1035,"냋":1036,"냌":1037,"냍":1038,"냎":1039,"냏":1040,"냐":1041,"냑":1042,"냒":1043,"냔":1044,"냗":1045,"냘":1046,"냙":1047,"냠":1048,"냡":1049,"냣":1050,"냤":1051,"냥":1052,"냦":1053,"냧":1054,"냨":1055,"냩":1056,"냪":1057,"냫":1058,"냬":1059,"냰":1060,"냴":1061,"냼":1062,"냿":1063,"넀":1064,"넁":1065,"넄":1066,"너":1067,"넉":1068,"넊":1069,"넋":1070,"넌":1071,"넎":1072,"넏":1073,"널":1074,"넑":1075,"넒":1076,"넓":1077,"넔":1078,"넖":1079,"넗":1080,"넘":1081,"넙":1082,"넚":1083,"넛":1084,"넜":1085,"넝":1086,"넞":1087,"넟":1088,"넠":1089,"넡":1090,"넢":1091,"넣":1092,"네":1093,"넥":1094,"넦":1095,"넧":1096,"넨":1097,"넫":1098,"넬":1099,"넭":1100,"넴":1101,"넵":1102,"넶":1103,"넷":1104,"넸":1105,"넹":1106,"넺":1107,"넻":1108,"넼":1109,"넽":1110,"넾":1111,"넿":1112,"녀":1113,"녁":1114,"녂":1115,"년":1116,"녅":1117,"녆":1118,"녇":1119,"녈":1120,"념":1121,"녑":1122,"녓":1123,"녔":1124,"녕":1125,"녖":1126,"녗":1127,"녘":1128,"녙":1129,"녚":1130,"녛":1131,"녜":1132,"녝":1133,"녠":1134,"녤":1135,"녬":1136,"녭":1137,"녯":1138,"녰":1139,"녱":1140,"녴":1141,"노":1142,"녹":1143,"녺":1144,"녻":1145,"논":1146,"녽":1147,"녾":1148,"녿":1149,"놀":1150,"놁":1151,"놂":1152,"놃":1153,"놇":1154,"놈":1155,"놉":1156,"놊":1157,"놋":1158,"놌":1159,"농":1160,"놎":1161,"놏":1162,"놐":1163,"놑":1164,"높":1165,"놓":1166,"놔":1167,"놕":1168,"놖":1169,"놘":1170,"놛":1171,"놜":1172,"놝":1173,"놤":1174,"놥":1175,"놧":1176,"놨":1177,"놩":1178,"놪":1179,"놬":1180,"놯":1181,"놰":1182,"놴":1183,"놸":1184,"뇀":1185,"뇁":1186,"뇄":1187,"뇅":1188,"뇌":1189,"뇍":1190,"뇐":1191,"뇔":1192,"뇜":1193,"뇝":1194,"뇟":1195,"뇠":1196,"뇡":1197,"뇤":1198,"뇨":1199,"뇩":1200,"뇬":1201,"뇰":1202,"뇸":1203,"뇹":1204,"뇻":1205,"뇽":1206,"눀":1207,"눂":1208,"눃":1209,"누":1210,"눅":1211,"눈":1212,"눉":1213,"눋":1214,"눌":1215,"눍":1216,"눓":1217,"눔":1218,"눕":1219,"눗":1220,"눙":1221,"눚":1222,"눛":1223,"눜":1224,"눝":1225,"눞":1226,"눟":1227,"눠":1228,"눤":1229,"눨":1230,"눰":1231,"눳":1232,"눴":1233,"눵":1234,"눸":1235,"눹":1236,"눼":1237,"눽":1238,"뉀":1239,"뉄":1240,"뉅":1241,"뉌":1242,"뉍":1243,"뉑":1244,"뉔":1245,"뉘":1246,"뉙":1247,"뉜":1248,"뉠":1249,"뉨":1250,"뉩":1251,"뉫":1252,"뉬":1253,"뉭":1254,"뉰":1255,"뉴":1256,"뉵":1257,"뉸":1258,"뉼":1259,"늄":1260,"늅":1261,"늇":1262,"늉":1263,"늌":1264,"늎":1265,"늏":1266,"느":1267,"늑":1268,"늒":1269,"늓":1270,"는":1271,"늕":1272,"늖":1273,"늗":1274,"늘":1275,"늙":1276,"늚":1277,"늛":1278,"늜":1279,"늟":1280,"늠":1281,"늡":1282,"늣":1283,"늤":1284,"능":1285,"늦":1286,"늧":1287,"늨":1288,"늩":1289,"늪":1290,"늫":1291,"늬":1292,"늭":1293,"늰":1294,"늴":1295,"늼":1296,"늽":1297,"늿":1298,"닁":1299,"닄":1300,"니":1301,"닉":1302,"닊":1303,"닋":1304,"닌":1305,"닍":1306,"닏":1307,"닐":1308,"닑":1309,"닒":1310,"닗":1311,"님":1312,"닙":1313,"닚":1314,"닛":1315,"닜":1316,"닝":1317,"닞":1318,"닟":1319,"닠":1320,"닡":1321,"닢":1322,"닣":1323,"다":1324,"닥":1325,"닦":1326,"닧":1327,"단":1328,"닩":1329,"닪":1330,"닫":1331,"달":1332,"닭":1333,"닮":1334,"닯":1335,"닰":1336,"닱":1337,"닲":1338,"닳":1339,"담":1340,"답":1341,"닶":1342,"닷":1343,"닸":1344,"당":1345,"닺":1346,"닻":1347,"닼":1348,"닽":1349,"닾":1350,"닿":1351,"대":1352,"댁":1353,"댂":1354,"댄":1355,"댇":1356,"댈":1357,"댉":1358,"댏":1359,"댐":1360,"댑":1361,"댓":1362,"댔":1363,"댕":1364,"댖":1365,"댗":1366,"댘":1367,"댙":1368,"댚":1369,"댛":1370,"댜":1371,"댝":1372,"댠":1373,"댣":1374,"댤":1375,"댥":1376,"댦":1377,"댬":1378,"댭":1379,"댯":1380,"댰":1381,"댱":1382,"댲":1383,"댴":1384,"댷":1385,"댸":1386,"댼":1387,"덀":1388,"덈":1389,"덋":1390,"덌":1391,"덍":1392,"더":1393,"덕":1394,"덖":1395,"덗":1396,"던":1397,"덙":1398,"덛":1399,"덜":1400,"덝":1401,"덞":1402,"덟":1403,"덢":1404,"덣":1405,"덤":1406,"덥":1407,"덦":1408,"덧":1409,"덨":1410,"덩":1411,"덪":1412,"덫":1413,"덬":1414,"덭":1415,"덮":1416,"덯":1417,"데":1418,"덱":1419,"덲":1420,"덴":1421,"덷":1422,"델":1423,"덹":1424,"뎀":1425,"뎁":1426,"뎂":1427,"뎃":1428,"뎄":1429,"뎅":1430,"뎆":1431,"뎇":1432,"뎈":1433,"뎉":1434,"뎊":1435,"뎋":1436,"뎌":1437,"뎍":1438,"뎐":1439,"뎓":1440,"뎔":1441,"뎜":1442,"뎝":1443,"뎟":1444,"뎠":1445,"뎡":1446,"뎤":1447,"뎦":1448,"뎧":1449,"뎨":1450,"뎬":1451,"뎻":1452,"뎽":1453,"도":1454,"독":1455,"돆":1456,"돇":1457,"돈":1458,"돉":1459,"돋":1460,"돌":1461,"돍":1462,"돎":1463,"돐":1464,"돒":1465,"돓":1466,"돔":1467,"돕":1468,"돖":1469,"돗":1470,"돘":1471,"동":1472,"돚":1473,"돛":1474,"돜":1475,"돝":1476,"돞":1477,"돟":1478,"돠":1479,"돡":1480,"돤":1481,"돨":1482,"돩":1483,"돰":1484,"돱":1485,"돳":1486,"돴":1487,"돵":1488,"돸":1489,"돻":1490,"돼":1491,"돽":1492,"돾":1493,"됀":1494,"됃":1495,"됄":1496,"됌":1497,"됍":1498,"됏":1499,"됐":1500,"됑":1501,"됒":1502,"됔":1503,"됗":1504,"되":1505,"됙":1506,"됚":1507,"된":1508,"됝":1509,"됟":1510,"될":1511,"됡":1512,"됢":1513,"됤":1514,"됥":1515,"됧":1516,"됨":1517,"됩":1518,"됫":1519,"됬":1520,"됭":1521,"됮":1522,"됰":1523,"됱":1524,"됳":1525,"됴":1526,"됵":1527,"됸":1528,"됻":1529,"됼":1530,"둄":1531,"둅":1532,"둇":1533,"둉":1534,"둊":1535,"둋":1536,"둌":1537,"둏":1538,"두":1539,"둑":1540,"둒":1541,"둔":1542,"둗":1543,"둘":1544,"둙":1545,"둚":1546,"둛":1547,"둞":1548,"둟":1549,"둠":1550,"둡":1551,"둣":1552,"둥":1553,"둦":1554,"둧":1555,"둨":1556,"둩":1557,"둪":1558,"둫":1559,"둬":1560,"둭":1561,"둰":1562,"둴":1563,"둼":1564,"둽":1565,"둿":1566,"뒀":1567,"뒁":1568,"뒄":1569,"뒇":1570,"뒈":1571,"뒌":1572,"뒐":1573,"뒑":1574,"뒓":1575,"뒘":1576,"뒙":1577,"뒛":1578,"뒜":1579,"뒝":1580,"뒞":1581,"뒠":1582,"뒤":1583,"뒥":1584,"뒨":1585,"뒫":1586,"뒬":1587,"뒴":1588,"뒵":1589,"뒷":1590,"뒸":1591,"뒹":1592,"뒺":1593,"뒼":1594,"듀":1595,"듁":1596,"듄":1597,"듇":1598,"듈":1599,"듐":1600,"듑":1601,"듓":1602,"듕":1603,"듘":1604,"드":1605,"득":1606,"듞":1607,"듟":1608,"든":1609,"듡":1610,"듢":1611,"듣":1612,"들":1613,"듥":1614,"듦":1615,"듧":1616,"듨":1617,"듩":1618,"듪":1619,"듫":1620,"듬":1621,"듭":1622,"듯":1623,"듰":1624,"등":1625,"듲":1626,"듳":1627,"듴":1628,"듵":1629,"듶":1630,"듷":1631,"듸":1632,"듹":1633,"듼":1634,"딀":1635,"딈":1636,"딉":1637,"딋":1638,"딍":1639,"디":1640,"딕":1641,"딖":1642,"딘":1643,"딛":1644,"딜":1645,"딝":1646,"딞":1647,"딤":1648,"딥":1649,"딧":1650,"딨":1651,"딩":1652,"딪":1653,"딫":1654,"딬":1655,"딭":1656,"딮":1657,"딯":1658,"따":1659,"딱":1660,"딲":1661,"딳":1662,"딴":1663,"딷":1664,"딸":1665,"딹":1666,"딺":1667,"딻":1668,"딿":1669,"땀":1670,"땁":1671,"땃":1672,"땄":1673,"땅":1674,"땆":1675,"땈":1676,"땉":1677,"땋":1678,"때":1679,"땍":1680,"땎":1681,"땐":1682,"땓":1683,"땔":1684,"땜":1685,"땝":1686,"땟":1687,"땠":1688,"땡":1689,"땢":1690,"땣":1691,"땤":1692,"땦":1693,"땧":1694,"땨":1695,"땩":1696,"땬":1697,"땰":1698,"땸":1699,"땽":1700,"떃":1701,"떄":1702,"떅":1703,"떈":1704,"떌":1705,"떔":1706,"떗":1707,"떘":1708,"떙":1709,"떠":1710,"떡":1711,"떢":1712,"떣":1713,"떤":1714,"떥":1715,"떦":1716,"떧":1717,"떨":1718,"떩":1719,"떪":1720,"떫":1721,"떮":1722,"떯":1723,"떰":1724,"떱":1725,"떳":1726,"떴":1727,"떵":1728,"떶":1729,"떷":1730,"떸":1731,"떹":1732,"떺":1733,"떻":1734,"떼":1735,"떽":1736,"떾":1737,"뗀":1738,"뗄":1739,"뗌":1740,"뗍":1741,"뗏":1742,"뗐":1743,"뗑":1744,"뗔":1745,"뗗":1746,"뗘":1747,"뗙":1748,"뗜":1749,"뗠":1750,"뗨":1751,"뗫":1752,"뗬":1753,"뗭":1754,"뗳":1755,"뗴":1756,"뗵":1757,"뗸":1758,"뗼":1759,"똇":1760,"똈":1761,"또":1762,"똑":1763,"똒":1764,"똔":1765,"똗":1766,"똘":1767,"똙":1768,"똚":1769,"똝":1770,"똟":1771,"똠":1772,"똡":1773,"똣":1774,"똥":1775,"똦":1776,"똧":1777,"똨":1778,"똩":1779,"똫":1780,"똬":1781,"똭":1782,"똮":1783,"똰":1784,"똴":1785,"똵":1786,"똷":1787,"똻":1788,"똼":1789,"똽":1790,"똿":1791,"뙀":1792,"뙁":1793,"뙄":1794,"뙇":1795,"뙈":1796,"뙌":1797,"뙓":1798,"뙛":1799,"뙜":1800,"뙝":1801,"뙤":1802,"뙥":1803,"뙨":1804,"뙬":1805,"뙴":1806,"뙷":1807,"뙸":1808,"뙹":1809,"뙿":1810,"뚀":1811,"뚁":1812,"뚄":1813,"뚈":1814,"뚊":1815,"뚕":1816,"뚜":1817,"뚝":1818,"뚞":1819,"뚠":1820,"뚢":1821,"뚣":1822,"뚤":1823,"뚥":1824,"뚦":1825,"뚧":1826,"뚨":1827,"뚫":1828,"뚬":1829,"뚭":1830,"뚯":1831,"뚱":1832,"뚴":1833,"뚵":1834,"뚷":1835,"뚸":1836,"뚹":1837,"뚼":1838,"뛀":1839,"뛃":1840,"뛋":1841,"뛌":1842,"뛍":1843,"뛓":1844,"뛔":1845,"뛕":1846,"뛝":1847,"뛟":1848,"뛣":1849,"뛥":1850,"뛧":1851,"뛨":1852,"뛰":1853,"뛱":1854,"뛴":1855,"뛸":1856,"뜀":1857,"뜁":1858,"뜃":1859,"뜄":1860,"뜅":1861,"뜌":1862,"뜍":1863,"뜐":1864,"뜔":1865,"뜛":1866,"뜜":1867,"뜝":1868,"뜡":1869,"뜨":1870,"뜩":1871,"뜪":1872,"뜬":1873,"뜮":1874,"뜯":1875,"뜰":1876,"뜱":1877,"뜳":1878,"뜷":1879,"뜸":1880,"뜹":1881,"뜻":1882,"뜼":1883,"뜽":1884,"뜾":1885,"뜿":1886,"띀":1887,"띁":1888,"띃":1889,"띄":1890,"띅":1891,"띈":1892,"띌":1893,"띔":1894,"띕":1895,"띙":1896,"띟":1897,"띠":1898,"띡":1899,"띤":1900,"띧":1901,"띨":1902,"띰":1903,"띱":1904,"띳":1905,"띴":1906,"띵":1907,"띶":1908,"띸":1909,"띻":1910,"라":1911,"락":1912,"띾":1913,"띿":1914,"란":1915,"랁":1916,"랂":1917,"랃":1918,"랄":1919,"랅":1920,"랆":1921,"랇":1922,"랈":1923,"랉":1924,"랊":1925,"랋":1926,"람":1927,"랍":1928,"랎":1929,"랏":1930,"랐":1931,"랑":1932,"랒":1933,"랓":1934,"랔":1935,"랕":1936,"랖":1937,"랗":1938,"래":1939,"랙":1940,"랚":1941,"랜":1942,"랟":1943,"랠":1944,"랡":1945,"램":1946,"랩":1947,"랫":1948,"랬":1949,"랭":1950,"랮":1951,"랯":1952,"랰":1953,"랱":1954,"랲":1955,"랳":1956,"랴":1957,"략":1958,"랸":1959,"랺":1960,"랻":1961,"랼":1962,"럄":1963,"럅":1964,"럇":1965,"럈":1966,"량":1967,"럊":1968,"럌":1969,"럎":1970,"럏":1971,"럐":1972,"럑":1973,"럔":1974,"럗":1975,"럘":1976,"럠":1977,"럣":1978,"럤":1979,"럥":1980,"러":1981,"럭":1982,"럮":1983,"럯":1984,"런":1985,"럱":1986,"럲":1987,"럳":1988,"럴":1989,"럵":1990,"럶":1991,"럷":1992,"럸":1993,"럻":1994,"럼":1995,"럽":1996,"럾":1997,"럿":1998,"렀":1999,"렁":2000,"렂":2001,"렃":2002,"렄":2003,"렅":2004,"렆":2005,"렇":2006,"레":2007,"렉":2008,"렊":2009,"렋":2010,"렌":2011,"렏":2012,"렐":2013,"렑":2014,"렓":2015,"렗":2016,"렘":2017,"렙":2018,"렚":2019,"렛":2020,"렜":2021,"렝":2022,"렞":2023,"렠":2024,"렡":2025,"렢":2026,"렣":2027,"려":2028,"력":2029,"렦":2030,"렧":2031,"련":2032,"렩":2033,"렪":2034,"렫":2035,"렬":2036,"렭":2037,"렴":2038,"렵":2039,"렷":2040,"렸":2041,"령":2042,"렺":2043,"렻":2044,"렼":2045,"렽":2046,"렾":2047,"렿":2048,"례":2049,"롁":2050,"롄":2051,"롈":2052,"롐":2053,"롑":2054,"롓":2055,"롔":2056,"롕":2057,"롘":2058,"로":2059,"록":2060,"롞":2061,"론":2062,"롡":2063,"롣":2064,"롤":2065,"롥":2066,"롫":2067,"롬":2068,"롭":2069,"롮":2070,"롯":2071,"롰":2072,"롱":2073,"롲":2074,"롳":2075,"롴":2076,"롵":2077,"롶":2078,"롷":2079,"롸":2080,"롹":2081,"롻":2082,"롼":2083,"뢀":2084,"뢁":2085,"뢈":2086,"뢉":2087,"뢋":2088,"뢌":2089,"뢍":2090,"뢐":2091,"뢓":2092,"뢔":2093,"뢕":2094,"뢘":2095,"뢜":2096,"뢥":2097,"뢨":2098,"뢩":2099,"뢰":2100,"뢱":2101,"뢴":2102,"뢸":2103,"룀":2104,"룁":2105,"룃":2106,"룄":2107,"룅":2108,"룈":2109,"료":2110,"룍":2111,"룐":2112,"룔":2113,"룜":2114,"룝":2115,"룟":2116,"룠":2117,"룡":2118,"룢":2119,"룤":2120,"룧":2121,"루":2122,"룩":2123,"룪":2124,"룬":2125,"룯":2126,"룰":2127,"룱":2128,"룷":2129,"룸":2130,"룹":2131,"룻":2132,"룽":2133,"룾":2134,"룿":2135,"뤀":2136,"뤁":2137,"뤂":2138,"뤃":2139,"뤄":2140,"뤅":2141,"뤈":2142,"뤌":2143,"뤔":2144,"뤕":2145,"뤗":2146,"뤘":2147,"뤙":2148,"뤜":2149,"뤟":2150,"뤠":2151,"뤡":2152,"뤤":2153,"뤨":2154,"뤩":2155,"뤫":2156,"뤰":2157,"뤱":2158,"뤳":2159,"뤵":2160,"뤸":2161,"뤼":2162,"뤽":2163,"륀":2164,"륄":2165,"륌":2166,"륍":2167,"륏":2168,"륐":2169,"륑":2170,"륔":2171,"류":2172,"륙":2173,"륜":2174,"륟":2175,"률":2176,"륨":2177,"륩":2178,"륫":2179,"륭":2180,"륮":2181,"륰":2182,"륲":2183,"륳":2184,"르":2185,"륵":2186,"륶":2187,"른":2188,"륹":2189,"륻":2190,"를":2191,"륽":2192,"륾":2193,"륿":2194,"릀":2195,"릁":2196,"릂":2197,"릃":2198,"름":2199,"릅":2200,"릆":2201,"릇":2202,"릈":2203,"릉":2204,"릊":2205,"릋":2206,"릌":2207,"릍":2208,"릎":2209,"릏":2210,"릐":2211,"릑":2212,"릔":2213,"릘":2214,"릠":2215,"릡":2216,"릣":2217,"릥":2218,"릫":2219,"리":2220,"릭":2221,"릮":2222,"린":2223,"릱":2224,"릲":2225,"릳":2226,"릴":2227,"릵":2228,"릶":2229,"릷":2230,"릸":2231,"릹":2232,"릻":2233,"림":2234,"립":2235,"릾":2236,"릿":2237,"맀":2238,"링":2239,"맂":2240,"맃":2241,"맄":2242,"맅":2243,"맆":2244,"맇":2245,"마":2246,"막":2247,"맊":2248,"맋":2249,"만":2250,"맍":2251,"많":2252,"맏":2253,"말":2254,"맑":2255,"맒":2256,"맓":2257,"맔":2258,"맕":2259,"맖":2260,"맗":2261,"맘":2262,"맙":2263,"맚":2264,"맛":2265,"맜":2266,"망":2267,"맞":2268,"맟":2269,"맠":2270,"맡":2271,"맢":2272,"맣":2273,"매":2274,"맥":2275,"맨":2276,"맩":2277,"맪":2278,"맫":2279,"맬":2280,"맴":2281,"맵":2282,"맷":2283,"맸":2284,"맹":2285,"맺":2286,"맻":2287,"맼":2288,"맽":2289,"맿":2290,"먀":2291,"먁":2292,"먄":2293,"먆":2294,"먇":2295,"먈":2296,"먐":2297,"먑":2298,"먓":2299,"먕":2300,"먖":2301,"먗":2302,"먘":2303,"먛":2304,"먜":2305,"먠":2306,"먤":2307,"먱":2308,"머":2309,"먹":2310,"먺":2311,"먻":2312,"먼":2313,"먽":2314,"먾":2315,"먿":2316,"멀":2317,"멁":2318,"멂":2319,"멈":2320,"멉":2321,"멊":2322,"멋":2323,"멌":2324,"멍":2325,"멎":2326,"멏":2327,"멐":2328,"멑":2329,"멒":2330,"멓":2331,"메":2332,"멕":2333,"멘":2334,"멛":2335,"멜":2336,"멤":2337,"멥":2338,"멧":2339,"멨":2340,"멩":2341,"멪":2342,"멫":2343,"멬":2344,"멭":2345,"멮":2346,"멯":2347,"며":2348,"멱":2349,"멲":2350,"면":2351,"멵":2352,"멶":2353,"멷":2354,"멸":2355,"멿":2356,"몀":2357,"몁":2358,"몃":2359,"몄":2360,"명":2361,"몆":2362,"몇":2363,"몈":2364,"몉":2365,"몊":2366,"몋":2367,"몌":2368,"몐":2369,"몔":2370,"몟":2371,"몡":2372,"몢":2373,"몣":2374,"모":2375,"목":2376,"몪":2377,"몫":2378,"몬":2379,"몮":2380,"몯":2381,"몰":2382,"몱":2383,"몲":2384,"몴":2385,"몷":2386,"몸":2387,"몹":2388,"몺":2389,"못":2390,"몼":2391,"몽":2392,"몾":2393,"몿":2394,"뫀":2395,"뫁":2396,"뫂":2397,"뫃":2398,"뫄":2399,"뫅":2400,"뫈":2401,"뫌":2402,"뫔":2403,"뫕":2404,"뫗":2405,"뫘":2406,"뫙":2407,"뫚":2408,"뫜":2409,"뫠":2410,"뫤":2411,"뫼":2412,"뫽":2413,"묀":2414,"묄":2415,"묏":2416,"묑":2417,"묘":2418,"묙":2419,"묜":2420,"묠":2421,"묨":2422,"묫":2423,"묭":2424,"묯":2425,"무":2426,"묵":2427,"묶":2428,"묷":2429,"문":2430,"묹":2431,"묺":2432,"묻":2433,"물":2434,"묽":2435,"묾":2436,"묿":2437,"뭀":2438,"뭁":2439,"뭃":2440,"뭄":2441,"뭅":2442,"뭇":2443,"뭈":2444,"뭉":2445,"뭊":2446,"뭋":2447,"뭌":2448,"뭍":2449,"뭎":2450,"뭏":2451,"뭐":2452,"뭑":2453,"뭔":2454,"뭕":2455,"뭗":2456,"뭘":2457,"뭙":2458,"뭚":2459,"뭟":2460,"뭠":2461,"뭡":2462,"뭣":2463,"뭤":2464,"뭥":2465,"뭦":2466,"뭧":2467,"뭨":2468,"뭩":2469,"뭫":2470,"뭬":2471,"뭭":2472,"뭰":2473,"뭴":2474,"뭵":2475,"뭷":2476,"뭽":2477,"뭿":2478,"뮁":2479,"뮈":2480,"뮉":2481,"뮌":2482,"뮏":2483,"뮐":2484,"뮘":2485,"뮙":2486,"뮛":2487,"뮜":2488,"뮝":2489,"뮤":2490,"뮥":2491,"뮦":2492,"뮨":2493,"뮫":2494,"뮬":2495,"뮴":2496,"뮷":2497,"뮹":2498,"뮻":2499,"뮼":2500,"므":2501,"믁":2502,"믂":2503,"믄":2504,"믆":2505,"믇":2506,"믈":2507,"믉":2508,"믌":2509,"믏":2510,"믐":2511,"믑":2512,"믓":2513,"믕":2514,"믖":2515,"믘":2516,"믙":2517,"믛":2518,"믜":2519,"믝":2520,"믠":2521,"믣":2522,"믤":2523,"믬":2524,"믯":2525,"믰":2526,"믱":2527,"미":2528,"믹":2529,"믺":2530,"믻":2531,"민":2532,"믽":2533,"믾":2534,"믿":2535,"밀":2536,"밁":2537,"밂":2538,"밇":2539,"밈":2540,"밉":2541,"밊":2542,"밋":2543,"밌":2544,"밍":2545,"밎":2546,"및":2547,"밐":2548,"밑":2549,"밒":2550,"밓":2551,"바":2552,"박":2553,"밖":2554,"밗":2555,"반":2556,"밙":2557,"밚":2558,"받":2559,"발":2560,"밝":2561,"밞":2562,"밟":2563,"밠":2564,"밡":2565,"밢":2566,"밣":2567,"밤":2568,"밥":2569,"밦":2570,"밧":2571,"밨":2572,"방":2573,"밪":2574,"밫":2575,"밬":2576,"밭":2577,"밮":2578,"밯":2579,"배":2580,"백":2581,"밲":2582,"밳":2583,"밴":2584,"밷":2585,"밸":2586,"밹":2587,"뱀":2588,"뱁":2589,"뱃":2590,"뱄":2591,"뱅":2592,"뱆":2593,"뱇":2594,"뱈":2595,"뱉":2596,"뱊":2597,"뱋":2598,"뱌":2599,"뱍":2600,"뱎":2601,"뱐":2602,"뱓":2603,"뱔":2604,"뱕":2605,"뱗":2606,"뱛":2607,"뱜":2608,"뱝":2609,"뱟":2610,"뱡":2611,"뱤":2612,"뱥":2613,"뱨":2614,"뱩":2615,"뱬":2616,"뱰":2617,"뱸":2618,"뱽":2619,"벁":2620,"버":2621,"벅":2622,"벆":2623,"번":2624,"벉":2625,"벊":2626,"벋":2627,"벌":2628,"벍":2629,"벎":2630,"벏":2631,"벐":2632,"벑":2633,"벓":2634,"범":2635,"법":2636,"벖":2637,"벗":2638,"벘":2639,"벙":2640,"벚":2641,"벛":2642,"벜":2643,"벝":2644,"벞":2645,"벟":2646,"베":2647,"벡":2648,"벤":2649,"벧":2650,"벨":2651,"벩":2652,"벫":2653,"벭":2654,"벯":2655,"벰":2656,"벱":2657,"벲":2658,"벳":2659,"벴":2660,"벵":2661,"벶":2662,"벷":2663,"벸":2664,"벹":2665,"벺":2666,"벻":2667,"벼":2668,"벽":2669,"벾":2670,"변":2671,"볁":2672,"볂":2673,"볃":2674,"별":2675,"볅":2676,"볆":2677,"볇":2678,"볈":2679,"볋":2680,"볌":2681,"볍":2682,"볎":2683,"볏":2684,"볐":2685,"병":2686,"볒":2687,"볓":2688,"볔":2689,"볕":2690,"볖":2691,"볗":2692,"볘":2693,"볙":2694,"볜":2695,"볠":2696,"볫":2697,"볭":2698,"보":2699,"복":2700,"볶":2701,"볷":2702,"본":2703,"볹":2704,"볻":2705,"볼":2706,"볽":2707,"볾":2708,"봀":2709,"봁":2710,"봃":2711,"봄":2712,"봅":2713,"봆":2714,"봇":2715,"봈":2716,"봉":2717,"봊":2718,"봋":2719,"봌":2720,"봍":2721,"봎":2722,"봏":2723,"봐":2724,"봑":2725,"봒":2726,"봔":2727,"봗":2728,"봘":2729,"봙":2730,"봟":2731,"봠":2732,"봡":2733,"봣":2734,"봤":2735,"봥":2736,"봦":2737,"봨":2738,"봩":2739,"봫":2740,"봬":2741,"봭":2742,"봰":2743,"봴":2744,"봵":2745,"봽":2746,"봿":2747,"뵀":2748,"뵁":2749,"뵈":2750,"뵉":2751,"뵌":2752,"뵏":2753,"뵐":2754,"뵑":2755,"뵘":2756,"뵙":2757,"뵛":2758,"뵜":2759,"뵝":2760,"뵞":2761,"뵠":2762,"뵤":2763,"뵥":2764,"뵨":2765,"뵬":2766,"뵴":2767,"뵵":2768,"뵷":2769,"뵹":2770,"뵺":2771,"부":2772,"북":2773,"붂":2774,"붃":2775,"분":2776,"붅":2777,"붆":2778,"붇":2779,"불":2780,"붉":2781,"붊":2782,"붋":2783,"붌":2784,"붍":2785,"붎":2786,"붏":2787,"붐":2788,"붑":2789,"붓":2790,"붔":2791,"붕":2792,"붖":2793,"붗":2794,"붘":2795,"붙":2796,"붚":2797,"붛":2798,"붜":2799,"붝":2800,"붠":2801,"붤":2802,"붥":2803,"붬":2804,"붭":2805,"붯":2806,"붰":2807,"붱":2808,"붴":2809,"붸":2810,"붹":2811,"붼":2812,"뷀":2813,"뷁":2814,"뷃":2815,"뷇":2816,"뷉":2817,"뷋":2818,"뷍":2819,"뷐":2820,"뷔":2821,"뷕":2822,"뷘":2823,"뷜":2824,"뷤":2825,"뷥":2826,"뷧":2827,"뷩":2828,"뷮":2829,"뷰":2830,"뷱":2831,"뷴":2832,"뷷":2833,"뷸":2834,"뷹":2835,"븀":2836,"븁":2837,"븂":2838,"븃":2839,"븅":2840,"븈":2841,"븉":2842,"븋":2843,"브":2844,"븍":2845,"븎":2846,"븏":2847,"븐":2848,"븓":2849,"블":2850,"븕":2851,"븛":2852,"븜":2853,"븝":2854,"븞":2855,"븟":2856,"븡":2857,"븢":2858,"븤":2859,"븥":2860,"븦":2861,"븧":2862,"븨":2863,"븩":2864,"븬":2865,"븰":2866,"븸":2867,"븹":2868,"븻":2869,"븽":2870,"빂":2871,"비":2872,"빅":2873,"빆":2874,"빇":2875,"빈":2876,"빋":2877,"빌":2878,"빍":2879,"빎":2880,"빏":2881,"빓":2882,"빔":2883,"빕":2884,"빖":2885,"빗":2886,"빘":2887,"빙":2888,"빚":2889,"빛":2890,"빜":2891,"빝":2892,"빞":2893,"빟":2894,"빠":2895,"빡":2896,"빢":2897,"빣":2898,"빤":2899,"빧":2900,"빨":2901,"빩":2902,"빪":2903,"빫":2904,"빬":2905,"빭":2906,"빯":2907,"빰":2908,"빱":2909,"빳":2910,"빴":2911,"빵":2912,"빶":2913,"빷":2914,"빸":2915,"빹":2916,"빺":2917,"빻":2918,"빼":2919,"빽":2920,"빾":2921,"뺀":2922,"뺃":2923,"뺄":2924,"뺅":2925,"뺌":2926,"뺍":2927,"뺏":2928,"뺐":2929,"뺑":2930,"뺒":2931,"뺓":2932,"뺔":2933,"뺕":2934,"뺗":2935,"뺘":2936,"뺙":2937,"뺚":2938,"뺜":2939,"뺠":2940,"뺡":2941,"뺨":2942,"뺩":2943,"뺫":2944,"뺭":2945,"뺴":2946,"뺵":2947,"뺶":2948,"뺸":2949,"뺼":2950,"뻁":2951,"뻄":2952,"뻇":2953,"뻈":2954,"뻉":2955,"뻐":2956,"뻑":2957,"뻒":2958,"뻔":2959,"뻕":2960,"뻖":2961,"뻗":2962,"뻘":2963,"뻙":2964,"뻠":2965,"뻡":2966,"뻣":2967,"뻤":2968,"뻥":2969,"뻦":2970,"뻨":2971,"뻩":2972,"뻪":2973,"뻫":2974,"뻬":2975,"뻭":2976,"뻰":2977,"뻴":2978,"뻼":2979,"뻿":2980,"뼀":2981,"뼁":2982,"뼈":2983,"뼉":2984,"뼊":2985,"뼌":2986,"뼏":2987,"뼐":2988,"뼑":2989,"뼘":2990,"뼙":2991,"뼛":2992,"뼜":2993,"뼝":2994,"뼠":2995,"뼡":2996,"뼤":2997,"뼬":2998,"뽀":2999,"뽁":3000,"뽂":3001,"뽄":3002,"뽇":3003,"뽈":3004,"뽐":3005,"뽑":3006,"뽓":3007,"뽕":3008,"뽖":3009,"뽘":3010,"뽚":3011,"뽛":3012,"뽜":3013,"뽝":3014,"뽞":3015,"뽠":3016,"뽤":3017,"뽥":3018,"뽫":3019,"뽬":3020,"뽭":3021,"뽯":3022,"뽰":3023,"뽱":3024,"뽴":3025,"뽷":3026,"뽸":3027,"뽹":3028,"뾀":3029,"뾃":3030,"뾔":3031,"뾥":3032,"뾰":3033,"뾱":3034,"뾲":3035,"뾴":3036,"뾸":3037,"뿁":3038,"뿃":3039,"뿅":3040,"뿌":3041,"뿍":3042,"뿎":3043,"뿐":3044,"뿑":3045,"뿓":3046,"뿔":3047,"뿕":3048,"뿛":3049,"뿜":3050,"뿝":3051,"뿟":3052,"뿠":3053,"뿡":3054,"뿤":3055,"뿥":3056,"뿧":3057,"뿨":3058,"뿩":3059,"뿬":3060,"뿰":3061,"뿱":3062,"뿳":3063,"뿹":3064,"뿽":3065,"쀀":3066,"쀄":3067,"쀅":3068,"쀈":3069,"쀌":3070,"쀍":3071,"쀏":3072,"쀒":3073,"쀓":3074,"쀠":3075,"쀡":3076,"쀨":3077,"쀳":3078,"쀵":3079,"쀼":3080,"쀽":3081,"쀾":3082,"쁀":3083,"쁄":3084,"쁌":3085,"쁍":3086,"쁏":3087,"쁐":3088,"쁑":3089,"쁘":3090,"쁙":3091,"쁜":3092,"쁝":3093,"쁟":3094,"쁠":3095,"쁨":3096,"쁩":3097,"쁫":3098,"쁭":3099,"쁮":3100,"쁰":3101,"쁴":3102,"쁸":3103,"쁼":3104,"삉":3105,"삐":3106,"삑":3107,"삒":3108,"삔":3109,"삗":3110,"삘":3111,"삠":3112,"삡":3113,"삣":3114,"삤":3115,"삥":3116,"삦":3117,"삧":3118,"삨":3119,"삫":3120,"사":3121,"삭":3122,"삮":3123,"삯":3124,"산":3125,"삱":3126,"삲":3127,"삳":3128,"살":3129,"삵":3130,"삶":3131,"삷":3132,"삸":3133,"삹":3134,"삺":3135,"삻":3136,"삼":3137,"삽":3138,"삾":3139,"삿":3140,"샀":3141,"상":3142,"샂":3143,"샃":3144,"샄":3145,"샅":3146,"샆":3147,"샇":3148,"새":3149,"색":3150,"샊":3151,"샋":3152,"샌":3153,"샎":3154,"샏":3155,"샐":3156,"샑":3157,"샒":3158,"샓":3159,"샔":3160,"샕":3161,"샗":3162,"샘":3163,"샙":3164,"샚":3165,"샛":3166,"샜":3167,"생":3168,"샞":3169,"샟":3170,"샠":3171,"샡":3172,"샢":3173,"샣":3174,"샤":3175,"샥":3176,"샦":3177,"샨":3178,"샫":3179,"샬":3180,"샮":3181,"샴":3182,"샵":3183,"샷":3184,"샸":3185,"샹":3186,"샼":3187,"샽":3188,"샾":3189,"샿":3190,"섀":3191,"섁":3192,"섂":3193,"섄":3194,"섈":3195,"섉":3196,"섊":3197,"섐":3198,"섑":3199,"섓":3200,"섔":3201,"섕":3202,"섘":3203,"서":3204,"석":3205,"섞":3206,"섟":3207,"선":3208,"섡":3209,"섢":3210,"섣":3211,"설":3212,"섥":3213,"섦":3214,"섧":3215,"섨":3216,"섩":3217,"섪":3218,"섫":3219,"섬":3220,"섭":3221,"섮":3222,"섯":3223,"섰":3224,"성":3225,"섲":3226,"섳":3227,"섴":3228,"섵":3229,"섶":3230,"섷":3231,"세":3232,"섹":3233,"섺":3234,"섻":3235,"센":3236,"섽":3237,"섿":3238,"셀":3239,"셁":3240,"셂":3241,"셃":3242,"셆":3243,"셇":3244,"셈":3245,"셉":3246,"셋":3247,"셌":3248,"셍":3249,"셎":3250,"셏":3251,"셐":3252,"셑":3253,"셒":3254,"셓":3255,"셔":3256,"셕":3257,"셖":3258,"션":3259,"셛":3260,"셜":3261,"셟":3262,"셤":3263,"셥":3264,"셧":3265,"셨":3266,"셩":3267,"셪":3268,"셫":3269,"셬":3270,"셭":3271,"셮":3272,"셯":3273,"셰":3274,"셱":3275,"셲":3276,"셴":3277,"셸":3278,"솀":3279,"솁":3280,"솃":3281,"솄":3282,"솅":3283,"솈":3284,"솉":3285,"솊":3286,"소":3287,"속":3288,"솎":3289,"솏":3290,"손":3291,"솑":3292,"솒":3293,"솓":3294,"솔":3295,"솕":3296,"솖":3297,"솛":3298,"솜":3299,"솝":3300,"솟":3301,"솠":3302,"송":3303,"솢":3304,"솣":3305,"솤":3306,"솥":3307,"솦":3308,"솧":3309,"솨":3310,"솩":3311,"솬":3312,"솰":3313,"솸":3314,"솹":3315,"솻":3316,"솼":3317,"솽":3318,"쇀":3319,"쇄":3320,"쇅":3321,"쇆":3322,"쇈":3323,"쇌":3324,"쇔":3325,"쇗":3326,"쇘":3327,"쇙":3328,"쇜":3329,"쇟":3330,"쇠":3331,"쇡":3332,"쇣":3333,"쇤":3334,"쇨":3335,"쇱":3336,"쇳":3337,"쇵":3338,"쇸":3339,"쇼":3340,"쇽":3341,"숀":3342,"숄":3343,"숌":3344,"숍":3345,"숏":3346,"숐":3347,"숑":3348,"숔":3349,"숖":3350,"숗":3351,"수":3352,"숙":3353,"숚":3354,"순":3355,"숝":3356,"숟":3357,"술":3358,"숡":3359,"숢":3360,"숤":3361,"숧":3362,"숨":3363,"숩":3364,"숪":3365,"숫":3366,"숬":3367,"숭":3368,"숮":3369,"숯":3370,"숰":3371,"숱":3372,"숲":3373,"숳":3374,"숴":3375,"숵":3376,"숶":3377,"숸":3378,"숼":3379,"쉄":3380,"쉅":3381,"쉇":3382,"쉈":3383,"쉉":3384,"쉌":3385,"쉐":3386,"쉑":3387,"쉒":3388,"쉓":3389,"쉔":3390,"쉗":3391,"쉘":3392,"쉙":3393,"쉚":3394,"쉛":3395,"쉜":3396,"쉞":3397,"쉟":3398,"쉠":3399,"쉡":3400,"쉣":3401,"쉤":3402,"쉥":3403,"쉧":3404,"쉨":3405,"쉩":3406,"쉪":3407,"쉫":3408,"쉬":3409,"쉭":3410,"쉮":3411,"쉰":3412,"쉲":3413,"쉳":3414,"쉴":3415,"쉻":3416,"쉼":3417,"쉽":3418,"쉾":3419,"쉿":3420,"슀":3421,"슁":3422,"슂":3423,"슄":3424,"슅":3425,"슆":3426,"슇":3427,"슈":3428,"슉":3429,"슌":3430,"슏":3431,"슐":3432,"슘":3433,"슙":3434,"슛":3435,"슝":3436,"슞":3437,"슟":3438,"슠":3439,"슢":3440,"스":3441,"슥":3442,"슦":3443,"슧":3444,"슨":3445,"슩":3446,"슫":3447,"슬":3448,"슭":3449,"슮":3450,"슯":3451,"슰":3452,"슲":3453,"슳":3454,"슴":3455,"습":3456,"슶":3457,"슷":3458,"슸":3459,"승":3460,"슺":3461,"슻":3462,"슼":3463,"슽":3464,"슾":3465,"슿":3466,"싀":3467,"싁":3468,"싄":3469,"싅":3470,"싆":3471,"싇":3472,"싈":3473,"싐":3474,"싑":3475,"싓":3476,"싕":3477,"싖":3478,"싘":3479,"싙":3480,"싚":3481,"시":3482,"식":3483,"싞":3484,"싟":3485,"신":3486,"싡":3487,"싢":3488,"싣":3489,"실":3490,"싥":3491,"싦":3492,"싧":3493,"싨":3494,"싩":3495,"싪":3496,"싫":3497,"심":3498,"십":3499,"싮":3500,"싯":3501,"싰":3502,"싱":3503,"싲":3504,"싳":3505,"싴":3506,"싵":3507,"싶":3508,"싷":3509,"싸":3510,"싹":3511,"싺":3512,"싻":3513,"싼":3514,"싾":3515,"싿":3516,"쌀":3517,"쌂":3518,"쌇":3519,"쌈":3520,"쌉":3521,"쌋":3522,"쌌":3523,"쌍":3524,"쌎":3525,"쌐":3526,"쌑":3527,"쌒":3528,"쌓":3529,"쌔":3530,"쌕":3531,"쌖":3532,"쌗":3533,"쌘":3534,"쌛":3535,"쌜":3536,"쌞":3537,"쌟":3538,"쌤":3539,"쌥":3540,"쌧":3541,"쌨":3542,"쌩":3543,"쌬":3544,"쌯":3545,"쌰":3546,"쌱":3547,"쌴":3548,"쌸":3549,"쌻":3550,"썀":3551,"썁":3552,"썃":3553,"썄":3554,"썅":3555,"썋":3556,"썌":3557,"썍":3558,"썎":3559,"썐":3560,"썔":3561,"썖":3562,"썜":3563,"썝":3564,"썟":3565,"썠":3566,"썡":3567,"써":3568,"썩":3569,"썪":3570,"썫":3571,"썬":3572,"썯":3573,"썰":3574,"썱":3575,"썳":3576,"썸":3577,"썹":3578,"썻":3579,"썼":3580,"썽":3581,"썾":3582,"쎀":3583,"쎁":3584,"쎂":3585,"쎃":3586,"쎄":3587,"쎅":3588,"쎆":3589,"쎇":3590,"쎈":3591,"쎌":3592,"쎍":3593,"쎓":3594,"쎔":3595,"쎕":3596,"쎗":3597,"쎘":3598,"쎙":3599,"쎜":3600,"쎝":3601,"쎟":3602,"쎠":3603,"쎡":3604,"쎤":3605,"쎨":3606,"쎰":3607,"쎱":3608,"쎳":3609,"쎴":3610,"쎵":3611,"쎼":3612,"쎽":3613,"쎾":3614,"쏀":3615,"쏃":3616,"쏄":3617,"쏌":3618,"쏏":3619,"쏐":3620,"쏔":3621,"쏖":3622,"쏘":3623,"쏙":3624,"쏚":3625,"쏜":3626,"쏟":3627,"쏠":3628,"쏨":3629,"쏩":3630,"쏫":3631,"쏬":3632,"쏭":3633,"쏮":3634,"쏰":3635,"쏱":3636,"쏳":3637,"쏴":3638,"쏵":3639,"쏸":3640,"쏼":3641,"쐄":3642,"쐅":3643,"쐇":3644,"쐈":3645,"쐉":3646,"쐌":3647,"쐏":3648,"쐐":3649,"쐑":3650,"쐒":3651,"쐣":3652,"쐤":3653,"쐥":3654,"쐨":3655,"쐬":3656,"쐭":3657,"쐰":3658,"쐴":3659,"쐼":3660,"쐽":3661,"쐿":3662,"쑀":3663,"쑈":3664,"쑉":3665,"쑌":3666,"쑐":3667,"쑙":3668,"쑛":3669,"쑝":3670,"쑤":3671,"쑥":3672,"쑦":3673,"쑨":3674,"쑫":3675,"쑬":3676,"쑴":3677,"쑵":3678,"쑷":3679,"쑹":3680,"쑻":3681,"쑼":3682,"쒀":3683,"쒁":3684,"쒂":3685,"쒄":3686,"쒈":3687,"쒐":3688,"쒑":3689,"쒓":3690,"쒔":3691,"쒕":3692,"쒘":3693,"쒜":3694,"쒝":3695,"쒞":3696,"쒠":3697,"쒤":3698,"쒥":3699,"쒧":3700,"쒫":3701,"쒭":3702,"쒯":3703,"쒰":3704,"쒱":3705,"쒴":3706,"쒵":3707,"쒸":3708,"쒹":3709,"쒼":3710,"쓀":3711,"쓃":3712,"쓈":3713,"쓉":3714,"쓊":3715,"쓋":3716,"쓌":3717,"쓍":3718,"쓐":3719,"쓑":3720,"쓒":3721,"쓔":3722,"쓕":3723,"쓘":3724,"쓜":3725,"쓤":3726,"쓥":3727,"쓩":3728,"쓰":3729,"쓱":3730,"쓲":3731,"쓴":3732,"쓷":3733,"쓸":3734,"쓹":3735,"쓺":3736,"쓿":3737,"씀":3738,"씁":3739,"씂":3740,"씃":3741,"씄":3742,"씅":3743,"씆":3744,"씇":3745,"씈":3746,"씉":3747,"씊":3748,"씋":3749,"씌":3750,"씍":3751,"씐":3752,"씔":3753,"씗":3754,"씜":3755,"씝":3756,"씞":3757,"씟":3758,"씡":3759,"씢":3760,"씤":3761,"씥":3762,"씦":3763,"씧":3764,"씨":3765,"씩":3766,"씪":3767,"씬":3768,"씮":3769,"씯":3770,"씰":3771,"씱":3772,"씳":3773,"씶":3774,"씷":3775,"씸":3776,"씹":3777,"씺":3778,"씻":3779,"씼":3780,"씽":3781,"씾":3782,"씿":3783,"앀":3784,"앁":3785,"앂":3786,"앃":3787,"아":3788,"악":3789,"앆":3790,"앇":3791,"안":3792,"앉":3793,"않":3794,"앋":3795,"알":3796,"앍":3797,"앎":3798,"앏":3799,"앐":3800,"앑":3801,"앒":3802,"앓":3803,"암":3804,"압":3805,"앖":3806,"앗":3807,"았":3808,"앙":3809,"앚":3810,"앛":3811,"앜":3812,"앝":3813,"앞":3814,"앟":3815,"애":3816,"액":3817,"앢":3818,"앣":3819,"앤":3820,"앦":3821,"앧":3822,"앨":3823,"앩":3824,"앰":3825,"앱":3826,"앲":3827,"앳":3828,"앴":3829,"앵":3830,"앶":3831,"앷":3832,"앸":3833,"앹":3834,"앺":3835,"앻":3836,"야":3837,"약":3838,"앾":3839,"앿":3840,"얀":3841,"얁":3842,"얂":3843,"얃":3844,"얄":3845,"얅":3846,"얆":3847,"얇":3848,"얉":3849,"얊":3850,"얋":3851,"얌":3852,"얍":3853,"얎":3854,"얏":3855,"얐":3856,"양":3857,"얒":3858,"얓":3859,"얔":3860,"얕":3861,"얖":3862,"얗":3863,"얘":3864,"얙":3865,"얜":3866,"얠":3867,"얨":3868,"얩":3869,"얪":3870,"얫":3871,"얬":3872,"얭":3873,"얮":3874,"얰":3875,"얳":3876,"어":3877,"억":3878,"얶":3879,"얷":3880,"언":3881,"얹":3882,"얺":3883,"얻":3884,"얼":3885,"얽":3886,"얾":3887,"얿":3888,"엀":3889,"엁":3890,"엂":3891,"엃":3892,"엄":3893,"업":3894,"없":3895,"엇":3896,"었":3897,"엉":3898,"엊":3899,"엋":3900,"엌":3901,"엍":3902,"엎":3903,"엏":3904,"에":3905,"엑":3906,"엒":3907,"엓":3908,"엔":3909,"엕":3910,"엗":3911,"엘":3912,"엙":3913,"엜":3914,"엞":3915,"엠":3916,"엡":3917,"엢":3918,"엣":3919,"엤":3920,"엥":3921,"엦":3922,"엧":3923,"엨":3924,"엩":3925,"엪":3926,"엫":3927,"여":3928,"역":3929,"엮":3930,"엯":3931,"연":3932,"엱":3933,"엲":3934,"엳":3935,"열":3936,"엵":3937,"엶":3938,"엷":3939,"엸":3940,"엹":3941,"엻":3942,"염":3943,"엽":3944,"엾":3945,"엿":3946,"였":3947,"영":3948,"옂":3949,"옃":3950,"옄":3951,"옅":3952,"옆":3953,"옇":3954,"예":3955,"옉":3956,"옌":3957,"옐":3958,"옘":3959,"옙":3960,"옛":3961,"옜":3962,"옝":3963,"옞":3964,"옟":3965,"옠":3966,"옢":3967,"옣":3968,"오":3969,"옥":3970,"옦":3971,"옧":3972,"온":3973,"옩":3974,"옪":3975,"옫":3976,"올":3977,"옭":3978,"옮":3979,"옯":3980,"옰":3981,"옱":3982,"옲":3983,"옳":3984,"옴":3985,"옵":3986,"옶":3987,"옷":3988,"옸":3989,"옹":3990,"옺":3991,"옻":3992,"옼":3993,"옽":3994,"옾":3995,"옿":3996,"와":3997,"왁":3998,"왂":3999,"완":4000,"왅":4001,"왆":4002,"왇":4003,"왈":4004,"왉":4005,"왐":4006,"왑":4007,"왓":4008,"왔":4009,"왕":4010,"왖":4011,"왗":4012,"왘":4013,"왙":4014,"왚":4015,"왛":4016,"왜":4017,"왝":4018,"왠":4019,"왡":4020,"왢":4021,"왤":4022,"왥":4023,"왬":4024,"왭":4025,"왯":4026,"왰":4027,"왱":4028,"왲":4029,"왳":4030,"왴":4031,"왶":4032,"왷":4033,"외":4034,"왹":4035,"왼":4036,"욀":4037,"욈":4038,"욉":4039,"욋":4040,"욌":4041,"욍":4042,"욎":4043,"욐":4044,"욓":4045,"요":4046,"욕":4047,"욖":4048,"욗":4049,"욘":4050,"욛":4051,"욜":4052,"욝":4053,"욣":4054,"욤":4055,"욥":4056,"욧":4057,"욨":4058,"용":4059,"욪":4060,"욫":4061,"욬":4062,"욭":4063,"욮":4064,"욯":4065,"우":4066,"욱":4067,"욲":4068,"욳":4069,"운":4070,"욵":4071,"욷":4072,"울":4073,"욹":4074,"욺":4075,"욻":4076,"욼":4077,"욽":4078,"욾":4079,"욿":4080,"움":4081,"웁":4082,"웂":4083,"웃":4084,"웄":4085,"웅":4086,"웆":4087,"웇":4088,"웈":4089,"웉":4090,"웊":4091,"웋":4092,"워":4093,"웍":4094,"웎":4095,"원":4096,"웑":4097,"웒":4098,"웓":4099,"월":4100,"웕":4101,"웖":4102,"웗":4103,"웘":4104,"웙":4105,"웚":4106,"웛":4107,"웜":4108,"웝":4109,"웞":4110,"웟":4111,"웠":4112,"웡":4113,"웢":4114,"웣":4115,"웤":4116,"웥":4117,"웦":4118,"웧":4119,"웨":4120,"웩":4121,"웪":4122,"웬":4123,"웯":4124,"웰":4125,"웱":4126,"웳":4127,"웸":4128,"웹":4129,"웺":4130,"웻":4131,"웼":4132,"웽":4133,"웾":4134,"윀":4135,"윁":4136,"윂":4137,"위":4138,"윅":4139,"윈":4140,"윋":4141,"윌":4142,"윔":4143,"윕":4144,"윖":4145,"윗":4146,"윘":4147,"윙":4148,"윚":4149,"윜":4150,"윝":4151,"윟":4152,"유":4153,"육":4154,"윢":4155,"윣":4156,"윤":4157,"윥":4158,"윧":4159,"율":4160,"윩":4161,"윪":4162,"윯":4163,"윰":4164,"윱":4165,"윳":4166,"융":4167,"윶":4168,"윷":4169,"윸":4170,"윹":4171,"윺":4172,"윻":4173,"으":4174,"윽":4175,"윾":4176,"윿":4177,"은":4178,"읁":4179,"읂":4180,"읃":4181,"을":4182,"읅":4183,"읆":4184,"읇":4185,"읈":4186,"읉":4187,"읊":4188,"읋":4189,"음":4190,"읍":4191,"읎":4192,"읏":4193,"읐":4194,"응":4195,"읒":4196,"읓":4197,"읔":4198,"읕":4199,"읖":4200,"읗":4201,"의":4202,"읙":4203,"읜":4204,"읟":4205,"읠":4206,"읨":4207,"읩":4208,"읪":4209,"읫":4210,"읬":4211,"읭":4212,"읮":4213,"읯":4214,"읰":4215,"읱":4216,"읲":4217,"읳":4218,"이":4219,"익":4220,"읶":4221,"읷":4222,"인":4223,"읹":4224,"읺":4225,"읻":4226,"일":4227,"읽":4228,"읾":4229,"읿":4230,"잀":4231,"잁":4232,"잂":4233,"잃":4234,"임":4235,"입":4236,"잆":4237,"잇":4238,"있":4239,"잉":4240,"잊":4241,"잋":4242,"잌":4243,"잍":4244,"잎":4245,"잏":4246,"자":4247,"작":4248,"잒":4249,"잓":4250,"잔":4251,"잕":4252,"잖":4253,"잗":4254,"잘":4255,"잙":4256,"잚":4257,"잛":4258,"잜":4259,"잝":4260,"잞":4261,"잟":4262,"잠":4263,"잡":4264,"잢":4265,"잣":4266,"잤":4267,"장":4268,"잦":4269,"잧":4270,"잨":4271,"잩":4272,"잪":4273,"잫":4274,"재":4275,"잭":4276,"잮":4277,"잰":4278,"잲":4279,"잳":4280,"잴":4281,"잼":4282,"잽":4283,"잿":4284,"쟀":4285,"쟁":4286,"쟂":4287,"쟃":4288,"쟄":4289,"쟅":4290,"쟆":4291,"쟇":4292,"쟈":4293,"쟉":4294,"쟊":4295,"쟌":4296,"쟎":4297,"쟏":4298,"쟐":4299,"쟘":4300,"쟙":4301,"쟛":4302,"쟜":4303,"쟝":4304,"쟞":4305,"쟟":4306,"쟠":4307,"쟡":4308,"쟣":4309,"쟤":4310,"쟥":4311,"쟨":4312,"쟬":4313,"쟴":4314,"쟸":4315,"쟹":4316,"쟼":4317,"저":4318,"적":4319,"젂":4320,"젃":4321,"전":4322,"젅":4323,"젆":4324,"젇":4325,"절":4326,"젉":4327,"젊":4328,"젋":4329,"젌":4330,"젍":4331,"젎":4332,"젏":4333,"점":4334,"접":4335,"젒":4336,"젓":4337,"젔":4338,"정":4339,"젖":4340,"젗":4341,"젘":4342,"젙":4343,"젚":4344,"젛":4345,"제":4346,"젝":4347,"젞":4348,"젠":4349,"젡":4350,"젣":4351,"젤":4352,"젬":4353,"젭":4354,"젯":4355,"젰":4356,"젱":4357,"젲":4358,"젳":4359,"젴":4360,"젵":4361,"젶":4362,"젷":4363,"져":4364,"젹":4365,"젺":4366,"젼":4367,"젾":4368,"젿":4369,"졀":4370,"졂":4371,"졈":4372,"졉":4373,"졋":4374,"졌":4375,"졍":4376,"졎":4377,"졏":4378,"졐":4379,"졑":4380,"졒":4381,"졓":4382,"졔":4383,"졘":4384,"졜":4385,"졨":4386,"졩":4387,"조":4388,"족":4389,"졲":4390,"졳":4391,"존":4392,"졵":4393,"졶":4394,"졷":4395,"졸":4396,"졹":4397,"졺":4398,"졻":4399,"졽":4400,"졿":4401,"좀":4402,"좁":4403,"좂":4404,"좃":4405,"좄":4406,"종":4407,"좆":4408,"좇":4409,"좈":4410,"좉":4411,"좊":4412,"좋":4413,"좌":4414,"좍":4415,"좎":4416,"좐":4417,"좒":4418,"좓":4419,"좔":4420,"좜":4421,"좝":4422,"좟":4423,"좠":4424,"좡":4425,"좢":4426,"좣":4427,"좤":4428,"좥":4429,"좦":4430,"좧":4431,"좨":4432,"좩":4433,"좬":4434,"좭":4435,"좮":4436,"좯":4437,"좰":4438,"좱":4439,"좸":4440,"좼":4441,"좽":4442,"죄":4443,"죅":4444,"죈":4445,"죌":4446,"죔":4447,"죕":4448,"죗":4449,"죘":4450,"죙":4451,"죚":4452,"죜":4453,"죝":4454,"죠":4455,"죡":4456,"죢":4457,"죣":4458,"죤":4459,"죥":4460,"죧":4461,"죨":4462,"죰":4463,"죱":4464,"죳":4465,"죴":4466,"죵":4467,"죶":4468,"죷":4469,"죸":4470,"죹":4471,"죺":4472,"죻":4473,"주":4474,"죽":4475,"죾":4476,"죿":4477,"준":4478,"줁":4479,"줂":4480,"줃":4481,"줄":4482,"줅":4483,"줆":4484,"줈":4485,"줉":4486,"줊":4487,"줋":4488,"줌":4489,"줍":4490,"줏":4491,"줐":4492,"중":4493,"줒":4494,"줓":4495,"줔":4496,"줕":4497,"줖":4498,"줗":4499,"줘":4500,"줙":4501,"줚":4502,"줜":4503,"줝":4504,"줟":4505,"줠":4506,"줨":4507,"줩":4508,"줫":4509,"줬":4510,"줭":4511,"줮":4512,"줯":4513,"줰":4514,"줱":4515,"줳":4516,"줴":4517,"줵":4518,"줸":4519,"줼":4520,"쥄":4521,"쥅":4522,"쥇":4523,"쥈":4524,"쥉":4525,"쥐":4526,"쥑":4527,"쥔":4528,"쥘":4529,"쥠":4530,"쥡":4531,"쥣":4532,"쥤":4533,"쥥":4534,"쥦":4535,"쥨":4536,"쥫":4537,"쥬":4538,"쥭":4539,"쥰":4540,"쥳":4541,"쥴":4542,"쥼":4543,"쥽":4544,"쥿":4545,"즁":4546,"즂":4547,"즄":4548,"즇":4549,"즈":4550,"즉":4551,"즋":4552,"즌":4553,"즎":4554,"즏":4555,"즐":4556,"즑":4557,"즘":4558,"즙":4559,"즛":4560,"즜":4561,"증":4562,"즞":4563,"즟":4564,"즠":4565,"즡":4566,"즣":4567,"즤":4568,"즥":4569,"즨":4570,"즬":4571,"즴":4572,"즵":4573,"즷":4574,"즹":4575,"즺":4576,"즼":4577,"지":4578,"직":4579,"짂":4580,"짃":4581,"진":4582,"짅":4583,"짆":4584,"짇":4585,"질":4586,"짉":4587,"짊":4588,"짋":4589,"짌":4590,"짍":4591,"짎":4592,"짏":4593,"짐":4594,"집":4595,"짒":4596,"짓":4597,"짔":4598,"징":4599,"짖":4600,"짗":4601,"짘":4602,"짙":4603,"짚":4604,"짛":4605,"짜":4606,"짝":4607,"짞":4608,"짠":4609,"짢":4610,"짣":4611,"짤":4612,"짥":4613,"짦":4614,"짧":4615,"짪":4616,"짫":4617,"짬":4618,"짭":4619,"짮":4620,"짯":4621,"짰":4622,"짱":4623,"짲":4624,"짳":4625,"짴":4626,"짵":4627,"짶":4628,"짷":4629,"째":4630,"짹":4631,"짺":4632,"짼":4633,"짾":4634,"짿":4635,"쨀":4636,"쨈":4637,"쨉":4638,"쨋":4639,"쨌":4640,"쨍":4641,"쨎":4642,"쨐":4643,"쨓":4644,"쨔":4645,"쨕":4646,"쨖":4647,"쨘":4648,"쨚":4649,"쨜":4650,"쨟":4651,"쨤":4652,"쨥":4653,"쨧":4654,"쨨":4655,"쨩":4656,"쨬":4657,"쨰":4658,"쨱":4659,"쨲":4660,"쨴":4661,"쩀":4662,"쩁":4663,"쩃":4664,"쩄":4665,"쩅":4666,"쩌":4667,"쩍":4668,"쩎":4669,"쩐":4670,"쩑":4671,"쩓":4672,"쩔":4673,"쩕":4674,"쩖":4675,"쩗":4676,"쩘":4677,"쩛":4678,"쩜":4679,"쩝":4680,"쩟":4681,"쩠":4682,"쩡":4683,"쩢":4684,"쩣":4685,"쩤":4686,"쩦":4687,"쩧":4688,"쩨":4689,"쩩":4690,"쩬":4691,"쩰":4692,"쩸":4693,"쩹":4694,"쩻":4695,"쩼":4696,"쩽":4697,"쪄":4698,"쪅":4699,"쪈":4700,"쪌":4701,"쪔":4702,"쪕":4703,"쪗":4704,"쪘":4705,"쪙":4706,"쪚":4707,"쪜":4708,"쪟":4709,"쪠":4710,"쪵":4711,"쪹":4712,"쪻":4713,"쪼":4714,"쪽":4715,"쪾":4716,"쪿":4717,"쫀":4718,"쫂":4719,"쫃":4720,"쫄":4721,"쫅":4722,"쫌":4723,"쫍":4724,"쫏":4725,"쫐":4726,"쫑":4727,"쫒":4728,"쫓":4729,"쫔":4730,"쫕":4731,"쫖":4732,"쫗":4733,"쫘":4734,"쫙":4735,"쫚":4736,"쫛":4737,"쫜":4738,"쫟":4739,"쫠":4740,"쫨":4741,"쫩":4742,"쫫":4743,"쫭":4744,"쫰":4745,"쫴":4746,"쫵":4747,"쬈":4748,"쬎":4749,"쬐":4750,"쬑":4751,"쬔":4752,"쬘":4753,"쬠":4754,"쬡":4755,"쬥":4756,"쬬":4757,"쬭":4758,"쬮":4759,"쬰":4760,"쬲":4761,"쬴":4762,"쬼":4763,"쬽":4764,"쬿":4765,"쭀":4766,"쭁":4767,"쭂":4768,"쭃":4769,"쭄":4770,"쭅":4771,"쭈":4772,"쭉":4773,"쭊":4774,"쭌":4775,"쭏":4776,"쭐":4777,"쭕":4778,"쭘":4779,"쭙":4780,"쭛":4781,"쭝":4782,"쭞":4783,"쭟":4784,"쭠":4785,"쭤":4786,"쭥":4787,"쭨":4788,"쭬":4789,"쭭":4790,"쭵":4791,"쭷":4792,"쭸":4793,"쭹":4794,"쭻":4795,"쮀":4796,"쮁":4797,"쮇":4798,"쮉":4799,"쮑":4800,"쮓":4801,"쮔":4802,"쮕":4803,"쮜":4804,"쮝":4805,"쮠":4806,"쮤":4807,"쮭":4808,"쮱":4809,"쮸":4810,"쮹":4811,"쮼":4812,"쯀":4813,"쯈":4814,"쯉":4815,"쯋":4816,"쯍":4817,"쯎":4818,"쯔":4819,"쯕":4820,"쯘":4821,"쯛":4822,"쯜":4823,"쯤":4824,"쯥":4825,"쯧":4826,"쯨":4827,"쯩":4828,"쯪":4829,"쯫":4830,"쯰":4831,"쯱":4832,"쯴":4833,"찁":4834,"찅":4835,"찌":4836,"찍":4837,"찎":4838,"찏":4839,"찐":4840,"찓":4841,"찔":4842,"찗":4843,"찜":4844,"찝":4845,"찟":4846,"찠":4847,"찡":4848,"찢":4849,"찣":4850,"찤":4851,"찥":4852,"찦":4853,"찧":4854,"차":4855,"착":4856,"찫":4857,"찬":4858,"찭":4859,"찮":4860,"찯":4861,"찰":4862,"찱":4863,"찲":4864,"찳":4865,"찴":4866,"찷":4867,"참":4868,"찹":4869,"찻":4870,"찼":4871,"창":4872,"찾":4873,"찿":4874,"챀":4875,"챁":4876,"챂":4877,"챃":4878,"채":4879,"책":4880,"챈":4881,"챊":4882,"챋":4883,"챌":4884,"챔":4885,"챕":4886,"챗":4887,"챘":4888,"챙":4889,"챚":4890,"챜":4891,"챝":4892,"챠":4893,"챡":4894,"챤":4895,"챦":4896,"챨":4897,"챫":4898,"챰":4899,"챱":4900,"챳":4901,"챴":4902,"챵":4903,"챶":4904,"챷":4905,"챸":4906,"챺":4907,"챻":4908,"챼":4909,"챽":4910,"첑":4911,"처":4912,"척":4913,"천":4914,"첝":4915,"첞":4916,"첟":4917,"철":4918,"첡":4919,"첢":4920,"첣":4921,"첤":4922,"첧":4923,"첨":4924,"첩":4925,"첪":4926,"첫":4927,"첬":4928,"청":4929,"첮":4930,"첯":4931,"첰":4932,"첱":4933,"첲":4934,"첳":4935,"체":4936,"첵":4937,"첸":4938,"첻":4939,"첼":4940,"쳄":4941,"쳅":4942,"쳇":4943,"쳈":4944,"쳉":4945,"쳊":4946,"쳋":4947,"쳌":4948,"쳍":4949,"쳏":4950,"쳐":4951,"쳑":4952,"쳒":4953,"쳔":4954,"쳗":4955,"쳘":4956,"쳠":4957,"쳡":4958,"쳢":4959,"쳣":4960,"쳤":4961,"쳥":4962,"쳦":4963,"쳧":4964,"쳨":4965,"쳫":4966,"쳬":4967,"쳭":4968,"쳰":4969,"쳴":4970,"촀":4971,"초":4972,"촉":4973,"촌":4974,"촏":4975,"촐":4976,"촔":4977,"촘":4978,"촙":4979,"촛":4980,"촜":4981,"총":4982,"촞":4983,"촟":4984,"촠":4985,"촡":4986,"촣":4987,"촤":4988,"촥":4989,"촨":4990,"촪":4991,"촬":4992,"촴":4993,"촵":4994,"촷":4995,"촹":4996,"촺":4997,"촼":4998,"쵀":4999,"쵁":5000,"쵕":5001,"최":5002,"쵝":5003,"쵠":5004,"쵤":5005,"쵭":5006,"쵮":5007,"쵯":5008,"쵱":5009,"쵴":5010,"쵸":5011,"쵹":5012,"쵼":5013,"쵿":5014,"춀":5015,"춈":5016,"춉":5017,"춋":5018,"춌":5019,"춍":5020,"춎":5021,"춏":5022,"춐":5023,"추":5024,"축":5025,"춘":5026,"춚":5027,"춛":5028,"출":5029,"춝":5030,"춞":5031,"춟":5032,"춠":5033,"춡":5034,"춣":5035,"춤":5036,"춥":5037,"춧":5038,"충":5039,"춪":5040,"춫":5041,"춬":5042,"춭":5043,"춮":5044,"춯":5045,"춰":5046,"춱":5047,"춴":5048,"춸":5049,"췁":5050,"췃":5051,"췄":5052,"췅":5053,"췆":5054,"췈":5055,"췌":5056,"췍":5057,"췐":5058,"췔":5059,"췕":5060,"췜":5061,"췝":5062,"췟":5063,"췡":5064,"췤":5065,"취":5066,"췩":5067,"췬":5068,"췰":5069,"췸":5070,"췹":5071,"췻":5072,"췼":5073,"췽":5074,"츀":5075,"츄":5076,"츅":5077,"츈":5078,"츌":5079,"츔":5080,"츕":5081,"츗":5082,"츙":5083,"츛":5084,"츜":5085,"츞":5086,"츠":5087,"측":5088,"츤":5089,"츧":5090,"츨":5091,"츰":5092,"츱":5093,"츳":5094,"층":5095,"츶":5096,"츷":5097,"츸":5098,"츹":5099,"츼":5100,"츽":5101,"칀":5102,"칄":5103,"칌":5104,"칍":5105,"칑":5106,"칔":5107,"치":5108,"칙":5109,"친":5110,"칝":5111,"칞":5112,"칟":5113,"칠":5114,"칡":5115,"칢":5116,"칤":5117,"칧":5118,"침":5119,"칩":5120,"칫":5121,"칬":5122,"칭":5123,"칮":5124,"칯":5125,"칰":5126,"칱":5127,"칲":5128,"칳":5129,"카":5130,"칵":5131,"칶":5132,"칸":5133,"칻":5134,"칼":5135,"칽":5136,"캄":5137,"캅":5138,"캆":5139,"캇":5140,"캈":5141,"캉":5142,"캊":5143,"캋":5144,"캌":5145,"캍":5146,"캎":5147,"캏":5148,"캐":5149,"캑":5150,"캔":5151,"캘":5152,"캙":5153,"캠":5154,"캡":5155,"캢":5156,"캣":5157,"캤":5158,"캥":5159,"캨":5160,"캩":5161,"캪":5162,"캬":5163,"캭":5164,"캮":5165,"캰":5166,"캴":5167,"캵":5168,"캼":5169,"캽":5170,"캿":5171,"컀":5172,"컁":5173,"컄":5174,"컅":5175,"컇":5176,"컈":5177,"커":5178,"컥":5179,"컦":5180,"컨":5181,"컫":5182,"컬":5183,"컭":5184,"컯":5185,"컴":5186,"컵":5187,"컷":5188,"컸":5189,"컹":5190,"컺":5191,"컼":5192,"컽":5193,"컾":5194,"컿":5195,"케":5196,"켁":5197,"켄":5198,"켇":5199,"켈":5200,"켉":5201,"켐":5202,"켑":5203,"켓":5204,"켔":5205,"켕":5206,"켘":5207,"켙":5208,"켚":5209,"켛":5210,"켜":5211,"켝":5212,"켞":5213,"켠":5214,"켤":5215,"켬":5216,"켭":5217,"켯":5218,"켰":5219,"켱":5220,"켲":5221,"켴":5222,"켵":5223,"켷":5224,"켸":5225,"켼":5226,"콋":5227,"콌":5228,"코":5229,"콕":5230,"콘":5231,"콛":5232,"콜":5233,"콤":5234,"콥":5235,"콧":5236,"콩":5237,"콪":5238,"콫":5239,"콬":5240,"콭":5241,"콮":5242,"콯":5243,"콰":5244,"콱":5245,"콲":5246,"콴":5247,"콸":5248,"쾀":5249,"쾃":5250,"쾅":5251,"쾈":5252,"쾌":5253,"쾍":5254,"쾐":5255,"쾡":5256,"쾤":5257,"쾨":5258,"쾩":5259,"쾬":5260,"쾰":5261,"쾽":5262,"쿄":5263,"쿅":5264,"쿈":5265,"쿌":5266,"쿔":5267,"쿗":5268,"쿙":5269,"쿜":5270,"쿠":5271,"쿡":5272,"쿢":5273,"쿤":5274,"쿧":5275,"쿨":5276,"쿩":5277,"쿫":5278,"쿯":5279,"쿰":5280,"쿱":5281,"쿳":5282,"쿵":5283,"쿸":5284,"쿹":5285,"쿺":5286,"쿻":5287,"쿼":5288,"쿽":5289,"퀀":5290,"퀄":5291,"퀌":5292,"퀏":5293,"퀐":5294,"퀑":5295,"퀔":5296,"퀘":5297,"퀙":5298,"퀜":5299,"퀠":5300,"퀡":5301,"퀫":5302,"퀭":5303,"퀰":5304,"퀴":5305,"퀵":5306,"퀸":5307,"퀻":5308,"퀼":5309,"큄":5310,"큅":5311,"큇":5312,"큉":5313,"큌":5314,"큐":5315,"큑":5316,"큔":5317,"큘":5318,"큠":5319,"큡":5320,"큣":5321,"큥":5322,"큨":5323,"큩":5324,"큪":5325,"크":5326,"큭":5327,"큮":5328,"큰":5329,"큲":5330,"큳":5331,"클":5332,"큵":5333,"큷":5334,"큻":5335,"큼":5336,"큽":5337,"큿":5338,"킀":5339,"킁":5340,"킂":5341,"킄":5342,"킅":5343,"킆":5344,"킇":5345,"킈":5346,"킉":5347,"킌":5348,"킐":5349,"킘":5350,"킝":5351,"킠":5352,"키":5353,"킥":5354,"킦":5355,"킨":5356,"킫":5357,"킬":5358,"킴":5359,"킵":5360,"킶":5361,"킷":5362,"킸":5363,"킹":5364,"킺":5365,"킼":5366,"킽":5367,"킾":5368,"킿":5369,"타":5370,"탁":5371,"탂":5372,"탄":5373,"탅":5374,"탆":5375,"탇":5376,"탈":5377,"탉":5378,"탊":5379,"탍":5380,"탏":5381,"탐":5382,"탑":5383,"탓":5384,"탔":5385,"탕":5386,"탖":5387,"탗":5388,"탘":5389,"탙":5390,"탚":5391,"탛":5392,"태":5393,"택":5394,"탞":5395,"탟":5396,"탠":5397,"탣":5398,"탤":5399,"탬":5400,"탭":5401,"탯":5402,"탰":5403,"탱":5404,"탲":5405,"탴":5406,"탵":5407,"탶":5408,"탷":5409,"탸":5410,"탹":5411,"탼":5412,"턀":5413,"턈":5414,"턉":5415,"턋":5416,"턍":5417,"턐":5418,"턑":5419,"턔":5420,"턕":5421,"턘":5422,"턩":5423,"터":5424,"턱":5425,"턴":5426,"턷":5427,"털":5428,"턹":5429,"턺":5430,"텀":5431,"텁":5432,"텂":5433,"텃":5434,"텄":5435,"텅":5436,"텆":5437,"텇":5438,"텈":5439,"텉":5440,"텊":5441,"텋":5442,"테":5443,"텍":5444,"텐":5445,"텓":5446,"텔":5447,"템":5448,"텝":5449,"텟":5450,"텠":5451,"텡":5452,"텢":5453,"텣":5454,"텤":5455,"텥":5456,"텦":5457,"텧":5458,"텨":5459,"텩":5460,"텬":5461,"텰":5462,"텸":5463,"텹":5464,"텻":5465,"텼":5466,"텽":5467,"톀":5468,"톃":5469,"톄":5470,"톅":5471,"톈":5472,"톌":5473,"톔":5474,"토":5475,"톡":5476,"톢":5477,"톤":5478,"톧":5479,"톨":5480,"톩":5481,"톪":5482,"톰":5483,"톱":5484,"톳":5485,"통":5486,"톶":5487,"톷":5488,"톸":5489,"톹":5490,"톺":5491,"톻":5492,"톼":5493,"톽":5494,"퇀":5495,"퇄":5496,"퇌":5497,"퇍":5498,"퇏":5499,"퇑":5500,"퇔":5501,"퇘":5502,"퇙":5503,"퇜":5504,"퇧":5505,"퇫":5506,"퇬":5507,"퇭":5508,"퇮":5509,"퇴":5510,"퇵":5511,"퇶":5512,"퇸":5513,"퇼":5514,"툄":5515,"툅":5516,"툇":5517,"툈":5518,"툉":5519,"툊":5520,"툌":5521,"툐":5522,"툑":5523,"툠":5524,"툥":5525,"툨":5526,"툩":5527,"투":5528,"툭":5529,"툰":5530,"툱":5531,"툲":5532,"툳":5533,"툴":5534,"툻":5535,"툼":5536,"툽":5537,"툿":5538,"퉁":5539,"퉂":5540,"퉄":5541,"퉅":5542,"퉆":5543,"퉈":5544,"퉉":5545,"퉌":5546,"퉐":5547,"퉛":5548,"퉜":5549,"퉝":5550,"퉤":5551,"퉥":5552,"퉨":5553,"퉬":5554,"퉵":5555,"퉷":5556,"퉸":5557,"퉹":5558,"퉼":5559,"퉽":5560,"퉾":5561,"튀":5562,"튁":5563,"튄":5564,"튈":5565,"튐":5566,"튑":5567,"튓":5568,"튔":5569,"튕":5570,"튘":5571,"튜":5572,"튝":5573,"튠":5574,"튤":5575,"튬":5576,"튭":5577,"튱":5578,"튴":5579,"튵":5580,"튶":5581,"트":5582,"특":5583,"튺":5584,"튻":5585,"튼":5586,"튽":5587,"튿":5588,"틀":5589,"틁":5590,"틂":5591,"틅":5592,"틇":5593,"틈":5594,"틉":5595,"틊":5596,"틋":5597,"틍":5598,"틎":5599,"틏":5600,"틐":5601,"틑":5602,"틒":5603,"틓":5604,"틔":5605,"틕":5606,"틘":5607,"틜":5608,"틤":5609,"틧":5610,"틩":5611,"티":5612,"틱":5613,"틳":5614,"틴":5615,"틷":5616,"틸":5617,"팀":5618,"팁":5619,"팃":5620,"팄":5621,"팅":5622,"팆":5623,"팈":5624,"팉":5625,"팊":5626,"파":5627,"팍":5628,"팎":5629,"팏":5630,"판":5631,"팑":5632,"팒":5633,"팓":5634,"팔":5635,"팕":5636,"팖":5637,"팗":5638,"팘":5639,"팙":5640,"팚":5641,"팛":5642,"팜":5643,"팝":5644,"팟":5645,"팠":5646,"팡":5647,"팢":5648,"팣":5649,"팤":5650,"팥":5651,"팦":5652,"팧":5653,"패":5654,"팩":5655,"팬":5656,"팯":5657,"팰":5658,"팸":5659,"팹":5660,"팻":5661,"팼":5662,"팽":5663,"퍀":5664,"퍁":5665,"퍄":5666,"퍅":5667,"퍈":5668,"퍌":5669,"퍔":5670,"퍙":5671,"퍝":5672,"퍞":5673,"퍠":5674,"퍡":5675,"퍤":5676,"퍵":5677,"퍼":5678,"퍽":5679,"퍾":5680,"펀":5681,"펃":5682,"펄":5683,"펅":5684,"펌":5685,"펍":5686,"펏":5687,"펐":5688,"펑":5689,"펒":5690,"펔":5691,"펕":5692,"펖":5693,"펗":5694,"페":5695,"펙":5696,"펜":5697,"펟":5698,"펠":5699,"펨":5700,"펩":5701,"펫":5702,"펭":5703,"펰":5704,"펲":5705,"펴":5706,"펵":5707,"편":5708,"펹":5709,"펺":5710,"펻":5711,"펼":5712,"폄":5713,"폅":5714,"폇":5715,"폈":5716,"평":5717,"폌":5718,"폐":5719,"폑":5720,"폔":5721,"폘":5722,"폠":5723,"폡":5724,"폣":5725,"폥":5726,"폨":5727,"포":5728,"폭":5729,"폯":5730,"폰":5731,"폳":5732,"폴":5733,"폼":5734,"폽":5735,"폿":5736,"퐁":5737,"퐂":5738,"퐄":5739,"퐅":5740,"퐆":5741,"퐇":5742,"퐈":5743,"퐉":5744,"퐌":5745,"퐐":5746,"퐑":5747,"퐘":5748,"퐙":5749,"퐛":5750,"퐜":5751,"퐝":5752,"퐠":5753,"퐣":5754,"퐤":5755,"퐥":5756,"퐨":5757,"푀":5758,"푁":5759,"푄":5760,"푈":5761,"푕":5762,"표":5763,"푝":5764,"푠":5765,"푤":5766,"푬":5767,"푭":5768,"푯":5769,"푱":5770,"푲":5771,"푴":5772,"푶":5773,"푷":5774,"푸":5775,"푹":5776,"푼":5777,"푿":5778,"풀":5779,"풁":5780,"풂":5781,"풃":5782,"풇":5783,"품":5784,"풉":5785,"풋":5786,"풍":5787,"풎":5788,"풏":5789,"풐":5790,"풑":5791,"풒":5792,"풓":5793,"풔":5794,"풕":5795,"풘":5796,"풜":5797,"풩":5798,"풬":5799,"풰":5800,"풱":5801,"풴":5802,"풸":5803,"풹":5804,"퓅":5805,"퓌":5806,"퓍":5807,"퓐":5808,"퓔":5809,"퓟":5810,"퓡":5811,"퓨":5812,"퓩":5813,"퓬":5814,"퓰":5815,"퓸":5816,"퓹":5817,"퓻":5818,"퓽":5819,"퓿":5820,"픀":5821,"픂":5822,"픃":5823,"프":5824,"픅":5825,"픈":5826,"픋":5827,"플":5828,"픍":5829,"픎":5830,"픓":5831,"픔":5832,"픕":5833,"픗":5834,"픙":5835,"픚":5836,"픜":5837,"픝":5838,"픞":5839,"픟":5840,"픠":5841,"픤":5842,"픨":5843,"픵":5844,"픹":5845,"피":5846,"픽":5847,"핀":5848,"핃":5849,"필":5850,"핆":5851,"핋":5852,"핌":5853,"핍":5854,"핏":5855,"핐":5856,"핑":5857,"핒":5858,"핓":5859,"핔":5860,"핕":5861,"핖":5862,"핗":5863,"하":5864,"학":5865,"핚":5866,"핛":5867,"한":5868,"핝":5869,"핞":5870,"핟":5871,"할":5872,"핡":5873,"핢":5874,"핣":5875,"핤":5876,"핥":5877,"핦":5878,"핧":5879,"함":5880,"합":5881,"핪":5882,"핫":5883,"핬":5884,"항":5885,"핮":5886,"핯":5887,"핰":5888,"핱":5889,"핲":5890,"핳":5891,"해":5892,"핵":5893,"핶":5894,"핷":5895,"핸":5896,"핺":5897,"핻":5898,"핼":5899,"핽":5900,"햄":5901,"햅":5902,"햇":5903,"했":5904,"행":5905,"햊":5906,"햋":5907,"햌":5908,"햍":5909,"햎":5910,"햏":5911,"햐":5912,"햑":5913,"햔":5914,"햘":5915,"햙":5916,"햚":5917,"햛":5918,"햝":5919,"햟":5920,"햠":5921,"햡":5922,"햣":5923,"햤":5924,"향":5925,"햨":5926,"햩":5927,"햫":5928,"햬":5929,"햭":5930,"햰":5931,"햿":5932,"헀":5933,"헁":5934,"허":5935,"헉":5936,"헊":5937,"헋":5938,"헌":5939,"헍":5940,"헏":5941,"헐":5942,"헑":5943,"헒":5944,"헓":5945,"헔":5946,"헕":5947,"헗":5948,"험":5949,"헙":5950,"헚":5951,"헛":5952,"헜":5953,"헝":5954,"헞":5955,"헟":5956,"헠":5957,"헡":5958,"헢":5959,"헣":5960,"헤":5961,"헥":5962,"헦":5963,"헧":5964,"헨":5965,"헫":5966,"헬":5967,"헭":5968,"헯":5969,"헰":5970,"헱":5971,"헲":5972,"헳":5973,"헴":5974,"헵":5975,"헶":5976,"헷":5977,"헸":5978,"헹":5979,"헼":5980,"헽":5981,"헾":5982,"헿":5983,"혀":5984,"혁":5985,"혂":5986,"혃":5987,"현":5988,"혅":5989,"혆":5990,"혇":5991,"혈":5992,"혉":5993,"혐":5994,"협":5995,"혒":5996,"혓":5997,"혔":5998,"형":5999,"혖":6000,"혘":6001,"혙":6002,"혚":6003,"혛":6004,"혜":6005,"혝":6006,"혠":6007,"혤":6008,"혬":6009,"혭":6010,"혯":6011,"혰":6012,"혱":6013,"혲":6014,"혴":6015,"혷":6016,"호":6017,"혹":6018,"혺":6019,"혻":6020,"혼":6021,"혽":6022,"혾":6023,"혿":6024,"홀":6025,"홁":6026,"홅":6027,"홇":6028,"홈":6029,"홉":6030,"홋":6031,"홍":6032,"홎":6033,"홐":6034,"홑":6035,"홒":6036,"홓":6037,"화":6038,"확":6039,"홖":6040,"홗":6041,"환":6042,"홙":6043,"홛":6044,"활":6045,"홝":6046,"홟":6047,"홡":6048,"홣":6049,"홤":6050,"홥":6051,"홧":6052,"홨":6053,"황":6054,"홪":6055,"홫":6056,"홬":6057,"홭":6058,"홮":6059,"홯":6060,"홰":6061,"홱":6062,"홴":6063,"횃":6064,"횄":6065,"횅":6066,"회":6067,"획":6068,"횐":6069,"횓":6070,"횔":6071,"횜":6072,"횝":6073,"횟":6074,"횠":6075,"횡":6076,"횢":6077,"횤":6078,"횧":6079,"효":6080,"횩":6081,"횬":6082,"횰":6083,"횸":6084,"횹":6085,"횻":6086,"횽":6087,"훀":6088,"훃":6089,"후":6090,"훅":6091,"훈":6092,"훉":6093,"훊":6094,"훋":6095,"훌":6096,"훍":6097,"훏":6098,"훑":6099,"훓":6100,"훔":6101,"훕":6102,"훗":6103,"훙":6104,"훚":6105,"훛":6106,"훜":6107,"훝":6108,"훞":6109,"훟":6110,"훠":6111,"훡":6112,"훤":6113,"훨":6114,"훯":6115,"훰":6116,"훱":6117,"훳":6118,"훵":6119,"훸":6120,"훻":6121,"훼":6122,"훽":6123,"휀":6124,"휄":6125,"휅":6126,"휇":6127,"휍":6128,"휏":6129,"휐":6130,"휑":6131,"휔":6132,"휗":6133,"휘":6134,"휙":6135,"휜":6136,"휠":6137,"휨":6138,"휩":6139,"휫":6140,"휭":6141,"휰":6142,"휲":6143,"휳":6144,"휴":6145,"휵":6146,"휸":6147,"휼":6148,"흄":6149,"흅":6150,"흇":6151,"흉":6152,"흊":6153,"흌":6154,"흎":6155,"흏":6156,"흐":6157,"흑":6158,"흒":6159,"흓":6160,"흔":6161,"흗":6162,"흘":6163,"흙":6164,"흚":6165,"흛":6166,"흜":6167,"흝":6168,"흟":6169,"흠":6170,"흡":6171,"흣":6172,"흤":6173,"흥":6174,"흦":6175,"흨":6176,"흩":6177,"흪":6178,"흫":6179,"희":6180,"흭":6181,"흰":6182,"흳":6183,"흴":6184,"흵":6185,"흼":6186,"흽":6187,"흿":6188,"힁":6189,"힂":6190,"힄":6191,"힇":6192,"히":6193,"힉":6194,"힊":6195,"힌":6196,"힏":6197,"힐":6198,"힑":6199,"힒":6200,"힕":6201,"힗":6202,"힘":6203,"힙":6204,"힛":6205,"힜":6206,"힝":6207,"힞":6208,"힟":6209,"힠":6210,"힡":6211,"힢":6212,"힣":6213,"％":6214,"##졌":6215,"##다":6216,"##면":6217,"##문":6218,"##♬":6219,"##형":6220,"##냉":6221,"##장":6222,"##고":6223,"##작":6224,"##을":6225,"##하":6226,"##지":6227,"##말":6228,"##아":6229,"##주":6230,"##세":6231,"##요":6232,"##은":6233,"##증":6234,"##그":6235,"##대":6236,"##로":6237,"##인":6238,"##데":6239,"##자":6240,"##나":6241,"##한":6242,"##테":6243,"##사":6244,"##병":6245,"##격":6246,"##에":6247,"##화":6248,"##되":6249,"##위":6250,"##서":6251,"##도":6252,"##개":6253,"##매":6254,"##수":6255,"##D":6256,"##1":6257,"##8":6258,"##9":6259,"##5":6260,"##리":6261,"##딕":6262,"##이":6263,"##치":6264,"##집":6265,"##구":6266,"##석":6267,"##스":6268,"##해":6269,"##기":6270,"##써":6271,"##의":6272,"##흡":6273,"##연":6274,"##율":6275,"##붙":6276,"##혀":6277,"##라":6278,"##편":6279,"##박":6280,"##길":6281,"##생":6282,"##충":6283,"##내":6284,"##마":6285,"##P":6286,"##씨":6287,"##를":6288,"##었":6289,"##네":6290,"##저":6291,"##번":6292,"##부":6293,"##터":6294,"##들":6295,"##야":6296,"##른":6297,"##뒤":6298,"##일":6299,"##니":6300,"##3":6301,"##분":6302,"##올":6303,"##오":6304,"##던":6305,"##애":6306,"##된":6307,"##놈":6308,"##때":6309,"##간":6310,"##가":6311,"##국":6312,"##욕":6313,"##만":6314,"##게":6315,"##있":6316,"##질":6317,"##럿":6318,"##으":6319,"##쇼":6320,"##러":6321,"##운":6322,"##것":6323,"##영":6324,"##살":6325,"##릴":6326,"##성":6327,"##령":6328,"##원":6329,"##근":6330,"##와":6331,"##7":6332,"##6":6333,"##별":6334,"##방":6335,"##목":6336,"##적":6337,"##디":6338,"##발":6339,"##확":6340,"##산":6341,"##같":6342,"##소":6343,"##선":6344,"##어":6345,"##학":6346,"##교":6347,"##우":6348,"##갈":6349,"##까":6350,"##민":6351,"##했":6352,"##는":6353,"##콜":6354,"##제":6355,"##끼":6356,"##런":6357,"##투":6358,"##시":6359,"##두":6360,"##념":6361,"##식":6362,"##억":6363,"##캐":6364,"##껏":6365,"##란":6366,"##걸":6367,"##겠":6368,"##각":6369,"##람":6370,"##상":6371,"##전":6372,"##팀":6373,"##깽":6374,"##판":6375,"##정":6376,"##권":6377,"##침":6378,"##착":6379,"##려":6380,"##바":6381,"##습":6382,"##0":6383,"##년":6384,"##월":6385,"##안":6386,"##됬":6387,"##틸":6388,"##플":6389,"##래":6390,"##보":6391,"##토":6392,"##베":6393,"##린":6394,"##T":6395,"##N":6396,"##프":6397,"##램":6398,"##퇴":6399,"##댓":6400,"##글":6401,"##과":6402,"##차":6403,"##쿠":6404,"##멘":6405,"##탈":6406,"##알":6407,"##염":6408,"##중":6409,"##미":6410,"##금":6411,"##쓰":6412,"##거":6413,"##물":6414,"##왕":6415,"##품":6416,"##유":6417,"##통":6418,"##업":6419,"##메":6420,"##모":6421,"##명":6422,"##당":6423,"##관":6424,"##련":6425,"##점":6426,"##맞":6427,"##희":6428,"##극":6429,"##태":6430,"##진":6431,"##잡":6432,"##앗":6433,"##눈":6434,"##럭":6435,"##S":6436,"##너":6437,"##홀":6438,"##딩":6439,"##족":6440,"##톨":6441,"##섹":6442,"##싶":6443,"##회":6444,"##폐":6445,"##쇄":6446,"##켜":6447,"##름":6448,"##없":6449,"##현":6450,"##코":6451,"##신":6452,"##탁":6453,"##표":6454,"##탐":6455,"##짜":6456,"##임":6457,"##새":6458,"##승":6459,"##깨":6460,"##실":6461,"##동":6462,"##뜻":6463,"##님":6464,"##죽":6465,"##짓":6466,"##겅":6467,"##m":6468,"##f":6469,"##뜨":6470,"##예":6471,"##창":6472,"##푸":6473,"##광":6474,"##심":6475,"##값":6476,"##드":6477,"##뎃":6478,"##날":6479,"##될":6480,"##책":6481,"##겟":6482,"##벤":6483,"##트":6484,"##허":6485,"##슬":6486,"##웃":6487,"##키":6488,"##닐":6489,"##떨":6490,"##듯":6491,"##벌":6492,"##U":6493,"##묘":6494,"##덕":6495,"##조":6496,"##삐":6497,"##쩍":6498,"##르":6499,"##놓":6500,"##북":6501,"##체":6502,"##처":6503,"##단":6504,"##티":6505,"##댕":6506,"##순":6507,"##감":6508,"##됐":6509,"##든":6510,"##쉘":6511,"##타":6512,"##았":6513,"##합":6514,"##즌":6515,"##막":6516,"##짤":6517,"##좋":6518,"##달":6519,"##않":6520,"##후":6521,"##노":6522,"##파":6523,"##싱":6524,"##강":6525,"##꾼":6526,"##냐":6527,"##무":6528,"##레":6529,"##츠":6530,"##육":6531,"##계":6532,"##언":6533,"##론":6534,"##여":6535,"##답":6536,"##깆":6537,"##싫":6538,"##즘":6539,"##왜":6540,"##X":6541,"##청":6542,"##춘":6543,"##옇":6544,"##루":6545,"##효":6546,"##경":6547,"##등":6548,"##변":6549,"##웹":6550,"##툰":6551,"##비":6552,"##험":6553,"##됩":6554,"##골":6555,"##팬":6556,"##옆":6557,"##더":6558,"##포":6559,"##친":6560,"##추":6561,"##클":6562,"##카":6563,"##돈":6564,"##혜":6565,"##갚":6566,"##x":6567,"##호":6568,"##입":6569,"##검":6570,"##측":6571,"##2":6572,"##낭":6573,"##군":6574,"##힐":6575,"##송":6576,"##컷":6577,"##공":6578,"##긴":6579,"##큰":6580,"##랑":6581,"##빈":6582,"##썼":6583,"##궁":6584,"##용":6585,"##센":6586,"##룹":6587,"##넹":6588,"##립":6589,"##력":6590,"##누":6591,"##건":6592,"##콩":6593,"##찌":6594,"##척":6595,"##머":6596,"##엔":6597,"##맥":6598,"##직":6599,"##환":6600,"##튜":6601,"##좌":6602,"##휘":6603,"##녀":6604,"##봐":6605,"##범":6606,"##망":6607,"##였":6608,"##초":6609,"##함":6610,"##져":6611,"##닌":6612,"##양":6613,"##뜩":6614,"##뿌":6615,"##득":6616,"##존":6617,"##재":6618,"##먹":6619,"##쩐":6620,"##버":6621,"##릇":6622,"##뭉":6623,"##음":6624,"##잔":6625,"##므":6626,"##접":6627,"##탕":6628,"##패":6629,"##션":6630,"##피":6631,"##봄":6632,"##꼬":6633,"##팔":6634,"##못":6635,"##먼":6636,"##햇":6637,"##출":6638,"##견":6639,"##받":6640,"##솜":6641,"##행":6642,"##축":6643,"##h":6644,"##l":6645,"##o":6646,"##쌤":6647,"##픽":6648,"##속":6649,"##밀":6650,"##닥":6651,"##섭":6652,"##왤":6653,"##케":6654,"##셔":6655,"##많":6656,"##끌":6657,"##윤":6658,"##숲":6659,"##쉰":6660,"##압":6661,"##댄":6662,"##채":6663,"##황":6664,"##급":6665,"##히":6666,"##잘":6667,"##활":6668,"##탄":6669,"##핵":6670,"##규":6671,"##돼":6672,"##룩":6673,"##록":6674,"##셨":6675,"##겜":6676,"##림":6677,"##몇":6678,"##퀴":6679,"##n":6680,"##j":6681,"##s":6682,"##멸":6683,"##결":6684,"##며":6685,"##설":6686,"##겼":6687,"##꺼":6688,"##례":6689,"##찍":6690,"##돌":6691,"##씌":6692,"##웠":6693,"##풍":6694,"##쳐":6695,"##잖":6696,"##눠":6697,"##넷":6698,"##본":6699,"##뿐":6700,"##씀":6701,"##얼":6702,"##곸":6703,"##갵":6704,"##즈":6705,"##천":6706,"##뀌":6707,"##논":6708,"##링":6709,"##룽":6710,"##쩜":6711,"##백":6712,"##할":6713,"##워":6714,"##략":6715,"##얘":6716,"##께":6717,"##찬":6718,"##쳤":6719,"##A":6720,"##H":6721,"##I":6722,"##Z":6723,"##E":6724,"##큼":6725,"##딸":6726,"##랜":6727,"##a":6728,"##e":6729,"##b":6730,"##i":6731,"##g":6732,"##p":6733,"##떠":6734,"##협":6735,"##줄":6736,"##쏘":6737,"##폭":6738,"##쩌":6739,"##넙":6740,"##째":6741,"##향":6742,"##곡":6743,"##럼":6744,"##준":6745,"##똑":6746,"##김":6747,"##술":6748,"##익":6749,"##났":6750,"##싸":6751,"##d":6752,"##봣":6753,"##괴":6754,"##롭":6755,"##난":6756,"##튬":6757,"##슴":6758,"##반":6759,"##낸":6760,"##종":6761,"##샹":6762,"##4":6763,"##떼":6764,"##불":6765,"##징":6766,"##놀":6767,"##쇠":6768,"##평":6769,"##법":6770,"##춰":6771,"##밑":6772,"##울":6773,"##깐":6774,"##큐":6775,"##숙":6776,"##좀":6777,"##잠":6778,"##꿀":6779,"##잼":6780,"##쌍":6781,"##열":6782,"##찰":6783,"##렇":6784,"##락":6785,"##배":6786,"##킨":6787,"##량":6788,"##톤":6789,"##씩":6790,"##왔":6791,"##완":6792,"##균":6793,"##걷":6794,"##남":6795,"##낀":6796,"##뛴":6797,"##브":6798,"##십":6799,"##크":6800,"##넘":6801,"##겨":6802,"##줍":6803,"##읽":6804,"##최":6805,"##텐":6806,"##t":6807,"##r":6808,"##롯":6809,"##휴":6810,"##컨":6811,"##약":6812,"##떄":6813,"##류":6814,"##졸":6815,"##복":6816,"##맨":6817,"##멋":6818,"##눕":6819,"##줬":6820,"##핀":6821,"##펀":6822,"##온":6823,"##O":6824,"##Y":6825,"##닝":6826,"##외":6827,"##널":6828,"##페":6829,"##샷":6830,"##택":6831,"##탸":6832,"##늙":6833,"##삼":6834,"##색":6835,"##녹":6836,"##또":6837,"##V":6838,"##L":6839,"##G":6840,"##역":6841,"##뵈":6842,"##빨":6843,"##잏":6844,"##밥":6845,"##c":6846,"##찾":6847,"##y":6848,"##u":6849,"##쩔":6850,"##암":6851,"##담":6852,"##덜":6853,"##죠":6854,"##랐":6855,"##잇":6856,"##템":6857,"##따":6858,"##앜":6859,"##응":6860,"##찢":6861,"##븐":6862,"##빻":6863,"##굴":6864,"##졋":6865,"##겝":6866,"##밖":6867,"##뜸":6868,"##퍼":6869,"##흥":6870,"##힌":6871,"##붓":6872,"##씬":6873,"##쌈":6874,"##칼":6875,"##쿼":6876,"##융":6877,"##픈":6878,"##독":6879,"##헛":6880,"##삿":6881,"##혼":6882,"##k":6883,"##앙":6884,"##움":6885,"##쥐":6886,"##둥":6887,"##봉":6888,"##뤼":6889,"##걱":6890,"##빠":6891,"##객":6892,"##갇":6893,"##힘":6894,"##죸":6895,"##갔":6896,"##필":6897,"##볼":6898,"##륨":6899,"##샴":6900,"##옷":6901,"##쪽":6902,"##쯤":6903,"##렁":6904,"##샌":6905,"##빵":6906,"##틀":6907,"##핏":6908,"##슷":6909,"##씻":6910,"##욥":6911,"##둘":6912,"##낮":6913,"##쿨":6914,"##겻":6915,"##뮨":6916,"##률":6917,"##빌":6918,"##렀":6919,"##껒":6920,"##C":6921,"##웍":6922,"##엇":6923,"##슛":6924,"##냥":6925,"##췬":6926,"##죄":6927,"##참":6928,"##끄":6929,"##곳":6930,"##맹":6931,"##흑":6932,"##꽈":6933,"##윈":6934,"##튼":6935,"##늠":6936,"##느":6937,"##낌":6938,"##롱":6939,"##획":6940,"##젠":6941,"##쟁":6942,"##싄":6943,"##쟈":6944,"##늘":6945,"##믿":6946,"##섴":6947,"##샣":6948,"##햐":6949,"##뱉":6950,"##쩡":6951,"##탓":6952,"##꼴":6953,"##훈":6954,"##M":6955,"##줘":6956,"##특":6957,"##혁":6958,"##쏭":6959,"##액":6960,"##갑":6961,"##솔":6962,"##젤":6963,"##끝":6964,"##삭":6965,"##짰":6966,"##럽":6967,"##닮":6968,"##쉬":6969,"##짐":6970,"##줌":6971,"##탖":6972,"##층":6973,"##냄":6974,"##헌":6975,"##펴":6976,"##슨":6977,"##늬":6978,"##멍":6979,"##짠":6980,"##뭐":6981,"##믄":6982,"##능":6983,"##밋":6984,"##빛":6985,"##펫":6986,"##겁":6987,"##옹":6988,"##악":6989,"##낙":6990,"##뻔":6991,"##띠":6992,"##항":6993,"##핬":6994,"##갖":6995,"##뉴":6996,"##혈":6997,"##뇨":6998,"##뇌":6999,"##커":7000,"##킬":7001,"##섯":7002,"##절":7003,"##총":7004,"##잎":7005,"##쉽":7006,"##팅":7007,"##볶":7008,"##겄":7009,"##봤":7010,"##꿍":7011,"##쓸":7012,"##J":7013,"##맙":7014,"##껴":7015,"##랄":7016,"##핑":7017,"##얌":7018,"##랙":7019,"##턴":7020,"##잊":7021,"##셧":7022,"##찔":7023,"##딱":7024,"##륜":7025,"##첫":7026,"##놨":7027,"##셜":7028,"##컵":7029,"##딴":7030,"##앞":7031,"##취":7032,"##B":7033,"##잌":7034,"##뢰":7035,"##잃":7036,"##햏":7037,"##룰":7038,"##맴":7039,"##듬":7040,"##퐈":7041,"##철":7042,"##맡":7043,"##첩":7044,"##숍":7045,"##촤":7046,"##핫":7047,"##챠":7048,"##썰":7049,"##푼":7050,"##틴":7051,"##료":7052,"##톱":7053,"##칙":7054,"##밤":7055,"##렵":7056,"##닦":7057,"##찜":7058,"##닫":7059,"##K":7060,"##톰":7061,"##멱":7062,"##몰":7063,"##닼":7064,"##엄":7065,"##릉":7066,"##읍":7067,"##꼭":7068,"##벽":7069,"##뷔":7070,"##샘":7071,"##뽀":7072,"##힏":7073,"##렷":7074,"##껑":7075,"##딤":7076,"##썹":7077,"##빼":7078,"##곤":7079,"##뽑":7080,"##굿":7081,"##렌":7082,"##젝":7083,"##넣":7084,"##갓":7085,"##롤":7086,"##랬":7087,"##벨":7088,"##R":7089,"##땜":7090,"##깍":7091,"##귄":7092,"##펙":7093,"##쯔":7094,"##펜":7095,"##쨌":7096,"##헬":7097,"##쿡":7098,"##귀":7099,"##웤":7100,"##얻":7101,"##뮤":7102,"##컬":7103,"##혹":7104,"##뚝":7105,"##흘":7106,"##첨":7107,"##옮":7108,"##똥":7109,"##엘":7110,"##섥":7111,"##뛰":7112,"##츌":7113,"##럴":7114,"##풀":7115,"##겹":7116,"##갸":7117,"##블":7118,"##엡":7119,"##싼":7120,"##홧":7121,"##칭":7122,"##끔":7123,"##힣":7124,"##캔":7125,"##쁜":7126,"##겐":7127,"##줫":7128,"##뭇":7129,"##솥":7130,"##즉":7131,"##맛":7132,"##텔":7133,"##앖":7134,"##넬":7135,"##펼":7136,"##깜":7137,"##섬":7138,"##껀":7139,"##뚱":7140,"##몸":7141,"##랕":7142,"##샬":7143,"##긋":7144,"##눔":7145,"##댖":7146,"##v":7147,"##툭":7148,"##튀":7149,"##손":7150,"##춤":7151,"##츤":7152,"##쾅":7153,"##콤":7154,"##슈":7155,"##덥":7156,"##쓴":7157,"##듣":7158,"##짘":7159,"##웅":7160,"##덩":7161,"##벙":7162,"##깔":7163,"##슙":7164,"##슞":7165,"##렸":7166,"##옵":7167,"##댜":7168,"##됫":7169,"##웬":7170,"##털":7171,"##몬":7172,"##숭":7173,"##쌔":7174,"##킹":7175,"##농":7176,"##찡":7177,"##봗":7178,"##촌":7179,"##납":7180,"##봅":7181,"##샤":7182,"##섞":7183,"##렴":7184,"##빗":7185,"##캠":7186,"##쫄":7187,"##컴":7188,"##폰":7189,"##랰":7190,"##Q":7191,"##낢":7192,"##닛":7193,"##딜":7194,"##렬":7195,"##둬":7196,"##랏":7197,"##됨":7198,"##헸":7199,"##싁":7200,"##맺":7201,"##돔":7202,"##캘":7203,"##뎈":7204,"##떤":7205,"##낄":7206,"##닭":7207,"##옄":7208,"##닙":7209,"##녕":7210,"##릿":7211,"##옥":7212,"##떳":7213,"##훟":7214,"##핳":7215,"##F":7216,"##쟌":7217,"##햔":7218,"##둠":7219,"##W":7220,"##윽":7221,"##뱅":7222,"##쎄":7223,"##댁":7224,"##촉":7225,"##붐":7226,"##켰":7227,"##텅":7228,"##숨":7229,"##핸":7230,"##넛":7231,"##꾸":7232,"##뤄":7233,"##셋":7234,"##쪹":7235,"##밸":7236,"##높":7237,"##칫":7238,"##쯘":7239,"##떴":7240,"##쁨":7241,"##칠":7242,"##맘":7243,"##몽":7244,"##땅":7245,"##냈":7246,"##릭":7247,"##싀":7248,"##옸":7249,"##흐":7250,"##뤗":7251,"##뻐":7252,"##넼":7253,"##똘":7254,"##홍":7255,"##굽":7256,"##섳":7257,"##볏":7258,"##윸":7259,"##밌":7260,"##깝":7261,"##곘":7262,"##뽄":7263,"##앨":7264,"##땐":7265,"##갤":7266,"##짱":7267,"##엽":7268,"##퉅":7269,"##쁠":7270,"##뎅":7271,"##떡":7272,"##흉":7273,"##쨩":7274,"##냅":7275,"##낫":7276,"##꺽":7277,"##헤":7278,"##콕":7279,"##잉":7280,"##깤":7281,"##헨":7282,"##쪼":7283,"##빙":7284,"##룡":7285,"##퉁":7286,"##팠":7287,"##쵝":7288,"##팜":7289,"##갱":7290,"##엿":7291,"##콘":7292,"##셉":7293,"##쿄":7294,"##곰":7295,"##쿤":7296,"##옴":7297,"##웰":7298,"##썩":7299,"##쉐":7300,"##z":7301,"##홉":7302,"##껍":7303,"##쌘":7304,"##쉒":7305,"##듸":7306,"##폈":7307,"##욬":7308,"##뵤":7309,"##w":7310,"##캄":7311,"##낼":7312,"##벗":7313,"##빅":7314,"##딲":7315,"##밉":7316,"##힝":7317,"##쟤":7318,"##죡":7319,"##깡":7320,"##혔":7321,"##텨":7322,"##렉":7323,"##돋":7324,"##묶":7325,"##엥":7326,"##갯":7327,"##펌":7328,"##뜬":7329,"##샛":7330,"##륀":7331,"##숑":7332,"##뻬":7333,"##뇬":7334,"##즁":7335,"##팟":7336,"##낳":7337,"##깊":7338,"##픔":7339,"##덱":7340,"##흠":7341,"##챗":7342,"##흔":7343,"##젖":7344,"##릔":7345,"##땔":7346,"##붉":7347,"##댈":7348,"##넌":7349,"##둑":7350,"##뭡":7351,"##갛":7352,"##짹":7353,"##룸":7354,"##밍":7355,"##샙":7356,"##욤":7357,"##켓":7358,"##눌":7359,"##뜯":7360,"##섮":7361,"##혓":7362,"##샵":7363,"##꿨":7364,"##꿈":7365,"##듀":7366,"##궂":7367,"##놔":7368,"##볕":7369,"##씅":7370,"##캡":7371,"##잨":7372,"##뎌":7373,"##혐":7374,"##둔":7375,"##캣":7376,"##묵":7377,"##퓨":7378,"##샀":7379,"##웟":7380,"##밝":7381,"##붕":7382,"##랫":7383,"##엉":7384,"##돤":7385,"##틉":7386,"##솝":7387,"##묜":7388,"##깎":7389,"##욧":7390,"##챙":7391,"##룬":7392,"##끗":7393,"##랭":7394,"##빡":7395,"##얏":7396,"##훔":7397,"##롸":7398,"##셈":7399,"##팩":7400,"##끈":7401,"##벼":7402,"##됍":7403,"##델":7404,"##닞":7405,"##눅":7406,"##웋":7407,"##툼":7408,"##탑":7409,"##랖":7410,"##넓":7411,"##읻":7412,"##짖":7413,"##낑":7414,"##꿔":7415,"##릅":7416,"##랍":7417,"##덧":7418,"##썸":7419,"##햤":7420,"##뤅":7421,"##탱":7422,"##덴":7423,"##셩":7424,"##탠":7425,"##츄":7426,"##쭈":7427,"##늨":7428,"##왓":7429,"##뇸":7430,"##랴":7431,"##넉":7432,"##샜":7433,"##쾌":7434,"##탬":7435,"##밴":7436,"##훼":7437,"##햌":7438,"##넴":7439,"##썻":7440,"##젯":7441,"##녁":7442,"##뺐":7443,"##깃":7444,"##넨":7445,"##귱":7446,"##밭":7447,"##짙":7448,"##겪":7449,"##궐":7450,"##겍":7451,"##렛":7452,"##쥔":7453,"##좃":7454,"##낚":7455,"##냇":7456,"##찮":7457,"##좇":7458,"##힞":7459,"##앱":7460,"##톡":7461,"##믹":7462,"##눀":7463,"##쪄":7464,"##뷰":7465,"##깁":7466,"##셀":7467,"##퓰":7468,"##쌴":7469,"##왚":7470,"##썽":7471,"##셰":7472,"##쌌":7473,"##쐰":7474,"##깬":7475,"##쉥":7476,"##뽕":7477,"##엠":7478,"##딧":7479,"##댘":7480,"##쥬":7481,"##캬":7482,"##깉":7483,"##돠":7484,"##켄":7485,"##끊":7486,"##덯":7487,"##멀":7488,"##옌":7489,"##쭉":7490,"##껰":7491,"##뚜":7492,"##룻":7493,"##홈":7494,"##맵":7495,"##쒸":7496,"##걍":7497,"##촬":7498,"##꼇":7499,"##듭":7500,"##벡":7501,"##븅":7502,"##옳":7503,"##틱":7504,"##껜":7505,"##띵":7506,"##깠":7507,"##팡":7508,"##롳":7509,"##헣":7510,"##핔":7511,"##뒹":7512,"##끓":7513,"##섵":7514,"##렙":7515,"##곧":7516,"##떻":7517,"##잂":7518,"##빜":7519,"##챔":7520,"##둿":7521,"##솟":7522,"##뒷":7523,"##뽜":7524,"##뇽":7525,"##댔":7526,"##괵":7527,"##겇":7528,"##됴":7529,"##젹":7530,"##뻣":7531,"##껄":7532,"##륽":7533,"##퓸":7534,"##죤":7535,"##쭤":7536,"##뿜":7537,"##슐":7538,"##핟":7539,"##맑":7540,"##킵":7541,"##왈":7542,"##얔":7543,"##곺":7544,"##쟞":7545,"##킴":7546,"##뿔":7547,"##뉘":7548,"##짝":7549,"##핥":7550,"##댐":7551,"##줰":7552,"##뻗":7553,"##앤":7554,"##찝":7555,"##즐":7556,"##쩨":7557,"##퀸":7558,"##왼":7559,"##흰":7560,"##앟":7561,"##펏":7562,"##롬":7563,"##q":7564,"##펨":7565,"##젔":7566,"##삶":7567,"##촨":7568,"##좁":7569,"##닉":7570,"##괄":7571,"##렐":7572,"##뿍":7573,"##됌":7574,"##꾜":7575,"##콧":7576,"##훨":7577,"##뻥":7578,"##뀔":7579,"##숩":7580,"##뭘":7581,"##늪":7582,"##쵀":7583,"##칀":7584,"##펄":7585,"##랔":7586,"##쿰":7587,"##긔":7588,"##땡":7589,"##샐":7590,"##겆":7591,"##띄":7592,"##쇅":7593,"##텍":7594,"##뻘":7595,"##뢀":7596,"##괜":7597,"##솎":7598,"##뚤":7599,"##궈":7600,"##쁘":7601,"##씰":7602,"##빚":7603,"##좝":7604,"##랩":7605,"##앉":7606,"##휙":7607,"##풔":7608,"##잟":7609,"##뚫":7610,"##뼈":7611,"##뎄":7612,"##벵":7613,"##뢍":7614,"##솽":7615,"##쇆":7616,"##뭔":7617,"##랃":7618,"##얹":7619,"##륵":7620,"##죈":7621,"##꽁":7622,"##얄":7623,"##좔":7624,"##꽃":7625,"##뱌":7626,"##긍":7627,"##숫":7628,"##싷":7629,"##씹":7630,"##꼈":7631,"##멤":7632,"##욱":7633,"##팝":7634,"##봇":7635,"##밟":7636,"##닿":7637,"##첼":7638,"##놧":7639,"##붜":7640,"##삑":7641,"##폴":7642,"##덤":7643,"##컾":7644,"##촹":7645,"##궤":7646,"##헹":7647,"##뵜":7648,"##헷":7649,"##몀":7650,"##몹":7651,"##뢸":7652,"##뺏":7653,"##헐":7654,"##쌀":7655,"##멧":7656,"##꼼":7657,"##칸":7658,"##횡":7659,"##짚":7660,"##닷":7661,"##삽":7662,"##맏":7663,"##쉑":7664,"##썬":7665,"##및":7666,"##윗":7667,"##웁":7668,"##짧":7669,"##빋":7670,"##귤":7671,"##늑":7672,"##엮":7673,"##찐":7674,"##봏":7675,"##폼":7676,"##팍":7677,"##쵸":7678,"##쓥":7679,"##쳇":7680,"##퀘":7681,"##멈":7682,"##딪":7683,"##쌉":7684,"##벆":7685,"##냩":7686,"##륙":7687,"##젼":7688,"##핍":7689,"##귈":7690,"##슌":7691,"##듦":7692,"##쓱":7693,"##쎈":7694,"##뒀":7695,"##낯":7696,"##쑈":7697,"##걔":7698,"##띤":7699,"##빤":7700,"##싹":7701,"##뒈":7702,"##쥑":7703,"##믈":7704,"##늦":7705,"##멜":7706,"##엌":7707,"##웨":7708,"##헴":7709,"##켤":7710,"##튠":7711,"##얀":7712,"##멌":7713,"##뼝":7714,"##밈":7715,"##샼":7716,"##돕":7717,"##엤":7718,"##챰":7719,"##늕":7720,"##렪":7721,"##웂":7722,"##꿱":7723,"##굳":7724,"##컥":7725,"##댑":7726,"##늧":7727,"##햄":7728,"##쥘":7729,"##찼":7730,"##놰":7731,"##됀":7732,"##쟝":7733,"##캥":7734,"##엑":7735,"##닠":7736,"##엨":7737,"##턱":7738,"##찿":7739,"##햬":7740,"##셴":7741,"##넥":7742,"##낎":7743,"##렘":7744,"##캉":7745,"##뷸":7746,"##볜":7747,"##쏴":7748,"##톼":7749,"##칩":7750,"##띁":7751,"##엷":7752,"##읅":7753,"##굼":7754,"##츨":7755,"##횟":7756,"##먄":7757,"##끠":7758,"##윅":7759,"##킥":7760,"##겸":7761,"##캍":7762,"##잣":7763,"##땨":7764,"##괘":7765,"##꽉":7766,"##괭":7767,"##딨":7768,"##껬":7769,"##쭵":7770,"##샆":7771,"##삘":7772,"##펠":7773,"##꽝":7774,"##붗":7775,"##얐":7776,"##쒜":7777,"##겡":7778,"##빔":7779,"##틋":7780,"##샨":7781,"##덟":7782,"##쥤":7783,"##큨":7784,"##괏":7785,"##딘":7786,"##쉓":7787,"##쯧":7788,"##빢":7789,"##뀐":7790,"##젴":7791,"##쏜":7792,"##랠":7793,"##샸":7794,"##뉼":7795,"##쬬":7796,"##끙":7797,"##큘":7798,"##띡":7799,"##굶":7800,"##껭":7801,"##꼐":7802,"##잽":7803,"##밬":7804,"##떰":7805,"##푱":7806,"##쩝":7807,"##갰":7808,"##둣":7809,"##얇":7810,"##뭍":7811,"##뱃":7812,"##쏠":7813,"##엣":7814,"##퇘":7815,"##뫗":7816,"##팁":7817,"##뎁":7818,"##햨":7819,"##냔":7820,"##긁":7821,"##뢴":7822,"##첵":7823,"##틈":7824,"##웡":7825,"##곱":7826,"##뎨":7827,"##셍":7828,"##줏":7829,"##썠":7830,"##멕":7831,"##쉴":7832,"##냨":7833,"##짆":7834,"##헥":7835,"##묻":7836,"##뺌":7837,"##뜽":7838,"##맷":7839,"##깟":7840,"##숄":7841,"##뎀":7842,"##얜":7843,"##룟":7844,"##뷴":7845,"##욜":7846,"##셐":7847,"##섀":7848,"##쳣":7849,"##듄":7850,"##맜":7851,"##욯":7852,"##꽂":7853,"##뚭":7854,"##뺨":7855,"##쐐":7856,"##돨":7857,"##훑":7858,"##팽":7859,"##밎":7860,"##흙":7861,"##헙":7862,"##멊":7863,"##줴":7864,"##뻠":7865,"##쫌":7866,"##쨓":7867,"##쿵":7868,"##얗":7869,"##얽":7870,"##갘":7871,"##쨈":7872,"##싰":7873,"##텝":7874,"##녑":7875,"##랗":7876,"##팸":7877,"##걀":7878,"##잆":7879,"##렠":7880,"##벅":7881,"##샠":7882,"##힙":7883,"##툽":7884,"##믐":7885,"##겉":7886,"##굱":7887,"##씁":7888,"##꽤":7889,"##톧":7890,"##엎":7891,"##솓":7892,"##콥":7893,"##쏙":7894,"##롷":7895,"##샥":7896,"##펑":7897,"##즤":7898,"##쟎":7899,"##숴":7900,"##튕":7901,"##쐬":7902,"##왭":7903,"##퐁":7904,"##펐":7905,"##웝":7906,"##됏":7907,"##몫":7908,"##젓":7909,"##몌":7910,"##쎴":7911,"##켯":7912,"##퐨":7913,"##뭄":7914,"##훤":7915,"##픕":7916,"##콌":7917,"##맟":7918,"##슼":7919,"##벳":7920,"##앴":7921,"##죳":7922,"##씐":7923,"##퍽":7924,"##멩":7925,"##쟄":7926,"##씸":7927,"##샾":7928,"##잭":7929,"##텃":7930,"##앍":7931,"##퍠":7932,"##뮌":7933,"##눼":7934,"##홐":7935,"##웩":7936,"##쭐":7937,"##슥":7938,"##쒀":7939,"##럅":7940,"##뿅":7941,"##쌓":7942,"##슝":7943,"##첸":7944,"##쑤":7945,"##숏":7946,"##앰":7947,"##켔":7948,"##쑥":7949,"##맠":7950,"##냠":7951,"##얕":7952,"##쳅":7953,"##홣":7954,"##갗":7955,"##욘":7956,"##췄":7957,"##똬":7958,"##팥":7959,"##뻑":7960,"##맬":7961,"##곜":7962,"##륭":7963,"##쎠":7964,"##쉼":7965,"##웜":7966,"##앵":7967,"##늄":7968,"##칵":7969,"##땟":7970,"##틔":7971,"##퀄":7972,"##퀼":7973,"##뮬":7974,"##뎊":7975,"##퐝":7976,"##옛":7977,"##첬":7978,"##딛":7979,"##빆":7980,"##쳬":7981,"##뭌":7982,"##먿":7983,"##겧":7984,"##텼":7985,"##꺜":7986,"##녔":7987,"##좆":7988,"##잰":7989,"##맄":7990,"##갲":7991,"##돗":7992,"##엊":7993,"##셤":7994,"##뉜":7995,"##춧":7996,"##횽":7997,"##섰":7998,"##겔":7999,"##윕":8000,"##빽":8001,"##뗴":8002,"##뺄":8003,"##쨰":8004,"##맀":8005,"##컸":8006,"##낍":8007,"##봨":8008,"##왠":8009,"##꺾":8010,"##킝":8011,"##밷":8012,"##쭝":8013,"##훅":8014,"##훌":8015,"##벋":8016,"##닏":8017,"##깞":8018,"##헝":8019,"##갉":8020,"##랸":8021,"##쇽":8022,"##샅":8023,"##앋":8024,"##콴":8025,"##핝":8026,"##떵":8027,"##슺":8028,"##겯":8029,"##꼰":8030,"##땓":8031,"##씼":8032,"##뗐":8033,"##놉":8034,"##풋":8035,"##릍":8036,"##녜":8037,"##핰":8038,"##훳":8039,"##낰":8040,"##곁":8041,"##쉨":8042,"##뎋":8043,"##홓":8044,"##읎":8045,"##젊":8046,"##왑":8047,"##뉸":8048,"##렼":8049,"##꾹":8050,"##탯":8051,"##촛":8052,"##텤":8053,"##팰":8054,"##옘":8055,"##밧":8056,"##쫒":8057,"##읔":8058,"##닣":8059,"##헀":8060,"##뮈":8061,"##꿻":8062,"##떫":8063,"##흝":8064,"##솤":8065,"##귐":8066,"##좐":8067,"##넠":8068,"##깄":8069,"##먀":8070,"##삵":8071,"##끕":8072,"##렜":8073,"##휸":8074,"##츙":8075,"##갭":8076,"##씽":8077,"##눜":8078,"##옠":8079,"##닯":8080,"##푠":8081,"##휼":8082,"##썪":8083,"##졐":8084,"##뎐":8085,"##켐":8086,"##뿟":8087,"##앚":8088,"##닳":8089,"##멨":8090,"##빍":8091,"##읩":8092,"##댱":8093,"##쨔":8094,"##앝":8095,"##죵":8096,"##궄":8097,"##횐":8098,"##쁀":8099,"##툴":8100,"##냑":8101,"##춥":8102,"##윌":8103,"##렝":8104,"##딫":8105,"##겋":8106,"##꺄":8107,"##읾":8108,"##숱":8109,"##뵘":8110,"##땀":8111,"##귾":8112,"##녘":8113,"##튭":8114,"##쒓":8115,"##뱁":8116,"##쇗":8117,"##슦":8118,"##튈":8119,"##몃":8120,"##쑴":8121,"##꼽":8122,"##얶":8123,"##싣":8124,"##볌":8125,"##죌":8126,"##욭":8127,"##뿡":8128,"##끆":8129,"##윂":8130,"##멎":8131,"##싯":8132,"##왘":8133,"##젬":8134,"##쭌":8135,"##겈":8136,"##곗":8137,"##돞":8138,"##뎆":8139,"##굣":8140,"##뤘":8141,"##냬":8142,"##뻤":8143,"##킷":8144,"##펭":8145,"##닜":8146,"##쨋":8147,"##켈":8148,"##냌":8149,"##읯":8150,"##푀":8151,"##쥼":8152,"##릋":8153,"##꿋":8154,"##곴":8155,"##껌":8156,"##즙":8157,"##쮸":8158,"##엏":8159,"##솨":8160,"##슏":8161,"##뱄":8162,"##좽":8163,"##첻":8164,"##윙":8165,"##쫏":8166,"##샊":8167,"##녓":8168,"##얺":8169,"##뫄":8170,"##뭨":8171,"##텟":8172,"##쮹":8173,"##깻":8174,"##쌖":8175,"##릎":8176,"##튁":8177,"##킄":8178,"##긱":8179,"##죙":8180,"##깥":8181,"##켬":8182,"##뫼":8183,"##몈":8184,"##츰":8185,"##굵":8186,"##쨍":8187,"##탭":8188,"##셸":8189,"##흫":8190,"##퍄":8191,"##빴":8192,"##탤":8193,"##끅":8194,"##깅":8195,"##쎅":8196,"##칳":8197,"##쪙":8198,"##핌":8199,"##흣":8200,"##깈":8201,"##릐":8202,"##뱀":8203,"##푹":8204,"##짯":8205,"##챘":8206,"##곂":8207,"##텁":8208,"##쫓":8209,"##핮":8210,"##챈":8211,"##낵":8212,"##뺸":8213,"##싡":8214,"##젇":8215,"##롲":8216,"##볓":8217,"##뱝":8218,"##켠":8219,"##퀀":8220,"##욮":8221,"##탔":8222,"##츈":8223,"##혚":8224,"##댯":8225,"##밨":8226,"##덙":8227,"##햅":8228,"##딬":8229,"##짞":8230,"##뺀":8231,"##펩":8232,"##넢":8233,"##걕":8234,"##갠":8235,"##쌕":8236,"##갋":8237,"##컹":8238,"##넵":8239,"##졔":8240,"##좈":8241,"##닽":8242,"##슟":8243,"##졍":8244,"##됄":8245,"##밞":8246,"##첲":8247,"##얃":8248,"##딥":8249,"##췌":8250,"##삥":8251,"##잤":8252,"##곽":8253,"##뺠":8254,"##뒜":8255,"##뚠":8256,"##옐":8257,"##돚":8258,"##봠":8259,"##렫":8260,"##쥉":8261,"##잛":8262,"##쫑":8263,"##꺈":8264,"##콰":8265,"##풉":8266,"##찟":8267,"##뜀":8268,"##쥴":8269,"##헉":8270,"##벟":8271,"##췃":8272,"##쬐":8273,"##맣":8274,"##럇":8275,"##릏":8276,"##띸":8277,"##챨":8278,"##텡":8279,"##늗":8280,"##쉈":8281,"##졉":8282,"##뜰":8283,"##줼":8284,"##츼":8285,"##핧":8286,"##쫀":8287,"##짌":8288,"##쫘":8289,"##샒":8290,"##풰":8291,"##픙":8292,"##힉":8293,"##곈":8294,"##껐":8295,"##곀":8296,"##엵":8297,"##촠":8298,"##홥":8299,"##꿇":8300,"##챌":8301,"##톈":8302,"##맸":8303,"##퉈":8304,"##퀏":8305,"##칰":8306,"##봥":8307,"##닩":8308,"##쇡":8309,"##찻":8310,"##훗":8311,"##뻉":8312,"##덮":8313,"##쌨":8314,"##슀":8315,"##몆":8316,"##쳌":8317,"##슁":8318,"##뤠":8319,"##싴":8320,"##짴":8321,"##얍":8322,"##줜":8323,"##돳":8324,"##쌰":8325,"##볍":8326,"##뱔":8327,"##훙":8328,"##쳦":8329,"##쑨":8330,"##밒":8331,"##봫":8332,"##읊":8333,"##쎔":8334,"##둗":8335,"##닻":8336,"##읰":8337,"##몪":8338,"##씇":8339,"##꾿":8340,"##앂":8341,"##넿":8342,"##뾰":8343,"##벚":8344,"##앸":8345,"##삣":8346,"##늼":8347,"##갂":8348,"##톀":8349,"##갬":8350,"##롴":8351,"##뱡":8352,"##붖":8353,"##왱":8354,"##첞":8355,"##닚":8356,"##랼":8357,"##쮀":8358,"##엾":8359,"##앆":8360,"##뜼":8361,"##꿧":8362,"##쟼":8363,"##뤀":8364,"##땃":8365,"##갴":8366,"##끨":8367,"##챱":8368,"##듐":8369,"##찧":8370,"##쪔":8371,"##앎":8372,"##칮":8373,"##잦":8374,"##꿰":8375,"##햘":8376,"##닊":8377,"##뎉":8378,"##땄":8379,"##둡":8380,"##걋":8381,"##볻":8382,"##븡":8383,"##됔":8384,"##끽":8385,"##끋":8386,"##듈":8387,"##읏":8388,"##늉":8389,"##뗬":8390,"##랒":8391,"##찷":8392,"##곶":8393,"##쉇":8394,"##읮":8395,"##숯":8396,"##읗":8397,"##챦":8398,"##곙":8399,"##쏟":8400,"##좉":8401,"##켸":8402,"##둽":8403,"##죴":8404,"##텀":8405,"##꺵":8406,"##넝":8407,"##쉣":8408,"##렣":8409,"##슘":8410,"##읺":8411,"##띙":8412,"##듴":8413,"##쥳":8414,"##슉":8415,"##섕":8416,"##믱":8417,"##췤":8418,"##괼":8419,"##탴":8420,"##솬":8421,"##뚯":8422,"##웈":8423,"##쎌":8424,"##긓":8425,"##읐":8426,"##뗀":8427,"##뀨":8428,"##빱":8429,"##틐":8430,"##펍":8431,"##쌩":8432,"##팉":8433,"##걘":8434,"##맂":8435,"##슾":8436,"##볐":8437,"##챵":8438,"##됰":8439,"##굲":8440,"##븤":8441,"##긬":8442,"##킼":8443,"##뭠":8444,"##뒸":8445,"##쪘":8446,"##띨":8447,"##듳":8448,"##긺":8449,"##셒":8450,"##뛸":8451,"##뿝":8452,"##탉":8453,"##돵":8454,"##댸":8455,"##튿":8456,"##숟":8457,"##읭":8458,"##팻":8459,"##햊":8460,"##뿧":8461,"##헿":8462,"##탘":8463,"##핼":8464,"##딍":8465,"##꺆":8466,"##뢌":8467,"##욌":8468,"##힛":8469,"##쎗":8470,"##꾀":8471,"##켭":8472,"##뺴":8473,"##팖":8474,"##쯰":8475,"##늣":8476,"##궸":8477,"##줙":8478,"##촞":8479,"##랳":8480,"##쨀":8481,"##삱":8482,"##룐":8483,"##듵":8484,"##삡":8485,"##뺩":8486,"##읜":8487,"##젛":8488,"##홤":8489,"##뉨":8490,"##촟":8491,"##륩":8492,"##셌":8493,"##촜":8494,"##씝":8495,"##썅":8496,"##횹":8497,"##빰":8498,"##쒝":8499,"##쌋":8500,"##찹":8501,"##쨕":8502,"##쫙":8503,"##똭":8504,"##뼘":8505,"##뎇":8506,"##캅":8507,"##죾":8508,"##쭊":8509,"##짢":8510,"##힄":8511,"##귓":8512,"##욋":8513,"##붑":8514,"##쀨":8515,"##볾":8516,"##볗":8517,"##쭘":8518,"##뭣":8519,"##곹":8520,"##돜":8521,"##쐈":8522,"##믠":8523,"##쥭":8524,"##펔":8525,"##죻":8526,"##삾":8527,"##핪":8528,"##렂":8529,"##큿":8530,"##씡":8531,"##옿":8532,"##헠":8533,"##붇":8534,"##먕":8535,"##쮜":8536,"##곪":8537,"##힠":8538,"##팈":8539,"##봈":8540,"##뗼":8541,"##겊":8542,"##똔":8543,"##뻿":8544,"##퉷":8545,"##폄":8546,"##뤈":8547,"##녈":8548,"##꽇":8549,"##돻":8550,"##닺":8551,"##쟉":8552,"##챤":8553,"##뉔":8554,"##퇼":8555,"##썀":8556,"##딹":8557,"##욵":8558,"##볘":8559,"##쭙":8560,"##휠":8561,"##삲":8562,"##롄":8563,"##쎼":8564,"##킈":8565,"##렿":8566,"##긎":8567,"##뀜":8568,"##맢":8569,"##햑":8570,"##퀑":8571,"##줉":8572,"##숀":8573,"##퍀":8574,"##겢":8575,"##짬":8576,"##샏":8577,"##깣":8578,"##좨":8579,"##흭":8580,"##씺":8581,"##킺":8582,"##쪗":8583,"##녴":8584,"##랈":8585,"##촥":8586,"##츷":8587,"##픂":8588,"##꼍":8589,"##잗":8590,"##꿉":8591,"##돰":8592,"##괸":8593,"##춍":8594,"##죱":8595,"##쿸":8596,"##팼":8597,"##쌞":8598,"##먱":8599,"##뙨":8600,"##꾁":8601,"##섶":8602,"##뼉":8603,"##겤":8604,"##빕":8605,"##킅":8606,"##쓉":8607,"##윘":8608,"##줔":8609,"##츱":8610,"##쒞":8611,"##폿":8612,"##걌":8613,"##턷":8614,"##쐇":8615,"##췽":8616,"##읖":8617,"##뼛":8618,"##훠":8619,"##갹":8620,"##캭":8621,"##챕":8622,"##렄":8623,"##굉":8624,"##헗":8625,"##놬":8626,"##쁴":8627,"##섺":8628,"##톳":8629,"##홬":8630,"##뙤":8631,"##핶":8632,"##퓌":8633,"##븨":8634,"##뤁":8635,"##윰":8636,"##앀":8637,"##봑":8638,"##몾":8639,"##왁":8640,"##왇":8641,"##갼":8642,"##귝":8643,"##렢":8644,"##뵐":8645,"##켕":8646,"##늫":8647,"##쒵":8648,"##봌":8649,"##쯛":8650,"##늩":8651,"##큭":8652,"##셥":8653,"##됢":8654,"##넒":8655,"##킂":8656,"##줓":8657,"##퉵":8658,"##롰":8659,"##듷":8660,"##좍":8661,"##뜜":8662,"##릷":8663,"##뫘":8664,"##뽈":8665,"##뇰":8666,"##졷":8667,"##셯":8668,"##뗑":8669,"##홒":8670,"##츳":8671,"##뗭":8672,"##헼":8673,"##끛":8674,"##퀜":8675,"##갃":8676,"##쀼":8677,"##촐":8678,"##먺":8679,"##콬":8680,"##욨":8681,"##엩":8682,"##짼":8683,"##듥":8684,"##퀵":8685,"##뽚":8686,"##뎠":8687,"##뽰":8688,"##짭":8689,"##옼":8690,"##셬":8691,"##돍":8692,"##벉":8693,"##낟":8694,"##됑":8695,"##핡":8696,"##쳔":8697,"##쎘":8698,"##쎀":8699,"##꽼":8700,"##킁":8701,"##뵹":8702,"##늅":8703,"##엍":8704,"##젙":8705,"##뽐":8706,"##뷱":8707,"##넜":8708,"##땠":8709,"##팦":8710,"##텠":8711,"##깹":8712,"##톄":8713,"##놯":8714,"##곃":8715,"##픞":8716,"##칯":8717,"##숰":8718,"##큔":8719,"##뒬":8720,"##뚥":8721,"##쒫":8722,"##렚":8723,"##꼤":8724,"##줠":8725,"##굥":8726,"##벞":8727,"##눙":8728,"##롁":8729,"##즛":8730,"##긷":8731,"##땍":8732,"##맼":8733,"##잫":8734,"##겓":8735,"##즟":8736,"##웽":8737,"##줭":8738,"##읨":8739,"##앓":8740,"##붅":8741,"##쥥":8742,"##꼳":8743,"##싢":8744,"##뮴":8745,"##웇":8746,"##낱":8747,"##돸":8748,"##옫":8749,"##놘":8750,"##늡":8751,"##쿜":8752,"##걐":8753,"##꿩":8754,"##긕":8755,"##튤":8756,"##뗏":8757,"##쯱":8758,"##룔":8759,"##괞":8760,"##뎡":8761,"##옺":8762,"##밣":8763,"##넄":8764,"##얷":8765,"##줨":8766,"##즹":8767,"##럈":8768,"##듁":8769,"##믜":8770,"##믓":8771,"##샄":8772,"##뽂":8773,"##륌":8774,"##륾":8775,"##샋":8776,"##홋":8777,"##찤":8778,"##땝":8779,"##놂":8780,"##궜":8781,"##햣":8782,"##쉠":8783,"##뫅":8784,"##뗘":8785,"##꺠":8786,"##룀":8787,"##꼿":8788,"##롐":8789,"##숵":8790,"##컫":8791,"##뽓":8792,"##꼌":8793,"##뭊":8794,"##뙇":8795,"##홰":8796,"##긧":8797,"##쫠":8798,"##셛":8799,"##쳨":8800,"##쫃":8801,"##졓":8802,"##븍":8803,"##눗":8804,"##뉠":8805,"##꽌":8806,"##멬":8807,"##켘":8808,"##좡":8809,"##놋":8810,"##뤡":8811,"##줗":8812,"##쉅":8813,"##듲":8814,"##귑":8815,"##읶":8816,"##롶":8817,"##쥰":8818,"##뺑":8819,"##댤":8820,"##퐄":8821,"##쑌":8822,"##캇":8823,"##껼":8824,"##쿯":8825,"##벩":8826,"##띿":8827,"##쥡":8828,"##쪾":8829,"##줕":8830,"##겒":8831,"##횔":8832,"##뿩":8833,"##됗":8834,"##뎍":8835,"##슽":8836,"##솅":8837,"##뱎":8838,"##삯":8839,"##옭":8840,"##뀠":8841,"##꿘":8842,"##햿":8843,"##럄":8844,"##궹":8845,"##쪈":8846,"##캌":8847,"##펰":8848,"##뀪":8849,"##굨":8850,"##멉":8851,"##둟":8852,"##덫":8853,"##됳":8854,"##뗌":8855,"##궛":8856,"##쑹":8857,"##뫁":8858,"##삔":8859,"##옉":8860,"##밪":8861,"##닾":8862,"##벝":8863,"##탆":8864,"##낡":8865,"##캴":8866,"##묭":8867,"##쿱":8868,"##즼":8869,"##삤":8870,"##죨":8871,"##틳":8872,"##졀":8873,"##싲":8874,"##풘":8875,"##욳":8876,"##땤":8877,"##찎":8878,"##멓":8879,"##팎":8880,"##샞":8881,"##돟":8882,"##뤱":8883,"##쳡":8884,"##콱":8885,"##쳏":8886,"##둛":8887,"##셆":8888,"##쿳":8889,"##욪":8890,"##뭬":8891,"##텰":8892,"##뒴":8893,"##싳":8894,"##넋":8895,"##뭥":8896,"##앳":8897,"##큩":8898,"##눟":8899,"##멵":8900,"##긩":8901,"##짛":8902,"##썜":8903,"##윳":8904,"##옶":8905,"##땈":8906,"##굔":8907,"##땬":8908,"##빳":8909,"##텬":8910,"##푝":8911,"##꽥":8912,"##쟜":8913,"##뺙":8914,"##슄":8915,"##숸":8916,"##즬":8917,"##깵":8918,"##윾":8919,"##쎆":8920,"##뎟":8921,"##넫":8922,"##쒴":8923,"##뭏":8924,"##냘":8925,"##떈":8926,"##눨":8927,"##빝":8928,"##쳫":8929,"##놇":8930,"##돴":8931,"##뜌":8932,"##퉤":8933,"##젘":8934,"##뢐":8935,"##땋":8936,"##돱":8937,"##턘":8938,"##츜":8939,"##꺙":8940,"##욖":8941,"##둉":8942,"##곷":8943,"##엪":8944,"##킇":8945,"##떔":8946,"##죹":8947,"##탰":8948,"##똰":8949,"##겎":8950,"##혲":8951,"##듕":8952,"##붸":8953,"##벰":8954,"##썌":8955,"##꿏":8956,"##븽":8957,"##듶":8958,"##뜾":8959,"##쉭":8960,"##졈":8961,"##엧":8962,"##챡":8963,"##웦":8964,"##긑":8965,"##뜷":8966,"##닢":8967,"##탶":8968,"##붠":8969,"##럵":8970,"##칟":8971,"##싚":8972,"##땉":8973,"##읕":8974,"##멥":8975,"##멐":8976,"##뺭":8977,"##댠":8978,"##읿":8979,"##슫":8980,"##헵":8981,"##챴":8982,"##븁":8983,"##핲":8984,"##쩠":8985,"##싪":8986,"##츅":8987,"##젱":8988,"##셱":8989,"##촘":8990,"##뽁":8991,"##늒":8992,"##팓":8993,"##릊":8994,"##걈":8995,"##씯":8996,"##뽤":8997,"##잍":8998,"##씍":8999,"##읋":9000,"##쟛":9001,"##쭹":9002,"##놐":9003,"##덞":9004,"##쎜":9005,"##뫃":9006,"##쁭":9007,"##닧":9008,"##륻":9009,"##얋":9010,"##짅":9011,"##읠":9012,"##듨":9013,"##냪":9014,"##랚":9015,"##졏":9016,"##콸":9017,"##좯":9018,"##흜":9019,"##퍈":9020,"##돛":9021,"##맍":9022,"##졎":9023,"##깸":9024,"##뵙":9025,"##켑":9026,"##깰":9027,"##젿":9028,"##믁":9029,"##컄":9030,"##첟":9031,"##옪":9032,"##뻨":9033,"##휜":9034,"##큑":9035,"##죅":9036,"##뱇":9037,"##핢":9038,"##늟":9039,"##뉩":9040,"##튄":9041,"##껵":9042,"##칱":9043,"##팧":9044,"##똗":9045,"##휩":9046,"##흌":9047,"##퍌":9048,"##낕":9049,"##흼":9050,"##밦":9051,"##샚":9052,"##뚕":9053,"##쾡":9054,"##봽":9055,"##몁":9056,"##롥":9057,"##퇸":9058,"##끵":9059,"##룠":9060,"##쟣":9061,"##렆":9062,"##뮐":9063,"##슭":9064,"##엙":9065,"##퇄":9066,"##뤌":9067,"##꼨":9068,"##잲":9069,"##돩":9070,"##깓":9071,"##짂":9072,"##뀟":9073,"##짲":9074,"##굅":9075,"##깦":9076,"##곻":9077,"##깩":9078,"##춠":9079,"##꿂":9080,"##짇":9081,"##겦":9082,"##굈":9083,"##붤":9084,"##듡":9085,"##챃":9086,"##쓤":9087,"##횸":9088,"##읆":9089,"##쭁":9090,"##튱":9091,"##몄":9092,"##췐":9093,"##좒":9094,"##샎":9095,"##낂":9096,"##긘":9097,"##됻":9098,"##쭀":9099,"##빸":9100,"##컼":9101,"##벧":9102,"##껸":9103,"##쳑":9104,"##밠":9105,"##넽":9106,"##셕":9107,"##겾":9108,"##듼":9109,"##룍":9110,"##퇭":9111,"##쳄":9112,"##밗":9113,"##얖":9114,"##걨":9115,"##듓":9116,"##첑":9117,"##넚":9118,"##챻":9119,"##밙":9120,"##왐":9121,"##씾":9122,"##텄":9123,"##얭":9124,"##쐉":9125,"##랱":9126,"##덪":9127,"##짊":9128,"##뼠":9129,"##픜":9130,"##횰":9131,"##셂":9132,"##즥":9133,"##쟐":9134,"##춐":9135,"##쁰":9136,"##틓":9137,"##뽝":9138,"##쇣":9139,"##냫":9140,"##엳":9141,"##꿎":9142,"##쓔":9143,"##샇":9144,"##틑":9145,"##헑":9146,"##뒙":9147,"##앧":9148,"##젰":9149,"##궝":9150,"##웣":9151,"##뇐":9152,"##쒹":9153,"##큇":9154,"##텊":9155,"##뷁":9156,"##횃":9157,"##껔":9158,"##샡":9159,"##똴":9160,"##뢓":9161,"##냡":9162,"##쉡":9163,"##쭛":9164,"##깧":9165,"##긐":9166,"##꺔":9167,"##땩":9168,"##밢":9169,"##롘":9170,"##궇":9171,"##휵":9172,"##냣":9173,"##믇":9174,"##팤":9175,"##잿":9176,"##즵":9177,"##뚷":9178,"##탙":9179,"##톹":9180,"##툐":9181,"##툩":9182,"##븝":9183,"##좠":9184,"##켴":9185,"##뢱":9186,"##릳":9187,"##긤":9188,"##먈":9189,"##멒":9190,"##줒":9191,"##웾":9192,"##캑":9193,"##묀":9194,"##헜":9195,"##츕":9196,"##띔":9197,"##캤":9198,"##쎃":9199,"##턈":9200,"##눃":9201,"##붱":9202,"##녠":9203,"##섂":9204,"##랇":9205,"##댚":9206,"##죗":9207,"##껫":9208,"##꾐":9209,"##쥠":9210,"##챜":9211,"##긌":9212,"##톸":9213,"##슧":9214,"##쟙":9215,"##톻":9216,"##볠":9217,"##짏":9218,"##묾":9219,"##샢":9220,"##핚":9221,"##뢈":9222,"##뉵":9223,"##슳":9224,"##쫗":9225,"##옜":9226,"##옙":9227,"##쏼":9228,"##꽅":9229,"##욎":9230,"##쇙":9231,"##뚞":9232,"##쯩":9233,"##딮":9234,"##웱":9235,"##쑝":9236,"##뀰":9237,"##췰":9238,"##눴":9239,"##쟨":9240,"##핛":9241,"##헽":9242,"##짔":9243,"##켝":9244,"##핯":9245,"##젲":9246,"##닸":9247,"##읓":9248,"##띰":9249,"##싑":9250,"##욷":9251,"##꿐":9252,"##쿢":9253,"##긲":9254,"##낔":9255,"##혱":9256,"##깼":9257,"##뷘":9258,"##곅":9259,"##괌":9260,"##솀":9261,"##쬡":9262,"##죕":9263,"##뱍":9264,"##퐐":9265,"##꽄":9266,"##롣":9267,"##좸":9268,"##쒼":9269,"##헫":9270,"##눞":9271,"##녇":9272,"##촴":9273,"##뭅":9274,"##뉑":9275,"##땽":9276,"##텻":9277,"##돡":9278,"##쎁":9279,"##좩":9280,"##뷀":9281,"##깢":9282,"##쫭":9283,"##쉪":9284,"##떙":9285,"##댂":9286,"##웄":9287,"##쒕":9288,"##뫀":9289,"##쇳":9290,"##껨":9291,"##싩":9292,"##웑":9293,"##큡":9294,"##옻":9295,"##쳘":9296,"##횬":9297,"##쏖":9298,"##맆":9299,"##뱈":9300,"##픋":9301,"##땁":9302,"##덨":9303,"##왛":9304,"##봘":9305,"##랮":9306,"##덷":9307,"##컁":9308,"##홯":9309,"##잴":9310,"##곢":9311,"##렏":9312,"##싟":9313,"##촵":9314,"##쟀":9315,"##뷩":9316,"##깒":9317,"##댇":9318,"##쾽":9319,"##쏨":9320,"##섄":9321,"##봬":9322,"##혭":9323,"##봍":9324,"##윔":9325,"##봡":9326,"##럾":9327,"##쵹":9328,"##봒":9329,"##뒥":9330,"##젆":9331,"##닲":9332,"##띃":9333,"##섣":9334,"##즨":9335,"##헭":9336,"##벱":9337,"##냒":9338,"##숖":9339,"##읲":9340,"##뵛":9341,"##큥":9342,"##씥":9343,"##텣":9344,"##뺘":9345,"##슆":9346,"##촏":9347,"##쁩":9348,"##쪕":9349,"##뫙":9350,"##쉔":9351,"##얂":9352,"##앾":9353,"##잕":9354,"##쐒":9355,"##섿":9356,"##럥":9357,"##싓":9358,"##꺅":9359,"##풕":9360,"##쉤":9361,"##밯":9362,"##띌":9363,"##놌":9364,"##큅":9365,"##웻":9366,"##뀬":9367,"##좦":9368,"##뵠":9369,"##듪":9370,"##뫌":9371,"##퐙":9372,"##텈":9373,"##썖":9374,"##뿛":9375,"##읉":9376,"##춬":9377,"##싕":9378,"##왖":9379,"##굡":9380,"##춴":9381,"##툥":9382,"##흨":9383,"##냦":9384,"##귴":9385,"##솁":9386,"##솼":9387,"##낏":9388,"##쨉":9389,"##븜":9390,"##뚬":9391,"##쏀":9392,"##볒":9393,"##틍":9394,"##땸":9395,"##뗫":9396,"##웉":9397,"##쾈":9398,"##땦":9399,"##뫈":9400,"##륹":9401,"##젭":9402,"##숳":9403,"##쳉":9404,"##빩":9405,"##샿":9406,"##큄":9407,"##쯪":9408,"##캨":9409,"##틂":9410,"##걑":9411,"##룤":9412,"##븟":9413,"##덛":9414,"##맔":9415,"##쿈":9416,"##읃":9417,"##셁":9418,"##렦":9419,"##떱":9420,"##렊":9421,"##췆":9422,"##뵨":9423,"##쪵":9424,"##뀤":9425,"##뮙":9426,"##횤":9427,"##뇀":9428,"##닪":9429,"##깋":9430,"##겂":9431,"##켷":9432,"##혛":9433,"##꽦":9434,"##흟":9435,"##흛":9436,"##쮼":9437,"##헚":9438,"##붼":9439,"##핱":9440,"##멑":9441,"##떮":9442,"##퐌":9443,"##붛":9444,"##햠":9445,"##펹":9446,"##퍅":9447,"##팢":9448,"##앛":9449,"##짶":9450,"##쑵":9451,"##럐":9452,"##덣":9453,"##힜":9454,"##뇜":9455,"##잁":9456,"##컈":9457,"##넏":9458,"##듫":9459,"##췍":9460,"##휍":9461,"##봔":9462,"##젺":9463,"##쎾":9464,"##됭":9465,"##왲":9466,"##흄":9467,"##똠":9468,"##됝":9469,"##읙":9470,"##냏":9471,"##궷":9472,"##찯":9473,"##뎬":9474,"##뇻":9475,"##싧":9476,"##녆":9477,"##갥":9478,"##읁":9479,"##뭽":9480,"##됙":9481,"##닡":9482,"##먘":9483,"##릌":9484,"##쫩":9485,"##혂":9486,"##촡":9487,"##걵":9488,"##앢":9489,"##숼":9490,"##먁":9491,"##풜":9492,"##삨":9493,"##닶":9494,"##읹":9495,"##튐":9496,"##쮝":9497,"##뛔":9498,"##넺":9499,"##쯕":9500,"##뢉":9501,"##춌":9502,"##먑":9503,"##혘":9504,"##짥":9505,"##낗":9506,"##궘":9507,"##횝":9508,"##붚":9509,"##틩":9510,"##솰":9511,"##뉬":9512,"##놤":9513,"##넗":9514,"##잪":9515,"##즇":9516,"##븥":9517,"##낞":9518,"##밓":9519,"##흗":9520,"##괕":9521,"##볔":9522,"##읳":9523,"##힡":9524,"##삮":9525,"##폑":9526,"##칲":9527,"##푶":9528,"##룾":9529,"##즞":9530,"##큮":9531,"##귭":9532,"##줮":9533,"##싥":9534,"##쟂":9535,"##륰":9536,"##윚":9537,"##퀌":9538,"##흿":9539,"##죰":9540,"##샑":9541,"##귘":9542,"##믘":9543,"##멷":9544,"##렃":9545,"##닟":9546,"##쌜":9547,"##욿":9548,"##괖":9549,"##욛":9550,"##뻇":9551,"##츔":9552,"##꽐":9553,"##펖":9554,"##얅":9555,"##쉙":9556,"##쨎":9557,"##풒":9558,"##쎕":9559,"##몯":9560,"##웧":9561,"##뭎":9562,"##귁":9563,"##딋":9564,"##햡":9565,"##췼":9566,"##뀝":9567,"##긒":9568,"##댬":9569,"##먐":9570,"##뗄":9571,"##뚧":9572,"##벘":9573,"##땧":9574,"##얒":9575,"##뉙":9576,"##쟘":9577,"##읒":9578,"##흽":9579,"##뛱":9580,"##쫍":9581,"##폣":9582,"##벹":9583,"##몐":9584,"##돐":9585,"##걥":9586,"##쬘":9587,"##흩":9588,"##솦":9589,"##켁":9590,"##긶":9591,"##벏":9592,"##륄":9593,"##싦":9594,"##핖":9595,"##쾨":9596,"##쩬":9597,"##뗠":9598,"##훕":9599,"##렅":9600,"##좭":9601,"##쉿":9602,"##툑":9603,"##큉":9604,"##꾾":9605,"##깕":9606,"##섁":9607,"##걩":9608,"##몔":9609,"##뒺":9610,"##뒨":9611,"##붂":9612,"##룷":9613,"##껚":9614,"##옝":9615,"##륑":9616,"##벜":9617,"##꽜":9618,"##뜹":9619,"##왹":9620,"##흵":9621,"##뭰":9622,"##곯":9623,"##렺":9624,"##츸":9625,"##쩖":9626,"##똧":9627,"##캏":9628,"##큌":9629,"##뛃":9630,"##뒵":9631,"##짫":9632,"##퇶":9633,"##쨜":9634,"##릂":9635,"##옾":9636,"##걹":9637,"##괔":9638,"##솃":9639,"##떽":9640,"##햫":9641,"##숔":9642,"##밐":9643,"##곬":9644,"##큽":9645,"##텋":9646,"##섲":9647,"##힗":9648,"##홡":9649,"##켱":9650,"##맋":9651,"##뻄":9652,"##꿜":9653,"##륿":9654,"##댙":9655,"##흏":9656,"##눤":9657,"##뤽":9658,"##팹":9659,"##맅":9660,"##윀":9661,"##쯥":9662,"##랂":9663,"##쾤":9664,"##밫":9665,"##좟":9666,"##뭋":9667,"##쳥":9668,"##뙈":9669,"##찣":9670,"##듢":9671,"##퓻":9672,"##욝":9673,"##녤":9674,"##햭":9675,"##븰":9676,"##됮":9677,"##긇":9678,"##릁":9679,"##똙":9680,"##넾":9681,"##쬭":9682,"##뵝":9683,"##뻦":9684,"##뿨":9685,"##닱":9686,"##묠":9687,"##좄":9688,"##뵌":9689,"##힕":9690,"##룁":9691,"##쵱":9692,"##쥣":9693,"##듧":9694,"##틷":9695,"##롻":9696,"##녬":9697,"##뀡":9698,"##낒":9699,"##팛":9700,"##앇":9701,"##엫":9702,"##릮":9703,"##큵":9704,"##뉌":9705,"##팊":9706,"##꽙":9707,"##쥄":9708,"##뭴":9709,"##춚":9710,"##웕":9711,"##힊":9712,"##숧":9713,"##랓":9714,"##믽":9715,"##풩":9716,"##곌":9717,"##횩":9718,"##묯":9719,"##쮠":9720,"##쇜":9721,"##뤔":9722,"##폳":9723,"##웢":9724,"##뫠":9725,"##휰":9726,"##꾺":9727,"##즠":9728,"##랅":9729,"##벸":9730,"##삠":9731,"##놜":9732,"##둴":9733,"##궉":9734,"##렾":9735,"##븀":9736,"##킫":9737,"##싵":9738,"##믖":9739,"##앻":9740,"##쨘":9741,"##댝":9742,"##낲":9743,"##힁":9744,"##쐨":9745,"##룝":9746,"##쬽":9747,"##됤":9748,"##씃":9749,"##샗":9750,"##낋":9751,"##잚":9752,"##췟":9753,"##쏩":9754,"##쯉":9755,"##핻":9756,"##듘":9757,"##둨":9758,"##쐌":9759,"##몿":9760,"##쁏":9761,"##늽":9762,"##퉐":9763,"##볭":9764,"##됸":9765,"##뺵":9766,"##둏":9767,"##잢":9768,"##쎵":9769,"##잋":9770,"##쾍":9771,"##츹":9772,"##뽱":9773,"##솹":9774,"##쌐":9775,"##욫":9776,"##춞":9777,"##뤕":9778,"##슢":9779,"##턔":9780,"##늤":9781,"##쑬":9782,"##줃":9783,"##뺫":9784,"##삻":9785,"##홪":9786,"##굚":9787,"##꽹":9788,"##썡":9789,"##촙":9790,"##퍙":9791,"##땢":9792,"##눳":9793,"##쬼":9794,"##쁌":9795,"##붘":9796,"##몉":9797,"##밮":9798,"##썁":9799,"##츗":9800,"##쩅":9801,"##셑":9802,"##얩":9803,"##쉞":9804,"##궯":9805,"##슿":9806,"##븉":9807,"##졨":9808,"##첡":9809,"##뀳":9810,"##팏":9811,"##윜":9812,"##톢":9813,"##궨":9814,"##갏":9815,"##젏":9816,"##횻":9817,"##냊":9818,"##넸":9819,"##굘":9820,"##칬":9821,"##쪜":9822,"##퓡":9823,"##굇":9824,"##꺀":9825,"##붹":9826,"##픟":9827,"##럣":9828,"##덬":9829,"##컇":9830,"##뜅":9831,"##댗":9832,"##즣":9833,"##꽑":9834,"##픗":9835,"##뎤":9836,"##덲":9837,"##맫":9838,"##믺":9839,"##놃":9840,"##퉜":9841,"##깂":9842,"##읟":9843,"##푴":9844,"##뿠":9845,"##챝":9846,"##횅":9847,"##쉟":9848,"##껳":9849,"##쩛":9850,"##뼑":9851,"##륳":9852,"##늖":9853,"##쉲":9854,"##킠":9855,"##윋":9856,"##졲":9857,"##쒰":9858,"##촣":9859,"##뒝":9860,"##쁮":9861,"##펅":9862,"##뮛":9863,"##캿":9864,"##웸":9865,"##빶":9866,"##뿰":9867,"##틘":9868,"##뇤":9869,"##춣":9870,"##뻡":9871,"##햩":9872,"##뺍":9873,"##롓":9874,"##켙":9875,"##녂":9876,"##퉂":9877,"##랲":9878,"##꺌":9879,"##셭":9880,"##묽":9881,"##횜":9882,"##긊":9883,"##늰":9884,"##굎":9885,"##궅":9886,"##쎳":9887,"##옅":9888,"##뉭":9889,"##늇":9890,"##쇤":9891,"##큪":9892,"##즷":9893,"##폨":9894,"##롵":9895,"##쿙":9896,"##떢":9897,"##읇":9898,"##쨐":9899,"##끸":9900,"##죷":9901,"##싞":9902,"##뵬":9903,"##뀽":9904,"##쫔":9905,"##뱨":9906,"##륐":9907,"##썃":9908,"##뒌":9909,"##숡":9910,"##뢔":9911,"##뜛":9912,"##횄":9913,"##꺨":9914,"##냼":9915,"##덀":9916,"##쭞":9917,"##쏌":9918,"##궠":9919,"##엓":9920,"##죧":9921,"##갆":9922,"##괍":9923,"##삷":9924,"##몼":9925,"##뒁":9926,"##릫":9927,"##젋":9928,"##믕":9929,"##튓":9930,"##랎":9931,"##훜":9932,"##캈":9933,"##섢":9934,"##왉":9935,"##햋":9936,"##흦":9937,"##묫":9938,"##뀍":9939,"##싾":9940,"##썐":9941,"##릱":9942,"##뀩":9943,"##똫":9944,"##뚣":9945,"##꿁":9946,"##뗍":9947,"##뚴":9948,"##롕":9949,"##랋":9950,"##돾":9951,"##귿":9952,"##뭈":9953,"##뺃":9954,"##폘":9955,"##쐭":9956,"##젣":9957,"##츧":9958,"##쓩":9959,"##홱":9960,"##뮹":9961,"##칑":9962,"##쩓":9963,"##괁":9964,"##뜡":9965,"##헁":9966,"##섷":9967,"##슅":9968,"##짦":9969,"##꺕":9970,"##헕":9971,"##짗":9972,"##줳":9973,"##줯":9974,"##끜":9975,"##씪":9976,"##듰":9977,"##쌥":9978,"##뾴":9979,"##픝":9980,"##뚼":9981,"##긂":9982,"##쨴":9983,"##쯍":9984,"##돽":9985,"##닄":9986,"##뷍":9987,"##멶":9988,"##꼵":9989,"##뵁":9990,"##졶":9991,"##떯":9992,"##큠":9993,"##탹":9994,"##앏":9995,"##뺕":9996,"##텸":9997,"##젗":9998,"##굮":9999,"##퉬":10000,"##귽":10001,"##꾭":10002,"##뜐":10003,"##뮼":10004,"##죜":10005,"##롼":10006,"##왝":10007,"##낃":10008,"##갺":10009,"##섡":10010,"##뤙":10011,"##갌":10012,"##핞":10013,"##쓍":10014,"##덍":10015,"##엋":10016,"##팃":10017,"##쌱":10018,"##칞":10019,"##슰":10020,"##맗":10021,"##횢":10022,"##잀":10023,"##챚":10024,"##껗":10025,"##옽":10026,"##삸":10027,"##껩":10028,"##툳":10029,"##쓑":10030,"##쟹":10031,"##줈":10032,"##릠":10033,"##샂":10034,"##싿":10035,"##쨥":10036,"##옯":10037,"##휀":10038,"##뭃":10039,"##픅":10040,"##갞":10041,"##잧":10042,"##삳":10043,"##읬":10044,"##둰":10045,"##칡":10046,"##뎔":10047,"##졹":10048,"##쨖":10049,"##꺍":10050,"##펵":10051,"##짷":10052,"##썎":10053,"##쇸":10054,"##욍":10055,"##챳":10056,"##줋":10057,"##맇":10058,"##픨":10059,"##휄":10060,"##낐":10061,"##칌":10062,"##귕":10063,"##푄":10064,"##뼙":10065,"##뱩":10066,"##쯈":10067,"##냰":10068,"##찠":10069,"##춋":10070,"##긪":10071,"##킌":10072,"##떘":10073,"##쏱":10074,"##뇩":10075,"##쌸":10076,"##맕":10077,"##퉥":10078,"##섘":10079,"##닒":10080,"##젾":10081,"##뻴":10082,"##튽":10083,"##엦":10084,"##늿":10085,"##뫜":10086,"##곕":10087,"##웓":10088,"##띴":10089,"##앁":10090,"##빧":10091,"##킽":10092,"##벛":10093,"##펺":10094,"##뒠":10095,"##윺":10096,"##텥":10097,"##럌":10098,"##씈":10099,"##옂":10100,"##굄":10101,"##벴":10102,"##턀":10103,"##휑":10104,"##퐉":10105,"##븬":10106,"##퐜":10107,"##띱":10108,"##듩":10109,"##탇":10110,"##댴":10111,"##뭤":10112,"##쉗":10113,"##쏳":10114,"##훍":10115,"##짉":10116,"##셓":10117,"##믾":10118,"##틇":10119,"##폇":10120,"##잒":10121,"##툿":10122,"##홭":10123,"##돓":10124,"##쁄":10125,"##줊":10126,"##헰":10127,"##욲":10128,"##섨":10129,"##끍":10130,"##릆":10131,"##켇":10132,"##퇫":10133,"##졩":10134,"##뚸":10135,"##떩":10136,"##똵":10137,"##젂":10138,"##긄":10139,"##걳":10140,"##쪟":10141,"##퇀":10142,"##뱐":10143,"##럳":10144,"##퉌":10145,"##뻖":10146,"##퀠":10147,"##텩":10148,"##킾":10149,"##줖":10150,"##쉉":10151,"##낛":10152,"##먖":10153,"##븃":10154,"##푤":10155,"##섟":10156,"##얙":10157,"##뵀":10158,"##뒓":10159,"##쳈":10160,"##셇":10161,"##롹":10162,"##밡":10163,"##쏫":10164,"##쩃":10165,"##쯎":10166,"##쥨":10167,"##춉":10168,"##씮":10169,"##밚":10170,"##챂":10171,"##먾":10172,"##뵥":10173,"##셲":10174,"##뱆":10175,"##툠":10176,"##겷":10177,"##뗙":10178,"##걎":10179,"##흴":10180,"##섻":10181,"##괃":10182,"##폠":10183,"##긿":10184,"##엗":10185,"##솏":10186,"##퓔":10187,"##쳠":10188,"##춈":10189,"##볃":10190,"##귬":10191,"##읱":10192,"##쒥":10193,"##싮":10194,"##쵼":10195,"##눍":10196,"##쩧":10197,"##챊":10198,"##헞":10199,"##쿻":10200,"##껠":10201,"##펗":10202,"##콫":10203,"##휭":10204,"##킸":10205,"##긏":10206,"##풑":10207,"##낝":10208,"##쐑":10209,"##뺼":10210,"##핣":10211,"##녿":10212,"##젚":10213,"##뒘":10214,"##풂":10215,"##뤃":10216,"##릀":10217,"##풐":10218,"##갷":10219,"##넀":10220,"##핃":10221,"##묨":10222,"##뉍":10223,"##댭":10224,"##딈":10225,"##렽":10226,"##쐥":10227,"##탣":10228,"##띻":10229,"##떸":10230,"##즜":10231,"##펃":10232,"##좤":10233,"##숮":10234,"##릾":10235,"##캆":10236,"##첝":10237,"##쩄":10238,"##뱊":10239,"##꾤":10240,"##풃":10241,"##탂":10242,"##륏":10243,"##롡":10244,"##솈":10245,"##꼉":10246,"##챀":10247,"##꿓":10248,"##얿":10249,"##뇄":10250,"##맖":10251,"##믙":10252,"##띾":10253,"##즴":10254,"##컿":10255,"##퇑":10256,"##궏":10257,"##뭑":10258,"##붊":10259,"##혠":10260,"##놕":10261,"##뼌":10262,"##왷":10263,"##첮":10264,"##걾":10265,"##빫":10266,"##욀":10267,"##엱":10268,"##좊":10269,"##퐤":10270,"##겣":10271,"##귣":10272,"##뱜":10273,"##댷":10274,"##뼜":10275,"##겥":10276,"##꿑":10277,"##넻":10278,"##끤":10279,"##쫟":10280,"##뽷":10281,"##픎":10282,"##핤":10283,"##뷜":10284,"##뤂":10285,"##졵":10286,"##묙":10287,"##숗":10288,"##컅":10289,"##턑":10290,"##딷":10291,"##퇍":10292,"##줂":10293,"##픠":10294,"##몴":10295,"##빘":10296,"##쉄":10297,"##춫":10298,"##첰":10299,"##쁑":10300,"##윷":10301,"##됒":10302,"##늴":10303,"##췻":10304,"##똨":10305,"##쉫":10306,"##쾐":10307,"##혇":10308,"##홑":10309,"##쟸":10310,"##뮫":10311,"##쟆":10312,"##맃":10313,"##롈":10314,"##냍":10315,"##삺":10316,"##쥽":10317,"##졜":10318,"##쿧":10319,"##땰":10320,"##빟":10321,"##쟅":10322,"##즏":10323,"##봦":10324,"##붏":10325,"##꼊":10326,"##싨":10327,"##텽":10328,"##믰":10329,"##씂":10330,"##봁":10331,"##럱":10332,"##씄":10333,"##쇌":10334,"##뫕":10335,"##괬":10336,"##찲":10337,"##컽":10338,"##띈":10339,"##붰":10340,"##첣":10341,"##싺":10342,"##퀔":10343,"##덦":10344,"##쩘":10345,"##씔":10346,"##쀍":10347,"##쫴":10348,"##붔":10349,"##똣":10350,"##킐":10351,"##퐥":10352,"##굑":10353,"##긵":10354,"##괐":10355,"##윱":10356,"##몋":10357,"##뎜":10358,"##옃":10359,"##녅":10360,"##럷":10361,"##훓":10362,"##틎":10363,"##탼":10364,"##쾀":10365,"##봵":10366,"##넦":10367,"##뗗":10368,"##끰":10369,"##줩":10370,"##냤":10371,"##턕":10372,"##엢":10373,"##즑":10374,"##갅":10375,"##렻":10376,"##훃":10377,"##픚":10378,"##껅":10379,"##뜁":10380,"##턍":10381,"##읫":10382,"##귻":10383,"##끾":10384,"##숚":10385,"##얾":10386,"##붆":10387,"##먜":10388,"##폔":10389,"##냙":10390,"##눰":10391,"##끐":10392,"##맊":10393,"##죺":10394,"##눹":10395,"##훻":10396,"##췈":10397,"##쇘":10398,"##츀":10399,"##봊":10400,"##뻰":10401,"##줚":10402,"##솻":10403,"##헡":10404,"##쎙":10405,"##쌧":10406,"##뎽":10407,"##봩":10408,"##혤":10409,"##쟴":10410,"##흓":10411,"##녱":10412,"##쑛":10413,"##엂":10414,"##딀":10415,"##릶":10416,"##뿓":10417,"##뇠":10418,"##칽":10419,"##귯":10420,"##댥":10421,"##딯":10422,"##넎":10423,"##퓽":10424,"##컀":10425,"##왯":10426,"##푷":10427,"##춀":10428,"##꼏":10429,"##븎":10430,"##뇡":10431,"##앐":10432,"##왂":10433,"##쉮":10434,"##뽞":10435,"##쩟":10436,"##챋":10437,"##궭":10438,"##륟":10439,"##핗":10440,"##뿤":10441,"##긜":10442,"##셏":10443,"##혙":10444,"##럲":10445,"##똒":10446,"##닁":10447,"##팒":10448,"##쩦":10449,"##겱":10450,"##웛":10451,"##눝":10452,"##쒯":10453,"##랟":10454,"##싈":10455,"##덋":10456,"##쮔":10457,"##뼊":10458,"##켛":10459,"##눋":10460,"##뮥":10461,"##웥":10462,"##앶":10463,"##띀":10464,"##쎤":10465,"##쁟":10466,"##떣":10467,"##븹":10468,"##닍":10469,"##뻼":10470,"##꼥":10471,"##꼅":10472,"##꺤":10473,"##룜":10474,"##돆":10475,"##긹":10476,"##톺":10477,"##끚":10478,"##즄":10479,"##붋":10480,"##좥":10481,"##썯":10482,"##쮭":10483,"##욐":10484,"##쀄":10485,"##툻":10486,"##죔":10487,"##럤":10488,"##갣":10489,"##뒐":10490,"##츽":10491,"##웆":10492,"##둞":10493,"##줟":10494,"##흚":10495,"##돎":10496,"##얫":10497,"##쎂":10498,"##뢨":10499,"##깪":10500,"##줱":10501,"##긆":10502,"##힇":10503,"##솛":10504,"##쇈":10505,"##븈":10506,"##쁼":10507,"##욽":10508,"##뤰":10509,"##놑":10510,"##늜":10511,"##럯":10512,"##섓":10513,"##첯":10514,"##쑉":10515,"##쿫":10516,"##헱":10517,"##옟":10518,"##홨":10519,"##슠":10520,"##짋":10521,"##쿹":10522,"##쟠":10523,"##굪":10524,"##폽":10525,"##씤":10526,"##콛":10527,"##푯":10528,"##몊":10529,"##찭":10530,"##쭭":10531,"##퐆":10532,"##홛":10533,"##녾":10534,"##렭":10535,"##잜":10536,"##몮":10537,"##걜":10538,"##럔":10539,"##걿":10540,"##랆":10541,"##꼻":10542,"##츞":10543,"##몡":10544,"##첱":10545,"##렞":10546,"##쾰":10547,"##꾱":10548,"##믑":10549,"##롑":10550,"##켵":10551,"##콋":10552,"##벎":10553,"##씋":10554,"##짪":10555,"##릃":10556,"##븧":10557,"##룿":10558,"##왰":10559,"##릵":10560,"##븩":10561,"##걊":10562,"##춸":10563,"##탏":10564,"##젅":10565,"##뜍":10566,"##햙":10567,"##헧":10568,"##쓋":10569,"##뭦":10570,"##챽":10571,"##솩":10572,"##랊":10573,"##찓":10574,"##롔":10575,"##쭟":10576,"##짃":10577,"##챼":10578,"##뚈":10579,"##쫚":10580,"##뻭":10581,"##넖":10582,"##눵":10583,"##앷":10584,"##갊":10585,"##긥":10586,"##꺊":10587,"##궍":10588,"##듟":10589,"##혖":10590,"##퉛":10591,"##끎":10592,"##욹":10593,"##뎝":10594,"##툇":10595,"##녙":10596,"##썄":10597,"##굩":10598,"##얆":10599,"##쉌":10600,"##됥":10601,"##쵕":10602,"##햝":10603,"##뀻":10604,"##됟":10605,"##낻":10606,"##퓿":10607,"##봟":10608,"##녛":10609,"##떧":10610,"##셎":10611,"##뼀":10612,"##릹":10613,"##퇜":10614,"##륍":10615,"##땆":10616,"##꾈":10617,"##멫":10618,"##뀷":10619,"##톶":10620,"##숪":10621,"##꽛":10622,"##찱":10623,"##잩":10624,"##휫":10625,"##쨨":10626,"##읂":10627,"##팆":10628,"##겫":10629,"##갳":10630,"##풱":10631,"##햍":10632,"##딭":10633,"##쌎":10634,"##왴":10635,"##뾱":10636,"##톩":10637,"##돘":10638,"##듑":10639,"##픵":10640,"##묹":10641,"##쏐":10642,"##쾬":10643,"##뗨":10644,"##낶":10645,"##혝":10646,"##굻":10647,"##엁":10648,"##꽨":10649,"##쵁":10650,"##쿽":10651,"##얊":10652,"##멪":10653,"##횧":10654,"##퐑":10655,"##늓":10656,"##볹":10657,"##츛":10658,"##쳗":10659,"##탗":10660,"##줆":10661,"##휏":10662,"##휐":10663,"##쳴":10664,"##텹":10665,"##쮤":10666,"##짣":10667,"##뱰":10668,"##벍":10669,"##긞":10670,"##텆":10671,"##좱":10672,"##힑":10673,"##럻":10674,"##팚":10675,"##봃":10676,"##탚":10677,"##놎":10678,"##킿":10679,"##놥":10680,"##궙":10681,"##뼡":10682,"##웎":10683,"##옦":10684,"##굧":10685,"##똻":10686,"##갿":10687,"##솊":10688,"##읈":10689,"##핦":10690,"##젷":10691,"##냴":10692,"##뗳":10693,"##긃":10694,"##멁":10695,"##꺳":10696,"##빯":10697,"##쀽":10698,"##즎":10699,"##펲":10700,"##짮":10701,"##캎":10702,"##뜿":10703,"##옰":10704,"##톷":10705,"##룯":10706,"##뤤":10707,"##솸":10708,"##읷":10709,"##덗":10710,"##뇍":10711,"##춭":10712,"##웪":10713,"##죚":10714,"##겴":10715,"##졑":10716,"##탞":10717,"##죣":10718,"##핽":10719,"##컺":10720,"##뙹":10721,"##됼":10722,"##댏":10723,"##홝":10724,"##졳":10725,"##엀":10726,"##헊":10727,"##갍":10728,"##섦":10729,"##짍":10730,"##윻":10731,"##쁙":10732,"##곚":10733,"##뗔":10734,"##쇨":10735,"##퉄":10736,"##줐":10737,"##묄":10738,"##짳":10739,"##쨲":10740,"##텉":10741,"##쎍":10742,"##샕":10743,"##럑":10744,"##홙":10745,"##볽":10746,"##뚀":10747,"##턋":10748,"##뵵":10749,"##췕":10750,"##짒":10751,"##랯":10752,"##켉":10753,"##죘":10754,"##댛":10755,"##훽":10756,"##봙":10757,"##븻":10758,"##꿥":10759,"##뼤":10760,"##뼁":10761,"##쯴":10762,"##핓":10763,"##웗":10764,"##잙":10765,"##뫽":10766,"##쭏":10767,"##맽":10768,"##쫛":10769,"##쫐":10770,"##밁":10771,"##쟏":10772,"##훚":10773,"##낪":10774,"##숌":10775,"##낧":10776,"##츶":10777,"##훰":10778,"##땣":10779,"##릻":10780,"##뜝":10781,"##쓘":10782,"##핒":10783,"##곩":10784,"##걻":10785,"##윟":10786,"##쒔":10787,"##꺟":10788,"##빺":10789,"##퐂":10790,"##믆":10791,"##됵":10792,"##돝":10793,"##뢁":10794,"##믤":10795,"##젞":10796,"##뵷":10797,"##닑":10798,"##귔":10799,"##롫":10800,"##킀":10801,"##틜":10802,"##뻈":10803,"##롮":10804,"##떹":10805,"##챺":10806,"##뱓":10807,"##줁":10808,"##쀠":10809,"##떅":10810,"##댼":10811,"##맻":10812,"##쓷":10813,"##웖":10814,"##뤨":10815,"##뿹":10816,"##뿱":10817,"##얨":10818,"##콭":10819,"##럶":10820,"##엯":10821,"##흒":10822,"##덹":10823,"##쩼":10824,"##룅":10825,"##뺔":10826,"##좬":10827,"##뛣":10828,"##걼":10829,"##빣":10830,"##좼":10831,"##뚹":10832,"##욼":10833,"##릘":10834,"##엃":10835,"##룧":10836,"##욉":10837,"##힂":10838,"##읪":10839,"##웒":10840,"##쒠":10841,"##췅":10842,"##앲":10843,"##뫤":10844,"##쩻":10845,"##훀":10846,"##캩":10847,"##첢":10848,"##혽":10849,"##킦":10850,"##꽠":10851,"##쌂":10852,"##찥":10853,"##뷉":10854,"##겳":10855,"##뇔":10856,"##뒄":10857,"##텧":10858,"##찁":10859,"##넧":10860,"##흪":10861,"##놩":10862,"##윁":10863,"##붴":10864,"##숝":10865,"##쾃":10866,"##퀙":10867,"##쌬":10868,"##졿":10869,"##탅":10870,"##젃":10871,"##튘":10872,"##뛀":10873,"##넊":10874,"##뤫":10875,"##팑":10876,"##뵏":10877,"##띕":10878,"##궆":10879,"##븂":10880,"##벺":10881,"##볙":10882,"##쿔":10883,"##땎":10884,"##욺":10885,"##쓲":10886,"##찗":10887,"##폥":10888,"##셖":10889,"##늚":10890,"##쪌":10891,"##쵭":10892,"##꼄":10893,"##렧":10894,"##뜳":10895,"##첳":10896,"##깇":10897,"##펟":10898,"##뤜":10899,"##볷":10900,"##풴":10901,"##웺":10902,"##덈":10903,"##뢜":10904,"##칝":10905,"##됚":10906,"##젵":10907,"##틒":10908,"##뿕":10909,"##궓":10910,"##썋":10911,"##봎":10912,"##쨚":10913,"##곋":10914,"##툄":10915,"##랁":10916,"##띶":10917,"##췩":10918,"##벊":10919,"##뻪":10920,"##뚦":10921,"##쉚":10922,"##뵴":10923,"##꼣":10924,"##헾":10925,"##쭸":10926,"##섧":10927,"##굌":10928,"##뙜":10929,"##숐":10930,"##밲":10931,"##봀":10932,"##혴":10933,"##쬮":10934,"##붭":10935,"##쒈":10936,"##겮":10937,"##륫":10938,"##걺":10939,"##냗":10940,"##컭":10941,"##춛":10942,"##볅":10943,"##쳒":10944,"##쏸":10945,"##튑":10946,"##갮":10947,"##쑷":10948,"##밳":10949,"##뙌":10950,"##뱤":10951,"##쬔":10952,"##뉫":10953,"##걒":10954,"##먠":10955,"##귷":10956,"##슩":10957,"##춯":10958,"##햎":10959,"##멏":10960,"##뻩":10961,"##쏮":10962,"##혰":10963,"##딉":10964,"##뱽":10965,"##췡":10966,"##뺜":10967,"##옢":10968,"##쯜":10969,"##쮉":10970,"##둙":10971,"##헳":10972,"##눚":10973,"##핷":10974,"##섫":10975,"##맪":10976,"##윯":10977,"##섐":10978,"##멮":10979,"##놊":10980,"##얬":10981,"##릥":10982,"##빭":10983,"##삹":10984,"##췸":10985,"##쉛":10986,"##툉":10987,"##솄":10988,"##넡":10989,"##럊":10990,"##귛":10991,"##쯫":10992,"##벯":10993,"##볇":10994,"##뇝":10995,"##앺":10996,"##쒄":10997,"##퀐":10998,"##쳧":10999,"##뢋":11000,"##렩":11001,"##샟":11002,"##앩":11003,"##쬰":11004,"##탷":11005,"##댰":11006,"##쀈":11007,"##팕":11008,"##믣":11009,"##빪":11010,"##먻":11011,"##쓜":11012,"##퀫":11013,"##끘":11014,"##샮":11015,"##멿":11016,"##쯀":11017,"##쪅":11018,"##꾳":11019,"##똡":11020,"##텢":11021,"##헏":11022,"##쓕":11023,"##퐘":11024,"##춡":11025,"##딝":11026,"##꼹":11027,"##캙":11028,"##햰":11029,"##븓":11030,"##싆":11031,"##떦":11032,"##댉":11033,"##봋":11034,"##꾬":11035,"##껕":11036,"##짵":11037,"##듹":11038,"##끞":11039,"##끟":11040,"##궥":11041,"##쉩":11042,"##풓":11043,"##졘":11044,"##몱":11045,"##켞":11046,"##둦":11047,"##먤":11048,"##곟":11049,"##쵠":11050,"##훵":11051,"##쀀":11052,"##굗":11053,"##쪿":11054,"##폅":11055,"##쏵":11056,"##첧":11057,"##엻":11058,"##꺗":11059,"##펒":11060,"##뭫":11061,"##렋":11062,"##붝":11063,"##춪":11064,"##뗜":11065,"##뷥":11066,"##픍":11067,"##똿":11068,"##떗":11069,"##좢":11070,"##썾":11071,"##쨬":11072,"##벫":11073,"##얮":11074,"##싐":11075,"##얠":11076,"##겏":11077,"##꿴":11078,"##챶":11079,"##꼮":11080,"##궑":11081,"##뾸":11082,"##뭚":11083,"##캪":11084,"##휗":11085,"##맓":11086,"##씷":11087,"##벶":11088,"##맒":11089,"##냎":11090,"##덌":11091,"##봴":11092,"##윶":11093,"##챁":11094,"##솕":11095,"##뮉":11096,"##냋":11097,"##뇹":11098,"##괗":11099,"##팄":11100,"##퓐":11101,"##빏":11102,"##뒛":11103,"##댦":11104,"##쁫":11105,"##슂":11106,"##잓":11107,"##뮝":11108,"##걉":11109,"##촷":11110,"##칶":11111,"##뒇":11112,"##킘":11113,"##릲":11114,"##뷇":11115,"##슇":11116,"##쑐":11117,"##텦":11118,"##춎":11119,"##혿":11120,"##헓":11121,"##얓":11122,"##쭻":11123,"##틁":11124,"##벐":11125,"##툌":11126,"##쌯":11127,"##덭":11128,"##댣":11129,"##핐":11130,"##횠":11131,"##찅":11132,"##훸":11133,"##꾕":11134,"##좜":11135,"##릑":11136,"##쫜":11137,"##눂":11138,"##씟":11139,"##쥿":11140,"##묏":11141,"##뢕":11142,"##퍵":11143,"##퓹":11144,"##묺":11145,"##슸":11146,"##빾":11147,"##칻":11148,"##쁸":11149,"##솒":11150,"##뙷":11151,"##띳":11152,"##춮":11153,"##꼷":11154,"##캋":11155,"##쐅":11156,"##펕":11157,"##퍞":11158,"##퍝":11159,"##궵":11160,"##힢":11161,"##헍":11162,"##낓":11163,"##뛍":11164,"##퐛":11165,"##앹":11166,"##앿":11167,"##씉":11168,"##홁":11169,"##젒":11170,"##쥈":11171,"##훋":11172,"##꺰":11173,"##룃":11174,"##튴":11175,"##앃":11176,"##꾝":11177,"##칧":11178,"##껃":11179,"##똮":11180,"##뼐":11181,"##픀":11182,"##퉸":11183,"##궃":11184,"##퉝":11185,"##껙":11186,"##덖":11187,"##뿽":11188,"##긛":11189,"##쉾":11190,"##덝":11191,"##쟊":11192,"##캰":11193,"##쮑":11194,"##쬠":11195,"##걲":11196,"##쓐":11197,"##퇵":11198,"##늭":11199,"##뀸":11200,"##꽊":11201,"##쮓":11202,"##쏚":11203,"##뒼":11204,"##콯":11205,"##벖":11206,"##뷧":11207,"##뛓":11208,"##먗":11209,"##뽇":11210,"##굷":11211,"##귖":11212,"##똩":11213,"##럏":11214,"##풎":11215,"##섊":11216,"##퓬":11217,"##웚":11218,"##쫂":11219,"##쩢":11220,"##탛":11221,"##픓":11222,"##븏":11223,"##햟":11224,"##빞":11225,"##튝":11226,"##똷":11227,"##뛝":11228,"##먛":11229,"##깖":11230,"##섽":11231,"##쮕":11232,"##놏":11233,"##홟":11234,"##샃":11235,"##헟":11236,"##쌟":11237,"##홎":11238,"##넞":11239,"##쐤":11240,"##겙":11241,"##겚":11242,"##뒑":11243,"##뤸":11244,"##엶":11245,"##뙛":11246,"##둫":11247,"##뚄":11248,"##뛕":11249,"##켚":11250,"##줅":11251,"##쥇":11252,"##왥":11253,"##멭":11254,"##밇":11255,"##썟":11256,"##쇱":11257,"##웼":11258,"##뱕":11259,"##뛌":11260,"##뽫":11261,"##쓹":11262,"##툱":11263,"##슶":11264,"##돇":11265,"##뫔":11266,"##뤟":11267,"##즡":11268,"##씞":11269,"##캮":11270,"##줸":11271,"##띅":11272,"##룪":11273,"##떪":11274,"##쥦":11275,"##렡":11276,"##믻":11277,"##쁝":11278,"##륔":11279,"##벾":11280,"##걖":11281,"##쩗":11282,"##풏":11283,"##홫":11284,"##젶":11285,"##먆":11286,"##틏":11287,"##슲":11288,"##뺓":11289,"##낅":11290,"##춏":11291,"##빬":11292,"##괠":11293,"##꿕":11294,"##쨱":11295,"##퍤":11296,"##꿬":11297,"##쭠":11298,"##뛧":11299,"##뽠":11300,"##몺":11301,"##놪":11302,"##칢":11303,"##쟇":11304,"##똽":11305,"##엒":11306,"##샫":11307,"##밂":11308,"##떷":11309,"##뚵":11310,"##텇":11311,"##씆":11312,"##휅":11313,"##룱":11314,"##넑":11315,"##됡":11316,"##뛟":11317,"##뺒":11318,"##빹":11319,"##솢":11320,"##늛":11321,"##홮":11322,"##뀃":11323,"##넭":11324,"##옱":11325,"##뢩":11326,"##갫":11327,"##곆":11328,"##뤳":11329,"##쩩":11330,"##웞":11331,"##뫚":11332,"##뻫":11333,"##꿯":11334,"##굦":11335,"##쎨":11336,"##롞":11337,"##푭":11338,"##뇟":11339,"##묿":11340,"##셃":11341,"##걁":11342,"##꺘":11343,"##쭷":11344,"##홇":11345,"##퍡":11346,"##챸":11347,"##퓅":11348,"##뿁":11349,"##솧":11350,"##뜔":11351,"##큣":11352,"##옣":11353,"##픃":11354,"##앒":11355,"##둌":11356,"##낥":11357,"##뉄":11358,"##빓":11359,"##뙬":11360,"##귺":11361,"##왙":11362,"##꿤":11363,"##닰":11364,"##튵":11365,"##혷":11366,"##뽛":11367,"##굯":11368,"##쉳":11369,"##뗸":11370,"##튔":11371,"##퉨":11372,"##욻":11373,"##쬑":11374,"##캼":11375,"##랡":11376,"##겕":11377,"##혒":11378,"##뗵":11379,"##눽":11380,"##뭭":11381,"##븕":11382,"##뻒":11383,"##틊":11384,"##둩":11385,"##꽘":11386,"##벁":11387,"##뱟":11388,"##뙁":11389,"##숬":11390,"##쭨":11391,"##놸":11392,"##힒":11393,"##걶":11394,"##뀱":11395,"##듞":11396,"##윹":11397,"##뮜":11398,"##띧":11399,"##퉆":11400,"##줝":11401,"##곣":11402,"##쨟":11403,"##쩑":11404,"##삉":11405,"##뜱":11406,"##귥":11407,"##퐅":11408,"##뮷":11409,"##믛":11410,"##촀":11411,"##띟":11412,"##릣":11413,"##첤":11414,"##쩕":11415,"##퉽":11416,"##늎":11417,"##섈":11418,"##뷋":11419,"##뤩":11420,"##뀄":11421,"##꼲":11422,"##럎":11423,"##끯":11424,"##뉰":11425,"##괒":11426,"##탲":11427,"##둒":11428,"##헯":11429,"##쀾":11430,"##툅":11431,"##낤":11432,"##둚":11433,"##둇":11434,"##쫖":11435,"##푲":11436,"##끏":11437,"##괂":11438,"##벻":11439,"##뽘":11440,"##꿸":11441,"##쳰":11442,"##쨧":11443,"##걧":11444,"##늏":11445,"##섔":11446,"##쪠":11447,"##젳":11448,"##벓":11449,"##팣":11450,"##녝":11451,"##쳊":11452,"##휇":11453,"##쨤":11454,"##뭕":11455,"##흊":11456,"##쮁":11457,"##뽯":11458,"##쩎":11459,"##괨":11460,"##륶":11461,"##딖":11462,"##럸":11463,"##녰":11464,"##쏏":11465,"##셫":11466,"##놁":11467,"##쓀":11468,"##훡":11469,"##쎽":11470,"##궬":11471,"##솣":11472,"##쎡":11473,"##갶":11474,"##쒑":11475,"##윧":11476,"##헶":11477,"##슻":11478,"##꿃":11479,"##삒":11480,"##꺓":11481,"##흅":11482,"##빂":11483,"##솉":11484,"##딞":11485,"##웯":11486,"##췔":11487,"##쒁":11488,"##봰":11489,"##떶":11490,"##봆":11491,"##깛":11492,"##킉":11493,"##쵮":11494,"##곲":11495,"##빖":11496,"##좂":11497,"##뛋":11498,"##푈":11499,"##씦":11500,"##텂":11501,"##찳":11502,"##켲":11503,"##넟":11504,"##녖":11505,"##쿗":11506,"##괙":11507,"##곭":11508,"##붎":11509,"##렑":11510,"##팘":11511,"##륲":11512,"##뮻":11513,"##냿":11514,"##맿":11515,"##쿌":11516,"##싘":11517,"##짾":11518,"##껓":11519,"##뾀":11520,"##뽸":11521,"##쫰":11522,"##툲":11523,"##욾":11524,"##쐏":11525,"##췹":11526,"##곔":11527,"##뭩":11528,"##윿":11529,"##켼":11530,"##옩":11531,"##똼":11532,"##붃":11533,"##톔":11534,"##엲":11535,"##쭬":11536,"##훞":11537,"##샦":11538,"##벭":11539,"##랻":11540,"##햛":11541,"##딳":11542,"##쇵":11543,"##뇅":11544,"##댲":11545,"##썍":11546,"##틧":11547,"##쯨":11548,"##븦":11549,"##홴":11550,"##솑":11551,"##릸":11552,"##씜":11553,"##싖":11554,"##븢":11555,"##낣":11556,"##몲":11557,"##캊":11558,"##끀":11559,"##쑦":11560,"##웊":11561,"##끡":11562,"##뽭":11563,"##꿿":11564,"##둋":11565,"##쐴":11566,"##텓":11567,"##퇬":11568,"##흇":11569,"##쇟":11570,"##쟥":11571,"##뱸":11572,"##쒭":11573,"##뭷":11574,"##윖":11575,"##햚":11576,"##둪":11577,"##떾":11578,"##쵤":11579,"##꿝":11580,"##턺":11581,"##뱥":11582,"##껶":11583,"##윣":11584,"##쩰":11585,"##뚁":11586,"##촪":11587,"##좧":11588,"##녚":11589,"##쌻":11590,"##뼬":11591,"##뾥":11592,"##딺":11593,"##쬴":11594,"##혺":11595,"##럮":11596,"##톃":11597,"##꺚":11598,"##룈":11599,"##푬":11600,"##쒱":11601,"##곝":11602,"##퐇":11603,"##젌":11604,"##뱬":11605,"##둄":11606,"##뉀":11607,"##삧":11608,"##쐣":11609,"##쬈":11610,"##윝":11611,"##뫂":11612,"##뺚":11613,"##톌":11614,"##쉻":11615,"##헋":11616,"##엞":11617,"##튻":11618,"##쎝":11619,"##쌇":11620,"##둧":11621,"##뙝":11622,"##욣":11623,"##앑":11624,"##뎂":11625,"##큻":11626,"##굠":11627,"##퓩":11628,"##퀭":11629,"##풹":11630,"##깾":11631,"##둼":11632,"##콪":11633,"##뜮":11634,"##벷":11635,"##먓":11636,"##틅":11637,"##둅":11638,"##괫":11639,"##뵉":11640,"##뷃":11641,"##쏄":11642,"##꺴":11643,"##쓈":11644,"##춝":11645,"##쳍":11646,"##붥":11647,"##얳":11648,"##웙":11649,"##쿩":11650,"##똟":11651,"##큷":11652,"##괓":11653,"##묷":11654,"##떥":11655,"##즺":11656,"##춟":11657,"##쬎":11658,"##얎":11659,"##섩":11660,"##젉":11661,"##퀻":11662,"##쌑":11663,"##릡":11664,"##퉹":11665,"##싅":11666,"##쒧":11667,"##혬":11668,"##쒘":11669,"##쳋":11670,"##왆":11671,"##틕":11672,"##흎":11673,"##쎱":11674,"##삫":11675,"##늌":11676,"##죶":11677,"##숶":11678,"##뿥":11679,"##뺡":11680,"##힟":11681,"##쐿":11682,"##쀅":11683,"##섪":11684,"##끉":11685,"##볁":11686,"##흳":11687,"##퐠":11688,"##긯":11689,"##퓍":11690,"##먽":11691,"##붍":11692,"##찴":11693,"##큳":11694,"##쓒":11695,"##씊":11696,"##팯":11697,"##볫":11698,"##뜃":11699,"##껇":11700,"##샓":11701,"##췁":11702,"##굤":11703,"##됃":11704,"##쉧":11705,"##룄":11706,"##쎰":11707,"##섉":11708,"##쉜":11709,"##탍":11710,"##붌":11711,"##뤵":11712,"##픤":11713,"##잝":11714,"##뀈":11715,"##쀵":11716,"##븋":11717,"##걓":11718,"##풇":11719,"##셮":11720,"##턩":11721,"##겿":11722,"##쩣":11723,"##웘":11724,"##콮":11725,"##쎇":11726,"##튶":11727,"##럗":11728,"##폯":11729,"##렓":11730,"##뙴":11731,"##겲":11732,"##밊":11733,"##괅":11734,"##횓":11735,"##툨":11736,"##겵":11737,"##닗":11738,"##뻕":11739,"##젡":11740,"##뷕":11741,"##깗":11742,"##믉":11743,"##헒":11744,"##칄":11745,"##옞":11746,"##떺":11747,"##쭃":11748,"##욈":11749,"##헔":11750,"##캽":11751,"##쓌":11752,"##썱":11753,"##냧":11754,"##첪":11755,"##핺":11756,"##븞":11757,"##칤":11758,"##떌":11759,"##윢":11760,"##썔":11761,"##쇀":11762,"##뎓":11763,"##얰":11764,"##쏰":11765,"##훛":11766,"##쩤":11767,"##탵":11768,"##찦":11769,"##볋":11770,"##꽀":11771,"##쭥":11772,"##즂":11773,"##쩽":11774,"##옲":11775,"##왗":11776,"##딿":11777,"##뙿":11778,"##깑":11779,"##쎟":11780,"##꼶":11781,"##쏃":11782,"##춱":11783,"##쀒":11784,"##뾔":11785,"##좎":11786,"##홖":11787,"##윪":11788,"##잳":11789,"##쮱":11790,"##뭁":11791,"##휳":11792,"##뷐":11793,"##혻":11794,"##쏬":11795,"##훝":11796,"##뭵":11797,"##헢":11798,"##샔":11799,"##묑":11800,"##뱗":11801,"##쯋":11802,"##곛":11803,"##좰":11804,"##훏":11805,"##칍":11806,"##걽":11807,"##턐":11808,"##썫":11809,"##쓺":11810,"##쭂":11811,"##쬲":11812,"##췜":11813,"##봿":11814,"##걇":11815,"##퇌":11816,"##퀡":11817,"##쇔":11818,"##폡":11819,"##꺋":11820,"##븸":11821,"##곖":11822,"##푿":11823,"##녺":11824,"##탊":11825,"##뷤":11826,"##쫅":11827,"##욗":11828,"##넁":11829,"##싙":11830,"##븛":11831,"##믝":11832,"##엸":11833,"##놖":11834,"##씿":11835,"##뀅":11836,"##쾩":11837,"##휔":11838,"##볆":11839,"##뽴":11840,"##뷷":11841,"##눛":11842,"##굾":11843,"##뮏":11844,"##갎":11845,"##뼏":11846,"##깱":11847,"##렗":11848,"##됱":11849,"##뻙":11850,"##눸":11851,"##뮦":11852,"##뙸":11853,"##쓊":11854,"##죢":11855,"##슮":11856,"##쪚":11857,"##뵺":11858,"##딻":11859,"##뭀":11860,"##핕":11861,"##섑":11862,"##솖":11863,"##둊":11864,"##쀌":11865,"##쳭":11866,"##훊":11867,"##겺":11868,"##옧":11869,"##믏":11870,"##뜪":11871,"##톽":11872,"##쑫":11873,"##멛":11874,"##꿹":11875,"##얁":11876,"##킆":11877,"##톅":11878,"##긼":11879,"##돖":11880,"##놛":11881,"##눓":11882,"##럘":11883,"##엕":11884,"##뙥":11885,"##혯":11886,"##왬":11887,"##줵":11888,"##팗":11889,"##턉":11890,"##벲":11891,"##곮":11892,"##핋":11893,"##깺":11894,"##풁":11895,"##쩀":11896,"##뵞":11897,"##혅":11898,"##뭟":11899,"##녯":11900,"##큲":11901,"##믯":11902,"##쬥":11903,"##뛥":11904,"##뿎":11905,"##뚢":11906,"##뚊":11907,"##똇":11908,"##쐄":11909,"##맚":11910,"##갟":11911,"##챫":11912,"##꿄":11913,"##샽":11914,"##듇":11915,"##폌":11916,"##뱋":11917,"##곥":11918,"##펻":11919,"##뎦":11920,"##쀳":11921,"##졒":11922,"##굺":11923,"##걬":11924,"##뙄":11925,"##캵":11926,"##턹":11927,"##뱛":11928,"##탟":11929,"##꾄":11930,"##칔":11931,"##멯":11932,"##퇮":11933,"##퓟":11934,"##쌗":11935,"##짎":11936,"##놴":11937,"##찏":11938,"##헦":11939,"##퍔":11940,"##볂":11941,"##욓":11942,"##뽥":11943,"##뜄":11944,"##쓿":11945,"##찫":11946,"##씳":11947,"##겭":11948,"##혾":11949,"##꽆":11950,"##릈":11951,"##굫":11952,"##퇏":11953,"##죿":11954,"##몷":11955,"##쵿":11956,"##쓃":11957,"##꿌":11958,"##뮘":11959,"##짿":11960,"##쀏":11961,"##뎧":11962,"##벑":11963,"##뉅":11964,"##뚨":11965,"##덢":11966,"##궮":11967,"##녗":11968,"##빷":11969,"##볖":11970,"##컯":11971,"##똈":11972,"##숢":11973,"##둭":11974,"##쪻":11975,"##헲":11976,"##믬":11977,"##솠":11978,"##뀹":11979,"##쥫":11980,"##풬":11981,"##잮":11982,"##곫":11983,"##쥅":11984,"##뎻":11985,"##촼":11986,"##뽬":11987,"##퉼":11988,"##씶":11989,"##쒐":11990,"##핆":11991,"##밹":11992,"##킶":11993,"##긻":11994,"##싇":11995,"##쟬":11996,"##뵑":11997,"##쐼":11998,"##쁍":11999,"##왅":12000,"##랉":12001,"##쫫":12002,"##뢘":12003,"##멲":12004,"##쟡":12005,"##쫕":12006,"##먇":12007,"##쑀":12008,"##뿑":12009,"##눉":12010,"##뿬":12011,"##겞":12012,"##윩":12013,"##귇":12014,"##졽":12015,"##뽹":12016,"##삗":12017,"##뺶":12018,"##겛":12019,"##톪":12020,"##퇙":12021,"##숤":12022,"##컦":12023,"##뾲":12024,"##쑼":12025,"##셪":12026,"##홅":12027,"##똦":12028,"##랺":12029,"##틤":12030,"##넶":12031,"##룢":12032,"##뽖":12033,"##륮":12034,"##즋":12035,"##혃":12036,"##쐽":12037,"##꽭":12038,"##돉":12039,"##쭕":12040,"##볈":12041,"##쌛":12042,"##퉉":12043,"##휨":12044,"##꺏":12045,"##돒":12046,"##퉾":12047,"##똝":12048,"##왳":12049,"##쵴":12050,"##봭":12051,"##멂":12052,"##툊":12053,"##겗":12054,"##흤":12055,"##챷":12056,"##걭":12057,"##쵯":12058,"##엜":12059,"##혆":12060,"##훉":12061,"##졺":12062,"##픹":12063,"##잞":12064,"##푕":12065,"##붯":12066,"##떃":12067,"##혉":12068,"##쿅":12069,"##퍁":12070,"##툈":12071,"##씧":12072,"##훱":12073,"##쿺":12074,"##졻":12075,"##슯":12076,"##뙀":12077,"##뒞":12078,"##풸":12079,"##궳":12080,"##뙓":12081,"##얪":12082,"##홗":12083,"##좣":12084,"##뮁":12085,"##퍾":12086,"##쭄":12087,"##쑙":12088,"##얉":12089,"##됧":12090,"##뀀":12091,"##넔":12092,"##웳":12093,"##췝":12094,"##녽":12095,"##휲":12096,"##뇁":12097,"##퇔":12098,"##괺":12099,"##싻":12100,"##앦":12101,"##젍":12102,"##뺅":12103,"##걤":12104,"##뢥":12105,"##꺢":12106,"##뷮":12107,"##엹":12108,"##깯":12109,"##뿃":12110,"##젎":12111,"##쎓":12112,"##놝":12113,"##뒫":12114,"##윥":12115,"##튺":12116,"##죥":12117,"##앣":12118,"##몣":12119,"##똚":12120,"##궀":12121,"##쩹":12122,"##퀰":12123,"##빇":12124,"##녭":12125,"##럠":12126,"##몟":12127,"##닋":12128,"##궲":12129,"##꽳":12130,"##쩁":12131,"##꿲":12132,"##갢":12133,"##쒤":12134,"##붬":12135,"##볎":12136,"##쫨":12137,"##쬿":12138,"##죝":12139,"##퐣":12140,"##푁":12141,"##쏔":12142,"##씱":12143,"##뿳":12144,"##쀡":12145,"##믂":12146,"##퇧":12147,"##쀓":12148,"##쟃":12149,"##꾠":12150,"##쁐":12151,"##걆":12152,"##빎":12153,"##뺗":12154,"##촺":12155,"##팙":12156,"##괝":12157,"##녻":12158,"##꽴":12159,"##귦":12160,"##쩸":12161,"##쒂":12162,"##짺":12163,"##뾃":12164,"##좓":12165,"##뭧":12166,"##쟟":12167,"##걃":12168,"##믌":12169,"##쌒":12170,"##맩":12171,"##쭅":12172,"##썳":12173,"##뷹":12174,"##뭗":12175,"##콲":12176,"##훯":12177,"##썝":12178,"##갩":12179,"##몢":12180,"##뻁":12181,"##삦":12182,"##씢":12183,"##뭙":12184,"##쫵":12185,"##쳢":12186,"##캢":12187,"##셟":12188,"##뛨":12189,"##뭿":12190,"##왶":12191,"##왡":12192,"##왢":12193,"##씗":12194,"##졂":12195,"##쑻":12196,"##갧":12197,"##♬에":12198,"##♬이":12199,"##♬을":12200,"##♬의":12201,"##♬가":12202,"##♬는":12203,"##♬를":12204,"##♬들":12205,"##♬은":12206,"##♬도":12207,"##으로":12208,"♬에":12209,"##♬으로":12210,"♬을":12211,"##♬로":12212,"##♬에서":12213,"♬의":12214,"♬이":12215,"##하는":12216,"##니다":12217,"♬를":12218,"##♬과":12219,"##하고":12220,"##♬적":12221,"♬는":12222,"♬은":12223,"##는데":12224,"##이다":12225,"♬가":12226,"##♬만":12227,"##다고":12228,"##♬들♬이":12229,"##♬와":12230,"##지만":12231,"있다":12232,"사람":12233,"아니":12234,"♬으로":12235,"##라고":12236,"##했다":12237,"##00":12238,"##까지":12239,"♬에서":12240,"있는":12241,"♬로":12242,"##었다":12243,"##면서":12244,"♬도":12245,"##다는":12246,"##♬에게":12247,"생각":12248,"우리":12249,"##♬들♬은":12250,"♬들":12251,"##♬까지":12252,"##하게":12253,"##부터":12254,"##해서":12255,"♬과":12256,"대한":12257,"##리고":12258,"##이라":12259,"##한다":12260,"20":12261,"##♬님":12262,"하는":12263,"한다":12264,"한국":12265,"##보다":12266,"국민":12267,"##습니다":12268,"##♬적인":12269,"때문":12270,"♬적":12271,"##렇게":12272,"##으면":12273,"그러":12274,"영화":12275,"이런":12276,"진짜":12277,"##♬적♬으로":12278,"♬와":12279,"##니까":12280,"지금":12281,"##하지":12282,"##♬에♬는":12283,"일본":12284,"지난":12285,"##하면":12286,"##♬나":12287,"그런":12288,"문제":12289,"##♬이나":12290,"##♬부터":12291,"##♬들♬의":12292,"##하다":12293,"##♬보다":12294,"같은":12295,"너무":12296,"10":12297,"자신":12298,"다른":12299,"중국":12300,"##대로":12301,"##♬성":12302,"나라":12303,"##는거":12304,"하나":12305,"##처럼":12306,"위해":12307,"##통령":12308,"들어":12309,"그리고":12310,"만들":12311,"미국":12312,"그래":12313,"경우":12314,"##하기":12315,"정부":12316,"##♬화":12317,"##이고":12318,"##네요":12319,"201":12320,"##인데":12321,"##♬들♬을":12322,"##라는":12323,"아이":12324,"##어서":12325,"하고":12326,"이상":12327,"대통령":12328,"이제":12329,"19":12330,"이번":12331,"그냥":12332,"##세요":12333,"문재":12334,"작가":12335,"사실":12336,"##기♬를":12337,"다고":12338,"##♬처럼":12339,"##한테":12340,"된다":12341,"##어요":12342,"아닌":12343,"##해야":12344,"##지고":12345,"다시":12346,"##나라":12347,"##았다":12348,"것이다":12349,"##입니다":12350,"시작":12351,"함께":12352,"사회":12353,"따라":12354,"없는":12355,"정도":12356,"정치":12357,"##♬한테":12358,"경제":12359,"서울":12360,"##이라고":12361,"때문♬에":12362,"많이":12363,"통해":12364,"##라도":12365,"보고":12366,"가능":12367,"하지만":12368,"모르":12369,"인간":12370,"##이지":12371,"시간":12372,"가장":12373,"아무":12374,"나오":12375,"필요":12376,"기업":12377,"##♬에♬도":12378,"아니라":12379,"##하여":12380,"##되는":12381,"##♬에서♬는":12382,"##리는":12383,"정말":12384,"##리♬를":12385,"자기":12386,"북한":12387,"모두":12388,"##였다":12389,"상황":12390,"##자♬가":12391,"세계":12392,"##으며":12393,"지역":12394,"##다가":12395,"민주":12396,"200":12397,"이후":12398,"##리♬가":12399,"어떻":12400,"##같은":12401,"모든":12402,"##♬서":12403,"대표":12404,"##려고":12405,"것♬이":12406,"모습":12407,"좋아":12408,"시장":12409,"사업":12410,"관계":12411,"국가":12412,"이렇게":12413,"♬까지":12414,"것♬은":12415,"어떻게":12416,"문재인":12417,"사용":12418,"여자":12419,"관련":12420,"내♬가":12421,"없다":12422,"##스트":12423,"마음":12424,"##주의":12425,"다음":12426,"여기":12427,"대해":12428,"♬만":12429,"##된다":12430,"이유":12431,"##♬랑":12432,"해야":12433,"##합니다":12434,"이미":12435,"있었":12436,"많은":12437,"##이라는":12438,"위한":12439,"##겠다":12440,"댓글":12441,"이야":12442,"##사람":12443,"정신":12444,"지원":12445,"##는다":12446,"##기♬가":12447,"##보고":12448,"아직":12449,"현재":12450,"돌아":12451,"그렇게":12452,"처음":12453,"사이":12454,"했다":12455,"##♬권":12456,"계속":12457,"사랑":12458,"그러나":12459,"##하며":12460,"어떤":12461,"것♬으로":12462,"작가♬님":12463,"##어야":12464,"투자":12465,"것♬을":12466,"##♬아":12467,"##거나":12468,"얼마":12469,"##사♬를":12470,"라고":12471,"라는":12472,"무슨":12473,"프로":12474,"12":12475,"♬성":12476,"내용":12477,"##기♬도":12478,"역시":12479,"##민국":12480,"보여":12481,"경기":12482,"##으니":12483,"##구나":12484,"##는지":12485,"30":12486,"근데":12487,"있을":12488,"특히":12489,"##아서":12490,"좋은":12491,"##하면서":12492,"##인가":12493,"##인지":12494,"##어나":12495,"여성":12496,"남자":12497,"11":12498,"하지":12499,"##레이":12500,"밝혔":12501,"##♬들♬에게":12502,"이해":12503,"보면":12504,"이어":12505,"##지는":12506,"다는":12507,"조국":12508,"##기♬에":12509,"진행":12510,"##♬네":12511,"바로":12512,"여러":12513,"국내":12514,"100":12515,"##가는":12516,"대한민국":12517,"교육":12518,"##♬당":12519,"이용":12520,"그래서":12521,"##있는":12522,"##♬들♬도":12523,"기대":12524,"오늘":12525,"결과":12526,"수준":12527,"결국":12528,"##도록":12529,"검찰":12530,"##지♬를":12531,"##것♬도":12532,"##로운":12533,"방송":12534,"##력♬을":12535,"♬에게":12536,"중요":12537,"##인♬이":12538,"##잖아":12539,"피해":12540,"지만":12541,"있었다":12542,"기사":12543,"기술":12544,"어디":12545,"##이었다":12546,"면서":12547,"이름":12548,"그렇":12549,"##이었":12550,"##지막":12551,"최고":12552,"♬부터":12553,"##밖에":12554,"연구":12555,"최근":12556,"조사":12557,"15":12558,"##자♬는":12559,"##시키":12560,"자유":12561,"##없이":12562,"##♬엔":12563,"보이":12564,"국회":12565,"또한":12566,"이러":12567,"##는게":12568,"##소리":12569,"잘못":12570,"마지막":12571,"♬화":12572,"설명":12573,"살아":12574,"##이♬가":12575,"계획":12576,"♬고":12577,"떨어":12578,"민주당":12579,"상대":12580,"사람♬이":12581,"저런":12582,"경찰":12583,"이거":12584,"삼성":12585,"없이":12586,"대학":12587,"##가지":12588,"지지":12589,"##되고":12590,"개발":12591,"웹툰":12592,"친구":12593,"##장♬을":12594,"우리나라":12595,"어느":12596,"사건":12597,"당시":12598,"의원":12599,"##♬마":12600,"지난해":12601,"베댓":12602,"나♬는":12603,"가족":12604,"학교":12605,"##지♬도":12606,"물론":12607,"나타":12608,"세상":12609,"##레기":12610,"♬보다":12611,"당신":12612,"작품":12613,"##사♬가":12614,"정권":12615,"##해라":12616,"되는":12617,"같이":12618,"기록":12619,"감독":12620,"##어도":12621,"##머니":12622,"전문":12623,"올해":12624,"자신♬의":12625,"대상":12626,"이게":12627,"##지♬가":12628,"##으나":12629,"##비스":12630,"현실":12631,"##정♬을":12632,"알고":12633,"그럼":12634,"받아":12635,"관심":12636,"##♬에서♬도":12637,"정책":12638,"얼굴":12639,"##이야":12640,"이날":12641,"후보":12642,"제대로":12643,"##거리":12644,"만들어":12645,"얼마나":12646,"##시아":12647,"개인":12648,"주인":12649,"##동안":12650,"사진":12651,"##주는":12652,"##♬째":12653,"학생":12654,"##♬이랑":12655,"##졌다":12656,"정보":12657,"##♬들♬과":12658,"##시간":12659,"회사":12660,"##했던":12661,"18":12662,"그♬는":12663,"나온":12664,"누구":12665,"##♬자":12666,"않고":12667,"##인다":12668,"평가":12669,"이야기":12670,"##부분":12671,"##하는데":12672,"조선":12673,"##장♬은":12674,"배우":12675,"하면":12676,"그것":12677,"##되어":12678,"##력♬이":12679,"가지":12680,"다양":12681,"한번":12682,"##겠지":12683,"자체":12684,"문화":12685,"##수♬가":12686,"##기업":12687,"말했다":12688,"찾아":12689,"##더니":12690,"따르":12691,"있는데":12692,"않는":12693,"부분":12694,"실제":12695,"일반":12696,"##중♬에":12697,"어려":12698,"직접":12699,"활동":12700,"알려":12701,"그만":12702,"동안":12703,"예정":12704,"운영":12705,"공개":12706,"##이트":12707,"##지♬는":12708,"그리":12709,"금융":12710,"해서":12711,"그림":12712,"선거":12713,"완전":12714,"##없는":12715,"언제":12716,"##운데":12717,"##장♬이":12718,"위원":12719,"##해도":12720,"##0년":12721,"새로운":12722,"상태":12723,"언론":12724,"##놓고":12725,"일부":12726,"올라":12727,"존재":12728,"##주고":12729,"그런데":12730,"대구":12731,"조금":12732,"의미":12733,"결정":12734,"##진다":12735,"소리":12736,"##스크":12737,"있고":12738,"게임":12739,"않은":12740,"##하나":12741,"제발":12742,"스토":12743,"##전♬에":12744,"책임":12745,"##로나":12746,"세금":12747,"공격":12748,"않았":12749,"발생":12750,"누가":12751,"한다고":12752,"재미":12753,"현대":12754,"먼저":12755,"##기♬는":12756,"아주":12757,"##이면":12758,"미래":12759,"##하자":12760,"제공":12761,"기준":12762,"##정부":12763,"##보면":12764,"인터":12765,"방법":12766,"확인":12767,"기자":12768,"부모":12769,"가지고":12770,"♬나":12771,"인정":12772,"합니다":12773,"##같이":12774,"##이냐":12775,"전체":12776,"하루":12777,"것♬도":12778,"##다면":12779,"##하네":12780,"머리":12781,"지나":12782,"서비스":12783,"그녀":12784,"참여":12785,"있다는":12786,"관리":12787,"한편":12788,"준비":12789,"발표":12790,"만화":12791,"50":12792,"♬라고":12793,"성공":12794,"자리":12795,"##을까":12796,"아니고":12797,"##라이":12798,"있어":12799,"##하는거":12800,"힘들":12801,"##♬들♬아":12802,"##한거":12803,"엄마":12804,"해도":12805,"##상♬을":12806,"사고":12807,"수사":12808,"##정도":12809,"##원♬이":12810,"##♬씩":12811,"주장":12812,"등장":12813,"##학교":12814,"만나":12815,"코로나":12816,"반대":12817,"##말고":12818,"과정":12819,"외국":12820,"##렸다":12821,"역사":12822,"13":12823,"주인공":12824,"선수":12825,"가격":12826,"##♬마다":12827,"서로":12828,"##리아":12829,"국제":12830,"##하시":12831,"산업":12832,"가운데":12833,"생활":12834,"대부분":12835,"25":12836,"보는":12837,"##러운":12838,"무엇":12839,"##기♬로":12840,"과거":12841,"##♬상":12842,"16":12843,"##000":12844,"이건":12845,"최대":12846,"위해서":12847,"제품":12848,"행동":12849,"거의":12850,"##랜드":12851,"전국":12852,"증가":12853,"정상":12854,"성장":12855,"경쟁":12856,"더욱":12857,"기억":12858,"사람♬들♬이":12859,"시민":12860,"##다니":12861,"있습니다":12862,"판매":12863,"##이며":12864,"재밌":12865,"해외":12866,"생산":12867,"노동":12868,"기다":12869,"요즘":12870,"효과":12871,"어린":12872,"보내":12873,"내려":12874,"##치고":12875,"그래도":12876,"##자♬를":12877,"##OO":12878,"해결":12879,"##리지":12880,"말♬을":12881,"당연":12882,"이것":12883,"얘기":12884,"14":12885,"못한":12886,"선택":12887,"아닌가":12888,"##♬밖에":12889,"엄청":12890,"표현":12891,"나왔":12892,"##근혜":12893,"추가":12894,"##문♬에":12895,"##이는":12896,"예상":12897,"##린다":12898,"규모":12899,"스타":12900,"##♬형":12901,"운동":12902,"쓰레기":12903,"##만원":12904,"있다고":12905,"장관":12906,"사람♬들":12907,"그♬의":12908,"영향":12909,"환경":12910,"아들":12911,"시대":12912,"없어":12913,"##그램":12914,"##의원":12915,"아니다":12916,"추진":12917,"##식♬을":12918,"빨리":12919,"교수":12920,"느낌":12921,"##자♬의":12922,"아버":12923,"대해서":12924,"요구":12925,"##이스":12926,"##려는":12927,"앞♬으로":12928,"##시다":12929,"##가서":12930,"드러":12931,"한다는":12932,"포함":12933,"##치는":12934,"말♬이":12935,"##와대":12936,"##화♬를":12937,"만든":12938,"알아":12939,"같다":12940,"##나요":12941,"♬권":12942,"다며":12943,"##♬여":12944,"##들어":12945,"중심":12946,"기본":12947,"17":12948,"결혼":12949,"##♬성♬이":12950,"입장":12951,"##야지":12952,"문재앙":12953,"##주세요":12954,"청와대":12955,"##아요":12956,"##었는데":12957,"구성":12958,"노력":12959,"등♬을":12960,"감사":12961,"##됐다":12962,"역할":12963,"##릭터":12964,"##한다고":12965,"도시":12966,"##했는데":12967,"유지":12968,"때문이다":12969,"마련":12970,"전쟁":12971,"좌파":12972,"장면":12973,"지방":12974,"##시켜":12975,"발전":12976,"##하던":12977,"##스로":12978,"나♬도":12979,"되어":12980,"##라마":12981,"##와서":12982,"말고":12983,"##스럽":12984,"##하겠":12985,"##스터":12986,"부산":12987,"건강":12988,"정의":12989,"##인♬의":12990,"박근혜":12991,"소비":12992,"##아니":12993,"##도♬를":12994,"##정♬이":12995,"지적":12996,"보인다":12997,"##이란":12998,"##♬요":12999,"##위원":13000,"##히려":13001,"분석":13002,"자동":13003,"판단":13004,"넘어":13005,"##는건":13006,"상당":13007,"해당":13008,"##이네":13009,"절대":13010,"확대":13011,"##하지만":13012,"우리♬가":13013,"고객":13014,"##리스":13015,"오히려":13016,"업체":13017,"자연":13018,"그게":13019,"공부":13020,"40":13021,"보수":13022,"오후":13023,"경험":13024,"##도♬가":13025,"안전":13026,"##자리":13027,"매우":13028,"##하냐":13029,"캐릭터":13030,"경영":13031,"범죄":13032,"만큼":13033,"기존":13034,"##했고":13035,"비교":13036,"사라":13037,"##♬성♬을":13038,"##더라":13039,"##시고":13040,"##음♬을":13041,"##이지만":13042,"도움":13043,"비판":13044,"전망":13045,"##이라도":13046,"솔직":13047,"비슷":13048,"없고":13049,"강화":13050,"스스로":13051,"##었던":13052,"거짓":13053,"##이버":13054,"시즌":13055,"##가고":13056,"기회":13057,"다르":13058,"##사♬는":13059,"수♬도":13060,"강조":13061,"##수♬를":13062,"♬자":13063,"##스♬를":13064,"사람♬은":13065,"바이":13066,"##스템":13067,"그대로":13068,"기관":13069,"##파트":13070,"##이니":13071,"##어난":13072,"##치♬를":13073,"스토리":13074,"##명♬이":13075,"##디어":13076,"##♬께":13077,"##♬질":13078,"인물":13079,"제작":13080,"##원♬을":13081,"안되":13082,"##인♬은":13083,"##지않":13084,"상승":13085,"특별":13086,"주변":13087,"밝혔다":13088,"아직♬도":13089,"이루":13090,"하는데":13091,"##이♬를":13092,"거래":13093,"원래":13094,"공동":13095,"대비":13096,"##한다는":13097,"활용":13098,"##영화":13099,"미친":13100,"구조":13101,"대신":13102,"연기":13103,"능력":13104,"##므로":13105,"자한":13106,"빨갱":13107,"##♬대로":13108,"##가리":13109,"##되었다":13110,"프로그램":13111,"다만":13112,"되고":13113,"분명":13114,"행복":13115,"위험":13116,"##인♬을":13117,"순간":13118,"##드는":13119,"##르는":13120,"제일":13121,"##자기":13122,"OOO":13123,"그때":13124,"시키":13125,"치료":13126,"##점♬을":13127,"라며":13128,"##시♬에":13129,"##위♬를":13130,"인생":13131,"21":13132,"은행":13133,"이♬를":13134,"조직":13135,"기간":13136,"김정":13137,"지속":13138,"##텐데":13139,"##♬야":13140,"부족":13141,"아무리":13142,"제♬가":13143,"##스♬가":13144,"24":13145,"##♬로서":13146,"##으면서":13147,"##보니":13148,"변화":13149,"바람":13150,"전혀":13151,"전부":13152,"##이기":13153,"##했다고":13154,"이♬에":13155,"##거지":13156,"다니":13157,"방식":13158,"##이♬는":13159,"##♬에선":13160,"병원":13161,"모습♬을":13162,"상품":13163,"되었다":13164,"저렇게":13165,"도록":13166,"항상":13167,"혼자":13168,"적용":13169,"인사":13170,"집중":13171,"비롯":13172,"##하니":13173,"##무원":13174,"가진":13175,"##라인":13176,"##번♬째":13177,"않는다":13178,"마스크":13179,"##마트":13180,"##명♬을":13181,"회장":13182,"##르고":13183,"##정한":13184,"주민":13185,"##있다":13186,"일단":13187,"출연":13188,"분야":13189,"전략":13190,"내년":13191,"아니면":13192,"충분":13193,"않았다":13194,"지켜":13195,"네이버":13196,"걱정":13197,"♬이나":13198,"확실":13199,"##♬계":13200,"##한데":13201,"개선":13202,"는데":13203,"##겠지만":13204,"##동산":13205,"뭔가":13206,"##었고":13207,"##스타":13208,"같은데":13209,"의견":13210,"♬처럼":13211,"##수록":13212,"대체":13213,"##자♬들":13214,"##리♬는":13215,"공산":13216,"##♬뿐":13217,"##은행":13218,"또는":13219,"높은":13220,"중앙":13221,"분위":13222,"##BS":13223,"더불":13224,"건설":13225,"##되면":13226,"적극":13227,"일♬이":13228,"보호":13229,"아마":13230,"솔직히":13231,"##기고":13232,"199":13233,"받고":13234,"나가":13235,"문제♬가":13236,"이러한":13237,"주요":13238,"고려":13239,"목표":13240,"달러":13241,"검사":13242,"크게":13243,"있지만":13244,"아님":13245,"열린":13246,"나오는":13247,"직원":13248,"우선":13249,"어렵":13250,"그걸":13251,"달리":13252,"##제♬를":13253,"##려면":13254,"##겠네":13255,"행사":13256,"노래":13257,"##건가":13258,"##때문♬에":13259,"신천":13260,"있던":13261,"궁금":13262,"##스♬는":13263,"22":13264,"일♬을":13265,"느끼":13266,"23":13267,"시스템":13268,"♬여":13269,"##을때":13270,"##감♬을":13271,"나서":13272,"##♬이다":13273,"드라마":13274,"그동안":13275,"인해":13276,"##더라도":13277,"있어서":13278,"수출":13279,"##되지":13280,"##라면":13281,"여행":13282,"중요한":13283,"##이터":13284,"아파트":13285,"가치":13286,"가까":13287,"매출":13288,"니♬가":13289,"의료":13290,"부동산":13291,"친일":13292,"##심히":13293,"음악":13294,"계약":13295,"##아야":13296,"다양한":13297,"##지지":13298,"##시장":13299,"실제로":13300,"가져":13301,"신경":13302,"수익":13303,"##먹고":13304,"##해주":13305,"보니":13306,"인터넷":13307,"정도♬로":13308,"##하다고":13309,"단체":13310,"자신♬이":13311,"여기♬서":13312,"자식":13313,"##기는":13314,"현장":13315,"##려서":13316,"다가":13317,"##요일":13318,"기분":13319,"관계자":13320,"출신":13321,"못하고":13322,"대회":13323,"등♬의":13324,"업무":13325,"그룹":13326,"갑자기":13327,"##하는게":13328,"조작":13329,"바라":13330,"사과":13331,"안보":13332,"##운동":13333,"각각":13334,"여론":13335,"##♬용":13336,"전♬에":13337,"움직":13338,"앞서":13339,"##에요":13340,"오래":13341,"##사♬의":13342,"유럽":13343,"없었다":13344,"차지":13345,"하면서":13346,"선동":13347,"영업":13348,"우리♬는":13349,"세월":13350,"##스♬의":13351,"생각♬이":13352,"##대♬를":13353,"##리면":13354,"방문":13355,"부담":13356,"기능":13357,"##지마":13358,"나라♬가":13359,"##해요":13360,"##건데":13361,"어쩌":13362,"##사업":13363,"습니다":13364,"##드시":13365,"가슴":13366,"설치":13367,"이전":13368,"발견":13369,"부정":13370,"##대한":13371,"##성♬을":13372,"##조건":13373,"저♬는":13374,"##사회":13375,"##났다":13376,"##간다":13377,"사망":13378,"##물♬을":13379,"대단":13380,"빨갱이":13381,"아닐":13382,"따라서":13383,"주식":13384,"##돼지":13385,"##성♬이":13386,"##으니까":13387,"나이":13388,"♬밖에":13389,"확보":13390,"자동차":13391,"들어가":13392,"##교육":13393,"##새끼":13394,"##상♬이":13395,"시절":13396,"##♬률":13397,"모르는":13398,"어머니":13399,"##내고":13400,"외교":13401,"회의":13402,"지도":13403,"총선":13404,"주택":13405,"언급":13406,"##봐라":13407,"열심히":13408,"먹고":13409,"최소":13410,"광고":13411,"##하였다":13412,"사람♬들♬은":13413,"새끼":13414,"##자인":13415,"공감":13416,"나와":13417,"##른다":13418,"통합":13419,"공급":13420,"##구요":13421,"아버지":13422,"우려":13423,"않을":13424,"불법":13425,"대응":13426,"보험":13427,"정확":13428,"##오는":13429,"전문가":13430,"LG":13431,"##던데":13432,"못하는":13433,"##군요":13434,"집단":13435,"선생":13436,"##하라":13437,"##억원":13438,"비해":13439,"인천":13440,"##정권":13441,"##♬생":13442,"##보는":13443,"국민♬들":13444,"안정":13445,"##구만":13446,"남편":13447,"##거다":13448,"##거든":13449,"떠나":13450,"끝나":13451,"있지":13452,"처리":13453,"##전자":13454,"##대표":13455,"영국":13456,"하다":13457,"지구":13458,"##러스":13459,"##냐고":13460,"가는":13461,"광주":13462,"##8년":13463,"싶은":13464,"시험":13465,"##수♬도":13466,"글로":13467,"공무원":13468,"목적":13469,"유명":13470,"밝혀":13471,"알았":13472,"보도":13473,"구속":13474,"작업":13475,"##만♬에":13476,"입니다":13477,"여러분":13478,"##시는":13479,"거기":13480,"국회의원":13481,"자금":13482,"사는":13483,"바뀌":13484,"오전":13485,"##♬보다♬는":13486,"##이션":13487,"##자♬들♬이":13488,"나올":13489,"##조차":13490,"무시":13491,"##리즈":13492,"본인":13493,"단순":13494,"##학생":13495,"뭐♬가":13496,"안타":13497,"가서":13498,"카드":13499,"정당":13500,"반응":13501,"전화":13502,"영화♬를":13503,"##대체":13504,"대책":13505,"갖고":13506,"26":13507,"##생각":13508,"참석":13509,"개혁":13510,"27":13511,"##명♬의":13512,"탄핵":13513,"##자♬로":13514,"여전":13515,"##이상":13516,"이익":13517,"과학":13518,"##국민":13519,"##어진":13520,"##전♬을":13521,"글로벌":13522,"##수♬는":13523,"했는데":13524,"시청":13525,"##의♬를":13526,"나쁜":13527,"평균":13528,"아베":13529,"##난다":13530,"사기":13531,"의사":13532,"지키":13533,"라이":13534,"괜찮":13535,"고민":13536,"영상":13537,"##이라면":13538,"시설":13539,"##5년":13540,"무서":13541,"##간♬에":13542,"##까요":13543,"보기":13544,"##너지":13545,"불가":13546,"이뤄":13547,"##7년":13548,"처벌":13549,"위치":13550,"SK":13551,"##9년":13552,"##이자":13553,"##거야":13554,"이♬는":13555,"희망":13556,"달라":13557,"반면":13558,"강력":13559,"아래":13560,"##트♬를":13561,"되었":13562,"##이어":13563,"##없다":13564,"선정":13565,"제도":13566,"28":13567,"♬당":13568,"##했지만":13569,"제외":13570,"이동":13571,"뉴스":13572,"실시":13573,"따른":13574,"##♬끼":13575,"도대체":13576,"신고":13577,"관광":13578,"반드시":13579,"공식":13580,"##문♬을":13581,"있으며":13582,"##왔다":13583,"주는":13584,"훨씬":13585,"##세계":13586,"브랜드":13587,"군대":13588,"##선♬을":13589,"장기":13590,"받은":13591,"##제♬가":13592,"의해":13593,"소설":13594,"싸우":13595,"어찌":13596,"60":13597,"진심":13598,"♬상":13599,"제시":13600,"있으면":13601,"신천지":13602,"거리":13603,"잡아":13604,"최초":13605,"##♬님♬이":13606,"프랑":13607,"##갔다":13608,"##지면":13609,"소재":13610,"아는":13611,"무조건":13612,"##당♬이":13613,"투표":13614,"도입":13615,"되면":13616,"♬뿐":13617,"젊은":13618,"아빠":13619,"소속":13620,"말씀":13621,"권력":13622,"##♬으로서":13623,"평화":13624,"하여":13625,"좋아요":13626,"하늘":13627,"##생활":13628,"##BC":13629,"수♬가":13630,"##내는":13631,"##듯이":13632,"독일":13633,"성격":13634,"따르면":13635,"핵심":13636,"##겠다고":13637,"TV":13638,"##워서":13639,"남성":13640,"공간":13641,"유치":13642,"##라서":13643,"생각♬을":13644,"##6년":13645,"##럼프":13646,"중소":13647,"인식":13648,"시행":13649,"청소":13650,"##준다":13651,"등♬이":13652,"##하다는":13653,"롯데":13654,"사람♬을":13655,"해라":13656,"##지게":13657,"많다":13658,"사태":13659,"♬이라고":13660,"생각해":13661,"아프":13662,"만약":13663,"각종":13664,"아름":13665,"스포":13666,"감염":13667,"오른":13668,"스마트":13669,"마치":13670,"종교":13671,"##받고":13672,"불안":13673,"##했을":13674,"나중♬에":13675,"자세":13676,"보유":13677,"일어나":13678,"소개":13679,"##일♬이":13680,"니♬들":13681,"자주":13682,"너희":13683,"##지역":13684,"##단체":13685,"##점♬이":13686,"가정":13687,"심각":13688,"통신":13689,"느껴":13690,"##원♬은":13691,"비용":13692,"그거":13693,"그♬가":13694,"##개월":13695,"##지♬에":13696,"예산":13697,"모델":13698,"인상":13699,"논란":13700,"##이크":13701,"아니냐":13702,"##겠습니다":13703,"이젠":13704,"증거":13705,"##위♬에":13706,"사장":13707,"##♬쯤":13708,"##관계":13709,"있게":13710,"내부":13711,"##수있":13712,"##인트":13713,"진실":13714,"협력":13715,"수입":13716,"어려운":13717,"되지":13718,"보통":13719,"##겠다는":13720,"빠져":13721,"독립":13722,"점점":13723,"센터":13724,"싶다":13725,"트럼프":13726,"방향":13727,"연결":13728,"##어버":13729,"장애":13730,"돈♬을":13731,"음식":13732,"최종":13733,"##시민":13734,"선보":13735,"안나":13736,"##림픽":13737,"##인♬들":13738,"변호":13739,"자료":13740,"##♬으로써":13741,"작은":13742,"##♬율":13743,"불구":13744,"증권":13745,"회복":13746,"맞는":13747,"인권":13748,"주제":13749,"쉽게":13750,"사무":13751,"##대♬에":13752,"거짓말":13753,"공연":13754,"감정":13755,"애♬들":13756,"감소":13757,"당연히":13758,"##레스":13759,"전투":13760,"두고":13761,"##금♬을":13762,"없을":13763,"실패":13764,"고통":13765,"담당":13766,"##잖아요":13767,"대화":13768,"나라♬를":13769,"형태":13770,"올려":13771,"누군":13772,"그려":13773,"##어들":13774,"승리":13775,"202":13776,"29":13777,"여전히":13778,"##영♬이":13779,"다♬들":13780,"신청":13781,"##대♬가":13782,"대선":13783,"이래":13784,"행정":13785,"미리":13786,"제목":13787,"전자":13788,"##하거나":13789,"한심":13790,"♬님":13791,"##일♬을":13792,"출시":13793,"청년":13794,"국민♬의":13795,"방안":13796,"##임♬을":13797,"##가♬를":13798,"##운드":13799,"##할때":13800,"개념":13801,"도와":13802,"주고":13803,"단계":13804,"지금♬까지":13805,"김정은":13806,"대출":13807,"무능":13808,"감동":13809,"##냈다":13810,"마을":13811,"♬형":13812,"##물♬이":13813,"추천":13814,"때♬는":13815,"시켜":13816,"아내":13817,"##디오":13818,"위원회":13819,"##머리":13820,"##되었":13821,"##여서":13822,"##4년":13823,"공공":13824,"##2년":13825,"더불어":13826,"들고":13827,"사례":13828,"업계":13829,"있도록":13830,"본격":13831,"니♬들♬이":13832,"플레이":13833,"자본":13834,"불러":13835,"##프로":13836,"개돼지":13837,"러시아":13838,"의혹":13839,"##♬로♬는":13840,"##♬하고":13841,"마찬":13842,"않아":13843,"진출":13844,"관한":13845,"오는":13846,"1년":13847,"주목":13848,"정부♬가":13849,"국정":13850,"##♬으로♬는":13851,"##이드":13852,"노조":13853,"말하는":13854,"스트":13855,"##수♬의":13856,"포기":13857,"제기":13858,"##조사":13859,"소득":13860,"국민♬이":13861,"자꾸":13862,"힘♬을":13863,"모양":13864,"배댓":13865,"있기":13866,"나온다":13867,"재판":13868,"그럴":13869,"좋다":13870,"조정":13871,"타이":13872,"좌빨":13873,"일으":13874,"싫어":13875,"가짜":13876,"전개":13877,"수도":13878,"##위원회":13879,"당장":13880,"이기":13881,"강남":13882,"합의":13883,"지급":13884,"##서♬를":13885,"차량":13886,"##작가":13887,"위기":13888,"발언":13889,"##♬들♬에":13890,"수요":13891,"교회":13892,"그나":13893,"70":13894,"개최":13895,"지금♬은":13896,"관계자♬는":13897,"자체♬가":13898,"이끌":13899,"아침":13900,"##♬로부터":13901,"전환":13902,"나타나":13903,"참가":13904,"하기":13905,"못하":13906,"##경제":13907,"전기":13908,"##했다는":13909,"제주":13910,"사실♬을":13911,"##그룹":13912,"##일보":13913,"살인":13914,"##♬별":13915,"없었":13916,"마찬가지":13917,"혐의":13918,"인도":13919,"조용":13920,"응원":13921,"국민♬을":13922,"바꾸":13923,"국민♬들♬이":13924,"##대♬의":13925,"고용":13926,"조성":13927,"교통":13928,"대형":13929,"불쌍":13930,"##3년":13931,"좋아하는":13932,"외국인":13933,"##두고":13934,"저거":13935,"코스":13936,"촬영":13937,"필요한":13938,"하락":13939,"##깨문":13940,"자산":13941,"##♬과♬의":13942,"31":13943,"##센터":13944,"##부♬는":13945,"공정":13946,"상관":13947,"파악":13948,"##시면":13949,"시리즈":13950,"받아들":13951,"##져서":13952,"##기관":13953,"##든지":13954,"시간♬이":13955,"오랜":13956,"만드는":13957,"이야기♬를":13958,"##체♬가":13959,"##마디":13960,"유일":13961,"부탁":13962,"매일":13963,"##움♬을":13964,"##등학교":13965,"##세♬를":13966,"조건":13967,"자격":13968,"아시아":13969,"##하였":13970,"전달":13971,"프리":13972,"##라리":13973,"기획":13974,"##부♬가":13975,"##건지":13976,"예술":13977,"기반":13978,"할머니":13979,"##민주":13980,"##♬와♬의":13981,"연출":13982,"온라인":13983,"이유♬가":13984,"힘든":13985,"환자":13986,"##부♬를":13987,"지하":13988,"초반":13989,"민족":13990,"유리":13991,"혹은":13992,"##장♬에서":13993,"##♬꾼":13994,"##도♬로":13995,"확진":13996,"##심♬을":13997,"진보":13998,"인기":13999,"평생":14000,"##장♬에":14001,"##스코":14002,"##원♬의":14003,"독재":14004,"##고있":14005,"대중":14006,"##식♬이":14007,"##식♬으로":14008,"##는거지":14009,"##란다":14010,"##리기":14011,"##하세요":14012,"재앙":14013,"받는":14014,"우승":14015,"##어라":14016,"충분히":14017,"것이라고":14018,"논의":14019,"동생":14020,"불과":14021,"##♬조차":14022,"자랑":14023,"##산업":14024,"아예":14025,"이사":14026,"##다운":14027,"그러면":14028,"성과":14029,"펀드":14030,"법무":14031,"참고":14032,"제한":14033,"##반기":14034,"##♬들♬만":14035,"그저":14036,"##뉴스":14037,"동시♬에":14038,"종합":14039,"##함♬을":14040,"##르게":14041,"대통령♬이":14042,"하며":14043,"연합":14044,"영어":14045,"♬별":14046,"##리♬에":14047,"##것♬이":14048,"없다는":14049,"경우♬가":14050,"이걸":14051,"구축":14052,"동물":14053,"##만한":14054,"차이":14055,"##지어":14056,"##아버":14057,"이라":14058,"##하기♬도":14059,"받을":14060,"하자":14061,"세월호":14062,"##♬라고":14063,"으며":14064,"분량":14065,"인수":14066,"했던":14067,"##소♬를":14068,"성적":14069,"전통":14070,"가입":14071,"이때":14072,"실적":14073,"쓰는":14074,"조치":14075,"##기♬의":14076,"##리♬의":14077,"어디♬서":14078,"받았":14079,"##분♬에":14080,"거나":14081,"말♬도":14082,"##1년":14083,"훈련":14084,"##시킨":14085,"##많은":14086,"관객":14087,"재산":14088,"##감♬이":14089,"보여주":14090,"저♬도":14091,"완전히":14092,"해석":14093,"##가♬가":14094,"좋겠다":14095,"지난달":14096,"나머":14097,"이유♬는":14098,"500":14099,"행위":14100,"##봐야":14101,"비난":14102,"##느냐":14103,"단지":14104,"없다고":14105,"안되는":14106,"##습니까":14107,"##♬이♬가":14108,"건물":14109,"그랬":14110,"생각하는":14111,"취업":14112,"##스러운":14113,"##던가":14114,"베뎃":14115,"됐다":14116,"배경":14117,"요청":14118,"구매":14119,"됩니다":14120,"별로":14121,"##장♬의":14122,"주로":14123,"198":14124,"최저":14125,"해주":14126,"##우고":14127,"금지":14128,"대깨문":14129,"##해보":14130,"반영":14131,"##개♬를":14132,"2년":14133,"가르":14134,"서민":14135,"약간":14136,"신문":14137,"입국":14138,"##♬만큼":14139,"자살":14140,"♬마":14141,"♬률":14142,"시도":14143,"자신♬을":14144,"철저":14145,"끌어":14146,"##것같":14147,"##아가":14148,"생긴":14149,"##였던":14150,"복지":14151,"##비♬를":14152,"개정":14153,"검토":14154,"화장":14155,"설립":14156,"특징":14157,"##시키는":14158,"과연":14159,"프랑스":14160,"수상":14161,"있었던":14162,"설정":14163,"##들고":14164,"##인거":14165,"굉장":14166,"돌아가":14167,"황교":14168,"일자리":14169,"구체":14170,"##회사":14171,"##대♬로":14172,"대변":14173,"차례":14174,"강제":14175,"##지말고":14176,"약속":14177,"##어지":14178,"##장관":14179,"않다":14180,"##이든":14181,"목소리":14182,"이명":14183,"봐도":14184,"남아":14185,"규제":14186,"연속":14187,"상당히":14188,"##가락":14189,"차별":14190,"##구♬가":14191,"어린이":14192,"##무리":14193,"##씨♬는":14194,"##리오":14195,"신뢰":14196,"##일♬에":14197,"80":14198,"집♬에":14199,"보이는":14200,"선발":14201,"##겠냐":14202,"남북":14203,"강한":14204,"일정":14205,"혁신":14206,"그건":14207,"생명":14208,"애초":14209,"혹시":14210,"장난":14211,"인지":14212,"##자♬들♬은":14213,"가만":14214,"##♬적이고":14215,"부문":14216,"홍보":14217,"##한게":14218,"##서♬는":14219,"불편":14220,"##당♬은":14221,"지♬들":14222,"토착":14223,"달려":14224,"##이죠":14225,"##웹툰":14226,"##롭게":14227,"상처":14228,"##♬끼리":14229,"생겼":14230,"정리":14231,"##시키고":14232,"속♬에서":14233,"나무":14234,"민간":14235,"##문화":14236,"쓰고":14237,"하는거":14238,"##스럽게":14239,"귀여":14240,"모르고":14241,"갈등":14242,"##차피":14243,"하게":14244,"끝♬까지":14245,"마음♬을":14246,"차라리":14247,"있으니":14248,"##한다면":14249,"피해자":14250,"멤버":14251,"근무":14252,"의심":14253,"부르":14254,"하이":14255,"##드♬를":14256,"평소":14257,"올리":14258,"통일":14259,"보다":14260,"전라도":14261,"덧붙":14262,"오빠":14263,"사상":14264,"상상":14265,"##예요":14266,"##구♬를":14267,"##나게":14268,"##겁니다":14269,"노무":14270,"##랐다":14271,"##체♬를":14272,"죽은":14273,"역할♬을":14274,"올림픽":14275,"##♬론":14276,"##♬과♬는":14277,"싸움":14278,"소비자":14279,"##가요":14280,"미사":14281,"번♬째":14282,"통과":14283,"적♬이":14284,"작년":14285,"##페이지":14286,"##려야":14287,"내놓":14288,"눈♬에":14289,"알바":14290,"어차피":14291,"없애":14292,"목숨":14293,"저희":14294,"위원장":14295,"수행":14296,"직업":14297,"벌써":14298,"위♬에":14299,"거지":14300,"공장":14301,"##놈♬들":14302,"인터뷰":14303,"도로":14304,"눈치":14305,"분위기":14306,"연예":14307,"##원♬에":14308,"대사":14309,"##주♬가":14310,"아무♬도":14311,"는다":14312,"재미있":14313,"연재":14314,"지지율":14315,"군사":14316,"것♬처럼":14317,"##계♬를":14318,"##같은데":14319,"##투자":14320,"가능♬성♬이":14321,"애니":14322,"역대":14323,"듣고":14324,"물어":14325,"있음":14326,"아닙":14327,"영화♬는":14328,"##가지고":14329,"있어야":14330,"분노":14331,"한마디":14332,"사람♬의":14333,"최고♬의":14334,"##♬에서♬의":14335,"희생":14336,"규정":14337,"항공":14338,"그린":14339,"3년":14340,"##프트":14341,"##싶다":14342,"##인줄":14343,"##대통령":14344,"##하려고":14345,"살고":14346,"##er":14347,"##아라":14348,"미세":14349,"##위♬가":14350,"이르":14351,"놓고":14352,"##도♬는":14353,"이해♬가":14354,"##국가":14355,"♬계":14356,"##인♬들♬이":14357,"자기♬가":14358,"##먹는":14359,"타고":14360,"##개발":14361,"거부":14362,"확산":14363,"비중":14364,"국방":14365,"굉장히":14366,"##쳤다":14367,"본다":14368,"중소기업":14369,"문제♬는":14370,"제안":14371,"##♬만♬이":14372,"##♬에♬만":14373,"300":14374,"##♬다":14375,"죽음":14376,"모습♬이":14377,"많아":14378,"충격":14379,"어쩔":14380,"##지원":14381,"##분♬이":14382,"심지어":14383,"무기":14384,"알게":14385,"♬째":14386,"확정":14387,"근거":14388,"자한♬당":14389,"##하려":14390,"일상":14391,"우주":14392,"##♬에게♬는":14393,"##드립":14394,"##지♬로":14395,"전해":14396,"##것♬을":14397,"##비♬가":14398,"공사":14399,"##이♬의":14400,"지배":14401,"고양":14402,"중♬에":14403,"##어♬를":14404,"그러니까":14405,"##바로":14406,"##50":14407,"여름":14408,"못할":14409,"이명박":14410,"비슷한":14411,"다행":14412,"엄청난":14413,"그림체":14414,"이라는":14415,"늘어":14416,"##사고":14417,"니♬네":14418,"민주주의":14419,"##할수":14420,"##신♬이":14421,"똑같":14422,"##정책":14423,"기념":14424,"어서":14425,"이재":14426,"##나는":14427,"적폐":14428,"10년":14429,"##랍니다":14430,"마이":14431,"질문":14432,"##리게":14433,"아쉬":14434,"##당한":14435,"##도♬의":14436,"영향♬을":14437,"고생":14438,"중간":14439,"시점":14440,"##국♬의":14441,"촛불":14442,"게다가":14443,"4월":14444,"부끄":14445,"공포":14446,"포인트":14447,"##셔서":14448,"나♬만":14449,"예전":14450,"##관리":14451,"근로":14452,"그나마":14453,"생기":14454,"보면서":14455,"분양":14456,"향후":14457,"말♬은":14458,"자녀":14459,"##봐도":14460,"앞♬에":14461,"♬서":14462,"혜택":14463,"우리♬의":14464,"것입니다":14465,"이곳":14466,"있다면":14467,"신규":14468,"특수":14469,"맨날":14470,"졸업":14471,"오르":14472,"임명":14473,"후반":14474,"스포츠":14475,"통한":14476,"에너지":14477,"청소년":14478,"없어서":14479,"비율":14480,"##리카":14481,"완벽":14482,"야당":14483,"제조":14484,"전시":14485,"만족":14486,"바꿔":14487,"새로":14488,"동일":14489,"##개혁":14490,"이제♬는":14491,"저지":14492,"##법♬을":14493,"당선":14494,"수♬밖에":14495,"##보기":14496,"눈물":14497,"뛰어":14498,"못했":14499,"옛날":14500,"된다고":14501,"나누":14502,"방침":14503,"♬용":14504,"마음♬이":14505,"액션":14506,"물건":14507,"등록":14508,"지식":14509,"##기술":14510,"정부♬는":14511,"##나오":14512,"♬두":14513,"안♬에":14514,"속♬에":14515,"등♬에":14516,"##위♬로":14517,"직장":14518,"완성":14519,"##아닌":14520,"노무현":14521,"주도":14522,"##은거":14523,"바탕":14524,"가득":14525,"신용":14526,"##시지":14527,"독자":14528,"판결":14529,"바보":14530,"우수":14531,"##져야":14532,"##자고":14533,"없는데":14534,"레이":14535,"##하다가":14536,"##세대":14537,"중단":14538,"돌려":14539,"있나":14540,"##심♬이":14541,"진정":14542,"##원♬에서":14543,"1000":14544,"임금":14545,"했지만":14546,"##씨♬가":14547,"##우스":14548,"축구":14549,"전반":14550,"난리":14551,"연애":14552,"특정":14553,"겁니다":14554,"보장":14555,"데이터":14556,"유통":14557,"슈퍼":14558,"표정":14559,"무섭":14560,"아닌데":14561,"겨울":14562,"##시대":14563,"경기도":14564,"##텐츠":14565,"##것♬들":14566,"저러":14567,"기초":14568,"시기":14569,"돼지":14570,"맞춰":14571,"가면":14572,"##하신":14573,"접근":14574,"##문제":14575,"불구하고":14576,"문제♬를":14577,"##해야지":14578,"논리":14579,"몰아":14580,"예정이다":14581,"잠시":14582,"##다른":14583,"따로":14584,"있어요":14585,"같아요":14586,"##것이다":14587,"나머지":14588,"월드":14589,"선물":14590,"##우는":14591,"분기":14592,"##활동":14593,"마무리":14594,"##가면":14595,"##거운":14596,"형성":14597,"거쳐":14598,"벌어":14599,"존나":14600,"리그":14601,"##선거":14602,"밝히":14603,"윤석":14604,"##기♬만":14605,"현지":14606,"공주":14607,"##행♬을":14608,"##진♬이":14609,"##았는데":14610,"매력":14611,"시간♬을":14612,"앞♬에서":14613,"수술":14614,"조합":14615,"##업체":14616,"##퓨터":14617,"##았던":14618,"##하라고":14619,"90":14620,"##받는":14621,"인구":14622,"바다":14623,"##♬제":14624,"협상":14625,"3월":14626,"소유":14627,"모자":14628,"굳이":14629,"봐야":14630,"기부":14631,"재정":14632,"##시설":14633,"이루어":14634,"##것♬은":14635,"내일":14636,"영화♬가":14637,"##가족":14638,"##사♬에":14639,"멍청":14640,"##해진":14641,"위안":14642,"##환경":14643,"##겠죠":14644,"##수♬로":14645,"##회♬를":14646,"나♬의":14647,"##신♬을":14648,"활성":14649,"제출":14650,"인한":14651,"나경":14652,"##연구":14653,"##인간":14654,"##지♬의":14655,"##됩니다":14656,"##스러":14657,"반복":14658,"##석♬이":14659,"변경":14660,"세대":14661,"것♬에":14662,"현상":14663,"디지":14664,"##드♬가":14665,"##이기♬도":14666,"인간♬이":14667,"뒤♬에":14668,"대전":14669,"비밀":14670,"노인":14671,"개봉":14672,"달창":14673,"시각":14674,"##10":14675,"만들고":14676,"있네":14677,"똑같은":14678,"일베":14679,"##는거야":14680,"6월":14681,"##치♬가":14682,"지정":14683,"##0년대":14684,"위협":14685,"##걸로":14686,"♬제":14687,"체험":14688,"KBS":14689,"##려라":14690,"원칙":14691,"##가♬는":14692,"결론":14693,"##증권":14694,"답답":14695,"도전":14696,"일제":14697,"협의":14698,"살펴":14699,"미안":14700,"##사♬로":14701,"개월":14702,"##온다":14703,"##트♬가":14704,"이상한":14705,"원인":14706,"으면":14707,"않으면":14708,"##케팅":14709,"그것♬도":14710,"5월":14711,"사전":14712,"그러니":14713,"월급":14714,"##분♬들":14715,"동네":14716,"임대":14717,"##마라":14718,"된다는":14719,"##보자":14720,"악플":14721,"지분":14722,"사법":14723,"일본♬이":14724,"나♬를":14725,"둘러":14726,"대박":14727,"##방송":14728,"믿고":14729,"일어":14730,"##♬권♬을":14731,"가능한":14732,"집안":14733,"호텔":14734,"디자인":14735,"##니스":14736,"베트":14737,"##거같":14738,"서울시":14739,"꾸준":14740,"저기":14741,"어른":14742,"만드":14743,"무대":14744,"그♬들♬의":14745,"반성":14746,"프로젝":14747,"가구":14748,"##거든요":14749,"손♬을":14750,"황교안":14751,"선언":14752,"##리어":14753,"##이익":14754,"달성":14755,"##하려는":14756,"수♬는":14757,"##도♬에":14758,"폭력":14759,"안하고":14760,"토론":14761,"##했습니다":14762,"애초♬에":14763,"선진":14764,"대기업":14765,"그♬를":14766,"박정":14767,"경북":14768,"와서":14769,"##없고":14770,"##♬께서":14771,"하시":14772,"##개♬의":14773,"의식":14774,"삼성전자":14775,"투입":14776,"관심♬을":14777,"컴퓨터":14778,"##왜구":14779,"정주":14780,"##♬만♬으로":14781,"♬생":14782,"초기":14783,"##리그":14784,"미세먼":14785,"계열":14786,"창업":14787,"##♬와♬는":14788,"시작했다":14789,"이름♬을":14790,"골프":14791,"##주♬를":14792,"인간♬의":14793,"금리":14794,"##부♬의":14795,"##단♬을":14796,"##일까":14797,"못했다":14798,"총리":14799,"사회♬적":14800,"##느라":14801,"##줘야":14802,"##약♬을":14803,"지랄":14804,"하나님":14805,"태양":14806,"##만화":14807,"##지요":14808,"마라":14809,"돈♬이":14810,"버스":14811,"파괴":14812,"눈♬을":14813,"일♬은":14814,"##아지":14815,"보였":14816,"진정한":14817,"9월":14818,"##20":14819,"##국♬에":14820,"짜증":14821,"나름":14822,"##사건":14823,"##나서":14824,"보상":14825,"비행":14826,"측면":14827,"어울":14828,"##장♬으로":14829,"MBC":14830,"마법":14831,"10월":14832,"##♬인":14833,"세력":14834,"##도시":14835,"등♬으로":14836,"35":14837,"원하는":14838,"##국♬이":14839,"바이러스":14840,"아무것♬도":14841,"최악":14842,"예방":14843,"##♬들♬한테":14844,"공유":14845,"말해":14846,"12월":14847,"이미지":14848,"##메라":14849,"채용":14850,"구분":14851,"절차":14852,"##었다고":14853,"잘생":14854,"도망":14855,"불가능":14856,"늘어나":14857,"##♬같이":14858,"블랙":14859,"##거라":14860,"사퇴":14861,"요소":14862,"공수":14863,"되는데":14864,"7월":14865,"♬엔":14866,"만♬에":14867,"벗어나":14868,"##주♬의":14869,"드디어":14870,"##적♬이":14871,"심리":14872,"발행":14873,"상황♬에서":14874,"무역":14875,"서울대":14876,"미치":14877,"하네":14878,"##조선":14879,"받았다":14880,"베트남":14881,"##♬감":14882,"울산":14883,"싫어요":14884,"##짜리":14885,"수업":14886,"운용":14887,"##in":14888,"어제":14889,"무너":14890,"하나♬의":14891,"외모":14892,"##학년":14893,"운전":14894,"##는가":14895,"취급":14896,"대우":14897,"못해":14898,"##시켰":14899,"택시":14900,"다소":14901,"보였다":14902,"맞아":14903,"조심":14904,"##아이":14905,"지♬가":14906,"##민♬이":14907,"중국인":14908,"크리스":14909,"그만큼":14910,"긴장":14911,"흔들":14912,"동료":14913,"##웠다":14914,"##마자":14915,"##래도":14916,"뭐냐":14917,"너무나":14918,"빠른":14919,"##말♬이":14920,"바닥":14921,"##이었던":14922,"온갖":14923,"여기♬에":14924,"스마트폰":14925,"한반":14926,"심판":14927,"의무":14928,"이벤":14929,"무리":14930,"한국인":14931,"같습니다":14932,"그렇지":14933,"없습니다":14934,"##이에요":14935,"하나♬도":14936,"없음":14937,"##부♬에":14938,"##하도록":14939,"귀엽":14940,"##명♬은":14941,"아나":14942,"있는지":14943,"말아":14944,"##있는데":14945,"스타일":14946,"##있고":14947,"리더":14948,"##♬으로부터":14949,"그것♬은":14950,"긍정":14951,"소녀":14952,"놀라":14953,"##보단":14954,"마케팅":14955,"8월":14956,"나섰":14957,"##이♬에":14958,"특성":14959,"너♬네":14960,"여자♬가":14961,"쿠키":14962,"향해":14963,"노동자":14964,"##위♬는":14965,"이♬와":14966,"동원":14967,"소통":14968,"##받은":14969,"아니라고":14970,"하니":14971,"문죄":14972,"회원":14973,"##30":14974,"그♬들♬은":14975,"주가":14976,"1월":14977,"거야":14978,"것♬과":14979,"왔다":14980,"##바일":14981,"##되면서":14982,"정작":14983,"미사일":14984,"##수준":14985,"이번♬에":14986,"변호사":14987,"##하니까":14988,"는지":14989,"##말로":14990,"방어":14991,"##이팅":14992,"KT":14993,"필요♬가":14994,"영웅":14995,"경남":14996,"확실히":14997,"효율":14998,"흐름":14999,"인제":15000,"똑같이":15001,"않을까":15002,"##주시":15003,"이하":15004,"그녀♬의":15005,"펼쳐":15006,"담배":15007,"휴대":15008,"페미":15009,"##친구":15010,"아닐까":15011,"##하셨":15012,"브라":15013,"단어":15014,"메이":15015,"풀어":15016,"전년":15017,"선생♬님":15018,"실험":15019,"출발":15020,"저녁":15021,"000":15022,"과정♬에서":15023,"##만큼":15024,"##관♬이":15025,"이성":15026,"대답":15027,"본부":15028,"금액":15029,"무식":15030,"##그러":15031,"극복":15032,"자원":15033,"##겠네요":15034,"데뷔":15035,"##주면":15036,"##경기":15037,"당신♬이":15038,"문재인♬이":15039,"손해":15040,"친일파":15041,"생각하고":15042,"준다":15043,"체계":15044,"라면":15045,"사회주의":15046,"부인":15047,"♬율":15048,"##사람♬이":15049,"##이네요":15050,"무료":15051,"##♬까지♬는":15052,"##세♬가":15053,"불리":15054,"영역":15055,"##하네요":15056,"스페":15057,"##시오":15058,"봤는데":15059,"같아":15060,"절반":15061,"##안♬을":15062,"남♬의":15063,"##♬보고":15064,"고소":15065,"##부모":15066,"아까":15067,"보니까":15068,"있었는데":15069,"소름":15070,"전했":15071,"내용♬이":15072,"그것♬을":15073,"이리":15074,"수많은":15075,"##선♬이":15076,"수십":15077,"##on":15078,"##달라고":15079,"물러":15080,"토착왜구":15081,"장소":15082,"남녀":15083,"내용♬을":15084,"덕분♬에":15085,"##간♬의":15086,"적절":15087,"모바일":15088,"헌법":15089,"가고":15090,"대상♬으로":15091,"죽을":15092,"디지털":15093,"악마":15094,"동의":15095,"사형":15096,"아냐":15097,"위반":15098,"이탈":15099,"##한국":15100,"높이":15101,"폭발":15102,"##인듯":15103,"몰랐":15104,"가까운":15105,"지금♬도":15106,"##규모":15107,"매년":15108,"위해서♬는":15109,"교사":15110,"집회":15111,"더러운":15112,"##라스":15113,"상황♬이":15114,"먹는":15115,"문학":15116,"몸♬을":15117,"다이":15118,"안된다":15119,"##나고":15120,"법무부":15121,"않게":15122,"집행":15123,"영원":15124,"두려":15125,"##력♬은":15126,"사람♬도":15127,"말♬로":15128,"그녀♬는":15129,"나선":15130,"언어":15131,"허용":15132,"##겼다":15133,"자극":15134,"##보네":15135,"##해지":15136,"197":15137,"따뜻":15138,"##이♬로":15139,"##미♬가":15140,"한국♬의":15141,"통화":15142,"깨끗":15143,"##니아":15144,"대가리":15145,"테러":15146,"##자♬와":15147,"원작":15148,"조용히":15149,"##우♬가":15150,"정치인":15151,"외부":15152,"전형":15153,"##전♬이":15154,"매각":15155,"이유♬로":15156,"##때♬는":15157,"유튜":15158,"실망":15159,"본인♬이":15160,"##자♬들♬의":15161,"양심":15162,"##독교":15163,"드립":15164,"가만히":15165,"미국♬의":15166,"너♬는":15167,"작용":15168,"잘못된":15169,"여당":15170,"도움♬이":15171,"##♬마저":15172,"##♬만♬을":15173,"보건":15174,"사실상":15175,"##자♬에":15176,"검색":15177,"대해서♬는":15178,"2월":15179,"2차":15180,"##문♬이":15181,"그것♬이":15182,"말♬에":15183,"##군♬이":15184,"##받아":15185,"인증":15186,"아름다운":15187,"영화♬의":15188,"2000":15189,"강원":15190,"가수":15191,"언니":15192,"##량♬이":15193,"인근":15194,"##스토":15195,"채권":15196,"##단♬이":15197,"싶어":15198,"일주":15199,"누리":15200,"예고":15201,"##림♬이":15202,"##었을":15203,"모아":15204,"처음♬으로":15205,"아닙니다":15206,"소송":15207,"웃음":15208,"##잡고":15209,"별점":15210,"연금":15211,"11월":15212,"높아":15213,"설명했다":15214,"##정보":15215,"##거래":15216,"수호":15217,"부여":15218,"연장":15219,"프레":15220,"하던":15221,"##이였":15222,"전용":15223,"방역":15224,"유니":15225,"##하러":15226,"인데":15227,"명예":15228,"홍콩":15229,"커피":15230,"##했으면":15231,"하는게":15232,"종목":15233,"비리":15234,"내리":15235,"통해서":15236,"건축":15237,"눈♬이":15238,"##면서♬도":15239,"사항":15240,"##기사":15241,"나눠":15242,"바랍니다":15243,"정부♬의":15244,"기여":15245,"놈♬들":15246,"일본♬의":15247,"일본♬은":15248,"사이♬에":15249,"##카드":15250,"들여":15251,"이럴":15252,"콘텐츠":15253,"프로젝트":15254,"체제":15255,"수용":15256,"##플레이":15257,"추정":15258,"도착":15259,"아동":15260,"구입":15261,"있을까":15262,"체결":15263,"총장":15264,"##화♬가":15265,"공수처":15266,"##겠어요":15267,"##관♬을":15268,"폐지":15269,"들어오":15270,"예♬를":15271,"주말":15272,"정규":15273,"인력":15274,"중심♬으로":15275,"순수":15276,"부모♬님":15277,"앉아":15278,"##시킬":15279,"훌륭":15280,"의한":15281,"시위":15282,"##하는건":15283,"이상♬의":15284,"걸어":15285,"##조작":15286,"##돌아":15287,"##an":15288,"계산":15289,"작성":15290,"상징":15291,"##보험":15292,"우한":15293,"떠올":15294,"이나라":15295,"##♬루":15296,"진단":15297,"반도":15298,"##쳐서":15299,"##나무":15300,"지시":15301,"낮은":15302,"수정":15303,"##대는":15304,"제2":15305,"식품":15306,"뒤집":15307,"##건설":15308,"애플":15309,"축하":15310,"##사♬와":15311,"소중":15312,"카메라":15313,"점♬을":15314,"보지":15315,"국민♬들♬은":15316,"정치♬적":15317,"잡고":15318,"설계":15319,"피부":15320,"가끔":15321,"통제":15322,"흘러":15323,"신♬의":15324,"##나♬는":15325,"##이니까":15326,"냄새":15327,"##하기♬로":15328,"##량♬을":15329,"팩트":15330,"보이지":15331,"##리티":15332,"##으려고":15333,"해야지":15334,"기계":15335,"배치":15336,"삶♬을":15337,"5년":15338,"다면서":15339,"감옥":15340,"힘♬이":15341,"좋았":15342,"##쓰고":15343,"36":15344,"##영업":15345,"##주택":15346,"나와서":15347,"집♬에서":15348,"왠지":15349,"##있어":15350,"상담":15351,"뉴욕":15352,"##진짜":15353,"간다":15354,"부부":15355,"케이":15356,"##했으며":15357,"감안":15358,"##실♬을":15359,"상황♬을":15360,"남자♬가":15361,"마음♬에":15362,"##길래":15363,"##한건":15364,"##대♬는":15365,"##전♬에서":15366,"한나라":15367,"뭐라":15368,"##위해":15369,"합리":15370,"생존":15371,"##속♬에":15372,"내내":15373,"맞추":15374,"어떠":15375,"언제나":15376,"에이":15377,"있냐":15378,"평범":15379,"연락":15380,"45":15381,"봐라":15382,"회담":15383,"시원":15384,"##누리":15385,"나타났":15386,"없네":15387,"스킬":15388,"만난":15389,"후♬에":15390,"이중":15391,"51":15392,"다면":15393,"##리스트":15394,"##리며":15395,"자한당":15396,"예측":15397,"글♬을":15398,"법률":15399,"##가♬의":15400,"보자":15401,"억울":15402,"실천":15403,"법인":15404,"전했다":15405,"어이":15406,"##시♬가":15407,"##바리":15408,"백신":15409,"봉사":15410,"##세기":15411,"새벽":15412,"전세계":15413,"반일":15414,"나갈":15415,"##버린":15416,"##함♬이":15417,"##라니":15418,"다녀":15419,"비상":15420,"##려나":15421,"심사":15422,"##길♬을":15423,"교체":15424,"##놓은":15425,"정체":15426,"뭐야":15427,"##질♬을":15428,"매국":15429,"안타깝":15430,"##티브":15431,"##로♬를":15432,"##상♬에":15433,"♬씩":15434,"##이라니":15435,"##었지만":15436,"##드♬의":15437,"##라지":15438,"개그":15439,"##점♬은":15440,"화려":15441,"##말♬을":15442,"모른다":15443,"세상♬에":15444,"대처":15445,"이♬들♬은":15446,"밀어":15447,"자리♬를":15448,"##료♬를":15449,"흥미":15450,"베이":15451,"길♬을":15452,"당국":15453,"##워크":15454,"우연":15455,"인재":15456,"인간♬들":15457,"쏟아":15458,"가게":15459,"##히는":15460,"떨어진":15461,"왜이":15462,"그렇다고":15463,"조국♬이":15464,"투쟁":15465,"웃기":15466,"여부":15467,"한다면":15468,"정주행":15469,"##안♬에":15470,"제1":15471,"비정":15472,"나쁘":15473,"할인":15474,"자아":15475,"##달러":15476,"스크":15477,"거기♬에":15478,"알아서":15479,"남은":15480,"있으":15481,"##경♬이":15482,"없지":15483,"야구":15484,"전날":15485,"학습":15486,"##원♬으로":15487,"집값":15488,"##것♬들♬이":15489,"데려":15490,"라인":15491,"##고♬를":15492,"관심♬이":15493,"불만":15494,"기울":15495,"정신차":15496,"최소한":15497,"대로":15498,"##하겠다":15499,"개소리":15500,"내세":15501,"사람♬들♬의":15502,"마지막♬에":15503,"예비":15504,"유시민":15505,"##본다":15506,"쓰러":15507,"장비":15508,"공산주의":15509,"##아치":15510,"꾸준히":15511,"화면":15512,"공모":15513,"##대학":15514,"##주♬는":15515,"한계":15516,"먹을":15517,"속도":15518,"##시길":15519,"말할":15520,"##사랑":15521,"##모리":15522,"패션":15523,"창조":15524,"고위":15525,"홈페이지":15526,"아니야":15527,"##금융":15528,"가능♬성":15529,"출전":15530,"편의":15531,"실질":15532,"생겨":15533,"박정희":15534,"아쉽":15535,"애♬들♬이":15536,"##금지":15537,"들어서":15538,"주문":15539,"미군":15540,"적어도":15541,"소리♬를":15542,"제거":15543,"이♬들":15544,"간단":15545,"1위":15546,"탄생":15547,"명령":15548,"공산당":15549,"말한다":15550,"정신병":15551,"이승":15552,"##댓글":15553,"이정도":15554,"최순":15555,"연습":15556,"##제품":15557,"##쪽♬으로":15558,"말한":15559,"지♬들♬이":15560,"##었습니다":15561,"##피소":15562,"검은":15563,"##일♬부터":15564,"상대♬로":15565,"##이♬들":15566,"윤석열":15567,"##되기":15568,"사이트":15569,"생각한다":15570,"원내":15571,"##놈♬이":15572,"좋을":15573,"설마":15574,"기독교":15575,"태극":15576,"##지기":15577,"##드♬는":15578,"아무런":15579,"반도체":15580,"##인가요":15581,"도덕":15582,"##하는지":15583,"##회의":15584,"부상":15585,"##로그":15586,"것♬들♬이":15587,"신기":15588,"기소":15589,"가해":15590,"공항":15591,"##사는":15592,"겨우":15593,"##리자":15594,"##격♬을":15595,"이른":15596,"창출":15597,"것♬들":15598,"이슈":15599,"생각합니다":15600,"나오고":15601,"##따라":15602,"제정":15603,"결코":15604,"카페":15605,"##임금":15606,"챙겨":15607,"##바이":15608,"##리♬로":15609,"##기간":15610,"##방♬에":15611,"무서운":15612,"보게":15613,"나왔다":15614,"옆♬에":15615,"안좋":15616,"##거면":15617,"##먹을":15618,"32":15619,"정은":15620,"입고":15621,"##하시는":15622,"전남":15623,"혼란":15624,"없으면":15625,"쇼핑":15626,"등등":15627,"대통령♬은":15628,"가까이":15629,"뻔뻔":15630,"사랑♬을":15631,"집권":15632,"강력한":15633,"실현":15634,"##지마라":15635,"상식":15636,"채널":15637,"체육":15638,"다루":15639,"이론":15640,"통계":15641,"소년":15642,"안돼":15643,"올랐":15644,"이혼":15645,"이벤트":15646,"의도":15647,"나오면":15648,"##소득":15649,"할아버":15650,"활약":15651,"##질♬이":15652,"##대회":15653,"수석":15654,"가야":15655,"알려졌":15656,"클럽":15657,"##소리♬를":15658,"##라♬가":15659,"유사":15660,"김영":15661,"모여":15662,"분명히":15663,"##야말로":15664,"보낸":15665,"다음♬화":15666,"##서관":15667,"##어야지":15668,"청문":15669,"##자체":15670,"##대가리":15671,"##진♬을":15672,"틀딱":15673,"떠오":15674,"##이라며":15675,"아저":15676,"##호♬가":15677,"SBS":15678,"근본":15679,"♬마다":15680,"더이상":15681,"계획이다":15682,"##항공":15683,"판사":15684,"주사":15685,"철학":15686,"##유♬의":15687,"취소":15688,"나경원":15689,"유튜브":15690,"##범죄":15691,"##기♬와":15692,"기타":15693,"안내":15694,"##친다":15695,"실력":15696,"불매":15697,"##메이션":15698,"##나가":15699,"2015년":15700,"물리":15701,"느낄":15702,"##점♬으로":15703,"오픈":15704,"억지":15705,"작가♬님♬이":15706,"못하게":15707,"##차♬를":15708,"간첩":15709,"죽여":15710,"압박":15711,"##들아":15712,"##남불":15713,"때♬마다":15714,"한화":15715,"앨범":15716,"않나":15717,"현금":15718,"##바닥":15719,"몰라":15720,"지상":15721,"가능하다":15722,"##까봐":15723,"소식":15724,"수학":15725,"##겠어":15726,"상장":15727,"##군♬의":15728,"칭찬":15729,"감성":15730,"방해":15731,"##구조":15732,"##분♬을":15733,"##진♬은":15734,"##경♬을":15735,"그♬들♬이":15736,"개입":15737,"##19":15738,"이외":15739,"미술":15740,"##거냐":15741,"인류":15742,"여주":15743,"##게임":15744,"끝내":15745,"애국":15746,"초딩":15747,"저번":15748,"잠깐":15749,"이용해":15750,"그곳":15751,"동시":15752,"지수":15753,"때려":15754,"##일♬까지":15755,"최대한":15756,"밑♬에":15757,"모두♬가":15758,"식♬으로":15759,"선배":15760,"피해♬를":15761,"등급":15762,"갖추":15763,"소환":15764,"이름♬이":15765,"##♬들♬로":15766,"추구":15767,"초등":15768,"##화점":15769,"##정치":15770,"오해":15771,"모른":15772,"##받을":15773,"광화":15774,"손가락":15775,"##상태":15776,"만한":15777,"미세먼지":15778,"2016년":15779,"관련된":15780,"리얼":15781,"가라":15782,"처음♬부터":15783,"##호♬를":15784,"출마":15785,"수수":15786,"##라우":15787,"확률":15788,"##평가":15789,"괴롭":15790,"전면":15791,"##던지":15792,"일부러":15793,"돌아오":15794,"##♬보다♬도":15795,"단순히":15796,"상위":15797,"동성":15798,"동아":15799,"##리트":15800,"수능":15801,"경우♬에♬는":15802,"이달":15803,"해소":15804,"아니지만":15805,"경우♬는":15806,"##거고":15807,"##♬짜리":15808,"뽑아":15809,"##회장":15810,"##TV":15811,"고백":15812,"##된다고":15813,"미디어":15814,"##♬님♬은":15815,"확장":15816,"당신♬은":15817,"복귀":15818,"빼고":15819,"##♬두":15820,"법원":15821,"##여자":15822,"##서♬가":15823,"분리":15824,"##럽게":15825,"##개♬가":15826,"아이템":15827,"##먹은":15828,"사람♬들♬을":15829,"장르":15830,"재밌게":15831,"없지만":15832,"어깨":15833,"국토":15834,"정도♬의":15835,"무한":15836,"키우":15837,"##기지":15838,"##라며":15839,"33":15840,"다를":15841,"##기에":15842,"##정♬은":15843,"살려":15844,"이것♬은":15845,"그리스":15846,"플랫":15847,"국무":15848,"##단다":15849,"##피스":15850,"##당히":15851,"##우♬는":15852,"주의":15853,"고향":15854,"증명":15855,"것이었다":15856,"안철":15857,"미국♬이":15858,"연계":15859,"아르":15860,"듯한":15861,"대부분♬의":15862,"196":15863,"##치게":15864,"##싶은":15865,"##인♬으로":15866,"34":15867,"##였는데":15868,"38":15869,"##종♬의":15870,"여유":15871,"##ar":15872,"다리":15873,"##없어":15874,"##♬화♬를":15875,"##♬보단":15876,"경쟁력":15877,"키워":15878,"많은데":15879,"청구":15880,"차이♬가":15881,"기생":15882,"감사합니다":15883,"에피소":15884,"팔아":15885,"보여주는":15886,"네트":15887,"##애♬들":15888,"하냐":15889,"전력":15890,"느낌♬이":15891,"니♬들♬은":15892,"정보♬를":15893,"진지":15894,"상호":15895,"오지":15896,"관람":15897,"느낀":15898,"평등":15899,"자전":15900,"종북":15901,"설득":15902,"오늘♬도":15903,"##치지":15904,"수원":15905,"거듭":15906,"##한번":15907,"##니깐":15908,"##주지":15909,"한국♬은":15910,"##든가":15911,"필요하다":15912,"저게":15913,"말이다":15914,"고발":15915,"##아니라":15916,"차단":15917,"##상♬은":15918,"왜냐":15919,"어려움":15920,"끝난":15921,"점♬에서":15922,"했고":15923,"##방♬을":15924,"과제":15925,"점검":15926,"아니지":15927,"##수수":15928,"모집":15929,"착각":15930,"수치":15931,"빠르":15932,"지옥":15933,"깊은":15934,"이웃":15935,"대놓고":15936,"정확히":15937,"한데":15938,"##상황":15939,"##복♬을":15940,"부품":15941,"한반도":15942,"박사":15943,"있었고":15944,"세상♬을":15945,"##거임":15946,"인공":15947,"99":15948,"갈수록":15949,"요리":15950,"바란다":15951,"영혼":15952,"갔다":15953,"##일♬은":15954,"2017년":15955,"##♬적이다":15956,"##로♬가":15957,"##되는데":15958,"대만":15959,"##♬층":15960,"##비아":15961,"커플":15962,"##로지":15963,"교과":15964,"##안♬이":15965,"참고♬로":15966,"진입":15967,"##or":15968,"힘내":15969,"##는거다":15970,"대변인":15971,"복잡":15972,"내고":15973,"##카오":15974,"청원":15975,"재난":15976,"##그리":15977,"##음♬이":15978,"##프라":15979,"##져라":15980,"♬한테":15981,"사실♬은":15982,"둘♬이":15983,"걸쳐":15984,"문빠":15985,"라헬":15986,"##버리":15987,"경우♬도":15988,"발사":15989,"떨어지":15990,"투자자":15991,"##적♬을":15992,"##시♬는":15993,"##어♬가":15994,"##긴다":15995,"##정♬에":15996,"반발":15997,"했으나":15998,"##♬자♬가":15999,"종류":16000,"겁나":16001,"때♬도":16002,"작가♬의":16003,"##뮤니":16004,"얼굴♬을":16005,"부활":16006,"뛰어난":16007,"국민♬은":16008,"성폭":16009,"찬성":16010,"바른":16011,"너♬도":16012,"매수":16013,"협박":16014,"##동생":16015,"북한♬이":16016,"공천":16017,"유도":16018,"물고":16019,"노출":16020,"빨간":16021,"대기":16022,"여야":16023,"분♬들":16024,"괜히":16025,"##이라서":16026,"##노총":16027,"보조":16028,"##터리":16029,"최강":16030,"5000":16031,"검증":16032,"1인":16033,"들었다":16034,"사귀":16035,"아이♬가":16036,"고등학교":16037,"성능":16038,"인가":16039,"했다고":16040,"지루":16041,"발휘":16042,"조선일보":16043,"##버스":16044,"그♬에":16045,"2014년":16046,"직후":16047,"완화":16048,"이란":16049,"착한":16050,"##보내":16051,"##배우":16052,"##히고":16053,"##가♬에":16054,"투기":16055,"배달":16056,"##있네":16057,"2018년":16058,"원전":16059,"00":16060,"후회":16061,"##사람♬들":16062,"##여행":16063,"가량":16064,"##드리":16065,"연구원":16066,"배뎃":16067,"필수":16068,"짱깨":16069,"##의식":16070,"생각하면":16071,"소방":16072,"것이라는":16073,"기회♬를":16074,"김대":16075,"할수":16076,"경상":16077,"줄어들":16078,"##장♬과":16079,"자영업":16080,"지휘":16081,"이지":16082,"화학":16083,"때♬까지":16084,"입학":16085,"한미":16086,"위안부":16087,"표시":16088,"협회":16089,"##그래":16090,"##때♬마다":16091,"고급":16092,"재무":16093,"아이디어":16094,"♬보고":16095,"몰려":16096,"##명♬으로":16097,"패배":16098,"죽어":16099,"유료":16100,"결제":16101,"투명":16102,"방사":16103,"##슬람":16104,"##직원":16105,"둘다":16106,"어야":16107,"##영상":16108,"멀리":16109,"##단♬의":16110,"했으며":16111,"##겠는데":16112,"인민":16113,"육성":16114,"KB":16115,"철저히":16116,"애니메이션":16117,"대다":16118,"둘째":16119,"##공사":16120,"손♬에":16121,"##되서":16122,"올린":16123,"##나면":16124,"##미터":16125,"답변":16126,"응답":16127,"최순실":16128,"내♬로":16129,"아닌가요":16130,"못한다":16131,"국립":16132,"중간♬에":16133,"그렇고":16134,"동기":16135,"멋진":16136,"비례":16137,"고정":16138,"##부대":16139,"##시절":16140,"어요":16141,"##줌마":16142,"##용♬이":16143,"연간":16144,"월드컵":16145,"이번♬화":16146,"배신":16147,"가을":16148,"제재":16149,"지하철":16150,"모르겠다":16151,"엄마♬가":16152,"돌파":16153,"거기♬서":16154,"##현♬이":16155,"법♬을":16156,"그러고":16157,"양성":16158,"다름":16159,"현대차":16160,"매장":16161,"##비♬는":16162,"좋지":16163,"보인":16164,"##♬란":16165,"자율":16166,"이런거":16167,"이것♬이":16168,"##피언":16169,"♬로부터":16170,"중국♬에":16171,"##었으면":16172,"부대":16173,"어릴":16174,"맞고":16175,"고마":16176,"##장면":16177,"##향♬이":16178,"순위":16179,"상황♬에":16180,"생각♬은":16181,"책임♬을":16182,"자존":16183,"탈출":16184,"날아":16185,"실업":16186,"##전♬의":16187,"얘기♬를":16188,"줄어":16189,"이탈리아":16190,"남한":16191,"##전쟁":16192,"스테":16193,"학원":16194,"옹호":16195,"##주♬에":16196,"조선족":16197,"이민":16198,"일본♬에":16199,"경고":16200,"균형":16201,"주지":16202,"2018":16203,"무려":16204,"파트":16205,"세종":16206,"자전거":16207,"##상♬의":16208,"노예":16209,"세워":16210,"##였고":16211,"##해주는":16212,"악화":16213,"대학생":16214,"감독♬은":16215,"##다시":16216,"단독":16217,"##함♬으로써":16218,"방지":16219,"##된다는":16220,"언젠":16221,"검찰개혁":16222,"상반기":16223,"아울":16224,"##NS":16225,"이야기♬가":16226,"보안":16227,"성인":16228,"식당":16229,"형사":16230,"의지":16231,"부분♬이":16232,"##스♬와":16233,"일찍":16234,"수단":16235,"헤어":16236,"그다":16237,"##소♬가":16238,"책♬을":16239,"##점♬에서":16240,"대법":16241,"##동♬을":16242,"것이고":16243,"올라가":16244,"누구♬나":16245,"분류":16246,"떨어져":16247,"동양":16248,"IT":16249,"##♬님♬의":16250,"신체":16251,"씨♬는":16252,"##렀다":16253,"마주":16254,"느꼈":16255,"능력♬을":16256,"개판":16257,"김성":16258,"마침":16259,"정신♬이":16260,"##았고":16261,"##미♬를":16262,"봅니다":16263,"보이고":16264,"##연♬이":16265,"청문회":16266,"대결":16267,"##더만":16268,"##자나":16269,"받지":16270,"넘는":16271,"수준♬이":16272,"텔레":16273,"동맹":16274,"배려":16275,"당사":16276,"존경":16277,"##스포":16278,"안♬에서":16279,"한명":16280,"삶♬의":16281,"얻어":16282,"털어":16283,"아웃":16284,"커뮤니":16285,"공약":16286,"한정":16287,"##데이":16288,"모를":16289,"기준♬으로":16290,"뒤♬로":16291,"##이던":16292,"##을텐데":16293,"##협회":16294,"입주":16295,"이다":16296,"##소리♬가":16297,"중인":16298,"##하지말고":16299,"페이스":16300,"##셔야":16301,"##스티":16302,"400":16303,"##년♬이":16304,"시나":16305,"유명한":16306,"들어간":16307,"##자산":16308,"##시♬를":16309,"도움♬을":16310,"데리고":16311,"새누리":16312,"##동♬이":16313,"마약":16314,"##♬으":16315,"비롯한":16316,"##연금":16317,"2012년":16318,"##세력":16319,
[...]
