<pad>	0
<unk>	0
<s>	0
</s>	0
[UNK0]	0
[UNK1]	0
[UNK2]	0
[UNK3]	0
[UNK4]	0
[UNK5]	0
[UNK6]	0
[UNK7]	0
[UNK8]	0
[UNK9]	0
[unused0]	0
[unused1]	0
[unused2]	0
[unused3]	0
[unused4]	0
[unused5]	0
[unused6]	0
[unused7]	0
[unused8]	0
[unused9]	0
[unused10]	0
[unused11]	0
[unused12]	0
[unused13]	0
[unused14]	0
[unused15]	0
[unused16]	0
[unused17]	0
[unused18]	0
[unused19]	0
[unused20]	0
[unused21]	0
[unused22]	0
[unused23]	0
[unused24]	0
[unused25]	0
[unused26]	0
[unused27]	0
[unused28]	0
[unused29]	0
[unused30]	0
[unused31]	0
[unused32]	0
[unused33]	0
[unused34]	0
[unused35]	0
[unused36]	0
[unused37]	0
[unused38]	0
[unused39]	0
[unused40]	0
[unused41]	0
[unused42]	0
[unused43]	0
[unused44]	0
[unused45]	0
[unused46]	0
[unused47]	0
[unused48]	0
[unused49]	0
[unused50]	0
[unused51]	0
[unused52]	0
[unused53]	0
[unused54]	0
[unused55]	0
[unused56]	0
[unused57]	0
[unused58]	0
[unused59]	0
[unused60]	0
[unused61]	0
[unused62]	0
[unused63]	0
[unused64]	0
[unused65]	0
[unused66]	0
[unused67]	0
[unused68]	0
[unused69]	0
[unused70]	0
[unused71]	0
[unused72]	0
[unused73]	0
[unused74]	0
[unused75]	0
[unused76]	0
[unused77]	0
[unused78]	0
[unused79]	0
[unused80]	0
[unused81]	0
[unused82]	0
[unused83]	0
[unused84]	0
[unused85]	0
[unused86]	0
[unused87]	0
[unused88]	0
[unused89]	0
[unused90]	0
[unused91]	0
[unused92]	0
[unused93]	0
[unused94]	0
[unused95]	0
[unused96]	0
[unused97]	0
[unused98]	0
[unused99]	0
▁.	-3.39354
▁이	-3.46702
▁는	-3.63132
▁하	-3.84595
▁을	-3.97742
▁다	-4.04844
▁고	-4.09147
▁에	-4.17421
▁의	-4.20605
▁은	-4.24939
▁가	-4.33891
▁들	-4.37712
▁,	-4.47692
▁를	-4.61865
▁도	-4.66104
▁있	-4.69682
▁한	-4.79385
▁지	-4.87951
▁으로	-5.1098
▁것	-5.17233
▁게	-5.17647
▁로	-5.21405
▁에서	-5.2366
▁?	-5.26357
▁되	-5.3665
▁어	-5.41301
▁었	-5.46951
▁적	-5.48218
▁면	-5.48884
▁그	-5.5201
▁기	-5.53013
▁나	-5.60709
▁없	-5.63247
▁과	-5.64771
▁만	-5.69063
▁말	-5.7046
▁수	-5.70872
▁했	-5.72886
▁아	-5.75497
▁거	-5.767
▁인	-5.77625
▁안	-5.8461
▁할	-5.86632
▁보	-5.91081
▁일	-5.91738
▁해	-5.94461
▁않	-5.97819
▁네	-5.98853
▁와	-5.9892
▁사람	-6.0215
▁..	-6.03596
▁니	-6.07732
▁주	-6.09133
▁년	-6.0978
▁자	-6.16912
▁는데	-6.19195
▁아니	-6.19955
▁냐	-6.21398
▁라	-6.22964
▁한다	-6.2461
▁같	-6.25863
▁겠	-6.27905
▁	-6.33516
▁!	-6.34371
▁라고	-6.36107
▁던	-6.38005
▁때	-6.38214
▁에게	-6.38614
▁나라	-6.41715
▁내	-6.45017
▁지만	-6.4518
▁국민	-6.45894
▁받	-6.46192
▁서	-6.49513
▁야	-6.51777
▁았	-6.5296
▁더	-6.5645
▁며	-6.57111
▁까지	-6.58253
▁우리	-6.58477
▁다고	-6.58499
▁생각	-6.61861
▁시	-6.64191
▁1	-6.64413
▁대	-6.65761
▁된	-6.68295
▁알	-6.68466
▁~	-6.70667
▁라는	-6.73004
▁면서	-6.73653
▁좋	-6.73663
▁여	-6.75076
▁다는	-6.76982
▁잘	-6.77968
▁2	-6.80293
▁때문	-6.82477
▁개	-6.83762
▁못	-6.85013
▁많	-6.86882
▁해서	-6.88142
▁이나	-6.88504
▁일본	-6.89545
▁등	-6.90369
▁중	-6.90788
▁였	-6.909
▁성	-6.91123
▁전	-6.92063
▁왜	-6.92559
▁이런	-6.92667
▁습니다	-6.92794
▁살	-6.94096
▁좀	-6.97479
▁문	-6.98469
▁3	-6.99662
▁으면	-7.00388
▁-	-7.00487
▁보다	-7.01751
▁건	-7.03347
▁지금	-7.05434
▁저	-7.05544
▁사	-7.06229
▁월	-7.06529
▁돈	-7.08344
▁당	-7.08712
▁뭐	-7.09942
▁문제	-7.11592
▁해야	-7.1216
▁한국	-7.12336
▁번	-7.12775
▁:	-7.13929
지	-7.14383
▁화	-7.15011
▁두	-7.16119
▁된다	-7.16296
▁부터	-7.16783
▁데	-7.18544
▁중국	-7.20438
▁하나	-7.20814
▁먹	-7.2129
▁정부	-7.21317
▁자신	-7.2183
▁인간	-7.22413
▁그리고	-7.22574
▁오	-7.23573
▁명	-7.24007
▁대통령	-7.24119
▁다른	-7.25482
▁처럼	-7.26247
▁듯	-7.28633
▁만들	-7.29516
▁제	-7.29547
▁진짜	-7.3009
이	-7.30763
▁놈	-7.31086
▁쓰	-7.31286
▁또	-7.31867
▁정도	-7.33224
▁싶	-7.34251
▁음	-7.35396
▁인데	-7.35716
▁죽	-7.35815
▁어서	-7.36339
▁님	-7.36416
▁남	-7.37508
▁맞	-7.37794
기	-7.37874
▁대한	-7.37884
▁줄	-7.38508
▁는지	-7.40791
▁될	-7.41127
▁원	-7.41408
▁걸	-7.41646
▁5	-7.41793
▁합니다	-7.44466
▁이상	-7.4472
▁가지	-7.44858
▁그냥	-7.44967
▁입니다	-7.45095
▁...	-7.45635
▁4	-7.46042
▁미국	-7.46222
▁너	-7.47239
▁북한	-7.47918
▁경우	-7.48759
리	-7.49343
▁조국	-7.49515
▁국가	-7.49581
▁후	-7.49731
▁길	-7.50051
▁정권	-7.50319
▁경제	-7.50351
▁모르	-7.51023
▁함	-7.511
▁문재인	-7.51618
▁사실	-7.51696
▁한테	-7.52374
▁자기	-7.52718
▁정치	-7.53049
▁시간	-7.53599
▁분	-7.54442
▁이제	-7.54485
▁집	-7.55327
▁신	-7.55418
▁해라	-7.55836
자	-7.56335
▁잡	-7.56605
▁위	-7.58863
▁다가	-7.60423
▁차	-7.60733
▁그런	-7.60863
▁권	-7.6117
▁애	-7.61532
▁속	-7.61587
▁나오	-7.61788
▁위해	-7.62789
▁놓	-7.62795
▁소리	-7.63595
▁치	-7.63722
▁다시	-7.63936
▁시키	-7.64091
도	-7.65165
▁대한민국	-7.65233
▁입	-7.65347
▁마	-7.65358
▁세요	-7.65394
▁모든	-7.66281
▁기사	-7.66781
사	-7.6739
▁참	-7.68184
▁10	-7.68569
▁법	-7.68936
▁라도	-7.69831
▁넘	-7.69877
▁필요	-7.7027
▁비	-7.70332
▁앞	-7.70513
▁사회	-7.70642
▁가능	-7.70669
렇게	-7.71158
▁뿐	-7.71184
▁그러	-7.71656
▁임	-7.71717
▁네요	-7.73643
▁많이	-7.73667
▁달	-7.73833
▁시작	-7.73907
▁사용	-7.7395
▁세	-7.74175
▁너무	-7.74313
▁/	-7.74435
▁해도	-7.74926
▁무슨	-7.75732
▁모두	-7.75733
▁세계	-7.76147
다	-7.76652
▁~~	-7.7679
▁정신	-7.76837
▁정말	-7.77292
하	-7.77396
▁조	-7.78094
▁여자	-7.78356
▁는다	-7.78464
▁아이	-7.79129
▁재앙	-7.79445
▁불	-7.81464
▁인지	-7.83056
▁씨	-7.83358
▁짓	-7.8365
▁같이	-7.83904
▁못하	-7.83932
▁간	-7.83993
▁질	-7.84319
▁든	-7.84485
▁당신	-7.84574
▁뒤	-7.84626
▁으며	-7.84818
▁그러나	-7.85029
▁죠	-7.85219
▁물	-7.85498
▁란	-7.85678
서	-7.85981
▁그것	-7.86109
▁%	-7.87211
가	-7.87635
▁상	-7.88326
▁거나	-7.88413
스	-7.88455
▁상황	-7.89153
▁타	-7.8939
▁아서	-7.89499
인	-7.89758
▁가장	-7.89862
▁보이	-7.9018
▁검찰	-7.90245
▁댓글	-7.90287
▁큰	-7.91219
▁6	-7.91274
시	-7.91356
▁아직	-7.91369
▁없이	-7.91445
▁이후	-7.91648
▁이렇게	-7.91759
▁날	-7.91967
▁민주당	-7.92126
▁어야	-7.92244
▁다음	-7.92485
▁눈	-7.93004
▁세금	-7.94445
▁기업	-7.945
▁려고	-7.94699
▁몇	-7.94739
▁이유	-7.95153
떻게	-7.9557
▁곳	-7.9564
▁다면	-7.97234
▁막	-7.97412
▁점	-7.98306
▁군	-7.98475
▁여기	-7.98667
▁어디	-7.98761
▁니까	-7.98886
▁수준	-7.99695
▁인가	-7.9973
▁믿	-7.99738
▁바로	-8.00274
▁손	-8.00358
▁잘못	-8.00747
▁어떤	-8.01241
▁요	-8.02036
▁부	-8.02245
▁함께	-8.02886
▁저런	-8.03103
▁무	-8.03319
▁이러	-8.03939
▁으니	-8.03979
▁장	-8.04222
▁모습	-8.04668
라	-8.04724
▁그렇	-8.04867
▁끝	-8.04899
▁미	-8.05071
▁바	-8.05175
▁난	-8.06117
▁계속	-8.06127
▁호	-8.06242
▁조사	-8.06263
▁하지만	-8.06268
▁도록	-8.06275
▁구	-8.07064
▁볼	-8.07211
▁세상	-8.07925
▁마음	-8.08177
▁결국	-8.08421
▁빨	-8.08465
▁지역	-8.08896
수	-8.09609
대	-8.09646
▁7	-8.09842
▁배	-8.10031
▁다니	-8.10778
▁진	-8.11509
▁엔	-8.12405
▁좌파	-8.12586
▁높	-8.13136
▁선	-8.13483
▁아닌	-8.13486
▁어요	-8.13832
▁사건	-8.14373
▁힘	-8.14691
▁자유	-8.1494
▁남자	-8.15138
▁편	-8.15395
치	-8.15672
▁소	-8.1573
▁욕	-8.1579
▁쪽	-8.15969
▁팔	-8.16124
▁이미	-8.1752
▁8	-8.17713
장	-8.18036
▁한다고	-8.18201
▁이름	-8.18665
▁싫	-8.18821
▁얼마나	-8.18887
▁이번	-8.18897
▁이야기	-8.18902
▁크	-8.19475
▁쓰레기	-8.19828
고	-8.20712
▁또한	-8.20844
▁새	-8.21206
로	-8.21371
▁역시	-8.21402
▁중요	-8.21576
▁제대로	-8.21732
▁따라	-8.21745
▁라면	-8.21763
▁능력	-8.21888
▁및	-8.21915
진	-8.2209
▁글	-8.2235
▁20	-8.2247
▁이것	-8.22664
▁단	-8.22707
▁어느	-8.22832
▁그래서	-8.23123
▁랑	-8.23391
▁이용	-8.23477
▁이해	-8.23583
▁대로	-8.239
▁노	-8.23966
▁파	-8.24064
▁본	-8.24258
▁새끼	-8.24693
▁언론	-8.25274
▁동안	-8.2567
▁반	-8.25799
▁빨갱이	-8.25974
▁자리	-8.26029
▁좌	-8.26147
▁나가	-8.26332
▁이게	-8.26369
▁천	-8.26404
야	-8.2671
▁형	-8.2711
▁시대	-8.27677
▁관계	-8.27703
아	-8.27731
▁피	-8.27895
▁존재	-8.27916
▁누구	-8.2798
▁버리	-8.28217
▁위한	-8.28536
▁누가	-8.28626
▁운동	-8.28711
▁역사	-8.29259
▁가족	-8.29262
▁수사	-8.29347
▁한다는	-8.29352
상	-8.29482
▁제발	-8.29548
▁식	-8.29816
나	-8.29853
▁아야	-8.30005
▁그녀	-8.30163
▁자체	-8.30646
▁열	-8.31532
▁더니	-8.31674
▁찾	-8.32207
▁학교	-8.32213
▁긴	-8.32496
주	-8.32631
▁OOO	-8.32792
▁온	-8.33121
▁대표	-8.33397
▁시장	-8.33421
▁그럼	-8.33923
▁사이	-8.33952
성	-8.34126
▁당시	-8.34443
▁억	-8.34948
▁구나	-8.34971
▁얼굴	-8.34985
▁처음	-8.35037
▁공격	-8.35051
구	-8.35439
▁장관	-8.35532
▁선거	-8.35536
▁9	-8.35617
▁몸	-8.35628
▁아주	-8.35934
▁현재	-8.35967
▁산	-8.36237
▁방법	-8.36626
▁조작	-8.36913
▁뽑	-8.36949
▁답	-8.37008
▁정책	-8.37103
▁듣	-8.37415
▁머리	-8.37427
▁보수	-8.3764
미	-8.37792
▁죄	-8.38153
▁재	-8.38539
▁리	-8.38636
▁갖	-8.388
▁의미	-8.38961
▁본인	-8.38963
▁결과	-8.39035
▁보내	-8.39134
▁부모	-8.39299
▁됐	-8.399
▁공	-8.39908
▁박	-8.40032
▁상대	-8.40537
▁갈	-8.40579
▁상태	-8.40582
▁행동	-8.40738
▁대해	-8.40913
▁교육	-8.41363
▁전쟁	-8.41593
▁그런데	-8.4173
▁뉴스	-8.41826
▁게임	-8.41896
▁보여	-8.41957
▁내용	-8.42043
▁실	-8.42603
▁회사	-8.42983
▁꼴	-8.4315
▁찍	-8.43163
▁어도	-8.43171
▁얻	-8.43523
어	-8.43621
▁현실	-8.43771
▁러	-8.43887
▁딱	-8.43993
▁사랑	-8.44444
▁방송	-8.44504
▁관련	-8.44545
▁키	-8.44636
▁먼저	-8.44675
▁여성	-8.44798
▁씩	-8.44839
▁밖	-8.44861
▁는가	-8.44923
▁30	-8.45055
전	-8.45112
▁물론	-8.45197
부	-8.45346
▁베	-8.45426
▁박근혜	-8.45633
▁발	-8.45659
▁봐	-8.4567
▁만큼	-8.46185
▁스	-8.47425
▁준	-8.4761
▁은데	-8.47713
▁얘기	-8.47717
▁삼	-8.47915
▁지지	-8.4801
▁벌	-8.48345
▁친	-8.48522
▁자식	-8.4869
▁쳐	-8.48707
▁개인	-8.48714
▁반대	-8.49071
▁기술	-8.49083
▁양	-8.49549
▁마스크	-8.4996
▁별	-8.50215
▁드	-8.50305
▁용	-8.50388
▁방	-8.50573
▁여러	-8.50733
▁북	-8.50858
드	-8.50869
▁을까	-8.50961
▁조선	-8.51038
▁책임	-8.51148
▁통해	-8.51188
우	-8.51255
▁왔	-8.51296
원	-8.51333
▁아무	-8.51867
▁그만	-8.52533
비	-8.52809
▁개혁	-8.52873
▁탓	-8.52907
▁지원	-8.52924
▁초	-8.5296
▁100	-8.53172
▁백	-8.53415
▁까	-8.53474
▁활동	-8.5364
▁코	-8.54032
▁특히	-8.54297
▁마다	-8.54428
▁기자	-8.54482
▁신천지	-8.54509
트	-8.54548
▁역	-8.54632
▁꼭	-8.5465
▁경찰	-8.54688
▁일반	-8.5483
▁거의	-8.54931
▁힘들	-8.54969
▁둘	-8.55084
▁아들	-8.55307
▁트	-8.55325
선	-8.55394
▁서울	-8.55402
▁선동	-8.55455
제	-8.5551
▁현	-8.55744
▁친구	-8.56126
▁피해	-8.56527
히	-8.56836
▁당하	-8.57089
▁봐라	-8.57319
▁딸	-8.57405
▁무엇	-8.57455
▁12	-8.57891
▁들어가	-8.57917
▁국	-8.5814
▁위해서	-8.58194
▁집단	-8.58275
▁외	-8.58458
▁정	-8.58636
▁인정	-8.58675
동	-8.59156
▁서로	-8.59229
▁....	-8.59256
▁예	-8.5938
▁팀	-8.59565
마	-8.59761
▁감	-8.59906
▁갔	-8.59912
▁봤	-8.6004
▁시민	-8.60045
▁생	-8.60138
▁정보	-8.60237
▁근데	-8.60288
▁밖에	-8.60641
▁대부분	-8.61048
▁려는	-8.61053
▁등장	-8.61275
▁거리	-8.61335
▁주장	-8.6161
▁절대	-8.61751
▁경기	-8.6191
▁생활	-8.62147
▁작	-8.62353
▁삶	-8.62636
▁넣	-8.6314
▁째	-8.6373
▁이랑	-8.63742
▁청와대	-8.63864
▁나요	-8.63968
▁영화	-8.64092
▁아닌가	-8.64128
일	-8.64279
▁조금	-8.64303
▁채	-8.64437
▁부분	-8.64727
▁똥	-8.64828
▁학생	-8.64884
▁즉	-8.6499
▁강	-8.65029
▁병	-8.65053
▁정의	-8.65134
▁의원	-8.65192
보	-8.65848
▁뜻	-8.65987
▁이건	-8.66187
니	-8.66243
▁그래도	-8.6666
▁사고	-8.66705
▁거기	-8.66714
▁회	-8.66988
▁로서	-8.67035
식	-8.67534
소	-8.6767
▁깨	-8.6776
▁결정	-8.6792
▁문화	-8.68246
▁전부	-8.68281
▁언제	-8.68569
▁과정	-8.68671
▁뭔	-8.68706
▁코로나	-8.68726
▁쉽	-8.69207
정	-8.69589
▁읽	-8.69806
▁려	-8.69922
▁뭘	-8.70134
▁시켜	-8.7025
▁18	-8.70252
▁매우	-8.70372
▁계	-8.70467
▁직접	-8.70486
▁왕	-8.70888
▁아버지	-8.7091
▁만든	-8.7131
▁지요	-8.7152
▁우	-8.71582
▁판	-8.71788
▁스스로	-8.7192
▁권력	-8.72167
▁기본	-8.7231
▁돌	-8.72428
▁탄핵	-8.7244
요	-8.72442
호	-8.72641
▁풀	-8.73083
▁최고	-8.73121
▁으나	-8.73151
▁검사	-8.73158
▁그게	-8.73321
▁책	-8.73338
▁대학	-8.73415
▁스럽	-8.73996
▁11	-8.74411
▁걱정	-8.74449
▁빨리	-8.7451
▁땅	-8.74561
▁정상	-8.74612
▁김	-8.75012
▁끼	-8.75304
▁표	-8.75538
▁해결	-8.75561
▁공개	-8.75773
▁~~~	-8.75828
▁총	-8.75927
▁테	-8.76118
▁효과	-8.77292
▁개돼지	-8.77503
▁문재	-8.7755
▁과거	-8.77795
▁새로운	-8.77876
▁셨	-8.77881
오	-8.77951
▁연구	-8.78168
▁약	-8.78265
▁는구나	-8.78421
▁개발	-8.7878
▁요즘	-8.78812
▁급	-8.79087
▁못한	-8.79485
▁유	-8.79492
▁관심	-8.79526
▁대상	-8.79591
▁그대로	-8.79741
▁단체	-8.79883
▁국회의원	-8.79897
산	-8.79932
▁아베	-8.80094
▁아라	-8.8013
▁오늘	-8.80194
▁미친	-8.802
▁빠	-8.8038
▁미래	-8.80529
▁교회	-8.80594
▁관리	-8.81102
▁다만	-8.81227
▁성공	-8.81245
▁잖아	-8.81281
세	-8.81566
▁빼	-8.81807
▁그리	-8.81874
▁그때	-8.81892
▁틀	-8.81924
▁기록	-8.81937
▁텐데	-8.82023
▁나이	-8.8217
군	-8.82259
▁쇼	-8.82375
▁총선	-8.82389
▁만나	-8.82511
▁세력	-8.82658
▁자한	-8.82744
▁0	-8.82824
▁선택	-8.83122
▁교수	-8.83241
▁아무리	-8.83864
▁앉	-8.83928
▁다르	-8.84
▁오히려	-8.84002
▁투자	-8.84246
▁50	-8.84486
▁표현	-8.84758
▁민	-8.84759
▁해야지	-8.85144
▁하루	-8.85756
▁선수	-8.85921
▁건데	-8.86022
▁공부	-8.86169
신	-8.86294
▁세월	-8.86608
▁인물	-8.86762
의	-8.86816
▁웃	-8.86831
▁처벌	-8.86905
▁15	-8.87017
▁여론	-8.87022
▁낮	-8.87062
▁확인	-8.87478
▁전체	-8.87758
▁또는	-8.87931
▁설명	-8.88072
타	-8.88134
▁비교	-8.88177
질	-8.88234
▁입장	-8.88311
▁금지	-8.88412
▁심	-8.88677
▁차이	-8.88689
▁듯이	-8.88728
▁평가	-8.88865
▁카	-8.8887
▁감정	-8.88969
▁발생	-8.89025
▁시절	-8.89104
▁대구	-8.89106
▁대신	-8.89252
▁어라	-8.89343
▁부정	-8.89378
▁건지	-8.89716
▁유지	-8.89716
▁만드	-8.89771
문	-8.89773
▁진행	-8.89783
경	-8.8995
▁기준	-8.90032
▁작품	-8.90256
▁발전	-8.90297
▁해당	-8.90442
▁노력	-8.90835
▁프로	-8.90914
▁너희	-8.90969
▁술	-8.91075
▁더라도	-8.91374
▁뇌	-8.91385
▁준비	-8.91655
▁첫	-8.91719
▁똑같	-8.91804
▁공무원	-8.91805
▁가짜	-8.91806
▁따라서	-8.91871
▁각	-8.92031
▁전혀	-8.92125
▁종교	-8.92295
▁머	-8.92412
▁이거	-8.92469
▁한심	-8.92836
▁혼자	-8.9284
▁원래	-8.9296
▁꺼	-8.92984
▁사업	-8.93167
▁대가리	-8.9341
▁조직	-8.93479
▁민족	-8.93565
▁더불	-8.93937
▁사진	-8.9396
▁순간	-8.94186
▁나왔	-8.94216
영	-8.94498
▁민주	-8.94592
화	-8.94796
르	-8.94861
▁도대체	-8.94984
▁도움	-8.95078
▁결혼	-8.95125
▁인생	-8.95196
▁비판	-8.95295
▁마지막	-8.95354
▁일부	-8.95586
▁으면서	-8.95744
조	-8.95801
▁논리	-8.9592
▁완전	-8.95956
▁구속	-8.96266
▁곧	-8.96309
▁가진	-8.96313
면	-8.96407
▁의해	-8.96459
▁퍼	-8.96496
▁돌아가	-8.96523
▁무능	-8.96753
▁척	-8.96932
▁기억	-8.96945
▁올리	-8.96962
▁가격	-8.97084
▁엄마	-8.97202
▁국내	-8.97209
노	-8.97498
만	-8.97505
▁도시	-8.97517
▁대해서	-8.97712
▁밥	-8.97877
▁동	-8.97897
▁에선	-8.97901
▁으로서	-8.98023
국	-8.98027
▁정당	-8.98371
▁달리	-8.98498
▁A	-8.98526
▁늘	-8.98582
▁그래	-8.98878
▁의식	-8.98941
▁종	-8.99024
관	-8.99156
▁행위	-8.99271
▁보인다	-8.99357
▁판단	-8.99421
▁거짓말	-8.99582
▁경험	-8.99598
▁토착	-9.0003
▁검	-9.00032
▁얼마	-9.0006
▁돼	-9.0006
▁적폐	-9.00069
▁요구	-9.0012
▁무기	-9.00361
▁추가	-9.00403
▁어찌	-9.00425
단	-9.00435
▁기회	-9.00475
▁죽이	-9.00479
▁아요	-9.00518
▁입국	-9.0053
▁삼성	-9.00612
▁모	-9.00742
▁출신	-9.01045
▁모양	-9.01155
▁방식	-9.01336
▁무시	-9.01443
▁김정은	-9.01444
▁독재	-9.01676
▁나온	-9.0199
▁이전	-9.02004
▁와서	-9.02182
▁아님	-9.02197
▁한당	-9.02258
▁위험	-9.02291
▁영	-9.02373
▁자연	-9.02442
▁쓸	-9.0248
안	-9.02518
▁구조	-9.02538
▁병원	-9.02547
▁통	-9.02718
▁가치	-9.02772
파	-9.02908
▁사과	-9.02949
▁군대	-9.03215
▁변화	-9.03218
▁포함	-9.03303
▁운영	-9.03575
▁주변	-9.03693
물	-9.03834
▁처리	-9.03916
당	-9.03947
▁레	-9.04142
▁폭	-9.04162
▁버	-9.04171
▁꾼	-9.04189
▁의사	-9.04242
코	-9.04478
▁비슷	-9.04517
▁무조건	-9.0466
▁떠나	-9.04952
▁·	-9.05088
▁생산	-9.05171
▁반드시	-9.05212
▁겁니다	-9.05556
법	-9.05739
▁범죄	-9.0593
▁됨	-9.05942
▁국회	-9.06106
▁최	-9.0611
▁왜구	-9.06328
▁처	-9.06371
▁인해	-9.06417
▁됩니다	-9.06495
루	-9.06637
▁못했	-9.0665
▁그걸	-9.06692
▁놀	-9.06719
▁지키	-9.06899
▁구만	-9.06916
▁돼지	-9.06983
▁황	-9.07058
▁악	-9.07148
▁위치	-9.07162
▁사기	-9.07221
▁역할	-9.07377
석	-9.07426
▁탈	-9.07511
▁목적	-9.07522
▁이젠	-9.07578
▁제도	-9.07592
한	-9.07629
▁부족	-9.07739
▁국제	-9.07885
▁선생	-9.08398
▁지방	-9.08452
▁으로써	-9.08516
▁시기	-9.08538
▁평화	-9.08579
▁핵	-9.08667
▁순	-9.08803
린	-9.08969
▁계획	-9.09002
▁비리	-9.09149
▁제일	-9.09156
▁일단	-9.09202
▁귀	-9.09481
▁싸	-9.09523
▁환경	-9.09585
▁외교	-9.09602
▁영향	-9.0963
▁항상	-9.09834
▁40	-9.09886
▁났	-9.09924
▁잃	-9.10004
▁더라	-9.10066
▁디	-9.10076
▁바뀌	-9.10115
▁승리	-9.10291
▁증거	-9.1033
▁시즌	-9.10379
력	-9.10556
▁부르	-9.10588
▁맡	-9.10623
▁지나	-9.10696
▁개념	-9.1089
▁나쁜	-9.11238
▁기관	-9.11374
▁바람	-9.11493
▁기대	-9.11643
▁털	-9.11923
▁봐야	-9.11934
▁어머니	-9.11958
▁줬	-9.12263
▁카드	-9.12556
▁사태	-9.12928
▁매	-9.12947
▁패	-9.12975
▁하늘	-9.13021
▁석	-9.13097
▁캐릭터	-9.13185
▁울	-9.1345
무	-9.13587
▁던데	-9.13617
▁진정	-9.13634
▁인사	-9.13705
▁여행	-9.1389
▁층	-9.13906
▁난리	-9.14058
▁투표	-9.14139
▁열심히	-9.14174
▁티	-9.1434
▁더욱	-9.14375
▁보호	-9.14629
▁신경	-9.14757
▁붙	-9.15104
▁성장	-9.1524
▁당연	-9.15427
▁려면	-9.15553
▁묻	-9.15715
▁한데	-9.15752
▁케	-9.15875
▁담	-9.15907
카	-9.15925
현	-9.15926
▁십	-9.16173
모	-9.16239
토	-9.16275
▁진보	-9.16341
▁하고	-9.16441
재	-9.16533
▁중심	-9.16538
▁봐도	-9.16605
▁설치	-9.17158
병	-9.17324
▁진실	-9.17419
▁쯤	-9.17468
▁일어나	-9.17555
▁목	-9.17724
민	-9.17746
▁끌	-9.17785
들	-9.17991
즈	-9.18046
▁전화	-9.18064
▁배우	-9.1814
▁꿈	-9.18176
▁옆	-9.18618
두	-9.18774
▁므로	-9.18931
▁나중	-9.1898
간	-9.19106
▁달창	-9.19185
▁대체	-9.19467
▁25	-9.19554
▁덜	-9.19575
▁썩	-9.1959
네	-9.19595
▁로부터	-9.19648
▁졌	-9.19702
▁숨	-9.1975
▁공산당	-9.1984
▁토	-9.19869
▁대단	-9.19952
▁부대	-9.20018
▁당연히	-9.20022
▁실제로	-9.20309
▁쓴	-9.20357
▁경	-9.20627
▁전라도	-9.20641
▁남편	-9.20807
▁발견	-9.20815
▁정치인	-9.20954
▁마시	-9.2096
▁피해자	-9.21045
▁건가	-9.21048
▁이익	-9.21058
▁젊	-9.21079
▁제품	-9.21161
▁당장	-9.21191
▁넌	-9.21212
▁오래	-9.21228
▁써	-9.21237
▁조차	-9.21308
해	-9.21567
▁아래	-9.21586
프	-9.21714
▁아도	-9.21952
▁마찬가지	-9.22012
▁한다면	-9.22028
▁냐고	-9.22065
▁건강	-9.2223
▁민주주의	-9.22334
▁직원	-9.22338
▁다양	-9.22424
▁떨어지	-9.2248
▁버렸	-9.22508
▁절	-9.22523
▁동시	-9.22612
회	-9.22753
▁윤	-9.22875
▁서민	-9.23137
▁밀	-9.23214
디	-9.23227
▁16	-9.23278
감	-9.23317
▁인권	-9.23346
▁산업	-9.23433
▁몰	-9.23459
▁발표	-9.23496
▁마치	-9.24021
크	-9.24235
▁우선	-9.24665
▁어렵	-9.24675
▁인식	-9.24712
▁팬	-9.24718
▁B	-9.24828
실	-9.24947
▁밤	-9.24969
▁금	-9.25021
▁훨씬	-9.2505
▁후보	-9.25091
▁치료	-9.25113
▁값	-9.25232
▁해외	-9.25377
▁끼리	-9.25392
▁재산	-9.25456
▁연	-9.25489
▁중국인	-9.25563
▁팩	-9.25726
▁관	-9.25733
▁루	-9.25777
▁도와	-9.25793
▁망하	-9.25812
연	-9.26092
▁쉬	-9.26268
▁느끼	-9.26337
▁곡	-9.26544
▁19	-9.26595
▁부동산	-9.26719
▁고통	-9.26768
▁형태	-9.26775
▁분명	-9.26899
▁하나님	-9.27006
▁론	-9.27209
▁나온다	-9.27249
▁소설	-9.27253
▁증가	-9.27343
▁지지율	-9.27605
▁올	-9.27619
▁쥐	-9.27709
▁불법	-9.27935
▁참여	-9.28048
▁구성	-9.28068
▁의견	-9.28142
▁따르	-9.28324
▁촛불	-9.28343
▁전투	-9.28512
▁맘	-9.28992
데	-9.29025
▁던지	-9.29169
▁포	-9.29338
▁감사	-9.29388
학	-9.29431
▁나경원	-9.2951
▁강력	-9.29674
▁목소리	-9.29841
▁칼	-9.29875
▁메	-9.299
거	-9.2992
유	-9.30026
▁짜	-9.30134
▁옷	-9.3015
▁기능	-9.3017
▁실패	-9.30176
▁떨	-9.30187
▁S	-9.3046
▁총장	-9.30508
▁언급	-9.30579
▁기간	-9.30751
▁낳	-9.30784
▁터	-9.30854
▁만약	-9.30928
▁사상	-9.31005
과	-9.31169
▁아파트	-9.31177
▁본다	-9.31269
▁창	-9.31479
▁통합	-9.31519
▁트럼프	-9.31645
▁가정	-9.31694
▁한국인	-9.31763
▁생기	-9.31799
▁잇	-9.31875
▁갑자기	-9.31878
▁임명	-9.31982
▁가슴	-9.32189
▁플	-9.32267
▁골	-9.32466
키	-9.32527
▁바라	-9.32814
▁양심	-9.32885
는	-9.32963
▁제외	-9.32991
▁행복	-9.32997
▁세대	-9.33027
차	-9.33055
▁말씀	-9.33179
▁죽음	-9.33327
▁야당	-9.33366
역	-9.33487
▁아예	-9.33498
▁영국	-9.33546
▁세기	-9.33567
천	-9.33892
▁느낌	-9.33974
▁심각	-9.34116
▁자고	-9.3412
공	-9.34174
▁생명	-9.34234
▁바꾸	-9.34244
▁혹은	-9.34296
▁거짓	-9.34387
▁이루	-9.34583
▁낫	-9.34598
▁완전히	-9.34635
레	-9.34639
▁대화	-9.34743
판	-9.34764
▁제공	-9.34911
▁포기	-9.34918
▁통일	-9.35087
▁감독	-9.35154
▁지난	-9.35292
▁준다	-9.35415
▁자주	-9.35484
▁밑	-9.35561
란	-9.35663
▁신문	-9.35677
▁보도	-9.35714
▁외국	-9.35766
▁노인	-9.35881
▁따	-9.35904
계	-9.35905
운	-9.35924
▁적용	-9.35947
▁시스템	-9.36041
중	-9.36057
▁유럽	-9.36071
▁된다는	-9.36227
▁환자	-9.36244
▁대응	-9.36389
▁성격	-9.36522
▁레기	-9.36539
▁지구	-9.36795
▁집회	-9.36923
▁할머니	-9.37255
방	-9.37344
▁보통	-9.37501
▁확실	-9.37503
▁17	-9.37572
▁유명	-9.37687
▁공정	-9.3784
▁평생	-9.37856
바	-9.37981
▁친일파	-9.37982
▁고려	-9.38042
▁노래	-9.38105
▁없애	-9.38189
▁위기	-9.38289
▁C	-9.38361
▁청원	-9.38482
▁어차피	-9.38531
▁13	-9.38548
▁그저	-9.39022
▁이때	-9.39086
▁짱	-9.39152
▁께	-9.39266
▁오르	-9.39386
▁라니	-9.3945
▁라서	-9.39475
▁된다고	-9.39567
▁나올	-9.39593
▁차리	-9.39749
▁자꾸	-9.39773
▁.....	-9.39803
심	-9.39843
▁의심	-9.40007
▁14	-9.40063
▁조건	-9.40256
▁습니까	-9.40261
▁인터넷	-9.40276
▁건물	-9.40309
▁색	-9.40324
▁청	-9.40336
▁주제	-9.40367
▁충	-9.40583
▁임금	-9.40617
▁가운데	-9.40658
▁영상	-9.4072
▁황교안	-9.41009
▁강제	-9.41105
▁싸우	-9.41206
발	-9.41468
▁던가	-9.41502
▁전략	-9.41521
▁과학	-9.4158
▁광고	-9.41646
▁자는	-9.41678
▁사망	-9.41679
▁싸움	-9.41734
▁비용	-9.41761
▁빵	-9.41774
▁독일	-9.4186
에	-9.41884
▁낸	-9.41887
금	-9.41913
▁망	-9.41927
▁나와	-9.42477
▁사회주의	-9.42617
▁내리	-9.42665
▁취급	-9.4273
▁어린	-9.42826
▁이미지	-9.42848
티	-9.42929
위	-9.42968
▁암	-9.43021
▁응원	-9.43054
▁판사	-9.43096
▁고자	-9.43193
▁불쌍	-9.43196
▁목표	-9.43336
▁무식	-9.43344
▁작가	-9.43445
▁맛	-9.43538
▁동물	-9.43613
▁먼	-9.43632
▁관한	-9.43722
게	-9.43791
▁참고	-9.43894
▁군사	-9.43931
▁래	-9.43937
▁원인	-9.43945
희	-9.4409
주의	-9.44209
▁기존	-9.44283
▁시리즈	-9.44285
▁으니까	-9.44306
▁속도	-9.44331
▁월급	-9.44592
▁바보	-9.44807
▁방향	-9.44968
▁눈치	-9.4506
▁께서	-9.45141
▁전국	-9.45189
▁나타나	-9.45221
▁단계	-9.45324
▁잔	-9.45386
▁든지	-9.45394
▁바리	-9.4551
▁직	-9.45565
▁곤	-9.45802
▁현대	-9.45885
▁지랄	-9.45924
▁주인	-9.46027
▁차라리	-9.46033
▁예전	-9.46046
▁M	-9.46107
▁설	-9.46146
▁서비스	-9.46304
▁우한	-9.46442
▁쳐먹	-9.46507
▁기분	-9.46541
▁롭	-9.46585
▁율	-9.46671
▁히	-9.46723
▁수처	-9.4679
▁미사일	-9.46896
▁갑	-9.46898
▁간다	-9.46915
▁노조	-9.46966
▁질문	-9.47091
▁시켰	-9.47187
▁아냐	-9.47235
▁자료	-9.47251
포	-9.47348
▁자격	-9.47366
▁맨	-9.47473
러	-9.47492
▁강화	-9.47495
▁인구	-9.47515
▁동네	-9.47555
용	-9.47749
▁반성	-9.47761
▁그나마	-9.47824
▁시험	-9.47922
▁러시아	-9.48045
명	-9.48073
▁자랑	-9.48197
교	-9.48234
▁네이버	-9.48361
▁시킨	-9.48431
▁그랬	-9.48624
▁뭔가	-9.48722
체	-9.48747
▁줘야	-9.48762
▁간첩	-9.48802
▁더러운	-9.49033
▁주로	-9.49044
▁비난	-9.49046
▁자살	-9.49046
▁주인공	-9.49074
▁파악	-9.49133
▁프로그램	-9.492
▁분석	-9.4926
▁잖	-9.49281
▁상당히	-9.49376
▁반일	-9.49475
▁률	-9.49517
▁궁금	-9.49532
준	-9.49549
▁허	-9.49578
▁떼	-9.49671
론	-9.49689
▁아침	-9.49864
▁주식	-9.49917
려	-9.50066
▁독립	-9.50229
▁D	-9.50379
▁그림	-9.50421
▁응	-9.50426
▁그건	-9.50481
▁엄청	-9.50585
▁마리	-9.50594
은	-9.50618
▁아내	-9.50662
▁불리	-9.50675
▁바이러스	-9.50698
▁현상	-9.508
▁마을	-9.50877
▁60	-9.50911
▁좃	-9.50952
▁문서	-9.51066
▁발언	-9.51156
▁옳	-9.51156
▁일자리	-9.51165
▁라며	-9.51203
▁음악	-9.51284
▁분노	-9.51482
▁개소리	-9.5159
▁미세먼지	-9.51594
▁늦	-9.51676
▁해요	-9.51762
▁목숨	-9.51793
▁괜찮	-9.51839
▁살인	-9.51853
▁반응	-9.52083
▁노무현	-9.52097
▁나무	-9.52155
▁소득	-9.52347
▁그럴	-9.52491
▁잊	-9.52503
▁안정	-9.526
▁여당	-9.52625
▁거부	-9.52644
▁광주	-9.5266
▁주민	-9.52661
▁K	-9.52662
▁걸로	-9.52726
▁점점	-9.52793
▁걸리	-9.52819
▁홍	-9.52861
▁개월	-9.53007
▁보였	-9.53099
▁21	-9.53104
▁남성	-9.53117
▁행사	-9.53129
▁빈	-9.5313
▁실제	-9.53209
▁프랑스	-9.53211
통	-9.53271
▁리그	-9.53285
▁어쩌	-9.53301
▁심지어	-9.53429
▁유일	-9.53523
▁극	-9.53572
▁공장	-9.53611
▁친일	-9.53654
▁지식	-9.53757
▁한마디	-9.53799
▁가리	-9.53919
점	-9.53935
▁온갖	-9.53993
▁작업	-9.54081
음	-9.54084
▁초기	-9.54086
▁차지	-9.54234
▁최근	-9.54273
▁분위기	-9.5435
▁불매	-9.54383
▁상식	-9.54576
▁부인	-9.54596
▁대책	-9.54608
종	-9.54658
▁소속	-9.5472
▁철	-9.54785
▁공식	-9.54881
▁심판	-9.54995
▁G	-9.55018
▁공간	-9.55066
▁솔직히	-9.55166
▁규모	-9.55199
▁추	-9.55354
▁문학	-9.55506
▁고생	-9.55564
▁비해	-9.55723
▁물건	-9.55769
▁유시민	-9.55772
▁전문	-9.55836
형	-9.55846
▁판매	-9.55931
▁사장	-9.55939
▁문죄	-9.55993
▁특징	-9.56005
태	-9.56087
▁활용	-9.56299
▁져	-9.56307
▁멀	-9.56332
▁설정	-9.56461
▁매일	-9.56501
▁스킬	-9.56503
▁당한	-9.5657
▁눈물	-9.56639
▁어려운	-9.56639
▁70	-9.56807
▁게다가	-9.56814
▁덕	-9.56895
▁범죄자	-9.5697
▁한편	-9.56981
▁생겼	-9.56999
▁다며	-9.57161
▁근거	-9.57203
▁규정	-9.57393
▁청년	-9.57418
▁애초	-9.57426
▁중앙	-9.5746
▁확진	-9.5763
▁부탁	-9.57632
▁무리	-9.57723
▁사퇴	-9.57948
▁이동	-9.57956
▁빛	-9.58203
▁단어	-9.5821
▁불구	-9.58222
▁바랍니다	-9.58362
▁평	-9.58457
▁경쟁	-9.58483
▁최대	-9.58487
▁사형	-9.58488
▁의혹	-9.58563
▁파괴	-9.58625
▁장면	-9.58627
▁어떻	-9.58912
▁올려	-9.59043
▁수입	-9.59091
▁언어	-9.59187
▁인상	-9.59242
▁체제	-9.59252
터	-9.59253
▁지속	-9.59266
▁난다	-9.594
▁내부	-9.59412
▁스러운	-9.59626
▁마련	-9.59722
▁직업	-9.59763
▁진심	-9.59782
▁집안	-9.59816
▁측	-9.59914
▁희망	-9.60028
▁수출	-9.60111
개	-9.602
▁으로부터	-9.60264
▁쿠	-9.60326
▁뻔뻔	-9.6033
▁아무것	-9.6036
▁차별	-9.60381
▁이르	-9.60394
▁킹	-9.60453
그	-9.60507
▁어쩔	-9.60689
▁버린	-9.60715
▁그거	-9.60727
▁유리	-9.60761
▁구분	-9.60769
▁깊	-9.60785
▁겪	-9.60786
▁정리	-9.60827
▁걷	-9.60845
▁인기	-9.60861
▁안전	-9.60989
▁얘	-9.60991
▁여전히	-9.61014
▁바라보	-9.61105
▁버스	-9.61298
▁최초	-9.61594
▁과연	-9.61603
▁들어오	-9.61665
▁힘든	-9.61696
▁플레이	-9.61815
적	-9.61857
▁일제	-9.61984
임	-9.61991
까	-9.62031
▁제한	-9.62039
▁비롯	-9.62161
▁깨문	-9.62185
▁제작	-9.62202
▁업체	-9.62314
▁종북	-9.62519
량	-9.62524
▁고객	-9.62533
▁여러분	-9.62608
▁연결	-9.62713
▁업무	-9.62752
▁차원	-9.6276
▁제목	-9.62774
▁보험	-9.62871
▁꼬	-9.62894
▁대답	-9.62919
▁할까	-9.62933
▁그동안	-9.62955
▁지적	-9.6296
▁이란	-9.63062
▁덕분	-9.63075
▁80	-9.63092
▁연금	-9.63156
▁합시다	-9.63162
▁나머지	-9.63228
온	-9.63237
▁위하	-9.6332
▁닭	-9.63389
▁닫	-9.63439
▁봉	-9.63498
▁특정	-9.63628
▁시도	-9.63636
▁동일	-9.63868
▁최악	-9.63968
▁족	-9.63982
▁짱깨	-9.63983
집	-9.64086
▁아마	-9.64097
▁겟	-9.64328
▁끊	-9.6433
▁음식	-9.64332
래	-9.64346
▁뿌리	-9.64489
복	-9.64511
▁분야	-9.64543
색	-9.64559
▁시설	-9.64586
▁엄청난	-9.64691
▁류	-9.64745
▁시위	-9.64809
▁특성	-9.64957
▁적극	-9.64991
▁했었	-9.65086
▁보상	-9.65091
▁대하	-9.65137
▁이론	-9.65322
▁조치	-9.65361
▁판결	-9.65377
▁태도	-9.65457
▁권리	-9.65484
▁기독교	-9.65619
▁따로	-9.6568
▁짓거리	-9.65818
▁T	-9.65875
▁감옥	-9.66002
근	-9.66105
▁역대	-9.66125
▁2018	-9.66152
▁제시	-9.66284
▁시킬	-9.664
길	-9.66497
▁나서	-9.66549
▁연기	-9.66587
▁멍청	-9.66599
▁요소	-9.66699
▁꽤	-9.66761
▁택시	-9.66777
▁처먹	-9.6681
▁미군	-9.66821
▁섬	-9.6683
▁당했	-9.66859
▁잠	-9.66907
▁법무부	-9.6695
▁윤석열	-9.6703
▁부산	-9.67032
▁이기	-9.67228
▁정확	-9.6725
▁송	-9.67343
▁남불	-9.67499
강	-9.67536
▁유공자	-9.67547
여	-9.67588
권	-9.6764
창	-9.67682
▁어야지	-9.67745
▁악마	-9.67829
▁느냐	-9.67838
▁신고	-9.68039
▁느라	-9.68045
▁특별	-9.68144
▁행정	-9.68268
▁예상	-9.68313
▁시점	-9.68314
▁해석	-9.68341
▁집값	-9.68353
▁불안	-9.68354
▁대중	-9.68384
▁상승	-9.68437
▁교사	-9.68509
▁외국인	-9.68554
▁계약	-9.68564
▁별로	-9.68593
▁잠시	-9.68624
▁규제	-9.68639
▁박정희	-9.68643
▁회복	-9.68706
▁표정	-9.68782
▁운	-9.68782
▁랄	-9.6889
거리	-9.6892
▁가만히	-9.68933
양	-9.68993
림	-9.69022
다는	-9.69246
▁훈련	-9.69267
▁내년	-9.69276
▁자세	-9.69381
▁영어	-9.69447
내	-9.69611
▁맨날	-9.69622
▁으	-9.69642
▁우파	-9.69656
왕	-9.6966
▁통제	-9.69673
▁대회	-9.69735
▁상품	-9.69751
▁투	-9.69773
▁누	-9.69906
▁수행	-9.69909
▁분열	-9.69995
▁존	-9.70016
망	-9.7003
▁요청	-9.70065
▁감염	-9.70184
▁은행	-9.70298
▁땐	-9.7032
▁고개	-9.70342
▁군인	-9.70351
▁체	-9.70403
▁등등	-9.7045
▁자동차	-9.70471
▁외치	-9.70599
▁키우	-9.70617
▁알려	-9.70685
▁주택	-9.70877
▁거래	-9.70899
▁돌리	-9.7091
졌	-9.70987
와	-9.71101
▁아닌데	-9.7115
▁봄	-9.71222
▁빠져	-9.71496
▁거든	-9.71505
s	-9.71521
▁TV	-9.71541
▁부자	-9.7155
▁업	-9.71606
▁정은	-9.71624
▁슬	-9.71739
▁기다리	-9.71742
▁전통	-9.71746
▁웃기	-9.71776
▁영웅	-9.71786
▁이걸	-9.71829
▁걍	-9.71842
▁로운	-9.71853
▁수많	-9.71904
▁승	-9.7199
▁변호사	-9.72186
▁현장	-9.72243
▁형성	-9.72288
▁덮	-9.72426
▁떠	-9.72428
▁뜨	-9.72445
▁칠	-9.72459
▁2017	-9.72601
▁생긴	-9.72674
▁썼	-9.72743
▁누리	-9.72892
▁마저	-9.72969
▁조선족	-9.73009
▁지배	-9.73027
▁변경	-9.73119
▁똑같이	-9.7312
▁P	-9.73144
▁매국노	-9.73184
▁는다는	-9.73193
▁는다고	-9.73223
▁레벨	-9.73227
▁예수	-9.73495
▁꼬라지	-9.73631
▁조선일보	-9.7367
▁건설	-9.73743
▁싹	-9.73745
▁드라마	-9.73826
▁신뢰	-9.7393
▁벌써	-9.73988
▁충분히	-9.74037
▁근	-9.74038
▁뛰	-9.74118
▁모델	-9.74131
▁냄새	-9.74142
▁주도	-9.74194
▁나누	-9.74263
▁저러	-9.74283
▁차량	-9.74321
▁실력	-9.74425
▁단지	-9.74459
▁시켜야	-9.74547
▁의도	-9.74553
▁했으나	-9.74606
▁자금	-9.74612
▁200	-9.74689
▁독	-9.74748
▁단순	-9.7475
피	-9.74779
▁장사	-9.74998
▁주사	-9.75004
▁강한	-9.75007
▁일정	-9.75133
▁중간	-9.75172
증	-9.75178
▁인도	-9.75239
▁헌법	-9.75261
▁경영	-9.75269
▁m	-9.75289
▁자녀	-9.75344
▁몰랐	-9.75356
▁에요	-9.75362
▁공산주의	-9.75399
철	-9.75402
▁000	-9.75527
▁평등	-9.75537
▁2019	-9.75703
▁24	-9.75801
▁원전	-9.75838
▁혁명	-9.75886
▁원칙	-9.75916
▁각종	-9.75973
▁목사	-9.75991
▁앙	-9.75995
▁스타	-9.76118
▁조용히	-9.76168
▁회의	-9.76313
▁마법	-9.76322
▁바닥	-9.76339
▁X	-9.7636
▁집중	-9.7637
▁의료	-9.76388
▁조정	-9.76458
▁무섭	-9.76579
▁특수	-9.76688
▁꽃	-9.76753
▁복	-9.76837
▁도덕	-9.7689
▁탄	-9.77014
▁넘어가	-9.7702
▁올라가	-9.77028
▁주의	-9.77079
▁달러	-9.77098
▁정작	-9.771
▁브	-9.7712
▁접	-9.77177
▁지지자	-9.77287
▁2016	-9.77288
▁집권	-9.77371
▁전문가	-9.77436
▁노동	-9.77532
▁갈등	-9.77584
랑	-9.77658
▁조심	-9.77665
다고	-9.77724
▁폰	-9.77765
▁장난	-9.77908
▁불과	-9.77966
▁보고	-9.77985
환	-9.78027
▁부부	-9.7804
▁르	-9.78082
▁우주	-9.7823
▁억울	-9.78305
▁사례	-9.78402
▁댓	-9.78456
▁대사	-9.78494
▁아빠	-9.78553
▁일까	-9.78657
▁F	-9.78755
▁짧	-9.78784
▁셈	-9.78912
▁실수	-9.78921
▁폭력	-9.78968
▁R	-9.79116
▁도로	-9.7941
▁공감	-9.79425
▁대선	-9.79484
▁미리	-9.79653
츠	-9.79683
▁폐렴	-9.79802
▁누군가	-9.79804
▁복지	-9.79884
▁대전	-9.79884
▁체계	-9.79993
▁자면	-9.79995
▁교	-9.80157
어지	-9.80202
▁담당	-9.80231
▁옛날	-9.80252
▁이놈	-9.80259
청	-9.80282
▁안보	-9.80324
▁폐지	-9.80517
▁개선	-9.80581
저	-9.80634
▁바다	-9.80663
▁최순	-9.80671
▁광	-9.80877
▁타령	-9.80941
브	-9.81037
▁약속	-9.81059
난	-9.81182
▁주요	-9.81209
▁부리	-9.81302
▁통과	-9.81347
▁넓	-9.81452
▁출연	-9.81532
▁대학교	-9.81658
▁그룹	-9.81691
▁정체	-9.81749
▁굳이	-9.81805
덕	-9.81809
▁의무	-9.81847
▁짜리	-9.81984
▁품	-9.82033
▁방어	-9.82047
▁제국	-9.8213
▁22	-9.82188
▁으려고	-9.8219
▁가득	-9.82213
▁했으며	-9.82245
▁격리	-9.82302
▁기에	-9.82329
▁--	-9.82395
▁커	-9.82435
▁90	-9.8256
▁혜택	-9.82588
▁반면	-9.82597
▁이끌	-9.82616
▁명령	-9.82681
▁낼	-9.82727
▁내놓	-9.82742
▁핵심	-9.82977
▁태극기	-9.8299
순	-9.8302
▁개판	-9.83101
▁밝히	-9.83184
▁격	-9.83217
▁위원회	-9.83315
▁2015	-9.8333
▁최종	-9.83346
▁모른다	-9.83355
령	-9.83451
▁여야	-9.83472
▁근무	-9.83483
▁위협	-9.83574
▁의한	-9.83574
▁강남	-9.83578
▁죄인	-9.83588
▁폐	-9.83671
▁수익	-9.83773
▁상관	-9.83823
▁문통	-9.83825
▁으므로	-9.8393
▁지도	-9.83933
▁강조	-9.83967
설	-9.83992
▁혼	-9.84047
분	-9.84084
건	-9.84106
▁부담	-9.84218
▁프	-9.84295
▁사항	-9.84344
▁재판	-9.84438
반	-9.84488
▁전자	-9.84491
▁찬	-9.84587
▁민국	-9.84653
▁혜	-9.847
▁지급	-9.84704
생	-9.84808
▁슈	-9.84938
▁아닙니다	-9.85006
▁마세요	-9.85126
▁빠지	-9.85172
▁회장	-9.85175
▁노예	-9.85178
▁초반	-9.85182
▁이명박	-9.85222
▁이곳	-9.85273
▁빠르	-9.854
▁빌	-9.85441
▁수도	-9.85568
▁장애	-9.85576
▁깨끗	-9.85579
▁다리	-9.85596
▁희	-9.85612
▁헛소리	-9.85853
▁국당	-9.86008
▁옹호	-9.86037
▁장기	-9.8606
▁각각	-9.86217
▁약간	-9.86257
▁성적	-9.86304
▁미치	-9.86348
▁뜯	-9.86355
▁쌓	-9.86424
▁수단	-9.86437
할	-9.86457
▁국정	-9.86466
▁답답	-9.86623
▁동생	-9.86668
▁양아치	-9.867
▁23	-9.86721
▁쏘	-9.86794
▁구하	-9.86836
▁주위	-9.86856
▁나와서	-9.86869
▁보장	-9.86935
▁합의	-9.86952
▁지도자	-9.86965
▁지켜	-9.86974
▁챙기	-9.87062
▁확실히	-9.87126
▁대비	-9.87143
류	-9.87379
▁줘	-9.87412
▁상상	-9.87556
▁동원	-9.87683
▁늙	-9.87727
▁태	-9.87795
▁멤버	-9.87951
▁그러면	-9.88027
▁언	-9.88057
▁니깐	-9.88081
▁장소	-9.88141
▁나간	-9.88463
▁광화문	-9.88468
▁둔	-9.88593
▁찌	-9.88823
▁움직이	-9.88827
▁통하	-9.88831
▁꼴통	-9.88834
▁방문	-9.88891
봉	-9.89069
▁반복	-9.89312
▁논	-9.89334
▁작용	-9.89368
▁강하	-9.89374
▁거지	-9.89503
▁합리	-9.89532
▁H	-9.89535
▁프레임	-9.89668
▁기도	-9.89673
▁유저	-9.89806
▁기부	-9.89814
약	-9.89872
후	-9.89895
▁금융	-9.90029
▁향해	-9.90054
▁희생	-9.90057
▁드리	-9.90121
▁데리	-9.9016
▁따지	-9.90189
져	-9.90254
▁구체	-9.90302
▁지내	-9.9033
▁사라지	-9.90533
▁직장	-9.90581
▁천만	-9.90588
▁아프	-9.90608
▁터지	-9.90702
▁평소	-9.90779
▁대처	-9.90835
직	-9.90912
▁노동자	-9.9099
▁짖	-9.91012
▁떠들	-9.91115
남	-9.91117
더	-9.91125
▁그곳	-9.91163
▁당선	-9.91238
▁공급	-9.91285
▁봅니다	-9.91323
▁어른	-9.91338
▁공산	-9.91422
▁연예인	-9.91459
▁거대	-9.91603
▁더만	-9.91779
▁끝나	-9.91892
▁바란다	-9.91964
▁투기	-9.91988
▁벽	-9.92017
▁청산	-9.9228
▁돌려	-9.92297
▁최저	-9.92343
▁내려	-9.92381
▁햇	-9.92414
▁이럴	-9.92482
▁예산	-9.92484
▁그러니까	-9.9249
▁세우	-9.92521
▁전기	-9.9259
▁할지	-9.92654
▁캐	-9.92678
▁너무나	-9.92705
▁동의	-9.9276
▁예요	-9.92911
▁~!	-9.92952
▁법원	-9.92991
▁범	-9.93012
▁에너지	-9.93017
▁이리	-9.9306
▁체력	-9.93062
▁감소	-9.93085
▁혀	-9.93141
▁어떠	-9.9316
▁장비	-9.93221
▁상처	-9.93277
▁베트남	-9.93334
▁대출	-9.93389
▁철수	-9.93519
▁칸	-9.9352
표	-9.93594
▁올림픽	-9.93633
▁비하	-9.93743
▁안타깝	-9.93816
▁이념	-9.93858
업	-9.93922
▁아무런	-9.93984
▁축구	-9.94049
▁예술	-9.94062
▁위안부	-9.94252
▁자원	-9.94292
▁접근	-9.94301
불	-9.94313
▁방해	-9.9432
▁센터	-9.94403
▁숫자	-9.94444
▁자영업	-9.94527
▁E	-9.94529
▁청문회	-9.94757
▁컴퓨터	-9.94796
▁일상	-9.94833
▁2014	-9.94889
▁높이	-9.94911
▁대변인	-9.95022
▁최소한	-9.95109
▁소개	-9.95431
▁람	-9.95457
▁고서	-9.95469
▁전두환	-9.95514
▁뭔지	-9.95562
▁확률	-9.95623
▁심하	-9.95698
▁냈	-9.95732
매	-9.95786
테	-9.95873
탄	-9.96024
목	-9.96062
▁의하	-9.96219
▁시국	-9.96221
▁형식	-9.96274
▁실험	-9.96437
▁겨우	-9.96865
▁지경	-9.9687
▁500	-9.96932
▁얼	-9.96965
▁서울대	-9.9704
▁녀	-9.97042
▁2000	-9.97065
릴	-9.97229
▁기초	-9.9723
▁황제	-9.97281
▁아니면	-9.9731
▁항	-9.97331
▁결코	-9.97394
승	-9.974
▁논문	-9.97407
▁기계	-9.97562
▁결론	-9.9758
▁불러	-9.97616
▁확보	-9.97649
▁살리	-9.97671
각	-9.97682
▁훌륭	-9.97761
▁견	-9.97768
▁보유	-9.97774
▁도입	-9.97805
▁지나가	-9.97866
▁벗어나	-9.97924
▁동료	-9.97962
▁개입	-9.9797
▁손해	-9.98004
▁차단	-9.98014
▁사전	-9.98103
▁밝혀	-9.98146
▁의지	-9.98401
▁막말	-9.98432
▁상당	-9.98433
▁줘라	-9.98482
▁갱	-9.98501
▁제기	-9.98543
▁평균	-9.9859
달	-9.98648
▁빚	-9.98819
▁군요	-9.9886
▁작전	-9.98913
▁고민	-9.98947
▁천지	-9.9907
▁따위	-9.99079
▁야지	-9.99086
▁보스	-9.99186
▁사이트	-9.99194
▁더럽	-9.99196
했	-9.993
▁차례	-9.99353
▁졸업	-9.99406
▁학원	-9.99466
울	-9.99636
▁협력	-9.99682
▁때리	-9.99745
▁불편	-9.99757
▁동맹	-9.99765
▁꾸	-9.9978
▁에게서	-9.99822
▁영역	-9.99861
▁고소	-9.99932
▁추진	-10.0013
▁공동	-10.0025
▁300	-10.0035
▁미안	-10.0046
▁보복	-10.0048
▁느그	-10.0053
▁뒷	-10.0059
▁충격	-10.0075
▁한반도	-10.0075
▁L	-10.0076
▁지시	-10.0079
▁사정	-10.0079
▁협박	-10.008
초	-10.0081
▁철학	-10.0087
▁그네	-10.0088
▁독자	-10.0092
▁저기	-10.0094
▁즈	-10.0095
▁짐	-10.0096
▁을지	-10.0101
▁선언	-10.0107
▁혹시	-10.0107
▁자국민	-10.0108
범	-10.0108
▁개정	-10.012
▁스토리	-10.0122
광	-10.0163
속	-10.0166
▁죄다	-10.0168
▁무역	-10.0169
▁무장	-10.0169
박	-10.0176
▁가까운	-10.0182
▁만족	-10.0185
▁성과	-10.0187
▁계산	-10.0195
▁행	-10.0195
렸	-10.0197
▁에겐	-10.0198
▁감성	-10.0211
▁벗	-10.0212
▁상대방	-10.0213
▁노선	-10.0216
▁기반	-10.022
▁총리	-10.0231
▁한계	-10.0234
▁장군	-10.0235
▁적어도	-10.0245
▁찬성	-10.0253
년	-10.0254
▁깔	-10.0255
▁협상	-10.026
▁망치	-10.0271
▁토론	-10.0274
▁녀석	-10.0278
▁가끔	-10.0284
▁클럽	-10.0287
▁옥	-10.0288
▁라인	-10.029
▁쑈	-10.0293
▁이성	-10.0301
▁그래야	-10.0307
▁전환	-10.0311
▁한번	-10.0312
▁교활	-10.0312
▁유학	-10.0314
▁맺	-10.0314
▁박사	-10.0315
▁저녁	-10.0317
▁언제나	-10.0319
▁논란	-10.0319
▁본질	-10.0321
▁2010	-10.0322
▁맞추	-10.0328
▁말아먹	-10.0336
▁물질	-10.0341
▁을까요	-10.0345
▁우승	-10.0347
▁그만큼	-10.0354
▁인터뷰	-10.0358
▁묘사	-10.0358
▁와중	-10.0379
쿠	-10.038
메	-10.0389
▁앞서	-10.0394
▁제거	-10.0407
▁고용	-10.0407
▁종류	-10.0408
▁페미	-10.0414
▁나쁘	-10.0425
▁시켜라	-10.0428
▁양반	-10.0433
▁페	-10.0446
▁투쟁	-10.0454
▁모아	-10.0455
▁용서	-10.0472
대놓고	-10.0473
▁영혼	-10.05
▁나름	-10.0509
살아가	-10.0513
▁어제	-10.0518
▁플레이어	-10.0521
▁신청	-10.0525
▁당해	-10.053
▁구매	-10.0534
▁소환	-10.0534
▁짜증	-10.0538
▁칭찬	-10.054
▁도착	-10.0543
▁소식	-10.0548
▁따른	-10.0553
▁아야지	-10.0569
▁최소	-10.0571
▁전형	-10.0583
▁이래	-10.0584
▁진다	-10.0585
▁2013	-10.0597
▁기생충	-10.0604
열	-10.061
▁통해서	-10.0628
▁뒤집	-10.0629
▁극우	-10.0636
▁공기	-10.0638
▁담배	-10.0639
▁수정	-10.0644
▁고등학교	-10.0663
▁예정	-10.0672
▁디자인	-10.0677
▁비례	-10.0678
품	-10.068
▁육	-10.0683
▁명단	-10.0688
▁몽	-10.069
▁확대	-10.0692
락	-10.0703
▁학	-10.0718
▁소비자	-10.072
▁진출	-10.0728
▁x	-10.0729
▁남북	-10.0735
▁땜	-10.0738
▁비밀	-10.0742
▁교체	-10.0742
▁초등	-10.0743
▁사법	-10.0749
▁착각	-10.0756
언	-10.0756
애	-10.077
▁혼란	-10.0781
함	-10.0781
▁2012	-10.0781
▁푸	-10.0792
▁원숭이	-10.0792
▁장악	-10.0798
▁상징	-10.0804
▁인류	-10.0807
▁비율	-10.0823
▁인한	-10.0837
▁멀리	-10.0843
▁지옥	-10.0844
▁순위	-10.0844
▁취소	-10.0845
▁근본	-10.0852
▁31	-10.0856
▁근처	-10.0859
버	-10.0861
▁전달	-10.0872
▁헬	-10.0873
▁범위	-10.0879
▁충분	-10.0884
▁다행	-10.0885
▁지정	-10.0887
▁오직	-10.0891
▁워	-10.0895
▁버전	-10.091
▁학년	-10.0911
▁이벤트	-10.0918
▁배치	-10.0919
▁증명	-10.0921
▁다루	-10.0926
▁대다수	-10.0927
▁소비	-10.0934
▁깜	-10.0951
▁다운	-10.0951
말	-10.0956
▁수업	-10.0957
▁관광	-10.0967
행	-10.0976
▁유튜브	-10.0977
▁영업	-10.0981
▁철저히	-10.0998
▁저것	-10.0998
▁무서운	-10.1
▁공사	-10.1013
▁뻔	-10.1021
▁폭발	-10.1021
▁봉사	-10.1029
▁웃음	-10.1033
▁유닛	-10.1034
▁운전	-10.1043
▁소유	-10.1051
▁추구	-10.1059
배	-10.1059
▁시각	-10.1066
▁창조	-10.1069
▁추천	-10.1072
▁시행	-10.1074
▁구역	-10.1082
▁보단	-10.1097
▁26	-10.11
▁측면	-10.1102
▁딴	-10.1104
처	-10.1114
▁나갔	-10.1118
▁유사	-10.1123
려오	-10.1128
▁쌍	-10.1132
▁작성	-10.1135
술	-10.1139
▁성능	-10.1141
▁표시	-10.1153
▁인민	-10.1159
▁28	-10.1169
▁새로	-10.1169
▁아닌가요	-10.1178
본	-10.1184
돌아오	-10.1185
▁들어갔	-10.1192
▁!!	-10.1196
▁축	-10.1212
▁수십	-10.1227
▁다를	-10.1229
▁브랜드	-10.1238
날	-10.1238
▁정의당	-10.1239
▁시선	-10.1241
▁바른	-10.1247
▁취업	-10.1254
▁고발	-10.1261
▁실시	-10.1272
▁겨	-10.1288
▁선물	-10.1293
▁똑바로	-10.1298
▁조용	-10.132
▁씹	-10.1328
곡	-10.1329
▁짝	-10.1343
▁구라	-10.1348
▁수치	-10.1352
▁부여	-10.1358
▁빠른	-10.1361
▁아이템	-10.1376
▁비싸	-10.1394
▁걸려	-10.1399
▁민노총	-10.1402
삼	-10.1403
▁성인	-10.1405
▁헤	-10.141
▁자마자	-10.1418
▁활약	-10.1421
▁참가	-10.1423
▁엘	-10.1425
▁흔들	-10.1425
▁민심	-10.1427
▁스포츠	-10.1436
▁환	-10.1443
▁입학	-10.1454
▁버티	-10.1456
▁줄이	-10.1457
▁인가요	-10.146
▁순수	-10.146
▁호구	-10.1476
▁저거	-10.1478
▁모드	-10.1483
▁츠	-10.1485
▁통계	-10.1496
▁성향	-10.1496
▁효율	-10.1498
▁변	-10.1501
▁......	-10.1501
▁백성	-10.1504
▁청구	-10.1505
른	-10.1505
▁사유	-10.1507
▁W	-10.1511
▁정확히	-10.1511
▁손가락	-10.1515
▁해방	-10.1518
▁닮	-10.1522
▁존경	-10.1524
▁발매	-10.1526
▁참으로	-10.1531
▁배경	-10.1536
▁기타	-10.1554
▁저렇	-10.1558
▁패배	-10.156
▁무대	-10.1564
▁탑	-10.1568
▁느	-10.1568
담	-10.1569
▁홍콩	-10.1574
스트	-10.1576
▁27	-10.1579
▁소녀	-10.1583
▁끝내	-10.159
▁솔	-10.1591
▁수상	-10.1592
▁아가리	-10.1592
▁못해	-10.1595
▁N	-10.1596
▁단다	-10.16
▁수록	-10.1604
새	-10.1605
▁제안	-10.1619
▁몰라	-10.1625
▁고향	-10.1625
▁녹	-10.1627
투	-10.1635
▁편지	-10.1637
훈	-10.1639
▁근대	-10.1646
▁침	-10.1657
▁소재	-10.1659
▁이딴	-10.1668
▁로마	-10.1669
▁입니까	-10.1672
▁력	-10.1677
▁가난	-10.1684
▁일본인	-10.1688
▁분류	-10.1691
▁완성	-10.1706
▁운운	-10.1716
▁감싸	-10.1731
▁방역	-10.1733
으며	-10.1741
▁오로지	-10.1742
▁상호	-10.1742
▁가까이	-10.1743
▁이래서	-10.1747
▁외부	-10.1748
▁걸린	-10.1753
▁전하	-10.1754
▁였으며	-10.1756
▁고대	-10.1767
▁설립	-10.177
▁분명히	-10.1773
▁데미지	-10.1777
든	-10.1779
▁주일	-10.1781
▁드러나	-10.1783
▁시진핑	-10.1785
▁마냥	-10.1786
▁공포	-10.1786
▁마약	-10.1791
▁아줌마	-10.1795
▁경향	-10.1797
▁부끄럽	-10.18
▁왜곡	-10.1802
을	-10.1816
▁자본	-10.1826
▁꺼내	-10.1829
▁대형	-10.1832
▁에휴	-10.1835
▁니다	-10.1844
▁용기	-10.1845
▁달성	-10.1845
▁다수	-10.1849
▁선진국	-10.185
▁나베	-10.1856
▁시급	-10.1861
▁저항	-10.1864
▁번역	-10.1874
▁2011	-10.1876
▁올랐	-10.188
▁로써	-10.1891
▁우린	-10.1894
▁사냥	-10.1896
▁수술	-10.1897
▁연합	-10.1898
▁이혼	-10.191
▁이탈리아	-10.1912
▁욕심	-10.1916
찬	-10.1922
름	-10.1924
▁분리	-10.1925
▁전개	-10.1927
▁해체	-10.1946
▁추정	-10.1948
▁일부러	-10.1954
▁인성	-10.1954
▁클	-10.1963
▁자국	-10.1974
▁통신	-10.1975
▁저리	-10.1977
▁샤	-10.1978
▁후손	-10.198
송	-10.2001
▁논의	-10.2008
▁사이비	-10.201
▁형제	-10.2017
▁붉	-10.2018
친	-10.2019
▁딜	-10.2023
▁홍보	-10.2023
▁명예	-10.2028
를	-10.2029
▁연속	-10.203
▁슈퍼	-10.204
▁주체	-10.2048
▁내일	-10.2051
▁임기	-10.2055
▁문자	-10.2055
▁밟	-10.2056
▁보냈	-10.2065
▁편하	-10.2069
▁비록	-10.208
▁주문	-10.2084
▁공공	-10.2086
▁산다	-10.2088
▁J	-10.2088
▁삭제	-10.2091
▁일으키	-10.2092
▁성우	-10.2094
평	-10.2101
▁위대	-10.2104
▁타격	-10.2118
▁부활	-10.2124
▁자빠졌	-10.2138
칠	-10.2146
▁실천	-10.215
▁풍	-10.218
▁변하	-10.2186
▁란다	-10.2191
▁못할	-10.2194
▁으시	-10.2194
▁위반	-10.2195
▁그날	-10.2199
등	-10.2199
▁절대로	-10.2203
▁피하	-10.2207
▁오늘날	-10.2212
▁병사	-10.2214
▁자본주의	-10.2215
▁자극	-10.2216
규	-10.2223
▁아기	-10.2226
▁수석	-10.2231
▁이외	-10.2234
▁진영	-10.2235
▁우려	-10.2241
▁펀드	-10.2246
▁조중동	-10.2252
케	-10.2257
▁우리나라	-10.226
▁늘어나	-10.2265
옥	-10.2266
▁안철수	-10.2271
▁몬스터	-10.2271
▁아닐	-10.2272
▁스타일	-10.2273
▁겨울	-10.2276
▁직전	-10.2284
▁먼지	-10.2289
▁단식	-10.2289
▁자라	-10.2296
▁극복	-10.2301
살	-10.2304
▁합	-10.2313
▁만화	-10.2316
▁블	-10.2318
▁굉장히	-10.232
▁불만	-10.2327
입	-10.2328
▁구입	-10.2329
쳤	-10.2353
▁벌레	-10.2357
▁아시아	-10.2361
▁귀족	-10.2362
▁버린다	-10.2362
▁탈출	-10.2365
▁여름	-10.2372
▁정신병자	-10.2375
▁금액	-10.2375
▁나아가	-10.2379
▁연장	-10.2382
▁린	-10.2385
▁가해자	-10.2387
▁실망	-10.2392
▁문가	-10.2399
▁무죄	-10.2407
▁쌀	-10.2408
▁든다	-10.2419
▁V	-10.2425
빈	-10.2428
▁전원	-10.243
▁그러므로	-10.2432
▁교통	-10.2432
▁달라	-10.2433
▁여부	-10.2438
▁향	-10.2443
▁가입	-10.2443
▁관점	-10.2445
▁태어나	-10.2455
▁카페	-10.246
▁스런	-10.2475
▁마디	-10.2478
▁29	-10.2485
▁계기	-10.2494
▁새기	-10.2495
▁변명	-10.2496
▁철저	-10.2497
▁문정	-10.2502
▁둘째	-10.2508
▁속성	-10.2513
6	-10.2516
▁의문	-10.2519
▁허용	-10.252
▁영원히	-10.2522
▁구요	-10.2524
▁고요	-10.2525
▁팔아먹	-10.2527
▁공항	-10.2529
▁나갈	-10.2533
▁이득	-10.2538
▁심리	-10.2538
▁식민지	-10.2539
▁져야	-10.2541
▁혈세	-10.2542
절	-10.2543
▁치매	-10.2545
▁시청	-10.2548
▁거라	-10.2549
▁질서	-10.2549
▁레이	-10.255
▁~~~~	-10.2554
▁밝	-10.2555
▁굴	-10.2556
▁식사	-10.2562
▁신체	-10.2577
▁스트레스	-10.2577
▁중대	-10.2582
▁중단	-10.2596
번	-10.2597
▁화이팅	-10.2599
▁드루	-10.2601
▁출시	-10.2602
▁뺏	-10.2605
▁애비	-10.261
▁학습	-10.2611
백	-10.2616
▁맹	-10.2628
▁살펴보	-10.2631
▁턴	-10.2636
▁선정	-10.2637
▁종합	-10.2649
충	-10.265
▁강간	-10.2655
▁시원	-10.2661
▁적절	-10.2661
▁식당	-10.2662
▁후반	-10.2664
갈	-10.2667
▁노릇	-10.2676
▁운명	-10.2678
y	-10.2681
▁힘내	-10.2683
▁위선	-10.2686
▁크기	-10.2687
▁핑계	-10.2687
▁일당	-10.2688
▁모여	-10.2691
▁공작	-10.2697
▁자동	-10.2697
▁해졌	-10.2699
▁확	-10.27
▁윤미향	-10.2706
▁등급	-10.2707
▁물리	-10.2709
족	-10.2711
▁온라인	-10.2723
▁계시	-10.2728
▁빠진	-10.2731
▁욕먹	-10.275
▁애국	-10.2753
▁대우	-10.2754
아들이	-10.2754
▁원하	-10.2758
▁검색	-10.2759
퍼	-10.2759
▁평범	-10.276
▁문정부	-10.276
▁부패	-10.2768
▁바탕	-10.2769
▁폭탄	-10.2775
▁도둑	-10.2776
▁등록	-10.2777
▁에다	-10.2779
▁폭행	-10.2785
▁번호	-10.2787
▁몇몇	-10.2787
▁건가요	-10.2792
▁잖아요	-10.28
줄	-10.2803
▁공연	-10.2813
▁쩝쩝	-10.2814
▁법률	-10.2815
▁했으니	-10.2815
▁소년	-10.2815
▁참석	-10.2816
작	-10.2828
▁저게	-10.2836
▁남녀	-10.2842
▁시체	-10.2845
▁절차	-10.2851
▁당당	-10.2856
▁먹이	-10.2856
▁리더	-10.2859
▁붙이	-10.2865
▁특검	-10.2866
▁휘	-10.2866
▁함부로	-10.2867
▁518	-10.2873
▁확정	-10.2874
▁김대중	-10.2894
▁반영	-10.2898
▁떨어진	-10.2901
▁유치원	-10.2904
▁한참	-10.2906
▁기획	-10.291
▁도전	-10.2912
▁지니	-10.2913
▁닥	-10.2914
▁였으나	-10.2914
▁선전	-10.292
▁청소년	-10.2921
▁완벽	-10.2925
록	-10.2926
녀	-10.293
▁놀이	-10.2936
▁단순히	-10.2948
▁저희	-10.2954
▁한지	-10.2958
▁어휴	-10.2959
▁알리	-10.2962
▁혐오	-10.2971
돌아다니	-10.2977
▁자산	-10.2981
▁드러내	-10.2984
▁아웃	-10.2989
▁실현	-10.2995
▁징역	-10.2996
▁지켜보	-10.2996
▁고맙	-10.2998
▁대통	-10.2998
▁2008	-10.2998
▁소련	-10.3004
암	-10.3006
▁아닐까	-10.3026
▁한가	-10.3027
▁방사능	-10.3029
▁푼	-10.3033
▁일반인	-10.3035
▁바꿔	-10.3035
▁느껴	-10.3041
▁흐름	-10.3049
▁나눠	-10.3067
▁몬	-10.3072
▁계급	-10.3072
▁북괴	-10.3085
▁긍정	-10.3094
▁김일성	-10.3094
▁떨어져	-10.3097
▁살려	-10.3099
▁앨범	-10.3104
▁몰라도	-10.3108
▁조합	-10.3128
▁숲	-10.3129
▁간단	-10.3129
▁재난	-10.3138
▁지능	-10.3142
변	-10.3146
▁아저씨	-10.3152
▁km	-10.3154
▁감시	-10.3155
▁보낸	-10.316
▁공중	-10.3165
▁s	-10.3168
▁종자	-10.3176
▁미쳤	-10.3183
▁투입	-10.3185
▁집행	-10.3187
▁예배	-10.3194
▁아깝	-10.3197
▁자네	-10.3216
▁절반	-10.322
▁빡	-10.3229
▁적당히	-10.3239
▁확산	-10.3244
▁복잡	-10.3244
책	-10.3246
▁젊은이	-10.325
▁단위	-10.3262
▁으라고	-10.3269
▁짐승	-10.3269
▁권한	-10.3276
▁미개	-10.3279
▁학자	-10.328
▁요리	-10.3284
▁라이	-10.3286
▁공격력	-10.3291
▁비행기	-10.3291
▁소수	-10.3293
▁어깨	-10.3294
▁기소	-10.3295
▁주목	-10.3298
▁가게	-10.3306
▁2009	-10.3306
▁할아버지	-10.331
▁끄	-10.3313
▁생존	-10.332
▁종이	-10.3325
▁재정	-10.3329
▁줘서	-10.333
▁못한다	-10.3334
▁좌우	-10.3342
▁아닌지	-10.3344
▁연락	-10.335
▁아름다운	-10.3357
쳐	-10.3366
▁장치	-10.3373
▁수용	-10.3383
▁일행	-10.3386
▁쟤	-10.3388
▁필	-10.3389
▁연관	-10.339
▁취하	-10.3391
▁패턴	-10.3394
▁민간	-10.3397
▁남한	-10.3402
▁젖	-10.3411
▁물가	-10.3417
▁진중권	-10.3424
▁당할	-10.3427
▁량	-10.3432
▁가수	-10.3432
▁부하	-10.3441
▁괜히	-10.3441
▁KBS	-10.3449
▁갖추	-10.3459
▁대안	-10.3464
▁한두	-10.3466
▁효	-10.3466
▁놀라	-10.3475
▁소문	-10.348
▁테러	-10.349
▁돕	-10.3492
▁공동체	-10.3495
▁새벽	-10.3511
▁으려	-10.3514
독	-10.3515
▁즐기	-10.3527
▁흘리	-10.3528
▁채널	-10.3529
▁찬양	-10.353
▁추종	-10.3539
▁링	-10.3539
▁역겹	-10.3547
▁이슈	-10.3552
▁손혜원	-10.3553
채	-10.3555
▁인증	-10.3559
▁아마도	-10.3572
▁좁	-10.3576
웠	-10.3577
▁위원	-10.3579
▁된다면	-10.3579
▁어린이	-10.3581
▁충성	-10.3595
▁강요	-10.3599
▁실행	-10.3604
▁맥	-10.3607
▁물타기	-10.3609
▁구리	-10.3613
▁요인	-10.3613
▁공유	-10.3625
▁대기	-10.3627
▁이웃	-10.3632
▁출발	-10.3638
▁대만	-10.3639
▁인천	-10.364
▁인재	-10.3642
▁획득	-10.3652
▁갚	-10.3657
▁쉬운	-10.3659
베	-10.3679
숙	-10.3681
▁야구	-10.3682
▁제재	-10.3683
▁심한	-10.3684
▁제정신	-10.3685
▁소송	-10.3686
▁모조리	-10.3689
▁실질	-10.3692
▁의료진	-10.3696
▁겸	-10.3697
▁쓰이	-10.37
▁그대	-10.3702
▁길래	-10.3703
▁인원	-10.3729
▁여기저기	-10.3732
▁낭비	-10.3738
▁살아남	-10.3741
▁명칭	-10.3742
▁회담	-10.3744
▁기여	-10.3747
▁감방	-10.3773
▁통한	-10.3776
▁1000	-10.378
▁십시오	-10.3785
▁자존심	-10.3785
▁후회	-10.3788
▁국방	-10.3793
▁징	-10.3795
▁며칠	-10.3799
▁O	-10.3805
▁미소	-10.3819
풍	-10.382
악	-10.3822
▁각자	-10.3825
▁일종	-10.3828
▁선발	-10.3828
▁용어	-10.3839
▁무릎	-10.3846
▁올해	-10.3849
▁준다고	-10.3859
▁편집	-10.3859
▁특	-10.3861
▁부상	-10.3864
▁맵	-10.3867
▁강의	-10.387
었	-10.387
▁기득	-10.388
▁발사	-10.3883
▁콜	-10.3886
▁애니메이션	-10.3896
▁세트	-10.3905
▁원리	-10.3906
▁헐	-10.391
▁경계	-10.3913
▁우습	-10.3913
▁파티	-10.3914
▁내내	-10.3919
▁매국	-10.3925
▁작중	-10.3928
▁??	-10.3935
▁신분	-10.3935
▁본래	-10.3944
▁이중	-10.3952
▁패스	-10.3961
▁발악	-10.3963
▁점수	-10.397
너	-10.3973
▁발달	-10.398
▁미디어	-10.3981
슨	-10.4007
▁정경	-10.4009
▁압박	-10.402
▁재미	-10.4036
t	-10.4037
▁옛	-10.4039
▁드립니다	-10.4041
▁멍	-10.4052
▁마누라	-10.406
▁현금	-10.4063
▁구간	-10.4065
▁배달	-10.4068
▁어이없	-10.407
▁운행	-10.4074
▁촬영	-10.4092
▁혁신	-10.4093
▁공주	-10.4097
▁엿	-10.4105
▁여유	-10.4107
▁대장	-10.4115
▁맘대로	-10.4116
▁이렇	-10.4119
▁연봉	-10.4122
▁검토	-10.4123
▁뛰어난	-10.4124
▁투명	-10.4124
▁달려	-10.4126
향	-10.4128
▁탄생	-10.4133
▁한정	-10.4135
▁통화	-10.4135
▁미쳐	-10.4138
▁재벌	-10.4142
▁증	-10.4155
▁항목	-10.4157
▁프리	-10.416
▁고정	-10.4177
▁성폭행	-10.4178
▁졸	-10.4179
▁철도	-10.418
▁홍준표	-10.418
▁한쪽	-10.4183
▁연대	-10.4193
▁전반	-10.4195
▁최선	-10.4199
▁작년	-10.4212
▁공화국	-10.4217
▁데뷔	-10.4218
▁실체	-10.4226
편	-10.4234
▁죽여	-10.4234
▁버릴	-10.4234
▁깊이	-10.4238
▁묵	-10.424
▁죽인	-10.4242
링	-10.4245
er	-10.4248
결	-10.4249
▁소중	-10.4249
▁임무	-10.425
▁존나	-10.4251
▁닦	-10.4251
으면	-10.4252
▁배운	-10.4252
▁35	-10.4253
▁채용	-10.4254
▁어려움	-10.4261
▁상위	-10.4264
▁염	-10.4277
▁혐의	-10.428
▁오지	-10.429
▁자유민주주의	-10.4292
▁할려고	-10.4293
▁숨기	-10.4293
▁거두	-10.4294
▁무지	-10.4295
▁갓	-10.4305
▁자유당	-10.4312
이루어지	-10.4312
▁이민	-10.4316
▁독재자	-10.4318
▁겉	-10.4319
▁검증	-10.432
▁뉴	-10.4321
▁필수	-10.4335
4	-10.4338
▁점령	-10.4342
추	-10.4344
▁첨	-10.4355
▁2020	-10.4357
▁도중	-10.4363
▁잠깐	-10.4365
▁유도	-10.4366
▁경고	-10.4372
▁시켜서	-10.4372
▁흑	-10.438
▁수요	-10.4381
▁존중	-10.4389
항	-10.4392
▁는다면	-10.4395
▁빼앗	-10.4395
▁명분	-10.4405
▁저자	-10.4407
▁오랜	-10.4408
막	-10.4411
▁떡	-10.4415
▁왜냐하면	-10.4418
▁최대한	-10.4424
▁법무	-10.4425
▁신기	-10.4429
▁포인트	-10.443
▁포장	-10.4434
패	-10.4437
▁발휘	-10.4442
▁종료	-10.4445
▁그놈	-10.4453
▁묶	-10.4461
▁날리	-10.4465
월	-10.4466
▁확장	-10.4469
▁똑똑	-10.447
▁본격	-10.4476
▁모를	-10.4477
▁남기	-10.4481
▁p	-10.4485
▁호텔	-10.4485
▁비중	-10.449
▁휴가	-10.4494
▁원작	-10.4496
▁수구	-10.4504
▁농단	-10.4505
급	-10.4507
워	-10.4507
▁꼬리	-10.4508
▁벨	-10.4518
▁정식	-10.4519
▁이라도	-10.4523
▁전사	-10.4526
▁경기도	-10.4528
▁계열	-10.453
▁옮겨	-10.4533
▁신앙	-10.454
으나	-10.455
▁언젠가	-10.455
▁적자	-10.4556
▁어둠	-10.4557
▁공짜	-10.4558
▁마무리	-10.4558
▁셔서	-10.4561
좋아하	-10.4564
▁해봐라	-10.4565
▁뇌물	-10.4572
▁헌	-10.4573
▁거품	-10.4579
▁타인	-10.4581
▁셋	-10.4585
▁런	-10.4585
▁흔히	-10.4589
▁일어났	-10.4593
으니	-10.4595
▁메인	-10.4598
▁늘리	-10.4601
▁배상	-10.4602
▁이재명	-10.4604
▁인력	-10.4605
▁표기	-10.4607
▁발동	-10.4612
▁비싼	-10.4613
▁시계	-10.4614
▁덩어리	-10.4618
룡	-10.4624
겨	-10.4631
니까	-10.4632
▁시킨다	-10.4634
출	-10.4635
▁물러나	-10.4637
▁홍어	-10.4639
▁위조	-10.4641
▁쳤	-10.4643
▁감히	-10.4643
▁동기	-10.4644
▁합니까	-10.4648
▁균형	-10.4654
▁압도	-10.4661
▁전력	-10.4669
▁알바	-10.4673
▁싼	-10.4676
▁깨닫	-10.4678
▁노리	-10.468
▁아프리카	-10.4681
▁벌이	-10.4686
D	-10.4689
▁즉시	-10.469
▁2007	-10.4693
▁주가	-10.4695
▁카메라	-10.4696
▁만일	-10.4699
▁오염	-10.4701
▁시인	-10.4704
▁g	-10.4712
▁해명	-10.4713
▁됬	-10.4718
골	-10.4725
▁고작	-10.4726
▁화면	-10.4728
▁미터	-10.4729
▁내게	-10.4731
▁붕괴	-10.4732
▁줄어들	-10.4733
▁감각	-10.4736
▁엇	-10.4737
▁사법부	-10.4741
▁흐르	-10.4748
▁가르치	-10.4751
▁채우	-10.4762
▁챙겨	-10.4764
▁상관없	-10.4766
▁중도	-10.4768
▁협회	-10.477
▁차려라	-10.4775
▁일어난	-10.4775
▁올라	-10.478
▁엄청나	-10.4781
커	-10.4782
▁문장	-10.4785
▁병력	-10.4791
▁오빠	-10.4795
▁불가	-10.48
▁제출	-10.48
씨	-10.4805
▁조장	-10.4807
▁알아보	-10.4808
▁윤리	-10.4822
▁설계	-10.4823
▁문명	-10.4834
▁여인	-10.4835
▁인하	-10.4844
▁배려	-10.4847
▁프로젝트	-10.4853
▁모임	-10.4855
▁냐는	-10.4859
▁견제	-10.486
▁지닌	-10.4862
▁I	-10.4863
▁드디어	-10.4867
▁좆	-10.487
▁법안	-10.4871
▁정말로	-10.4876
▁왕국	-10.488
▁다섯	-10.4886
▁파리	-10.4889
▁들어간	-10.4892
▁수백	-10.4899
▁대립	-10.49
▁첫째	-10.4906
▁궁	-10.4913
▁국적	-10.4919
▁느꼈	-10.4921
▁갈수록	-10.4922
▁조상	-10.4925
▁규칙	-10.4936
▁매체	-10.4938
▁재료	-10.4941
▁당사자	-10.4941
▁나타났	-10.4959
▁센	-10.4966
▁거절	-10.497
▁젤	-10.4971
▁뼈	-10.4973
▁장점	-10.4973
필	-10.4978
▁커피	-10.4984
▁우수	-10.4987
였	-10.4995
▁폐쇄	-10.4995
▁쉴	-10.4999
▁전해	-10.5007
▁형사	-10.5008
▁대충	-10.5009
▁오후	-10.5009
▁공약	-10.5015
▁튀	-10.5017
▁뚫	-10.5018
▁진리	-10.5025
▁괴물	-10.5026
▁홀	-10.5034
▁사내	-10.5039
▁허가	-10.5045
▁아군	-10.5045
▁예측	-10.5047
취	-10.5047
▁써서	-10.5049
▁데이터	-10.5053
▁올린	-10.5054
▁멈추	-10.506
▁아동	-10.506
▁확신	-10.5071
▁연출	-10.5074
▁도쿄	-10.509
▁불교	-10.5106
▁엔진	-10.5116
먹	-10.5118
▁중소기업	-10.512
▁무너지	-10.5122
▁유형	-10.5122
▁재인	-10.5125
▁조각	-10.5126
▁저지르	-10.5133
▁찾아가	-10.5135
▁파워	-10.5137
▁에라이	-10.5142
▁겁	-10.5143
▁만난	-10.5147
▁고유	-10.5151
▁찰	-10.5155
▁종종	-10.5156
▁올렸	-10.5163
▁대가	-10.5167
▁유통	-10.5168
▁지하철	-10.5168
▁마당	-10.517
▁죽일	-10.5178
▁활	-10.5179
▁신화	-10.518
료	-10.5183
▁전용	-10.5184
▁답변	-10.519
▁복수	-10.5194
▁조성	-10.5195
▁쏟	-10.5196
▁쫌	-10.52
▁벌금	-10.5201
▁추측	-10.5206
▁꿀	-10.5208
▁신라	-10.5209
▁지원금	-10.5211
▁지위	-10.5216
▁인격	-10.522
8	-10.522
▁망신	-10.523
▁일관	-10.523
▁에피소드	-10.5231
▁영원	-10.5234
▁난이도	-10.5234
▁큰일	-10.5246
▁구경	-10.5247
▁누굴	-10.5249
▁쳐다보	-10.5253
▁진화	-10.526
▁도구	-10.526
▁걸렸	-10.526
▁날려	-10.5269
▁고양이	-10.5279
▁열린	-10.528
▁밝혔	-10.5283
▁2006	-10.5283
▁데모	-10.5298
▁늠	-10.5307
▁커다란	-10.5308
▁몰래	-10.531
걸	-10.5313
▁정서	-10.5315
▁종족	-10.532
침	-10.5322
▁압수수색	-10.5324
▁오른	-10.5326
▁c	-10.533
▁쉐	-10.5333
▁무력	-10.5347
▁으론	-10.535
▁경상도	-10.5353
0	-10.5354
견	-10.5354
한다	-10.5354
▁태양	-10.5355
▁세뇌	-10.5368
▁구멍	-10.537
▁고집	-10.5371
▁폴	-10.5373
▁대변	-10.5374
▁위원장	-10.5376
▁복귀	-10.5386
▁뇬	-10.5392
▁전설	-10.5407
▁개최	-10.5407
▁학문	-10.5415
▁토지	-10.5418
▁허위	-10.5418
▁되게	-10.5426
▁마침내	-10.543
▁지하	-10.5442
▁어쩌면	-10.5442
▁불렀	-10.5443
▁내렸	-10.5449
▁마케팅	-10.5451
▁심장	-10.5454
▁능	-10.5471
예	-10.5472
▁가졌	-10.5485
▁죽창	-10.5486
▁고급	-10.5489
▁초대	-10.5494
▁완	-10.5497
▁처분	-10.5497
윤	-10.5509
▁출전	-10.5513
▁연습	-10.5519
▁일치	-10.552
▁닿	-10.5521
▁닝	-10.5526
▁백만	-10.5527
▁동질	-10.5528
▁때려	-10.5533
▁매년	-10.5535
▁2004	-10.5538
▁틈	-10.5548
냐	-10.555
▁설득	-10.5555
▁보일	-10.5567
▁휴	-10.5567
▁겁나	-10.5568
▁만났	-10.5581
▁중반	-10.5591
▁불행	-10.5595
▁사망자	-10.5595
▁쓴다	-10.5597
▁그려	-10.5601
▁다소	-10.5604
▁하긴	-10.5608
▁가문	-10.561
▁객관	-10.5611
▁패거리	-10.5616
▁봐서	-10.5617
▁드립	-10.5621
▁반도체	-10.5626
▁그분	-10.5626
▁이야	-10.5627
▁행태	-10.5628
▁던져	-10.5633
▁모이	-10.5635
▁멀쩡	-10.564
▁반박	-10.5646
▁헛	-10.5651
▁박수	-10.5651
▁찢	-10.5658
▁지향	-10.5662
례	-10.5663
▁의존	-10.5667
▁추방	-10.5673
▁특이	-10.5674
▁그야말로	-10.5679
▁다는데	-10.5681
▁파탄	-10.5688
▁도저히	-10.5696
▁기름	-10.5697
▁폐기	-10.5697
▁서양	-10.5699
▁매장	-10.57
▁하락	-10.5702
▁은퇴	-10.5706
▁마스터	-10.5707
▁선배	-10.5708
▁곁	-10.5711
손	-10.5712
▁구원	-10.5712
▁요새	-10.5718
▁운용	-10.5718
▁하여간	-10.572
나치	-10.572
▁2005	-10.572
▁걸레	-10.573
▁고문	-10.5732
▁금방	-10.5732
▁지휘	-10.5735
▁써라	-10.5738
▁어울리	-10.574
▁틀린	-10.5746
▁애기	-10.5746
▁구축	-10.5748
▁학살	-10.5749
▁2002	-10.5755
▁따뜻	-10.5755
▁체포	-10.5757
▁부문	-10.5763
▁이쪽	-10.5765
▁출산	-10.5773
▁끝난	-10.5774
▁쥬	-10.5777
▁워낙	-10.5778
▁소름	-10.5778
▁이사	-10.5782
리아	-10.5784
▁될까	-10.5785
▁공천	-10.5789
▁LG	-10.579
▁특혜	-10.5795
▁민생	-10.5796
▁떨어졌	-10.5803
▁가만	-10.5805
▁침략	-10.5805
▁신상	-10.5808
▁동양	-10.5808
귀	-10.5809
▁외모	-10.5809
▁지네	-10.5812
▁믿음	-10.5817
▁수장	-10.5818
▁서류	-10.5818
▁띠	-10.5832
▁퍼센트	-10.5833
▁내려가	-10.5835
▁부품	-10.5835
▁중학교	-10.5836
액	-10.5838
▁춤	-10.5839
▁살해	-10.5846
▁누르	-10.5847
▁색히	-10.5849
▁거쳐	-10.5854
련	-10.5858
▁항공	-10.5859
▁바르	-10.587
▁여서	-10.5872
▁펴	-10.5878
▁망해	-10.5887
▁감당	-10.589
▁어리석	-10.5896
▁탄압	-10.5897
▁버려	-10.5899
▁노출	-10.59
▁질병	-10.5901
▁배신	-10.5904
▁체험	-10.5904
▁침묵	-10.5907
▁공원	-10.5908
▁맞춰	-10.5917
▁출마	-10.5917
▁모으	-10.5917
▁설마	-10.5931
▁예의	-10.5932
▁무료	-10.5932
▁신도	-10.5932
축	-10.5935
▁은가	-10.5943
▁해진	-10.5949
▁유니클로	-10.5949
렌	-10.595
▁협조	-10.5951
▁뒤지	-10.5953
▁이낙연	-10.5954
▁한글	-10.5955
▁상자	-10.596
▁더러	-10.5966
▁덤	-10.5976
▁든가	-10.5977
▁꼼수	-10.5981
▁굶	-10.5981
▁닥치	-10.5984
▁쪼	-10.5984
▁그리스	-10.5987
▁개성	-10.5992
▁바위	-10.5996
▁등신	-10.6011
▁훠	-10.6016
▁드래곤	-10.6017
▁추미애	-10.6023
▁넘겨	-10.6025
짓	-10.6029
▁결합	-10.6029
▁건너	-10.6032
▁그린	-10.6036
▁52	-10.6037
▁판정	-10.6045
▁서술	-10.6049
▁문제점	-10.6051
▁오해	-10.6052
▁기구	-10.6053
▁구별	-10.6055
▁보여준다	-10.6059
돌	-10.6062
▁순서	-10.6064
▁아픈	-10.6068
▁엮	-10.6073
▁띄	-10.6074
▁수학	-10.6077
▁과제	-10.6081
▁발행	-10.6082
▁세워	-10.6082
▁MBC	-10.6088
▁마땅	-10.6096
왔	-10.61
▁사단	-10.6104
▁통치	-10.6105
▁망할	-10.612
▁흥	-10.6124
▁U	-10.6125
▁증상	-10.6128
▁딩	-10.6136
▁그릇	-10.6137
▁이명	-10.6152
▁아무래도	-10.6153
▁45	-10.6154
▁무려	-10.616
▁낙	-10.6162
▁수당	-10.6162
▁축제	-10.6167
▁.?	-10.6168
▁지대	-10.617
▁전제	-10.6172
▁롤	-10.6175
▁습관	-10.6175
▁려나	-10.6176
혁	-10.6178
▁압	-10.6184
▁점차	-10.6198
▁들어왔	-10.6202
▁진지	-10.6203
▁양성	-10.6203
▁싱	-10.6203
▁개방	-10.6205
▁공평	-10.621
▁나타내	-10.6216
▁모자라	-10.6217
▁착한	-10.6218
▁개학	-10.6219
▁청소	-10.6223
▁화력	-10.6226
▁허락	-10.6227
▁직후	-10.6236
▁다면서	-10.6237
▁제주	-10.6241
▁조지	-10.6246
▁일보	-10.6246
▁상실	-10.6249
▁일찍	-10.6249
▁봐요	-10.625
▁감동	-10.6253
▁썬	-10.6258
▁언니	-10.6265
▁교환	-10.6268
▁널	-10.6271
▁매출	-10.6272
▁이만희	-10.6274
▁으러	-10.6274
▁민중	-10.6287
▁벌어지	-10.6287
▁의해서	-10.6289
▁제자	-10.629
▁끔찍	-10.629
▁소통	-10.6294
▁저지른	-10.6298
▁최후	-10.6305
▁벤	-10.6313
▁위주	-10.6323
▁들리	-10.6323
볼	-10.6327
▁알려져	-10.6333
▁2003	-10.6339
▁피부	-10.635
▁지껄이	-10.6352
▁해군	-10.6353
▁의학	-10.6372
▁김정	-10.6373
▁욕망	-10.6376
▁깨달	-10.638
▁로봇	-10.6386
▁여담	-10.639
격	-10.6396
다면	-10.6396
▁박원순	-10.6397
▁진단	-10.6398
극	-10.6402
▁가깝	-10.6402
▁콘	-10.6405
▁동영상	-10.6406
▁오브	-10.6412
▁공인	-10.6412
▁마이	-10.6416
▁해산	-10.6419
▁음성	-10.6421
▁연애	-10.6422
5	-10.6422
▁육체	-10.6425
▁대접	-10.6429
▁극단	-10.643
▁감추	-10.6432
▁주말	-10.6434
▁폭동	-10.6436
▁그렇지만	-10.6436
▁방영	-10.6439
▁태어난	-10.644
▁으신	-10.6442
▁긴장	-10.6451
▁졸라	-10.6455
▁경력	-10.6457
▁잉	-10.6461
▁임대	-10.6464
▁오만	-10.6468
▁움직임	-10.6472
▁구해	-10.6483
▁오랫동안	-10.6487
▁붙여	-10.6487
▁영향력	-10.6498
▁참조	-10.6502
▁올바른	-10.6502
▁튼	-10.6504
▁지상	-10.6506
▁수호	-10.6511
▁될지	-10.6514
▁훼손	-10.6519
▁그럼에도	-10.6524
▁창피	-10.6532
▁이해찬	-10.6534
▁티비	-10.6538
▁조롱	-10.6541
▁이승만	-10.6545
▁지점	-10.6547
▁창출	-10.655
B	-10.6559
▁무한	-10.6563
▁바치	-10.6568
▁사죄	-10.6574
▁수령	-10.6574
▁부끄러운	-10.6575
▁우기	-10.6577
▁전파	-10.6588
▁약한	-10.6589
▁입시	-10.6592
▁멸망	-10.6596
▁보편	-10.66
▁회원	-10.6601
▁실업	-10.6606
린다	-10.6608
▁써야	-10.6609
▁패치	-10.661
겼	-10.661
▁흥미	-10.6616
▁마구	-10.6621
▁뉴욕	-10.6625
m	-10.6632
런	-10.6635
▁한때	-10.6637
▁과장	-10.6638
▁무렵	-10.6639
▁안다	-10.6641
▁미아	-10.6643
▁흡수	-10.6643
▁거주	-10.6643
▁심정	-10.6648
▁씻	-10.6649
▁부처	-10.6654
▁션	-10.666
▁대결	-10.6662
▁블랙	-10.6664
▁축하	-10.6665
▁기원	-10.6671
▁99	-10.6672
▁어쨌든	-10.6676
▁사격	-10.668
▁조절	-10.6682
▁마녀	-10.6683
▁계층	-10.6683
▁앗	-10.6685
al	-10.6686
▁제조	-10.6689
▁허리	-10.6689
▁느낄	-10.669
▁32	-10.6693
▁지혜	-10.6694
▁회피	-10.6699
n	-10.6701
▁주둥이	-10.6703
▁굳	-10.6707
글	-10.6709
▁진입	-10.6709
T	-10.6721
▁약점	-10.6722
▁괴	-10.6727
▁단점	-10.6727
▁김경수	-10.6729
▁들어갈	-10.6731
▁일방	-10.6732
니다	-10.6735
▁냥	-10.6736
▁전세	-10.6739
▁겄	-10.6746
▁의회	-10.6747
▁만만	-10.6748
▁두려워	-10.6751
궁	-10.6755
▁저주	-10.676
▁하느님	-10.6761
▁뭔데	-10.6762
▁지겹	-10.6763
▁손실	-10.6778
▁조만간	-10.6787
▁천안	-10.6787
▁리라	-10.679
▁정하	-10.6796
▁들어서	-10.68
▁인종	-10.6802
▁범인	-10.6813
죽	-10.6825
▁최저임금	-10.6826
▁위장	-10.6826
▁양식	-10.6833
▁중립	-10.6834
▁봉쇄	-10.6843
▁으려는	-10.6844
▁유치	-10.6845
▁활성	-10.6845
▁독도	-10.6851
탈	-10.6852
▁방지	-10.6854
▁바쁘	-10.686
▁부채	-10.6866
▁한방	-10.6868
▁당황	-10.6875
▁걸음	-10.6883
▁향상	-10.6889
▁화장실	-10.6892
▁단속	-10.6893
▁보조	-10.6894
▁언론사	-10.6903
▁홈	-10.6911
▁모순	-10.6911
▁시나리오	-10.6912
죄	-10.6912
합	-10.6912
▁월드	-10.6917
▁기지	-10.6919
▁관찰	-10.6921
▁령	-10.6926
▁간부	-10.6929
▁이스라엘	-10.693
▁매력	-10.6931
▁이겨	-10.6935
▁경북	-10.694
▁천국	-10.6944
▁북쪽	-10.6945
▁변신	-10.6946
▁렌	-10.6946
▁게이트	-10.6952
▁걸까	-10.6958
나무	-10.696
b	-10.6961
▁걸쳐	-10.6964
▁라운드	-10.6969
▁재미있	-10.6969
▁엔딩	-10.697
▁타이	-10.6971
긴	-10.6989
끼	-10.6989
▁안내	-10.6992
▁해제	-10.6998
E	-10.7004
▁신학	-10.7005
▁왼쪽	-10.7005
▁컵	-10.7009
▁협정	-10.7009
▁접촉	-10.7015
▁환영	-10.7023
▁라디오	-10.7029
▁촌	-10.7035
▁00	-10.7048
▁소위	-10.7049
▁넘치	-10.7051
▁아이돌	-10.7051
▁모시	-10.7056
▁어째	-10.7067
▁신호	-10.7068
▁남쪽	-10.7073
▁깎	-10.7073
▁급여	-10.7078
▁온다	-10.7085
▁무덤	-10.7089
좌	-10.709
▁이길	-10.7091
▁링크	-10.7092
▁영토	-10.7093
▁라면서	-10.7097
▁천천히	-10.7101
▁반미	-10.7102
▁덱	-10.7102
▁방안	-10.7102
▁샀	-10.7105
▁록	-10.7119
블	-10.712
▁정지	-10.712
▁죽였	-10.7124
▁항의	-10.7138
▁기념	-10.7145
▁일가	-10.7153
▁마인드	-10.7156
▁매번	-10.7159
▁톤	-10.7162
▁널리	-10.7163
▁울산	-10.7165
▁쟁이	-10.7167
▁열리	-10.7167
▁환상	-10.7169
▁부서	-10.7171
▁견해	-10.7176
▁또라이	-10.7178
▁외면	-10.7186
▁대박	-10.7189
▁코드	-10.7189
▁자제	-10.7191
▁요금	-10.7193
▁대륙	-10.7193
외	-10.7198
진다	-10.7205
▁자발	-10.7206
▁이자	-10.7208
▁경쟁력	-10.7212
▁대학생	-10.7215
▁초딩	-10.7227
▁진상	-10.7228
▁전술	-10.7232
▁다녔	-10.7233
▁관계자	-10.7238
▁체크	-10.7239
▁작정	-10.7241
▁장학금	-10.7247
▁업적	-10.7252
▁천하	-10.7254
en	-10.7254
▁콩	-10.7262
▁롯데	-10.7263
검	-10.7271
▁사무실	-10.7275
▁마트	-10.7276
▁1990	-10.7277
▁편성	-10.7281
▁빙	-10.7288
▁거든요	-10.7289
▁연구소	-10.7292
▁성립	-10.7294
▁표창장	-10.7305
▁속이	-10.7318
먼	-10.7321
▁모자	-10.7322
▁n	-10.7328
R	-10.7337
▁각성	-10.734
▁시청자	-10.7344
▁건축	-10.7349
▁추적	-10.735
▁액	-10.7363
▁본부	-10.7366
▁출	-10.7367
▁앤	-10.7368
▁뻘	-10.7376
▁열받	-10.7378
▁에서부터	-10.7382
▁장수	-10.7384
▁하여튼	-10.7397
▁그쪽	-10.7399
▁미션	-10.74
▁가볍	-10.7402
머	-10.7408
▁새롭	-10.741
▁발광	-10.7414
▁전면	-10.7415
▁멸	-10.7423
▁.......	-10.7424
▁전염병	-10.7425
▁입맛	-10.7427
▁국익	-10.7431
▁아이디어	-10.7438
누	-10.7446
▁줌	-10.7448
▁근로자	-10.7448
▁합격	-10.7455
이드	-10.7456
f	-10.746
총	-10.7468
▁열차	-10.7471
▁부장	-10.7471
▁어릴	-10.7475
▁회수	-10.7483
▁신념	-10.7486
▁고기	-10.7489
층	-10.7493
▁떳떳	-10.7497
▁비디오	-10.75
▁전차	-10.7502
▁성경	-10.7504
▁주머니	-10.7504
▁강도	-10.7509
▁뻥	-10.7512
▁폼	-10.7515
▁곱	-10.7518
▁사라졌	-10.7523
▁빨간	-10.7525
▁겁니까	-10.7531
▁파일	-10.7531
▁예방	-10.7541
▁꼰대	-10.7543
▁는데요	-10.7553
황	-10.7555
▁감수	-10.7564
탕	-10.7565
▁엄	-10.7567
▁메르스	-10.7569
▁메시지	-10.7569
▁충돌	-10.7573
▁익숙	-10.7574
▁들어온	-10.7583
▁교류	-10.759
우스	-10.76
▁진술	-10.7604
▁운전자	-10.7608
▁시골	-10.7609
G	-10.7611
▁추락	-10.7616
▁이내	-10.7621
▁농민	-10.7623
▁트리	-10.7626
▁가시	-10.7631
▁약하	-10.7631
▁침해	-10.7631
▁치우	-10.7633
▁알려진	-10.7638
▁임신	-10.764
▁땀	-10.7642
▁버려야	-10.7643
▁서구	-10.7644
▁디지털	-10.7644
▁원수	-10.7652
택	-10.7656
▁배웠	-10.7662
혜	-10.7663
▁월드컵	-10.7664
▁임시	-10.7665
▁오류	-10.7669
▁타자	-10.7674
▁150	-10.7678
▁셀	-10.7678
려서	-10.768
▁마주	-10.768
▁법칙	-10.7683
▁오른쪽	-10.7688
▁따라가	-10.7695
▁케이	-10.7696
▁왕따	-10.7702
▁유행	-10.7703
▁둥	-10.7705
▁유기	-10.7711
▁전작	-10.772
▁장식	-10.7724
▁잔인	-10.7728
▁저딴	-10.7729
▁붙잡	-10.7731
▁예외	-10.7733
▁타입	-10.7735
▁감안	-10.7737
▁소모	-10.7739
▁텔레비전	-10.774
▁묘	-10.774
▁때로	-10.7741
▁가져가	-10.7747
▁만세	-10.775
▁텐	-10.7759
▁이순신	-10.7761
▁버프	-10.7764
▁자치	-10.7766
▁델	-10.777
▁보소	-10.7772
▁명확	-10.7775
▁쏴	-10.7775
▁현명	-10.778
in	-10.7781
▁논쟁	-10.7784
▁가스	-10.7787
▁측정	-10.7789
▁켜	-10.7789
▁2001	-10.779
▁화학	-10.7793
▁지령	-10.7796
▁진정한	-10.7797
슬	-10.7797
▁무언가	-10.7798
▁자세히	-10.7811
▁욕구	-10.7816
▁영입	-10.7823
▁재단	-10.7824
▁을려고	-10.7834
▁제압	-10.7836
▁지명	-10.7837
▁약자	-10.7839
▁뽕	-10.7839
▁부른다	-10.7841
▁투수	-10.7841
▁통수	-10.7845
▁기운	-10.7848
▁글자	-10.786
▁대개	-10.7862
▁쫄	-10.7862
▁재능	-10.7866
▁파업	-10.7871
▁결	-10.7881
▁연주	-10.7881
▁식물	-10.7889
▁빌려	-10.7891
▁파견	-10.7893
▁%,	-10.7894
▁악질	-10.7898
▁진작	-10.79
▁인수	-10.7903
▁나대	-10.7905
▁비핵화	-10.7905
▁주먹	-10.7905
▁살짝	-10.7907
▁다닐	-10.7911
▁색깔	-10.7911
벌	-10.7912
욱	-10.7912
▁압력	-10.7913
▁나타난	-10.7916
▁밥그릇	-10.7917
▁키워	-10.7918
▁스페인	-10.7918
던	-10.7918
▁180	-10.792
▁표준	-10.7923
▁지진	-10.7924
▁몫	-10.7924
▁비행	-10.7926
▁황교	-10.7932
▁도발	-10.7933
▁현지	-10.7936
스터	-10.7939
▁아닙니까	-10.7939
▁커녕	-10.7942
튼	-10.7948
▁끊임없이	-10.7952
▁사드	-10.7952
▁한숨	-10.7959
▁전시	-10.796
▁광장	-10.7963
▁맛있	-10.7963
▁대량	-10.7967
▁꽂	-10.7978
익	-10.7981
▁d	-10.7986
▁마음대로	-10.7989
▁락	-10.7993
▁으세요	-10.7997
▁귀신	-10.7997
▁무척	-10.8
▁사안	-10.8
▁내면	-10.8004
▁멋진	-10.8005
▁트랙	-10.8013
▁증언	-10.8019
▁양쪽	-10.8021
▁엠	-10.8026
▁전공	-10.8027
▁400	-10.8029
▁타임	-10.8031
▁초월	-10.8031
▁장착	-10.8033
▁차기	-10.8041
▁매수	-10.8042
▁숭	-10.8043
▁앞뒤	-10.8045
▁사자	-10.8051
▁글로벌	-10.8054
▁가르쳐	-10.8061
▁상담	-10.8067
▁동참	-10.8069
▁상인	-10.8073
▁지불	-10.8079
▁법정	-10.8079
▁꾸준히	-10.808
▁져서	-10.8081
▁터진	-10.8086
▁화려	-10.8087
▁덴	-10.809
▁사원	-10.8093
▁누나	-10.8096
▁눈앞	-10.8097
페	-10.8097
▁차려	-10.8098
▁셔	-10.8099
염	-10.8105
▁고구려	-10.8109
▁구먼	-10.8111
홍	-10.8112
▁니들	-10.8114
▁보급	-10.8114
▁퀘스트	-10.8114
▁세포	-10.8118
▁생성	-10.8118
리스	-10.8119
▁꼽	-10.8125
▁호소	-10.8128
▁리스트	-10.8131
▁힐	-10.8131
참	-10.8139
▁저놈	-10.8144
▁법인	-10.8144
스타	-10.8151
▁1980	-10.8159
▁권위	-10.8164
▁이야말로	-10.8165
▁맥주	-10.8166
▁단독	-10.8167
▁반발	-10.8168
▁관념	-10.8169
▁교주	-10.8169
▁날뛰	-10.8169
▁사물	-10.8177
▁밀리	-10.8177
▁왕조	-10.8185
▁자율	-10.8187
▁서버	-10.8193
▁특유	-10.8193
▁가요	-10.8196
▁대리	-10.8196
▁고인	-10.82
▁맑	-10.8202
▁먹여	-10.8202
▁그리스도	-10.8205
▁다물	-10.8212
▁윗	-10.8212
▁하위	-10.8214
▁스님	-10.8218
돈	-10.8219
▁웹	-10.8221
▁타이틀	-10.823
▁흑인	-10.8231
움	-10.8233
▁원장	-10.8233
▁조종	-10.8236
▁고위	-10.8237
▁망했	-10.824
▁한국어	-10.8252
▁이분	-10.8257
▁양보	-10.8272
갑	-10.8275
C	-10.828
▁껀	-10.8281
▁오죽	-10.8283
▁맞이	-10.829
▁지소	-10.8291
▁대북	-10.8295
▁황금	-10.8298
▁얼른	-10.8303
▁시비	-10.8306
▁사리	-10.8311
▁씨부리	-10.8312
▁땡	-10.8314
▁취임	-10.8315
▁방치	-10.8319
▁화폐	-10.8326
▁적응	-10.8327
▁발목	-10.8332
▁심사	-10.8336
▁는군	-10.8339
▁만날	-10.8345
▁곳곳	-10.8349
▁보존	-10.8354
▁유발	-10.8357
▁개별	-10.8363
여금	-10.837
▁소멸	-10.837
▁깡패	-10.8372
▁취	-10.8373
▁련	-10.8378
▁싱글	-10.8379
▁침대	-10.838
▁일어날	-10.8382
완	-10.8386
▁인용	-10.8393
▁저질	-10.8397
▁성추행	-10.8399
▁흰	-10.8399
▁억지로	-10.8401
▁전교조	-10.8401
▁분양	-10.8402
▁세끼	-10.8403
▁신용	-10.8409
▁빅	-10.8412
▁매도	-10.8413
▁관료	-10.8415
▁선거법	-10.8417
▁간섭	-10.8418
▁잡지	-10.8421
▁스테이지	-10.8426
▁익	-10.8429
▁출판	-10.8429
람	-10.8431
▁개국	-10.8432
▁취재	-10.8432
▁노트	-10.8434
▁악화	-10.844
▁해진다	-10.8443
▁찾아보	-10.845
▁추경	-10.8456
▁농	-10.8463
▁김치	-10.8467
▁자아	-10.8477
▁서서히	-10.8478
▁내지	-10.8479
▁조약	-10.8482
▁자르	-10.8484
▁맞서	-10.8486
헌	-10.8486
▁계정	-10.8497
▁비상	-10.8498
▁최강	-10.8499
▁끼치	-10.8499
▁쇠	-10.8501
▁남겨	-10.8501
잔	-10.8501
▁유출	-10.8501
▁열정	-10.8502
▁손석희	-10.8504
▁인형	-10.8507
▁위력	-10.8508
▁좌익	-10.8508
▁잠재	-10.8513
▁윤석렬	-10.8513
▁흔적	-10.8513
촌	-10.8515
▁투자자	-10.8517
▁여경	-10.8523
▁더냐	-10.8524
▁식구	-10.8528
c	-10.8534
▁오버	-10.8534
옮기	-10.8538
▁수집	-10.8539
▁조카	-10.8539
▁흥분	-10.854
▁퇴출	-10.8543
▁각오	-10.8544
p	-10.8549
▁궁극	-10.8555
▁사악	-10.8558
▁도달	-10.8578
M	-10.8585
▁져라	-10.8586
▁김어준	-10.8587
▁이적	-10.8594
▁킬	-10.8595
▁탁	-10.8601
▁왕자	-10.8602
▁올라오	-10.8602
▁b	-10.8609
▁교도소	-10.8611
▁중독	-10.8613
▁아르	-10.8623
▁배제	-10.8627
▁시전	-10.8629
an	-10.8629
▁내밀	-10.8635
▁선고	-10.864
▁중공	-10.8647
▁더군요	-10.865
▁소원	-10.8654
F	-10.8658
▁더블	-10.8663
▁PC	-10.8665
▁고백	-10.8665
▁저건	-10.8667
▁아쉽	-10.8678
▁vs	-10.8679
▁민폐	-10.868
놓	-10.8686
▁33	-10.8692
▁섞	-10.8695
쉬	-10.8696
▁뻗	-10.87
▁구성원	-10.8705
▁면상	-10.8709
▁유전자	-10.871
▁위로	-10.871
▁이재용	-10.8711
▁가질	-10.8713
▁식이	-10.8716
▁당원	-10.8718
▁날개	-10.872
▁멘	-10.8722
▁육군	-10.8723
▁영장	-10.8723
▁는구만	-10.8725
▁메이	-10.8727
▁무게	-10.8728
▁주관	-10.873
▁기체	-10.8731
▁회계	-10.8733
듯	-10.8733
▁이슬람	-10.8737
▁k	-10.8739
▁호남	-10.8741
▁보관	-10.8741
▁신부	-10.8749
▁전후	-10.8749
▁오픈	-10.8752
ing	-10.8754
▁부당	-10.8758
▁앱	-10.8758
▁캐나다	-10.8759
▁답니다	-10.8765
▁작자	-10.8768
▁웃긴	-10.8774
▁일시	-10.8776
나라	-10.8782
리하여	-10.8785
▁향하	-10.8794
▁수비	-10.8794
▁거울	-10.8795
▁순식간	-10.8801
▁인정받	-10.8804
▁분쟁	-10.8808
▁명백	-10.8808
▁짐작	-10.8811
▁수립	-10.8812
▁전역	-10.8814
▁성매매	-10.8814
▁옵션	-10.8814
▁공단	-10.8815
i	-10.8817
▁길거리	-10.8825
▁의외	-10.8828
▁업데이트	-10.884
▁승인	-10.884
▁죄송	-10.8841
▁유용	-10.8841
▁자위	-10.8844
▁터져	-10.8844
▁잣대	-10.8846
▁평양	-10.8847
▁48	-10.8851
k	-10.8858
▁처지	-10.8878
▁공직자	-10.8878
U	-10.8881
▁출근	-10.8881
▁소장	-10.8887
만두	-10.889
▁케이스	-10.8894
o	-10.8894
▁펜	-10.8894
▁애플	-10.8894
▁36	-10.8896
▁절망	-10.8896
▁생각나	-10.8898
▁식품	-10.8899
▁법대	-10.8904
났	-10.8907
▁엉뚱	-10.8911
▁~?	-10.8916
▁족속	-10.8917
▁꽉	-10.8922
혈	-10.8922
▁합류	-10.8923
▁가을	-10.8924
▁모른	-10.8924
▁종일	-10.893
▁연설	-10.8931
▁성질	-10.8935
▁무사	-10.8939
▁천재	-10.8939
▁비유	-10.8946
▁국군	-10.895
▁엉망	-10.8951
▁룰	-10.8954
▁모인	-10.8964
▁흙	-10.8967
▁생길	-10.8968
▁밴드	-10.8969
▁개그	-10.897
▁별도	-10.8972
▁쭉	-10.8976
▁강아지	-10.8978
▁별명	-10.898
▁날씨	-10.898
▁정답	-10.8981
▁선호	-10.8982
▁독점	-10.8983
▁윈	-10.8985
▁이틀	-10.8985
▁대미지	-10.8989
,	-10.8991
e	-10.8999
▁상업	-10.9001
▁바이	-10.901
▁매매	-10.9011
▁마이크	-10.9011
▁생물	-10.9018
▁적합	-10.902
▁부디	-10.9027
▁한남	-10.9028
▁돌아왔	-10.9031
▁십니다	-10.9032
▁처형	-10.9034
▁개조	-10.9035
▁채워	-10.9036
▁깜짝	-10.9037
▁입증	-10.9043
▁발음	-10.9046
▁양산	-10.9052
쓰	-10.9052
▁지르	-10.9053
▁공통	-10.9053
▁협의	-10.9054
▁홈런	-10.9057
▁감염자	-10.9063
▁버려라	-10.9065
▁대체로	-10.9071
▁학대	-10.9072
▁규	-10.9075
▁앙이	-10.9076
▁내보내	-10.9081
▁입원	-10.9082
▁내린	-10.9087
▁몰려	-10.9088
▁여지	-10.9089
▁치르	-10.9091
▁연방	-10.9093
▁a	-10.9097
▁민정	-10.9103
▁놨	-10.9105
짐	-10.9107
▁그림자	-10.9107
▁간주	-10.9111
▁놀랍	-10.9119
▁정착	-10.912
▁집착	-10.9124
▁연계	-10.9129
▁휴대폰	-10.9129
▁경비	-10.9131
▁나타난다	-10.9132
▁원정	-10.9134
▁줘도	-10.9135
▁똑	-10.9138
▁가려	-10.9153
▁축소	-10.9154
▁그런지	-10.9156
▁더구나	-10.9164
▁대항	-10.9167
▁보낼	-10.9168
▁낸다	-10.9181
L	-10.9182
▁식량	-10.9188
▁약국	-10.9188
맨	-10.9189
갔	-10.919
▁셔야	-10.9192
▁앞잡이	-10.9195
올	-10.9195
▁..?	-10.9198
▁붓	-10.9199
▁꿈꾸	-10.9202
▁히트	-10.9202
▁돼서	-10.9206
▁합법	-10.9208
▁이루어진	-10.921
▁01	-10.9215
▁갑니다	-10.9219
▁교과서	-10.9223
▁그다지	-10.9229
▁찌질	-10.9231
▁더듬	-10.9232
▁1999	-10.9233
▁다름	-10.9239
▁달린	-10.9245
▁탈락	-10.9246
▁주한	-10.9248
▁신세	-10.9248
▁억압	-10.9256
▁착용	-10.9267
g	-10.9268
▁두려움	-10.9277
▁종목	-10.9282
a	-10.9283
▁막히	-10.9283
▁웅	-10.9284
▁강행	-10.9289
▁Z	-10.9292
▁회견	-10.9292
▁수고	-10.9293
▁난민	-10.9301
▁지인	-10.9303
▁빤	-10.9303
샤	-10.9306
▁점심	-10.9308
▁몰락	-10.9318
▁레드	-10.9319
▁교인	-10.9325
▁반란	-10.9327
▁미국인	-10.9338
립	-10.9343
▁퀴	-10.9343
▁1998	-10.9351
▁동남아	-10.9353
▁들어와	-10.9359
▁젠	-10.9362
▁비극	-10.9362
▁소신	-10.9368
▁놔두	-10.9368
▁뱉	-10.9371
▁비서	-10.9373
▁마르	-10.9373
▁수천	-10.9373
▁요원	-10.9373
▁돋	-10.9378
▁코스프레	-10.9379
▁구현	-10.9383
▁결심	-10.9383
▁온통	-10.9385
▁아픔	-10.9392
▁제주도	-10.9395
▁품질	-10.9398
▁괴롭히	-10.9399
▁스펙	-10.9401
▁국토	-10.9405
▁척하	-10.9406
▁모욕	-10.9412
▁꺼져	-10.9415
라도	-10.9415
▁군주	-10.9417
효	-10.942
▁관광객	-10.9421
▁콤	-10.9427
▁전망	-10.9427
▁잔뜩	-10.9427
욕	-10.9429
▁댁	-10.9429
▁암살	-10.9431
▁떠드	-10.9435
▁롱	-10.9437
▁면허	-10.9439
▁올릴	-10.9443
▁다시피	-10.9448
▁믄	-10.9451
▁태풍	-10.946
▁상사	-10.9467
▁편안	-10.9467
▁마법사	-10.9477
▁어려울	-10.9484
d	-10.9484
▁충이	-10.9485
P	-10.9489
▁김제동	-10.949
▁해소	-10.949
압	-10.9493
▁꺼져라	-10.9494
▁h	-10.9497
▁세운	-10.9498
맞	-10.9499
▁f	-10.9507
▁이대로	-10.9508
▁기적	-10.9508
▁읍	-10.951
▁개편	-10.951
▁쳐서	-10.9521
▁몰아내	-10.9521
슈	-10.9525
▁조폭	-10.9526
▁준다는	-10.9527
▁가방	-10.9527
▁그지	-10.9535
▁환장	-10.9535
▁에다가	-10.954
▁씌우	-10.9541
▁안달	-10.9546
▁삭발	-10.9556
▁떠났	-10.9561
▁기차	-10.9564
▁제정	-10.9565
▁스러워	-10.9566
▁관리자	-10.9572
▁협	-10.9589
▁직무	-10.959
▁쿨	-10.9591
▁손님	-10.9594
센	-10.9597
▁작동	-10.9604
▁돌아보	-10.9605
흥	-10.9606
▁연상	-10.961
▁지사	-10.961
▁주둥	-10.9611
▁남용	-10.9613
밀	-10.9613
▁히로	-10.9616
▁1997	-10.9619
▁형상	-10.9623
▁곰	-10.9623
▁근접	-10.9625
▁목록	-10.9626
▁딱히	-10.9627
▁기쁨	-10.9629
▁독특	-10.9631
▁내주	-10.9632
▁구석	-10.9633
▁발상	-10.9635
▁신성	-10.9635
북	-10.9639
▁전선	-10.9649
▁사업자	-10.9651
▁돌아온	-10.9659
▁of	-10.9661
▁Y	-10.9662
▁농업	-10.9664
▁어쩌다	-10.9664
h	-10.9666
▁추악	-10.9667
▁피우	-10.9668
▁네트워크	-10.9675
▁은지	-10.9676
▁해질	-10.9681
▁일세	-10.9681
▁학부모	-10.9682
춘	-10.9683
▁가구	-10.9691
▁아끼	-10.97
▁마나	-10.971
▁비로소	-10.9711
▁적당	-10.9712
▁퍼지	-10.9721
▁IMF	-10.9728
▁도서관	-10.9728
▁턱	-10.9733
▁남부	-10.9733
▁관여	-10.9737
▁움	-10.9737
▁십시요	-10.9737
▁역적	-10.9738
▁염병	-10.974
▁국립	-10.9748
▁숙	-10.9753
▁위키백과	-10.9755
X	-10.9759
▁정직	-10.9765
▁전적	-10.977
▁손잡	-10.9771
▁기생	-10.9775
▁장교	-10.9777
▁드라	-10.9779
▁득	-10.9781
▁걔	-10.9782
▁루트	-10.9783
▁곧바로	-10.9788
▁긴급	-10.9791
▁였을	-10.9795
▁똘	-10.9796
▁완료	-10.9796
▁실장	-10.9799
▁꺾	-10.9803
▁대강	-10.9812
▁미술	-10.9816
▁다름없	-10.9817
웅	-10.9818
▁단일	-10.9822
▁혈	-10.9823
혼	-10.9834
머리	-10.9835
▁음주운전	-10.9836
▁The	-10.9836
▁38	-10.9837
▁삐	-10.9841
▁바지	-10.9844
▁주력	-10.9845
▁핸드폰	-10.9848
알	-10.9854
▁영감	-10.9857
▁회전	-10.9865
▁태어났	-10.9869
롱	-10.9869
▁추세	-10.9871
잖	-10.9871
되	-10.9878
▁마크	-10.9879
▁정원	-10.9883
▁무서워	-10.9883
▁소릴	-10.9884
▁정비	-10.9886
1	-10.9888
▁세이	-10.9892
▁꺼리	-10.9896
▁안심	-10.9906
▁어려워	-10.9906
▁혐	-10.9907
▁간접	-10.991
▁보고서	-10.9912
▁켄	-10.9921
▁전라	-10.9929
▁배틀	-10.9929
▁국경	-10.993
▁놀리	-10.9931
▁핀	-10.9934
▁떠오르	-10.9935
▁계신	-10.9948
착	-10.9952
▁곤란	-10.9957
▁나섰	-10.9966
▁거듭	-10.9967
▁페이지	-10.9967
▁홈페이지	-10.9968
▁가사	-10.997
▁선조	-10.9971
▁여겨	-10.9975
▁정규	-10.9976
▁사라져	-10.9978
▁색기	-10.9982
▁즉각	-10.9983
▁만남	-10.9986
▁방송국	-10.9989
▁챔피언	-10.9992
▁스승	-10.9997
▁바람직	-11.0003
▁34	-11.0005
▁엄격	-11.0005
▁옵	-11.0006
▁얹	-11.0011
▁찍소리	-11.0013
▁셋째	-11.0014
▁동작	-11.0017
혔	-11.0019
▁행성	-11.002
▁막상	-11.0021
▁동조	-11.0025
▁주기	-11.003
▁지켜야	-11.0031
▁제로	-11.0034
▁유승민	-11.0038
▁픽	-11.0041
▁특권	-11.0045
▁슥	-11.0047
▁유래	-11.0048
▁박스	-11.0049
▁선출	-11.005
힐	-11.0056
▁소화	-11.0061
▁습격	-11.0061
▁호주	-11.0069
▁창문	-11.0073
▁되찾	-11.0073
▁빠졌	-11.0074
▁뭣	-11.0075
균	-11.0077
▁모여서	-11.0083
▁납치	-11.0087
▁슬픔	-11.009
척	-11.0092
▁피곤	-11.0096
▁강사	-11.0098
▁저렴	-11.0103
▁음모	-11.0103
▁지역구	-11.0104
▁41	-11.0109
▁금리	-11.0111
엘	-11.0117
▁업계	-11.0122
▁고쳐	-11.0124
▁별개	-11.0124
▁계단	-11.013
▁애매	-11.0132
▁지식인	-11.014
▁웬	-11.0141
▁솔직	-11.0144
벨	-11.0149
▁입구	-11.0153
▁도박	-11.0153
▁세종	-11.0153
율	-11.0153
▁경유	-11.0155
▁잘라	-11.0155
▁다행히	-11.0161
▁수리	-11.0162
▁mm	-11.0173
▁놔	-11.0175
▁관심없	-11.0178
라고	-11.0181
▁왈	-11.0183
▁팔리	-11.0188
▁잘난	-11.0188
▁큐	-11.0191
▁자칭	-11.0194
▁어르신	-11.0197
▁지수	-11.02
▁애니	-11.0201
▁석방	-11.0204
▁흔들리	-11.0204
▁채택	-11.0208
▁전광훈	-11.0208
▁원조	-11.0216
▁뛰어나	-11.0216
▁화재	-11.0219
▁막장	-11.0221
▁필드	-11.0224
▁꿇	-11.0229
▁상하	-11.0231
▁함정	-11.0237
레이	-11.0244
▁연극	-11.0245
▁말투	-11.0245
▁더더욱	-11.0248
▁컷	-11.0252
▁책상	-11.0252
▁격차	-11.0253
▁과목	-11.0257
▁잡혀	-11.0259
▁세웠	-11.026
플	-11.0264
▁정해	-11.0267
▁틀리	-11.0268
▁내려놓	-11.0277
▁펼치	-11.0278
▁어마어마	-11.0279
▁눈빛	-11.0279
▁밭	-11.0281
▁체결	-11.0283
▁돌아간다	-11.0293
▁핑	-11.0293
▁빠리	-11.0301
▁귀찮	-11.0301
▁전직	-11.0303
K	-11.0305
▁실정	-11.0306
▁신중	-11.0306
▁후배	-11.0315
A	-11.0323
▁조화	-11.0324
야마	-11.0325
▁떨어질	-11.0326
▁변호	-11.0327
▁시티	-11.0334
▁시내	-11.0335
▁득점	-11.0336
▁안타	-11.0337
▁신발	-11.0346
▁심해	-11.0346
▁컸	-11.0348
▁주둔	-11.035
클	-11.0353
▁저지	-11.0356
▁무관	-11.0362
▁친절	-11.0363
▁머저리	-11.0363
▁화살	-11.0363
▁섹	-11.0364
▁근육	-11.0367
▁뱀	-11.0369
▁개무	-11.037
▁와라	-11.0372
▁입술	-11.0379
▁포지션	-11.0381
▁홀로	-11.0381
▁고전	-11.0381
▁대원	-11.0386
▁스마트폰	-11.0388
▁공산주의자	-11.0395
▁이른바	-11.0395
▁중앙일보	-11.04
N	-11.0402
▁백인	-11.0403
▁제약	-11.0404
▁끓	-11.0409
▁연령	-11.0412
▁유죄	-11.0426
▁베네수엘라	-11.0426
▁취득	-11.043
▁돌파	-11.0437
ar	-11.0437
▁동쪽	-11.0437
▁바꿀	-11.044
▁대대	-11.044
▁정황	-11.044
▁용도	-11.0443
▁컨셉	-11.0443
▁훗날	-11.0448
▁쯧쯧	-11.0449
▁구도	-11.0456
▁후진국	-11.0457
▁일지	-11.0463
▁보여준	-11.0463
▁장르	-11.0467
▁인척	-11.0467
▁왜놈	-11.0469
▁보임	-11.047
▁도망가	-11.0473
▁푸른	-11.0474
▁밀려	-11.0483
▁타이밍	-11.0488
▁코미디	-11.0488
▁승부	-11.0488
▁위키	-11.0491
팅	-11.0493
▁점프	-11.0494
▁리얼미터	-11.0497
▁공략	-11.0498
▁억지	-11.05
득	-11.0502
▁굿	-11.0504
▁자전거	-11.0505
▁걸려서	-11.0508
▁하수인	-11.0519
▁코스	-11.0519
▁위선자	-11.052
▁멋지	-11.0521
▁기다려	-11.0524
▁왠지	-11.0527
▁사거리	-11.0527
▁게시판	-11.0529
▁손바닥	-11.0531
▁여태	-11.0532
▁아무튼	-11.0533
▁잡아먹	-11.0536
▁흘러	-11.0539
▁랴	-11.0539
▁간다고	-11.054
▁대학원	-11.0541
▁펼쳐	-11.055
▁대폭	-11.0551
▁조언	-11.0552
▁신나	-11.0555
▁싸울	-11.0558
▁막대	-11.056
▁한동안	-11.056
▁할래	-11.0562
▁봅시다	-11.0564
▁찐	-11.0564
▁병역	-11.0566
▁나이트	-11.0567
▁복무	-11.0568
▁들여	-11.0568
▁집구석	-11.057
▁흐	-11.0573
▁팽	-11.0578
▁쉴드	-11.058
▁마라	-11.0582
▁화이트	-11.0583
▁충실	-11.0586
▁중계	-11.0588
▁코치	-11.0591
w	-11.06
▁연재	-11.06
▁극장	-11.0604
▁찾아내	-11.0606
▁필자	-11.0606
▁일자	-11.0607
▁바뀐	-11.0607
▁천사	-11.061
▁뒤통수	-11.0612
▁여왕	-11.0614
▁자질	-11.0617
▁생일	-11.0621
▁다크	-11.0624
▁누군지	-11.0625
▁간호사	-11.0626
▁전수	-11.0633
▁깍	-11.0634
▁굽	-11.0635
몽	-11.0645
낸	-11.0649
▁종식	-11.0654
▁실상	-11.0655
▁신규	-11.0657
▁출생	-11.0657
▁쓸데없	-11.0659
▁써먹	-11.066
▁랩	-11.0666
▁원망	-11.0667
▁!!!	-11.0672
▁서쪽	-11.0674
▁출현	-11.0675
▁근로	-11.0677
▁cm	-11.0678
▁군데	-11.0679
▁소주	-11.068
▁탐	-11.0689
▁골라	-11.0689
▁진압	-11.0694
▁미루	-11.0702
▁초래	-11.0702
▁계좌	-11.0707
▁실적	-11.0707
▁라곤	-11.0708
▁체육	-11.0715
▁정복	-11.0716
▁침몰	-11.0737
▁초점	-11.0737
가오	-11.0738
읍	-11.0738
▁징용	-11.0741
▁단기	-11.0741
▁그딴	-11.0742
▁태국	-11.0742
▁수습	-11.0754
▁특별히	-11.0765
S	-11.0771
▁으려면	-11.0772
▁끈	-11.0773
▁빽	-11.0774
▁SBS	-11.0776
▁수능	-11.0777
▁당한다	-11.0778
▁이어	-11.0782
▁지표	-11.0785
▁머릿속	-11.0786
▁그라	-11.0788
섭	-11.0789
▁정기	-11.079
▁북미	-11.0791
▁밝혀졌	-11.0795
곤	-11.0798
▁냉정	-11.0801
▁춘	-11.0801
▁까진	-11.0802
▁면제	-11.0802
▁할꺼	-11.0804
▁성범죄	-11.0809
▁라구	-11.081
▁600	-11.0811
▁농담	-11.0814
▁수소	-11.0816
▁고치	-11.082
▁끌려	-11.0821
▁국방부	-11.0821
▁명성	-11.0823
▁니까요	-11.0824
▁녹음	-11.083
▁모리	-11.083
▁치킨	-11.0835
▁혹	-11.0838
▁국산	-11.0838
▁살인마	-11.0843
V	-11.0846
▁망한다	-11.0852
▁우익	-11.0852
▁카이	-11.0854
▁지우	-11.0857
▁성실	-11.0863
▁노후	-11.0865
▁풍부	-11.0878
▁SK	-11.0883
▁로드	-11.0886
▁대단히	-11.0889
다니	-11.0896
▁수수료	-11.0897
▁년놈	-11.0897
▁정신병	-11.0897
▁유대	-11.0901
▁농사	-11.0902
▁주소	-11.0905
▁공익	-11.0909
▁건담	-11.0909
▁개뿔	-11.0912
▁맥락	-11.0913
▁라이트	-11.0914
는데	-11.0922
▁컨트롤	-11.0924
▁갖춘	-11.0926
▁75	-11.093
▁장갑	-11.0935
▁아까	-11.0945
▁창작	-11.0952
▁업그레이드	-11.0954
▁흠	-11.0972
▁유전	-11.0976
▁오전	-11.0977
▁껴	-11.0977
▁누워	-11.0979
▁드물	-11.0981
▁하필	-11.0984
▁유투	-11.0989
▁으셨	-11.0991
혀	-11.0992
잡	-11.0993
▁박탈	-11.0993
▁버그	-11.0993
▁접속	-11.0996
▁망한	-11.0996
엽	-11.0997
▁성별	-11.1002
l	-11.1003
▁일으킨	-11.1005
▁본능	-11.1008
▁보건	-11.1008
▁신비	-11.1009
▁처단	-11.1012
▁갈라	-11.1012
▁테스트	-11.1013
▁아름답	-11.1016
▁비전	-11.1017
W	-11.1022
▁건드리	-11.1025
▁사령관	-11.1025
▁대왕	-11.1026
▁한자	-11.1028
▁1996	-11.1028
▁토대	-11.1028
▁풀리	-11.1031
▁부류	-11.1031
▁커뮤니케이션	-11.1043
▁그치	-11.1045
▁사지	-11.1045
▁증오	-11.1047
▁부수	-11.1053
▁탱	-11.1055
▁강원도	-11.1056
▁라이브	-11.1058
▁동지	-11.1059
▁진동	-11.1062
▁타워	-11.1065
▁보안	-11.1072
▁54	-11.1076
▁좌표	-11.1076
▁관객	-11.1077
▁얼음	-11.1077
▁황당	-11.1081
▁이탈	-11.1083
▁1970	-11.1085
▁변형	-11.1085
▁쟈	-11.1087
▁55	-11.109
▁미니	-11.1091
▁특기	-11.1093
▁인근	-11.1107
▁어딜	-11.1114
▁료	-11.1117
▁바깥	-11.1119
▁향한	-11.112
▁사모	-11.1124
▁망언	-11.1129
▁전락	-11.1131
▁비웃	-11.1132
▁목포	-11.1135
놈	-11.1142
▁아녀	-11.1143
▁보석	-11.1144
▁모범	-11.1147
▁세계관	-11.1147
별	-11.1148
▁멜	-11.1151
▁찌르	-11.1153
▁철거	-11.1153
▁저장	-11.1155
▁지출	-11.1161
▁함대	-11.1161
▁출장	-11.1163
▁후쿠시마	-11.117
▁보병	-11.1171
▁타당	-11.1172
▁한나라당	-11.1173
▁질질	-11.1174
▁텍스트	-11.1176
▁기각	-11.1179
▁빕	-11.118
▁저걸	-11.1181
or	-11.1184
▁사도	-11.1187
▁위성	-11.1192
▁는겨	-11.1193
▁클리어	-11.1193
▁놓여	-11.1211
▁인건비	-11.1219
▁1995	-11.1219
▁길이	-11.122
▁부를	-11.122
▁골드	-11.1221
▁백수	-11.1226
▁입법	-11.1229
▁눌러	-11.1233
▁십니까	-11.1235
j	-11.1238
▁주둥아리	-11.1245
▁근원	-11.1256
▁조조	-11.126
▁명복	-11.1262
▁몰아가	-11.127
렁	-11.1271
▁65	-11.1273
▁백제	-11.1274
▁취지	-11.1274
▁국어	-11.1276
▁교실	-11.1278
▁떠난	-11.1278
▁쳐도	-11.128
▁편향	-11.1284
▁본사	-11.1284
▁들려	-11.1284
▁인연	-11.1285
▁날아가	-11.1287
▁유입	-11.1289
▁이단	-11.129
▁가즈	-11.1292
▁탈탈	-11.1295
▁교장	-11.1297
▁레오	-11.1299
▁마비	-11.1303
▁참전	-11.1304
무라	-11.1306
▁증권	-11.1307
▁할인	-11.1309
▁42	-11.1311
▁까닭	-11.1314
▁FC	-11.1317
▁느니	-11.1317
앙	-11.1321
▁통상	-11.1323
▁코너	-11.1324
▁당국	-11.1326
▁저작	-11.1328
▁시끄럽	-11.1331
on	-11.1332
▁보완	-11.1332
▁120	-11.1337
▁재밌	-11.1338
▁일으켜	-11.134
▁필리핀	-11.1341
▁왠	-11.1345
▁기재	-11.1345
▁은혜	-11.1345
뉘	-11.1357
▁망쳐	-11.1357
▁몰라서	-11.1357
▁채권	-11.1359
7	-11.1362
▁손자	-11.1364
▁충족	-11.1366
▁넷	-11.1371
▁월세	-11.1372
▁하나하나	-11.1374
▁영광	-11.1375
▁샘	-11.1377
▁~~!	-11.1377
▁유독	-11.138
▁트위터	-11.1383
▁버튼	-11.1384
▁줘야지	-11.1385
▁틀림없	-11.1386
▁애국자	-11.1386
▁려다	-11.1387
▁기만	-11.1388
▁후기	-11.1388
▁지냈	-11.1392
▁잭	-11.1394
▁서명	-11.1399
▁역량	-11.1402
▁망국	-11.1405
▁공군	-11.1408
▁측근	-11.1408
▁주권	-11.1409
▁으라	-11.1413
▁구름	-11.1415
놀아나	-11.142
▁나간다	-11.1424
▁끌어내	-11.143
▁베르	-11.1436
▁정면	-11.1436
▁철회	-11.1438
▁이래도	-11.1443
▁슬프	-11.1446
et	-11.1446
▁공학	-11.1449
▁긋	-11.1451
▁피의자	-11.1451
▁봉인	-11.1459
▁컨	-11.147
▁쇼핑	-11.1471
▁급하	-11.1477
▁하얀	-11.148
▁중시	-11.1485
▁기어	-11.1488
엔	-11.149
▁늬	-11.1492
▁비열	-11.1495
▁매달	-11.1501
▁변동	-11.1501
▁리스	-11.1501
▁거치	-11.1502
▁음반	-11.1504
▁쌩	-11.1507
▁뜨거운	-11.1509
▁껄	-11.151
▁빌리	-11.1513
▁새끼야	-11.1513
▁석탄	-11.1527
▁유가족	-11.1528
▁조민	-11.1528
▁앞장서	-11.1531
le	-11.1535
▁후원	-11.1536
▁문구	-11.1543
▁맙	-11.1544
▁뻔하	-11.1547
▁아파	-11.1549
▁대략	-11.155
9	-11.1552
▁납득	-11.1557
려고	-11.1557
▁계승	-11.1561
▁느낀다	-11.1565
▁개봉	-11.1568
▁방패	-11.1569
▁주자	-11.1571
▁쎄	-11.1573
▁클라스	-11.1575
▁지킬	-11.1576
▁시야	-11.1576
▁버릇	-11.1577
▁편의	-11.1581
▁자화자찬	-11.1582
▁역겨운	-11.1583
▁규명	-11.1584
▁우위	-11.1588
▁육성	-11.1588
▁정유라	-11.1592
짝	-11.1595
▁가로	-11.1595
▁가관	-11.1596
▁무서워서	-11.1596
▁할까요	-11.1596
▁담보	-11.16
▁부실	-11.1606
▁사이버	-11.161
▁생겨	-11.1611
H	-11.1611
▁분배	-11.1612
▁던전	-11.1613
▁엘지	-11.1615
▁순환	-11.1621
▁주범	-11.163
▁퇴	-11.1632
▁포스	-11.1634
쇼	-11.1637
▁깔끔	-11.1638
▁질환	-11.1639
▁그런가	-11.1639
▁배출	-11.164
▁소지	-11.164
▁기세	-11.1641
▁느낀	-11.1641
▁교황	-11.1646
▁유엔	-11.1651
▁무효	-11.1652
▁출처	-11.1654
친다	-11.1658
▁가량	-11.1663
▁이닝	-11.1665
▁갤	-11.1665
▁쫓	-11.1669
▁과도	-11.1672
▁놓치	-11.1673
▁모지리	-11.1676
▁온몸	-11.1678
▁가져다	-11.1684
▁호감	-11.1684
▁02	-11.1687
리키	-11.1688
▁화장	-11.1689
▁위상	-11.1695
▁짤	-11.1697
▁경로	-11.1699
▁드러났	-11.17
▁경남	-11.1701
▁뮤	-11.171
▁조기	-11.1712
▁술집	-11.172
냈	-11.1725
▁학위	-11.1728
▁따져	-11.1735
▁런던	-11.1735
▁건국	-11.1736
▁가져오	-11.1738
▁청장	-11.1738
▁이언주	-11.1739
▁모독	-11.1739
▁정통	-11.1746
▁모래	-11.1757
▁추잡	-11.1757
▁구제	-11.1759
▁떨어진다	-11.176
▁영구	-11.1761
킨	-11.1762
▁전염	-11.1765
▁추억	-11.1769
▁요약	-11.177
▁우연히	-11.1771
▁비추	-11.1772
▁매입	-11.1775
▁뽀	-11.1776
▁사립	-11.1776
▁뿌려	-11.1777
▁라기	-11.1781
▁명심	-11.179
▁화나	-11.1791
▁커지	-11.1791
▁선포	-11.1791
▁뺨	-11.1792
▁거론	-11.1797
릭	-11.1801
▁향후	-11.1803
▁800	-11.1805
▁학과	-11.182
▁부각	-11.1821
▁부과	-11.1821
▁가상	-11.1821
▁총기	-11.1822
▁몽골	-11.1823
▁방어력	-11.1825
▁중동	-11.1828
께	-11.1831
▁반사	-11.1831
▁이정부	-11.1833
▁피할	-11.1834
▁비자	-11.1837
▁교육부	-11.1837
▁고시	-11.1842
▁생계	-11.1843
며	-11.1844
▁걸릴	-11.1851
▁마이너스	-11.1854
▁너거	-11.1856
▁키스	-11.1858
▁표면	-11.1858
▁대국민	-11.1859
▁사라진	-11.1864
▁형편	-11.1865
▁귀국	-11.1866
▁부작용	-11.1867
▁마침	-11.1869
▁부위	-11.1871
v	-11.1872
▁신자	-11.1875
Y	-11.188
▁흉	-11.1883
▁본성	-11.1887
▁편의점	-11.1887
김	-11.1887
▁중재	-11.1887
▁동화	-11.1888
▁해고	-11.1888
▁주주	-11.1897
▁물품	-11.1901
팔	-11.1904
▁지났	-11.1904
▁이행	-11.1905
▁고속	-11.1911
▁용병	-11.1916
▁림	-11.1922
▁태양광	-11.1924
▁무상	-11.1927
▁성숙	-11.1933
▁개미	-11.1938
▁응답	-11.1939
▁샷	-11.194
▁........	-11.195
▁제법	-11.1953
▁빛나	-11.1954
▁군단	-11.1956
라이	-11.1961
▁들어와서	-11.1961
▁나옴	-11.1965
▁편법	-11.1966
▁아무렇	-11.1969
▁생긴다	-11.1971
▁완화	-11.1971
▁커뮤니티	-11.1973
▁집어넣	-11.1977
▁소대	-11.198
▁박물관	-11.1982
▁수급	-11.1982
객	-11.1983
▁강경	-11.1985
▁미스	-11.1989
▁행하	-11.1995
▁물량	-11.2005
▁아이고	-11.2008
▁구걸	-11.2011
▁모아서	-11.2012
▁다녀	-11.2014
▁치밀	-11.2017
▁어떡	-11.2018
▁게이	-11.2018
▁이집트	-11.2025
▁일본어	-11.2028
▁공안	-11.2028
▁발전소	-11.2028
us	-11.2034
▁전범	-11.2035
▁팅	-11.2036
▁수작	-11.2039
▁스키	-11.2039
로스	-11.2041
▁기다렸	-11.2047
▁인턴	-11.2047
▁소서	-11.2047
▁편들	-11.2048
▁증인	-11.2049
▁밝혀라	-11.2051
▁항복	-11.2055
▁당은	-11.2056
▁메뉴	-11.2057
▁짚	-11.2061
▁파이	-11.2064
▁신속	-11.2067
▁국왕	-11.207
벽	-11.207
▁유족	-11.2071
▁노총	-11.2072
▁옴	-11.2073
▁대국	-11.2076
▁넨	-11.2079
▁몹시	-11.2079
▁슬슬	-11.208
▁애정	-11.2087
▁출입	-11.2089
▁핵무기	-11.2094
▁훈	-11.2096
▁재수없	-11.2097
▁원가	-11.21
▁산불	-11.2102
▁이끄	-11.2102
▁석유	-11.2102
▁부추기	-11.2112
▁소나	-11.2114
3	-11.2115
▁살림	-11.2117
▁세습	-11.212
▁내뱉	-11.2123
▁아이폰	-11.2125
▁오리	-11.2126
▁려니	-11.2129
▁헤어	-11.2133
▁그간	-11.2134
▁깡	-11.2135
▁낀	-11.2136
션	-11.2136
▁the	-11.2139
▁편입	-11.214
▁힘드	-11.214
▁거꾸로	-11.2141
▁기기	-11.2141
▁양자	-11.2146
▁배울	-11.2147
▁동성애	-11.2148
▁쳐라	-11.2149
▁친척	-11.2149
▁사면	-11.2151
▁아부	-11.2153
▁된장	-11.2155
▁37	-11.2159
▁백화점	-11.2161
▁벌리	-11.2162
▁진료	-11.2162
▁제사	-11.2164
▁소음	-11.2165
▁미만	-11.2165
▁섹스	-11.2169
▁양상	-11.217
▁써도	-11.2171
▁망상	-11.2174
▁언덕	-11.2174
▁유혹	-11.2175
▁옹	-11.2181
▁받아들여	-11.2182
2	-11.2186
▁비참	-11.219
▁입력	-11.2192
흐	-11.2197
▁구단	-11.2197
▁그토록	-11.2199
▁싸워	-11.22
▁아가씨	-11.22
▁헌신	-11.2201
▁중세	-11.2207
▁안중	-11.2209
▁뜰	-11.221
▁주간	-11.221
▁서울시	-11.2211
▁나마	-11.2212
▁보너스	-11.2215
▁유포	-11.2215
▁내릴	-11.2215
▁꿰	-11.2216
▁국격	-11.2218
▁치열	-11.222
▁겐	-11.2221
수록	-11.2222
지르	-11.2228
▁여섯	-11.2234
▁모험	-11.2237
얼	-11.2237
▁전신	-11.224
▁애쓰	-11.2243
▁흘려	-11.2248
▁슴	-11.2253
▁파렴치	-11.2253
▁어두운	-11.2255
▁안타까운	-11.2256
▁트럭	-11.2261
▁나치	-11.2261
▁내수	-11.2263
▁해골	-11.2263
▁실업자	-11.2265
▁전방	-11.2267
▁커버	-11.2267
▁자진	-11.2272
다가	-11.2273
때	-11.2275
▁북부	-11.2276
▁요시	-11.2277
힌	-11.2281
▁공화	-11.2289
▁통장	-11.229
▁벌어진	-11.2291
▁말리	-11.2291
때려잡	-11.2293
▁바퀴	-11.2293
▁돌렸	-11.2294
▁웬만	-11.2296
▁인과	-11.2303
빛	-11.2304
▁암튼	-11.2305
▁은폐	-11.2306
셔	-11.2316
▁비즈니스	-11.2316
▁돌아갈	-11.2317
▁댔	-11.2323
▁주의자	-11.2323
▁03	-11.2326
▁어린아이	-11.2329
▁허구	-11.2332
▁낭	-11.2333
▁여신	-11.2334
▁주년	-11.2336
▁패스트	-11.2341
▁달려들	-11.235
▁삥	-11.2351
▁게끔	-11.2353
▁부럽	-11.2355
▁굴리	-11.2357
▁내세우	-11.2368
▁유산	-11.2369
▁착	-11.2376
밥	-11.2382
습	-11.2385
▁늑대	-11.2387
▁데이	-11.2388
▁성서	-11.2392
▁상관없이	-11.2393
▁도리	-11.2395
▁버림	-11.2396
▁납니다	-11.2397
으	-11.2398
▁골프	-11.2404
▁뿌	-11.2415
▁사고방식	-11.2424
▁개신교	-11.2426
▁나빠	-11.2427
▁낮추	-11.243
▁물고기	-11.2434
▁액션	-11.2434
▁우연	-11.2437
▁호흡	-11.2442
▁기호	-11.2443
▁놀라운	-11.2447
▁1994	-11.2449
▁저능아	-11.2449
▁두렵	-11.2451
▁e	-11.2452
▁헬기	-11.2453
▁1960	-11.2455
▁수법	-11.2455
▁포켓몬	-11.2457
▁침입	-11.2458
▁예비	-11.2458
▁벼	-11.2459
▁창업	-11.2464
▁과학자	-11.2464
▁한겨레	-11.2469
▁살아온	-11.247
▁구할	-11.2472
▁등장인물	-11.2472
▁치명	-11.2474
것	-11.2475
▁사무	-11.2485
▁부도	-11.2489
▁유아	-11.2493
▁일원	-11.2495
▁선진	-11.2496
▁아리	-11.2498
▁크리스	-11.2499
▁장자연	-11.25
▁어쩜	-11.2503
▁국정원	-11.2509
▁합쳐	-11.251
▁초등학생	-11.2518
▁탱크	-11.2523
▁광신도	-11.2523
▁순진	-11.2524
▁피눈물	-11.2528
▁돌보	-11.2533
▁가져	-11.2533
▁엘리트	-11.2535
▁똘마니	-11.2538
▁브라	-11.2539
▁잎	-11.2542
▁이제야	-11.2549
▁먹히	-11.2553
▁활발	-11.2556
낼	-11.2559
▁몰리	-11.2564
▁수련	-11.2569
▁어딨	-11.2571
보이	-11.2575
▁장제원	-11.2579
▁저축	-11.258
▁재생	-11.2588
▁정치판	-11.2592
▁가라앉	-11.2593
▁소용	-11.2594
▁수원	-11.2595
▁감기	-11.2598
▁부진	-11.2601
▁주차	-11.2603
▁엎	-11.2604
▁클래스	-11.2604
시다	-11.2605
▁방면	-11.2607
▁대지	-11.2608
몬	-11.2608
▁우롱	-11.261
▁똥개	-11.261
▁신설	-11.2612
없이	-11.2613
▁작곡	-11.2616
▁이따위	-11.262
▁보물	-11.2621
▁후퇴	-11.2625
▁동부	-11.263
▁퇴근	-11.2631
▁룸	-11.2633
▁풍경	-11.2634
편가르	-11.2641
▁데스	-11.2641
▁두둔	-11.2645
▁Q	-11.265
▁박멸	-11.265
▁줄여	-11.2651
▁5000	-11.2654
▁긁	-11.2656
▁잔치	-11.2663
▁연인	-11.2664
▁새삼	-11.2665
es	-11.2669
▁북조선	-11.2671
▁차릴	-11.2671
▁여도	-11.2673
▁렉	-11.2674
▁영주	-11.2676
▁유비	-11.2676
▁격려	-11.2677
▁휘두르	-11.2677
▁배급	-11.2681
▁앓	-11.2683
▁낡	-11.2683
▁타락	-11.2684
탁	-11.2686
▁살피	-11.2687
▁모였	-11.2687
▁심심	-11.2687
▁자비	-11.2695
▁택배	-11.2697
▁꺼지	-11.2699
▁했어도	-11.27
▁비트	-11.2701
▁돌아와	-11.2703
▁원천	-11.2703
▁한다며	-11.2704
▁취미	-11.2706
▁여동생	-11.2706
▁경찰서	-11.2708
▁공업	-11.2709
▁점유	-11.2711
▁숭배	-11.2712
▁하루빨리	-11.2713
▁억제	-11.2715
▁일체	-11.2719
▁동포	-11.2722
▁할배	-11.2725
▁날짜	-11.2726
▁아가	-11.2728
▁면접	-11.2733
▁날라	-11.2739
▁경호	-11.2741
▁가치관	-11.2743
▁섰	-11.2743
▁더라면	-11.2744
▁비평	-11.2745
▁구글	-11.2745
▁택	-11.2746
▁흔	-11.2746
▁취직	-11.2752
el	-11.2753
▁즐겁	-11.2758
▁엉덩이	-11.2758
▁충전	-11.2761
▁주연	-11.2761
▁들어간다	-11.2763
▁민감	-11.2769
굴	-11.2772
▁창고	-11.2775
▁명목	-11.2778
▁머물	-11.2779
▁네덜란드	-11.2785
▁모른다는	-11.2785
▁바퀴벌레	-11.2787
▁칭	-11.279
▁변태	-11.2793
▁가벼운	-11.2795
▁시사	-11.2803
▁소유자	-11.281
▁무인	-11.281
▁개시	-11.281
▁상당수	-11.2811
▁점검	-11.2811
▁패널	-11.2814
▁브라질	-11.2815
▁젓	-11.2816
▁의장	-11.282
▁참사	-11.2828
▁합성	-11.2829
▁폭락	-11.2833
▁39	-11.2833
▁군부	-11.2835
▁지침	-11.2837
▁시신	-11.284
▁화웨이	-11.2841
▁기법	-11.2843
▁보험료	-11.2848
▁릴	-11.285
▁실은	-11.285
▁43	-11.2851
▁취향	-11.2853
▁입사	-11.2855
▁호기심	-11.2862
▁해외여행	-11.2863
▁사신	-11.2864
▁사후	-11.2865
▁정수기	-11.2867
▁사생활	-11.2868
▁강연	-11.2872
농	-11.2874
▁오랜만	-11.2874
▁정화	-11.2878
▁착취	-11.2878
허	-11.2887
▁방송사	-11.2887
▁수명	-11.2888
▁승진	-11.289
▁치유	-11.2892
▁t	-11.2892
▁쿠데타	-11.2894
▁상가	-11.2894
▁l	-11.2896
▁부들부들	-11.2897
▁전투기	-11.2901
폭	-11.2901
▁업자	-11.2906
▁몰아	-11.2909
▁일기	-11.2914
▁휴식	-11.2916
▁호수	-11.2919
아지	-11.2922
▁납	-11.293
▁변해	-11.2933
un	-11.2937
▁네놈	-11.2941
▁파트너	-11.2943
r	-11.2946
▁합당	-11.2948
▁쩌	-11.2951
▁민낯	-11.2952
▁배워	-11.2956
▁붕	-11.2956
▁밴	-11.2958
▁호랑이	-11.2959
▁공통점	-11.296
▁엉	-11.2961
u	-11.2961
▁책임자	-11.2967
at	-11.297
▁수지	-11.297
▁사방	-11.297
▁성취	-11.297
▁는군요	-11.2971
▁면적	-11.2972
▁합병	-11.2973
▁역전	-11.2981
50	-11.2989
▁화해	-11.299
▁신선	-11.2995
▁625	-11.2999
▁의자	-11.3001
▁부른	-11.3001
▁95	-11.3001
▁암시	-11.3002
▁탕	-11.3004
▁깨진	-11.3009
▁추하	-11.3012
▁해결책	-11.3014
80	-11.3015
▁백신	-11.3017
져서	-11.3017
▁행보	-11.3018
▁지분	-11.3019
▁섭	-11.3019
들이	-11.3021
▁임대료	-11.304
▁히틀러	-11.304
찌	-11.3043
▁개구리	-11.3043
▁쳐넣	-11.3044
▁공기업	-11.3051
▁정성	-11.3055
▁일으켰	-11.3057
▁멋대로	-11.3059
▁결성	-11.3068
▁파도	-11.307
▁바쁜	-11.3075
▁입대	-11.3076
▁머리카락	-11.3077
▁복구	-11.3078
▁화제	-11.3082
▁접수	-11.3083
▁뚜렷	-11.3084
▁열매	-11.3084
▁캬	-11.3086
▁횟수	-11.3087
▁작작	-11.3087
▁캔	-11.3089
▁터졌	-11.3091
▁삼가	-11.3091
▁시집	-11.3102
▁댕이	-11.3104
▁중고	-11.3107
▁투성이	-11.311
▁솔로	-11.3111
▁위법	-11.3111
▁이날	-11.3116
▁행정부	-11.3117
▁분산	-11.3117
▁서부	-11.3119
▁으라는	-11.312
▁오를	-11.312
▁관대	-11.3121
▁태우	-11.3122
탑	-11.3126
▁오가	-11.3128
▁돌대가리	-11.3131
▁커서	-11.3136
▁아오	-11.3139
▁44	-11.3143
▁조항	-11.3143
▁도망	-11.3143
존	-11.3144
▁일곱	-11.3145
▁09	-11.315
▁@	-11.315
▁모집	-11.3152
▁디스	-11.3157
칼	-11.3158
▁구청장	-11.3161
▁자손	-11.3162
▁해져	-11.3163
▁냉	-11.3164
▁정규직	-11.3165
▁촉진	-11.3167
▁도배	-11.3168
▁키트	-11.317
▁동정	-11.3171
▁줄서	-11.3172
▁종전	-11.3175
▁고립	-11.3177
▁니놈	-11.3181
▁봐야지	-11.3184
▁구호	-11.3191
랐	-11.3192
▁희생자	-11.3202
▁심상정	-11.3203
▁코리아	-11.3203
▁지극히	-11.3206
▁반납	-11.3211
▁약화	-11.3211
▁미투	-11.3212
▁고등학생	-11.3214
스리	-11.3219
▁할수록	-11.3222
▁집사	-11.3224
▁리어	-11.3228
▁인지라	-11.3228
▁임영웅	-11.3229
▁여권	-11.3231
▁복장	-11.3233
▁연맹	-11.3236
▁상기	-11.3237
▁설사	-11.3237
▁선교	-11.3239
▁예약	-11.3239
▁말장난	-11.324
▁이데올로기	-11.324
▁여사	-11.3241
20	-11.3243
▁비명	-11.3244
▁문화재	-11.3245
▁멕시코	-11.3247
▁사제	-11.3253
▁결제	-11.3254
▁신인	-11.3256
▁마리아	-11.3259
▁뻔히	-11.3259
▁이여	-11.326
▁터미널	-11.3264
▁습	-11.3265
▁명품	-11.3266
▁랍시고	-11.3269
▁아스	-11.327
▁찾아볼	-11.3271
▁발급	-11.3272
▁개체	-11.3275
▁적대	-11.3275
▁편히	-11.3278
▁예언	-11.328
▁지자체	-11.3282
▁댈	-11.3283
▁아우	-11.3286
▁목격	-11.3287
▁남긴	-11.329
▁박지원	-11.3295
▁.........	-11.3299
▁마력	-11.3299
▁놀랐	-11.3302
▁컴	-11.3304
▁건들	-11.3305
▁마왕	-11.3305
▁그러다	-11.3306
▁마감	-11.3309
▁노란	-11.3309
▁솟	-11.3312
▁무거운	-11.3315
▁조센징	-11.3315
▁뿔	-11.3325
▁아울러	-11.3326
▁구당	-11.3327
▁학기	-11.3334
▁빼먹	-11.3335
▁학력	-11.3335
▁의뢰	-11.3336
▁출동	-11.3337
▁개통	-11.3342
▁실명	-11.3344
▁멋	-11.3345
▁공권력	-11.335
▁패션	-11.335
▁탑승	-11.335
▁어린애	-11.3351
▁시세	-11.3351
▁멍청이	-11.3354
▁부러	-11.3355
▁민족주의	-11.3356
▁숟가락	-11.3357
▁토끼	-11.3358
▁달하	-11.3359
▁안녕	-11.3366
▁소프트웨어	-11.3367
▁타협	-11.3374
▁라니까	-11.3375
▁건전	-11.3378
▁잦	-11.3379
▁랭	-11.3379
▁우상	-11.338
▁느냐고	-11.3382
▁열쇠	-11.3385
▁친한	-11.3387
▁우물	-11.3388
▁달려가	-11.3389
▁어렸	-11.339
▁늘려	-11.3391
▁극히	-11.3392
▁안경	-11.3396
레스	-11.3402
▁튼튼	-11.3404
▁닥터	-11.3405
▁테마	-11.3412
▁어떨까	-11.3412
▁신사	-11.3414
▁침공	-11.3416
▁가르	-11.3419
▁숙이	-11.342
▁변수	-11.3424
▁싸그리	-11.3425
▁파트	-11.3429
▁사라	-11.3429
묘	-11.3431
▁울리	-11.3438
▁티어	-11.3438
▁삭	-11.3439
▁사귀	-11.3439
▁05	-11.3443
▁해안	-11.3445
▁욱	-11.3447
턴	-11.3449
▁랍	-11.345
▁유착	-11.3453
▁독립운동	-11.3454
▁고르	-11.3455
▁간다는	-11.3456
▁호도	-11.3459
▁하드	-11.3462
▁참나	-11.3462
▁가속	-11.3464
▁주류	-11.3466
▁각국	-11.3468
▁뵈	-11.3468
▁우덜	-11.3471
▁등교	-11.3473
간다	-11.3479
▁유권자	-11.3479
▁대권	-11.3482
▁선량	-11.3484
▁지성	-11.3487
▁우스	-11.349
▁관행	-11.349
▁아나운서	-11.3495
▁후예	-11.3502
▁릭	-11.3503
▁박살내	-11.3503
▁일본군	-11.3504
▁뭉	-11.3506
▁자니	-11.3506
▁명박	-11.3508
▁넘쳐	-11.3519
▁별다른	-11.3519
▁만주	-11.3521
▁꾀	-11.3522
▁유교	-11.3524
▁경매	-11.3526
▁참모	-11.3527
▁관할	-11.3527
▁서브	-11.3529
▁앵	-11.3532
▁복합	-11.3533
▁디지	-11.354
릉	-11.3542
쪽팔리	-11.3542
▁랄까	-11.3544
▁데려가	-11.3545
▁47	-11.3546
▁소형	-11.3546
▁명의	-11.3548
▁천황	-11.3552
▁쪼개	-11.3553
▁엄벌	-11.3558
▁뮤직	-11.356
▁국장	-11.3564
▁콘서트	-11.3565
▁상장	-11.3576
▁페이	-11.3583
▁경주	-11.359
▁늙은이	-11.359
▁갤럭시	-11.3594
▁반지	-11.3597
▁슬픈	-11.3601
▁민경욱	-11.3601
▁축적	-11.3602
▁독서	-11.3607
▁스쿨	-11.361
▁셰	-11.3612
▁불량	-11.3613
▁곽	-11.3614
▁드럽	-11.3615
▁도둑놈	-11.3615
▁맙시다	-11.362
▁기르	-11.3621
▁예선	-11.3621
▁선관위	-11.3622
▁청탁	-11.3624
▁사막	-11.3627
▁트집	-11.363
▁대구경북	-11.363
▁서방	-11.3631
▁방탄소년단	-11.3633
▁쏠	-11.3635
▁동급	-11.3635
▁명시	-11.3636
▁훈장	-11.3637
▁늘어놓	-11.3637
▁전복	-11.3638
z	-11.3639
망치	-11.3641
▁공영	-11.3642
▁터키	-11.3644
▁차트	-11.3648
▁어딘가	-11.3649
is	-11.3649
▁크로	-11.365
▁들으면	-11.3652
▁염려	-11.3654
▁w	-11.3655
▁토막	-11.3659
▁성분	-11.3659
▁달래	-11.3659
▁로켓	-11.3663
▁컨텐츠	-11.3667
▁1992	-11.3669
▁외출	-11.367
▁슨	-11.3671
▁범주	-11.3679
▁행적	-11.3681
▁텅	-11.3681
▁중화	-11.3681
▁언행	-11.3682
▁빨아먹	-11.3684
▁속국	-11.3686
▁투어	-11.3687
▁중지	-11.3687
▁썰	-11.369
▁성당	-11.3691
▁지형	-11.3704
▁사소	-11.3704
▁탑재	-11.3705
▁짙	-11.3706
▁훨	-11.3706
▁남겼	-11.3706
▁내려야	-11.3712
▁일수록	-11.3715
▁스웨덴	-11.3715
견디	-11.3716
▁웨	-11.3716
▁처하	-11.3718
▁들여다보	-11.3718
▁기둥	-11.3718
▁벗겨	-11.372
▁배후	-11.3721
▁이치	-11.3722
▁HP	-11.3726
▁애미	-11.3728
▁용인	-11.3736
▁소금	-11.3738
▁혈안	-11.3738
▁육아	-11.3738
▁킥	-11.374
▁이리저리	-11.3741
▁변했	-11.3743
▁연수	-11.3743
▁낙태	-11.3746
▁선장	-11.3748
▁소스	-11.3749
▁정국	-11.375
▁포로	-11.3752
▁당일	-11.3752
▁명문	-11.3758
▁운송	-11.376
폐	-11.3761
▁불꽃	-11.3762
어들	-11.3763
▁처녀	-11.3763
▁바뀔	-11.3764
▁지각	-11.3768
▁토리	-11.3771
▁푹	-11.3772
▁호위	-11.3783
▁실시간	-11.3783
▁손상	-11.3786
▁종말	-11.3786
▁분단	-11.3787
▁주작	-11.379
▁기밀	-11.3792
▁렴	-11.3801
▁강해	-11.3804
▁비겁	-11.3806
▁생태	-11.381
▁치고	-11.381
▁원고	-11.381
▁마루	-11.3811
▁예쁘	-11.3811
▁실점	-11.3816
▁반격	-11.3817
까봐	-11.3819
O	-11.3821
▁떠올리	-11.3826
▁700	-11.3827
▁댄	-11.3831
▁방위비	-11.3834
▁가톨릭	-11.3835
▁지연	-11.3838
▁승객	-11.3841
▁낚시	-11.3842
▁내버려	-11.3846
▁애쓴다	-11.3847
▁올려서	-11.385
▁깨지	-11.3851
▁멀티	-11.3852
▁노무	-11.3855
▁줄줄이	-11.3856
▁징계	-11.3859
푸	-11.386
▁태워	-11.3862
▁기습	-11.3863
칭	-11.3864
▁확립	-11.3864
렬	-11.3868
▁단편	-11.3868
▁우유	-11.3869
▁1993	-11.3871
▁밝혀진	-11.3877
▁업종	-11.388
▁숙청	-11.388
▁다니엘	-11.3884
▁리더십	-11.3884
▁체하	-11.3889
▁비호	-11.3899
▁기부금	-11.3902
▁여긴	-11.3907
▁오리지널	-11.3911
▁08	-11.3914
▁강대국	-11.3914
▁비정규직	-11.3916
▁간격	-11.3918
▁방학	-11.3919
▁아이디	-11.392
▁돌아갔	-11.3921
▁구사	-11.3922
▁올라갔	-11.3923
▁간혹	-11.3924
▁루이	-11.3925
▁추모	-11.3926
▁퉤	-11.3928
▁진주	-11.3932
▁물려	-11.3933
▁금속	-11.3934
▁PD	-11.3934
▁간신히	-11.3938
▁내역	-11.3938
▁재현	-11.394
델	-11.3943
▁예능	-11.3954
▁중산	-11.3954
▁극치	-11.3958
▁취약	-11.3959
▁드릴	-11.3963
▁촉	-11.3967
▁베스트	-11.3972
▁폴란드	-11.3974
▁경기장	-11.3977
▁랭크	-11.3979
▁킨	-11.398
▁거친	-11.398
▁저질렀	-11.3982
▁리얼	-11.3984
▁어짜피	-11.3985
▁탔	-11.3986
▁신문사	-11.3988
▁모금	-11.3991
▁감상	-11.3993
▁언론인	-11.3996
▁보인	-11.3996
▁김영삼	-11.3998
▁j	-11.3999
꼬	-11.4
▁서초동	-11.4003
▁경영자	-11.4003
▁예쁜	-11.4003
▁46	-11.401
▁사찰	-11.4012
▁나발	-11.4012
▁문득	-11.4013
▁현역	-11.4013
▁토스	-11.4014
▁따구	-11.4014
▁벌어졌	-11.4015
▁테이블	-11.4018
스케	-11.4022
▁간단히	-11.4023
▁xx	-11.4025
▁원본	-11.4026
▁고교	-11.4028
▁깝	-11.4029
▁고민정	-11.403
▁뛰어넘	-11.4033
▁빠져나가	-11.4045
▁전철	-11.4048
▁농촌	-11.405
▁콘텐츠	-11.405
▁오줌	-11.4054
▁뭉가	-11.4055
▁사세요	-11.4055
▁07	-11.4057
▁으리라	-11.4058
▁동굴	-11.4061
▁헌금	-11.4062
▁기절	-11.4062
▁욕할	-11.4063
찾아오	-11.4063
▁동반	-11.4066
▁어린이집	-11.4069
▁그걸로	-11.4069
▁선행	-11.407
▁려던	-11.4071
▁온도	-11.4076
▁이라크	-11.4078
▁편파	-11.4081
닥	-11.4083
▁죽여야	-11.4095
▁가동	-11.4099
▁초과	-11.4105
▁자유주의	-11.4105
ed	-11.4111
▁후자	-11.4119
▁대행	-11.412
▁눈길	-11.412
▁지리	-11.412
▁민원	-11.4123
▁박쥐	-11.4124
▁구린	-11.4124
▁SNS	-11.4125
▁박영선	-11.413
▁교훈	-11.4131
▁무고	-11.4133
젠	-11.4135
▁이윤	-11.4135
▁전장	-11.4138
▁좌절	-11.4141
▁럼	-11.4142
▁끝날	-11.4157
▁실내	-11.416
▁우울	-11.4161
▁본다면	-11.4162
▁입지	-11.417
▁부지	-11.4173
▁유령	-11.4173
▁보조금	-11.4174
▁가르침	-11.4177
▁모바일	-11.418
▁탁월	-11.4183
▁아마추어	-11.4183
▁숨겨	-11.4183
▁방구석	-11.4184
▁수색	-11.4185
▁레이저	-11.4188
▁분기	-11.4188
▁블루	-11.4189
▁지워	-11.4191
▁개독	-11.4191
▁???	-11.4196
▁결승	-11.4197
▁부친	-11.4201
▁sns	-11.4203
틀	-11.4204
▁둘러	-11.4204
▁동해	-11.4207
소리	-11.4214
▁명절	-11.4214
▁모음	-11.4215
▁뒤늦	-11.4217
▁정해진	-11.4218
▁자란	-11.4224
▁스파이	-11.4225
▁김정일	-11.4226
▁말기	-11.4227
▁한미	-11.4228
▁욕설	-11.4231
▁골목	-11.4232
▁대외	-11.4235
▁해설	-11.4235
▁선비	-11.4237
▁관해	-11.4243
▁형량	-11.4252
▁퍼져	-11.4257
▁돌아	-11.4259
▁천박	-11.4259
▁재고	-11.426
▁공자	-11.4261
▁증세	-11.4262
▁불신	-11.4263
▁야기	-11.4264
거렸	-11.4265
▁통령	-11.4267
▁한꺼번에	-11.427
▁야말로	-11.427
▁클릭	-11.4272
▁은근히	-11.4273
▁짠	-11.4276
▁궁리	-11.4278
봐	-11.4279
▁주어진	-11.4281
▁시달리	-11.4286
▁가드	-11.4286
▁카운터	-11.4286
▁훔쳐	-11.4287
▁울음	-11.4287
▁착하	-11.429
▁소요	-11.4295
▁~~~~~	-11.4297
it	-11.43
하라	-11.4301
▁저격	-11.4301
▁방위	-11.4302
▁연료	-11.4307
▁규범	-11.431
▁웃긴다	-11.4311
▁편견	-11.4312
킹	-11.4315
▁공지영	-11.4315
▁마사	-11.4315
▁씌	-11.4316
▁대법원	-11.4317
▁편리	-11.4318
찰	-11.432
▁자매	-11.432
▁건네	-11.4321
▁원자력	-11.4328
▁더라구요	-11.4329
▁떴	-11.433
▁믹	-11.433
▁충동	-11.4335
▁장모	-11.4343
▁멋있	-11.4348
▁거늘	-11.435
▁질투	-11.4354
▁임원	-11.4355
▁찔러	-11.4355
▁문제지	-11.4357
▁닌	-11.4359
▁개검	-11.436
▁로스	-11.436
▁태평양	-11.436
▁발굴	-11.4361
률	-11.4363
▁조리	-11.4365
▁폭풍	-11.4367
▁뜬	-11.4368
▁사시	-11.4373
▁실컷	-11.4375
▁신장	-11.4377
▁김진태	-11.4378
니아	-11.4379
▁유효	-11.438
▁모티브	-11.438
▁빌딩	-11.4381
▁법치	-11.4382
▁직장인	-11.4383
▁보컬	-11.4389
▁쓰러지	-11.4392
▁권총	-11.4393
▁인민공화국	-11.4396
▁친하	-11.4396
▁성령	-11.4396
▁미련	-11.4397
▁제임스	-11.4397
▁조명	-11.4397
▁만행	-11.4398
▁물어뜯	-11.4398
▁kg	-11.4401
▁동경	-11.4402
▁이빨	-11.4406
▁여건	-11.4407
▁권고	-11.441
▁유신	-11.4413
▁어쩌구	-11.4413
▁49	-11.4417
▁미세	-11.4418
▁싸이코	-11.4421
▁제어	-11.4421
▁하루하루	-11.4424
▁상속	-11.443
▁적혀	-11.443
▁제조업	-11.4431
▁톱	-11.4433
▁자신감	-11.4434
▁악용	-11.4436
▁샛	-11.4436
▁복음	-11.4436
▁침투	-11.4443
▁저쪽	-11.4443
▁폭로	-11.4446
▁높여	-11.4451
▁삼성전자	-11.4452
▁연구원	-11.4453
▁드러난	-11.4456
▁지금껏	-11.4459
▁담당자	-11.4461
륜	-11.4467
▁차관	-11.4468
▁사양	-11.4471
▁전이	-11.4473
▁듀	-11.4474
▁타카	-11.4476
▁개척	-11.4477
▁투기꾼	-11.4478
▁CD	-11.448
ic	-11.4487
▁소외	-11.4489
▁너머	-11.4489
▁그니까	-11.4492
▁편한	-11.4494
▁구상	-11.4494
▁구출	-11.4495
▁즐겨	-11.4497
▁탈북자	-11.4497
▁더욱이	-11.4497
▁음주	-11.4498
럼	-11.4499
▁취해	-11.45
맥	-11.45
▁산하	-11.4501
시마	-11.4501
▁이어서	-11.4507
▁퇴직	-11.451
▁환율	-11.4511
▁한창	-11.4511
▁교통사고	-11.4511
▁냐며	-11.4511
▁주거	-11.4512
▁공신	-11.4512
▁귀한	-11.4513
▁대목	-11.4515
▁고수	-11.4524
▁주차장	-11.4528
▁야동	-11.4528
자리	-11.4535
▁륜	-11.4536
▁국고	-11.4536
▁서둘러	-11.4538
▁불통	-11.454
▁메이저	-11.4543
▁위안	-11.4543
▁지붕	-11.4547
인다	-11.4552
▁랜드	-11.4554
▁지나친	-11.4555
▁애써	-11.4555
▁첩	-11.4558
▁햐	-11.4562
▁허나	-11.4571
▁담긴	-11.4572
▁들어올	-11.4572
▁들어도	-11.4574
▁가해	-11.4574
▁수시	-11.4574
▁수시로	-11.4575
▁단절	-11.4575
▁에이스	-11.4576
▁랏	-11.4578
▁결단	-11.4579
▁신입	-11.4587
▁여럿	-11.4587
▁드만	-11.4589
▁부끄러움	-11.4592
▁페미니즘	-11.4592
답	-11.4594
▁사라져야	-11.4598
▁말라	-11.4598
▁51	-11.4599
▁부정부패	-11.4604
▁며느리	-11.4605
▁노벨	-11.461
▁터질	-11.461
▁전진	-11.4613
▁미성년자	-11.4614
▁인디	-11.4615
▁.!	-11.4617
60	-11.4618
▁상점	-11.4618
▁산소	-11.4621
▁악수	-11.4622
▁못난	-11.4622
어졌	-11.4622
▁어벙	-11.463
▁상공	-11.4632
▁바가지	-11.4636
▁더욱더	-11.4636
▁유능	-11.4636
▁취한	-11.4641
▁폭격	-11.4647
▁입히	-11.4648
▁느리	-11.4649
▁히어로	-11.465
▁악랄	-11.4651
▁짓밟	-11.4656
▁룡	-11.4657
뜨	-11.466
▁겸손	-11.466
▁필연	-11.4662
▁검열	-11.4667
▁진학	-11.4671
▁김학	-11.4676
▁초보	-11.4677
▁딘	-11.4681
핑	-11.4681
▁살아갈	-11.4683
▁장인	-11.4685
▁몸통	-11.4686
▁유감	-11.4686
▁1500	-11.4688
▁일까요	-11.469
▁사라질	-11.4691
▁깐	-11.4695
▁껏	-11.4696
▁별거	-11.4698
▁더군다나	-11.4699
▁서기	-11.4701
▁보충	-11.4703
▁오토	-11.4706
▁포항	-11.4707
▁선박	-11.4718
▁다가가	-11.4722
▁용사	-11.4722
▁유세	-11.4724
▁농장	-11.4726
▁호칭	-11.4726
▁혼인	-11.4727
▁김정숙	-11.4735
▁요건	-11.4736
▁후반부	-11.4739
▁급한	-11.474
▁끌려가	-11.4741
▁1950	-11.4743
▁원소	-11.4744
▁병기	-11.4745
▁250	-11.4748
▁임종석	-11.475
id	-11.4751
▁축복	-11.4752
해서	-11.4753
▁나와야	-11.4754
덴	-11.4757
▁본선	-11.4758
▁도시락	-11.4763
▁내각	-11.4764
▁흉내	-11.4764
▁아메리카	-11.4767
▁튜버	-11.4769
▁06	-11.4775
▁화물	-11.4776
▁정수	-11.4777
▁04	-11.478
▁들어야	-11.4785
▁립	-11.4788
▁간절히	-11.4789
▁인공	-11.4792
▁유연	-11.4798
▁멈춰	-11.4798
▁가까워	-11.4801
▁즐거움	-11.4806
▁개개인	-11.4808
▁납부	-11.4809
▁이완용	-11.4811
▁신종	-11.4814
스레	-11.4815
▁쓰래	-11.4818
▁통로	-11.4823
▁공세	-11.4833
▁눈깔	-11.4833
▁당대	-11.4836
▁어느새	-11.4836
▁처치	-11.4839
느	-11.4843
▁객	-11.4843
▁거르	-11.4845
아주	-11.4846
▁대거	-11.4846
▁일대	-11.4849
▁자폭	-11.485
▁끼워	-11.4852
▁버텨	-11.4853
응	-11.4855
▁안개	-11.4856
▁나선	-11.4858
▁기관총	-11.4859
▁저래	-11.4862
▁건만	-11.4863
퇴	-11.4863
▁외교부	-11.4864
▁신하	-11.4868
▁파산	-11.4871
▁원내대표	-11.4874
▁약탈	-11.4875
▁피로	-11.4882
▁일러스트	-11.4884
▁앞날	-11.4889
▁생선	-11.4889
▁추격	-11.489
▁1991	-11.4893
▁대조	-11.4893
▁잃어버린	-11.4894
▁갤러리	-11.4895
▁초청	-11.4896
▁설령	-11.4903
▁사명	-11.4914
▁종로	-11.4916
▁나르	-11.4916
▁바로잡	-11.4917
▁표본	-11.4917
▁구두	-11.4922
겐	-11.4922
▁농구	-11.4923
▁화성	-11.4926
▁탈취	-11.4927
▁혁	-11.4927
▁코어	-11.4933
▁도끼	-11.4933
▁바꾼	-11.4934
▁3000	-11.4934
▁과잉	-11.4938
▁베이	-11.4941
▁급식	-11.4944
▁유정	-11.4945
▁도데체	-11.4948
▁본토	-11.4949
▁할려면	-11.4952
▁뛰어들	-11.4956
▁패러디	-11.4956
▁대갈	-11.4957
▁끝장	-11.4958
▁딜러	-11.496
▁허물	-11.496
▁생명체	-11.496
▁분량	-11.4961
▁뷰	-11.4961
시아	-11.4962
▁흐리	-11.4962
▁사탄	-11.4965
쳐서	-11.4972
▁질러	-11.4972
▁았었	-11.4974
▁일요일	-11.4974
▁결말	-11.4976
십	-11.4977
▁캠프	-11.4977
▁개설	-11.4983
▁모은	-11.4984
▁베이스	-11.4985
▁과일	-11.4986
▁싸가지	-11.4989
▁교리	-11.499
▁도무지	-11.4991
▁단단히	-11.4992
▁애인	-11.4995
▁부려	-11.4995
▁간판	-11.4995
▁폐간	-11.4997
▁탈퇴	-11.4999
▁헝가리	-11.5001
▁복사	-11.5005
▁전주	-11.5007
▁헤이	-11.5009
▁털리	-11.501
▁묘지	-11.5013
▁압수	-11.5014
▁각지	-11.5014
▁보이콧	-11.5017
▁대문	-11.5017
섬	-11.5018
▁포스트	-11.5018
▁정의연	-11.5021
▁강점기	-11.5023
▁군림	-11.5024
▁놀란	-11.5025
값	-11.5027
▁차이점	-11.5028
▁노골	-11.5028
▁바래	-11.5029
▁단정	-11.503
▁바꿔야	-11.5032
▁실드	-11.5036
▁정령	-11.5036
▁수송	-11.5036
▁지칭	-11.5047
▁DNA	-11.5049
▁정시	-11.5049
▁즘	-11.5055
▁배우자	-11.5055
▁인자	-11.5063
▁가공	-11.5063
빌	-11.5063
▁지휘관	-11.5066
▁503	-11.5068
▁고마	-11.507
아들	-11.5071
▁모른다고	-11.5072
▁탐구	-11.5075
▁IT	-11.5078
▁이루어져	-11.5079
▁종사	-11.5079
▁용돈	-11.5079
▁미달	-11.5079
▁소프트	-11.508
▁애국심	-11.5084
▁셜	-11.5089
▁여학생	-11.5098
▁엘리	-11.5099
▁당나라	-11.5102
▁추상	-11.5106
▁똘똘	-11.5108
▁듬	-11.511
▁일련	-11.5112
▁어처구니	-11.5114
큐	-11.5117
▁남조선	-11.5118
▁쌓여	-11.512
▁휴대	-11.5121
▁시바	-11.5121
▁유인	-11.5123
렀	-11.5126
▁아름다움	-11.5127
▁비방	-11.5127
▁부재	-11.5128
▁전날	-11.513
▁경제학	-11.513
▁설비	-11.5132
▁강자	-11.5136
▁배당	-11.5137
▁배포	-11.5139
▁일산	-11.514
▁과세	-11.514
▁파이터	-11.5142
▁엄한	-11.5142
▁틱	-11.5143
▁파란	-11.5143
▁가죽	-11.5144
▁랍니다	-11.5144
▁리스크	-11.5145
▁힌	-11.5147
▁아키	-11.5152
▁행세	-11.5152
▁등판	-11.5152
▁기울이	-11.5157
▁불륜	-11.5167
▁폐업	-11.5171
▁수두룩	-11.5174
ur	-11.5186
▁출세	-11.5189
▁유린	-11.5191
▁한강	-11.5193
▁첨단	-11.5194
▁수영	-11.5198
▁천주교	-11.5198
▁삽질	-11.52
▁소망	-11.5203
▁미칠	-11.5203
▁기원전	-11.5206
▁내편	-11.5207
▁굴욕	-11.5207
린다고	-11.521
▁보증	-11.521
▁뿜	-11.5213
▁균	-11.5214
▁약해	-11.5218
▁비단	-11.5219
▁통째	-11.5222
▁예컨대	-11.5224
▁모셔	-11.5227
▁몽둥이	-11.5228
▁동상	-11.5228
▁현직	-11.5229
징	-11.5229
▁전남	-11.5232
▁해야죠	-11.5234
▁어째서	-11.5235
▁댄스	-11.5239
▁쓰인다	-11.524
▁악의	-11.524
▁물체	-11.5241
▁알려졌	-11.5243
▁마이클	-11.5243
▁갸	-11.5244
▁카라	-11.5246
▁엘프	-11.5247
▁처참	-11.5248
▁든든	-11.5249
90	-11.5249
▁모름	-11.5249
▁그래픽	-11.525
▁우호	-11.525
▁친다	-11.5252
▁희대	-11.5252
▁박원	-11.5253
따	-11.5257
둔	-11.5258
▁다던데	-11.5259
▁따름	-11.5261
▁권유	-11.5261
▁걸어가	-11.5263
▁대공	-11.5264
▁통증	-11.5266
▁스피드	-11.5268
▁하우스	-11.5269
▁보입니다	-11.5272
▁크로스	-11.5273
▁단축	-11.5273
▁수면	-11.5274
▁생활비	-11.5276
▁군수	-11.5277
▁회상	-11.5279
▁엑스	-11.5279
▁공범	-11.5283
▁멘탈	-11.5283
풀	-11.5286
해야	-11.5286
▁충고	-11.5289
▁퍼트리	-11.529
▁아쉬운	-11.529
10	-11.5295
▁세균	-11.5299
▁해치	-11.53
▁건조	-11.5301
▁엔터	-11.5302
▁복제	-11.5302
릿	-11.5303
▁비해서	-11.5303
▁돌진	-11.5303
▁특허	-11.5306
▁사료	-11.5306
▁엄중	-11.5306
▁뻔한	-11.5317
▁사인	-11.5318
▁배신자	-11.5319
▁지저분	-11.5321
▁잼	-11.5321
▁선임	-11.5322
▁출석	-11.5328
▁방금	-11.5329
▁밝혀야	-11.5332
이스	-11.5337
▁창의	-11.5338
▁섭취	-11.5341
▁핫	-11.5343
▁이마	-11.5344
칙	-11.5346
▁주전	-11.5349
▁인쇄	-11.5351
▁조공	-11.5352
▁잠수함	-11.5352
▁발라	-11.5356
▁친문	-11.5356
▁박살	-11.5357
▁갇혀	-11.5357
▁잡힌	-11.5365
▁뱅	-11.5365
▁플로	-11.5367
▁98	-11.5368
▁유키	-11.5368
▁돌아올	-11.5368
▁반해	-11.5368
▁광역	-11.537
▁변한	-11.5371
▁등지	-11.5374
▁임진왜란	-11.5374
▁두산	-11.5375
▁피아노	-11.5377
▁라이벌	-11.5381
▁앉혀	-11.5382
▁달인	-11.5382
▁원시	-11.5382
▁폭주	-11.5384
▁유력	-11.5385
▁번지	-11.5385
▁면역	-11.5387
▁안티	-11.5391
▁일일이	-11.5394
▁연간	-11.5395
▁소독	-11.5398
▁어리	-11.54
▁가증	-11.5402
▁파기	-11.5403
▁볼까	-11.5404
▁약물	-11.5405
▁미수	-11.5408
▁아일랜드	-11.5409
▁모형	-11.5409
▁국무총리	-11.5409
▁항공기	-11.5409
▁열렸	-11.541
▁저하	-11.5411
▁관해서	-11.5412
▁미일	-11.5415
▁세비	-11.5425
▁한텐	-11.5427
▁폭파	-11.5427
▁총알	-11.5429
▁눈감	-11.5431
▁기술력	-11.5438
육	-11.5439
▁주적	-11.544
▁개한	-11.5443
▁쪽발	-11.5445
▁안겨	-11.5447
▁동등	-11.545
▁정세	-11.5453
▁십자가	-11.5459
▁올라왔	-11.5463
▁냄	-11.5466
▁매각	-11.5467
▁용감	-11.5468
▁국력	-11.5469
▁떨거지	-11.547
▁최신	-11.5474
▁주역	-11.5475
▁시궁창	-11.5475
▁치가	-11.5479
▁정계	-11.548
ol	-11.5483
▁1989	-11.5483
▁1988	-11.5487
▁맡겨	-11.5487
▁여우	-11.5488
▁하나같이	-11.549
▁속보	-11.5491
▁갑옷	-11.5493
▁마니	-11.5495
▁밝힌	-11.5496
▁저서	-11.5498
▁탐욕	-11.55
▁낙선	-11.5502
텔	-11.5503
▁빗	-11.5508
am	-11.5512
▁제국주의	-11.5513
▁쿡	-11.5514
▁원거리	-11.5515
▁당해서	-11.5519
▁종결	-11.5519
▁다닌다	-11.552
▁조그만	-11.5522
▁팀장	-11.5523
▁차림	-11.5523
▁원자	-11.5524
▁감탄	-11.5528
▁..!	-11.5531
▁할텐데	-11.5532
▁종업원	-11.5534
▁쑤	-11.5545
▁팝	-11.5545
▁재수	-11.555
▁형평	-11.5551
▁토요일	-11.5552
▁횡령	-11.5553
▁려다가	-11.5554
▁혐한	-11.5555
▁아닐까요	-11.5556
▁봇	-11.5558
▁이쁘	-11.5563
▁결혼식	-11.5567
▁통보	-11.5568
▁라더니	-11.5569
▁귀걸이	-11.557
▁천억	-11.5573
▁라네	-11.5575
▁금수	-11.5576
▁조선인	-11.5577
▁설교	-11.5578
▁안쪽	-11.5581
▁스위스	-11.5581
▁유물	-11.5581
▁와이프	-11.5582
▁준용	-11.5583
▁적화통일	-11.5584
엄	-11.5584
▁대사관	-11.5584
▁되풀이	-11.5585
▁쏙	-11.5586
▁깨어나	-11.5586
▁라는데	-11.5588
▁가루	-11.559
▁빌미	-11.5591
▁안다고	-11.5592
▁예고	-11.5592
▁원한	-11.5595
▁캠페인	-11.5597
▁여러모로	-11.5598
▁빔	-11.5599
▁본데	-11.56
딘	-11.5601
▁실종	-11.5601
▁깃발	-11.5601
▁기피	-11.5601
▁소울	-11.5602
▁카톡	-11.5607
▁시킴	-11.5608
▁핑크	-11.561
▁유동	-11.5611
▁심화	-11.5611
▁읍니다	-11.5612
▁닉	-11.5616
▁85	-11.562
▁접대	-11.5621
▁밀접	-11.5621
▁미처	-11.5622
▁치부	-11.5624
▁할매	-11.5625
▁분별	-11.5625
▁교단	-11.5627
▁발명	-11.5627
30	-11.5627
▁소상	-11.5631
▁대해선	-11.5633
▁기질	-11.5641
핀	-11.5645
▁벼슬	-11.5647
▁관통	-11.5647
▁공직	-11.5651
▁모를까	-11.5654
▁56	-11.5655
▁습득	-11.5655
▁상향	-11.5659
▁시발	-11.5661
▁복원	-11.5665
▁매니저	-11.5668
▁직권	-11.567
▁나불대	-11.5671
▁당과	-11.5672
▁양국	-11.5673
▁연동	-11.5674
▁크리	-11.5675
닝	-11.5677
▁꾹	-11.5677
▁노비	-11.5678
▁국기	-11.5679
▁동방	-11.5679
▁후지	-11.5679
▁누군	-11.5681
▁매치	-11.5683
▁고종	-11.5685
꽃	-11.5686
▁씬	-11.5688
▁사살	-11.5689
▁입수	-11.5692
▁실려	-11.5692
▁인질	-11.5694
▁글씨	-11.5694
▁정한	-11.5695
논	-11.5696
▁외쳐	-11.57
▁거칠	-11.5706
▁을수록	-11.571
▁설문	-11.571
▁격파	-11.5712
▁단장	-11.5715
▁왕위	-11.5721
▁마귀	-11.5727
01	-11.5728
▁화염	-11.5728
▁물음	-11.5731
▁외쳤	-11.5733
▁들렸	-11.5742
▁분할	-11.5742
▁사표	-11.5745
▁떠날	-11.5747
▁저승	-11.5747
▁으니깐	-11.5749
▁불평	-11.5749
첩	-11.5751
▁저절로	-11.5752
▁준수	-11.5753
▁감지	-11.5753
▁분해	-11.5755
▁64	-11.5755
▁판타지	-11.576
▁광경	-11.5763
루스	-11.5763
▁Lv	-11.5765
▁부시	-11.5765
▁불타	-11.5766
▁비치	-11.5766
▁조준	-11.577
주고받	-11.5771
▁걸러	-11.5772
▁넘어갈	-11.5773
▁경악	-11.5777
▁코인	-11.5778
싫어하	-11.5779
▁매주	-11.5779
▁우정	-11.5781
▁클로	-11.5781
▁재주	-11.5783
넘어서	-11.5788
▁나와도	-11.579
▁글러	-11.5793
▁당분간	-11.5794
▁전투력	-11.5795
▁오사카	-11.5804
▁윙	-11.5805
▁겹	-11.5806
▁융	-11.5812
▁끼리끼리	-11.5812
▁어미	-11.5814
▁초창기	-11.5819
▁담론	-11.5824
▁하네	-11.5825
▁퀸	-11.5828
▁박통	-11.583
▁코스트	-11.5835
▁데이트	-11.5835
40	-11.5837
념	-11.5839
▁뭉치	-11.5844
▁팍팍	-11.5844
▁러브	-11.5846
▁가령	-11.5847
▁협약	-11.5847
▁일어난다	-11.5848
껏	-11.5849
▁혈압	-11.5849
▁94	-11.5849
▁성역	-11.5854
▁상한	-11.5856
맹	-11.5859
▁백작	-11.586
▁댄다	-11.5863
▁세무	-11.5863
▁싸웠	-11.5869
▁천장	-11.587
▁메리	-11.587
▁내장	-11.5872
▁망명	-11.5874
▁재무	-11.5876
▁행운	-11.5876
▁고난	-11.5878
딩	-11.5879
▁번개	-11.588
▁AI	-11.5881
▁단단	-11.5882
▁총살	-11.5886
▁이룬	-11.5887
▁부근	-11.589
▁증대	-11.5894
▁골든	-11.5894
▁자민	-11.5894
▁JTBC	-11.5896
▁관하	-11.5897
▁아비	-11.5897
▁올라온	-11.5901
▁속한	-11.5902
▁문단	-11.5915
빙	-11.5917
이어	-11.5919
▁범법자	-11.5921
▁불쾌	-11.5922
▁침체	-11.5923
▁감찰	-11.5924
▁썩어빠진	-11.5926
▁융합	-11.5929
▁학회	-11.5929
▁고스란히	-11.5931
▁바둑	-11.5935
▁집합	-11.5937
▁교묘	-11.5941
70	-11.5945
▁1987	-11.5946
▁모색	-11.5946
▁나물	-11.5948
▁스러웠	-11.5949
▁생생	-11.595
▁포괄	-11.5954
▁투사	-11.5954
▁덩치	-11.5954
▁외신	-11.5956
둥	-11.5956
합니다	-11.5956
▁요정	-11.5958
▁구절	-11.5965
▁펑펑	-11.5965
▁향기	-11.5965
▁역설	-11.5966
▁전도	-11.5967
▁불명	-11.5969
▁항구	-11.5969
▁kbs	-11.597
▁주석	-11.5971
▁줄기	-11.5973
▁여전	-11.5975
▁동아시아	-11.5982
▁실리	-11.5983
▁차선	-11.5985
▁생물학	-11.5986
▁못함	-11.5987
▁김영	-11.5992
▁떡밥	-11.5994
▁전멸	-11.5996
▁아까운	-11.5998
▁극도	-11.6003
▁김동	-11.6003
▁쓸모	-11.6003
▁떠올랐	-11.6004
▁따까리	-11.6006
▁스카이	-11.6011
ri	-11.6016
모토	-11.6017
▁동맹국	-11.6019
▁독감	-11.6021
▁불러서	-11.6024
▁연말	-11.6025
▁움직일	-11.6027
톤	-11.6028
▁모자란	-11.6035
▁극장판	-11.6036
▁나란히	-11.6038
▁in	-11.6039
▁그래요	-11.6041
▁띄우	-11.6043
▁달랐	-11.6044
▁빨개	-11.6047
▁이른	-11.6048
▁암흑	-11.6055
▁편드	-11.6055
▁틀렸	-11.6055
▁더니만	-11.6057
▁에어	-11.6058
▁체감	-11.6059
▁들먹이	-11.6062
▁생애	-11.6066
랜드	-11.6068
▁분포	-11.6068
▁승격	-11.6068
▁몰이	-11.607
▁세탁	-11.6071
▁넹	-11.6072
▁보태	-11.6074
룩	-11.6077
▁관련자	-11.6078
▁성찰	-11.6078
▁클라	-11.6078
▁한전	-11.6078
▁리아	-11.6078
▁케이블	-11.6079
▁불화	-11.6082
▁맹목	-11.6084
▁처방	-11.6086
▁동력	-11.6092
▁위생	-11.6093
▁칩	-11.6095
▁흥행	-11.6102
▁남발	-11.6106
▁불길	-11.6107
묵	-11.6109
▁쉰	-11.6112
목숨걸	-11.6113
▁성희롱	-11.6113
▁궤변	-11.6114
▁과실	-11.6115
▁권력자	-11.6116
▁각하	-11.6117
▁카카오	-11.6121
▁쇄	-11.6121
▁공제	-11.6122
im	-11.6125
▁다닌	-11.6128
▁어용	-11.6129
▁퍽	-11.6129
▁심히	-11.613
▁아이러니	-11.6133
▁김성	-11.6136
▁몹	-11.6137
▁블로그	-11.614
▁돼요	-11.6141
▁키운	-11.6141
▁대세	-11.6143
▁환수	-11.6144
▁비틀	-11.6146
▁익히	-11.6151
▁장담	-11.6152
▁줍시다	-11.6153
▁어려웠	-11.6154
▁교민	-11.6157
▁출간	-11.6159
▁듀얼	-11.6161
12	-11.6162
▁개헌	-11.6166
▁촉구	-11.6167
▁파라	-11.6168
▁호의	-11.617
▁경찰관	-11.617
▁지라	-11.6174
▁워싱턴	-11.6175
▁살인자	-11.6177
없	-11.6178
▁신다	-11.6179
▁모션	-11.6183
▁사쿠라	-11.6184
▁이룩	-11.6184
▁창원	-11.6186
▁급히	-11.619
▁분립	-11.6192
▁치안	-11.6194
▁차렸	-11.6198
re	-11.6198
▁윤지오	-11.6199
▁구미	-11.62
▁창설	-11.6202
▁쌈	-11.6204
▁삭감	-11.6205
▁세부	-11.6209
▁재빨리	-11.6209
▁낯선	-11.621
▁즐거운	-11.6211
▁공수	-11.6212
▁가담	-11.6212
▁맹세	-11.6212
▁막강	-11.6215
▁밸런스	-11.6216
▁현혹	-11.6217
ad	-11.6217
▁우방	-11.6218
▁실존	-11.6219
▁냄비	-11.6219
▁교역	-11.6221
▁역임	-11.6222
▁다더니	-11.6222
▁야간	-11.6224
▁지난번	-11.6225
▁쌔	-11.6227
▁임의	-11.623
려왔	-11.623
▁했으면	-11.6231
▁으니까요	-11.6232
▁척결	-11.6234
▁영문	-11.6238
▁이뤄	-11.624
▁공헌	-11.6242
▁까먹	-11.6243
▁Re	-11.6249
▁했잖아	-11.6249
▁아트	-11.6252
▁생겨서	-11.6253
▁방침	-11.6254
▁어색	-11.6255
▁학부	-11.6256
▁피터	-11.6257
▁강국	-11.6259
▁조달	-11.6266
▁청주	-11.6269
▁r	-11.6273
▁관습	-11.6274
▁스카	-11.6274
▁교양	-11.6279
▁관상	-11.6279
▁집니다	-11.628
▁계통	-11.6281
▁딱딱	-11.6284
▁까불	-11.6288
▁늘어났	-11.6288
▁학술	-11.6289
▁와야	-11.6289
▁제작진	-11.6289
▁찬다	-11.629
▁옮	-11.6291
▁무너져	-11.6292
▁대상자	-11.6294
▁출국	-11.6295
▁서리	-11.6304
▁국론	-11.6304
▁실세	-11.6304
▁허공	-11.6307
리어	-11.6308
▁스킨	-11.6308
▁생전	-11.6312
▁필살기	-11.632
▁물자	-11.632
▁이것저것	-11.6322
▁산책	-11.6322
▁은데요	-11.6326
▁No	-11.6326
▁비아	-11.6336
▁돌격	-11.6337
▁뺀	-11.6338
▁껌	-11.6345
▁맞벌이	-11.6347
▁축내	-11.635
▁험	-11.6356
▁치료비	-11.6357
▁템	-11.6358
▁도지사	-11.6358
▁동서	-11.6358
▁연루	-11.6359
▁서열	-11.6361
▁사연	-11.6361
▁크리스마스	-11.6364
▁브레이크	-11.6365
▁싣	-11.6367
▁가중	-11.6372
▁무사히	-11.6374
▁벌였	-11.6376
▁응시	-11.6376
▁가져야	-11.6377
▁근성	-11.638
▁댐	-11.6385
▁유머	-11.6387
▁메타	-11.6387
▁불당	-11.6387
▁바이오	-11.639
▁잉글랜드	-11.6393
▁극대	-11.6395
▁횡	-11.6395
된	-11.6395
▁김학의	-11.6396
▁살릴	-11.6401
▁망친	-11.6401
▁i	-11.6402
▁리듬	-11.6404
▁53	-11.6405
▁기후	-11.6406
▁한화	-11.6407
부드럽	-11.6408
어놓	-11.641
해졌	-11.6411
▁생략	-11.6415
▁실전	-11.6417
다리	-11.6417
▁나리	-11.6419
il	-11.6421
x	-11.6422
▁키보드	-11.6422
▁미드	-11.6424
▁반감	-11.6434
▁눌	-11.6434
▁안락사	-11.6435
▁디스크	-11.6437
▁올라서	-11.6437
▁옮겼	-11.6439
▁장본인	-11.6442
▁아작	-11.6445
▁라라	-11.6445
▁야생	-11.6445
▁잠들	-11.6446
▁부유	-11.6447
▁즉위	-11.6449
I	-11.6453
▁선두	-11.6455
멘	-11.6457
▁우울증	-11.6457
▁을라고	-11.6458
▁소총	-11.6462
▁불로	-11.6462
▁계절	-11.6463
▁브리	-11.6464
▁싸지르	-11.6466
▁이걸로	-11.6466
▁녹색	-11.6473
▁신지	-11.6477
▁철학자	-11.6481
▁담겨	-11.6482
▁이겼	-11.6482
▁오토바이	-11.6484
▁전대	-11.6484
▁공매도	-11.6487
▁장난감	-11.6487
▁오스트리아	-11.6488
▁자처	-11.6489
▁엉터리	-11.649
▁줄게	-11.6491
▁라스	-11.6492
▁기울	-11.6492
▁당당히	-11.6493
▁궤도	-11.6496
▁삽	-11.6497
▁고마워	-11.6498
▁개표	-11.65
▁즐	-11.65
▁AP	-11.6507
▁골라서	-11.6508
▁쟁	-11.6509
▁마른	-11.6513
▁흔한	-11.6514
▁최우선	-11.6515
▁내려와	-11.6515
▁심의	-11.6519
▁내전	-11.6519
▁유로	-11.652
▁사라진다	-11.652
▁내외	-11.6522
▁이사장	-11.6524
▁음식점	-11.6537
▁장병	-11.654
▁벗어난	-11.6541
▁열등	-11.6541
▁공무	-11.6543
▁웨이	-11.6547
▁덧	-11.6547
▁출력	-11.6547
▁염두	-11.6554
▁풍기	-11.6554
▁감자	-11.6556
▁저택	-11.6556
▁돼야	-11.6557
▁총수	-11.6558
▁입주	-11.6558
▁버틸	-11.6565
▁한들	-11.6566
▁제명	-11.6569
▁불능	-11.6572
▁방출	-11.6572
▁강렬	-11.6575
▁섬기	-11.6576
▁바랄	-11.6577
▁김원봉	-11.6577
▁간신	-11.6578
네스	-11.658
▁v	-11.6583
▁합치	-11.6584
▁용납	-11.6586
▁중년	-11.6589
젤	-11.659
▁두루	-11.6592
▁사관	-11.6593
능	-11.6593
▁급격	-11.6595
▁영양	-11.66
▁다룬	-11.6607
▁스페셜	-11.6614
▁레전드	-11.6617
▁코메디	-11.6622
▁산다는	-11.6624
▁tv	-11.6624
▁장래	-11.6625
▁카르	-11.6626
▁게이지	-11.6627
▁관세	-11.6632
▁청춘	-11.6634
▁외환	-11.6636
▁총회	-11.6637
▁응용	-11.6637
▁틴	-11.6641
▁죄책감	-11.6642
▁표출	-11.6647
▁굴복	-11.6649
▁전함	-11.6651
▁메일	-11.6652
▁드림	-11.6653
▁반전	-11.6653
▁사학	-11.6653
▁서해	-11.6657
▁88	-11.6658
▁몰두	-11.6659
▁원형	-11.6661
▁뭘까	-11.6661
▁줄께	-11.6662
▁걸친	-11.6665
▁체질	-11.6665
▁괴뢰	-11.6666
▁얇	-11.6669
▁아랍	-11.6671
▁아주머니	-11.6676
▁블랙리스트	-11.6679
▁선사	-11.6681
▁레어	-11.6683
▁관측	-11.6684
▁굴러	-11.6686
▁김성태	-11.6688
▁재개	-11.669
▁껍질	-11.6692
버리	-11.6693
▁헨리	-11.6693
▁군사력	-11.6693
▁야비	-11.67
▁설득력	-11.67
▁가두	-11.6701
▁단원	-11.6701
▁웃겨	-11.6707
▁룬	-11.6709
▁직면	-11.671
▁불가피	-11.6711
▁절실	-11.6711
▁고등	-11.6714
▁박힌	-11.6715
▁씨앗	-11.6717
▁듭니다	-11.6718
▁이어졌	-11.6718
▁레이더	-11.6724
▁참가자	-11.6725
▁다간	-11.6728
▁기인	-11.6729
쟁이	-11.673
▁쩔	-11.6734
▁들통	-11.6736
▁넘어갔	-11.674
▁철면피	-11.6741
▁커플	-11.6741
▁허무	-11.6741
협	-11.6743
▁엄연히	-11.6744
▁입단	-11.6745
▁섞여	-11.6746
▁뒷받침	-11.6746
▁즈음	-11.6748
▁사나이	-11.6752
▁존재감	-11.6753
▁신전	-11.6759
▁누적	-11.676
▁방가	-11.6764
▁KT	-11.6765
▁쌍둥이	-11.6767
▁쓰여	-11.677
▁배송	-11.677
▁거세	-11.677
▁대수	-11.677
▁금강산	-11.6772
▁떨어뜨리	-11.6772
▁광우병	-11.6773
▁줍	-11.6774
▁꼼짝	-11.6774
▁들이대	-11.6778
▁가혹	-11.6779
칸	-11.6781
▁보낸다	-11.6784
▁수염	-11.6785
▁판국	-11.6786
▁인조	-11.6791
▁주입	-11.6794
▁가계	-11.6795
▁개똥	-11.6799
▁골수	-11.6803
넬	-11.6803
▁한다니	-11.6806
▁롬	-11.6814
▁소방	-11.6814
▁제의	-11.6818
▁바짝	-11.682
▁못된	-11.682
▁절벽	-11.6822
▁토벌	-11.6822
▁부임	-11.6824
▁완장	-11.6824
▁연합군	-11.6825
▁양념	-11.6829
▁안희정	-11.683
▁부딪	-11.6831
▁광범위	-11.6837
▁도우	-11.6841
▁구실	-11.6843
▁St	-11.685
▁동아	-11.6853
▁주행	-11.6853
▁메달	-11.6854
▁여겼	-11.6854
▁랜덤	-11.6857
▁관중	-11.6862
▁모방	-11.6862
▁몰수	-11.6867
▁자격증	-11.687
▁무적	-11.6872
▁아카데미	-11.6872
▁수없이	-11.6875
▁사이드	-11.6875
▁상해	-11.6884
▁82	-11.6885
▁부르짖	-11.6888
▁이나마	-11.6888
▁민간인	-11.6888
▁꽁	-11.6889
▁구기	-11.689
▁수백만	-11.6892
▁계곡	-11.6894
▁해킹	-11.6901
▁컬	-11.6902
▁프레	-11.6903
▁계란	-11.6904
▁시리	-11.6907
▁렀다	-11.6909
▁굵	-11.691
▁결승전	-11.6911
▁서적	-11.6912
▁키울	-11.6917
▁표적	-11.6922
▁불안감	-11.6929
▁실재	-11.693
▁각기	-11.6931
▁속한다	-11.6932
▁배터리	-11.6933
▁팀원	-11.6941
▁김무성	-11.6941
▁소방관	-11.6943
▁김용	-11.6944
렉	-11.6945
▁손목	-11.6946
▁묻혀	-11.6951
▁소드	-11.6953
▁심리학	-11.6953
▁공지	-11.6958
▁테크	-11.6959
스크	-11.6961
▁빨라	-11.6961
님	-11.6964
▁할지라도	-11.6964
▁던졌	-11.6964
▁아사	-11.6968
▁받아들일	-11.6968
▁금메달	-11.6969
▁느껴졌	-11.697
▁김현	-11.697
▁메모리	-11.697
om	-11.6971
▁소득세	-11.6975
▁지독	-11.6976
▁콜라	-11.6977
▁마셨	-11.6977
▁일어서	-11.6978
▁증거인	-11.6978
▁무단	-11.6979
▁하향	-11.6992
▁장전	-11.6993
▁추한	-11.6995
▁아니하	-11.6995
▁교육감	-11.6998
▁칭송	-11.6999
▁날조	-11.6999
스키	-11.7
▁오세훈	-11.7002
▁복종	-11.7002
▁감금	-11.7003
▁남매	-11.7005
▁저질러	-11.7005
▁Ch	-11.7006
▁윌	-11.7008
멜	-11.7009
▁왕비	-11.7009
▁자각	-11.7014
▁터널	-11.7017
▁토해	-11.702
▁출판사	-11.7022
▁라이프	-11.7022
▁내란	-11.7024
▁엘리베이터	-11.7027
▁혈액	-11.7029
▁퇴진	-11.7029
▁드러난다	-11.7031
▁고선	-11.7032
▁두뇌	-11.7032
▁대치	-11.7032
▁해상	-11.7032
▁한단	-11.7034
▁잠잠	-11.7035
▁우월	-11.7035
▁베풀	-11.7037
▁58	-11.7038
▁사촌	-11.704
▁로비	-11.7045
▁고만	-11.7047
▁플러스	-11.7049
▁랜	-11.7049
▁공존	-11.705
▁둔다	-11.7051
▁인맥	-11.7055
▁자수	-11.7055
▁사무소	-11.7059
▁일개	-11.7059
▁72	-11.7061
▁다던	-11.7063
▁아크	-11.7063
▁예술가	-11.7064
▁총체	-11.7065
▁인데요	-11.7065
▁반려	-11.7067
▁떨어져서	-11.7067
▁지롤	-11.7068
▁못해서	-11.7069
▁기업인	-11.7069
▁아머	-11.707
th	-11.7075
▁몽땅	-11.7085
▁위해선	-11.7085
▁흔드	-11.7087
▁불려	-11.7088
▁모기	-11.7091
▁샌	-11.7091
▁흘러가	-11.7092
▁파멸	-11.7092
▁치사	-11.7093
▁증명서	-11.7098
▁요한	-11.7098
▁본문	-11.7105
▁알아듣	-11.7107
▁터치	-11.7107
▁자빠	-11.7109
▁뚜	-11.711
▁찬스	-11.7111
▁환승	-11.7112
▁른	-11.7113
▁위함	-11.7114
▁여가	-11.7114
▁내정	-11.7115
▁효력	-11.7115
▁근간	-11.7121
▁와인	-11.7125
▁미야	-11.7125
▁솜씨	-11.7125
▁적군	-11.7126
▁사이즈	-11.7128
▁마친	-11.713
▁블록	-11.7132
▁예시	-11.7133
▁마신	-11.7135
▁네티즌	-11.7135
▁붙인	-11.7143
▁색출	-11.7144
르트	-11.7145
▁박혀	-11.715
▁파동	-11.715
▁해양	-11.7151
▁뿌린	-11.7152
싱	-11.7154
▁벤츠	-11.7161
랜	-11.7162
▁카나	-11.7163
▁성명	-11.7165
잖아	-11.7166
둥이	-11.7166
▁세자	-11.7167
▁출범	-11.7167
▁톨	-11.7168
▁몰살	-11.7168
▁나팔수	-11.7168
▁원했	-11.7171
▁됩니까	-11.7171
▁대인	-11.7172
▁함선	-11.7173
▁살아나	-11.7175
▁장성	-11.7175
▁무늬	-11.7175
▁칼날	-11.7179
▁혈통	-11.7183
▁위태	-11.7183
▁진짜로	-11.7189
▁노려	-11.7189
▁똥물	-11.7192
▁원흉	-11.7193
▁라지만	-11.7193
▁친정	-11.7193
▁방관	-11.7194
▁스크린	-11.7195
▁누릴	-11.7196
▁부끄러워	-11.7197
▁해준다	-11.72
▁방울	-11.7203
▁낚	-11.7204
▁치마	-11.7205
▁도장	-11.7205
납	-11.7206
▁상주	-11.7206
▁불린다	-11.7208
▁상상력	-11.7208
▁기숙사	-11.7211
▁이용자	-11.7211
▁했어야	-11.7216
▁사용자	-11.7218
지마	-11.722
▁빨대	-11.7221
▁발정	-11.7221
▁정준영	-11.7222
▁바꿔라	-11.7224
▁도모	-11.7224
거나	-11.7224
▁메가	-11.7227
▁불의	-11.7228
▁암호	-11.7229
▁내라	-11.7229
▁홍위병	-11.723
▁경상	-11.723
▁깔려	-11.723
▁모가지	-11.7231
▁쏟아져	-11.7231
▁응징	-11.7232
▁폐하	-11.7232
▁환원	-11.7234
▁가면	-11.7235
▁인민재판	-11.7237
▁자부심	-11.7237
▁그리도	-11.7239
▁다투	-11.724
헤	-11.7242
ter	-11.7242
▁꼬마	-11.7245
▁헤드	-11.7246
▁포퓰리즘	-11.7247
▁영리	-11.7251
▁실용	-11.7254
▁무겁	-11.7257
▁연쇄	-11.7262
▁화장품	-11.7263
▁소니	-11.7265
▁중복	-11.7267
▁갑시다	-11.7269
▁무당	-11.727
▁폭등	-11.7273
▁유총	-11.7274
▁고장	-11.7274
▁광기	-11.7274
▁정치검찰	-11.7277
▁퍼뜨리	-11.7278
▁교전	-11.7281
▁호환	-11.7281
긋	-11.7284
▁수직	-11.7289
▁머신	-11.729
▁지낸	-11.7292
▁말려	-11.7294
▁칭하	-11.7294
▁단군	-11.7295
▁길드	-11.7295
▁오프닝	-11.7297
▁배정	-11.7299
▁연방제	-11.7303
▁설쳐	-11.7303
▁급급	-11.7308
▁장로	-11.7313
▁주워	-11.7313
▁아홉	-11.7314
▁차가운	-11.7315
▁나타날	-11.7318
▁능가	-11.7322
▁나락	-11.7323
▁라시	-11.7326
▁위임	-11.7332
▁57	-11.7333
▁일생	-11.7334
바람	-11.7335
▁글쎄	-11.7337
▁씁쓸	-11.7338
▁확고	-11.7339
▁쩝	-11.7339
ra	-11.734
▁반하	-11.7344
뇌	-11.7345
▁자문	-11.7345
▁면모	-11.7346
▁머니	-11.7347
▁바뀐다	-11.735
▁방탄	-11.735
▁박이	-11.7351
................	-11.7351
▁사마	-11.7351
▁예금	-11.7351
▁막혀	-11.7357
▁유대인	-11.7357
▁루시	-11.736
▁물들	-11.7361
▁모릅니다	-11.7365
▁스튜디오	-11.7366
밤	-11.7367
▁잔당	-11.7367
▁내려온	-11.7368
▁느껴진다	-11.7368
▁줄어드	-11.7373
▁톰	-11.7373
▁기점	-11.7375
▁우동	-11.7375
▁므	-11.7378
▁59	-11.7381
▁엑	-11.7383
▁달렸	-11.7384
▁뭉쳐	-11.7384
▁단호	-11.7384
▁개량	-11.7385
▁합동	-11.7387
▁다니까	-11.739
▁결의	-11.7393
▁는지요	-11.7394
▁무용	-11.7394
▁공산화	-11.7394
▁운동장	-11.7396
▁살아왔	-11.7397
▁손절	-11.7403
▁찐따	-11.7407
삭	-11.7407
▁어기	-11.7408
▁도주	-11.7413
▁길러	-11.7417
▁쌍욕	-11.7417
▁합작	-11.7418
▁스톤	-11.7427
▁활짝	-11.7428
밀어주	-11.7429
▁되돌	-11.7434
▁밤새	-11.7434
▁전승	-11.7434
▁인프라	-11.7439
▁퇴임	-11.744
▁다시금	-11.7442
▁가설	-11.7443
▁강철	-11.7449
▁오마이	-11.7453
랄	-11.7457
▁부양	-11.746
▁승차	-11.746
▁마진	-11.7462
▁개고생	-11.7464
▁화가	-11.7465
▁인지도	-11.7465
▁항해	-11.747
▁이듬해	-11.7474
▁!!!!	-11.7475
▁재판소	-11.7476
▁항공사	-11.748
▁대포	-11.7481
▁후계자	-11.7482
▁양파	-11.7482
▁분자	-11.7483
▁징징	-11.7484
▁주저	-11.7485
▁씀	-11.7486
▁띄워	-11.7489
▁인체	-11.749
▁찾아왔	-11.749
▁끝판	-11.7494
▁뱃	-11.7495
▁힘든데	-11.7499
▁포격	-11.7501
▁화법	-11.7502
▁호평	-11.7503
▁심보	-11.7504
▁정반대	-11.7505
▁리치	-11.7505
▁정립	-11.7506
▁제자리	-11.7506
▁가로막	-11.7507
▁연이	-11.7508
▁그립	-11.7511
셨	-11.7511
▁매크로	-11.7511
▁특화	-11.7515
▁될까요	-11.7515
▁동선	-11.7517
▁즐길	-11.7518
몰아넣	-11.7522
▁바꿨	-11.7525
▁마셔	-11.7526
▁악기	-11.7529
▁포위	-11.7531
▁딸년	-11.7532
▁사운드	-11.7533
▁생겨나	-11.7534
▁쓸데없이	-11.7537
▁쓰러져	-11.7538
▁분신	-11.7539
▁잡것	-11.754
▁자위대	-11.7541
▁명사	-11.7544
▁표지	-11.7546
▁아이콘	-11.7546
▁재발	-11.7547
▁여덟	-11.7549
▁갈리	-11.7549
▁사위	-11.7549
▁달콤	-11.755
▁선별	-11.7552
▁식민	-11.7554
▁본국	-11.7554
▁특집	-11.7558
▁날카로운	-11.7559
▁잣	-11.756
▁빌붙	-11.756
▁쳐들	-11.7565
▁부합	-11.7566
▁낙하산	-11.7566
뉴	-11.7568
▁프로듀서	-11.7568
끈	-11.757
▁눈동자	-11.7571
ent	-11.7572
▁---	-11.7572
▁숨겨진	-11.7574
▁공허	-11.7576
▁기사단	-11.7579
몰	-11.7584
▁종교인	-11.7584
▁욕해	-11.7584
▁이랬	-11.7585
베르	-11.7585
▁박사모	-11.7585
▁위인	-11.7587
린다는	-11.7589
▁럴	-11.759
▁냉전	-11.7591
▁좌석	-11.7594
카와	-11.7595
▁맞음	-11.7595
▁발병	-11.7597
▁지지층	-11.7598
▁부드러운	-11.7599
▁벌인	-11.7602
줘	-11.7605
허구헌	-11.7605
▁강성	-11.7606
▁낯	-11.761
▁태영	-11.7612
▁유우	-11.7614
▁In	-11.7615
▁플라	-11.7617
▁오른다	-11.7617
▁모녀	-11.762
▁두들겨	-11.762
▁만지	-11.7625
▁앵커	-11.7627
▁석사	-11.7628
▁EX	-11.7629
밍	-11.763
▁웰	-11.763
▁캠퍼스	-11.763
▁는디	-11.7632
▁정류장	-11.7633
▁호로	-11.7633
▁결과물	-11.7634
▁태생	-11.7635
▁천막	-11.7637
▁제보	-11.7639
▁외형	-11.7641
as	-11.7641
▁한없이	-11.7642
▁올라갈	-11.7642
▁공시	-11.7642
▁었었	-11.7644
▁호들갑	-11.7644
▁난무	-11.7644
▁컬러	-11.7645
▁주최	-11.7649
▁베이징	-11.7649
▁보전	-11.7649
▁자칫	-11.765
솔	-11.7651
둘러보	-11.7653
▁이루어진다	-11.7653
▁핏	-11.7654
▁정적	-11.7657
▁포드	-11.7659
▁실로	-11.7663
▁소설가	-11.7663
꾸	-11.7664
▁문법	-11.7665
▁격렬	-11.7667
▁뉘	-11.7673
▁생명력	-11.7675
▁수다	-11.7676
워서	-11.7677
▁소용없	-11.7679
쏟아지	-11.7679
▁얀	-11.7683
▁1945	-11.7688
▁끝났	-11.7689
▁이룰	-11.7689
▁실무	-11.769
▁변질	-11.7691
▁수위	-11.7698
▁뚱	-11.7699
▁단결	-11.7699
▁챠	-11.7699
▁슬쩍	-11.77
▁동전	-11.7701
▁였으면	-11.7701
▁윌리엄	-11.7701
▁둘러싼	-11.7702
▁코르	-11.7704
▁네임	-11.7704
▁고려대	-11.7706
▁전북	-11.771
▁절감	-11.7715
os	-11.7718
▁장벽	-11.7718
▁라던	-11.7719
▁유가	-11.7725
▁불문	-11.7726
▁현대차	-11.773
▁걸린다	-11.773
▁보상금	-11.7731
▁해선	-11.7731
▁왕실	-11.7732
▁회색	-11.7734
▁도적	-11.7735
▁트라우마	-11.7737
▁바꿔서	-11.7738
▁소굴	-11.7741
▁저급	-11.7746
▁원주민	-11.775
▁파이어	-11.7754
▁복도	-11.7756
ot	-11.7762
▁정밀	-11.7763
▁수년	-11.7763
▁상정	-11.7765
▁기금	-11.7765
▁풍요	-11.7766
▁직시	-11.7767
▁브로	-11.7767
▁우려먹	-11.7767
▁부풀	-11.7769
▁전향	-11.7769
▁체인	-11.777
▁그늘	-11.7771
▁구슬	-11.7775
려주	-11.7776
Z	-11.7777
▁시리아	-11.7778
▁군중	-11.7779
▁모호	-11.778
▁에스	-11.778
▁쿄	-11.7781
▁경제력	-11.7781
▁흡사	-11.7783
▁오크	-11.7783
▁흑자	-11.7785
▁기동	-11.7787
▁무너뜨리	-11.7793
▁이어져	-11.7794
▁줄까	-11.7795
▁한결	-11.7797
▁찾아온	-11.7797
▁유해	-11.7799
▁어쩐지	-11.7801
▁뒈	-11.7804
▁62	-11.7813
▁77	-11.7814
▁과거사	-11.7816
▁금전	-11.7817
▁꾸미	-11.782
▁몰카	-11.7826
▁지장	-11.7827
▁페이스북	-11.7827
집니다	-11.7828
▁나눌	-11.7828
▁스러움	-11.7829
▁지갑	-11.7831
맛	-11.7832
op	-11.7832
▁물어야	-11.7834
▁포착	-11.7837
▁가져왔	-11.7839
▁카스	-11.7843
▁텔	-11.7843
▁채무	-11.7844
▁플랫	-11.7848
▁줄일	-11.785
▁예민	-11.7852
▁로또	-11.7855
▁포털	-11.7855
▁무공	-11.786
▁레알	-11.7864
▁훅	-11.7867
▁노망	-11.7867
▁기술자	-11.7867
▁혼돈	-11.7868
▁청나라	-11.7872
▁생리	-11.7872
▁선의	-11.7872
▁리드	-11.7872
▁명확히	-11.7873
▁수저	-11.7873
▁내기	-11.7882
▁당첨	-11.7884
▁노태우	-11.7885
▁해온	-11.7886
▁대놓	-11.7887
▁작곡가	-11.7889
▁못지않	-11.7891
▁양극	-11.7894
▁김태	-11.7903
▁틀니	-11.7906
▁뒤져	-11.7906
▁요란	-11.7906
▁노숙	-11.7907
▁그레이	-11.7907
▁소수자	-11.791
▁할땐	-11.7912
▁수만	-11.7915
▁인제	-11.7918
▁벗어날	-11.7918
▁붐	-11.7918
▁줍니다	-11.7921
▁처한	-11.7921
▁동행	-11.7921
▁1986	-11.7924
▁븅	-11.7925
▁UN	-11.7928
▁실감	-11.7931
▁밉	-11.7931
▁뜻대로	-11.7933
▁꼬투리	-11.7934
▁기쁘	-11.7935
▁급격히	-11.7935
▁문헌	-11.7936
▁가져온	-11.7938
▁반역	-11.7939
▁뛰어	-11.7947
▁학급	-11.7951
▁납품	-11.7952
▁새해	-11.7955
▁마르크스	-11.7957
▁교대	-11.7961
▁시합	-11.7964
▁마츠	-11.7965
▁무난	-11.7965
▁각본	-11.7967
▁마차	-11.7967
▁들어라	-11.7968
▁쫓아	-11.7972
▁향했	-11.7978
▁품격	-11.798
▁항쟁	-11.798
▁전무	-11.7981
▁오오	-11.7985
▁좇	-11.7987
▁밍	-11.7987
ow	-11.7996
▁코트	-11.7998
▁인명	-11.7999
▁랑께	-11.8001
▁종속	-11.8003
▁중점	-11.8003
▁표명	-11.8004
▁미묘	-11.8006
▁압승	-11.8006
▁전성기	-11.8008
▁공립	-11.8009
▁동사	-11.8012
▁도민	-11.8014
▁졸개	-11.8014
▁단합	-11.8014
▁티켓	-11.8014
▁경지	-11.8016
▁보정	-11.8016
▁상세	-11.8018
▁다네	-11.8019
▁무산	-11.8023
▁극심	-11.8028
▁파생	-11.8029
▁리본	-11.8029
▁유적	-11.8031
▁법조	-11.8031
▁멸종	-11.8032
▁자행	-11.8032
▁햇빛	-11.8033
▁아랫	-11.8034
▁허허	-11.8035
따위	-11.8036
▁입각	-11.8036
▁과감	-11.8036
▁올라간다	-11.8038
▁판치	-11.8043
▁중학생	-11.8047
▁드렸	-11.805
▁부엌	-11.8051
▁사치	-11.8052
▁디언	-11.8053
▁쏜	-11.8055
▁시중	-11.8062
▁메탈	-11.8064
로우	-11.8066
▁쾌락	-11.807
▁키웠	-11.807
펜	-11.8077
▁무방	-11.8077
▁우와	-11.8085
▁몰라라	-11.8086
▁움직여	-11.8088
▁피자	-11.809
▁치루	-11.8092
▁귀하	-11.8093
te	-11.8093
▁폐기물	-11.8099
▁처해	-11.81
▁조현	-11.81
콘	-11.8103
닌	-11.8109
▁점포	-11.8109
▁페르	-11.8111
▁요괴	-11.8113
▁독립운동가	-11.8115
▁옆집	-11.8116
▁삽입	-11.8117
▁농부	-11.812
빵	-11.8121
▁대령	-11.8121
▁놔라	-11.8125
▁촉새	-11.8126
▁혼합	-11.8128
▁타국	-11.8132
▁뚜껑	-11.8132
▁VS	-11.8133
▁도피	-11.8135
▁화자	-11.8135
▁온전	-11.8136
▁CEO	-11.8136
▁모자랄	-11.8137
트라	-11.8139
▁물려받	-11.814
▁다지만	-11.8141
▁반항	-11.8142
▁도라	-11.8143
▁는데도	-11.8143
▁격추	-11.8146
▁여군	-11.8147
▁특전	-11.8148
▁기성	-11.8151
가요	-11.8151
▁데려다	-11.8153
옹	-11.8156
▁잔재	-11.8157
▁가지가지	-11.8159
▁니라	-11.8159
▁성폭력	-11.8161
▁그리워	-11.8162
▁관람	-11.8166
▁수첩	-11.8169
▁텐트	-11.817
▁장미	-11.8173
▁실검	-11.8174
▁로버트	-11.8175
▁찼	-11.8177
▁산다고	-11.8181
▁무신	-11.8182
▁무례	-11.8184
▁연예	-11.8186
ie	-11.8189
▁출퇴근	-11.8191
▁망가지	-11.8191
▁단백질	-11.8191
▁포용	-11.8192
▁잡아	-11.8192
▁용이	-11.82
▁막내	-11.8201
▁kt	-11.8202
▁끝난다	-11.8202
▁캠	-11.8202
▁거점	-11.8203
▁지도부	-11.8205
▁110	-11.8208
▁쥐새끼	-11.8211
▁말살	-11.8214
렐	-11.8217
▁닌자	-11.8218
▁쓰였	-11.822
▁공룡	-11.822
▁느냐는	-11.822
▁주부	-11.8221
▁그나저나	-11.8221
▁사주	-11.8223
▁선명	-11.8226
▁앞세워	-11.8226
▁일거	-11.8228
em	-11.8228
▁어지간히	-11.8231
▁반동	-11.8232
▁코믹스	-11.8233
▁적국	-11.8235
▁뜬금없이	-11.8237
▁사령부	-11.8238
▁후대	-11.8238
▁청렴	-11.8242
▁인해서	-11.8242
▁경사	-11.8243
▁릿	-11.8244
▁사토	-11.8244
▁빠질	-11.8244
▁소극	-11.8245
▁쓰레기통	-11.8245
털	-11.8247
▁부흥	-11.8249
ir	-11.825
▁97	-11.8251
▁진다고	-11.8251
▁처넣	-11.8252
▁왕창	-11.8252
▁탈세	-11.8253
▁영부인	-11.8254
▁형벌	-11.8258
▁김종인	-11.8259
▁수동	-11.826
▁견딜	-11.826
▁툴	-11.8261
▁쯔	-11.8261
▁..........	-11.8262
▁1985	-11.8263
▁라이더	-11.8266
▁중소	-11.8269
▁쓴다고	-11.8271
▁레이스	-11.8273
▁고래	-11.8274
▁준거	-11.8278
▁우두머리	-11.8281
▁역학	-11.8282
▁외계인	-11.8284
▁봉투	-11.8284
▁임상	-11.8284
▁남로	-11.8285
▁선한	-11.8291
▁그램	-11.8292
▁숙소	-11.8294
▁간사	-11.8296
춤추	-11.8297
▁or	-11.8297
▁연구자	-11.8301
▁사로잡	-11.8303
어오	-11.8304
▁물러	-11.8304
▁싸구려	-11.8306
버스	-11.8308
▁기용	-11.8309
▁잡혔	-11.8312
▁파면	-11.8313
▁후방	-11.8315
▁고마운	-11.8317
▁팬덤	-11.8319
um	-11.8322
▁63	-11.8327
▁덥	-11.8328
▁나랏돈	-11.833
▁뒀	-11.8331
▁흰색	-11.8333
▁중국어	-11.8333
▁판단력	-11.8333
▁다거나	-11.8336
▁외노	-11.8336
▁한층	-11.8336
▁지켰	-11.8336
카이	-11.8338
▁강력히	-11.8339
▁떡검	-11.834
▁번방	-11.8341
▁알파	-11.8342
▁힘없	-11.8344
▁반환	-11.8345
▁MC	-11.8348
▁미사	-11.8348
▁농락	-11.8349
휘둘리	-11.8351
▁세례	-11.8352
▁스코어	-11.8355
▁동아일보	-11.8355
▁번영	-11.8356
▁뷔	-11.8359
▁지뢰	-11.836
▁퀄리티	-11.8363
ro	-11.8363
▁차명진	-11.8365
▁동무	-11.8365
▁사직	-11.8366
▁이해관계	-11.8368
▁우세	-11.8368
▁배워야	-11.837
▁치졸	-11.837
켜	-11.8371
▁성도	-11.8376
드라	-11.8376
▁모았	-11.8377
ation	-11.8377
▁기아	-11.8378
▁냅	-11.8379
▁볼일	-11.8379
▁불빛	-11.838
▁지목	-11.8381
르르	-11.8382
깃	-11.8383
▁사나	-11.8384
▁이윽고	-11.8386
▁묵묵히	-11.8388
▁싱가포르	-11.8389
▁통신사	-11.839
▁아시안	-11.8391
▁이긴	-11.8392
▁어지간	-11.8393
▁비비	-11.8394
▁무마	-11.8395
▁평상시	-11.8398
켓	-11.8398
▁놔야	-11.84
▁보여서	-11.8402
▁내재	-11.8403
▁잊혀	-11.8409
▁고독	-11.8409
▁FA	-11.841
▁정조	-11.8413
▁추리	-11.8414
▁MP	-11.8415
▁구려	-11.8416
▁탯	-11.8418
▁대대로	-11.8418
▁우라	-11.8422
▁결함	-11.8423
▁붙들	-11.8423
▁배민	-11.8425
▁국무	-11.8425
▁정교	-11.8426
돌아서	-11.8428
▁1984	-11.843
무작정	-11.843
▁까라	-11.8431
▁울려	-11.8432
덩이	-11.8433
▁빠져서	-11.8434
▁공로	-11.8434
▁발리	-11.8438
▁잉여	-11.8438
▁군복	-11.8439
▁현황	-11.8442
ma	-11.8444
▁격투	-11.8445
▁노가다	-11.8445
▁질렀	-11.8448
▁폴리	-11.8451
▁김상	-11.8452
ia	-11.8454
▁콕	-11.8457
▁막론	-11.8457
▁체육관	-11.8457
▁추운	-11.8458
▁로고	-11.8459
▁오너	-11.8459
밭	-11.8464
▁악한	-11.8464
▁드라이브	-11.8465
▁치료제	-11.8465
▁펠	-11.847
ON	-11.8471
▁스티브	-11.8472
▁타점	-11.8473
▁판매량	-11.8475
▁탐색	-11.8475
▁전가	-11.8478
▁교정	-11.848
▁병들	-11.8481
▁악당	-11.8482
▁지루	-11.8483
▁걸어서	-11.8486
렛	-11.8487
▁슈트	-11.8488
AL	-11.849
휘	-11.849
▁툭하면	-11.849
▁맛보	-11.8492
▁에이즈	-11.8494
▁무선	-11.8502
▁공표	-11.8502
▁변환	-11.8503
▁츄	-11.8504
▁물결	-11.8504
▁조져	-11.8507
▁승자	-11.8508
▁다구	-11.8509
▁해임	-11.8509
▁담임	-11.851
▁설리	-11.851
▁검정	-11.8512
▁짜르	-11.8514
▁보좌관	-11.8515
▁존엄	-11.8516
▁렙	-11.8517
▁메모	-11.8517
▁귀환	-11.8519
▁다툼	-11.8526
▁관직	-11.8528
▁뭘로	-11.8529
▁랭킹	-11.8531
▁바쳐	-11.8532
▁마술	-11.8533
▁130	-11.854
▁귀엽	-11.8544
어진	-11.8544
▁공고	-11.8545
▁맞춰서	-11.8546
▁캐리	-11.8548
▁권장	-11.8548
▁미약	-11.8549
▁강물	-11.855
▁후속	-11.8552
▁혹시나	-11.8552
▁진전	-11.8552
▁귀여운	-11.8553
▁팍	-11.8554
▁관계없이	-11.8554
▁준다면	-11.8555
▁차마	-11.8557
▁상속세	-11.8557
뢰	-11.8557
▁대꾸	-11.8562
버린	-11.8564
▁삼촌	-11.8565
까요	-11.8567
▁과자	-11.8568
▁버스터	-11.8569
▁뀌	-11.8571
▁홍수	-11.8571
▁돈벌이	-11.8573
▁간직	-11.8575
▁한잔	-11.8577
▁야마	-11.8577
▁후원금	-11.8577
J	-11.858
▁성지	-11.8581
▁돌릴	-11.8581
▁어휘	-11.8585
▁신혼	-11.8587
▁동인	-11.8587
▁핥	-11.8587
▁펙	-11.8592
▁암울	-11.8594
▁어선	-11.8597
▁라우	-11.86
▁직위	-11.86
▁퍼부	-11.8605
▁죄지	-11.8608
▁SP	-11.8608
▁두목	-11.8609
▁업소	-11.8616
▁정점	-11.8618
▁조립	-11.8619
▁900	-11.8619
▁출구	-11.862
▁똥줄	-11.8622
잠	-11.8622
▁본명	-11.8623
▁마음껏	-11.8623
▁교차	-11.8624
▁캐스팅	-11.8627
▁던진	-11.8627
▁팬티	-11.8627
▁비스	-11.8628
▁삼국	-11.8628
▁필름	-11.8631
▁꼬박꼬박	-11.8631
▁내세워	-11.8631
▁인도네시아	-11.8633
▁일조	-11.8635
▁나비	-11.8639
▁다녀온	-11.864
▁침범	-11.8641
▁소집	-11.8641
▁jtbc	-11.8642
▁시아	-11.8644
▁신임	-11.8646
▁섬나라	-11.8646
▁더러워	-11.8646
▁영지	-11.8648
▁구형	-11.8649
▁마리오	-11.865
▁가면라이더	-11.8651
▁품위	-11.8651
▁반공	-11.8653
▁열려	-11.8653
▁필사	-11.8655
▁심했	-11.8657
▁썪	-11.8657
▁가진다	-11.8658
▁지긋지긋	-11.8659
▁국산화	-11.8667
▁망각	-11.8668
▁핸	-11.8668
바라	-11.867
▁영세	-11.8671
▁겠다	-11.8672
▁퀴들	-11.8676
▁비위	-11.8676
▁볼모	-11.8678
▁낄	-11.8678
웨이	-11.8681
▁땜시	-11.8683
▁파크	-11.8684
▁외국어	-11.8685
▁유진	-11.8685
▁WHO	-11.8686
▁결여	-11.8688
립니다	-11.8689
눈	-11.8689
▁볼트	-11.8691
▁왠만	-11.8691
▁챙피	-11.8691
▁타도	-11.8692
▁전송	-11.8693
▁새겨	-11.8694
▁1930	-11.8694
▁아카	-11.8694
▁제작자	-11.8695
▁아재	-11.8703
▁추석	-11.8704
▁잊어버	-11.8708
▁본보기	-11.8709
▁깽판	-11.8712
▁냉장고	-11.8715
▁놓인	-11.8715
▁상단	-11.8717
▁해금	-11.8719
▁부칸	-11.872
버렸	-11.8721
▁설레발	-11.8722
▁쓸모없	-11.8723
▁거시기	-11.8724
▁벌벌	-11.8727
▁남경	-11.873
▁92	-11.8731
▁용량	-11.8731
▁트라	-11.8732
▁몸매	-11.8734
▁트레	-11.8736
▁소명	-11.8738
▁반장	-11.874
리오	-11.8742
▁IP	-11.8743
▁인터	-11.8745
▁제왕	-11.8746
▁임마	-11.8747
▁대금	-11.8747
▁기껏	-11.875
▁법관	-11.8755
▁둬라	-11.8757
▁함수	-11.8758
츠키	-11.876
▁연세대	-11.8762
▁밀도	-11.8764
▁눔	-11.8764
▁마음속	-11.8765
▁적정	-11.8765
▁다짐	-11.8766
▁어떤지	-11.8766
▁까이	-11.877
죠	-11.877
▁대주	-11.8771
▁넘어지	-11.8777
▁콩밥	-11.8778
▁시녀	-11.8779
▁화합	-11.878
▁의상	-11.878
▁NPC	-11.8782
▁렷	-11.8784
▁끼어들	-11.8784
▁배워라	-11.8785
!	-11.8785
▁2030	-11.8786
져야	-11.8787
▁는지라	-11.8788
▁신음	-11.879
02	-11.8791
▁돌입	-11.8794
▁꼭두각시	-11.8795
▁적반하장	-11.8795
▁재배	-11.8797
기사	-11.8802
▁상륙	-11.8803
▁정정	-11.8805
▁테이프	-11.8806
▁아나	-11.8807
▁적절히	-11.8807
▁노라	-11.8807
▁치욕	-11.8813
▁원한다	-11.8816
▁포르투갈	-11.8821
la	-11.8824
▁용품	-11.8825
▁스러울	-11.8828
▁아르헨티나	-11.8831
▁세수	-11.8831
▁화산	-11.8832
▁눈먼	-11.8834
▁플라스틱	-11.8836
어질	-11.884
넘쳐나	-11.8841
▁꼴리	-11.8841
▁한답시고	-11.8841
▁일으킬	-11.8841
▁리오	-11.8841
▁구한	-11.8842
▁지면	-11.8846
▁듣보잡	-11.8847
▁허접	-11.8847
▁절단	-11.8847
▁본체	-11.8849
▁낯짝	-11.8849
▁노동당	-11.8851
▁부러워	-11.8852
?	-11.8853
가와	-11.8854
▁쿠키	-11.8854
▁횡단	-11.8855
▁넷째	-11.8858
▁처절	-11.8859
▁찰스	-11.8859
▁경원	-11.8861
▁내려갔	-11.8864
▁총질	-11.8865
▁센스	-11.8866
▁이쁜	-11.8867
▁직책	-11.8869
▁배분	-11.8869
▁너거들	-11.887
▁외고	-11.887
▁발발	-11.8871
▁입금	-11.8872
▁친해	-11.8875
▁소행	-11.8875
▁늘어난	-11.8878
▁나카	-11.8882
퀴	-11.8883
▁패권	-11.8886
▁속셈	-11.8887
▁to	-11.8888
▁호응	-11.889
▁반역자	-11.889
▁과시	-11.8891
▁어긋나	-11.8892
▁조세	-11.8894
▁그런다고	-11.8895
▁기병	-11.8895
▁블레이드	-11.8896
벤	-11.8898
▁자주국방	-11.8899
▁개망신	-11.8901
▁국면	-11.8901
▁퍼붓	-11.8903
▁무얼	-11.8903
▁벌려	-11.8904
▁장려	-11.8906
▁우체국	-11.8907
▁관장	-11.8907
▁제이	-11.8912
▁악법	-11.8915
▁지민	-11.8917
▁누이	-11.8919
▁벤처	-11.8922
▁드문	-11.8923
▁타고난	-11.8927
▁일족	-11.8927
▁섞인	-11.8928
잉	-11.893
▁재직	-11.8934
▁복용	-11.8935
▁설화	-11.8935
▁매너	-11.8936
▁게스트	-11.8937
▁파이널	-11.8939
▁일찍이	-11.8941
▁숙제	-11.8946
▁시즈	-11.8946
▁학점	-11.8946
▁저분	-11.8946
▁빈곤	-11.8946
▁옮긴	-11.8947
▁조두순	-11.8948
▁왓	-11.895
▁이기주의	-11.895
▁목욕	-11.895
늘어지	-11.8955
▁기상	-11.8956
▁이왕	-11.8958
▁미필	-11.8959
▁반대편	-11.896
▁예견	-11.8963
▁드러운	-11.8963
▁침착	-11.8964
▁기꺼이	-11.897
▁헤쳐	-11.897
▁고추	-11.8971
▁케어	-11.8971
▁철판	-11.8975
▁난다고	-11.8975
▁살펴	-11.8978
▁나옵니다	-11.8984
▁감축	-11.8988
▁손녀	-11.899
▁트레이드	-11.899
▁프리미엄	-11.8991
▁레인	-11.8991
▁휴지	-11.8992
▁붙였	-11.8993
▁풍자	-11.8993
15	-11.8997
▁66	-11.8999
▁불사	-11.9001
▁평창	-11.9002
▁항일	-11.9003
ly	-11.9006
틴	-11.9008
▁박정	-11.9011
▁미미	-11.9011
▁접시	-11.9012
▁정글	-11.9014
▁셔요	-11.9014
▁독선	-11.9014
▁의사소통	-11.9015
▁우회	-11.9016
▁소매	-11.9016
▁크레	-11.9018
▁악역	-11.9018
▁맏	-11.9021
▁부천	-11.9022
▁제대	-11.9023
▁명나라	-11.9023
널	-11.9024
어내	-11.9026
텐	-11.9028
▁파일럿	-11.9031
▁성전	-11.9031
31	-11.9033
▁흡연	-11.9034
▁양육	-11.9035
▁배척	-11.9039
▁시드	-11.904
▁수신	-11.9041
▁문신	-11.9043
▁광역시	-11.9046
▁댕기	-11.9046
▁재건	-11.9046
▁톡	-11.9047
▁그름	-11.9047
▁바울	-11.9048
▁저출산	-11.9048
▁경직	-11.9049
▁브레	-11.905
▁심상	-11.9058
▁분수	-11.9058
▁인들	-11.9059
▁해야함	-11.9059
▁각도	-11.906
▁대중교통	-11.9061
▁프라	-11.9062
▁봣	-11.9064
▁날렸	-11.9067
Q	-11.9067
▁치워	-11.9067
▁떄	-11.9072
▁액수	-11.9072
▁차분	-11.9075
▁하청	-11.9075
▁애라	-11.9076
▁세속	-11.9076
▁화상	-11.9077
럽	-11.9079
▁올려야	-11.908
▁마일	-11.9081
▁재학	-11.9083
11	-11.9084
▁달려드	-11.9084
▁체중	-11.9085
▁햄	-11.9088
▁법학	-11.9088
▁정차	-11.9089
▁정년	-11.9093
▁원치	-11.9096
▁김민	-11.9097
▁김구	-11.9099
▁교복	-11.9099
▁모토	-11.9099
▁어쨌	-11.9104
▁부제	-11.9107
▁회식	-11.9111
▁상의	-11.9114
▁승강장	-11.9114
▁거인	-11.9115
▁번쩍	-11.9117
▁칭호	-11.9117
▁일선	-11.9118
▁여의도	-11.9119
▁알아내	-11.9119
▁나열	-11.9123
졸	-11.9123
▁무시무시	-11.9125
▁사설	-11.9126
▁XX	-11.9127
▁국수호	-11.9128
어먹	-11.9132
▁인접	-11.9135
▁유한	-11.9137
▁구로	-11.9137
▁망가	-11.9138
▁대위	-11.9139
▁산맥	-11.9139
▁꾸며	-11.914
▁버려서	-11.9145
▁생각없이	-11.9146
▁아휴	-11.9146
▁원활	-11.9146
▁학사	-11.9147
.	-11.9147
▁지나간	-11.9151
▁우릴	-11.9152
▁이모	-11.9152
▁우대	-11.9152
▁독립군	-11.9155
▁승무원	-11.9158
▁올려라	-11.9159
▁희한	-11.9165
▁몰라요	-11.9168
▁96	-11.9169
▁쉑	-11.9171
▁여파	-11.9173
▁택하	-11.9174
▁마드	-11.9175
▁기침	-11.9179
▁지체	-11.918
and	-11.918
▁명백히	-11.9181
올바르	-11.9181
▁수필	-11.9181
▁머물러	-11.9182
▁미워하	-11.9183
▁라고요	-11.9189
▁비타민	-11.9192
▁고찰	-11.9194
▁악몽	-11.9195
▁자랐	-11.9197
▁노동력	-11.9198
▁속내	-11.9198
▁유언	-11.9202
잇	-11.9202
ER	-11.9202
잡아가	-11.9204
▁저년	-11.9204
▁우째	-11.9205
▁지상파	-11.9207
▁작살	-11.9207
▁자사	-11.921
▁파헤쳐	-11.921
니스	-11.9211
▁루머	-11.9212
▁산출	-11.9214
▁보수당	-11.9217
▁구녕	-11.9219
▁냐면	-11.9219
▁악행	-11.9221
▁퉁	-11.9221
▁취했	-11.9221
▁참담	-11.9226
▁명제	-11.9226
▁와도	-11.9227
▁나설	-11.9229
▁절친	-11.923
▁그레	-11.9232
▁역풍	-11.9233
▁토모	-11.9234
▁시정	-11.9235
▁연사	-11.9238
▁유니	-11.9239
▁목회	-11.9239
▁주저앉	-11.9239
▁com	-11.9239
▁한몫	-11.924
▁북송	-11.924
92	-11.9242
▁명명	-11.9244
▁쓰리	-11.9244
▁밑바닥	-11.9245
▁계약서	-11.9246
▁동요	-11.9247
▁절약	-11.9247
▁하물며	-11.9249
▁창궐	-11.9253
▁강용석	-11.9254
▁둔갑	-11.9255
▁글구	-11.9257
▁남북한	-11.9258
▁품목	-11.9259
▁내성	-11.9261
▁안드로이드	-11.9261
▁후진	-11.9265
▁대도	-11.9266
▁시마	-11.9272
▁퍼졌	-11.9275
▁헌터	-11.9279
▁아다	-11.928
▁휩쓸	-11.928
▁자루	-11.928
▁뱃속	-11.9281
▁산물	-11.9285
▁느린	-11.9286
▁내려와라	-11.9288
▁개수작	-11.9289
▁1920	-11.9295
▁램	-11.9297
▁위축	-11.9298
▁간절	-11.9299
▁내려왔	-11.9306
▁조아	-11.9306
▁클래식	-11.9308
▁수용소	-11.9308
▁주재	-11.9308
▁지나갔	-11.9308
▁제물	-11.9309
▁결집	-11.9313
▁천문학	-11.9315
▁잠자리	-11.9316
▁보드	-11.9318
▁들린다	-11.9318
▁음료	-11.9319
▁DJ	-11.932
▁선도	-11.9322
▁정자	-11.9322
▁아미	-11.9325
▁당해도	-11.9326
▁가축	-11.9326
▁받들	-11.9329
▁수반	-11.933
▁빨간색	-11.9331
▁열기	-11.9334
▁대담	-11.9336
▁성욕	-11.9341
▁실버	-11.9342
▁헤매	-11.9345
▁죄수	-11.9348
겹	-11.9348
덜	-11.9352
▁본색	-11.9353
▁녕	-11.9353
뻐하	-11.9355
▁로우	-11.9356
▁올라간	-11.9359
▁포스터	-11.936
▁필리	-11.936
▁미인	-11.9363
▁워치	-11.9364
▁타운	-11.9364
▁곡선	-11.9365
▁바늘	-11.9366
▁노래방	-11.937
▁폄하	-11.9371
▁극한	-11.9373
▁쿨타임	-11.9374
트리	-11.9374
▁사파	-11.9375
▁기득권	-11.9377
▁정치가	-11.9379
▁지난해	-11.9379
▁중형	-11.938
▁익명	-11.938
▁레스	-11.9381
▁태극	-11.9386
▁허수아비	-11.9386
▁상급	-11.9388
▁깡통	-11.9389
▁불렸	-11.9392
▁단서	-11.9393
▁추위	-11.9395
▁커리어	-11.9397
▁연예계	-11.9399
▁백날	-11.94
쉽	-11.9402
댔	-11.9403
끌어들이	-11.9403
▁속해	-11.9404
▁친분	-11.9406
▁렸	-11.9407
▁색상	-11.9407
▁저럴	-11.9408
▁사회악	-11.9412
▁서사	-11.9413
▁만물	-11.9413
▁개그맨	-11.9416
▁투구	-11.942
▁사범	-11.942
뇨	-11.9423
▁외상	-11.9423
지만	-11.9424
▁탈당	-11.9425
▁부역자	-11.943
▁안습	-11.9433
▁온다고	-11.9434
▁자멸	-11.9435
▁잠수	-11.9436
▁미숙	-11.9436
▁김경	-11.9439
▁카오스	-11.9444
▁뮤지컬	-11.9444
▁식탁	-11.9446
▁성조기	-11.9446
▁정찰	-11.9447
▁MB	-11.9449
▁스탈린	-11.9449
▁딴소리	-11.9456
▁나폴레옹	-11.9458
▁슛	-11.9459
▁절로	-11.9459
▁말년	-11.946
대로	-11.9464
▁지으며	-11.9464
▁웹툰	-11.9464
▁김종	-11.9465
▁뤼	-11.9467
▁거북	-11.9469
▁최적	-11.947
▁징글징글	-11.947
▁마실	-11.947
▁안주	-11.9474
▁구청	-11.9476
▁플레이오프	-11.9476
▁페이스	-11.9476
▁범행	-11.9478
▁세울	-11.9484
▁차린	-11.9485
▁갈래	-11.9485
▁오바	-11.9485
▁무슬림	-11.9488
▁수월	-11.9488
준다	-11.9489
▁데로	-11.9489
▁선원	-11.949
▁연일	-11.9492
▁매개	-11.9492
▁글쓰기	-11.9493
비스	-11.9497
더니	-11.9502
ay	-11.9505
▁교안	-11.9505
▁II	-11.9506
▁생존자	-11.9507
살이	-11.9507
▁가입자	-11.9507
▁해져서	-11.9509
▁충당	-11.951
▁둘러싸	-11.9512
▁경상북도	-11.9514
▁연도	-11.9517
▁분당	-11.9519
▁이인영	-11.9522
▁엽	-11.9523
▁자막	-11.9524
▁폭도	-11.9525
▁뒤질	-11.9526
▁NC	-11.953
..	-11.9531
▁병행	-11.9534
▁주교	-11.9535
▁병우	-11.9535
▁유료	-11.9536
▁하찮	-11.9537
▁아버님	-11.9537
깨	-11.9537
▁때렸	-11.9538
▁탄소	-11.9539
▁진격	-11.954
▁로즈	-11.954
▁막힌	-11.9543
▁보네	-11.9546
16	-11.955
▁개천	-11.955
▁주체사상	-11.9551
▁기리	-11.9552
▁엎드려	-11.9554
▁죽여도	-11.9556
▁한단다	-11.9559
▁심신	-11.956
라니	-11.9562
▁마찰	-11.9563
▁단가	-11.9564
▁그해	-11.9565
▁발끈	-11.9565
▁크루	-11.9566
▁휘하	-11.9566
▁재판관	-11.957
▁견주	-11.9574
▁매달려	-11.9577
▁뒤쪽	-11.9578
▁총경	-11.958
▁최상	-11.9581
▁거실	-11.9583
▁디자이너	-11.9583
▁어려서	-11.9584
▁뻑	-11.9586
▁포도	-11.9586
▁염치	-11.9587
▁법령	-11.9592
▁마땅히	-11.9593
▁싸잡	-11.9597
▁저술	-11.9601
▁카더라	-11.9606
▁쌓인	-11.9606
▁급증	-11.9607
▁달빛	-11.9607
▁쩐	-11.9607
▁상술	-11.9609
▁과격	-11.9613
▁지럴	-11.9615
▁장거리	-11.9616
데이	-11.9617
▁봉건	-11.9617
▁전체주의	-11.9618
▁개수	-11.962
▁승려	-11.9622
▁끝없이	-11.9623
▁싸운	-11.9623
▁체면	-11.9625
▁닐	-11.9628
▁후안무치	-11.963
▁오지랖	-11.9631
▁낮춰	-11.9632
▁비굴	-11.9632
▁최다	-11.9633
▁에어컨	-11.9634
▁채팅	-11.9636
▁호황	-11.9637
▁지팡이	-11.9637
▁갈색	-11.9638
럭	-11.9638
비아	-11.964
▁쳐야	-11.9642
▁잔혹	-11.9643
▁사업가	-11.9644
▁토르	-11.9645
▁매달리	-11.9646
사키	-11.9646
▁시공	-11.9646
벌레	-11.9648
▁병실	-11.9648
▁오페라	-11.9649
잡이	-11.965
쪽	-11.9651
▁놀이터	-11.9651
▁호르몬	-11.9651
▁민망	-11.9654
▁붕어	-11.9654
▁겹치	-11.9656
▁부엉이	-11.9656
▁리메이크	-11.9657
▁외곽	-11.9659
▁경쟁자	-11.9659
▁퍼포먼스	-11.9659
▁미츠	-11.9662
▁유무	-11.9662
▁장난질	-11.9662
▁미학	-11.9666
▁때린	-11.9666
▁골치	-11.9667
▁칼리	-11.967
▁픈	-11.9672
▁처신	-11.9672
▁자중	-11.9673
럴	-11.9674
▁유난히	-11.9674
▁펀	-11.9675
▁편협	-11.9675
▁덧붙여	-11.9675
▁장례식	-11.9676
▁이어받	-11.9677
ill	-11.9677
▁증폭	-11.9681
▁손톱	-11.9683
▁삼국지	-11.9684
▁발사체	-11.9684
▁다치	-11.9685
▁으냐	-11.9686
▁수사관	-11.9687
99	-11.9689
흔	-11.969
▁본받	-11.9691
▁일화	-11.9693
▁찔리	-11.9694
▁태세	-11.9695
▁표창원	-11.9696
▁빈도	-11.9698
▁재혼	-11.9699
▁선거철	-11.97
▁작사	-11.9702
▁수십억	-11.9703
▁불황	-11.9704
▁생산량	-11.9704
▁건립	-11.9705
▁1982	-11.9707
▁할거	-11.9711
궈	-11.9715
▁따랐	-11.9716
▁달라진다	-11.9719
▁달라진	-11.9719
▁동아리	-11.9719
▁비들	-11.9719
오리	-11.9721
▁패시브	-11.9722
ap	-11.9724
▁덩	-11.9727
▁중력	-11.9729
▁유학생	-11.9731
▁등기	-11.9732
▁보람	-11.9734
▁할라고	-11.9734
▁달라붙	-11.9736
▁쒸	-11.9737
▁당초	-11.9738
▁아담	-11.9738
▁PR	-11.9741
▁후속작	-11.9742
어져	-11.9743
▁대갈통	-11.9743
▁궁전	-11.9744
▁관제	-11.9744
▁유이	-11.9745
ta	-11.9745
▁조회	-11.9746
▁시련	-11.9749
▁국사	-11.9749
타로	-11.9751
▁햇살	-11.9751
끌어안	-11.9752
▁책정	-11.9753
▁카피	-11.9753
▁아르바이트	-11.9762
리나	-11.9763
▁저소득층	-11.9764
▁조이	-11.9764
▁도심	-11.9767
▁치즈	-11.9768
▁표절	-11.9768
▁and	-11.9769
▁교과	-11.9769
▁160	-11.977
▁선거구	-11.9773
▁느라고	-11.9776
▁기단	-11.9777
▁SS	-11.9777
▁징징대	-11.9779
똥	-11.9779
▁로스쿨	-11.9779
▁발작	-11.9782
▁충청도	-11.9783
▁인내	-11.9783
▁럭	-11.9785
▁유성	-11.9787
▁유의	-11.9789
▁입찰	-11.9792
▁가뜩이나	-11.9796
▁우산	-11.9798
▁진다는	-11.98
▁무술	-11.9801
▁서장	-11.9801
▁팔린	-11.9803
러뜨리	-11.9803
▁정유	-11.9805
▁어벙이	-11.9805
▁튜	-11.9806
▁팡	-11.981
▁장부	-11.9811
▁떵	-11.9812
▁벼락	-11.9812
▁공백	-11.9813
▁정해져	-11.9814
▁1983	-11.9815
▁진이	-11.9816
▁가이드	-11.982
▁어울려	-11.982
▁였으니	-11.9821
▁청약	-11.9821
▁라던데	-11.9821
▁입당	-11.9822
▁어둡	-11.9823
▁후임	-11.9824
▁향수	-11.9827
▁아사히	-11.9828
▁마산	-11.9828
▁삼청	-11.9829
▁신랑	-11.983
▁펀치	-11.983
▁내포	-11.9831
▁스틸	-11.9831
▁회로	-11.9831
▁건다	-11.9834
▁남침	-11.9835
▁노스	-11.9837
▁유승준	-11.9837
▁득실	-11.9837
▁68	-11.9839
▁고스톱	-11.9842
▁운반	-11.9843
▁쉬워	-11.9844
▁탄약	-11.9844
▁열등감	-11.9846
▁광대	-11.9847
▁스티븐	-11.9848
▁괴수	-11.9849
▁구르	-11.9851
▁여라	-11.9854
폰	-11.9856
▁우편	-11.9859
▁들어섰	-11.9862
▁종사자	-11.9862
▁기종	-11.9863
▁간질	-11.9864
▁패밀리	-11.9864
▁새우	-11.9869
▁찾아와	-11.9869
▁일환	-11.9869
▁누명	-11.987
▁디아	-11.9871
▁극좌	-11.9873
▁각인	-11.9875
▁태클	-11.9876
▁가둬	-11.9876
▁실화	-11.9877
▁캘리포니아	-11.9878
▁차장	-11.9879
▁검새	-11.9879
▁세여	-11.9879
▁랫	-11.988
▁오른손	-11.9882
▁빙신	-11.9884
▁두드리	-11.9885
▁즈그	-11.9885
▁박살나	-11.9887
▁소리쳤	-11.9891
▁줘요	-11.9891
▁다이아몬드	-11.9892
▁수여	-11.9892
▁그지없	-11.9892
라스	-11.9893
▁더라고	-11.9893
▁창립	-11.9896
▁계집	-11.9897
▁통곡	-11.9897
▁살포	-11.9898
▁뚝	-11.9899
▁성기	-11.99
▁따라잡	-11.9902
을까	-11.9902
▁싸워야	-11.9905
▁합체	-11.9906
▁지주	-11.9906
▁피아	-11.9906
▁책임져야	-11.9906
▁열악	-11.9907
룬	-11.9907
튀어나오	-11.9907
▁86	-11.9918
▁물류	-11.9918
▁자백	-11.9918
▁차익	-11.9919
▁외제	-11.9919
▁형편없	-11.9923
▁틀림없이	-11.9923
▁기미	-11.9924
▁이른다	-11.9924
▁평일	-11.9925
▁재선	-11.9925
▁툭	-11.9925
▁막판	-11.9926
▁평타	-11.9926
▁복판	-11.993
▁찌그러져	-11.993
▁달라질	-11.9931
▁지킨	-11.9932
눌	-11.9934
슬리	-11.9936
▁선교사	-11.9937
▁간지	-11.9937
▁깨끗이	-11.9937
▁베를린	-11.9938
▁견뎌	-11.994
▁진급	-11.9942
▁손발	-11.9943
▁관용	-11.9946
▁수감	-11.9947
▁보답	-11.9948
▁뺄	-11.9952
콜	-11.9953
▁흠집	-11.9954
▁귀중	-11.9954
▁징수	-11.9955
▁나불거리	-11.9956
▁쑥	-11.9958
▁모양새	-11.9958
▁안민석	-11.996
▁성금	-11.9962
▁망조	-11.9963
▁섬유	-11.9963
▁가릴	-11.9968
▁열광	-11.9968
▁모니터	-11.9968
▁선제	-11.9969
▁스쳐	-11.9971
▁변이	-11.9973
▁켈	-11.9973
▁저그	-11.9974
▁오프라인	-11.9975
▁겜	-11.9979
▁받아들였	-11.9979
▁주식회사	-11.9979
▁넘겼	-11.9983
▁안일	-11.9983
▁뭉개	-11.9985
▁왜냐면	-11.9986
▁분란	-11.9986
▁묻히	-11.9987
▁안함	-11.9987
▁펼쳤	-11.9988
▁숙주	-11.9988
▁보안법	-11.9989
▁환호	-11.9991
▁실험실	-11.9992
▁아우성	-11.9992
▁부탁드립니다	-11.9993
▁쇼핑몰	-11.9995
▁성직자	-11.9996
▁전액	-11.9997
▁때때로	-12.0001
▁행진	-12.0001
▁무너진	-12.0003
▁패키지	-12.0004
▁조연	-12.0005
테르	-12.0006
▁두려운	-12.0006
▁내몰	-12.0008
▁쿠팡	-12.0012
▁올라와	-12.0013
▁모함	-12.0013
▁동결	-12.0015
▁떠돌	-12.0019
▁대한항공	-12.0019
▁집필	-12.0024
▁용지	-12.0025
▁그러니	-12.0027
▁착수	-12.0029
▁재물	-12.0032
▁우아	-12.0033
▁똑똑히	-12.0033
▁서울특별시	-12.0034
▁루이스	-12.0035
▁안위	-12.0037
▁속아	-12.0038
▁양손	-12.0039
▁화내	-12.0041
▁물리치	-12.0042
▁전담	-12.0042
▁수갑	-12.0043
▁세이브	-12.0044
▁참수	-12.0044
▁일러	-12.0045
▁레인저	-12.0046
▁할당	-12.0047
▁카트	-12.0047
▁비서관	-12.0048
▁우매	-12.005
▁냔	-12.0051
▁귓	-12.0051
▁입문	-12.0052
▁후세	-12.0052
▁요법	-12.0052
▁사이다	-12.0053
롭	-12.0053
▁계셨	-12.0054
▁학업	-12.0055
▁음원	-12.0055
▁아파서	-12.0055
▁윈도우	-12.0056
▁노부	-12.0056
▁터뜨리	-12.0057
▁해병대	-12.0058
냅두	-12.0059
▁넉넉	-12.006
▁FIFA	-12.006
▁닷	-12.0062
▁주름	-12.0066
▁불공정	-12.0072
▁미당	-12.0074
▁페미니스트	-12.0075
▁인민군	-12.0077
▁외우	-12.0084
▁루타	-12.0086
??	-12.0087
둘	-12.0087
▁결사	-12.0092
▁세로	-12.0092
▁미스터	-12.0095
▁뜻밖	-12.0095
▁마이너	-12.0096
▁대입	-12.0097
▁횡포	-12.0097
댄	-12.0098
▁빈부	-12.0099
닉	-12.0099
▁동성애자	-12.01
▁절제	-12.01
▁부속	-12.0101
▁가라	-12.0105
▁쩍	-12.0105
▁베리	-12.0105
▁아껴	-12.0105
▁상권	-12.0106
▁흉기	-12.0106
▁기력	-12.0108
▁장기간	-12.0108
▁생색내	-12.0111
▁입양	-12.0111
▁경과	-12.0111
▁예기	-12.0114
▁완수	-12.0114
▁신재민	-12.0117
▁규탄	-12.012
일컫	-12.012
▁로워	-12.0123
▁간과	-12.0124
▁알코올	-12.0127
▁세입자	-12.0129
▁아티스트	-12.0129
▁통역	-12.0132
넘	-12.0134
짜	-12.0136
▁요양	-12.0136
▁동거	-12.0137
▁샵	-12.0137
바르	-12.0138
▁민사	-12.0139
▁중위	-12.0139
▁고함	-12.0139
▁자업자득	-12.0141
▁집권당	-12.0142
▁다가왔	-12.0146
▁꺼냈	-12.0149
▁들어선	-12.0155
▁탐사	-12.0157
▁소라	-12.016
▁1979	-12.0163
▁텍	-12.0164
▁선다	-12.0165
▁달라졌	-12.0165
▁아바타	-12.0166
▁보훈	-12.0166
▁절정	-12.0166
▁부착	-12.0168
▁부메랑	-12.0168
ell	-12.0169
▁직관	-12.0171
▁용산	-12.0177
▁84	-12.0179
▁데이비드	-12.018
▁사탕	-12.0181
▁살아라	-12.0181
▁자존	-12.0189
랭	-12.0189
▁IS	-12.019
▁백배	-12.019
▁희귀	-12.0191
▁74	-12.0192
▁중심지	-12.0193
▁교육청	-12.0193
est	-12.0195
ig	-12.0195
▁집행유예	-12.0196
▁설탕	-12.0199
▁비상식	-12.0199
▁부산대	-12.02
▁메세지	-12.0203
▁상환	-12.0205
▁자립	-12.0205
▁한통속	-12.0205
▁탱커	-12.0206
▁되돌려	-12.0206
▁머지않	-12.0208
▁대마도	-12.0209
ch	-12.0209
▁밥상	-12.021
▁피고인	-12.0211
▁강점	-12.0211
▁뭡니까	-12.0211
▁하차	-12.0213
37	-12.0215
▁딱지	-12.0215
▁71	-12.0215
▁전라남도	-12.0216
▁보좌	-12.0217
▁프로세스	-12.0218
▁골고루	-12.0219
▁생색	-12.0221
▁상영	-12.0222
▁나타낸다	-12.0222
▁공손	-12.0222
OS	-12.0224
▁떠넘기	-12.0225
▁모모	-12.0226
윈	-12.0228
▁PS	-12.0228
▁통틀	-12.0229
▁다이어트	-12.0231
킬	-12.0232
▁y	-12.0233
▁팟	-12.0233
▁고무	-12.0237
▁이승	-12.0237
▁바친	-12.0237
▁기강	-12.0238
▁스마트	-12.0243
st	-12.0252
잘	-12.0252
▁배워서	-12.0261
▁겨냥	-12.0262
▁내려서	-12.0263
▁옥수수	-12.0264
▁도태	-12.0267
아나	-12.0267
▁입자	-12.0268
▁강릉	-12.0269
▁보이스	-12.027
▁당파	-12.027
▁좌지우지	-12.0271
▁멍멍이	-12.0276
▁줄려고	-12.0278
▁밥통	-12.0279
▁뒤덮	-12.0279
▁토크	-12.028
▁물갈이	-12.028
▁증여	-12.028
▁렌즈	-12.0281
▁라구요	-12.0281
▁굉장	-12.0281
▁세리	-12.0282
▁거릴	-12.0284
▁지쳐	-12.0285
▁필터	-12.0287
찿	-12.0287
▁비꼬	-12.0288
▁역활	-12.029
18	-12.029
▁이북	-12.0291
▁태종	-12.0292
▁유익	-12.0294
▁렛	-12.0295
▁위엄	-12.0296
▁양승태	-12.0298
▁이준석	-12.0299
▁유급	-12.0299
▁무성	-12.03
드리	-12.03
▁당도	-12.0301
▁무소불위	-12.0305
▁남미	-12.0306
▁이별	-12.0306
▁반기	-12.0307
▁또래	-12.0308
▁140	-12.0308
▁모자이크	-12.0309
▁이간질	-12.031
▁임산부	-12.031
▁법위	-12.031
!!	-12.0312
all	-12.0314
▁미라	-12.0314
▁하트	-12.0315
▁살인범	-12.0315
▁건대	-12.0316
▁국채	-12.0318
▁정문	-12.0319
23	-12.0322
▁스톰	-12.0323
▁변호인	-12.0326
▁드레스	-12.0326
▁겁먹	-12.0327
▁두껍	-12.0327
▁경협	-12.0327
▁해냈	-12.0329
▁발판	-12.033
▁궤	-12.0331
▁한다면서	-12.0331
▁청아	-12.0335
▁법규	-12.0336
▁허술	-12.0337
▁고졸	-12.0338
▁느려	-12.0339
▁종양	-12.0339
▁내려다보	-12.0343
▁이불	-12.0346
▁나미	-12.0349
▁득표	-12.0353
▁늘어날	-12.0356
▁직선	-12.0356
▁수확	-12.0357
▁퇴직금	-12.0358
▁놀음	-12.0359
▁mbc	-12.0362
▁공조	-12.0362
▁증진	-12.0364
▁통닭	-12.0367
겨서	-12.0369
▁쿠로	-12.037
...	-12.0374
▁카미	-12.0375
▁내쉬	-12.0376
▁가리킨다	-12.0376
▁망해야	-12.0376
▁누른	-12.0376
▁67	-12.0377
▁무너	-12.0378
▁책임감	-12.0379
▁생체	-12.038
▁핵폭탄	-12.0381
업자	-12.0382
▁내다보	-12.0382
▁의대	-12.0383
▁고위직	-12.0385
▁76	-12.0386
▁놔서	-12.0388
▁채소	-12.0388
쇠	-12.0389
▁어택	-12.0391
▁간호	-12.0392
▁등산	-12.0393
▁경전	-12.0393
▁지녔	-12.0398
▁타마	-12.0398
시스	-12.0399
▁묶여	-12.0404
▁반론	-12.0405
▁전당	-12.0406
▁소닉	-12.0408
▁장애물	-12.041
▁카즈	-12.0412
▁터진다	-12.0413
▁계엄령	-12.0414
▁쌍방	-12.0416
▁안목	-12.0417
▁이토록	-12.0418
▁씌워	-12.042
▁훔치	-12.042
▁막걸리	-12.0424
즘	-12.0424
▁돠	-12.0424
▁1981	-12.0427
▁갱신	-12.0428
▁기한	-12.043
▁페리	-12.0432
13	-12.0433
▁오스	-12.0434
▁수류탄	-12.0436
▁피트	-12.0438
▁이나라	-12.0439
▁나불	-12.0442
이제서야	-12.0445
▁양도	-12.0446
얻어맞	-12.0448
▁어필	-12.0449
▁끄덕였	-12.0451
▁최상위	-12.0453
▁본다고	-12.0455
▁반찬	-12.0457
▁죄악	-12.0457
▁풉	-12.0459
▁마인	-12.0461
▁공모	-12.0461
▁댕	-12.0461
▁회귀	-12.0461
▁발톱	-12.0463
▁추후	-12.0463
▁신축	-12.0465
▁이루어질	-12.0465
▁맞춘	-12.0466
▁스위치	-12.0467
▁틸	-12.0468
▁~!!	-12.0469
▁흘	-12.047
▁쫒아	-12.0471
톨	-12.0474
▁기량	-12.0478
쩍	-12.0481
▁함락	-12.0482
▁반도	-12.0484
가지	-12.0485
▁뚫린	-12.0488
얗	-12.0489
틱	-12.049
▁어머님	-12.0493
▁실책	-12.0494
▁콘크리트	-12.0494
뜻	-12.0496
▁벙	-12.0499
▁조문	-12.0501
▁돔	-12.0503
▁무라	-12.0504
▁성사	-12.0504
▁기업가	-12.0504
셀	-12.0504
폴	-12.0505
▁악명	-12.0505
▁앨	-12.0506
어야	-12.0507
▁오프	-12.0508
▁유방	-12.0509
▁거들	-12.0509
▁거려	-12.0509
▁당근	-12.0509
▁국한	-12.0509
▁금세	-12.051
▁마피아	-12.0516
▁김건모	-12.0517
떡	-12.052
▁사카	-12.052
▁교육대	-12.0522
데스	-12.0522
▁하태경	-12.0522
▁경상남도	-12.0523
▁아따	-12.0523
▁힘써	-12.0524
▁광산	-12.0526
▁유서	-12.0527
▁레이드	-12.0528
▁세련	-12.053
▁볶	-12.0531
▁갭	-12.0536
▁오락	-12.0542
▁나올까	-12.0542
li	-12.0547
ut	-12.0549
▁61	-12.0552
▁임용	-12.0552
▁매진	-12.0554
▁작금	-12.0554
▁벨트	-12.0556
▁옵니다	-12.0558
▁휴일	-12.0559
▁선심	-12.056
▁살인죄	-12.0561
▁펫	-12.0562
▁동문	-12.0564
▁그럭저럭	-12.0564
▁태반	-12.0564
▁공대	-12.0565
▁셧	-12.0567
▁날아오	-12.057
▁생사	-12.0572
▁영남	-12.0573
▁습성	-12.0574
▁포트	-12.0579
▁포르노	-12.0579
▁져야지	-12.0579
▁드러냈	-12.0579
ine	-12.0581
▁계몽	-12.0584
▁유니폼	-12.0584
▁황후	-12.0587
▁오카	-12.0588
▁기회주의자	-12.0589
▁갈까	-12.059
▁덤비	-12.0592
▁구했	-12.0592
놀	-12.0593
▁회차	-12.0597
▁정상인	-12.0597
▁노동조합	-12.0597
▁경호원	-12.0597
▁전례	-12.0598
▁CJ	-12.0598
▁압축	-12.06
▁헐뜯	-12.0601
▁로움	-12.0601
▁유체	-12.0602
▁썅	-12.0604
▁들여다	-12.0607
겁	-12.0609
▁시조	-12.061
▁반칙	-12.0611
▁그렸	-12.0611
그리	-12.0613
울부짖	-12.0613
▁판례	-12.0614
▁꼭대기	-12.0614
▁사라져라	-12.0615
▁스물	-12.0615
▁본작	-12.0615
▁동학	-12.062
▁떤	-12.0623
▁그랜드	-12.0625
▁뒷전	-12.0625
▁어려우	-12.0627
다녀오	-12.0627
▁나부랭이	-12.0627
▁좀처럼	-12.0627
▁시너지	-12.0629
▁일격	-12.0629
러스	-12.0632
▁고속도로	-12.0632
▁부릴	-12.0634
▁풍선	-12.0635
▁울트라	-12.0636
▁비닐	-12.0638
▁험한	-12.0638
▁물리학	-12.0639
▁무기고	-12.0639
▁불상	-12.0642
갓	-12.0643
▁손학규	-12.0643
▁풍년	-12.0643
▁Sh	-12.0645
▁당해야	-12.0647
▁돋보	-12.0649
▁파장	-12.0649
ES	-12.0649
▁대면	-12.065
▁동족	-12.0657
▁문인	-12.0657
▁만든다고	-12.0658
47	-12.0659
▁해피	-12.066
▁늪	-12.0661
▁청중	-12.0664
▁버젓이	-12.0666
▁걸까요	-12.0667
▁참패	-12.0668
▁동창	-12.0669
▁서식	-12.0672
▁노친	-12.0672
▁강원	-12.0673
▁수량	-12.0674
▁왼손	-12.0674
▁나와라	-12.0675
어붙	-12.0675
▁돌린	-12.0681
▁됫	-12.0681
▁모르쇠	-12.0681
▁벌여	-12.0681
▁강압	-12.0681
▁질려	-12.0682
▁사이코	-12.0682
▁반증	-12.0686
▁저랬	-12.0688
▁총독	-12.0688
▁힘쓰	-12.069
▁보료	-12.0691
접	-12.0691
▁수억	-12.0693
▁현존	-12.0693
▁치솟	-12.0693
▁해답	-12.0694
가리	-12.0695
찮	-12.0696
넨	-12.0696
▁실린	-12.0696
▁교도	-12.0697
▁착오	-12.0697
▁앨리스	-12.0698
▁내려라	-12.0699
▁전과	-12.07
▁임하	-12.07
▁스프링	-12.0701
▁개발자	-12.0702
▁허세	-12.0702
▁닥쳐	-12.0704
▁해리	-12.0705
▁아산	-12.0707
▁한테서	-12.0708
▁cctv	-12.0708
▁건의	-12.0708
▁마스	-12.0713
▁태아	-12.0713
▁양키	-12.0714
▁짝사랑	-12.0714
▁줄지	-12.0715
▁증시	-12.0717
▁모스크바	-12.0718
▁파편	-12.0722
▁개막	-12.0723
▁능동	-12.0729
젓	-12.0729
▁여정	-12.0731
▁노사	-12.0733
▁생각난다	-12.0734
▁줫	-12.0734
▁코끼리	-12.0735
▁월북	-12.0737
▁포토	-12.0738
▁병자	-12.0738
▁기묘	-12.0738
▁이어진다	-12.0738
▁인치	-12.0739
▁자나	-12.0739
▁마늘	-12.0741
▁처장	-12.0741
▁밀집	-12.0741
▁거둬	-12.0742
▁보육	-12.0745
▁th	-12.0746
▁초라	-12.0747
▁쫓아내	-12.0747
뼈	-12.075
▁고령	-12.075
▁발버둥	-12.0752
▁킬로미터	-12.0753
▁노회찬	-12.0755
▁괴로워	-12.0758
▁아쉬움	-12.0758
▁더라고요	-12.0761
▁경험치	-12.0762
▁토록	-12.0762
바이	-12.0763
▁체류	-12.0764
▁경멸	-12.0765
▁지름길	-12.0765
시오	-12.0767
▁해변	-12.0768
▁진도	-12.0768
▁상종	-12.0769
▁발간	-12.077
▁수렴	-12.0771
빠	-12.0772
▁이러다	-12.0773
▁다중	-12.0774
▁중기	-12.0774
▁시스	-12.0775
▁파운드	-12.0776
▁시트	-12.0776
▁풀려	-12.0777
▁미나	-12.0783
▁번식	-12.0783
▁샹	-12.0786
▁첫날	-12.0788
▁노트북	-12.0789
▁못한다는	-12.0789
ry	-12.079
▁깝치	-12.0791
▁볼넷	-12.0792
▁몰표	-12.0795
▁열망	-12.0795
▁스미스	-12.0795
▁나온다고	-12.0796
▁셀프	-12.0799
▁상무	-12.0801
▁김재	-12.0804
▁카풀	-12.0804
▁쓰인	-12.0806
▁여대	-12.0807
▁문희상	-12.0807
▁짤리	-12.0808
▁인공지능	-12.0809
▁속옷	-12.081
▁리버	-12.081
▁김해	-12.0811
ge	-12.0812
▁환불	-12.0813
▁여관	-12.0815
▁김포	-12.0817
▁번갈	-12.0821
▁피땀	-12.0821
▁자초	-12.0821
▁이종	-12.0824
놨	-12.0824
▁사리사욕	-12.0831
▁진로	-12.0831
▁남이	-12.0833
▁나을	-12.0834
▁불참	-12.0835
▁는커녕	-12.0837
▁삼진	-12.0837
▁재건축	-12.0838
▁묵시	-12.0841
▁팔려	-12.0841
▁다듬	-12.0842
▁온천	-12.0842
▁강탈	-12.0843
▁대동	-12.0843
▁존속	-12.0843
▁초조	-12.0844
▁포탑	-12.0844
▁샤워	-12.0845
▁봉기	-12.0846
▁우르르	-12.0846
닐	-12.0846
▁도약	-12.0846
▁발걸음	-12.0848
▁중권	-12.0849
▁까보	-12.0851
▁마사오	-12.0852
▁보증금	-12.0853
▁압류	-12.0853
단다	-12.0855
딱	-12.0856
▁부적절	-12.0857
▁발등	-12.0857
▁토니	-12.0857
▁보호법	-12.0861
▁전생	-12.0861
▁완결	-12.0861
▁과언	-12.0862
▁말없이	-12.0864
▁귄	-12.0865
돌리	-12.0865
▁페르시아	-12.0867
▁디스플레이	-12.0867
▁보리	-12.0869
뚫	-12.087
▁숨쉬	-12.0871
▁약사	-12.0871
▁고액	-12.0872
▁끔	-12.0874
▁휴직	-12.0876
▁신탁	-12.0877
▁그루	-12.0877
▁천연	-12.0878
▁다녀라	-12.0879
▁야외	-12.0884
▁정무	-12.0885
ang	-12.0885
▁래도	-12.0887
▁뺐	-12.0888
▁장남	-12.0889
89	-12.0891
▁사이코패스	-12.0896
▁연명	-12.0897
략	-12.0901
▁초록	-12.0902
▁소각	-12.0902
▁두꺼운	-12.0903
▁개명	-12.0904
ag	-12.0905
▁파르	-12.0905
▁베네	-12.0908
▁빌드	-12.091
▁거둔	-12.0914
▁혈관	-12.0915
▁도깨비	-12.0916
▁혼동	-12.0916
▁망정	-12.0917
▁앞선	-12.0917
▁승용차	-12.0919
▁스페이스	-12.0922
▁레스토랑	-12.0922
▁잡아내	-12.0931
▁썻	-12.0932
▁태자	-12.0934
▁위쪽	-12.0934
▁토하	-12.0934
▁검경	-12.0936
▁도래	-12.0938
▁매직	-12.0938
▁본다는	-12.0941
▁추출	-12.0944
▁지른	-12.0948
▁렀	-12.0948
▁사재기	-12.0949
▁태그	-12.0955
▁회화	-12.0955
▁개업	-12.0956
▁뎅	-12.0957
▁이래저래	-12.0958
▁치명타	-12.096
▁ch	-12.096
▁이상황	-12.096
▁처맞	-12.0961
▁리뷰	-12.0962
▁리온	-12.0962
▁넘어간	-12.0964
▁사임	-12.0965
▁저따위	-12.0967
▁위탁	-12.0968
▁세워야	-12.0968
▁광복	-12.0971
▁빚내	-12.0972
▁김문수	-12.0973
그러	-12.0974
▁인방	-12.0975
이라	-12.0977
▁거룩	-12.0979
▁텔레	-12.0979
▁오라	-12.0979
▁고속도	-12.098
▁오이	-12.0982
▁아아	-12.0982
▁태블릿	-12.0982
▁연고	-12.0983
▁차려야	-12.0984
▁군산	-12.0987
▁인디언	-12.0988
▁걸치	-12.0989
▁너그	-12.099
▁앵무새	-12.0991
▁내린다	-12.0991
▁유촉	-12.0991
▁아테네	-12.0993
▁나눈	-12.0994
▁변국	-12.0997
▁벌어질	-12.0997
▁그로	-12.0999
▁시범	-12.1
▁추론	-12.1001
▁암컷	-12.1002
멸	-12.1003
▁네여	-12.1004
▁학계	-12.1005
▁퇴장	-12.1006
▁시어머니	-12.1007
▁공갈	-12.1009
▁크림	-12.101
▁둬	-12.1013
▁잠입	-12.1015
▁취할	-12.1015
▁봉급	-12.1016
▁소파	-12.1016
▁이분법	-12.1017
▁로맨스	-12.1018
▁장례	-12.1018
▁이만큼	-12.1019
▁표상	-12.102
▁구민	-12.1022
▁신났	-12.1022
ab	-12.1024
▁들어온다	-12.1024
▁데려	-12.1025
▁의논	-12.1027
▁공명	-12.1027
▁성범죄자	-12.1028
▁배반	-12.1028
▁선택지	-12.1029
▁싸질러	-12.1032
▁줄곧	-12.1035
▁논다	-12.1035
▁드론	-12.1036
▁해서라도	-12.1038
▁메이커	-12.1038
▁모친	-12.104
웃	-12.1041
▁김기	-12.1043
▁랬	-12.1043
▁87	-12.1045
▁갯	-12.1046
▁쭈	-12.1046
▁이를테면	-12.1046
33	-12.1048
▁태연	-12.1049
▁노란색	-12.105
▁그깟	-12.1051
▁인문	-12.1052
▁종점	-12.1054
▁당기	-12.1054
▁맥스	-12.106
▁박근	-12.1064
▁????	-12.1064
39	-12.1065
▁흘렀	-12.1066
▁앰	-12.1071
75	-12.1071
▁개박	-12.1071
▁막힌다	-12.1071
▁벌떡	-12.1072
▁극소수	-12.1072
▁넘길	-12.1074
▁쓸쓸	-12.1074
▁밀어붙이	-12.1075
▁멍멍	-12.1077
▁1973	-12.108
▁국제법	-12.1081
▁제인	-12.1082
▁원금	-12.1082
▁읊	-12.1082
▁요동	-12.1084
▁날린	-12.1085
▁하와이	-12.1085
▁해줘도	-12.1087
▁공과	-12.1088
▁교토	-12.1088
▁한발	-12.1088
▁일제히	-12.1094
▁경성	-12.1094
▁평준	-12.1095
▁동성	-12.1096
▁던데요	-12.1096
▁딕	-12.1096
▁뉴질랜드	-12.1098
▁문건	-12.11
▁희생양	-12.1101
▁쉬쉬	-12.1101
▁거니와	-12.1102
▁여친	-12.1103
▁복권	-12.1103
▁보살	-12.1104
▁곧장	-12.1106
▁편찬	-12.1107
▁챕터	-12.1109
▁등록금	-12.111
ist	-12.111
▁보인다고	-12.1112
▁전념	-12.1113
캐	-12.1115
▁투표용지	-12.1115
▁발길	-12.1117
이나	-12.1118
▁행해	-12.112
▁스포일러	-12.1121
▁옥상	-12.1121
▁릴리	-12.1122
▁서른	-12.1125
71	-12.113
▁수수께끼	-12.1131
▁의협	-12.1133
▁루터	-12.1136
▁손길	-12.1136
▁역쉬	-12.1138
▁사스	-12.1139
▁숙여	-12.1139
▁백색	-12.1143
▁부가	-12.1145
▁키로	-12.1146
▁직인	-12.1147
▁비씨	-12.1147
▁잡종	-12.1149
▁사노	-12.115
▁베타	-12.1155
▁경위	-12.1158
▁겹쳐	-12.1159
▁죗값	-12.116
▁외침	-12.116
▁스무	-12.116
▁브라운	-12.1163
▁DLC	-12.1166
▁정사	-12.1166
▁GDP	-12.1166
▁다룰	-12.117
▁탄도	-12.1171
▁받쳐	-12.1172
▁119	-12.1174
▁창단	-12.1176
큼	-12.1182
▁관심사	-12.1184
▁커졌	-12.1187
▁돌아온다	-12.1188
▁강구	-12.1188
▁마우스	-12.1189
▁재테크	-12.1189
▁라지	-12.119
▁독일군	-12.119
▁미꾸라지	-12.1191
▁분간	-12.1191
▁감행	-12.1192
▁벙어리	-12.1194
싸	-12.1196
낸다	-12.1198
▁스타크래프트	-12.1199
▁플리	-12.12
입다물	-12.1203
▁깨우	-12.1205
▁청정기	-12.1206
▁이어진	-12.1206
▁깨달음	-12.1207
▁완공	-12.1208
▁차츰	-12.1209
▁거느리	-12.1209
▁넉	-12.121
▁난감	-12.121
▁변한다	-12.1211
▁논점	-12.1212
▁내놔	-12.1213
▁실효	-12.1214
프트	-12.1214
▁주방	-12.1217
▁재원	-12.1219
▁정예	-12.1221
▁리라는	-12.1222
▁운동가	-12.1222
▁망나니	-12.1223
▁허경영	-12.1224
▁살살	-12.1224
▁성비	-12.1225
▁숙박	-12.1225
▁태조	-12.1228
▁시라	-12.1231
▁쓰레	-12.1232
▁다녀야	-12.1232
▁짤라	-12.1237
▁캡	-12.1237
▁상응	-12.1237
▁제동	-12.124
▁실형	-12.1241
▁따윈	-12.1245
▁붙여서	-12.1245
▁용역	-12.1246
67	-12.125
베이	-12.125
▁해적	-12.1252
▁려구	-12.1256
▁집계	-12.1256
▁성벽	-12.1259
▁김진	-12.126
▁마키	-12.126
▁티나	-12.1263
▁리처드	-12.1263
▁카리스마	-12.1264
▁쪽발이	-12.1264
▁라야	-12.1265
잎	-12.1265
▁앵벌이	-12.1266
▁쥔	-12.1268
▁무수	-12.1269
▁표창	-12.127
▁증말	-12.1271
se	-12.1271
▁자취	-12.1271
▁메이드	-12.1272
▁열폭	-12.1273
▁할께	-12.1274
▁디즈니	-12.1275
▁월남	-12.1277
▁온전히	-12.1279
ive	-12.1279
▁주시	-12.1282
▁딴지	-12.1282
▁패전	-12.1282
▁핀란드	-12.1283
▁중장	-12.1284
▁비춰	-12.1285
▁검찰청	-12.1287
일보	-12.1289
▁사흘	-12.129
▁91	-12.1291
▁리가	-12.1292
▁슬퍼	-12.1292
▁평론가	-12.1293
▁소란	-12.1294
▁퍼진	-12.1294
▁떠난다	-12.1296
▁쵸	-12.1297
뜯어먹	-12.1297
▁호화	-12.1297
▁흘렸	-12.1298
▁아이스	-12.1299
▁실태	-12.1301
▁전쟁터	-12.1301
▁퇴사	-12.1306
▁78	-12.1308
▁여포	-12.1308
▁오리발	-12.1309
▁잔머리	-12.1312
▁괴롭	-12.1312
레이션	-12.1315
▁101	-12.1316
▁아웅	-12.1316
▁어때	-12.1317
▁울타리	-12.1317
▁시내버스	-12.1318
▁알아들	-12.1319
▁궈	-12.1319
▁오타	-12.1319
▁자연히	-12.132
to	-12.132
어가	-12.1322
▁제트	-12.1324
▁우주선	-12.1325
▁광명	-12.1327
▁사다리	-12.1328
▁배불리	-12.1329
▁한눈	-12.133
▁젼	-12.1333
▁뒷돈	-12.1336
▁콜라보	-12.1337
▁야만	-12.1337
▁마린	-12.1339
▁중증	-12.1339
▁$	-12.134
▁이메일	-12.1341
▁장외	-12.1342
▁작태	-12.1342
45	-12.1342
▁반문	-12.1343
▁숙명	-12.1348
▁놀려	-12.1348
▁방심	-12.135
▁별장	-12.135
▁돌려보내	-12.1351
▁방화	-12.1352
▁슈팅	-12.1352
▁메카	-12.1353
▁93	-12.1355
▁어그	-12.1355
▁도요타	-12.136
▁루스	-12.136
▁패러다임	-12.1367
▁자빠져	-12.1367
▁음모론	-12.1367
▁둬야	-12.1367
▁가져와	-12.1369
▁넼	-12.1374
▁사로잡혀	-12.1374
29	-12.1374
▁평안	-12.1375
▁월요일	-12.1378
▁들키	-12.1379
▁발자국	-12.138
▁뱅크	-12.1381
▁가르쳤	-12.1383
▁을걸	-12.1385
▁전교	-12.1386
▁녹화	-12.1391
▁수탈	-12.1391
▁시카고	-12.1392
넌	-12.1393
▁창당	-12.1394
▁인위	-12.1395
▁중부	-12.1395
▁속담	-12.1396
▁장하성	-12.1399
▁그제야	-12.14
▁호가	-12.14
▁키리	-12.14
▁낙인	-12.1402
▁거슬러	-12.1402
▁연타	-12.1403
▁백종원	-12.1404
▁놀랄	-12.1405
▁집요	-12.1407
오카	-12.1408
▁포수	-12.1409
ip	-12.141
▁시킨다는	-12.1411
▁페북	-12.1411
막아내	-12.1413
홀	-12.1413
▁동북아	-12.1414
▁imf	-12.1415
41	-12.1416
▁와대	-12.1417
▁전지	-12.1418
▁잠실	-12.1419
랍	-12.142
▁더군	-12.142
▁탁자	-12.1421
▁성남	-12.1422
▁달아나	-12.1423
▁미끼	-12.1425
▁둠	-12.1426
▁든데	-12.1429
▁방한	-12.143
▁서정	-12.143
▁어여	-12.1433
▁교감	-12.1438
넓	-12.1438
▁서부터	-12.1439
▁나온다는	-12.1439
▁직종	-12.1442
▁철없	-12.1442
▁까발려	-12.1442
▁역병	-12.1442
▁동사무소	-12.1447
▁외화	-12.1448
▁니나	-12.1449
▁매춘	-12.145
▁쓴다는	-12.1451
▁반말	-12.1451
ph	-12.1452
▁밀어내	-12.1455
▁탄탄	-12.1456
▁지탱	-12.1459
▁합쳐서	-12.1463
▁쳐묵	-12.1464
▁전했	-12.1464
▁특별법	-12.1464
▁인대	-12.1467
▁키가	-12.1472
▁드럼	-12.1472
▁무명	-12.1479
▁대두	-12.1482
▁따라오	-12.1482
▁집결	-12.1485
▁물러서	-12.1486
▁협동	-12.1486
▁중상	-12.1487
▁EU	-12.1491
▁슬롯	-12.1496
▁상표	-12.1496
▁TK	-12.1497
▁처사	-12.1499
▁따라야	-12.15
▁통산	-12.1501
▁파이프	-12.1502
▁프라이	-12.1504
▁NO	-12.1506
▁대역	-12.1507
▁휴전	-12.1508
▁어땠	-12.1512
▁만연	-12.1514
▁활개	-12.1514
▁이룬다	-12.1517
▁부역	-12.1518
▁선봉	-12.1518
▁명상	-12.1519
▁조종사	-12.152
▁쟁점	-12.1521
▁코우	-12.1521
▁연합뉴스	-12.1522
▁닭대가리	-12.1523
▁83	-12.1523
▁경기력	-12.1524
▁정쟁	-12.1526
▁등재	-12.1526
누스	-12.1526
▁케인	-12.1527
▁성품	-12.1527
▁지켜라	-12.153
▁보냅니다	-12.1533
▁파란색	-12.1533
▁사비	-12.1535
▁안타까워	-12.1536
▁파이팅	-12.1537
▁뮈	-12.1538
▁벤치	-12.1538
▁모의	-12.1539
▁수컷	-12.1541
▁누드	-12.1544
딸	-12.1545
▁권하	-12.1547
▁쯧	-12.1548
▁고딩	-12.1549
▁정신줄	-12.1556
지언정	-12.1557
▁만져	-12.1559
▁충만	-12.1562
▁야스	-12.1564
▁곤충	-12.157
▁삼각	-12.157
▁사이클	-12.1571
▁박해	-12.1575
▁하버드	-12.1576
▁SM	-12.1576
▁무너졌	-12.1579
▁제갈량	-12.158
▁MS	-12.1581
▁BGM	-12.1581
▁두어	-12.1585
▁서점	-12.1586
어요	-12.1588
87	-12.1588
▁동향	-12.1588
▁OECD	-12.1588
▁학창	-12.1588
▁다급	-12.1589
▁김수	-12.1593
▁발암	-12.1596
▁기뻐	-12.1598
▁이브	-12.1599
▁따질	-12.16
▁통일부	-12.1602
▁더미	-12.1603
▁놨다	-12.1604
▁계십니다	-12.1606
▁농산물	-12.1606
▁한양	-12.1607
▁외교관	-12.1609
▁회개	-12.1609
▁물러가	-12.1609
▁근래	-12.1612
▁히데	-12.1612
▁문어	-12.1612
▁찍힌	-12.1613
▁탄력	-12.1614
▁국외	-12.1614
▁안방	-12.1614
▁유배	-12.1614
▁주축	-12.1616
▁동구	-12.1617
▁핸드	-12.1618
▁만점	-12.1618
▁영화제	-12.162
▁쾌	-12.162
▁사병	-12.1621
▁대란	-12.1622
▁꾸준	-12.1623
▁라마	-12.1623
35	-12.1624
▁인아	-12.1627
▁왕후	-12.1627
▁쳐내	-12.1628
▁변함	-12.1628
▁돌아간	-12.1629
▁생겨났	-12.163
▁사투리	-12.1631
▁국물	-12.1631
▁쇠퇴	-12.1632
▁4000	-12.1633
▁춘천	-12.1633
▁난동	-12.1635
▁이국종	-12.1635
▁목적지	-12.1635
▁피격	-12.1636
▁왕족	-12.1638
▁분화	-12.164
▁일진	-12.1646
은행	-12.1648
▁시동	-12.1648
▁냅둬	-12.1649
▁비공	-12.1652
▁수용자	-12.1652
▁전한	-12.1653
▁치러	-12.1653
▁환기	-12.1656
▁점거	-12.1656
▁건너가	-12.1656
▁까마귀	-12.1658
▁정산	-12.1659
SS	-12.1661
▁순종	-12.1661
▁뎀	-12.1662
▁현관	-12.1663
▁발기	-12.1663
벅	-12.1663
▁치하	-12.1666
▁서너	-12.1667
▁찾아갔	-12.1669
▁타로	-12.1669
▁1948	-12.167
▁태어날	-12.1671
▁철새	-12.1673
▁조원진	-12.1674
▁발각	-12.1675
▁스터	-12.1676
▁지문	-12.1676
▁어스	-12.1677
▁기다릴	-12.1677
비치	-12.1679
▁밤낮	-12.168
▁냐구	-12.168
▁금고	-12.1681
넷	-12.1685
▁재판부	-12.1685
렵	-12.1686
▁양면	-12.1686
▁우드	-12.1686
▁할려	-12.1687
▁블리	-12.1689
ate	-12.1691
▁벽돌	-12.1692
▁덴마크	-12.1693
▁울프	-12.1693
▁잠자	-12.1694
▁포크	-12.1695
▁~~?	-12.1696
▁굴려	-12.1698
▁는구먼	-12.1699
▁170	-12.1701
▁인양	-12.1701
▁라든가	-12.1701
▁까대	-12.1701
▁표방	-12.1702
▁능력자	-12.1703
펠	-12.1709
▁섬세	-12.1709
▁브리핑	-12.171
▁재해	-12.171
▁당께	-12.171
▁천상	-12.1714
꺼	-12.1715
진다는	-12.1715
▁해낼	-12.1716
▁박차	-12.1717
▁1972	-12.1717
▁완치	-12.1718
▁한결같이	-12.172
▁타율	-12.1724
▁대본	-12.1725
▁지부	-12.1725
▁풋	-12.1725
▁국내외	-12.1726
▁드셨	-12.1729
▁출소	-12.1729
긴다	-12.1729
▁형법	-12.1729
▁상도	-12.173
▁돌려서	-12.1731
▁사수	-12.1732
▁넘긴	-12.1733
▁벅	-12.1733
▁몰입	-12.1734
▁두세	-12.1735
▁킹크	-12.1736
▁노벨상	-12.1736
▁따를	-12.1737
▁챙긴	-12.1738
▁껍데기	-12.1744
▁무림	-12.1745
▁북방	-12.1745
▁포르	-12.1746
,,,	-12.1748
▁액체	-12.1754
▁자궁	-12.1757
▁할려는	-12.1758
▁대요	-12.1761
▁...........	-12.1762
▁럽	-12.1762
▁줄여서	-12.1762
▁드레	-12.1763
봐야	-12.1763
▁일부분	-12.1765
▁진흥	-12.1768
▁펄	-12.1768
▁알맞	-12.1769
▁짜장면	-12.1769
▁써야지	-12.177
▁리라고	-12.1774
▁총동원	-12.1775
▁반갑	-12.1776
▁방구	-12.1777
▁국가원수	-12.1777
▁81	-12.1777
▁캐논	-12.1778
미암	-12.1778
나카	-12.1778
▁분담	-12.1779
▁사회생활	-12.178
▁변기	-12.178
▁흘러내	-12.1782
▁아다가	-12.1783
▁육지	-12.1785
▁속여	-12.1786
▁89	-12.1787
ard	-12.1789
▁교섭	-12.179
▁빨래	-12.1791
▁수도원	-12.1791
▁썸	-12.1793
▁여적죄	-12.1794
ac	-12.1794
▁정전	-12.1797
▁첨가	-12.1797
▁니미	-12.1798
▁빈번	-12.1798
▁반짝	-12.1798
▁수호자	-12.1798
▁육상	-12.1799
▁당부	-12.18
▁73	-12.18
▁갔다온	-12.18
▁1965	-12.1801
▁금태섭	-12.1802
▁캡틴	-12.1804
▁퇴치	-12.1806
▁대군	-12.181
▁안쓰럽	-12.1812
▁버섯	-12.1812
▁급진	-12.1815
▁읍시다	-12.1816
▁변할	-12.1831
▁성급	-12.1835
▁크라	-12.1835
▁논평	-12.1836
▁싱크	-12.1836
▁빨강	-12.1841
▁빌라	-12.1845
▁단련	-12.1846
▁대명사	-12.1847
▁적성	-12.1847
▁불순	-12.1852
▁1975	-12.1854
▁트롯	-12.1856
▁어두워	-12.1856
▁밤중	-12.1857
▁닌텐도	-12.186
▁합법화	-12.1862
▁달걀	-12.1863
▁도우미	-12.1866
▁선가	-12.1866
▁어떨	-12.1866
▁아부지	-12.1867
▁북유럽	-12.1868
▁단숨에	-12.1869
▁1940	-12.1869
▁지오	-12.187
64	-12.187
▁내신	-12.1871
▁드라이버	-12.1872
토스	-12.1873
▁미지	-12.1875
▁올린다	-12.1879
▁1978	-12.1879
숭	-12.188
49	-12.188
▁암만	-12.1882
▁신약	-12.1882
▁스티	-12.1882
▁유희	-12.1884
▁예루살렘	-12.1887
▁상원	-12.1888
▁민변	-12.1889
▁직결	-12.189
▁금요일	-12.1891
▁대일	-12.1892
▁손대	-12.1893
▁리모	-12.1899
망설이	-12.19
▁못한다면	-12.1901
▁공론	-12.1904
▁시가	-12.1906
▁동계	-12.1908
▁행렬	-12.191
▁부린	-12.191
▁삼키	-12.1911
▁도청	-12.1914
▁문체	-12.1914
▁쑤셔	-12.1916
▁쇼크	-12.1917
▁움직였	-12.1917
▁부스	-12.1918
▁유선	-12.1918
14	-12.192
▁놀러	-12.1922
▁인심	-12.1923
▁노르웨이	-12.1926
▁총재	-12.1926
▁늘어난다	-12.1929
▁연패	-12.1929
▁목구멍	-12.193
lo	-12.1931
▁계략	-12.1931
▁유쾌	-12.1933
▁부추	-12.1934
▁븐	-12.1934
▁풍속	-12.1935
▁아세요	-12.1935
▁공황	-12.1937
▁어지럽	-12.1937
▁MVP	-12.1937
▁김현미	-12.1937
▁어딘지	-12.1939
▁수순	-12.1939
▁세라	-12.1939
▁퓨	-12.1943
▁보호자	-12.1943
▁진단서	-12.1944
▁1974	-12.1945
▁무심	-12.1947
▁원료	-12.1948
페이	-12.1949
▁경감	-12.195
티스	-12.195
▁화석	-12.1952
꼴	-12.1954
▁믹스	-12.1954
▁겔	-12.1958
▁본진	-12.1959
▁독단	-12.1961
▁난입	-12.1961
▁노하우	-12.1963
▁다신	-12.1963
▁야합	-12.1966
▁드래	-12.1966
▁~.	-12.1967
▁뻐	-12.1969
켄	-12.1971
▁발탁	-12.1973
▁경영진	-12.1973
컬	-12.1976
▁De	-12.1978
▁해내	-12.1978
▁미친개	-12.1978
▁가늠	-12.1979
▁IC	-12.198
▁신다면	-12.1982
▁이마트	-12.1982
na	-12.1983
▁재촉	-12.1985
▁챙길	-12.1985
▁쪼다	-12.1986
▁궁지	-12.1987
▁공소장	-12.1988
▁워커	-12.1988
▁CCTV	-12.199
▁적화	-12.1991
▁메이지	-12.1993
▁푸르	-12.1995
▁기다려야	-12.1999
▁우짜	-12.1999
▁자분	-12.2
▁정중	-12.2
▁왕복	-12.2
▁손주	-12.2003
▁계수	-12.2003
▁의거	-12.2004
age	-12.2005
▁강변	-12.201
▁자의	-12.2012
▁히메	-12.2012
▁단죄	-12.2016
▁묘한	-12.2017
▁망해도	-12.2017
▁끓여	-12.2018
▁올인	-12.2019
▁정은이	-12.2019
▁정숙	-12.202
▁투스	-12.202
메이	-12.202
▁똥칠	-12.2021
▁빼내	-12.2023
▁곳간	-12.2023
▁따온	-12.2023
▁보트	-12.2024
▁찍히	-12.2024
81	-12.2024
▁요직	-12.2025
▁안하무인	-12.2026
▁춥	-12.2027
구리	-12.2027
▁바닷가	-12.2027
▁시위대	-12.2027
▁성형	-12.2028
▁으실	-12.2028
▁신원	-12.2028
▁너무너무	-12.2029
▁부회장	-12.203
▁쿠바	-12.2031
93	-12.2031
▁원합니다	-12.2031
▁트레이	-12.2034
73	-12.2036
▁고귀	-12.2039
하면	-12.2043
▁수험	-12.2044
▁대의	-12.2044
▁상이	-12.2045
▁들여서	-12.2046
▁배차	-12.2046
▁줄여야	-12.2047
▁얻어먹	-12.2047
▁처우	-12.2049
▁내심	-12.2049
▁유흥	-12.2051
▁쳐다	-12.2054
▁례	-12.2054
▁교포	-12.2055
▁꽈	-12.2055
▁st	-12.2055
▁셔야죠	-12.2057
▁니스	-12.2058
▁연안	-12.2058
▁도출	-12.2058
▁서원	-12.2058
▁질까	-12.2058
▁한탄	-12.2059
디아	-12.2059
▁조르	-12.2061
▁남짓	-12.2062
▁낭만	-12.2064
▁가져올	-12.2065
▁수녀	-12.2065
▁명함	-12.2067
춤	-12.2069
▁카르텔	-12.2072
▁경선	-12.2075
85	-12.2075
ce	-12.2078
▁세인트	-12.2078
▁찬사	-12.2083
▁플랜	-12.2084
▁쿵	-12.2085
▁가식	-12.2087
토리	-12.2089
▁쓰러진	-12.209
▁챙겨라	-12.2092
▁배열	-12.2093
▁마틴	-12.2093
▁보따리	-12.2097
ong	-12.2097
▁흩어져	-12.2098
▁센서	-12.2099
▁배수	-12.21
▁Me	-12.2101
▁경비원	-12.2103
▁소시	-12.2103
▁든다고	-12.2104
▁수평	-12.2106
▁원화	-12.2108
▁내걸	-12.211
▁pc	-12.2113
▁의구심	-12.2114
▁원주	-12.2117
떼쓰	-12.2118
▁훈훈	-12.212
파고들	-12.212
▁에릭	-12.2121
▁예비군	-12.2122
▁청하	-12.2123
▁실물	-12.2123
▁관절	-12.2125
버려	-12.2127
옷	-12.213
▁범하	-12.2131
▁팁	-12.2131
▁져도	-12.2132
▁학벌	-12.2133
▁무모	-12.2134
▁탐험	-12.2138
정부	-12.2141
▁강인	-12.2142
▁하기야	-12.2142
▁초콜릿	-12.2144
▁하급	-12.2146
▁목걸이	-12.2146
▁반쪽	-12.2146
▁테라	-12.2146
▁딸래미	-12.2147
▁LA	-12.2151
촉	-12.2152
▁평판	-12.2152
ul	-12.2152
▁알릴	-12.2153
타이	-12.2158
▁잠재력	-12.2158
▁뱃지	-12.2159
▁결전	-12.2159
▁냅시다	-12.2159
▁데드	-12.216
▁스코틀랜드	-12.2161
▁지친	-12.2164
▁리타	-12.2165
▁행한	-12.2165
▁채운	-12.2166
▁메르	-12.2166
▁특급	-12.2167
▁돌아와서	-12.2167
▁착륙	-12.2169
▁69	-12.217
낭	-12.2174
61	-12.2176
▁미술관	-12.2177
▁그래프	-12.2177
▁수긍	-12.2178
▁오물	-12.2179
▁현행	-12.218
▁팽창	-12.2181
▁소나무	-12.2181
17	-12.2183
▁막무가내	-12.2184
▁돌려받	-12.2184
▁프랜차이즈	-12.2186
▁레일	-12.2187
▁개탄스럽	-12.2187
▁근심	-12.2188
▁검색어	-12.2188
▁미워	-12.2189
▁상용	-12.219
▁콧	-12.219
▁크리티컬	-12.219
▁흑백	-12.219
▁보험금	-12.2191
▁밝혀내	-12.2194
라인	-12.2195
▁문주	-12.2196
▁순방	-12.2197
▁동당	-12.2197
▁스턴	-12.2201
▁어뢰	-12.2201
▁마켓	-12.2202
▁신빙	-12.2203
▁빼돌리	-12.2204
▁드신	-12.2205
▁파시즘	-12.2206
▁가부장	-12.2207
▁오스만	-12.2207
▁질책	-12.2208
▁독교	-12.221
▁기색	-12.2211
▁서문	-12.2212
▁해독	-12.2212
▁350	-12.2213
▁겁박	-12.2215
▁교육자	-12.2219
▁줄줄	-12.2221
▁잤	-12.2221
깔	-12.2222
▁관광지	-12.2223
▁깃	-12.2224
▁호의호식	-12.2229
▁쿼터	-12.223
▁은밀	-12.223
▁머무르	-12.2231
둑	-12.2232
▁몰랑	-12.2233
▁노린	-12.2234
▁마마	-12.224
▁안동	-12.2242
▁문다	-12.2242
빼놓	-12.2244
▁오디션	-12.2244
▁일각	-12.2244
▁소박	-12.2245
▁두르	-12.2247
IS	-12.2247
▁기다려라	-12.225
▁클린	-12.2251
▁패망	-12.2251
ED	-12.2253
▁이제껏	-12.2253
▁그래서인지	-12.2255
▁거래소	-12.2256
▁대부	-12.2257
▁반중	-12.2259
▁렐	-12.2262
▁보여야	-12.2264
▁돌아섰	-12.2265
▁갖춰	-12.2268
▁열사	-12.2269
▁죄질	-12.227
▁내쫓	-12.2271
▁연소	-12.2272
▁롯	-12.2273
▁니시	-12.2273
▁공방	-12.2274
갑니다	-12.2274
베리	-12.2278
▁몸소	-12.2279
▁남학생	-12.228
▁토마스	-12.2282
▁자회사	-12.2282
▁아팠	-12.2283
▁한복	-12.2284
▁꽝	-12.2286
▁재끼	-12.2288
▁음식물	-12.2288
▁구워	-12.2289
▁퍼트	-12.2289
▁삿	-12.229
▁환경부	-12.2296
▁카타	-12.2297
▁외압	-12.2299
▁여느	-12.2299
▁제작사	-12.2299
▁규율	-12.23
▁청정	-12.2304
▁연휴	-12.2306
▁엄정	-12.2307
▁나약	-12.2307
▁척도	-12.2309
▁대피	-12.231
▁헌데	-12.231
▁상생	-12.2313
▁어음	-12.2313
▁홍영표	-12.2313
▁커맨드	-12.2314
▁코코	-12.2315
man	-12.2315
▁남동생	-12.2316
둬	-12.2317
▁국도	-12.2318
▁깬	-12.2318
▁초토화	-12.2318
▁버거	-12.2318
▁교재	-12.2318
▁사당	-12.232
ers	-12.2322
▁재화	-12.2324
▁작위	-12.2325
▁원문	-12.2326
▁문예	-12.2326
사회	-12.2326
▁인신공격	-12.2328
▁준공	-12.2329
▁자정	-12.2333
▁강했	-12.2334
▁제지	-12.2336
▁졋	-12.2337
▁소규모	-12.2338
푼	-12.2339
▁활력	-12.234
ack	-12.234
▁햇볕	-12.2342
▁질주	-12.2345
▁치켜	-12.2348
▁파병	-12.2348
▁비결	-12.2349
▁우겨	-12.2349
▁바램	-12.2352
회의	-12.2352
▁사돈	-12.2353
▁킬러	-12.2354
▁워크	-12.2358
▁매출액	-12.2359
▁소고기	-12.2359
▁오바마	-12.2359
▁뜸	-12.2361
▁보직	-12.2361
▁주특기	-12.2362
▁급기야	-12.2366
▁획	-12.237
▁김태우	-12.2371
▁소년법	-12.2372
더스	-12.2372
▁심문	-12.2372
▁트윗	-12.2374
▁일전	-12.2379
▁생겨난	-12.2382
▁사육	-12.2383
▁중원	-12.2383
▁세이버	-12.2384
▁판다	-12.2385
▁예감	-12.2389
▁의정부	-12.2389
▁부사	-12.2389
▁일차	-12.2389
▁과하	-12.239
38	-12.239
▁승계	-12.239
▁역행	-12.2391
▁지낼	-12.2392
▁나노	-12.2394
▁렁	-12.2399
▁객관적으로	-12.24
▁가급적	-12.2402
▁충남	-12.2405
▁개교	-12.2406
▁퍼다	-12.2407
▁대머리	-12.2407
▁불허	-12.2408
▁발현	-12.2408
▁사대주의	-12.2408
▁제제	-12.2409
▁스파	-12.2409
▁국유	-12.241
▁수레	-12.2414
▁걸려도	-12.2421
TV	-12.2422
누르	-12.2427
▁보유국	-12.2428
▁업로드	-12.2429
▁에라	-12.2429
▁불어	-12.243
▁야채	-12.2431
▁렉서스	-12.2431
▁발레	-12.2431
▁단골	-12.2432
▁없앤	-12.2433
▁선보였	-12.2433
▁야심	-12.2437
▁유재석	-12.2438
▁의병	-12.2439
▁GM	-12.244
▁할까봐	-12.244
▁크루즈	-12.2442
▁레코드	-12.2444
▁진핑	-12.2444
▁스테	-12.2445
▁찔	-12.2445
▁어설픈	-12.2447
▁코앞	-12.2447
▁송금	-12.2448
▁탐정	-12.245
▁와우	-12.2451
▁먹거리	-12.2455
▁간신배	-12.2455
▁짝퉁	-12.2456
▁누워서	-12.2456
▁별반	-12.2461
▁따른다	-12.2462
▁무너질	-12.2467
받	-12.2467
▁마쳤	-12.2469
▁양복	-12.2471
뜨렸	-12.2471
아웃	-12.2472
▁야근	-12.2473
▁발령	-12.2477
공사	-12.248
▁뭉쳐서	-12.2481
▁소생	-12.2481
▁분과	-12.2483
78	-12.2484
▁출혈	-12.2486
▁칼럼	-12.2486
ub	-12.2487
▁무분별	-12.2487
▁밸	-12.2487
▁카운트	-12.2487
▁두기	-12.2488
od	-12.2489
▁죽인다	-12.249
▁말레이시아	-12.2491
▁눈썹	-12.2492
▁중순	-12.2492
렘	-12.2494
NA	-12.2494
▁구타	-12.2495
▁목줄	-12.2495
▁답글	-12.2499
▁챙	-12.25
▁피난	-12.25
▁키즈	-12.2501
▁고등어	-12.2504
▁장차	-12.2504
▁네오	-12.2505
▁어울린다	-12.2507
▁중생	-12.251
▁염원	-12.2513
째	-12.2515
▁죽임	-12.2517
▁플래시	-12.2518
▁능숙	-12.2519
▁모세	-12.252
▁기쁜	-12.2522
▁누군데	-12.2522
▁농도	-12.2522
▁무전	-12.2522
▁포즈	-12.2523
▁신봉	-12.2524
▁여지껏	-12.2525
▁흡	-12.2526
▁하룻밤	-12.2526
▁동일시	-12.2527
▁1200	-12.2527
▁돌봐	-12.253
▁줄어든다	-12.2531
▁성씨	-12.2537
텐데	-12.2539
▁자석	-12.2542
▁개꿀	-12.2543
▁인멸	-12.2543
▁비우	-12.2544
▁구더기	-12.2547
▁손잡이	-12.2549
▁결핍	-12.255
▁상부	-12.255
▁구상권	-12.2552
▁배기	-12.2553
▁드려	-12.2554
▁됀	-12.2556
▁방황	-12.2557
▁쿤	-12.2562
▁성문	-12.2562
▁졌으며	-12.2562
▁총괄	-12.2563
▁OST	-12.2563
▁떠서	-12.2564
▁복직	-12.2566
▁루수	-12.2566
▁분대	-12.2567
▁우측	-12.257
▁경이	-12.2571
▁피스	-12.2572
▁존나게	-12.2573
▁한태	-12.2574
▁미카	-12.2575
려보	-12.2579
▁짜장	-12.2581
▁구독	-12.2582
▁학파	-12.2583
TS	-12.2587
▁감형	-12.2591
▁다느니	-12.2591
싸움	-12.2591
▁혹독	-12.2593
▁삽니다	-12.2594
▁줄어든	-12.2596
▁악취	-12.2596
▁요지	-12.2598
▁횃불	-12.26
▁기온	-12.2603
▁신변	-12.2605
▁1971	-12.2606
▁이루어져야	-12.2607
▁요즈음	-12.2607
▁사교육	-12.2607
▁어따	-12.2609
▁판명	-12.2609
▁역동	-12.2609
▁플라톤	-12.2613
▁막연	-12.2613
▁꼴찌	-12.2613
륙	-12.2614
▁후유증	-12.2615
▁망해라	-12.2617
▁1968	-12.262
▁지겨워	-12.2622
▁북경	-12.2624
▁베일	-12.2624
▁케이크	-12.2624
▁자작	-12.2627
▁양주	-12.2628
▁치아	-12.2628
▁수차례	-12.263
▁라임	-12.2631
▁밝힐	-12.2633
▁조서	-12.2634
▁외전	-12.2635
낙	-12.2635
▁엄밀히	-12.2635
▁맞춤법	-12.2635
42	-12.2636
▁주구장창	-12.2637
▁방언	-12.2638
▁획기	-12.2639
▁고조	-12.2642
▁다고요	-12.2643
▁엔지니어	-12.2644
▁연승	-12.2644
▁아래쪽	-12.2647
▁외롭	-12.2647
▁혓바닥	-12.265
▁부도덕	-12.265
▁뭔가요	-12.2653
▁안감	-12.2653
▁사역	-12.2654
▁망해서	-12.2654
▁에드워드	-12.2655
▁눕	-12.2656
킷	-12.2657
▁때릴	-12.2659
▁바디	-12.266
▁오렌지	-12.266
▁보강	-12.2661
▁응급	-12.2662
▁포탄	-12.2664
▁애당초	-12.2665
▁규격	-12.2665
ak	-12.2667
▁다른가	-12.2668
▁요금제	-12.2669
▁HD	-12.2672
시장	-12.2673
▁음흉	-12.2673
▁신가	-12.2673
▁발부	-12.2675
▁챈	-12.2675
▁제휴	-12.2675
▁우발	-12.2677
▁단기간	-12.268
▁그닥	-12.268
▁다뤄	-12.2682
91	-12.2683
▁개이	-12.2684
▁청화	-12.2686
웨	-12.2687
▁시킨다고	-12.2689
▁본관	-12.2689
▁간파	-12.269
ff	-12.2691
▁그쳤	-12.2693
▁충실히	-12.2693
▁1976	-12.2693
▁무작위	-12.2694
▁솜	-12.2694
▁희안	-12.2696
▁사사건건	-12.27
▁살길	-12.27
▁언더	-12.27
▁수군	-12.27
▁다른데	-12.2701
세이	-12.2701
▁차후	-12.2706
▁사슴	-12.2706
▁외세	-12.2707
▁웨스트	-12.2707
▁1946	-12.2708
▁개도	-12.2708
▁대모	-12.2708
▁경찰청	-12.2709
▁넘어선	-12.271
▁586	-12.2714
▁집안일	-12.2715
는지	-12.2716
▁적힌	-12.2717
▁애새끼	-12.2719
▁투신	-12.2719
▁모지	-12.2721
▁외식	-12.2722
▁저명	-12.2724
▁여배우	-12.2724
▁그려진	-12.2726
▁업주	-12.2727
▁뚱뚱	-12.273
86	-12.2734
▁엘리자베스	-12.2737
▁서초	-12.2741
ath	-12.2742
▁결투	-12.2742
▁아플	-12.2746
▁장편	-12.2746
▁셔도	-12.2747
▁새로이	-12.2747
▁거니	-12.2747
▁그물	-12.2747
▁악어	-12.2748
▁평민	-12.275
▁국보	-12.2751
▁깨물	-12.2755
▁뱀파이어	-12.2755
▁사슬	-12.2756
▁알라	-12.2757
▁잔소리	-12.276
▁똥구멍	-12.2762
▁원내	-12.2764
▁담화	-12.2765
▁흘린	-12.2766
▁SKT	-12.2766
▁을래	-12.2766
▁!!!!!	-12.2767
▁감격	-12.2767
측	-12.2768
AR	-12.2768
▁밥맛	-12.2771
▁모질	-12.2778
▁사기업	-12.2778
▁할걸	-12.2779
▁가져갔	-12.2781
▁머무	-12.2784
▁사회학	-12.2785
▁면은	-12.2786
▁계약직	-12.2787
▁헨	-12.2788
▁서슴	-12.279
▁챙겼	-12.2794
▁대등	-12.2796
AT	-12.2798
▁플라이	-12.2798
▁범법	-12.2803
▁테러리스트	-12.2804
▁79	-12.2805
▁만난다	-12.2806
끌어내리	-12.2807
▁러시	-12.2809
▁참신	-12.2809
▁김형	-12.281
▁적발	-12.2811
77	-12.2812
십만	-12.2812
▁유언비어	-12.2813
▁검술	-12.2814
▁빠진다	-12.2815
틀어막	-12.2815
▁어야죠	-12.2815
▁초인	-12.2818
▁종편	-12.2819
▁윗선	-12.2819
▁레닌	-12.2823
▁미모	-12.2823
▁여성부	-12.2824
았	-12.2826
▁건수	-12.2826
▁졌으면	-12.2827
▁의외로	-12.2827
▁골짜기	-12.2829
▁노멀	-12.2829
▁기수	-12.2831
▁혼내	-12.2831
▁스폰서	-12.2831
▁자재	-12.2833
▁첸	-12.2834
▁몰려들	-12.2837
▁정녕	-12.2837
▁후반기	-12.2842
▁인텔	-12.2843
▁일식집	-12.2844
▁철폐	-12.2845
▁AC	-12.2846
▁서운	-12.2849
▁시늉	-12.2849
스티	-12.2853
▁사무총장	-12.2854
▁단교	-12.2856
03	-12.2856
▁변혁	-12.2857
95	-12.2857
▁벨기에	-12.2858
▁미움	-12.2859
▁복선	-12.286
▁잠겨	-12.2862
▁사체	-12.2862
▁배짱	-12.2864
▁영변	-12.2866
IN	-12.2867
▁광우	-12.2867
▁오랑캐	-12.2867
▁가뭄	-12.2868
ant	-12.287
▁려는데	-12.2871
▁저마다	-12.2873
카드	-12.2875
▁바스	-12.288
▁인구수	-12.2881
▁묘하	-12.2882
▁날치기	-12.2883
▁미키	-12.2884
▁할머님	-12.2884
▁건축물	-12.2885
▁스토	-12.2885
~	-12.2886
킴	-12.2887
▁스팀	-12.2888
AN	-12.2891
▁통지	-12.2892
▁도망간	-12.2892
▁으이구	-12.2894
▁부르주아	-12.2895
▁온상	-12.2895
▁깜빡	-12.2895
▁디젤	-12.2897
▁스텝	-12.2897
▁세일	-12.29
▁파인	-12.29
▁질량	-12.2901
파헤치	-12.2903
▁상성	-12.2903
▁타이어	-12.291
▁구약	-12.2911
69	-12.2913
▁훌쩍	-12.2913
▁갠	-12.2913
▁미화	-12.2915
▁꺽	-12.2916
▁일류	-12.2916
▁심부름	-12.2916
▁부숴	-12.2917
▁발의	-12.2919
▁후작	-12.2919
▁우에	-12.292
▁세워진	-12.2921
▁수신료	-12.2921
▁학비	-12.2922
▁응하	-12.2923
▁이어질	-12.2923
ee	-12.2926
▁새꺄	-12.2927
▁떨린다	-12.2927
▁하소연	-12.2928
▁순찰	-12.2929
▁미제	-12.2931
ha	-12.2931
웰	-12.2932
▁밥값	-12.2932
79	-12.2932
▁당명	-12.2933
▁상습	-12.2934
65	-12.2934
▁호기	-12.2935
▁갈아입	-12.2936
▁단종	-12.2937
▁여행자	-12.2941
▁룩	-12.2942
▁폐허	-12.2944
▁전년	-12.2945
▁비트코인	-12.2946
▁전화기	-12.2947
▁꼴값	-12.2948
▁싸이	-12.2949
▁스치	-12.2949
▁정석	-12.2951
▁돌봄	-12.2953
▁야단	-12.2953
▁중공업	-12.2953
▁셔츠	-12.2955
▁평택	-12.2955
▁나기	-12.2958
▁제독	-12.2958
▁우선시	-12.2958
▁낙관	-12.2959
부르크	-12.2959
▁오영	-12.2959
▁루나	-12.2961
▁부조리	-12.2962
▁더위	-12.2962
▁좌측	-12.2963
▁핍박	-12.2964
▁볼려고	-12.2966
▁정돈	-12.2966
▁냉철	-12.2966
▁조류	-12.2966
▁여혐	-12.2967
▁전임	-12.2968
▁면담	-12.2969
▁진나라	-12.297
▁문란	-12.2972
62	-12.2972
▁여행사	-12.2973
▁수중	-12.2973
▁한다더니	-12.2974
띠	-12.2975
▁개장	-12.2977
어스	-12.2978
렴	-12.2979
▁묵인	-12.2979
▁핏줄	-12.2986
▁로울	-12.2989
▁신흥	-12.299
▁유흥업소	-12.299
▁청사	-12.299
▁나랏일	-12.2993
▁문양	-12.2993
▁속지	-12.2996
▁숫	-12.2997
▁여실히	-12.2998
▁블러드	-12.2998
▁온다는	-12.2999
▁분비	-12.2999
▁부적	-12.2999
▁구조물	-12.3
▁빵빵	-12.3
▁자명	-12.3002
▁못생긴	-12.3003
▁참으	-12.3004
▁그려져	-12.3005
▁색채	-12.3006
▁민법	-12.3006
▁싸운다	-12.3008
▁예언자	-12.3009
▁뜨겁	-12.3011
▁김준	-12.3012
▁제끼	-12.3012
▁속마음	-12.3013
▁방사	-12.3014
▁사사	-12.3016
▁상납	-12.3017
▁애용	-12.3017
▁갈기	-12.3018
▁법인세	-12.3019
▁타케	-12.3022
▁휘말	-12.3023
AS	-12.3025
▁성실히	-12.3027
▁금기	-12.3028
▁홧팅	-12.3032
▁소변	-12.3033
▁까요	-12.3034
▁프레이	-12.3035
▁미흡	-12.3035
▁긴밀	-12.3036
▁빨치산	-12.3037
▁문의	-12.3045
▁엉망진창	-12.3046
▁기장	-12.3046
▁이태원	-12.3048
▁꾸짖	-12.3048
▁찌푸	-12.3049
▁둥지	-12.305
▁미즈	-12.305
▁대지진	-12.3051
컴	-12.3052
▁다친	-12.3053
▁열중	-12.3053
▁움직인다	-12.3054
▁지배자	-12.3054
▁파츠	-12.3054
▁눈알	-12.3055
▁겨누	-12.3055
▁후술	-12.3056
▁반반	-12.3057
▁페이즈	-12.3059
▁사교	-12.3061
TA	-12.3062
▁z	-12.3062
▁수주	-12.3063
▁중첩	-12.3065
여서	-12.3065
▁으리	-12.3069
▁뭍	-12.3069
▁전전	-12.3069
▁1969	-12.307
▁뜬다	-12.3072
▁우르	-12.3074
▁기조	-12.3074
▁결재	-12.3076
▁초상화	-12.3076
▁전파자	-12.3077
▁비평가	-12.3077
▁교만	-12.3078
▁쫒	-12.3079
▁386	-12.3079
▁순례	-12.3081
▁도울	-12.3082
▁관우	-12.3085
▁육신	-12.3085
▁언스	-12.3087
▁일괄	-12.3088
▁떡볶이	-12.3089
▁띵	-12.3092
▁신동	-12.3092
▁못합니다	-12.3094
▁실습	-12.3095
▁드러	-12.3096
▁어마	-12.3097
▁저쩌	-12.3097
▁배트맨	-12.3097
▁허다	-12.3099
▁봉사자	-12.3102
▁대리인	-12.3103
▁부총리	-12.3105
▁즐거워	-12.3107
▁작화	-12.3107
ver	-12.3107
거지	-12.3111
▁수괴	-12.3114
▁부치	-12.3118
▁경수	-12.3118
부리	-12.3118
▁낙원	-12.3122
▁농협	-12.3123
▁메디	-12.3125
롬	-12.3126
▁시원찮	-12.3127
▁스트라이크	-12.3129
가스	-12.313
▁빈민	-12.3132
▁대들	-12.3132
▁세계인	-12.3132
▁치른	-12.3133
릭스	-12.3135
▁부딪히	-12.3135
와서	-12.3135
▁플래그	-12.3139
▁포도주	-12.3142
▁비시	-12.3143
▁미녀	-12.3143
▁양도세	-12.3145
97	-12.3146
▁경의	-12.3146
▁꾸려	-12.3147
▁채울	-12.3148
▁프랑스어	-12.315
MA	-12.3151
oc	-12.3152
▁중개	-12.3154
der	-12.3154
▁이긴다	-12.3155
72	-12.3156
▁내세운	-12.3156
▁슬그머니	-12.3157
괴	-12.3158
▁젠더	-12.3158
▁올림	-12.3161
▁시술	-12.3163
▁어면	-12.3164
▁루비	-12.3165
▁진성	-12.3169
▁연구실	-12.3169
▁캘	-12.3169
▁증식	-12.3171
▁쎈	-12.3172
▁이민자	-12.3172
▁극성	-12.3173
▁튀어나온	-12.3175
▁주니어	-12.3175
AM	-12.3176
▁파울	-12.3176
▁보름	-12.3176
▁뻥튀기	-12.3181
▁통용	-12.3181
▁광선	-12.3183
▁아마존	-12.3183
▁전산	-12.3183
▁스캔들	-12.3183
▁구마	-12.3185
▁모로	-12.3185
▁윽	-12.3188
▁망령	-12.3188
▁속삭	-12.319
▁영생	-12.3191
▁요령	-12.3191
▁쓰다듬	-12.3192
▁증발	-12.3192
▁타수	-12.3193
▁무지막	-12.3196
▁무어	-12.3196
▁신민	-12.3196
▁협의회	-12.3198
나리	-12.32
▁애완	-12.3201
▁라인업	-12.3204
▁쌍용	-12.3205
▁다큐멘터리	-12.3206
▁알아볼	-12.3206
▁조율	-12.3207
▁1977	-12.3208
▁포탈	-12.3208
▁갈망	-12.3208
▁오니	-12.3209
▁분통	-12.321
▁끼친다	-12.321
▁널렸	-12.3211
▁스리	-12.3211
▁마블	-12.3212
떠	-12.3213
▁사기극	-12.3213
▁화풀이	-12.3215
▁간략	-12.3216
▁방송인	-12.3217
▁매사	-12.322
▁발뺌	-12.3226
▁타선	-12.3227
▁트루	-12.3228
▁얘길	-12.3231
아낼	-12.3232
터트리	-12.3233
▁갈려고	-12.3235
▁일탈	-12.3237
▁산화	-12.3238
라면	-12.324
▁아이스크림	-12.324
쥐	-12.3242
▁제치	-12.3244
▁재회	-12.3247
▁타다	-12.3247
▁칼라	-12.3248
녕	-12.3251
▁엘레	-12.3251
스코	-12.3251
자키	-12.3258
▁간다면	-12.3259
릅니다	-12.326
▁살려야	-12.3262
▁모텔	-12.3262
▁장자	-12.3263
▁주지	-12.3264
▁박탈감	-12.3264
▁했을까	-12.3265
버트	-12.3266
▁맡겼	-12.3267
▁게재	-12.327
케이	-12.3273
▁선례	-12.3276
▁구치소	-12.3278
▁임차인	-12.3279
▁자숙	-12.3279
▁렘	-12.328
▁발효	-12.3282
▁그제서야	-12.3284
▁피워	-12.3285
▁순천	-12.3288
▁점잖	-12.3291
▁매월	-12.3293
▁경연	-12.3293
▁re	-12.3294
▁WTO	-12.3294
▁개차반	-12.3297
▁360	-12.3297
▁뉘앙스	-12.3299
▁뎅이	-12.3299
▁고양	-12.33
▁무자비	-12.3304
▁어조	-12.3305
▁경시	-12.3305
▁상반	-12.3306
▁덧붙	-12.3307
▁동이	-12.3307
▁처박	-12.3309
▁애꿎	-12.331
▁평온	-12.3311
▁역겨워	-12.3312
▁생김새	-12.3315
▁대승	-12.3315
▁등극	-12.3316
▁바나나	-12.3317
▁선하	-12.3317
▁난사	-12.3318
▁긍	-12.3318
▁스프	-12.3319
▁준표	-12.3319
▁산정	-12.3319
▁세븐	-12.332
▁미쓰	-12.332
▁원로	-12.332
▁후면	-12.3321
▁탄창	-12.3323
든지	-12.3325
▁트릭	-12.3325
▁딧	-12.3326
▁진중	-12.3328
▁말세	-12.333
▁독일어	-12.3335
▁소아	-12.3341
▁정형	-12.3342
▁재임	-12.3342
▁예리	-12.3342
▁추앙	-12.3343
▁식별	-12.3345
▁적립	-12.3346
▁거창	-12.3346
▁트인	-12.3347
▁드래프트	-12.3347
▁비워	-12.3347
▁소동	-12.3349
▁아랑곳	-12.335
▁치를	-12.3353
▁양측	-12.3353
▁독창	-12.3354
▁대대손손	-12.3355
▁상국	-12.3357
▁으휴	-12.3359
▁뺑소니	-12.3359
▁집합소	-12.336
들아	-12.3361
두르	-12.3362
▁조주	-12.3364
▁맞출	-12.3364
▁더운	-12.3365
▁들으며	-12.3366
▁홍대	-12.3366
▁원만	-12.3367
▁추월	-12.3368
▁메커니즘	-12.337
▁넘버	-12.3372
다녀왔	-12.3372
▁미팅	-12.3378
▁호박	-12.3381
▁못지	-12.3383
▁논증	-12.3383
▁여단	-12.3384
▁타르	-12.3384
드러지	-12.3386
▁나뉜다	-12.3386
▁원한다면	-12.3386
▁조짐	-12.3389
▁FM	-12.3389
83	-12.3392
▁멜로디	-12.3392
▁안양	-12.3393
▁산지	-12.3393
▁드러낸	-12.3394
▁미시	-12.3394
▁래요	-12.3394
▁군기	-12.3395
▁이따금	-12.34
▁빡빡	-12.3402
▁일쑤	-12.3403
▁빼앗긴	-12.3405
▁튕겨	-12.3407
▁기관지	-12.3408
모리	-12.341
▁호전	-12.3411
▁상품권	-12.3413
▁흉악	-12.3414
▁끊임없	-12.3414
▁검거	-12.3416
▁실사	-12.3416
▁라틴	-12.3419
▁괜한	-12.342
▁내로	-12.342
▁선상	-12.3422
▁속인	-12.3426
▁자택	-12.3427
▁찍혀	-12.3428
▁만능	-12.3436
▁아이구	-12.3437
▁상임	-12.3438
▁평정	-12.3438
▁뽄	-12.3438
▁무안	-12.3439
▁몸부림	-12.3439
▁마드리드	-12.3442
▁연못	-12.3442
▁등쳐먹	-12.3443
▁존슨	-12.3443
▁하드웨어	-12.3444
▁수천만	-12.3445
▁갔었	-12.3445
▁추궁	-12.3446
▁시끄러운	-12.3447
▁평행	-12.3447
▁정제	-12.3447
▁빈약	-12.3449
▁서재	-12.3452
▁참여연대	-12.3452
▁조센	-12.3457
▁뒤졌	-12.3458
▁편곡	-12.3459
▁다가와	-12.346
▁테니스	-12.346
▁대법원장	-12.3465
▁구독자	-12.3465
▁간식	-12.3465
▁섹시	-12.3465
▁수치심	-12.3465
▁경인선	-12.3467
▁선천	-12.3467
▁방자	-12.3467
▁숙련	-12.3468
52	-12.3468
▁화끈	-12.3469
▁웜	-12.3469
▁1963	-12.347
▁고구마	-12.347
▁계열사	-12.3472
▁세분	-12.3472
▁패닉	-12.3472
▁KIA	-12.3473
▁세치	-12.3474
▁패트	-12.3475
▁용의자	-12.3481
▁깨져	-12.3481
▁드려야	-12.3482
▁교제	-12.3483
▁제멋대로	-12.3487
▁침뱉	-12.3487
▁자라나	-12.3488
▁로구나	-12.3488
▁맡길	-12.3489
▁르노	-12.349
▁퇴보	-12.3491
▁준하	-12.3492
▁충청남도	-12.3492
▁가늘	-12.3492
▁처묵	-12.3493
▁절박	-12.3494
▁DVD	-12.3495
▁국제공항	-12.3495
▁경보	-12.3498
▁벗기	-12.3498
▁괴리	-12.3502
▁수수	-12.3502
마루	-12.3504
one	-12.3504
▁검진	-12.3505
▁술잔	-12.3505
▁공용	-12.3505
▁전과자	-12.3507
▁후려	-12.3507
▁승률	-12.3509
빠진	-12.3509
▁균열	-12.3512
▁개떡	-12.3512
▁텐데요	-12.3513
▁프리큐어	-12.3514
▁김지	-12.3515
▁넘어간다	-12.3515
▁스케줄	-12.3515
▁까다롭	-12.3517
▁스케일	-12.3519
▁엘라	-12.3521
▁디오	-12.3523
▁경관	-12.3523
▁퀘	-12.3523
▁달했	-12.3524
빠뜨리	-12.3524
▁거긴	-12.3526
▁마야	-12.3528
▁동북	-12.3528
▁소중히	-12.3529
▁무증상	-12.3529
▁초상	-12.3533
천군	-12.3535
▁속출	-12.3535
▁기갑	-12.3535
▁버려진	-12.3536
▁냉동	-12.3538
▁불릴	-12.354
▁날까	-12.3542
▁난국	-12.3542
셈	-12.3546
▁전라북도	-12.3547
▁은근	-12.3549
▁거역	-12.355
▁오우	-12.3551
▁비약	-12.3552
▁차갑	-12.3553
▁괘	-12.3554
▁국수	-12.3557
▁에르	-12.3558
▁거액	-12.3558
▁야망	-12.3558
▁라나	-12.356
▁화신	-12.3562
붙	-12.3563
▁프랑	-12.3565
▁de	-12.3565
▁살상	-12.3565
▁구축함	-12.3567
▁MA	-12.3568
▁터져서	-12.3572
▁연산	-12.3573
22	-12.3573
▁항공모함	-12.3576
▁좌천	-12.3577
▁일어	-12.3578
▁미뤄	-12.3579
▁기다린다	-12.3584
▁연회	-12.3589
▁오징어	-12.3589
▁SF	-12.3594
▁112	-12.3595
▁받치	-12.3596
▁양호	-12.3596
▁얄	-12.3597
뜬	-12.3599
RA	-12.3599
▁하반기	-12.3599
▁비장	-12.3599
▁쓰러졌	-12.36
▁임팩트	-12.3603
▁관례	-12.3603
▁흐려	-12.3603
▁즉사	-12.3603
▁칸트	-12.3605
▁밀수	-12.3606
▁장가	-12.3606
▁박영	-12.3607
ho	-12.3607
▁쌍판	-12.3607
버릴	-12.361
▁여고	-12.3611
▁한다니까	-12.3612
▁둑	-12.3613
▁드나	-12.3615
ity	-12.3615
▁중얼거렸	-12.3615
▁좋아한다	-12.3617
▁애원	-12.3618
▁겡	-12.3619
▁보스턴	-12.3619
▁신생	-12.362
54	-12.362
▁한걸	-12.362
▁단추	-12.3621
마니	-12.3623
▁상대편	-12.3623
▁퍼즐	-12.3624
▁1967	-12.3626
▁드나들	-12.3627
▁파격	-12.3627
▁댜	-12.3629
63	-12.3629
▁난다는	-12.363
▁편해	-12.3631
▁면죄부	-12.3634
▁투척	-12.3636
▁부턴	-12.3636
▁조개	-12.3637
▁찬탈	-12.3637
▁넬	-12.3638
▁큐브	-12.3639
▁안중근	-12.3639
▁그리스도교	-12.3644
▁1949	-12.3646
▁머슴	-12.3647
▁속임수	-12.3648
▁신뢰도	-12.365
▁김병	-12.3652
▁백업	-12.3653
▁유보	-12.3653
▁여행가	-12.3654
▁퉷	-12.3656
▁제후	-12.3662
▁오더	-12.3662
▁아까워	-12.3664
▁암기	-12.3665
▁걸림돌	-12.3666
▁소용돌이	-12.3667
▁농성	-12.367
▁싸워서	-12.3672
▁결탁	-12.3674
▁오스트레일리아	-12.3677
▁쿠폰	-12.3679
▁항문	-12.3681
▁뇨	-12.3682
▁형국	-12.3683
▁던가요	-12.3684
▁영수증	-12.3684
▁UEFA	-12.3685
▁깃털	-12.3687
▁변모	-12.3693
▁~~~~~~	-12.3695
▁흡혈귀	-12.3696
▁상소	-12.3697
▁직행	-12.3703
▁탄환	-12.3703
▁악순환	-12.3703
▁막막	-12.3704
▁정벌	-12.3705
▁미치광이	-12.3706
같	-12.3709
▁비관	-12.371
▁민속	-12.3711
ast	-12.3713
▁선동이	-12.3713
▁참된	-12.3714
▁세심	-12.3714
▁옌	-12.3714
▁공상	-12.3716
▁정진	-12.3717
▁동양인	-12.3718
▁뾰족	-12.3719
뿐	-12.3721
▁조수	-12.3721
▁낸다고	-12.3721
기웃거리	-12.3721
▁리프	-12.3724
▁강림	-12.3727
▁법제	-12.3728
▁경제성장	-12.373
▁눈높이	-12.3731
▁피라미드	-12.3732
▁효용	-12.3734
▁헤르	-12.3735
▁대남	-12.3735
▁중독자	-12.3736
no	-12.3736
치기	-12.3738
▁시상식	-12.3738
▁채취	-12.3738
▁피임	-12.3739
▁모스	-12.3739
▁AS	-12.374
▁개인주의	-12.3742
▁공적	-12.3744
▁민첩	-12.3745
▁개소	-12.3746
▁채찍	-12.3747
▁깊숙이	-12.3747
▁교화	-12.3748
▁개고기	-12.3748
▁경각심	-12.3749
▁경질	-12.3749
▁차체	-12.3749
▁박자	-12.375
▁노통	-12.375
OL	-12.375
▁부렸	-12.3751
▁왕성	-12.3752
▁자본가	-12.3754
▁본연	-12.376
84	-12.3761
▁비켜	-12.3762
▁욱일기	-12.3762
▁카츠	-12.3763
▁조별	-12.3764
내뿜	-12.3767
▁영조	-12.3767
▁적법	-12.3768
▁첨부	-12.3769
▁전격	-12.3769
▁만든다	-12.377
ark	-12.377
RO	-12.3771
▁세세	-12.3773
▁쿼	-12.3774
▁거미	-12.3775
▁송이	-12.3775
넛	-12.3777
▁환생	-12.3779
▁고갈	-12.3781
▁위배	-12.3781
▁재즈	-12.3782
▁수양	-12.3784
▁재일	-12.3784
▁명중률	-12.3784
란트	-12.3785
▁긴장감	-12.3785
▁쪽팔려서	-12.3785
아버지	-12.3786
▁급등	-12.3788
▁바라기	-12.3789
요시	-12.379
도르	-12.3792
▁민영화	-12.3793
▁숨길	-12.3794
▁엔젤	-12.3795
▁닳	-12.3796
▁회유	-12.3796
▁견고	-12.3796
▁무스	-12.3798
▁관철	-12.3798
필드	-12.3798
▁방대	-12.3798
▁무진	-12.3799
▁서포터	-12.3799
▁스와	-12.38
▁박상	-12.3804
▁시초	-12.3805
▁고뇌	-12.3805
냥	-12.3806
▁김의	-12.3807
▁교원	-12.3807
▁빈틈	-12.3809
▁염소	-12.3809
▁불쑥	-12.3811
▁사부	-12.3813
▁사회주의자	-12.3814
▁브루	-12.3817
▁갱이	-12.3817
▁주군	-12.3817
끔	-12.3818
▁어이구	-12.382
▁공소시효	-12.3821
▁한기총	-12.3821
▁반정부	-12.3822
▁심재철	-12.3822
▁캐스터	-12.3825
▁불러야	-12.3825
▁공시지가	-12.3826
▁졸업식	-12.3826
▁씨부려	-12.3826
▁펑	-12.3826
▁법사	-12.3827
▁이슬	-12.3828
▁남친	-12.3828
▁존스	-12.3829
▁한판	-12.3829
▁시댁	-12.3829
▁현대인	-12.383
▁해본다	-12.3831
▁서독	-12.3834
▁의아	-12.3835
▁추대	-12.3837
▁꺄	-12.3838
▁수표	-12.384
▁피드백	-12.3841
▁미르	-12.3842
▁치워라	-12.3842
▁사재	-12.3843
▁똥오줌	-12.3844
▁코난	-12.3845
▁스탠드	-12.3846
▁계발	-12.3847
▁참견	-12.3848
▁급속	-12.3849
▁국민당	-12.385
▁법치주의	-12.3852
▁프로필	-12.3852
▁보인다는	-12.3853
▁카레	-12.3854
▁방조	-12.3854
▁꺼려	-12.3857
▁연구회	-12.3859
▁루크	-12.3862
▁틈새	-12.3862
▁키는	-12.3863
▁페스티벌	-12.3863
▁스피	-12.3863
▁선인	-12.3863
▁선대	-12.3866
▁원비	-12.3867
▁아치	-12.3867
▁궁궐	-12.3868
▁열일	-12.3869
▁정신없	-12.387
▁베이비	-12.3872
▁반대파	-12.3873
▁보호막	-12.3875
▁순순히	-12.3876
▁순조	-12.3876
▁재용	-12.3878
어설프	-12.3879
▁미친다	-12.388
▁타일	-12.3881
▁건너편	-12.3882
▁모종	-12.3882
▁선방	-12.3882
▁엑스트라	-12.3883
▁덜떨어진	-12.3884
ment	-12.3884
▁느긋	-12.3884
▁여행객	-12.3886
▁소소	-12.3887
▁들러	-12.3889
▁수강	-12.3892
▁찬란	-12.3893
▁상금	-12.3893
▁트라이	-12.3894
▁재활	-12.3894
▁받아들	-12.3896
▁풀이	-12.3896
▁거처	-12.3898
▁포고	-12.39
▁쪽팔린다	-12.39
얼거리	-12.39
▁텍사스	-12.3901
▁se	-12.3905
▁힘듭니다	-12.3906
▁순전히	-12.3908
멀	-12.3908
▁잡혀가	-12.3909
▁열람	-12.391
ey	-12.3911
▁회생	-12.3911
▁엥	-12.3911
▁베인	-12.3911
▁테이	-12.3914
▁농가	-12.3914
▁주접	-12.3914
나미	-12.3918
▁리안	-12.3919
▁봉지	-12.3921
▁쫑	-12.3921
▁아유	-12.3922
자와	-12.3923
인데	-12.3923
▁장구	-12.3924
▁징그럽	-12.3924
▁호출	-12.3924
▁소령	-12.3926
▁문과	-12.3929
▁갖가지	-12.3929
▁변장	-12.3931
▁어찌하	-12.3932
▁병장	-12.3932
▁계실	-12.3936
▁요코	-12.3936
▁레지	-12.3936
▁제비	-12.3937
▁일지라도	-12.3937
▁한다는데	-12.3937
he	-12.3941
▁동점	-12.3941
▁관문	-12.3941
▁티베트	-12.3944
▁KBO	-12.3945
▁황폐	-12.3946
▁논술	-12.3947
▁대차	-12.3948
▁킴	-12.3948
라이트	-12.3949
▁애교	-12.395
▁바쳤	-12.395
▁부호	-12.3951
▁문대	-12.3951
▁행군	-12.3952
▁이온	-12.3952
▁pp	-12.3954
59	-12.3955
▁까다로운	-12.3956
▁세팅	-12.3957
▁노고	-12.3957
▁내요	-12.3957
▁수산물	-12.3958
▁조교	-12.396
▁조합원	-12.3962
▁멕	-12.3963
▁끄덕	-12.3966
▁주무	-12.3968
▁햄버거	-12.397
pe	-12.3971
▁더한	-12.3971
▁엄연	-12.3972
마르	-12.3972
▁모는	-12.3972
▁현기	-12.3976
▁평화통일	-12.3977
▁쳐드	-12.3977
RE	-12.3981
▁행각	-12.3981
▁치과	-12.3983
▁일회용	-12.3984
앞세우	-12.3985
▁제게	-12.3986
▁힙합	-12.3987
▁자며	-12.3991
▁오마	-12.3992
▁친환경	-12.3993
▁----	-12.3993
▁조커	-12.3993
▁행방	-12.3993
▁항명	-12.3995
98	-12.3995
▁자책	-12.3996
▁자선	-12.3996
▁색이	-12.3999
▁전기세	-12.4001
▁갇힌	-12.4001
▁찌질이	-12.4001
▁트레이닝	-12.4003
키아	-12.4003
▁배움	-12.4004
▁그릴	-12.4005
▁감면	-12.4006
▁산악	-12.4006
▁헬스	-12.4008
▁요컨대	-12.4009
▁팔레스타인	-12.4009
▁매물	-12.401
▁안팎	-12.4013
▁아집	-12.4014
▁돌이켜	-12.4014
▁토너먼트	-12.4014
EM	-12.4015
▁감춰	-12.4016
▁고스트	-12.4018
▁초간	-12.4019
▁공해	-12.4019
껍	-12.4019
▁직속	-12.4021
▁일리	-12.4022
▁오름	-12.4022
▁똥통	-12.4024
▁호스	-12.4024
▁버블	-12.4024
▁주어	-12.4025
▁낙마	-12.4028
▁소진	-12.4031
▁리터	-12.4031
▁드린	-12.4032
▁증여세	-12.4033
▁컨설팅	-12.4033
▁팔자	-12.4033
▁달려갔	-12.4034
▁월간	-12.4036
▁간장	-12.4036
▁없앨	-12.4036
▁삽시다	-12.4038
▁마는	-12.404
▁더럽히	-12.4043
▁가지가	-12.4048
av	-12.4048
▁리즈	-12.405
▁군함	-12.405
▁o	-12.4053
▁숨통	-12.4053
▁어김없이	-12.4053
▁휠	-12.4054
▁주포	-12.4056
▁졷	-12.4058
▁동명	-12.4059
▁You	-12.4059
▁심성	-12.4059
▁6000	-12.4059
▁CPU	-12.4061
▁라가	-12.4061
▁궁민	-12.4062
▁랙	-12.4062
▁통행	-12.4063
▁몸짓	-12.4064
▁정관	-12.4067
▁육박	-12.4067
▁폭격기	-12.4068
▁충견	-12.407
▁오일	-12.4071
▁이스트	-12.4073
▁치중	-12.4073
▁구석구석	-12.4074
art	-12.4074
▁캄	-12.4074
▁귀속	-12.4075
▁안산	-12.4077
▁동물원	-12.4078
▁버드	-12.4079
▁호주머니	-12.408
▁소린	-12.408
▁꿔	-12.408
▁초심	-12.4082
▁퇴각	-12.4082
▁독려	-12.4085
▁애도	-12.4085
▁제고	-12.4086
▁후미	-12.4086
▁지도층	-12.4086
▁진실로	-12.4087
▁애시당초	-12.4087
스테	-12.4087
▁트리플	-12.4087
프리	-12.4088
▁여태껏	-12.409
▁편집자	-12.4092
▁기울여	-12.4092
▁재팬	-12.4093
▁크리스탈	-12.4093
▁뒷모습	-12.4096
▁회관	-12.4097
▁보르	-12.4098
▁스피커	-12.41
▁앞쪽	-12.4101
▁사업장	-12.4102
▁병합	-12.4103
▁느껴질	-12.4104
ber	-12.4104
▁2500	-12.4106
핵	-12.4108
납니다	-12.4108
▁부름	-12.4108
▁연습생	-12.4109
▁의존도	-12.4109
▁헤비	-12.4109
▁국방비	-12.4113
▁퇴원	-12.4116
▁옮길	-12.4117
▁항아리	-12.4118
▁뜯어내	-12.4118
▁시들	-12.4118
▁고소득	-12.4119
▁슬퍼하	-12.4119
▁앞길	-12.4119
▁자괴감	-12.4122
본다	-12.4122
▁탄다	-12.4123
▁얕	-12.4123
▁택한	-12.4124
▁포섭	-12.4124
▁요번	-12.4126
▁매몰	-12.4129
▁끼친	-12.4129
▁통치자	-12.4129
▁확충	-12.4129
▁독수리	-12.413
▁심층	-12.4132
▁흐지부지	-12.4134
▁떳	-12.4134
▁교란	-12.4134
▁쪄	-12.4135
▁땅값	-12.4135
▁~~~!	-12.4136
▁언뜻	-12.4136
▁no	-12.4136
▁올드	-12.4138
▁모터	-12.4139
▁방과	-12.4139
▁굴뚝	-12.4142
▁미운	-12.4142
▁남산	-12.4143
▁리자	-12.4143
▁배역	-12.4145
▁싹쓸이	-12.4146
▁길바닥	-12.4146
▁난장판	-12.4148
▁여겨진다	-12.4149
▁무리수	-12.415
베르트	-12.4151
▁현안	-12.4152
▁테두리	-12.4153
▁캡쳐	-12.4154
▁기증	-12.4156
삐	-12.4156
▁텅텅	-12.4159
▁백두산	-12.416
▁을껄	-12.4161
▁동산	-12.4161
▁몰상식	-12.4161
▁울렸	-12.4162
▁얼핏	-12.4164
▁토론회	-12.4166
▁고칠	-12.4166
▁등용	-12.4167
▁친밀	-12.4167
▁두말	-12.4169
OR	-12.4169
▁개칭	-12.4171
끓	-12.4175
▁큼	-12.4176
▁수분	-12.4177
OM	-12.4177
▁파키스탄	-12.4179
▁멍하니	-12.418
▁백악관	-12.418
▁교차로	-12.418
▁명중	-12.4182
▁유미	-12.4185
▁장단	-12.4185
▁최면	-12.4186
▁시오	-12.4186
▁바글바글	-12.4187
▁천체	-12.4189
26	-12.4189
mo	-12.4189
▁물러났	-12.419
▁율법	-12.4192
▁고마움	-12.4194
▁미쳐서	-12.4194
▁십자군	-12.4195
▁늦추	-12.4197
▁훈계	-12.42
▁금발	-12.42
▁국영	-12.4201
▁모노	-12.4202
▁성모	-12.4203
▁공휴일	-12.4204
▁봉준호	-12.4204
▁세르	-12.4205
▁훤히	-12.4206
▁증후군	-12.4207
▁우뚝	-12.4208
68	-12.4209
▁외로움	-12.4209
▁낙제	-12.4211
▁출격	-12.4213
▁유나이티	-12.4215
▁만인	-12.4215
▁집중력	-12.4217
▁줄래	-12.4218
▁구비	-12.422
▁에밀리	-12.4221
▁모을	-12.4223
▁현자	-12.4223
▁덤벼	-12.4223
▁해봐도	-12.4225
▁국밥	-12.4225
▁채권자	-12.4226
▁둥근	-12.4228
▁1962	-12.4228
▁성주	-12.4228
▁쐈	-12.423
▁모듈	-12.423
▁도망쳐	-12.4232
텍	-12.4233
▁절도	-12.4235
▁우방국	-12.4235
탐	-12.4235
▁비례대표제	-12.4237
DI	-12.4238
▁원동력	-12.4239
▁비주얼	-12.4241
▁데이터베이스	-12.4242
da	-12.4243
▁유치원생	-12.4244
▁사채	-12.4245
▁여수	-12.4245
▁조우	-12.4247
▁쟁취	-12.4248
▁욕했	-12.4249
기어나오	-12.4249
▁분탕질	-12.4249
▁YG	-12.4251
▁함유	-12.4252
▁한류	-12.4253
▁외양간	-12.4253
▁진한	-12.4253
▁골키퍼	-12.4254
▁상냥	-12.4255
▁앞둔	-12.4255
▁꼬이	-12.4256
▁니체	-12.4257
ex	-12.4258
▁신의	-12.4259
▁트렌드	-12.426
▁쫙	-12.426
▁엿보	-12.426
▁그땐	-12.4262
▁블라	-12.4262
▁쫓겨나	-12.4262
▁돌연변이	-12.4263
▁위급	-12.4264
▁세미나	-12.4264
▁테타	-12.4264
▁금강	-12.4268
▁끼쳤	-12.4268
▁노르	-12.427
▁증원	-12.4272
▁낱낱이	-12.4272
▁호프	-12.4272
▁격하	-12.4274
▁곡식	-12.4275
▁수건	-12.4277
▁갈아타	-12.4279
겔	-12.428
▁소크라테스	-12.4281
▁파손	-12.4281
▁............	-12.4283
▁힘껏	-12.4287
vi	-12.429
▁위헌	-12.4291
▁낙찰	-12.4293
▁낙동강	-12.4293
▁코믹	-12.4294
▁외관	-12.4296
▁바랐	-12.4297
▁깨졌	-12.4298
▁좋아할	-12.4298
▁학생회	-12.4299
▁추이	-12.4303
▁어려운데	-12.4304
▁침실	-12.4304
▁동독	-12.4305
힘	-12.4306
▁안면	-12.4307
▁간담회	-12.4309
per	-12.4309
▁괴롭힘	-12.4309
▁후일	-12.431
▁토로	-12.4311
▁쿵쾅	-12.4316
▁출제	-12.4317
▁산타	-12.4317
▁어찌나	-12.4317
▁3040	-12.432
▁세제	-12.432
▁열풍	-12.4321
▁전학	-12.4321
▁루피	-12.4322
▁내통	-12.4322
▁발가락	-12.4323
▁책임져라	-12.4324
▁키워야	-12.4325
EA	-12.4327
▁날카롭	-12.4327
▁베드	-12.4329
▁운수	-12.4329
▁강타	-12.433
▁잭슨	-12.4331
▁넥센	-12.4332
▁후쿠	-12.4333
▁서인	-12.4333
떨	-12.4333
▁바라볼	-12.4338
▁특위	-12.4338
▁김여정	-12.434
▁헷갈리	-12.4341
▁국방력	-12.4342
▁가꾸	-12.4342
▁웨이브	-12.4343
▁ST	-12.4343
▁찰나	-12.4344
▁덧붙였	-12.4344
▁사명감	-12.4345
▁배신감	-12.4345
▁광물	-12.4348
▁쓰일	-12.4353
▁정했	-12.4356
▁크레이	-12.4356
▁얽혀	-12.4357
ki	-12.4358
▁스트리트	-12.4358
▁디지몬	-12.4359
▁탈환	-12.436
쟁	-12.4361
▁아쉬워	-12.4367
▁마물	-12.4367
▁JR	-12.4368
ass	-12.4369
▁클랜	-12.4373
▁소양	-12.4373
▁쫓기	-12.4374
▁카마	-12.4374
ME	-12.4379
▁커질	-12.438
▁낱말	-12.4381
▁사춘기	-12.4383
▁중재자	-12.4384
▁반짝이	-12.4385
▁리카	-12.4386
▁sk	-12.4387
▁Al	-12.4388
▁밝혀진다	-12.4388
▁무도	-12.4388
부인	-12.4389
▁테일	-12.4389
▁제때	-12.4391
▁뭇	-12.4391
▁여편네	-12.4392
▁1961	-12.4392
▁풀린	-12.4393
▁CC	-12.4393
▁Le	-12.4393
▁죽여라	-12.4395
▁맘껏	-12.4396
▁캐시	-12.4396
NG	-12.4398
▁가출	-12.44
▁헛발	-12.44
▁강호	-12.44
▁일컬	-12.44
▁이성계	-12.4401
▁다더라	-12.4401
▁달랑	-12.4403
▁김밥	-12.4406
▁시멘트	-12.4406
▁co	-12.4407
▁의료인	-12.4408
▁메리트	-12.4409
▁항모	-12.4409
맡	-12.4411
우치	-12.4411
▁기울였	-12.4411
▁국세청	-12.4412
▁양말	-12.4413
▁대타	-12.4413
▁인테리어	-12.4414
▁신세계	-12.4415
▁..,	-12.4415
▁무색	-12.4417
▁영국인	-12.4417
▁회원국	-12.4418
▁헌병	-12.4418
▁참회	-12.4419
▁관건	-12.442
▁실례	-12.4422
▁성관	-12.4424
ight	-12.4425
▁바칠	-12.4426
▁정신력	-12.4426
▁1964	-12.443
▁강등	-12.4431
▁배타	-12.4431
▁페어	-12.4432
▁됏	-12.4432
▁대낮	-12.4433
▁근절	-12.4433
▁맞붙	-12.4435
븐	-12.4435
▁국교	-12.4436
▁http	-12.4437
▁사무관	-12.4441
▁이터	-12.4445
ud	-12.4448
▁엄지	-12.445
뱅	-12.4451
▁열심	-12.4452
▁그럴까	-12.4454
▁시요	-12.4455
▁불러일으키	-12.4455
▁탐지	-12.4457
▁속죄	-12.4457
▁아키라	-12.4458
▁지만원	-12.4459
▁고쳐야	-12.4459
피스	-12.4459
▁드러날	-12.4461
▁신분증	-12.4465
▁진수	-12.4466
▁베테랑	-12.4467
▁벼랑	-12.4469
▁서클	-12.447
▁나눠서	-12.447
탱	-12.447
▁닛	-12.447
찾아다니	-12.4471
▁조그마	-12.4471
▁아네	-12.4472
스톤	-12.4474
▁당내	-12.4477
▁사대	-12.4477
▁성과급	-12.4477
▁권위주의	-12.4479
▁헤아	-12.4479
▁필기	-12.4479
▁효소	-12.448
려면	-12.448
▁변론	-12.4482
▁프로이트	-12.4482
투스	-12.4485
▁승점	-12.4487
▁휘둘러	-12.449
▁르네상스	-12.4493
▁유은혜	-12.4494
▁아리아	-12.4496
▁중화민국	-12.4502
▁권영진	-12.4503
▁키워드	-12.4503
▁널려	-12.4506
▁기억나	-12.4507
▁숭고	-12.4507
▁패자	-12.4509
▁열거	-12.451
어넣	-12.4511
▁야수	-12.4512
▁덫	-12.4515
▁버터	-12.4516
▁오산	-12.4516
▁GP	-12.452
▁잡힐	-12.452
▁노년	-12.4523
▁스텔스	-12.4523
▁단언	-12.4523
오스	-12.4527
▁코스피	-12.4527
▁시시	-12.4528
▁추태	-12.4528
▁일찌감치	-12.4529
▁석상	-12.4529
▁폭포	-12.4529
▁위시	-12.4531
▁소홀	-12.4531
▁영성	-12.4534
44	-12.4538
EC	-12.4539
▁기형	-12.4543
▁어리둥절	-12.4544
▁단행	-12.4546
▁파주	-12.4546
▁카시	-12.4547
▁다카	-12.4547
▁초록색	-12.4548
▁제우스	-12.4549
▁될까봐	-12.455
▁똥고집	-12.4552
▁드세요	-12.4555
▁혼혈	-12.4556
▁마도	-12.4557
▁중량	-12.4557
릇	-12.4557
▁구린내	-12.4558
▁미혼	-12.456
▁포교	-12.4562
▁족보	-12.4563
▁절규	-12.4565
▁벙커	-12.4565
▁Gr	-12.4567
▁상회	-12.4567
▁잘생긴	-12.4567
▁왜국	-12.4567
▁일국	-12.4567
▁직감	-12.457
▁티아	-12.4572
▁순이	-12.4574
▁사족	-12.4576
▁맴	-12.4576
▁체자	-12.4577
롤	-12.458
▁매니아	-12.4581
CC	-12.4581
▁맞먹	-12.4582
▁수박	-12.4584
▁독제	-12.4585
▁분개	-12.4587
▁낯설	-12.459
▁다구요	-12.4591
▁지나갈	-12.4592
▁구동	-12.4594
▁놨는데	-12.4594
▁Th	-12.4595
▁떠도	-12.4596
▁흉악범	-12.4596
▁Ma	-12.4596
타르	-12.4598
▁포터	-12.4598
▁딥	-12.46
▁나아갈	-12.46
▁개새	-12.4601
▁맞춤	-12.4604
▁적임자	-12.4605
▁보건복지부	-12.4606
▁염색	-12.4607
▁로얄	-12.4608
▁희열	-12.4608
▁양대	-12.4608
▁대성	-12.4611
▁미덕	-12.4611
▁강남구	-12.4611
▁밀가루	-12.4611
우드	-12.4612
▁노자	-12.4613
▁느니라	-12.4615
▁은근슬쩍	-12.4615
▁안다는	-12.4616
▁고모	-12.4617
▁스태프	-12.4619
멈	-12.4619
▁해경	-12.4621
ion	-12.4623
▁알렉	-12.4625
▁누렸	-12.4627
▁피고	-12.4627
▁주술	-12.4629
▁앞장	-12.463
어주	-12.4633
옴	-12.4633
방울	-12.4634
▁견지	-12.4635
▁하루카	-12.4636
▁동감	-12.4638
▁엄두	-12.4638
▁시일	-12.4638
▁적중	-12.4638
▁내구	-12.4639
▁여력	-12.464
▁으란	-12.4643
▁어긴	-12.4645
▁노령	-12.4648
▁충성심	-12.4648
▁월급쟁이	-12.4649
▁드니	-12.4649
▁사정거리	-12.465
▁폐해	-12.465
▁타석	-12.465
▁준우승	-12.465
▁파문	-12.465
▁건설사	-12.4651
▁누스	-12.4653
▁높일	-12.4653
▁한족	-12.4654
▁다운로드	-12.4654
▁옆구리	-12.4655
▁활보	-12.4655
▁본당	-12.4658
▁신년	-12.4659
ne	-12.466
▁알렉스	-12.4662
▁갈지	-12.4662
▁피어	-12.4662
▁라이플	-12.4665
▁히어로즈	-12.4665
ci	-12.4666
▁지중해	-12.4668
▁눌렀	-12.467
▁경제학자	-12.4673
▁일으킨다	-12.4674
▁띤	-12.4675
▁진행자	-12.4675
▁WWE	-12.4676
▁자구	-12.4678
▁대열	-12.4679
험	-12.468
▁흘러나	-12.4681
▁내놔라	-12.4685
▁두고두고	-12.4687
▁왕래	-12.4688
▁신조	-12.4688
▁소탕	-12.4688
▁발해	-12.4689
▁한다거나	-12.469
▁재미없	-12.4693
▁장갑차	-12.4694
▁105	-12.4696
▁창가	-12.4699
▁수모	-12.47
▁핸들	-12.4702
▁퍼스트	-12.4706
▁충신	-12.4706
▁수조	-12.4708
▁연세	-12.4708
▁알렉산더	-12.4708
▁김광	-12.4709
▁달라서	-12.4709
▁베스	-12.471
ST	-12.4711
▁늘릴	-12.4711
버그	-12.4711
▁먹칠	-12.4712
▁속히	-12.4712
▁185	-12.4717
▁요하	-12.4717
▁덩달	-12.4718
▁갈아엎	-12.4718
▁아리스토텔레스	-12.4718
96	-12.4721
▁취해서	-12.4722
▁마쓰	-12.4723
▁괴상	-12.4724
▁멸시	-12.4724
▁사무라이	-12.4725
▁과외	-12.4725
▁의류	-12.4725
▁게릴라	-12.4725
▁백지	-12.4727
▁본심	-12.4727
▁다가올	-12.4729
▁이성윤	-12.4729
▁강경화	-12.473
▁여간	-12.4732
▁체온	-12.4734
▁산림	-12.4735
▁설레	-12.4735
▁로그	-12.4735
▁헌재	-12.4736
스르	-12.4737
▁1966	-12.4737
▁아드	-12.4739
▁속일	-12.474
▁정장	-12.4742
▁쟎아	-12.4742
▁젊음	-12.4743
▁장만	-12.4743
▁모던	-12.4747
▁암살자	-12.4749
▁모처럼	-12.4753
툰	-12.4754
▁보건소	-12.4757
▁악영향	-12.4761
▁종래	-12.4763
휴	-12.4763
▁EBS	-12.4763
▁왔었	-12.4766
▁일기장	-12.4768
▁채무자	-12.4769
▁히라	-12.4769
장수	-12.4769
▁실증	-12.4776
▁증권사	-12.4777
이킬	-12.4779
▁반부	-12.4782
▁하이퍼	-12.4785
▁소심	-12.4787
▁딜링	-12.4787
▁상전	-12.4788
▁그르	-12.4789
배부르	-12.479
▁불펜	-12.4791
▁러스	-12.4792
▁포럼	-12.4793
▁합친	-12.4795
붕	-12.4796
▁징벌	-12.4801
▁초원	-12.4803
▁입법부	-12.4803
▁약정	-12.4803
▁태산	-12.4804
▁필두	-12.4808
▁총력	-12.4809
▁간간히	-12.4809
▁허브	-12.481
▁렬	-12.4811
▁상시	-12.4811
▁테스	-12.4811
봄	-12.4811
▁꼼꼼	-12.4811
▁홈즈	-12.4812
▁악덕	-12.4812
TI	-12.4812
▁줄거리	-12.4814
▁빙자	-12.4819
▁동강	-12.4822
▁이중성	-12.4823
▁한인	-12.4823
짱	-12.4824
▁연연	-12.4825
▁타가	-12.4825
▁잖니	-12.4827
▁철퇴	-12.4827
▁절실히	-12.4828
▁송구	-12.4829
▁보라색	-12.4829
▁저해	-12.4829
▁푸틴	-12.4829
▁그리스도인	-12.4831
▁막부	-12.4833
▁데몬	-12.4833
OT	-12.4833
▁불우	-12.4833
▁자이언츠	-12.4834
▁물정	-12.4835
▁길가	-12.4836
▁전기차	-12.4838
▁기승	-12.4838
▁기업체	-12.4839
▁스미	-12.4841
ts	-12.4842
▁그럴수록	-12.4843
▁추해	-12.4843
▁나뭇가지	-12.4845
▁여하튼	-12.4848
▁단발	-12.4848
▁여겨졌	-12.4849
활	-12.485
son	-12.4851
▁출발점	-12.4853
▁재기	-12.4854
▁화약	-12.4854
▁때우	-12.4855
▁캐릭	-12.4855
▁입성	-12.4856
▁백억	-12.4857
▁면회	-12.4859
▁강간범	-12.4861
▁열흘	-12.4862
▁체코	-12.4862
▁특별시	-12.4862
▁됐으니	-12.4865
▁야마토	-12.487
▁독립투사	-12.4872
▁야이	-12.4873
▁꼬박	-12.4873
▁토양	-12.4874
▁순공	-12.4875
▁워터	-12.4875
▁다잖아	-12.4877
▁행실	-12.4882
▁빅뱅	-12.4882
▁가산점	-12.4886
▁과감히	-12.4887
▁득세	-12.4887
▁머금	-12.4888
▁통할	-12.4889
▁FTA	-12.4892
▁섭외	-12.4892
▁들으면서	-12.4894
▁추접	-12.4894
▁매기	-12.4895
▁밝혀질	-12.4896
▁차명	-12.4896
▁진열	-12.4897
▁조직원	-12.4897
▁명언	-12.4903
징징거리	-12.4904
▁확연히	-12.4907
▁지치	-12.4907
▁그리움	-12.4908
▁맡긴	-12.4909
▁염증	-12.4909
▁쫓아가	-12.491
▁뒤따라	-12.491
▁노바	-12.4912
▁런지	-12.4913
▁귀순	-12.4913
▁영화배우	-12.4913
나드	-12.4916
▁몸집	-12.4917
▁터득	-12.4918
▁가만있	-12.4923
▁체인지	-12.4923
▁기왕	-12.4924
▁주휴	-12.4925
▁아인	-12.4925
▁당함	-12.4925
▁유추	-12.4929
▁붙일	-12.4931
▁대나무	-12.4932
▁영탁	-12.4932
▁숨긴	-12.4934
▁지울	-12.4936
▁무혐	-12.4937
▁그라운드	-12.4937
▁질리	-12.4938
PL	-12.494
if	-12.4942
▁간당	-12.4942
▁지폐	-12.4946
▁자력	-12.4948
▁거만	-12.4948
▁만성	-12.495
▁고의로	-12.4951
▁체격	-12.4951
▁소이다	-12.4952
▁디시	-12.4953
▁찜	-12.4955
내리	-12.4956
▁원격	-12.4956
▁토미	-12.4957
▁오지마	-12.496
▁원상	-12.4961
ok	-12.4964
▁레온	-12.4965
▁저래도	-12.4967
▁멱살	-12.4968
▁무더기	-12.497
▁머물렀	-12.4971
▁수뇌부	-12.4971
▁만기	-12.4973
▁무서웠	-12.4976
▁꽁꽁	-12.4976
▁극찬	-12.4978
▁기획사	-12.4978
▁도망갈	-12.4979
▁손짓	-12.4979
▁세밀	-12.498
▁통찰력	-12.498
▁정치색	-12.498
▁만한	-12.498
▁차용	-12.4981
▁놀림	-12.4983
▁허벅지	-12.4983
▁맞대	-12.4984
▁얌	-12.4988
▁무소	-12.4988
▁지닌다	-12.4989
▁쌉	-12.4991
▁꼬락서니	-12.4991
▁원피스	-12.4992
▁대검	-12.4992
▁미드필더	-12.4992
▁몸무게	-12.4993
▁자가용	-12.4994
▁여길	-12.4995
▁날아다니	-12.4996
▁반란군	-12.4998
▁넘친다	-12.4998
▁천문	-12.5
▁최성	-12.5
▁미러	-12.5001
▁통진	-12.5002
▁OS	-12.5006
▁만천하	-12.5006
▁만찬	-12.5007
▁번거	-12.5009
▁셔틀	-12.5011
▁세워서	-12.5014
디스	-12.5014
▁작별	-12.5014
▁강세	-12.5017
▁소국	-12.5018
▁이석기	-12.5018
▁법조인	-12.5019
▁이용수	-12.5019
▁호불호	-12.5021
▁마라톤	-12.5022
▁김대	-12.5025
▁좋아했	-12.5025
▁아인슈타인	-12.5027
▁열강	-12.5029
▁라틴어	-12.5029
▁제단	-12.5032
▁마구잡이	-12.5033
▁림종	-12.5033
▁테르	-12.5036
▁소액	-12.5037
▁해머	-12.5037
ft	-12.5039
▁매스	-12.5039
▁증기	-12.5039
▁편승	-12.5041
▁쭈욱	-12.5041
▁황실	-12.5042
▁선처	-12.5042
▁연차	-12.5042
▁능지처참	-12.5046
▁해법	-12.5047
팽	-12.5047
▁닉네임	-12.5048
▁지원자	-12.5049
▁분식	-12.505
▁조로	-12.505
▁망가진	-12.5051
▁생김	-12.5051
▁캣	-12.5052
▁밝혀져	-12.5054
▁시력	-12.5055
▁문무	-12.5056
▁티스	-12.5056
▁비둘기	-12.5057
▁누님	-12.5058
▁부지런히	-12.5059
▁성리학	-12.5059
▁떠오른다	-12.506
▁헉	-12.506
▁일절	-12.506
▁개구	-12.506
▁꿀꺽	-12.5061
▁총무	-12.5061
▁모라	-12.5064
▁깨져도	-12.5064
▁다냐	-12.5066
MS	-12.5069
▁소홀히	-12.5069
▁워리어	-12.507
▁불복	-12.5071
▁프랭크	-12.5073
▁뽑아내	-12.5074
▁루카	-12.5074
▁풍습	-12.5074
▁라이언	-12.5075
ps	-12.5075
▁1900	-12.5077
▁스가	-12.5078
▁십상	-12.5079
▁찌그러	-12.5081
▁싸돌	-12.5082
▁가닥	-12.5082
▁왕가	-12.5085
▁입가	-12.5085
▁신속히	-12.5086
댈	-12.5086
▁재상	-12.5087
▁췌	-12.5087
▁기념관	-12.5087
▁구한말	-12.5088
▁몰린	-12.509
▁머리통	-12.5091
▁타파	-12.5092
▁패악	-12.5096
▁최강욱	-12.5096
▁프리미어	-12.5096
▁경청	-12.5096
▁으려나	-12.5097
▁교부	-12.5098
▁스테이션	-12.5099
틀리	-12.51
▁꼬시	-12.5102
▁부원	-12.5102
▁커져	-12.5102
망가뜨리	-12.5106
▁릉	-12.5107
뚱	-12.5108
▁결렬	-12.511
▁내륙	-12.5112
▁냐고요	-12.5114
▁상수	-12.5114
▁유재수	-12.5114
▁만료	-12.5114
▁요기	-12.5115
▁CF	-12.5117
▁오락가락	-12.5117
▁구매자	-12.5118
▁멀쩡히	-12.5119
▁영사	-12.512
▁신아	-12.5121
▁인파	-12.5122
▁치렀	-12.5122
▁창간	-12.5122
▁베가	-12.5123
▁생산자	-12.5123
▁문맥	-12.5123
▁튀기	-12.5126
▁빈다	-12.5126
▁꺼낸	-12.5126
▁두부	-12.5127
io	-12.513
▁퍼트린	-12.5131
왔다갔다	-12.5134
끄	-12.514
▁주파수	-12.5143
▁특권층	-12.5143
▁마져	-12.5143
▁카네	-12.5144
▁죄목	-12.5145
▁어느덧	-12.5145
▁트롤	-12.5145
▁급속히	-12.5147
▁워드	-12.5147
▁호크	-12.5149
쓸어버리	-12.5151
▁창구	-12.5153
▁코카	-12.5154
▁성대	-12.5155
▁토의	-12.5156
▁응급실	-12.5158
▁넓혀	-12.5159
▁내고	-12.5161
▁밥줄	-12.5162
▁습니	-12.5164
▁멧돼지	-12.5164
▁미끄러	-12.5166
▁센트	-12.5167
▁괴로움	-12.5168
▁기동성	-12.5168
▁결속	-12.5171
▁빌어먹	-12.5173
▁아츠	-12.5174
▁을려면	-12.5176
▁음란	-12.5176
뒀	-12.5177
▁드롭	-12.5177
▁예뻐	-12.5177
▁열도	-12.5179
▁아들딸	-12.5181
▁하하하	-12.5182
▁상고	-12.5182
▁사상자	-12.5184
▁에미	-12.5185
▁드러낸다	-12.5185
▁마계	-12.5187
▁장판	-12.5187
▁지껄여	-12.5187
▁포획	-12.5188
▁마취	-12.519
걱	-12.5191
▁뼈저	-12.5193
가루	-12.5194
▁뛰쳐나	-12.5194
▁무지개	-12.5195
▁요리사	-12.5197
▁영위	-12.5197
벼	-12.5198
▁강령	-12.5198
▁샠	-12.5201
bo	-12.5201
▁합계	-12.5202
▁175	-12.5205
▁1910	-12.5205
▁기라	-12.5207
▁함성	-12.5207
▁성태	-12.5208
▁된다며	-12.521
▁데기	-12.5212
▁중견	-12.5212
/	-12.5213
▁의석수	-12.5213
▁재대로	-12.5214
▁루프	-12.5215
갔다오	-12.5215
▁먼가	-12.5215
▁제갈	-12.5216
▁언젠데	-12.5217
▁진천	-12.5217
▁갈취	-12.522
▁클레	-12.5221
▁다스려야	-12.5221
▁살펴본	-12.5221
껏해야	-12.5222
▁들판	-12.5224
▁단연	-12.5225
▁엔드	-12.5225
무릅쓰	-12.5226
▁싸늘	-12.5227
▁노아	-12.5227
▁나사	-12.5228
▁끝낸	-12.5228
▁1919	-12.5229
▁연달	-12.523
▁123	-12.5232
▁떨쳐	-12.5235
▁초고	-12.5237
라는	-12.5238
▁훔친	-12.5239
▁아닐지	-12.524
▁느슨	-12.524
▁서면	-12.524
▁단거리	-12.5241
▁운항	-12.5241
▁연민	-12.5241
▁실까	-12.5241
▁탈피	-12.5241
▁우치	-12.5241
▁YTN	-12.5243
▁재질	-12.5243
▁벚꽃	-12.5243
▁여객	-12.5244
LS	-12.5245
▁종부	-12.5245
▁살아간다	-12.5246
▁과태료	-12.5246
겸	-12.5248
▁수비수	-12.5248
▁구시대	-12.5249
▁자구요	-12.5251
바른	-12.5251
▁즐겼	-12.5252
▁자결	-12.5253
놀이	-12.5253
▁원통	-12.5256
▁몹쓸	-12.5256
▁스펠	-12.5256
낀	-12.5257
▁내국	-12.5257
▁전시회	-12.5258
▁벅스	-12.526
▁대패	-12.5261
▁여호와	-12.5262
▁끝냈	-12.5262
▁www	-12.5262
▁바우	-12.5262
ec	-12.5263
▁통한다	-12.5263
▁궤멸	-12.5263
▁더러워서	-12.5265
▁홀리	-12.5265
▁입안	-12.5265
TE	-12.5266
▁순리	-12.5267
▁인내심	-12.5268
즈키	-12.5268
▁파급	-12.527
▁변종	-12.527
▁방귀	-12.5272
▁개웃	-12.5277
▁참혹	-12.5278
▁반경	-12.5279
▁할라	-12.5279
▁깠	-12.528
찍	-12.5281
▁장애인	-12.5281
▁잠복기	-12.5282
▁터뜨렸	-12.5285
▁레임덕	-12.5286
▁브라이언	-12.5288
▁입체	-12.5288
▁꼼꼼히	-12.5288
▁마르크스주의	-12.5289
▁판서	-12.5289
▁스핀	-12.529
성군	-12.529
▁분실	-12.5292
▁순응	-12.5295
▁묵살	-12.5296
▁트릴	-12.5297
▁수료	-12.5297
▁AT	-12.5298
▁주진우	-12.53
▁화랑	-12.53
▁듀오	-12.5301
▁혼수	-12.5303
▁아이큐	-12.5304
붙이	-12.5304
▁잠식	-12.5307
▁불법체류	-12.5309
▁개보	-12.531
▁딜레이	-12.5311
▁받아들인	-12.5312
▁강동	-12.5312
▁경심	-12.5312
하니	-12.5312
▁공교육	-12.5313
▁결실	-12.5316
▁부여받	-12.5318
▁뢰	-12.5322
콩	-12.5323
구멍	-12.5327
구치	-12.5327
▁블랙홀	-12.5328
▁풍토	-12.5329
▁누설	-12.5329
▁프라임	-12.533
▁구덩이	-12.5331
▁의례	-12.5331
▁레딧	-12.5331
슴	-12.5331
▁시뮬레이션	-12.5332
▁제보자	-12.5334
▁장이	-12.5334
▁시온	-12.5337
▁고블린	-12.5338
▁던질	-12.534
▁뽑히	-12.5342
▁대여	-12.5342
▁들으니	-12.5344
▁카지노	-12.5345
▁1947	-12.5345
▁주유소	-12.5346
▁오디오	-12.5349
▁큰소리	-12.5349
▁올스타	-12.5349
▁끌어들여	-12.535
▁노랑	-12.5353
▁왤케	-12.5353
▁목욕탕	-12.5354
▁따님	-12.5356
EN	-12.5357
▁중구	-12.5357
▁나팔	-12.5357
▁사우스	-12.5358
▁알려준다	-12.5359
▁티셔츠	-12.5359
▁지으	-12.536
▁그러니깐	-12.5363
▁보루	-12.5364
▁노마	-12.5364
▁서신	-12.5365
스카	-12.5365
▁재산세	-12.5366
▁팬텀	-12.5366
▁눈뜨	-12.5368
???	-12.5371
▁깔깔	-12.5372
▁돌연	-12.5373
▁특사	-12.5376
▁통솔	-12.5377
▁오른팔	-12.5377
▁근거리	-12.5378
▁타이탄	-12.5378
▁국판	-12.5378
▁독보	-12.5379
살아오	-12.5379
▁분쇄	-12.5379
▁유니크	-12.5379
▁프레스	-12.538
▁완벽히	-12.538
▁로프	-12.539
▁음향	-12.5391
사카	-12.5392
▁스트리	-12.5392
▁치이	-12.5393
▁징조	-12.5394
▁새겨진	-12.5394
▁세연	-12.5395
▁통찰	-12.5395
▁흉노	-12.5396
▁김승	-12.5396
▁Be	-12.5396
▁구애	-12.5397
IA	-12.5399
▁휠체어	-12.5399
▁Sp	-12.54
▁두드러기	-12.5402
▁잘나	-12.5404
▁형수	-12.5404
▁라이너	-12.5405
▁미동	-12.5405
▁호흡기	-12.5406
▁울분	-12.5406
▁굴러가	-12.5407
▁버럭	-12.5407
찢어지	-12.5408
▁입혀	-12.5409
▁끝낼	-12.541
컨	-12.5411
▁강박	-12.5411
▁골통	-12.5412
▁오보	-12.5412
▁마르코	-12.5414
▁옥순	-12.5416
▁이뻐	-12.5417
▁십쇼	-12.5417
▁친근	-12.5418
▁국민학교	-12.5418
노스	-12.5419
▁투하	-12.5422
▁충청	-12.5422
▁이펙트	-12.5425
▁성원	-12.5426
▁일면	-12.5426
▁약품	-12.5427
▁개기	-12.5427
▁손아귀	-12.5428
▁발원지	-12.5429
▁리틀	-12.5429
▁걸요	-12.543
▁김선	-12.5431
아키	-12.5433
▁애착	-12.5433
▁비나	-12.5433
▁이끈	-12.5435
▁가까웠	-12.5439
▁빅토리아	-12.544
교육	-12.5442
ain	-12.5442
▁국과	-12.5443
▁팥	-12.5444
▁암것도	-12.5445
▁진흙	-12.5445
▁파벌	-12.5445
▁조아리	-12.5446
▁제소	-12.5448
▁신병	-12.5449
▁애썼	-12.545
▁몆	-12.545
▁외친	-12.5451
▁꼰	-12.5451
▁박성	-12.5451
▁언어학	-12.5452
▁도서	-12.5452
▁강대	-12.5453
▁갈려	-12.5453
▁권세	-12.5453
▁백두	-12.5456
CE	-12.5456
▁뛸	-12.5457
▁명동	-12.5458
▁상류층	-12.546
▁인문학	-12.5462
▁얼빠진	-12.5465
▁비상사태	-12.5465
▁호적	-12.5465
▁버들	-12.5465
▁박종	-12.5466
▁철강	-12.5467
▁주변인	-12.5467
▁멈출	-12.5468
▁은커녕	-12.5468
▁택했	-12.5469
▁익혀	-12.5469
▁415	-12.547
▁도왔	-12.547
▁건달	-12.547
▁헤겔	-12.547
▁평면	-12.5471
▁술수	-12.5472
▁메시	-12.5473
▁단국	-12.5475
▁왕권	-12.5475
▁치닫	-12.5477
▁기어이	-12.5477
▁키를	-12.548
▁일본식	-12.548
▁억대	-12.5481
▁천성	-12.5484
▁끌어당	-12.5484
▁타지	-12.5486
사람	-12.5486
▁장대	-12.5487
▁이롭	-12.5488
▁암묵	-12.5488
▁독한	-12.5488
SC	-12.5489
▁별것	-12.549
▁간디	-12.5492
▁신물	-12.5493
끝	-12.5494
▁비밀리	-12.5494
▁영공	-12.5494
▁못살	-12.5495
▁불태워	-12.5496
▁과반	-12.5496
▁피닉스	-12.5496
▁유병언	-12.5496
▁바빠	-12.5501
▁무제한	-12.5501
▁토라	-12.5502
▁배구	-12.5503
▁손수	-12.5503
어오르	-12.5503
▁양해	-12.5505
▁앎	-12.5505
▁An	-12.5507
▁면역력	-12.5507
▁무수히	-12.5508
▁비고	-12.5508
▁후드	-12.5509
▁가르칠	-12.5509
▁두께	-12.5509
▁조례	-12.5511
▁정동	-12.5511
▁판문점	-12.5512
▁튀어나와	-12.5512
▁가까스로	-12.5514
못	-12.5514
▁자생	-12.5514
▁원대	-12.5514
▁상세히	-12.5515
▁어버이	-12.5517
▁필립	-12.5517
▁급속도	-12.552
▁내미	-12.5522
di	-12.5526
▁융통	-12.5526
▁추산	-12.5527
▁풀려나	-12.5527
▁했으므로	-12.5528
▁빽빽	-12.5529
▁카이사르	-12.5529
▁어머	-12.5529
▁구장	-12.5529
▁커넥션	-12.5533
게요	-12.5533
▁딸내미	-12.5534
▁음악가	-12.5534
▁단번에	-12.5534
▁플레	-12.5537
▁알려야	-12.5537
▁저조	-12.5538
▁나이다	-12.5538
라든가	-12.5538
▁농지	-12.5539
▁노역	-12.5539
콤	-12.5542
▁125	-12.5543
▁동대문	-12.5543
▁걸어갔	-12.5544
아스	-12.5544
▁강북	-12.5544
▁1941	-12.5545
▁개원	-12.5545
▁챌린지	-12.5547
▁엣지	-12.5548
▁금지법	-12.5548
▁양분	-12.5548
빗	-12.5548
▁계세요	-12.5549
▁빠짐없이	-12.555
▁맹신	-12.5551
▁겠지	-12.5552
▁캄보디아	-12.5552
▁컨디션	-12.5552
▁살린	-12.5553
▁투여	-12.5553
▁과반수	-12.5554
들였	-12.5554
히코	-12.5554
▁솔선수범	-12.5555
BA	-12.5557
▁노파	-12.5559
▁내보	-12.5559
▁틀려	-12.5559
▁공교	-12.5562
▁겻	-12.5563
▁못한다고	-12.5563
▁흐른	-12.5567
▁막혔	-12.5567
▁척추	-12.5569
▁작단	-12.5569
불태우	-12.5571
▁믿기	-12.5571
▁피신	-12.5573
▁마하	-12.5575
▁싯	-12.5576
▁으니라고	-12.5577
▁피디	-12.5578
▁링컨	-12.5578
▁승승장구	-12.5579
▁바닷물	-12.558
▁차근차근	-12.558
▁구국	-12.5581
▁풀렸	-12.5582
▁항소	-12.5584
▁단행본	-12.5584
▁구구절절	-12.5584
▁항우	-12.5585
팬	-12.5585
▁채웠	-12.5585
▁한바탕	-12.5585
▁리플	-12.5587
▁단검	-12.5592
▁느닷없이	-12.5593
▁순이익	-12.5593
▁1944	-12.5594
▁김윤	-12.5596
▁푼돈	-12.5597
▁핵미사일	-12.5603
▁블럭	-12.5603
▁공생	-12.5603
즈카	-12.5604
▁나쁨	-12.5604
려앉	-12.5605
▁홉	-12.5607
행위	-12.5608
틸	-12.5609
▁육갑	-12.5616
▁종신	-12.5619
▁살펴볼	-12.562
▁땅바닥	-12.5622
▁Co	-12.5623
▁온화	-12.5623
ty	-12.5624
▁제조사	-12.5625
▁할리우드	-12.5626
▁교구	-12.5626
▁추진력	-12.5627
▁SD	-12.5628
▁서북	-12.563
▁부스터	-12.5632
▁미주	-12.5633
▁대법관	-12.5633
▁얼만데	-12.5634
▁사니	-12.5634
▁사려	-12.5638
▁정인	-12.564
▁무서움	-12.5641
▁유토피아	-12.5641
▁얍삽	-12.5641
ome	-12.5644
▁내공	-12.5644
그래	-12.5648
07	-12.5649
▁페트	-12.5652
AC	-12.5652
▁냇	-12.5652
▁365	-12.5653
▁체내	-12.5654
▁인칭	-12.5655
▁목재	-12.5655
▁디질	-12.5657
▁삼류	-12.566
▁섭섭	-12.566
▁할껄	-12.5661
▁김재규	-12.5662
▁휘발유	-12.5662
▁덕목	-12.5663
▁입김	-12.5663
▁장안	-12.5663
▁퀴즈	-12.5665
▁모험가	-12.5667
▁힙	-12.5667
▁간행	-12.567
▁데스크	-12.567
▁시종	-12.567
▁조제	-12.5676
▁다가갔	-12.5676
▁신데	-12.5676
▁사가	-12.5677
ide	-12.5677
▁쥐어짜	-12.5678
▁지크	-12.568
▁돌변	-12.5684
▁왕건	-12.5684
▁240	-12.5686
▁바꿔치기	-12.5686
▁부대원	-12.5686
▁모여들	-12.5687
▁미남	-12.5687
▁언주	-12.569
▁정연	-12.569
▁뮌헨	-12.5691
▁다국적	-12.5692
▁매스컴	-12.5693
▁끈질	-12.5693
▁이기심	-12.5698
어다니	-12.5699
▁누락	-12.57
▁북극	-12.5701
딕	-12.5701
▁강가	-12.5701
IC	-12.5704
혀서	-12.5704
▁여긴다	-12.5704
▁심기	-12.5705
▁속초	-12.5706
▁얼룩	-12.5708
▁옷차림	-12.5708
▁망쳤	-12.5709
스토	-12.5709
마주치	-12.5711
▁밧줄	-12.5711
▁아야죠	-12.5711
▁시킬려고	-12.5712
▁유리창	-12.5712
▁저작물	-12.5715
▁구차	-12.5717
▁세키	-12.5718
▁무턱대	-12.5721
▁중추	-12.5722
▁최하	-12.5724
▁퐁	-12.5726
▁다이빙	-12.5729
▁방사선	-12.573
▁대적	-12.5731
▁대주주	-12.5733
▁설훈	-12.5734
▁드워프	-12.5734
▁언데드	-12.5734
▁뵙	-12.5734
▁까페	-12.5736
▁미신	-12.5738
▁사문서	-12.5739
덤	-12.574
▁즌	-12.5741
▁이바지	-12.5741
▁판검사	-12.5742
iv	-12.5742
▁망원경	-12.5744
▁섬뜩	-12.5745
▁모략	-12.5745
▁스레	-12.5746
▁싸대	-12.5748
▁일어섰	-12.5748
▁젤리	-12.5751
▁단두대	-12.5751
▁과오	-12.5751
▁마음가짐	-12.5752
▁으려다	-12.5752
▁직계	-12.5753
어맞	-12.5754
▁아메리칸	-12.5755
▁꽃뱀	-12.5757
▁친숙	-12.5759
▁물어봐	-12.5761
▁함량	-12.5761
▁유태인	-12.5761
▁마사지	-12.5762
▁인플레이션	-12.5762
▁RPG	-12.5766
!!!!!!!!!!	-12.5769
▁비만	-12.5769
▁래퍼	-12.577
▁시베리아	-12.577
▁해병	-12.577
▁싹싹	-12.5772
▁발바닥	-12.5773
▁이튿날	-12.5774
▁서포트	-12.5774
▁단말기	-12.5776
▁뿌듯	-12.5776
▁승패	-12.5777
▁야구장	-12.5778
▁오키나와	-12.5779
▁8000	-12.5779
▁레이디	-12.5781
▁카테고리	-12.5782
▁파국	-12.5782
▁코스닥	-12.5783
▁예우	-12.5783
▁총칼	-12.5783
▁배현진	-12.5785
마침	-12.5785
▁마술사	-12.5785
▁무의미	-12.5789
곰	-12.5789
▁부셔	-12.5789
▁빠를	-12.579
▁쿠스	-12.579
▁영화관	-12.5791
어설	-12.5791
▁비운	-12.5792
▁노화	-12.5794
▁석기	-12.5794
▁선우	-12.5796
▁카인	-12.5796
▁납작	-12.5799
▁젠장	-12.5799
▁부동	-12.5802
▁신관	-12.5802
다르	-12.5804
sc	-12.5805
▁방정식	-12.5805
▁얄팍	-12.5806
미야	-12.5807
▁포상	-12.5808
▁접한	-12.5812
▁몰려와서	-12.5812
▁야죠	-12.5813
▁정열	-12.5816
▁니아	-12.5816
▁챔피	-12.5816
▁다네요	-12.5817
▁음양	-12.5817
▁수배	-12.5817
hi	-12.5818
▁뼛속	-12.5819
▁민의	-12.5819
▁뭉친	-12.582
▁위계	-12.5821
▁고정간첩	-12.5822
▁복부	-12.5823
▁포화	-12.5823
이버	-12.5824
▁환하	-12.5824
▁군자	-12.5826
▁불출마	-12.5826
▁무제	-12.5828
▁트로이	-12.5828
▁간경	-12.5829
▁예절	-12.5831
▁맛집	-12.5831
▁노모	-12.5831
▁질타	-12.5833
▁때려라	-12.5834
▁탄식	-12.5834
▁부사관	-12.5837
지도	-12.5838
▁샊	-12.5841
▁해악	-12.5846
▁민초	-12.5846
스틴	-12.5847
▁토마토	-12.5849
▁콘솔	-12.5849
▁조인	-12.585
▁돼지고기	-12.5852
켰	-12.5853
▁꾸리	-12.5853
▁상체	-12.5853
▁천둥	-12.5853
▁돌이	-12.5854
▁열혈	-12.5855
▁딸아이	-12.5856
▁떠올렸	-12.5856
▁악인	-12.5857
▁허약	-12.5859
▁갑작스런	-12.5859
▁탭	-12.586
▁토시	-12.5865
▁황소	-12.5868
▁뿐이	-12.5869
닭	-12.5871
▁딛	-12.5872
▁초능력	-12.5874
▁갤러	-12.5874
▁수상자	-12.5876
올라	-12.5876
릅	-12.5879
▁성장률	-12.588
▁솜방망이	-12.588
▁주디	-12.5883
▁개연	-12.5883
▁잘려	-12.5884
▁문파	-12.5885
▁연행	-12.5885
▁나뭇잎	-12.5886
▁돌림	-12.589
▁클린턴	-12.5891
▁더빙	-12.5892
▁머뭇거	-12.5892
▁스토커	-12.5892
▁식용	-12.5892
▁캐슬	-12.5892
▁데일리	-12.5893
▁진위	-12.5895
▁바기	-12.5896
▁였으므로	-12.5896
▁언젠간	-12.5897
▁올려다보	-12.5897
▁극악	-12.5897
사하고	-12.5897
▁수락	-12.5898
SI	-12.5899
랙	-12.5901
▁나올지	-12.5902
▁발산	-12.5902
▁화난다	-12.5902
▁어지럽히	-12.5903
▁핵실험	-12.5903
▁내셔널	-12.5906
▁받아들여야	-12.5907
▁얘긴	-12.5907
▁미나미	-12.5907
▁선거전	-12.5909
▁첼시	-12.591
po	-12.5911
▁스윙	-12.5913
▁히스	-12.5913
▁거둘	-12.5916
▁팰	-12.5916
▁청각	-12.5917
▁어당	-12.5917
▁상어	-12.5918
▁쥐뿔	-12.5919
▁늘려서	-12.5919
▁방어구	-12.592
▁기대감	-12.5921
▁공소	-12.5921
▁까발리	-12.5922
▁엊그제	-12.5922
▁가족사	-12.5923
▁왕궁	-12.5925
▁남방	-12.5926
▁혜성	-12.5926
▁환산	-12.5927
▁비축	-12.5927
▁공채	-12.5927
▁실지	-12.5933
▁선뜻	-12.5933
▁수족	-12.5934
▁로빈	-12.5935
▁배상금	-12.5935
▁sh	-12.5936
▁나눔	-12.5937
▁공양	-12.5939
▁스나	-12.5939
▁비오	-12.5939
ance	-12.5939
▁미용	-12.5943
▁기괴	-12.5943
▁차등	-12.5944
▁조또	-12.5946
▁나날	-12.5946
▁처했	-12.5948
▁테크닉	-12.5948
ung	-12.5951
▁빨갛	-12.5953
▁샌프란시스코	-12.5953
▁유수	-12.5956
▁스티커	-12.5956
▁대구시	-12.5957
DA	-12.5958
▁스로	-12.5959
▁BJ	-12.5959
▁문제없	-12.596
▁야겠다	-12.5962
▁필히	-12.5964
▁순결	-12.5967
▁싸인	-12.5969
▁양지	-12.597
▁마십시오	-12.5971
▁독성	-12.5971
▁아바	-12.5975
▁중공군	-12.5976
▁포대	-12.5976
▁사키	-12.5976
▁시청료	-12.5976
▁극일	-12.5977
▁퀵	-12.5978
꾼	-12.5978
▁땅콩	-12.598
▁우지	-12.598
▁별일	-12.5981
▁라즈	-12.5982
▁취업률	-12.5982
▁사상가	-12.5983
▁앨런	-12.5991
▁은총	-12.5991
ice	-12.5994
▁손오공	-12.5994
▁클론	-12.5996
▁꼬붕	-12.5997
▁축출	-12.5998
▁111	-12.5999
▁당혹	-12.5999
▁혹여	-12.6
▁객체	-12.6
▁업보	-12.6
▁더구만	-12.6001
▁짊어지	-12.6002
▁무의식	-12.6003
▁쾌감	-12.6003
▁불나	-12.6004
▁살만	-12.6005
▁졌으니	-12.6005
▁친화	-12.6005
▁국부	-12.6006
▁전문직	-12.6008
▁멘토	-12.6008
▁금연	-12.6009
▁뻔한데	-12.6009
▁무고죄	-12.601
▁줄여라	-12.6011
▁아슬아슬	-12.6012
▁사납	-12.6013
관계	-12.6014
▁길목	-12.6017
▁재차	-12.6017
▁슈퍼맨	-12.6017
▁무승부	-12.6017
▁당위	-12.6017
▁허망	-12.6019
▁쫓겨	-12.602
▁시호	-12.6022
▁맹박	-12.6023
▁국인	-12.6024
▁배트	-12.6025
▁간곡히	-12.6028
▁칠레	-12.603
▁CV	-12.6031
▁날아갔	-12.6031
▁깜깜	-12.6031
ue	-12.6032
▁먹혀	-12.6032
▁본의	-12.6033
▁저지를	-12.6034
▁연하	-12.6034
▁방호복	-12.6034
뛰	-12.6034
▁발하	-12.6035
▁삽살개	-12.6036
▁정신없이	-12.6036
▁AD	-12.6036
▁유화	-12.6037
▁GB	-12.6037
움켜쥐	-12.6039
ure	-12.6039
▁심야	-12.604
▁귀결	-12.6041
▁히로시마	-12.6041
▁공국	-12.6042
▁데려와	-12.6042
▁정보원	-12.6043
답니다	-12.6043
타카	-12.6044
▁금치	-12.6047
▁발포	-12.6048
▁보위	-12.6048
▁정희	-12.6048
▁외계	-12.6049
▁이래라	-12.6049
▁활기	-12.6051
GA	-12.6051
▁김호중	-12.6053
ID	-12.6053
▁강단	-12.6053
▁춘추	-12.6055
▁먹힐	-12.6056
▁멈췄	-12.6056
▁겨루	-12.6058
▁함장	-12.6058
▁호날두	-12.6058
작스럽	-12.6059
▁파랑	-12.6061
▁가디언	-12.6061
▁출입국	-12.6064
[...]
