<s>
<pad>
</s>
<unk>
<mask>
[UNK0]
[UNK1]
[UNK2]
[UNK3]
[UNK4]
[UNK5]
[UNK6]
[UNK7]
[UNK8]
[UNK9]
[unused0]
[unused1]
[unused2]
[unused3]
[unused4]
[unused5]
[unused6]
[unused7]
[unused8]
[unused9]
[unused10]
[unused11]
[unused12]
[unused13]
[unused14]
[unused15]
[unused16]
[unused17]
[unused18]
[unused19]
[unused20]
[unused21]
[unused22]
[unused23]
[unused24]
[unused25]
[unused26]
[unused27]
[unused28]
[unused29]
[unused30]
[unused31]
[unused32]
[unused33]
[unused34]
[unused35]
[unused36]
[unused37]
[unused38]
[unused39]
[unused40]
[unused41]
[unused42]
[unused43]
[unused44]
[unused45]
[unused46]
[unused47]
[unused48]
[unused49]
[unused50]
[unused51]
[unused52]
[unused53]
[unused54]
[unused55]
[unused56]
[unused57]
[unused58]
[unused59]
[unused60]
[unused61]
[unused62]
[unused63]
[unused64]
[unused65]
[unused66]
[unused67]
[unused68]
[unused69]
[unused70]
[unused71]
[unused72]
[unused73]
[unused74]
[unused75]
[unused76]
[unused77]
[unused78]
[unused79]
[unused80]
[unused81]
[unused82]
[unused83]
[unused84]
[unused85]
[unused86]
[unused87]
[unused88]
[unused89]
[unused90]
[unused91]
[unused92]
[unused93]
[unused94]
[unused95]
[unused96]
[unused97]
[unused98]
[unused99]
[unused100]
[unused101]
[unused102]
[unused103]
[unused104]
[unused105]
[unused106]
[unused107]
[unused108]
[unused109]
[unused110]
[unused111]
[unused112]
[unused113]
[unused114]
[unused115]
[unused116]
[unused117]
[unused118]
[unused119]
[unused120]
[unused121]
[unused122]
[unused123]
[unused124]
[unused125]
[unused126]
[unused127]
[unused128]
[unused129]
[unused130]
[unused131]
[unused132]
[unused133]
[unused134]
[unused135]
[unused136]
[unused137]
[unused138]
[unused139]
[unused140]
[unused141]
[unused142]
[unused143]
[unused144]
[unused145]
[unused146]
[unused147]
[unused148]
[unused149]
[unused150]
[unused151]
[unused152]
[unused153]
[unused154]
[unused155]
[unused156]
[unused157]
[unused158]
[unused159]
[unused160]
[unused161]
[unused162]
[unused163]
[unused164]
[unused165]
[unused166]
[unused167]
[unused168]
[unused169]
[unused170]
[unused171]
[unused172]
[unused173]
[unused174]
[unused175]
[unused176]
[unused177]
[unused178]
[unused179]
[unused180]
[unused181]
[unused182]
[unused183]
[unused184]
[unused185]
[unused186]
[unused187]
[unused188]
[unused189]
[unused190]
[unused191]
[unused192]
[unused193]
[unused194]
[unused195]
[unused196]
[unused197]
[unused198]
[unused199]
!
"
%
'
,
-
.
/
0
1
2
3
4
5
6
7
8
9
:
?
@
A
B
C
D
E
F
G
H
I
J
K
L
M
N
O
P
Q
R
S
T
U
V
W
X
Y
Z
a
b
c
d
e
f
g
h
i
j
k
l
m
n
o
p
q
r
s
t
u
v
w
x
y
z
~
·
가
각
갂
갃
간
갅
갆
갇
갈
갉
갊
갋
갌
갍
갎
갏
감
갑
값
갓
갔
강
갖
갗
갘
같
갚
갛
개
객
갞
갟
갠
갢
갣
갤
갥
갧
갩
갫
갬
갭
갮
갯
갰
갱
갲
갳
갴
갵
갶
갷
갸
갹
갺
갼
갿
걀
걁
걃
걆
걇
걈
걉
걊
걋
걌
걍
걎
걐
걑
걒
걓
걔
걕
걖
걘
걜
걤
걥
걧
걨
걩
걬
걭
거
걱
걲
걳
건
걵
걶
걷
걸
걹
걺
걻
걼
걽
걾
걿
검
겁
겂
것
겄
겅
겆
겇
겈
겉
겊
겋
게
겍
겎
겏
겐
겒
겓
겔
겕
겗
겙
겚
겛
겜
겝
겞
겟
겠
겡
겢
겣
겤
겥
겦
겧
겨
격
겪
겫
견
겭
겮
겯
결
겱
겲
겳
겴
겵
겷
겸
겹
겺
겻
겼
경
겾
겿
곀
곁
곂
곃
계
곅
곆
곈
곋
곌
곔
곕
곖
곗
곘
곙
곚
곛
곜
곝
곟
고
곡
곢
곣
곤
곥
곧
골
곩
곪
곫
곬
곭
곮
곯
곰
곱
곲
곳
곴
공
곶
곷
곸
곹
곺
곻
과
곽
관
괁
괂
괃
괄
괅
괌
괍
괏
괐
광
괒
괓
괔
괕
괖
괗
괘
괙
괜
괝
괞
괠
괨
괫
괬
괭
괴
괵
괸
괺
괼
굄
굅
굇
굈
굉
굌
굎
교
굑
굔
굗
굘
굚
굠
굡
굣
굤
굥
굦
굧
굨
굩
굪
굫
구
국
굮
굯
군
굱
굲
굳
굴
굵
굶
굷
굺
굻
굼
굽
굾
굿
궀
궁
궂
궃
궄
궅
궆
궇
궈
궉
권
궍
궏
궐
궑
궓
궘
궙
궛
궜
궝
궠
궤
궥
궨
궬
궭
궮
궯
궲
궳
궵
궷
궸
궹
귀
귁
귄
귇
귈
귐
귑
귓
귔
귕
귖
귘
귛
규
귝
균
귣
귤
귥
귦
귬
귭
귯
귱
귴
귷
그
극
귺
귻
근
귽
귾
귿
글
긁
긂
긃
긄
긆
긇
금
급
긊
긋
긌
긍
긎
긏
긐
긑
긒
긓
긔
긕
긘
긛
긜
긞
긤
긥
긧
긩
긪
긬
긯
기
긱
긲
긴
긵
긶
긷
길
긹
긺
긻
긼
긿
김
깁
깂
깃
깄
깅
깆
깇
깈
깉
깊
깋
까
깍
깎
깐
깑
깒
깓
깔
깕
깖
깗
깛
깜
깝
깞
깟
깠
깡
깢
깣
깤
깥
깦
깧
깨
깩
깪
깬
깯
깰
깱
깵
깸
깹
깺
깻
깼
깽
깾
꺀
꺄
꺅
꺆
꺈
꺊
꺋
꺌
꺍
꺏
꺓
꺔
꺕
꺗
꺘
꺙
꺚
꺜
꺟
꺠
꺢
꺤
꺨
꺰
꺳
꺴
꺵
꺼
꺽
꺾
껀
껃
껄
껅
껇
껌
껍
껏
껐
껑
껒
껓
껔
껕
껗
께
껙
껚
껜
껠
껨
껩
껫
껬
껭
껰
껳
껴
껵
껶
껸
껼
꼄
꼅
꼇
꼈
꼉
꼊
꼌
꼍
꼏
꼐
꼣
꼤
꼥
꼨
꼬
꼭
꼮
꼰
꼲
꼳
꼴
꼵
꼶
꼷
꼹
꼻
꼼
꼽
꼿
꽀
꽁
꽂
꽃
꽄
꽅
꽆
꽇
꽈
꽉
꽊
꽌
꽐
꽑
꽘
꽙
꽛
꽜
꽝
꽠
꽤
꽥
꽦
꽨
꽭
꽳
꽴
꽹
꽼
꾀
꾁
꾄
꾈
꾐
꾕
꾜
꾝
꾠
꾤
꾬
꾭
꾱
꾳
꾸
꾹
꾺
꾼
꾾
꾿
꿀
꿁
꿂
꿃
꿄
꿇
꿈
꿉
꿋
꿌
꿍
꿎
꿏
꿐
꿑
꿓
꿔
꿕
꿘
꿜
꿝
꿤
꿥
꿧
꿨
꿩
꿬
꿯
꿰
꿱
꿲
꿴
꿸
꿹
꿻
꿿
뀀
뀃
뀄
뀅
뀈
뀌
뀍
뀐
뀔
뀜
뀝
뀟
뀠
뀡
뀤
뀨
뀩
뀪
뀬
뀰
뀱
뀳
뀷
뀸
뀹
뀻
뀽
끀
끄
끅
끆
끈
끉
끊
끋
끌
끍
끎
끏
끐
끓
끔
끕
끗
끘
끙
끚
끛
끜
끝
끞
끟
끠
끡
끤
끨
끯
끰
끵
끸
끼
끽
끾
낀
낂
낃
낄
낅
낋
낌
낍
낎
낏
낐
낑
낒
낓
낔
낕
낗
나
낙
낚
낛
난
낝
낞
낟
날
낡
낢
낣
낤
낥
낧
남
납
낪
낫
났
낭
낮
낯
낰
낱
낲
낳
내
낵
낶
낸
낻
낼
냄
냅
냇
냈
냉
냊
냋
냌
냍
냎
냏
냐
냑
냒
냔
냗
냘
냙
냠
냡
냣
냤
냥
냦
냧
냨
냩
냪
냫
냬
냰
냴
냼
냿
넀
넁
넄
너
넉
넊
넋
넌
넎
넏
널
넑
넒
넓
넔
넖
넗
넘
넙
넚
넛
넜
넝
넞
넟
넠
넡
넢
넣
네
넥
넦
넧
넨
넫
넬
넭
넴
넵
넶
넷
넸
넹
넺
넻
넼
넽
넾
넿
녀
녁
녂
년
녅
녆
녇
녈
념
녑
녓
녔
녕
녖
녗
녘
녙
녚
녛
녜
녝
녟
녠
녤
녬
녭
녯
녰
녱
녴
노
녹
녺
녻
논
녽
녾
녿
놀
놁
놂
놃
놇
놈
놉
놊
놋
놌
농
놎
놏
놐
놑
높
놓
놔
놕
놖
놘
놛
놜
놝
놤
놥
놧
놨
놩
놪
놬
놯
놰
놴
놸
뇀
뇁
뇄
뇅
뇌
뇍
뇐
뇔
뇜
뇝
뇟
뇠
뇡
뇤
뇨
뇩
뇬
뇰
뇸
뇹
뇻
뇽
눀
눂
눃
누
눅
눈
눉
눋
눌
눍
눓
눔
눕
눗
눙
눚
눛
눜
눝
눞
눟
눠
눤
눨
눰
눳
눴
눵
눸
눹
눼
눽
뉀
뉄
뉅
뉌
뉍
뉑
뉔
뉘
뉙
뉜
뉠
뉨
뉩
뉫
뉬
뉭
뉰
뉴
뉵
뉸
뉼
늄
늅
늇
늉
늌
늎
늏
느
늑
늒
늓
는
늕
늖
늗
늘
늙
늚
늛
늜
늟
늠
늡
늣
늤
능
늦
늧
늨
늩
늪
늫
늬
늭
늰
늴
늼
늽
늿
닁
닄
니
닉
닊
닋
닌
닍
닏
닐
닑
닒
닗
님
닙
닚
닛
닜
닝
닞
닟
닠
닡
닢
닣
다
닥
닦
닧
단
닩
닪
닫
달
닭
닮
닯
닰
닱
닲
닳
담
답
닶
닷
닸
당
닺
닻
닼
닽
닾
닿
대
댁
댂
댄
댇
댈
댉
댏
댐
댑
댓
댔
댕
댖
댗
댘
댙
댚
댛
댜
댝
댠
댣
댤
댥
댦
댬
댭
댯
댰
댱
댲
댴
댷
댸
댼
덀
덈
덋
덌
덍
더
덕
덖
덗
던
덙
덛
덜
덝
덞
덟
덢
덣
덤
덥
덦
덧
덨
덩
덪
덫
덬
덭
덮
덯
데
덱
덲
덴
덷
델
덹
뎀
뎁
뎂
뎃
뎄
뎅
뎆
뎇
뎈
뎉
뎊
뎋
뎌
뎍
뎐
뎓
뎔
뎜
뎝
뎟
뎠
뎡
뎤
뎦
뎧
뎨
뎬
뎻
뎽
도
독
돆
돇
돈
돉
돋
돌
돍
돎
돏
돐
돒
돓
돔
돕
돖
돗
돘
동
돚
돛
돜
돝
돞
돟
돠
돡
돤
돨
돩
돰
돱
돳
돴
돵
돸
돻
돼
돽
돾
됀
됃
됄
됌
됍
됏
됐
됑
됒
됔
됗
되
됙
됚
된
됝
됟
될
됡
됢
됤
됥
됧
됨
됩
됫
됬
됭
됮
됰
됱
됳
됴
됵
됸
됻
됼
둄
둅
둇
둉
둊
둋
둌
둏
두
둑
둒
둔
둗
둘
둙
둚
둛
둞
둟
둠
둡
둣
둥
둦
둧
둨
둩
둪
둫
둬
둭
둰
둴
둼
둽
둿
뒀
뒁
뒄
뒇
뒈
뒌
뒐
뒑
뒓
뒘
뒙
뒛
뒜
뒝
뒞
뒠
뒤
뒥
뒨
뒫
뒬
뒴
뒵
뒷
뒸
뒹
뒺
뒼
듀
듁
듄
듇
듈
듐
듑
듓
듕
듘
드
득
듞
듟
든
듡
듢
듣
들
듥
듦
듧
듨
듩
듪
듫
듬
듭
듯
듰
등
듲
듳
듴
듵
듶
듷
듸
듹
듼
딀
딈
딉
딋
딍
디
딕
딖
딘
딛
딜
딝
딞
딣
딤
딥
딧
딨
딩
딪
딫
딬
딭
딮
딯
따
딱
딲
딳
딴
딷
딸
딹
딺
딻
딿
땀
땁
땃
땄
땅
땆
땈
땉
땋
때
땍
땎
땐
땓
땔
땜
땝
땟
땠
땡
땢
땣
땤
땦
땧
땨
땩
땬
땰
땸
땽
떃
떄
떅
떈
떌
떔
떗
떘
떙
떠
떡
떢
떣
떤
떥
떦
떧
떨
떩
떪
떫
떮
떯
떰
떱
떳
떴
떵
떶
떷
떸
떹
떺
떻
떼
떽
떾
뗀
뗄
뗌
뗍
뗏
뗐
뗑
뗔
뗗
뗘
뗙
뗜
뗠
뗨
뗫
뗬
뗭
뗳
뗴
뗵
뗸
뗼
똇
똈
또
똑
똒
똔
똗
똘
똙
똚
똝
똟
똠
똡
똣
똥
똦
똧
똨
똩
똫
똬
똭
똮
똰
똴
똵
똷
똻
똼
똽
똿
뙀
뙁
뙄
뙇
뙈
뙌
뙓
뙛
뙜
뙝
뙤
뙥
뙨
뙬
뙴
뙷
뙸
뙹
뙿
뚀
뚁
뚄
뚈
뚊
뚕
뚜
뚝
뚞
뚠
뚢
뚣
뚤
뚥
뚦
뚧
뚨
뚫
뚬
뚭
뚯
뚱
뚴
뚵
뚷
뚸
뚹
뚼
뛀
뛃
뛋
뛌
뛍
뛓
뛔
뛕
뛝
뛟
뛣
뛥
뛧
뛨
뛰
뛱
뛴
뛸
뜀
뜁
뜃
뜄
뜅
뜌
뜍
뜐
뜔
뜛
뜜
뜝
뜡
뜨
뜩
뜪
뜬
뜮
뜯
뜰
뜱
뜳
뜷
뜸
뜹
뜻
뜼
뜽
뜾
뜿
띀
띁
띃
띄
띅
띈
띌
띔
띕
띙
띟
띠
띡
띤
띧
띨
띰
띱
띳
띴
띵
띶
띸
띻
라
락
띾
띿
란
랁
랂
랃
랄
랅
랆
랇
랈
랉
랊
랋
람
랍
랎
랏
랐
랑
랒
랓
랔
랕
랖
랗
래
랙
랚
랜
랟
랠
랡
램
랩
랫
랬
랭
랮
랯
랰
랱
랲
랳
랴
략
랸
랺
랻
랼
럄
럅
럇
럈
량
럊
럌
럎
럏
럐
럑
럔
럗
럘
럠
럣
럤
럥
러
럭
럮
럯
런
럱
럲
럳
럴
럵
럶
럷
럸
럻
럼
럽
럾
럿
렀
렁
렂
렃
렄
렅
렆
렇
레
렉
렊
렋
렌
렏
렐
렑
렓
렗
렘
렙
렚
렛
렜
렝
렞
렠
렡
렢
렣
려
력
렦
렧
련
렩
렪
렫
렬
렭
렴
렵
렷
렸
령
렺
렻
렼
렽
렾
렿
례
롁
롄
롈
롐
롑
롓
롔
롕
롘
로
록
롞
론
롡
롣
롤
롥
롫
롬
롭
롮
롯
롰
롱
롲
롳
롴
롵
롶
롷
롸
롹
롻
롼
뢀
뢁
뢈
뢉
뢋
뢌
뢍
뢐
뢓
뢔
뢕
뢘
뢜
뢥
뢨
뢩
뢰
뢱
뢴
뢸
룀
룁
룃
룄
룅
룈
료
룍
룐
룔
룜
룝
룟
룠
룡
룢
룤
룧
루
룩
룪
룬
룯
룰
룱
룷
룸
룹
룻
룽
룾
룿
뤀
뤁
뤂
뤃
뤄
뤅
뤈
뤌
뤔
뤕
뤗
뤘
뤙
뤜
뤟
뤠
뤡
뤤
뤨
뤩
뤫
뤰
뤱
뤳
뤵
뤸
뤼
뤽
륀
륄
륌
륍
륏
륐
륑
륔
류
륙
륜
륟
률
륨
륩
륫
륭
륮
륰
륲
륳
르
륵
륶
른
륹
륻
를
륽
륾
륿
릀
릁
릂
릃
름
릅
릆
릇
릈
릉
릊
릋
릌
릍
릎
릏
릐
릑
릔
릘
릠
릡
릣
릥
릫
리
릭
릮
린
릱
릲
릳
릴
릵
릶
릷
릸
릹
릻
림
립
릾
릿
맀
링
맂
맃
맄
맅
맆
맇
마
막
맊
맋
만
맍
많
맏
말
맑
맒
맓
맔
맕
맖
맗
맘
맙
맚
맛
맜
망
맞
맟
맠
맡
맢
맣
매
맥
맨
맩
맪
맫
맬
맴
맵
맷
맸
맹
맺
맻
맼
맽
맿
먀
먁
먄
먆
먇
먈
먐
먑
먓
먕
먖
먗
먘
먛
먜
먠
먤
먱
머
먹
먺
먻
먼
먽
먾
먿
멀
멁
멂
멈
멉
멊
멋
멌
멍
멎
멏
멐
멑
멒
멓
메
멕
멘
멛
멜
멤
멥
멧
멨
멩
멪
멫
멬
멭
멮
멯
며
멱
멲
면
멵
멶
멷
멸
멿
몀
몁
몃
몄
명
몆
몇
몈
몉
몊
몋
몌
몐
몔
몟
몡
몢
몣
모
목
몪
몫
몬
몮
몯
몰
몱
몲
몴
몷
몸
몹
몺
못
몼
몽
몾
몿
뫀
뫁
뫂
뫃
뫄
뫅
뫈
뫌
뫔
뫕
뫗
뫘
뫙
뫚
뫜
뫠
뫤
뫼
뫽
묀
묄
묏
묑
묘
묙
묜
묠
묨
묫
묭
묯
무
묵
묶
묷
문
묹
묺
묻
물
묽
묾
묿
뭀
뭁
뭃
뭄
뭅
뭇
뭈
뭉
뭊
뭋
뭌
뭍
뭎
뭏
뭐
뭑
뭔
뭕
뭗
뭘
뭙
뭚
뭟
뭠
뭡
뭣
뭤
뭥
뭦
뭧
뭨
뭩
뭫
뭬
뭭
뭰
뭴
뭵
뭷
뭽
뭿
뮁
뮈
뮉
뮌
뮏
뮐
뮘
뮙
뮛
뮜
뮝
뮤
뮥
뮦
뮨
뮫
뮬
뮴
뮷
뮹
뮻
뮼
므
믁
믂
믄
믆
믇
믈
믉
믌
믏
믐
믑
믓
믕
믖
믘
믙
믛
믜
믝
믠
믣
믤
믬
믯
믰
믱
미
믹
믺
믻
민
믽
믾
믿
밀
밁
밂
밇
밈
밉
밊
밋
밌
밍
밎
및
밐
밑
밒
밓
바
박
밖
밗
반
밙
밚
받
발
밝
밞
밟
밠
밡
밢
밣
밤
밥
밦
밧
밨
방
밪
밫
밬
밭
밮
밯
배
백
밲
밳
밴
밷
밸
밹
밿
뱀
뱁
뱃
뱄
뱅
뱆
뱇
뱈
뱉
뱊
뱋
뱌
뱍
뱎
뱐
뱓
뱔
뱕
뱗
뱛
뱜
뱝
뱟
뱡
뱤
뱥
뱨
뱩
뱬
뱰
뱸
뱽
벁
버
벅
벆
번
벉
벊
벋
벌
벍
벎
벏
벐
벑
벓
범
법
벖
벗
벘
벙
벚
벛
벜
벝
벞
벟
베
벡
벤
벧
벨
벩
벫
벯
벰
벱
벲
벳
벴
벵
벶
벷
벸
벹
벺
벻
벼
벽
벾
변
볁
볂
볃
별
볅
볆
볇
볈
볋
볌
볍
볎
볏
볐
병
볒
볓
볔
볕
볖
볗
볘
볙
볜
볠
볫
볭
보
복
볶
볷
본
볹
볻
볼
볽
볾
봀
봁
봃
봄
봅
봆
봇
봈
봉
봊
봋
봌
봍
봎
봏
봐
봑
봒
봔
봗
봘
봙
봟
봠
봡
봣
봤
봥
봦
봨
봩
봫
봬
봭
봰
봴
봵
봽
봿
뵀
뵁
뵈
뵉
뵌
뵏
뵐
뵑
뵘
뵙
뵛
뵜
뵝
뵞
뵠
뵤
뵥
뵨
뵬
뵴
뵵
뵷
뵹
뵺
부
북
붂
붃
분
붅
붆
붇
불
붉
붊
붋
붌
붍
붎
붏
붐
붑
붓
붔
붕
붖
붗
붘
붙
붚
붛
붜
붝
붠
붤
붥
붬
붭
붯
붰
붱
붴
붸
붹
붼
뷀
뷁
뷃
뷇
뷉
뷋
뷍
뷐
뷔
뷕
뷘
뷜
뷤
뷥
뷧
뷩
뷮
뷰
뷱
뷴
뷷
뷸
뷹
븀
븁
븂
븃
븅
븈
븉
븋
브
븍
븎
븏
븐
븓
블
븕
븛
븜
븝
븞
븟
븡
븢
븤
븥
븦
븧
븨
븩
븬
븰
븸
븹
븻
븽
빂
비
빅
빆
빇
빈
빋
빌
빍
빎
빏
빓
빔
빕
빖
빗
빘
빙
빚
빛
빜
빝
빞
빟
빠
빡
빢
빣
빤
빧
빨
빩
빪
빫
빬
빭
빯
빰
빱
빳
빴
빵
빶
빷
빸
빹
빺
빻
빼
빽
빾
뺀
뺃
뺄
뺅
뺌
뺍
뺏
뺐
뺑
뺒
뺓
뺔
뺕
뺗
뺘
뺙
뺚
뺜
뺠
뺡
뺨
뺩
뺫
뺭
뺴
뺵
뺶
뺸
뺼
뻁
뻄
뻇
뻈
뻉
뻐
뻑
뻒
뻔
뻕
뻖
뻗
뻘
뻙
뻠
뻡
뻣
뻤
뻥
뻦
뻨
뻩
뻪
뻫
뻬
뻭
뻰
뻴
뻼
뻿
뼀
뼁
뼈
뼉
뼊
뼌
뼏
뼐
뼑
뼘
뼙
뼛
뼜
뼝
뼠
뼡
뼤
뼬
뽀
뽁
뽂
뽄
뽇
뽈
뽐
뽑
뽓
뽕
뽖
뽘
뽚
뽛
뽜
뽝
뽞
뽠
뽤
뽥
뽫
뽬
뽭
뽯
뽰
뽱
뽴
뽷
뽸
뽹
뾀
뾃
뾔
뾥
뾰
뾱
뾲
뾴
뾸
뿁
뿃
뿅
뿌
뿍
뿎
뿐
뿑
뿓
뿔
뿕
뿛
뿜
뿝
뿟
뿠
뿡
뿤
뿥
뿧
뿨
뿩
뿬
뿰
뿱
뿳
뿹
뿽
쀀
쀄
쀅
쀈
쀌
쀍
쀏
쀒
쀓
쀠
쀡
쀨
쀳
쀵
쀼
쀽
쀾
쁀
쁄
쁌
쁍
쁏
쁐
쁑
쁘
쁙
쁜
쁝
쁟
쁠
쁨
쁩
쁫
쁭
쁮
쁰
쁴
쁸
쁼
삉
삐
삑
삒
삔
삗
삘
삠
삡
삣
삤
삥
삦
삧
삨
삫
사
삭
삮
삯
산
삱
삲
삳
살
삵
삶
삷
삸
삹
삺
삻
삼
삽
삾
삿
샀
상
샂
샃
샄
샅
샆
샇
새
색
샊
샋
샌
샎
샏
샐
샑
샒
샓
샔
샕
샗
샘
샙
샚
샛
샜
생
샞
샟
샠
샡
샢
샣
샤
샥
샦
샨
샫
샬
샮
샴
샵
샷
샸
샹
샼
샽
샾
샿
섀
섁
섂
섄
섈
섉
섊
섐
섑
섓
섔
섕
섘
서
석
섞
섟
선
섡
섢
섣
설
섥
섦
섧
섨
섩
섪
섫
섬
섭
섮
섯
섰
성
섲
섳
섴
섵
섶
섷
세
섹
섺
섻
센
섽
섿
셀
셁
셂
셃
셆
셇
셈
셉
셋
셌
셍
셎
셏
셐
셑
셒
셓
셔
셕
셖
션
셛
셜
셟
셤
셥
셧
셨
셩
셪
셫
셬
셭
셮
셯
셰
셱
셲
셴
셸
솀
솁
솃
솄
솅
솈
솉
솊
소
속
솎
솏
손
솑
솒
솓
솔
솕
솖
솛
솜
솝
솟
솠
송
솢
솣
솤
솥
솦
솧
솨
솩
솬
솰
솸
솹
솻
솼
솽
쇀
쇄
쇅
쇆
쇈
쇌
쇔
쇗
쇘
쇙
쇜
쇟
쇠
쇡
쇣
쇤
쇨
쇱
쇳
쇵
쇸
쇼
쇽
숀
숄
숌
숍
숏
숐
숑
숔
숖
숗
수
숙
숚
순
숝
숟
술
숡
숢
숤
숧
숨
숩
숪
숫
숬
숭
숮
숯
숰
숱
숲
숳
숴
숵
숶
숸
숼
쉄
쉅
쉇
쉈
쉉
쉌
쉐
쉑
쉒
쉓
쉔
쉗
쉘
쉙
쉚
쉛
쉜
쉞
쉟
쉠
쉡
쉣
쉤
쉥
쉧
쉨
쉩
쉪
쉫
쉬
쉭
쉮
쉰
쉲
쉳
쉴
쉻
쉼
쉽
쉾
쉿
슀
슁
슂
슄
슅
슆
슇
슈
슉
슌
슏
슐
슘
슙
슛
슝
슞
슟
슠
슢
스
슥
슦
슧
슨
슩
슫
슬
슭
슮
슯
슰
슲
슳
슴
습
슶
슷
슸
승
슺
슻
슼
슽
슾
슿
싀
싁
싄
싅
싆
싇
싈
싐
싑
싓
싕
싖
싘
싙
싚
시
식
싞
싟
신
싡
싢
싣
실
싥
싦
싧
싨
싩
싪
싫
심
십
싮
싯
싰
싱
싲
싳
싴
싵
싶
싷
싸
싹
싺
싻
싼
싾
싿
쌀
쌂
쌇
쌈
쌉
쌋
쌌
쌍
쌎
쌐
쌑
쌒
쌓
쌔
쌕
쌖
쌗
쌘
쌛
쌜
쌞
쌟
쌤
쌥
쌧
쌨
쌩
쌬
쌯
쌰
쌱
쌴
쌸
쌻
썀
썁
썃
썄
썅
썋
썌
썍
썎
썐
썔
썖
썜
썝
썟
썠
썡
써
썩
썪
썫
썬
썯
썰
썱
썳
썸
썹
썻
썼
썽
썾
쎀
쎁
쎂
쎃
쎄
쎅
쎆
쎇
쎈
쎌
쎍
쎓
쎔
쎕
쎗
쎘
쎙
쎜
쎝
쎟
쎠
쎡
쎤
쎨
쎰
쎱
쎳
쎴
쎵
쎼
쎽
쎾
쏀
쏃
쏄
쏌
쏏
쏐
쏔
쏖
쏘
쏙
쏚
쏜
쏟
쏠
쏨
쏩
쏫
쏬
쏭
쏮
쏰
쏱
쏳
쏴
쏵
쏸
쏼
쐄
쐅
쐇
쐈
쐉
쐌
쐏
쐐
쐑
쐒
쐣
쐤
쐥
쐨
쐬
쐭
쐰
쐴
쐼
쐽
쐿
쑀
쑈
쑉
쑌
쑐
쑙
쑛
쑝
쑤
쑥
쑦
쑨
쑫
쑬
쑴
쑵
쑷
쑹
쑻
쑼
쒀
쒁
쒂
쒄
쒈
쒐
쒑
쒓
쒔
쒕
쒘
쒜
쒝
쒞
쒠
쒤
쒥
쒧
쒫
쒭
쒯
쒰
쒱
쒴
쒵
쒸
쒹
쒼
쓀
쓃
쓈
쓉
쓊
쓋
쓌
쓍
쓐
쓑
쓒
쓔
쓕
쓘
쓜
쓤
쓥
쓩
쓰
쓱
쓲
쓴
쓷
쓸
쓹
쓺
쓿
씀
씁
씂
씃
씄
씅
씆
씇
씈
씉
씊
씋
씌
씍
씐
씔
씗
씜
씝
씞
씟
씡
씢
씤
씥
씦
씧
씨
씩
씪
씬
씮
씯
씰
씱
씳
씶
씷
씸
씹
씺
씻
씼
씽
씾
씿
앀
앁
앂
앃
아
악
앆
앇
안
앉
않
앋
알
앍
앎
앏
앐
앑
앒
앓
암
압
앖
앗
았
앙
앚
앛
앜
앝
앞
앟
애
액
앢
앣
앤
앦
앧
앨
앩
앰
앱
앲
앳
앴
앵
앶
앷
앸
앹
앺
앻
야
약
앾
앿
얀
얁
얂
얃
얄
얅
얆
얇
얉
얊
얋
얌
얍
얎
얏
얐
양
얒
얓
얔
얕
얖
얗
얘
얙
얜
얠
얨
얩
얪
얫
얬
얭
얮
얰
얳
어
억
얶
얷
언
얹
얺
얻
얼
얽
얾
얿
엀
엁
엂
엃
엄
업
없
엇
었
엉
엊
엋
엌
엍
엎
엏
에
엑
엒
엓
엔
엕
엗
엘
엙
엜
엞
엠
엡
엢
엣
엤
엥
엦
엧
엨
엩
엪
엫
여
역
엮
엯
연
엱
엲
엳
열
엵
엶
엷
엸
엹
엻
염
엽
엾
엿
였
영
옂
옃
옄
옅
옆
옇
예
옉
옌
옐
옘
옙
옛
옜
옝
옞
옟
옠
옢
옣
오
옥
옦
옧
온
옩
옪
옫
올
옭
옮
옯
옰
옱
옲
옳
옴
옵
옶
옷
옸
옹
옺
옻
옼
옽
옾
옿
와
왁
왂
완
왅
왆
왇
왈
왉
왐
왑
왓
왔
왕
왖
왗
왘
왙
왚
왛
왜
왝
왠
왡
왢
왤
왥
왬
왭
왯
왰
왱
왲
왳
왴
왶
왷
외
왹
왼
욀
욈
욉
욋
욌
욍
욎
욐
욓
요
욕
욖
욗
욘
욛
욜
욝
욣
욤
욥
욧
욨
용
욪
욫
욬
욭
욮
욯
우
욱
욲
욳
운
욵
욷
울
욹
욺
욻
욼
욽
욾
욿
움
웁
웂
웃
웄
웅
웆
웇
웈
웉
웊
웋
워
웍
웎
원
웑
웒
웓
월
웕
웖
웗
웘
웙
웚
웛
웜
웝
웞
웟
웠
웡
웢
웣
웤
웥
웦
웧
웨
웩
웪
웬
웯
웰
웱
웳
웸
웹
웺
웻
웼
웽
웾
윀
윁
윂
위
윅
윈
윋
윌
윔
윕
윖
윗
윘
윙
윚
윜
윝
윟
유
육
윢
윣
윤
윥
윧
율
윯
윰
윱
윳
융
윶
윷
윸
윹
윺
윻
으
윽
윾
윿
은
읁
읂
읃
을
읅
읆
읇
읈
읉
읊
읋
음
읍
읎
읏
읐
응
읒
읓
읔
읕
읖
읗
의
읙
읜
읟
읠
읨
읩
읪
읫
읬
읭
읮
읯
읰
읱
읲
읳
이
익
읶
읷
인
읹
읺
읻
일
읽
읾
읿
잀
잁
잂
잃
임
입
잆
잇
있
잉
잊
잋
잌
잍
잎
잏
자
작
잒
잓
잔
잕
잖
잗
잘
잙
잚
잛
잜
잝
잞
잟
잠
잡
잢
잣
잤
장
잦
잧
잨
잩
잪
잫
재
잭
잮
잰
잲
잳
잴
잼
잽
잿
쟀
쟁
쟂
쟃
쟄
쟅
쟆
쟇
쟈
쟉
쟌
쟎
쟏
쟐
쟘
쟙
쟛
쟜
쟝
쟞
쟟
쟠
쟡
쟣
쟤
쟥
쟨
쟬
쟴
쟸
쟹
쟼
저
적
젂
젃
전
젅
젆
젇
절
젉
젊
젋
젌
젍
젎
젏
점
접
젒
젓
젔
정
젖
젗
젘
젙
젚
젛
제
젝
젞
젠
젡
젣
젤
젬
젭
젯
젰
젱
젲
젳
젴
젵
젶
젷
져
젹
젺
젼
젾
젿
졀
졂
졈
졉
졋
졌
졍
졎
졏
졐
졑
졒
졓
졔
졘
졜
졨
조
족
졲
졳
존
졵
졶
졷
졸
졹
졺
졻
졽
졿
좀
좁
좂
좃
좄
종
좆
좇
좈
좉
좊
좋
좌
좍
좎
좐
좒
좓
좔
좜
좝
좟
좠
좡
좢
좣
좤
좥
좦
좧
좨
좩
좬
좭
좮
좯
좰
좱
좸
좼
좽
죄
죅
죈
죌
죔
죕
죗
죘
죙
죚
죜
죝
죠
죡
죢
죣
죤
죥
죧
죨
죰
죱
죳
죴
죵
죶
죷
죸
죹
죺
죻
주
죽
죾
죿
준
줁
줂
줃
줄
줅
줆
줈
줉
줊
줋
줌
줍
줏
줐
중
줒
줓
줔
줕
줖
줗
줘
줙
줚
줜
줝
줟
줠
줨
줩
줫
줬
줭
줮
줯
줰
줱
줳
줴
줵
줸
줼
쥄
쥅
쥇
쥈
쥉
쥐
쥑
쥔
쥘
쥠
쥡
쥣
쥤
쥥
쥦
쥨
쥫
쥬
쥭
쥰
쥳
쥴
쥼
쥽
쥿
즁
즂
즄
즇
즈
즉
즋
즌
즎
즏
즐
즑
즘
즙
즛
즜
증
즞
즟
즠
즡
즣
즤
즥
즨
즬
즴
즵
즷
즹
즺
즼
지
직
짂
짃
진
짅
짆
짇
질
짉
짊
짋
짌
짍
짎
짏
짐
집
짒
짓
짔
징
짖
짗
짘
짙
짚
짛
짜
짝
짞
짠
짢
짣
짤
짥
짦
짧
짪
짫
짬
짭
짮
짯
짰
짱
짲
짳
짴
짵
짶
짷
째
짹
짺
짼
짾
짿
쨀
쨈
쨉
쨋
쨌
쨍
쨎
쨐
쨓
쨔
쨕
쨖
쨘
쨚
쨜
쨟
쨤
쨥
쨧
쨨
쨩
쨬
쨰
쨱
쨲
쨴
쩀
쩁
쩃
쩄
쩅
쩌
쩍
쩎
쩐
쩑
쩓
쩔
쩕
쩖
쩗
쩘
쩛
쩜
쩝
쩟
쩠
쩡
쩢
쩣
쩤
쩦
쩧
쩨
쩩
쩬
쩰
쩸
쩹
쩻
쩼
쩽
쪄
쪅
쪈
쪌
쪔
쪕
쪗
쪘
쪙
쪚
쪜
쪟
쪠
쪵
쪹
쪻
쪼
쪽
쪾
쪿
쫀
쫂
쫃
쫄
쫅
쫌
쫍
쫏
쫐
쫑
쫒
쫓
쫔
쫕
쫖
쫗
쫘
쫙
쫚
쫛
쫜
쫟
쫠
쫨
쫩
쫫
쫭
쫰
쫴
쫵
쬈
쬎
쬐
쬑
쬔
쬘
쬠
쬡
쬥
쬬
쬭
쬮
쬰
쬲
쬴
쬼
쬽
쬿
쭀
쭁
쭂
쭃
쭄
쭅
쭈
쭉
쭊
쭌
쭏
쭐
쭕
쭘
쭙
쭛
쭝
쭞
쭟
쭠
쭤
쭥
쭨
쭬
쭭
쭵
쭷
쭸
쭹
쭻
쮀
쮁
쮇
쮉
쮑
쮓
쮔
쮕
쮜
쮝
쮠
쮤
쮭
쮱
쮸
쮹
쮼
쯀
쯈
쯉
쯋
쯍
쯎
쯔
쯕
쯘
쯛
쯜
쯤
쯥
쯧
쯨
쯩
쯪
쯫
쯰
쯱
쯴
찁
찅
찌
찍
찎
찏
찐
찓
찔
찗
찜
찝
찟
찠
찡
찢
찣
찤
찥
찦
찧
차
착
찪
찫
찬
찭
찮
찯
찰
찱
찲
찳
찴
찷
참
찹
찻
찼
창
찾
찿
챀
챁
챂
챃
채
책
챈
챊
챋
챌
챔
챕
챗
챘
챙
챚
챜
챝
챠
챡
챤
챦
챨
챫
챰
챱
챳
챴
챵
챶
챷
챸
챺
챻
챼
챽
첑
처
척
천
첝
첞
첟
철
첡
첢
첣
첤
첧
첨
첩
첪
첫
첬
청
첮
첯
첰
첱
첲
첳
체
첵
첸
첻
첼
쳄
쳅
쳇
쳈
쳉
쳊
쳋
쳌
쳍
쳏
쳐
쳑
쳒
쳔
쳗
쳘
쳠
쳡
쳢
쳣
쳤
쳥
쳦
쳧
쳨
쳫
쳬
쳭
쳰
쳴
촀
초
촉
촌
촏
촐
촔
촘
촙
촛
촜
총
촞
촟
촠
촡
촣
촤
촥
촨
촪
촬
촴
촵
촷
촹
촺
촼
쵀
쵁
쵕
최
쵝
쵠
쵤
쵭
쵮
쵯
쵱
쵴
쵸
쵹
쵼
쵿
춀
춈
춉
춋
춌
춍
춎
춏
춐
추
축
춘
춚
춛
출
춝
춞
춟
춠
춡
춣
춤
춥
춧
충
춪
춫
춬
춭
춮
춯
춰
춱
춴
춸
췁
췃
췄
췅
췆
췈
췌
췍
췐
췔
췕
췜
췝
췟
췡
췤
취
췩
췬
췰
췸
췹
췻
췼
췽
츀
츄
츅
츈
츌
츔
츕
츗
츙
츛
츜
츞
츠
측
츤
츧
츨
츰
츱
츳
층
츶
츷
츸
츹
츼
츽
칀
칄
칌
칍
칑
칔
치
칙
친
칝
칞
칟
칠
칡
칢
칤
칧
침
칩
칫
칬
칭
칮
칯
칰
칱
칲
칳
카
칵
칶
칸
칻
칼
칽
캄
캅
캆
캇
캈
캉
캊
캋
캌
캍
캎
캏
캐
캑
캔
캘
캙
캠
캡
캢
캣
캤
캥
캨
캩
캪
캬
캭
캮
캰
캴
캵
캼
캽
캿
컀
컁
컄
컅
컇
컈
커
컥
컨
컫
컬
컭
컯
컴
컵
컷
컸
컹
컺
컼
컽
컾
컿
케
켁
켄
켇
켈
켉
켐
켑
켓
켔
켕
켘
켙
켚
켛
켜
켝
켞
켠
켤
켬
켭
켯
켰
켱
켲
켴
켵
켷
켸
켼
콋
콌
코
콕
콘
콛
콜
콤
콥
콧
콩
콪
콫
콬
콭
콮
콯
콰
콱
콲
콴
콸
쾀
쾃
쾅
쾈
쾌
쾍
쾐
쾡
쾤
쾨
쾩
쾬
쾰
쾽
쿄
쿅
쿈
쿌
쿔
쿗
쿙
쿜
쿠
쿡
쿢
쿤
쿧
쿨
쿩
쿫
쿯
쿰
쿱
쿳
쿵
쿸
쿹
쿺
쿻
쿼
쿽
퀀
퀄
퀌
퀏
퀐
퀑
퀔
퀘
퀙
퀜
퀠
퀡
퀫
퀭
퀰
퀴
퀵
퀸
퀻
퀼
큄
큅
큇
큉
큌
큐
큑
큔
큘
큠
큡
큣
큥
큨
큩
큪
크
큭
큮
큰
큲
큳
클
큵
큷
큻
큼
큽
큿
킀
킁
킂
킄
킅
킆
킇
킈
킉
킌
킐
킘
킝
킠
키
킥
킦
킨
킫
킬
킴
킵
킶
킷
킸
킹
킺
킼
킽
킾
킿
타
탁
탂
탄
탅
탆
탇
탈
탉
탊
탍
탏
탐
탑
탓
탔
탕
탖
탗
탘
탙
탚
탛
태
택
탞
탟
탠
탣
탤
탬
탭
탯
탰
탱
탲
탴
탵
탶
탷
탸
탹
탼
턀
턈
턉
턋
턍
턐
턑
턔
턕
턘
턩
터
턱
턴
턷
털
턹
턺
텀
텁
텂
텃
텄
텅
텆
텇
텈
텉
텊
텋
테
텍
텐
텓
텔
템
텝
텟
텠
텡
텢
텣
텤
텥
텦
텧
텨
텩
텬
텰
텸
텹
텻
텼
텽
톀
톃
톄
톅
톈
톌
톔
토
톡
톢
톤
톧
톨
톩
톪
톰
톱
톳
통
톶
톷
톸
톹
톺
톻
톼
톽
퇀
퇄
퇌
퇍
퇏
퇑
퇔
퇘
퇙
퇜
퇧
퇫
퇬
퇭
퇮
퇴
퇵
퇶
퇸
퇼
툄
툅
툇
툈
툉
툊
툌
툐
툑
툠
툣
툥
툨
툩
투
툭
툰
툱
툲
툳
툴
툻
툼
툽
툿
퉁
퉂
퉄
퉅
퉆
퉈
퉉
퉌
퉐
퉛
퉜
퉝
퉤
퉥
퉨
퉬
퉵
퉷
퉸
퉹
퉼
퉽
튀
튁
튄
튈
튐
튑
튓
튔
튕
튘
튜
튝
튠
튤
튬
튭
튱
튴
튵
튶
트
특
튺
튻
튼
튽
튿
틀
틁
틂
틅
틇
틈
틉
틊
틋
틍
틎
틏
틐
틑
틒
틓
틔
틕
틘
틜
틤
틧
틩
티
틱
틳
틴
틷
틸
팀
팁
팃
팄
팅
팆
팈
팉
팊
파
팍
팎
팏
판
팑
팒
팓
팔
팕
팖
팗
팘
팙
팚
팛
팜
팝
팟
팠
팡
팢
팣
팤
팥
팦
팧
패
팩
팬
팯
팰
팸
팹
팻
팼
팽
퍀
퍁
퍄
퍅
퍈
퍌
퍔
퍙
퍝
퍞
퍠
퍡
퍤
퍵
퍼
퍽
퍾
펀
펃
펄
펅
펌
펍
펏
펐
펑
펒
펔
펕
펖
펗
페
펙
펜
펟
펠
펨
펩
펫
펭
펰
펲
펴
펵
편
펹
펺
펻
펼
폄
폅
폇
폈
평
폌
폐
폑
폔
폘
폠
폡
폣
폥
폨
포
폭
폮
폯
폰
폳
폴
폼
폽
폿
퐁
퐂
퐄
퐅
퐆
퐇
퐈
퐉
퐌
퐐
퐑
퐘
퐙
퐛
퐜
퐝
퐠
퐣
퐤
퐥
퐨
푀
푁
푄
푈
푕
표
푝
푠
푤
푬
푭
푯
푱
푲
푴
푶
푷
푸
푹
푼
푿
풀
풁
풂
풃
풇
품
풉
풋
풍
풎
풏
풐
풑
풒
풓
풔
풕
풘
풜
풩
풬
풰
풱
풴
풸
풹
퓅
퓌
퓍
퓐
퓔
퓟
퓡
퓨
퓩
퓬
퓰
퓸
퓹
퓻
퓽
퓿
픀
픂
프
픅
픈
픋
플
픍
픎
픓
픔
픕
픗
픙
픚
픜
픝
픞
픟
픠
픤
픨
픵
픹
피
픽
핀
핃
필
핆
핋
핌
핍
핏
핐
핑
핒
핓
핔
핕
핖
핗
하
학
핚
핛
한
핝
핞
핟
할
핡
핢
핣
핤
핥
핦
핧
함
합
핪
핫
핬
항
핮
핯
핰
핱
핲
핳
해
핵
핶
핷
핸
핺
핻
핼
핽
햄
햅
햇
했
행
햊
햋
햌
햍
햎
햏
햐
햑
햔
햘
햙
햚
햛
햝
햟
햠
햡
햣
햤
향
햨
햩
햫
햬
햭
햰
햿
헀
헁
허
헉
헊
헋
헌
헍
헏
헐
헑
헒
헓
헔
헕
헗
험
헙
헚
헛
헜
헝
헞
헟
헠
헡
헢
헣
헤
헥
헦
헧
헨
헫
헬
헭
헯
헰
헱
헲
헳
헴
헵
헶
헷
헸
헹
헼
헽
헾
헿
혀
혁
혂
혃
현
혅
혆
혇
혈
혉
혐
협
혒
혓
혔
형
혖
혘
혙
혚
혛
혜
혝
혠
혤
혬
혭
혯
혰
혱
혲
혴
혷
호
혹
혺
혻
혼
혽
혾
혿
홀
홁
홅
홇
홈
홉
홋
홍
홎
홐
홑
홒
홓
화
확
홖
홗
환
홙
홛
활
홝
홟
홡
홣
홤
홥
홧
홨
황
홪
홫
홬
홭
홮
홯
홰
홱
홴
횃
횄
횅
회
획
횐
횓
횔
횜
횝
횟
횠
횡
횢
횤
횧
효
횩
횬
횰
횸
횹
횻
횽
훀
훃
후
훅
훈
훉
훊
훋
훌
훍
훏
훑
훓
훔
훕
훗
훙
훚
훛
훜
훝
훞
훟
훠
훡
훤
훨
훯
훰
훱
훳
훵
훸
훻
훼
훽
휀
휄
휅
휇
휍
휏
휐
휑
휔
휗
휘
휙
휜
휟
휠
휨
휩
휫
휭
휰
휲
휳
휴
휵
휸
휼
흄
흅
흇
흉
흊
흌
흎
흏
흐
흑
흒
흓
흔
흗
흘
흙
흚
흛
흜
흝
흟
흠
흡
흣
흤
흥
흦
흨
흩
흪
흫
희
흭
흰
흳
흴
흵
흼
흽
흿
힁
힂
힄
힇
히
힉
힊
힌
힏
힐
힑
힒
힕
힗
힘
힙
힛
힜
힝
힞
힟
힠
힡
힢
힣
％
##예
##부
##흥
##기
##로
##서
##e
##l
##a
##라
##는
##과
##표
##피
##증
##식
##등
##값
##떨
##어
##지
##진
##키
##니
##요
##쿠
##고
##문
##버
##리
##게
##뇨
##세
##얼
##굴
##이
##연
##히
##거
##절
##하
##겠
##아
##시
##설
##도
##집
##갈
##까
##바
##러
##가
##수
##무
##원
##다
##님
##걸
##릿
##것
##픈
##조
##건
##주
##싶
##은
##상
##추
##모
##력
##교
##정
##학
##회
##감
##동
##만
##착
##할
##있
##본
##쌀
##란
##2
##자
##유
##대
##한
##민
##국
##을
##명
##내
##스
##파
##브
##랜
##드
##코
##멜
##렸
##왔
##찌
##깍
##료
##목
##재
##의
##점
##애
##춘
##랑
##즈
##테
##카
##와
##나
##올
##려
##를
##때
##씨
##셀
##프
##언
##보
##에
##레
##몇
##번
##꾸
##들
##으
##댓
##베
##저
##화
##촌
##엿
##면
##린
##포
##월
##중
##망
##제
##죽
##했
##캣
##싼
##마
##크
##사
##쓰
##느
##덕
##책
##선
##쫌
##치
##매
##인
##었
##단
##0
##맞
##았
##데
##용
##작
##물
##네
##곧
##찢
##구
##처
##년
##통
##금
##볍
##겨
##르
##효
##신
##적
##필
##준
##성
##일
##소
##형
##F
##O
##C
##U
##S
##권
##투
##탁
##H
##A
##촉
##억
##오
##냐
##뤘
##야
##되
##북
##경
##협
##루
##없
##배
##열
##친
##터
##떻
##결
##같
##얘
##급
##안
##출
##컷
##넷
##생
##각
##업
##뎃
##런
##함
##앞
##잡
##끝
##날
##그
##놔
##둬
##령
##므
##약
##칫
##햇
##분
##손
##6
##3
##댐
##해
##발
##짓
##달
##법
##캐
##휴
##타
##놓
##글
##공
##엘
##더
##태
##킨
##훈
##툰
##딩
##승
##계
##토
##록
##벽
##영
##역
##뭐
##놨
##남
##람
##너
##호
##음
##뢰
##져
##깃
##독
##백
##우
##래
##개
##장
##방
##줘
##반
##던
##팅
##돼
##겟
##양
##체
##험
##비
##든
##훠
##슽
##격
##차
##됐
##봐
##께
##7
##9
##전
##삼
##평
##얻
##먹
##팔
##줄
##쟁
##떠
##술
##군
##였
##며
##찐
##머
##행
##여
##박
##웨
##븐
##빨
##갱
##색
##깔
##미
##휘
##랬
##변
##론
##류
##당
##갔
##실
##케
##움
##잘
##못
##노
##쨍
##논
##직
##운
##청
##트
##왕
##쫄
##X
##혀
##않
##티
##패
##쉬
##렇
##락
##산
##K
##육
##눈
##1
##짜
##활
##살
##석
##속
##넘
##관
##른
##M
##섭
##취
##량
##갑
##먼
##질
##압
##강
##심
##껏
##납
##검
##뒤
##임
##벌
##확
##켜
##곳
##헤
##8
##밥
##럼
##뿐
##빠
##됨
##섹
##4
##뮤
##션
##밀
##따
##k
##g
##항
##허
##돈
##혼
##퍼
##클
##맺
##났
##잊
##합
##닼
##롤
##헐
##펙
##새
##간
##5
##불
##곸
##썻
##뵈
##껄
##말
##탕
##왼
##쪽
##m
##q
##p
##T
##륜
##센
##펑
##쥬
##궈
##두
##긴
##플
##깐
##멋
##긍
##롬
##쁜
##습
##팩
##꽂
##받
##순
##홍
##봤
##쇼
##창
##닌
##병
##녜
##외
##채
##땅
##득
##뺐
##숙
##눌
##둥
##견
##묘
##i
##r
##h
##챙
##흐
##최
##널
##종
##봄
##씬
##접
##닥
##응
##탄
##놀
##디
##워
##귀
##송
##퀴
##냠
##챔
##될
##힘
##잖
##I
##캠
##잼
##잉
##향
##팀
##욕
##웃
##념
##댔
##죠
##꺄
##츠
##액
##쉐
##닦
##위
##듯
##풀
##꼭
##끼
##잣
##볼
##판
##멍
##d
##c
##앤
##온
##솔
##택
##n
##족
##입
##엔
##넓
##난
##슴
##김
##규
##척
##알
##s
##t
##셔
##농
##j
##왓
##E
##N
##o
##y
##슬
##칙
##놈
##특
##례
##잭
##범
##샘
##칸
##킹
##많
##죄
##롭
##혔
##괘
##씸
##빛
##퀘
##턴
##후
##좋
##침
##렀
##꾼
##꿔
##몾
##믿
##된
##빡
##셨
##콧
##핑
##탐
##끄
##v
##누
##똥
##콥
##엄
##싫
##x
##럽
##품
##환
##싸
##익
##커
##메
##존
##초
##또
##u
##총
##현
##떼
##겁
##텐
##텍
##앙
##큼
##됩
##름
##혜
##땜
##읍
##삭
##냥
##숨
##왜
##랄
##천
##찍
##쌍
##털
##녀
##맛
##편
##랰
##랍
##찬
##쿡
##픔
##닫
##림
##축
##늘
##별
##찾
##꿀
##툴
##획
##갓
##률
##L
##쾅
##틀
##졸
##광
##닭
##탘
##윈
##넼
##춰
##똑
##D
##봉
##길
##능
##립
##셈
##폰
##녓
##담
##닐
##복
##엇
##징
##곡
##폐
##럴
##철
##늠
##뿌
##맹
##찮
##됀
##찰
##완
##얀
##악
##블
##셉
##돌
##욬
##솟
##울
##젓
##얔
##딱
##골
##랐
##낙
##넣
##련
##뎈
##줬
##늦
##뀐
##슨
##층
##렐
##뜬
##멱
##뵹
##콘
##탈
##퇴
##황
##풍
##롱
##젼
##꼈
##몸
##빵
##쇄
##b
##f
##펴
##페
##냨
##둘
##첨
##왠
##폭
##졌
##댑
##뜨
##럭
##막
##쩔
##잎
##즹
##씽
##잇
##뀔
##쳐
##섬
##덤
##쐬
##헬
##웹
##붙
##룰
##냔
##텔
##멈
##혹
##템
##잠
##싯
##율
##맡
##P
##꺼
##랭
##펀
##녘
##윗
##흡
##꼬
##싴
##뀌
##궁
##z
##륙
##탓
##섯
##갯
##탑
##긔
##껀
##츄
##십
##쮸
##룸
##힌
##낱
##앜
##릴
##빈
##덴
##쌤
##딴
##슷
##둣
##렴
##밤
##충
##측
##희
##쩐
##B
##콩
##릃
##쿤
##굽
##닳
##빗
##쿼
##몰
##끌
##맨
##렬
##삽
##V
##셧
##뿍
##덜
##햊
##켈
##웠
##낸
##쎄
##빼
##R
##덩
##씩
##곱
##컨
##샙
##써
##밌
##콕
##돠
##빌
##냼
##째
##쳤
##줌
##댘
##깽
##뤅
##킬
##융
##낳
##흉
##혁
##벨
##핸
##링
##좌
##꽃
##젠
##옄
##즌
##컹
##짐
##놉
##뚝
##및
##켰
##밖
##잔
##쿨
##띠
##w
##폄
##훼
##밍
##쓸
##욜
##벗
##겹
##쥐
##걷
##칭
##듀
##햌
##흰
##썹
##괴
##짱
##몽
##줫
##암
##묵
##닠
##근
##걍
##겼
##뒀
##답
##뜻
##겪
##첩
##렘
##깝
##얐
##쑈
##갤
##쌔
##봣
##됬
##쭈
##슈
##샤
##닙
##략
##싹
##쏀
##잃
##틸
##염
##졉
##쩌
##칠
##뚜
##뵜
##랫
##델
##넴
##믄
##퓨
##윘
##떡
##훌
##륭
##쪼
##렄
##걱
##넨
##뉘
##됫
##뚱
##옷
##옹
##굿
##빂
##껍
##촬
##돎
##잿
##딘
##띵
##짝
##갠
##뒹
##쉰
##숭
##룡
##좀
##읽
##냅
##릭
##옥
##낭
##렁
##삿
##팬
##웅
##젤
##즉
##객
##냇
##춧
##닉
##룹
##균
##셰
##셜
##쓱
##튼
##깨
##쿄
##즘
##캄
##쏴
##푸
##혈
##켓
##닽
##냉
##뽑
##G
##겐
##쏠
##컴
##꼼
##녔
##듣
##낌
##룬
##붤
##굼
##뱅
##푼
##높
##뜀
##뇬
##롣
##죵
##꼴
##홉
##됳
##믐
##팡
##랙
##참
##먄
##믹
##슥
##밑
##빙
##샠
##먀
##극
##팸
##슼
##첫
##쯤
##댄
##쯧
##읺
##뜯
##옴
##핵
##갖
##앗
##봇
##픽
##틐
##쏙
##늉
##뭄
##랴
##곰
##쑤
##쒀
##냈
##셍
##둔
##쉴
##컵
##맙
##핫
##뱉
##혐
##곤
##웜
##닷
##짤
##듈
##갚
##괄
##핳
##힙
##렌
##닛
##딪
##욯
##찡
##웡
##W
##틱
##힐
##헌
##쪄
##삑
##쏜
##눠
##삘
##깊
##샛
##닮
##앵
##퀸
##밋
##꽁
##뻘
##램
##셋
##쟈
##끊
##엉
##튀
##륵
##뉴
##씌
##뜰
##딸
##렷
##폼
##녹
##엣
##숯
##궐
##뎅
##긐
##갇
##덧
##뺏
##멸
##벅
##됌
##랏
##겄
##즐
##줍
##뒷
##뻣
##탠
##쏘
##쎵
##짘
##썸
##엌
##쎀
##옵
##쌉
##쁘
##찻
##꿈
##몬
##씁
##뻐
##떤
##횡
##쟤
##긋
##밟
##쑬
##콜
##굣
##홀
##퓰
##겻
##햏
##궂
##톤
##콤
##텅
##뺨
##뻡
##탬
##쫏
##찿
##탱
##겅
##훨
##밸
##윤
##렉
##릇
##깡
##옆
##뷰
##쟝
##잰
##뇽
##퀵
##숫
##볏
##짚
##괜
##쩍
##낼
##썼
##맘
##멘
##킵
##떳
##꾹
##쭉
##딤
##횽
##붹
##롸
##롯
##낀
##톱
##슌
##늼
##깎
##맥
##칩
##껴
##젝
##굉
##엠
##숲
##큰
##쌓
##엑
##흠
##썌
##릉
##J
##핍
##얖
##랩
##찜
##쉑
##춤
##톰
##칼
##묶
##눔
##쟌
##괭
##켠
##잏
##뷔
##넹
##껌
##텨
##뚫
##툭
##샀
##큐
##꽈
##첸
##렙
##뾰
##숍
##렵
##띄
##봅
##틴
##넌
##갬
##횟
##빔
##딨
##뻔
##둑
##찝
##첼
##샹
##섶
##댗
##뼈
##쫒
##턱
##흘
##릅
##녕
##롴
##놯
##챕
##녁
##괸
##딧
##늬
##텡
##펠
##벳
##씀
##쎈
##쩝
##쁨
##틔
##쉭
##튜
##닝
##뒈
##Y
##샵
##캉
##됄
##챝
##벤
##땐
##늑
##찼
##썩
##뜸
##뤼
##쿵
##낮
##겜
##뎁
##닄
##킷
##쉨
##챡
##듭
##캔
##닸
##흙
##섴
##딜
##뭔
##냘
##쾌
##땡
##먠
##곯
##멩
##낰
##늗
##붕
##춥
##눼
##뀜
##맄
##뱀
##곽
##멀
##샌
##끈
##욱
##뛰
##뱔
##짖
##팰
##룝
##켯
##웽
##쌌
##뻑
##츱
##쨘
##빤
##뇌
##Q
##쌰
##쵸
##꿉
##죈
##밨
##뤌
##걀
##룩
##쳦
##쉽
##윙
##짆
##엥
##핌
##끔
##꼰
##흑
##솥
##뎠
##똘
##콛
##듹
##껅
##킥
##앉
##펜
##묻
##댈
##뺄
##뼛
##낫
##밭
##쨩
##뽀
##뮬
##낄
##컬
##럿
##얄
##팍
##짧
##밴
##갸
##읒
##궉
##잌
##겸
##뮨
##앨
##젔
##썰
##섰
##톡
##츤
##Z
##븥
##탔
##둡
##쁠
##렝
##엽
##얹
##욧
##붓
##닣
##낯
##홈
##흔
##밎
##넬
##녠
##싱
##갹
##뎨
##왑
##밝
##둠
##쩜
##렛
##겡
##룽
##쯔
##옶
##돋
##밬
##즁
##팽
##엎
##귄
##겉
##굳
##껐
##쨋
##맵
##튕
##팜
##왈
##햄
##쓴
##닿
##톨
##돔
##좃
##됏
##릎
##욘
##윽
##쉥
##놬
##냄
##얌
##욥
##윾
##놧
##쉘
##뤄
##빅
##핏
##밉
##딕
##벼
##숸
##퀄
##꼇
##졋
##뜩
##뽕
##쎼
##퇘
##삐
##핀
##듬
##덮
##짠
##뎬
##늄
##덥
##잽
##튈
##슙
##맣
##큿
##밧
##쩡
##벙
##뎌
##볶
##헣
##흫
##엨
##헝
##틈
##놋
##앓
##댕
##셸
##몫
##힝
##끠
##옮
##쎅
##웟
##켄
##슘
##갰
##툥
##곶
##횝
##땍
##샬
##댸
##낵
##쌩
##쳔
##덱
##뿔
##쇠
##핡
##훔
##뭘
##룻
##뻥
##꺠
##툼
##뭍
##팎
##츙
##췄
##쿰
##젖
##튐
##욍
##좡
##뫅
##눞
##쉈
##셤
##늙
##뺌
##듡
##읃
##씮
##쨔
##뵤
##솜
##샸
##뿜
##깅
##꼽
##옌
##씹
##렏
##뭥
##빚
##뎐
##쓔
##띨
##젯
##샊
##넝
##듵
##콴
##겓
##챈
##앟
##읂
##퍽
##펫
##랗
##꺾
##낑
##챗
##촛
##떵
##깁
##촐
##깰
##댜
##윌
##큭
##탭
##빻
##튬
##캬
##눕
##궤
##쒼
##샷
##찟
##팤
##딥
##읔
##셕
##넽
##텟
##땀
##렜
##붇
##쟎
##킴
##쒸
##즙
##솝
##앴
##뎀
##셐
##옭
##읻
##쏟
##뉨
##듴
##짇
##겈
##턀
##즣
##욤
##삶
##랔
##갗
##쥇
##잤
##꺽
##췬
##얏
##웁
##큇
##봍
##셩
##앱
##캡
##좆
##궄
##좁
##솤
##멕
##렠
##뚤
##똬
##륨
##쥑
##짬
##혓
##겧
##샾
##깉
##쳣
##딬
##읰
##탯
##넥
##넵
##쌈
##팥
##랖
##쫓
##섀
##뗬
##졔
##쌘
##랸
##떄
##엤
##짏
##쐈
##쑥
##킁
##봨
##퉤
##젊
##됔
##꿰
##몹
##햐
##숴
##졐
##웤
##쨰
##붑
##햤
##쳇
##닺
##폴
##띳
##깠
##띁
##댱
##끗
##싄
##믈
##큨
##헀
##콱
##뛴
##졍
##쥘
##긱
##잪
##햔
##톳
##펼
##펄
##끓
##낟
##찹
##팝
##랟
##빜
##귈
##틋
##홰
##늣
##찔
##촘
##죸
##썬
##풰
##빕
##짴
##묜
##쵼
##뺀
##맏
##윰
##덬
##랠
##멧
##읈
##퐁
##갛
##꽤
##둰
##웧
##멤
##곁
##끅
##굶
##둗
##덨
##옳
##뫼
##웬
##텝
##쮠
##힉
##뵙
##맀
##먕
##앖
##쫑
##놰
##싣
##빽
##툽
##숩
##슦
##톄
##흒
##헠
##뻤
##헥
##뉵
##켬
##냬
##푹
##봏
##웰
##윳
##쨌
##뮴
##껑
##셥
##뭇
##뿡
##팟
##빸
##맸
##쎴
##빱
##궘
##띤
##펭
##밈
##곈
##둴
##숰
##땔
##뤗
##핬
##쪌
##즤
##겔
##땄
##뤽
##헛
##긁
##퉁
##킄
##돗
##븨
##븅
##뉸
##켤
##옛
##롹
##뱃
##낚
##넫
##뙤
##끙
##튭
##곪
##컥
##곘
##돕
##텃
##맜
##꾬
##퀼
##흩
##틩
##릐
##눜
##쌜
##딛
##듪
##깜
##몀
##옼
##땬
##돨
##녤
##쎌
##쎘
##궠
##짹
##덟
##펩
##꼐
##몃
##읅
##댁
##냑
##쫙
##쭐
##귐
##뽤
##죤
##찤
##슛
##앀
##왐
##섞
##졎
##꽉
##챵
##룐
##헡
##쟉
##몐
##쿽
##촨
##뱄
##큘
##젋
##멊
##솄
##킅
##졷
##긌
##땽
##윕
##뼉
##왲
##풋
##싢
##샎
##꺊
##끍
##깕
##젱
##벡
##볐
##갘
##쌕
##짗
##뭉
##핥
##냌
##얕
##벰
##밫
##쓥
##곗
##캪
##썽
##듦
##엡
##꼿
##벱
##뻬
##돜
##꺔
##쯱
##읎
##볹
##츰
##맬
##윷
##뎉
##겍
##뭣
##궜
##뎄
##헷
##쭛
##겎
##뺑
##겕
##엏
##깧
##퓡
##샐
##홧
##믜
##샅
##뭡
##땟
##뻗
##깟
##덲
##쉔
##쩨
##폇
##뽄
##땃
##핼
##멌
##씻
##밷
##곀
##칵
##땩
##슐
##햬
##뤠
##켘
##딫
##슭
##츨
##폿
##씰
##깋
##랃
##듷
##닯
##걐
##삥
##볕
##겆
##튠
##휩
##껜
##딹
##띡
##쬬
##빴
##냒
##붅
##넸
##뗄
##훅
##훜
##뺭
##맷
##몆
##뀨
##궇
##숌
##샥
##왤
##헙
##덯
##욌
##긕
##됰
##챀
##빧
##뽁
##팻
##펌
##맟
##쟜
##잦
##푱
##샨
##곙
##낍
##혠
##켁
##렿
##튄
##횐
##릍
##캍
##짢
##뷱
##벵
##뱐
##붐
##텀
##펏
##셴
##볌
##헹
##넉
##엮
##슾
##좉
##낡
##쨈
##헸
##륀
##쭞
##븜
##숏
##슝
##힛
##큪
##껼
##깈
##쮜
##똔
##븍
##켐
##큠
##읁
##읹
##릌
##앰
##헨
##옿
##헧
##꿎
##쪗
##솨
##줙
##캘
##졈
##싿
##뚯
##먈
##붉
##핝
##촙
##빰
##앸
##뺴
##홬
##뗘
##굠
##옇
##헿
##걔
##넛
##캇
##푲
##겝
##챠
##쿸
##펐
##킈
##잫
##닏
##콰
##쎔
##맠
##뮹
##팁
##섲
##걈
##쎠
##잨
##멓
##쉼
##뮌
##짛
##힣
##첬
##졓
##챌
##븉
##엾
##푠
##돤
##댬
##벞
##겂
##섮
##옜
##앋
##읶
##샜
##쟄
##숟
##줏
##읋
##컸
##셮
##뀪
##얇
##깇
##놑
##둿
##깼
##섺
##귤
##꿨
##겋
##걋
##깆
##훗
##돳
##겤
##읜
##왰
##좽
##맴
##봬
##웆
##뜡
##뱁
##볻
##놐
##얍
##엊
##켸
##칀
##뺠
##캥
##눅
##럈
##듸
##냰
##곺
##땈
##젵
##륔
##됒
##퐄
##셬
##긷
##줰
##폈
##빩
##깄
##깤
##흏
##줚
##얶
##겢
##섕
##챘
##쾨
##뙨
##쫗
##꼤
##짞
##퀀
##죡
##썅
##쁀
##팹
##껭
##왭
##탖
##뢀
##쐥
##됴
##잆
##흣
##뺘
##흄
##꼮
##탆
##큌
##킼
##헉
##땨
##뵐
##볋
##덛
##깓
##삔
##쥔
##홣
##껫
##굔
##탰
##욋
##겦
##챱
##몈
##깥
##궛
##챃
##뱓
##뗀
##왘
##잟
##췌
##핧
##홫
##햡
##핞
##뤀
##흼
##캌
##춉
##텁
##꽥
##릳
##쾡
##뉠
##꾤
##륑
##밣
##늨
##곻
##얜
##숑
##왛
##쉅
##궹
##엫
##뎋
##꿧
##줗
##쑨
##빳
##밞
##쒞
##셒
##럾
##걑
##줠
##옘
##쪙
##꿍
##쳬
##줔
##쏭
##쥤
##쳌
##뻇
##뭏
##잗
##팠
##쫘
##촏
##탷
##돚
##왱
##붛
##줭
##꽐
##눀
##귝
##롷
##짼
##뼜
##굵
##앩
##듓
##뢔
##덷
##쑵
##텈
##튤
##킸
##짒
##챤
##얽
##뽈
##뉭
##핰
##듳
##빋
##콌
##떴
##좍
##캤
##됃
##앍
##뀝
##켔
##띰
##땠
##챁
##쟘
##뫀
##큽
##죳
##캅
##릠
##싀
##뚣
##깻
##졵
##쒜
##햣
##옻
##괞
##썜
##끽
##짭
##뇟
##딍
##삡
##왁
##읉
##듐
##웩
##쏨
##뫠
##슉
##쳑
##땤
##탤
##뙇
##땸
##쯘
##뫄
##즛
##꺌
##븀
##뉰
##웾
##웈
##눤
##쬐
##닊
##뱜
##엍
##칮
##뷴
##힠
##옢
##왹
##첢
##뇠
##휜
##햅
##늫
##숄
##봈
##솹
##귘
##헍
##숔
##앐
##믁
##칟
##훙
##씐
##븟
##싳
##꽝
##촤
##덫
##댯
##륌
##됭
##꺜
##넿
##괼
##륐
##렂
##늴
##꺅
##풉
##쭘
##듄
##횔
##싰
##갳
##슫
##죙
##갭
##쯥
##넜
##숱
##굌
##껨
##얺
##늪
##롄
##캨
##멬
##첮
##컫
##걌
##봘
##쐐
##꿋
##앆
##뤈
##쉣
##핽
##뎡
##헜
##읠
##햘
##뼤
##멎
##끡
##샄
##홓
##옽
##듕
##짰
##밪
##젏
##늕
##랕
##퇄
##괵
##뒜
##젹
##쳥
##꼌
##눳
##칰
##셌
##뢨
##뇰
##팄
##쑴
##멐
##끕
##럐
##텬
##돵
##젛
##뽐
##쨐
##꽦
##뷸
##뱡
##텼
##춸
##톩
##픞
##묭
##펍
##녂
##샆
##쎳
##뮈
##씯
##샴
##럑
##껰
##짔
##홯
##켴
##봫
##쥴
##랳
##괌
##눴
##껒
##돞
##쫀
##휼
##얗
##쌧
##낏
##쥰
##쑹
##싑
##맑
##뭌
##넙
##앚
##꿇
##읙
##냡
##쿜
##욭
##휠
##췃
##컅
##탸
##턐
##컼
##씼
##컾
##찭
##텦
##졀
##픅
##럄
##갂
##웍
##쁩
##낲
##몿
##쟨
##뿰
##눰
##윅
##퐝
##곌
##싵
##눙
##맍
##쯜
##쏫
##엻
##긜
##냗
##뭬
##솖
##꾜
##샫
##댲
##챸
##샋
##씤
##슻
##삤
##뽱
##붜
##숼
##댠
##쿱
##촟
##냦
##멵
##팈
##쨉
##틳
##셯
##큮
##꺆
##흨
##젰
##얒
##뺩
##딲
##딈
##핦
##꾈
##됼
##넋
##듁
##볗
##컄
##텉
##곴
##삳
##싞
##즥
##쪜
##쭝
##뜼
##븓
##벚
##쉡
##솏
##낒
##촹
##쉙
##맊
##뫘
##짯
##꾀
##퐉
##싷
##챽
##쒥
##엵
##젬
##핮
##츕
##혬
##쥭
##갉
##늡
##첵
##믕
##냣
##뿅
##랼
##읗
##둛
##쉛
##뒓
##썪
##옐
##됙
##젇
##줃
##맆
##뵀
##쵹
##샏
##쇆
##럇
##럷
##떰
##눟
##꺙
##눗
##춴
##짙
##싧
##읭
##췍
##뷀
##휄
##췕
##뷇
##휇
##쌬
##뇻
##돴
##콸
##뾱
##낞
##렼
##떙
##뿟
##섁
##턺
##븡
##뎔
##쥡
##좇
##뭅
##쪹
##낃
##줒
##튱
##갺
##띸
##햑
##쨕
##냫
##붗
##숀
##읏
##픜
##슶
##짊
##틉
##핟
##떈
##뉜
##뽜
##닜
##뗔
##좦
##옫
##쐅
##낢
##웝
##렆
##씅
##릏
##귓
##혖
##첝
##넺
##뛸
##젲
##벻
##뺼
##뒄
##쭁
##쌨
##홋
##걩
##풒
##툿
##톧
##씝
##퓌
##넦
##춌
##땁
##짌
##뒝
##셱
##댴
##툇
##톈
##푯
##슺
##쩧
##툐
##랚
##잋
##롐
##늅
##뼝
##쎃
##쵕
##줆
##쓌
##땋
##펨
##놘
##핔
##띔
##긻
##퍈
##엦
##잴
##먿
##믾
##훟
##힇
##젚
##줳
##벋
##쯩
##껵
##꿘
##쳡
##듼
##쥽
##얙
##댇
##넠
##퇶
##귾
##닚
##긓
##츸
##쓕
##엙
##놌
##쎗
##퉵
##뗐
##꺵
##깖
##낔
##낕
##먗
##챜
##걵
##챦
##섷
##찧
##쒴
##늩
##뿝
##켭
##쨜
##왴
##뜽
##앎
##쾐
##뷕
##촵
##앂
##랅
##녈
##땝
##혘
##씋
##칞
##컈
##곷
##뤔
##줜
##봌
##꼵
##됍
##쟞
##뗏
##쯪
##맗
##뚬
##앳
##둟
##뱌
##탇
##깬
##퍠
##욷
##띃
##멨
##쀼
##챳
##뼘
##듫
##횃
##숵
##냍
##촣
##얿
##쭊
##꿂
##랒
##돸
##췡
##죻
##닢
##팗
##곂
##녴
##옺
##릫
##쫩
##퐤
##캏
##놇
##쇅
##끐
##볘
##띕
##캑
##큵
##뙥
##쭤
##뼌
##봠
##픗
##콯
##콭
##뫃
##띈
##귑
##뢋
##뚭
##뎊
##햝
##컁
##웂
##겾
##넄
##삯
##얬
##좈
##뼁
##솊
##넑
##쇽
##뭨
##풜
##톼
##핣
##깸
##쬼
##빟
##셖
##첲
##뤱
##쯕
##뉫
##멷
##뗴
##붖
##괙
##헳
##솓
##쌋
##뉔
##뺙
##끘
##꺀
##휸
##똇
##렺
##퐈
##봥
##듲
##쫭
##띾
##먾
##뮥
##깒
##뒙
##헑
##튘
##켱
##쵝
##얷
##륍
##쭬
##끆
##귺
##팧
##굑
##갞
##욪
##뫈
##맚
##텻
##돛
##췅
##꿩
##뛀
##쪘
##핷
##혽
##훰
##믇
##샂
##잍
##쭌
##밦
##읮
##맂
##팼
##짋
##챼
##퐌
##샇
##륩
##뢱
##슿
##퍄
##잧
##굨
##쌖
##냧
##퇵
##귴
##윸
##쐇
##괔
##뉑
##쌑
##댛
##랋
##쉒
##폨
##갼
##헴
##낗
##댝
##럳
##꾁
##됑
##츼
##렣
##롫
##꼹
##꿿
##랲
##깢
##먻
##릋
##쨚
##늛
##뱍
##싥
##쩖
##픕
##쳉
##쓉
##솧
##텋
##츌
##웕
##쒹
##큡
##붊
##넧
##츷
##츞
##긑
##뜹
##녿
##냤
##좨
##뱩
##욿
##룔
##좠
##봗
##빢
##똫
##젆
##댖
##즴
##륽
##텤
##앏
##흽
##캊
##큅
##쟐
##몪
##슁
##읐
##탉
##뱨
##탙
##튿
##퓸
##풔
##웋
##툅
##샣
##킫
##햭
##얃
##섻
##럤
##톅
##떽
##돟
##렊
##늰
##닪
##닶
##귁
##넒
##굡
##쨀
##죌
##댷
##헼
##쌥
##삸
##뤡
##퍀
##롲
##껠
##벐
##쌞
##뤕
##빝
##죗
##틑
##룟
##갲
##뽠
##팃
##믓
##읓
##뗜
##컿
##퐐
##쓒
##큥
##냪
##읕
##긿
##룁
##놜
##닁
##삠
##쥼
##헕
##묀
##껔
##썎
##앇
##휙
##뇸
##햛
##횤
##꿁
##쿧
##밯
##맢
##쫛
##싮
##옅
##녆
##탹
##띌
##믠
##쎕
##룅
##탂
##찅
##쾈
##줟
##핤
##줴
##몌
##줮
##껸
##홐
##툻
##쉇
##짫
##쬽
##텰
##뱝
##앛
##쐉
##곹
##섵
##뽝
##쉤
##뢈
##윜
##젭
##녇
##셁
##첟
##뗌
##놁
##켙
##봡
##햿
##볔
##슲
##썁
##찓
##엓
##삣
##싾
##똣
##걘
##홱
##훕
##훞
##솼
##탴
##섂
##뮐
##끜
##듨
##굇
##뷹
##씆
##뀬
##늏
##뺜
##챴
##솩
##쉾
##닾
##댣
##욽
##돱
##곬
##륫
##굥
##옞
##샟
##넻
##궝
##즂
##혇
##죔
##눵
##롥
##휀
##쎜
##퀐
##늧
##돻
##흭
##퇏
##긧
##헊
##벝
##퓔
##뿑
##륄
##꿻
##꿃
##옸
##롮
##솬
##떢
##옱
##솦
##뒴
##싡
##붘
##풑
##똗
##젺
##볓
##븰
##빪
##힞
##읨
##뽂
##굯
##웪
##좟
##퓽
##췝
##흴
##핲
##뀠
##퇬
##벖
##튴
##츈
##앲
##끰
##꽹
##씪
##뵥
##옦
##흎
##륶
##쪅
##띻
##죷
##엋
##갆
##룈
##곩
##킽
##즏
##톹
##돰
##쒕
##쑐
##듥
##쩬
##곜
##똠
##윂
##긎
##뿽
##뻰
##뙬
##횅
##먐
##쵠
##궙
##뼐
##퍌
##쪾
##쇤
##씾
##푤
##맇
##롔
##쭨
##밐
##븃
##킝
##쀽
##넞
##뗫
##킌
##젃
##겴
##흟
##몄
##벧
##콬
##좔
##쟙
##흦
##걻
##읬
##떔
##혤
##캽
##컽
##숮
##꽠
##햠
##뺕
##푴
##렢
##곃
##횩
##뚠
##뷁
##앝
##츀
##쿳
##걽
##갴
##떅
##꾠
##넚
##깞
##죰
##떗
##쏳
##뭊
##뤁
##쫴
##뚹
##헭
##뛔
##춬
##괂
##삉
##렦
##튽
##밮
##뙈
##돘
##빘
##쥠
##벹
##쇙
##톷
##쭙
##뒵
##즬
##퀑
##꿏
##퓬
##벜
##빆
##럥
##얅
##찳
##륿
##넗
##뻫
##좯
##큄
##렋
##렑
##끚
##펰
##틷
##랂
##쟼
##섘
##돝
##퉐
##읖
##뤤
##줸
##쾀
##읊
##롼
##믙
##땰
##솛
##얂
##긬
##쳈
##젴
##곅
##꿸
##룜
##힜
##긇
##찎
##뀰
##첰
##쥉
##죴
##쉿
##엪
##귱
##볜
##쨎
##헞
##릘
##됻
##먽
##봑
##랇
##젙
##쩼
##쀠
##뿹
##솅
##눨
##룀
##뀄
##엢
##떱
##엲
##끏
##훤
##뱗
##캭
##쎡
##닞
##춭
##맼
##깩
##갥
##죱
##굄
##댭
##텥
##쥥
##둉
##뢍
##삵
##뤃
##뵉
##챨
##삻
##쩟
##귬
##흌
##퉷
##끤
##뺍
##묄
##휑
##퉥
##얨
##푝
##떧
##뵨
##긤
##뵌
##뎟
##붂
##릊
##롁
##줐
##뜌
##덢
##쒈
##잛
##볭
##옂
##첪
##퀠
##웛
##씍
##캈
##쟴
##톽
##멉
##춯
##섣
##뉼
##끛
##줓
##숳
##녛
##굻
##뚀
##뎇
##홥
##뀟
##붭
##뺃
##츳
##퉈
##첯
##짪
##룠
##쉻
##럅
##쳄
##귷
##딉
##탛
##몁
##쟇
##뒘
##귔
##뜷
##훋
##쩛
##뭋
##쑝
##큔
##졘
##걥
##읇
##뜁
##샢
##쪕
##줁
##잮
##쳋
##쑌
##낓
##웑
##븝
##텄
##쿺
##혆
##잙
##읿
##휰
##턋
##늟
##긏
##꿑
##멫
##윔
##춮
##겊
##톔
##뗍
##쇡
##얠
##긘
##귣
##칬
##큉
##쯰
##앾
##횰
##닻
##짦
##릔
##럮
##쇳
##헁
##뢁
##곥
##봦
##혝
##얳
##뤨
##뽘
##윱
##귯
##쁭
##륻
##춫
##쉉
##밗
##닲
##싦
##췁
##꼅
##롕
##쎁
##욛
##륹
##욀
##틎
##쏩
##즵
##틍
##욮
##즠
##딳
##꼣
##붌
##읷
##뭰
##홭
##톀
##텓
##닟
##뺸
##혴
##졑
##썖
##섥
##툩
##벷
##걉
##켝
##뼙
##퇸
##짍
##뒸
##맅
##퉅
##녑
##솀
##솽
##퀰
##뫌
##갌
##룪
##셑
##쏱
##뇜
##핶
##픂
##쌎
##캰
##퀫
##뫗
##퉹
##덙
##팓
##췻
##궷
##픙
##햫
##얭
##윟
##싲
##짉
##춛
##깦
##뫕
##굷
##똒
##굈
##뫁
##폽
##뎍
##똴
##쵀
##틒
##혱
##젷
##붚
##쁫
##윝
##흗
##둙
##쫨
##덞
##풴
##쎾
##덪
##딝
##욫
##렩
##쐑
##횬
##껬
##잒
##긪
##곕
##싓
##닡
##랮
##훝
##틓
##뿧
##섿
##혿
##꼳
##쳨
##갋
##릈
##숐
##쇟
##쟡
##썋
##푿
##뽛
##웻
##쩃
##좭
##쫔
##뒨
##괠
##훑
##귕
##뀩
##벆
##굤
##췰
##뱤
##쎆
##믽
##렅
##웊
##븈
##짲
##샡
##뎤
##옝
##캎
##쨤
##엒
##뮷
##츔
##쪔
##멁
##퀙
##혲
##샦
##놤
##꿜
##츜
##쮝
##쩄
##쭵
##슩
##줩
##떸
##먺
##펔
##죧
##꺈
##욨
##뜃
##끾
##웄
##놕
##뗑
##핆
##줅
##퇼
##샑
##헱
##띿
##뎆
##쮼
##듧
##걖
##왝
##긩
##렭
##굪
##벍
##톶
##뺵
##붠
##쩕
##닧
##쀌
##퀭
##꽛
##딀
##톪
##팉
##겇
##깹
##눚
##궸
##윻
##줨
##햰
##봔
##짃
##끨
##춱
##젅
##뜝
##잚
##쌴
##벴
##빞
##힡
##뱈
##됟
##췹
##쀄
##썐
##빺
##춣
##쳘
##홑
##뛕
##옙
##뭫
##쳫
##귇
##뜍
##긄
##힏
##쬭
##싨
##붸
##헗
##댤
##엳
##킾
##룾
##냏
##싘
##릵
##앁
##뷉
##룤
##렫
##옯
##혂
##씜
##읩
##뵛
##굘
##슄
##쭸
##뜾
##춟
##줈
##숖
##쇸
##톸
##걕
##뗭
##읾
##읆
##픨
##씺
##웱
##꽌
##쩢
##웦
##짶
##갟
##쏼
##꼉
##훽
##끉
##돩
##꽇
##릂
##툱
##꺟
##욖
##썾
##딿
##젣
##앑
##돓
##룍
##겷
##썍
##턍
##욝
##껗
##몋
##헚
##뇐
##빭
##튁
##뢜
##덈
##멥
##쩦
##솎
##꼄
##죜
##춠
##첳
##걓
##씃
##켕
##딷
##꼍
##찣
##랱
##팙
##솁
##꿹
##뚥
##쥈
##셓
##괬
##롰
##귻
##슆
##릾
##뀡
##롳
##쳊
##굫
##낅
##좒
##봊
##븽
##씟
##씈
##쯴
##쓀
##켑
##봒
##홮
##쁼
##췈
##맃
##핱
##뤸
##벸
##뛱
##솸
##똨
##햨
##퍙
##벫
##뿥
##잀
##윧
##럻
##뻄
##쬘
##쯍
##릁
##뻖
##듩
##봭
##뷘
##싁
##괏
##쨟
##힄
##릀
##홁
##툲
##묫
##웥
##쁝
##쟀
##촥
##둭
##뷩
##탣
##칯
##쯈
##욵
##똡
##즎
##귿
##췽
##폑
##렧
##옠
##밢
##꺗
##퇀
##쏵
##꾺
##펵
##츧
##찯
##둊
##뙁
##쳅
##잕
##횠
##쾤
##챰
##쪈
##헯
##뢌
##쥣
##텊
##싕
##젿
##걜
##씄
##쳒
##챂
##뫙
##딯
##뺶
##낐
##챺
##훉
##궍
##퍔
##웼
##싟
##퉜
##긯
##킇
##앃
##맓
##둌
##걳
##긛
##롵
##옾
##픟
##벶
##뭀
##녅
##줝
##즞
##궆
##몱
##텂
##윶
##뤰
##쒝
##첞
##좩
##쇜
##갣
##쌸
##뢸
##봙
##넎
##붏
##픠
##칝
##붆
##곢
##솢
##읯
##묙
##퉛
##밳
##햟
##쥳
##삲
##앢
##퉬
##밠
##꽙
##띱
##뜅
##끋
##왚
##겣
##뢴
##쉌
##훓
##겵
##윹
##꼥
##줯
##좤
##짂
##횸
##긒
##갿
##떩
##깪
##옃
##벟
##줉
##칑
##뭁
##쬰
##왉
##좐
##퐂
##먑
##룯
##퐨
##죕
##뤳
##쬡
##쉞
##췟
##룢
##뭃
##엗
##똮
##읫
##갅
##왂
##빶
##헵
##킐
##욉
##렞
##꽄
##춡
##춍
##뉩
##탍
##쇗
##훡
##됝
##춐
##쒓
##춈
##됸
##폔
##낧
##뷍
##쩅
##뻨
##잜
##샒
##랎
##섟
##헔
##뚧
##먁
##슸
##홎
##붱
##궅
##쓺
##왯
##뛣
##녰
##쪵
##궨
##덣
##붔
##죅
##큳
##홤
##몯
##뿠
##넾
##걁
##밓
##텆
##쓤
##랓
##쉫
##럵
##밒
##쟂
##튶
##빍
##퓩
##엯
##룱
##촜
##퐛
##짣
##뚁
##섧
##덋
##꽑
##솰
##햙
##쌱
##얓
##껃
##뺫
##꼊
##힟
##켷
##낤
##웓
##탼
##뫜
##걹
##쨴
##흛
##볒
##끵
##씿
##롶
##댙
##팦
##쑀
##륾
##낻
##갏
##탵
##쎤
##싆
##죹
##쩗
##벉
##엃
##멶
##싈
##뵘
##넢
##봆
##쁴
##렓
##즋
##흓
##픋
##둦
##휵
##쭭
##닑
##쎙
##앺
##괗
##릱
##쁍
##쩁
##핻
##퇙
##왙
##팢
##퓻
##굮
##냙
##핛
##볷
##웉
##붬
##덖
##솃
##푀
##홪
##쓋
##짥
##팘
##쀨
##쫃
##솕
##훀
##뢕
##넖
##쨓
##롈
##웘
##훵
##놥
##틜
##쬥
##혭
##톻
##휨
##쭟
##꿓
##냿
##샼
##쒔
##뭠
##롑
##몼
##볠
##킺
##젘
##뵁
##푄
##썠
##몴
##쉳
##칌
##엧
##쩠
##륰
##굦
##뻴
##햋
##켇
##렡
##괁
##훍
##끎
##볽
##싖
##셂
##똭
##뜜
##촴
##웸
##봽
##쥅
##뒐
##줼
##젂
##긂
##둨
##랈
##뽭
##뷋
##잲
##낋
##뀍
##롻
##갫
##퀏
##쮹
##셎
##걾
##췐
##캴
##굲
##늽
##붍
##걼
##쨲
##퀜
##믱
##쿌
##냩
##밚
##꼏
##잢
##랉
##먜
##뷮
##꺘
##쐭
##쌐
##겱
##뇄
##뇡
##팒
##븤
##넁
##뭦
##뷜
##짅
##꺤
##쉠
##뀷
##댚
##촀
##헏
##럯
##믑
##깂
##떫
##쇣
##쉧
##갵
##찏
##퉄
##좜
##뿃
##섔
##뻿
##쬑
##빯
##졲
##헒
##뮫
##엷
##턔
##큣
##뭈
##죨
##칡
##맻
##쁙
##럣
##뉀
##븬
##짵
##묾
##쯀
##촪
##껙
##뇁
##죺
##괐
##흿
##뻩
##돇
##쉓
##뎝
##쐰
##벲
##뻠
##첑
##셇
##샓
##넟
##낝
##쒁
##췩
##촠
##퍅
##쫍
##겫
##꽆
##럌
##쐒
##캿
##옧
##븏
##뿨
##큻
##쮭
##삮
##췔
##뤙
##쵤
##굚
##씔
##뿤
##뚴
##춋
##쨥
##썟
##꾱
##럸
##벓
##젉
##낥
##쿙
##틘
##푶
##긹
##펖
##쁏
##띀
##즨
##핃
##윋
##쟛
##꺍
##멒
##떪
##혛
##쟸
##칲
##쾽
##갃
##옉
##툌
##롡
##몡
##좂
##넶
##읟
##휗
##폥
##옰
##뱛
##릷
##웒
##놩
##덀
##텸
##뮼
##윿
##욲
##뫔
##낶
##딋
##뚦
##풘
##꺴
##둞
##쀵
##뱆
##뇹
##뱋
##괍
##맔
##럶
##녙
##찱
##겒
##륲
##짳
##즇
##뚸
##쎽
##욹
##쇌
##캵
##묑
##둧
##녬
##롓
##켛
##좢
##깵
##싻
##벘
##앻
##퐅
##벺
##쵴
##떯
##닰
##좄
##럱
##덍
##궃
##됗
##푭
##먛
##칱
##샗
##꾾
##놴
##겮
##쫐
##쟠
##륏
##쭠
##츛
##밲
##힒
##뻉
##휏
##쉩
##룧
##궵
##젒
##꿐
##맋
##뿕
##쉟
##췼
##컇
##샿
##윁
##슧
##뺚
##댰
##퀻
##웇
##쳠
##팣
##겙
##긲
##쎱
##궯
##뗙
##릮
##벑
##뵬
##썀
##묠
##왆
##텹
##얾
##뜐
##잩
##얫
##곋
##봩
##닩
##찲
##풐
##뱇
##늖
##캮
##괖
##깛
##삷
##횻
##뉍
##핚
##칍
##쥨
##턷
##궭
##뤫
##렾
##휫
##쭀
##촞
##솈
##쁑
##즟
##됮
##큩
##푁
##쒘
##얩
##쏔
##넏
##꾿
##캼
##풂
##죚
##뽬
##밹
##픵
##궬
##뢐
##룿
##힑
##뮜
##랆
##껕
##긼
##릥
##꾳
##뽓
##붰
##췸
##퍝
##솉
##쀍
##욼
##뗳
##윚
##핓
##웞
##땓
##뒺
##콫
##뇅
##쒰
##춚
##퇍
##럲
##킆
##퉌
##럏
##킉
##풓
##껩
##춏
##팑
##둫
##찷
##젗
##햍
##섩
##삧
##쳧
##쉪
##뿛
##홛
##돡
##찥
##뷃
##놂
##뢩
##쪟
##폌
##늿
##꿤
##퍵
##뀹
##둇
##샞
##큑
##뫂
##셪
##셫
##굗
##풩
##칧
##쫟
##쨱
##믘
##앧
##꿕
##늭
##튵
##낛
##쭃
##쮀
##쪠
##뀅
##쇈
##텇
##픀
##늌
##듰
##퓹
##휭
##냊
##쮤
##쟆
##둼
##쟣
##퓐
##튝
##얪
##좝
##괒
##첤
##힁
##뒬
##뒁
##묹
##뺒
##땢
##궥
##괃
##퇫
##먖
##퉆
##쨬
##쩘
##훃
##닍
##탚
##쒑
##붝
##낂
##렪
##엶
##팕
##삱
##곚
##뮛
##겯
##겳
##쟬
##츶
##퉝
##뿓
##녾
##븞
##걧
##떦
##퉂
##꾄
##룃
##꽅
##섳
##럔
##넡
##껓
##낣
##먘
##쯉
##묽
##떌
##훱
##틕
##뤂
##췤
##횢
##읳
##홴
##맽
##뤩
##뉅
##쿹
##씡
##폳
##섪
##쟏
##슠
##왇
##뛋
##쁟
##똟
##쓩
##쬎
##꾐
##럊
##돍
##꽊
##쓜
##뚵
##퐜
##뀤
##풕
##흤
##썄
##눍
##쓈
##뗗
##뢉
##믺
##쇱
##빇
##쩻
##숧
##퇑
##컀
##뮉
##섓
##쵁
##꽀
##늤
##뎂
##쑷
##싺
##틤
##꼻
##똿
##븎
##숚
##뚨
##퉸
##횓
##놎
##핢
##뇀
##홇
##잝
##펟
##떾
##돽
##뎦
##걿
##롞
##틁
##쑉
##밡
##혚
##켉
##쌯
##쌛
##섦
##칤
##묷
##쬔
##끀
##귭
##븧
##칳
##뚕
##긶
##됥
##녖
##뱕
##뷷
##핯
##쓘
##뽫
##깾
##춪
##졒
##뒫
##졳
##닋
##싚
##됵
##뻈
##씊
##쉄
##쫠
##츽
##쩹
##얊
##뭤
##쩰
##눃
##츅
##똩
##홅
##띙
##뀳
##줕
##첻
##몺
##밇
##혷
##궮
##귦
##댉
##볃
##밂
##욻
##늚
##쇘
##뵞
##얆
##뇩
##떘
##찠
##멮
##멏
##륟
##뒥
##릑
##랻
##늒
##혰
##쀀
##칄
##핗
##땧
##섨
##떥
##렃
##닒
##왖
##쁌
##흪
##싐
##샽
##킦
##흝
##잂
##벁
##뗠
##묏
##흳
##퍤
##텽
##톃
##봀
##붃
##쒄
##섉
##뾃
##뛟
##뛝
##뙓
##꽭
##쮉
##쒧
##슅
##걨
##덹
##튑
##힕
##녱
##풱
##싩
##뻒
##탏
##땉
##뭴
##핺
##쟹
##룄
##핖
##꺳
##엩
##듟
##곟
##눝
##뱎
##뵷
##멑
##뙜
##볾
##겲
##봟
##캆
##쇨
##쾍
##믯
##졨
##맒
##숪
##뇍
##풸
##풹
##쒵
##껚
##튺
##훊
##뚷
##졶
##찁
##팆
##듶
##쑙
##겿
##혯
##좼
##웳
##벯
##욈
##뺔
##놊
##뽞
##푷
##쒯
##쳰
##묺
##즷
##흇
##넊
##뾔
##릡
##펃
##옲
##쎰
##쿩
##둚
##츗
##픤
##읪
##욎
##붯
##뿬
##걲
##둒
##븕
##횄
##뜿
##눹
##덭
##봃
##좥
##꼷
##퍞
##꼨
##괕
##롘
##괅
##뻭
##죿
##잁
##탶
##굩
##쒱
##뻦
##쁄
##힢
##웣
##뎓
##됱
##휳
##샃
##쵱
##촷
##벛
##븋
##맿
##팛
##줱
##쾃
##풎
##읲
##킿
##훳
##픝
##깣
##퐥
##땎
##뙷
##뙛
##윥
##탲
##젞
##뀸
##썡
##읱
##뽥
##홝
##숗
##듘
##믆
##뚼
##윀
##껳
##뚞
##븻
##륳
##즄
##줋
##뤟
##긵
##춞
##뙌
##욳
##훻
##똰
##럠
##놛
##줂
##긆
##숡
##렻
##쐽
##쓍
##핪
##냋
##뒑
##걊
##븦
##묨
##띧
##쓹
##삾
##돾
##겚
##잳
##쥿
##헢
##둋
##툠
##걤
##긊
##벊
##빬
##꿲
##욐
##곛
##슯
##젳
##뵵
##딖
##쭏
##횹
##꺢
##빹
##퇮
##뢥
##꿱
##잓
##뎜
##쒭
##됢
##몊
##뼊
##욺
##둪
##돐
##몉
##퀌
##갍
##씥
##핒
##벩
##쩩
##걺
##뗵
##긥
##먆
##땆
##퇭
##쫜
##씞
##엱
##넀
##쿈
##뷥
##퉼
##뾸
##쓐
##춝
##얮
##쿫
##퉉
##섈
##죾
##샚
##낎
##얎
##쇵
##챷
##컭
##봋
##싪
##뀽
##뾴
##빾
##낪
##갊
##툉
##턩
##툊
##뷧
##삨
##궳
##챋
##뽷
##쏐
##궀
##폡
##뭩
##뽰
##뻪
##짎
##픚
##섄
##휍
##뜮
##쭂
##꽜
##땣
##쌂
##냎
##뵏
##촼
##픎
##뽚
##솑
##둄
##뭕
##섑
##놪
##겥
##턑
##쏬
##뭑
##귽
##뛓
##볅
##돏
##눽
##븁
##쐨
##쥦
##쬴
##쬮
##홟
##툑
##숤
##굱
##셛
##쫕
##쀏
##갷
##폅
##듑
##쉗
##멭
##뒛
##혃
##댂
##끟
##윖
##쀈
##젌
##씢
##씂
##섊
##딮
##앶
##셃
##쏌
##쮱
##핐
##틏
##칻
##솻
##걶
##콪
##릣
##쿻
##톌
##뉙
##섡
##힂
##쮑
##굺
##뎽
##슏
##똙
##굾
##꿴
##좸
##퐆
##앿
##썃
##쭹
##쩑
##뿱
##탗
##벏
##앒
##숶
##섽
##텢
##쐌
##좬
##웚
##볂
##껶
##웯
##퉽
##쌟
##놸
##텣
##죥
##흜
##뙿
##썯
##긃
##쩀
##쩣
##뻕
##꿬
##쪚
##셆
##씉
##빏
##퉨
##굅
##싅
##맖
##랊
##믤
##킂
##쉚
##쫚
##쨧
##챶
##꿥
##녝
##쓃
##혙
##핕
##릸
##쩤
##헫
##졜
##쎂
##첱
##흚
##겗
##됡
##쏃
##즜
##쯨
##텩
##삫
##뱬
##릹
##쮓
##먤
##뛧
##쮕
##쌒
##칔
##퀔
##푈
##빣
##팯
##펒
##쭻
##쏮
##눓
##뇝
##꾕
##젡
##뢓
##믝
##펗
##똵
##쭷
##늎
##윺
##퐠
##뜪
##혾
##씦
##엕
##둏
##훛
##냴
##숝
##왬
##갢
##슇
##뽇
##뜔
##먓
##얰
##틂
##똽
##흅
##벎
##맕
##슀
##꾭
##궏
##쏸
##뒠
##뒼
##봁
##좎
##뵠
##쎨
##쟥
##겺
##쉜
##컺
##눸
##싇
##븹
##궑
##퓍
##꺕
##볫
##슮
##쮔
##뵑
##뢘
##퐙
##븛
##슟
##슢
##뱥
##뎻
##뉄
##솠
##셲
##뗸
##뽴
##뻼
##젾
##튔
##쁸
##찗
##꿄
##쿯
##졿
##뿁
##샔
##턕
##켲
##뱟
##똦
##쥄
##볈
##웢
##쾬
##졹
##썔
##휅
##펲
##꽘
##늜
##뮙
##졏
##믛
##썝
##찴
##쀓
##뮝
##깯
##뱽
##칽
##쏏
##딭
##셭
##헾
##툄
##횧
##햩
##힊
##녻
##뙹
##맫
##혒
##튓
##쯫
##큲
##눋
##왥
##뇤
##퀡
##뭵
##틧
##웎
##밁
##켞
##휔
##믻
##톢
##퍁
##괓
##쉲
##겞
##갎
##쓿
##쩎
##웗
##콋
##졻
##쵭
##봴
##캋
##뜱
##뵴
##륮
##떮
##듢
##툨
##숬
##섫
##똻
##촡
##씇
##뺅
##폘
##썫
##넭
##뙀
##렽
##띅
##뽯
##쌻
##뼬
##녽
##붋
##봿
##흵
##띟
##쨨
##섐
##됤
##틅
##뒌
##믏
##쾰
##젶
##뾀
##풇
##툳
##뤵
##솒
##뫤
##푕
##뚄
##뒇
##씳
##뺗
##쳏
##뾲
##팊
##좱
##뭽
##턉
##찫
##똷
##췆
##챻
##쐴
##켵
##럘
##갮
##녗
##걎
##곣
##굎
##펅
##쫖
##펹
##덗
##덝
##왗
##쏖
##쫫
##놏
##큷
##믬
##늇
##슰
##뻙
##탅
##럎
##찦
##딺
##혺
##팖
##몔
##앦
##쁮
##솣
##뀈
##볆
##퐑
##먇
##엸
##봎
##눂
##첧
##뙄
##젎
##멿
##뤜
##엜
##꽼
##럗
##쁰
##윢
##좣
##랺
##홒
##굧
##틊
##짷
##뀀
##툣
##녚
##됚
##쒠
##쿅
##왅
##퐘
##텧
##끞
##뱰
##뷤
##삒
##꺨
##렗
##헋
##뉌
##쬠
##밙
##웖
##윣
##딞
##씱
##돒
##퓅
##쟟
##욗
##섢
##죘
##쬿
##쯋
##쫰
##뭷
##썱
##긺
##멛
##쓷
##쓲
##닗
##쒫
##쩓
##휟
##킠
##갶
##녯
##떹
##깗
##껇
##쑛
##쳗
##돖
##삺
##옪
##둩
##짺
##즡
##랡
##뭭
##쐣
##빖
##턈
##릻
##삦
##햎
##뿎
##빫
##몷
##윯
##듇
##팏
##좊
##폠
##뺓
##첡
##겏
##뀃
##믖
##밊
##괫
##쟃
##팚
##줊
##헓
##쓑
##뭎
##붼
##뜄
##뱊
##뀱
##뚊
##빎
##쯛
##곭
##컯
##꺋
##룷
##탟
##헶
##꺰
##쿗
##긞
##쑼
##볖
##쿢
##뺡
##얋
##띶
##쟅
##펺
##빷
##뽖
##퐇
##곫
##쌇
##씷
##겭
##쒐
##슂
##붎
##눉
##펕
##먱
##턘
##칢
##웙
##떷
##뎧
##귥
##몲
##쳍
##뗼
##꿌
##쿔
##쑦
##댦
##똚
##묿
##쒤
##븩
##쳢
##맪
##쭥
##픓
##뽸
##셏
##랁
##탊
##릶
##혅
##땦
##휲
##쩸
##몣
##렚
##픹
##쎍
##뜛
##홨
##툈
##쒂
##쐤
##뙝
##홙
##퇌
##칶
##캩
##덦
##즑
##쏰
##뙸
##쀒
##엹
##헰
##핋
##놝
##훏
##왷
##깑
##췜
##뼠
##씶
##홡
##쀅
##챊
##댼
##떺
##탞
##꾝
##똧
##츹
##꽨
##눛
##풬
##띴
##앹
##쎟
##즺
##폯
##줖
##뛃
##얁
##쎝
##쳭
##톺
##뭟
##훸
##듞
##혉
##귛
##씧
##뭧
##뾥
##흊
##뷐
##옩
##뼏
##혻
##졽
##틇
##맩
##늓
##펻
##샕
##싙
##짮
##빓
##쐿
##븸
##떃
##볎
##즼
##쳴
##슳
##뛥
##횜
##떶
##쐏
##쪻
##왢
##갧
##훚
##곝
##둅
##믣
##몢
##쥫
##봰
##덌
##곮
##홗
##얉
##밿
##곔
##뜳
##녟
##꺚
##쐼
##텠
##웺
##뿩
##뮘
##뇔
##쯎
##힗
##귖
##쬈
##뱸
##랯
##쉮
##묯
##쀡
##퇜
##꿝
##퇧
##끯
##뼑
##끸
##푬
##옣
##쐄
##퓟
##휐
##쭕
##붥
##믂
##뮦
##쾩
##퍾
##헽
##놃
##꿯
##뫚
##챚
##삹
##옟
##쬲
##놖
##뉬
##뙴
##죢
##딣
##쨖
##춀
##튻
##좰
##곆
##깺
##딻
##찪
##댏
##쪿
##풁
##뚢
##짿
##졺
##픍
##킶
##뭙
##녺
##갩
##뼀
##돆
##뼡
##뛌
##몮
##뮁
##봵
##켼
##퓿
##엀
##뫽
##헟
##슞
##엁
##릆
##쏚
##뮻
##앣
##곲
##궲
##볁
##릲
##쩽
##븢
##쎇
##뀻
##쇀
##볇
##똼
##퐣
##폮
##햚
##쵿
##녭
##뒞
##좧
##썳
##줵
##첣
##킀
##쭄
##죶
##켚
##폣
##훯
##멪
##앷
##붴
##꺏
##돉
##댥
##턹
##쵮
##풏
##춎
##볙
##뚈
##뭿
##뵝
##괨
##엂
##챫
##쏄
##괺
##믰
##퍡
##킘
##떣
##콮
##삗
##캙
##좓
##헲
##닱
##쮁
##쫂
##뵺
##뛍
##욾
##됧
##걭
##쓊
##쀳
##퇔
##엞
##벾
##쵯
##걬
##홖
##깱
##뗨
##멯
##욣
##걒
##똈
##멂
##걃
##꽳
##꼶
##걆
##겛
##풃
##뻁
##헦
##꽴
##궓
##쑫
##둽
##욓
##샮
##젍
##왶
##쀾
##쌗
##촺
##짾
##꺓
##몟
##곖
##죝
##꼲
##졂
##믉
##뭗
##믌
##죣
##잞
##쎓
##쭅
##뛨
##똝
##쫵
##쑻
##뿳
##뽹
##셟
##캢
##넔
##멲
##쫅
##걇
##쁐
##븂
##왳
##괝
##뭚
##씗
##쇔
##콲
##숢
##뮏
##왡
##으로
##에서
##하는
##니다
##하고
##는데
##이다
##다고
####
##지만
있다
사람
아니
##라고
##했다
##00
##까지
있는
##었다
##면서
##다는
##에게
생각
우리
##하게
##부터
##해서
대한
##리고
##이라
##한다
20
하는
한다
한국
##보다
국민
##습니다
##적인
때문
##렇게
##으면
그러
영화
이런
진짜
##니까
지금
##하지
일본
지난
##하면
그런
문제
##이나
##하다
같은
너무
10
자신
다른
중국
##대로
나라
##는거
하나
##처럼
위해
##통령
들어
그리고
만들
미국
그래
경우
##하기
정부
##이고
##네요
201
##인데
##라는
아이
##어서
하고
이상
대통령
이제
19
이번
그냥
##세요
문재
작가
사실
다고
##한테
된다
##어요
아닌
##해야
##지고
다시
##나라
##았다
것이다
##입니다
시작
함께
사회
따라
없는
정도
정치
경제
서울
##이라고
많이
통해
##라도
보고
가능
하지만
모르
인간
##이지
시간
가장
아무
나오
필요
기업
아니라
##하여
##되는
##리는
정말
자기
북한
모두
##였다
상황
세계
##으며
지역
##다가
민주
200
이후
어떻
##같은
모든
대표
##려고
모습
좋아
시장
사업
관계
국가
이렇게
어떻게
문재인
사용
여자
관련
없다
##스트
마음
##주의
다음
여기
대해
##된다
이유
해야
##합니다
이미
있었
많은
##이라는
위한
##겠다
댓글
이야
##사람
정신
지원
##는다
##보고
아직
현재
돌아
그렇게
처음
사이
했다
계속
사랑
그러나
##하며
어떤
##어야
투자
##거나
얼마
라고
라는
무슨
프로
12
내용
역시
##민국
보여
경기
##으니
##구나
##는지
30
근데
있을
특히
##아서
좋은
##하면서
##인가
##인지
##어나
여성
남자
11
하지
##레이
밝혔
이해
보면
이어
##지는
다는
조국
진행
바로
여러
국내
100
##가는
대한민국
교육
이용
그래서
##있는
기대
오늘
결과
수준
결국
##도록
검찰
##로운
방송
중요
##잖아
피해
지만
있었다
기사
기술
어디
##이었다
면서
이름
그렇
##이었
##지막
최고
##밖에
연구
최근
조사
15
##시키
자유
##없이
보이
국회
또한
이러
##는게
##소리
잘못
마지막
설명
살아
계획
떨어
민주당
상대
저런
경찰
이거
삼성
없이
대학
##가지
지지
##되고
개발
웹툰
친구
우리나라
어느
사건
당시
의원
지난해
베댓
가족
학교
물론
나타
세상
##레기
당신
작품
정권
##해라
되는
같이
기록
감독
##어도
##머니
전문
올해
대상
이게
##으나
##비스
현실
알고
그럼
받아
관심
정책
얼굴
##이야
이날
후보
제대로
##거리
만들어
얼마나
##시아
개인
주인
##동안
사진
##주는
학생
##이랑
##졌다
정보
##시간
회사
##했던
18
나온
누구
않고
##인다
평가
이야기
##부분
##하는데
조선
배우
하면
그것
##되어
가지
다양
한번
##겠지
자체
문화
##기업
말했다
찾아
##더니
따르
있는데
않는
부분
실제
일반
어려
직접
활동
알려
그만
동안
예정
운영
공개
##이트
그리
금융
해서
그림
선거
완전
##없는
언제
##운데
위원
##해도
##0년
새로운
상태
언론
##놓고
일부
올라
존재
##주고
그런데
대구
조금
의미
결정
##진다
소리
##스크
있고
게임
않은
##하나
제발
스토
책임
##로나
세금
공격
않았
발생
누가
한다고
재미
현대
먼저
아주
##이면
미래
##하자
제공
기준
##정부
##보면
인터
방법
확인
기자
부모
가지고
인정
합니다
##같이
##이냐
전체
하루
##다면
##하네
머리
지나
서비스
그녀
참여
있다는
관리
한편
준비
발표
만화
50
성공
자리
##을까
아니고
##라이
있어
##하는거
힘들
##한거
엄마
해도
사고
수사
##정도
주장
등장
##학교
만나
코로나
반대
##말고
과정
외국
##렸다
역사
13
주인공
선수
가격
##마다
서로
##리아
국제
##하시
산업
가운데
생활
대부분
25
보는
##러운
무엇
과거
16
##000
이건
최대
위해서
제품
행동
거의
##랜드
전국
증가
정상
성장
경쟁
더욱
기억
시민
##다니
있습니다
판매
##이며
재밌
해외
생산
노동
기다
요즘
효과
어린
보내
내려
##치고
그래도
##OO
해결
##리지
당연
이것
얘기
14
못한
선택
아닌가
엄청
표현
나왔
##근혜
추가
##이는
예상
##린다
규모
스타
운동
쓰레기
##만원
있다고
장관
영향
환경
아들
시대
없어
##그램
##의원
아니다
추진
빨리
교수
느낌
아버
대해서
요구
##이스
##려는
##시다
##가서
드러
한다는
포함
##치는
##와대
만든
알아
같다
##나요
다며
##들어
중심
기본
17
결혼
입장
##야지
문재앙
##주세요
청와대
##아요
##었는데
구성
노력
감사
##됐다
역할
##릭터
##한다고
도시
##했는데
유지
때문이다
마련
전쟁
좌파
장면
지방
##시켜
발전
##하던
##스로
되어
##라마
##와서
말고
##스럽
##하겠
##스터
부산
건강
정의
박근혜
소비
##아니
지적
보인다
##이란
##위원
##히려
분석
자동
판단
넘어
##는건
상당
해당
##이네
절대
확대
##하지만
고객
##리스
오히려
업체
자연
그게
공부
40
보수
오후
경험
안전
##자리
매우
##하냐
캐릭터
경영
범죄
만큼
기존
##했고
비교
사라
##더라
##시고
##이지만
도움
비판
전망
##이라도
솔직
비슷
없고
강화
스스로
##었던
거짓
##이버
시즌
##가고
기회
다르
강조
바이
##스템
그대로
기관
##파트
##이니
##어난
스토리
##디어
인물
제작
안되
##지않
상승
특별
주변
밝혔다
이루
하는데
거래
원래
공동
대비
##한다는
활용
##영화
미친
구조
대신
연기
능력
##므로
자한
빨갱
##가리
##되었다
프로그램
다만
되고
분명
행복
위험
순간
##드는
##르는
제일
##자기
OOO
그때
시키
치료
라며
인생
21
은행
조직
기간
김정
지속
##텐데
부족
아무리
24
##로서
##으면서
##보니
변화
바람
전혀
전부
##이기
##했다고
##거지
다니
방식
##에선
병원
상품
되었다
저렇게
도록
항상
혼자
적용
인사
집중
비롯
##하니
##무원
가진
##라인
않는다
마스크
##마트
회장
##르고
##정한
주민
##있다
일단
출연
분야
전략
내년
아니면
충분
않았다
지켜
네이버
걱정
확실
##한데
개선
는데
##겠지만
##동산
뭔가
##었고
##스타
같은데
의견
##수록
대체
공산
##은행
또는
높은
중앙
분위
##BS
더불
건설
##되면
적극
보호
아마
솔직히
##기고
199
받고
나가
이러한
주요
고려
목표
달러
검사
크게
있지만
아님
열린
나오는
직원
우선
어렵
그걸
달리
##려면
##겠네
행사
노래
##건가
##때문
신천
있던
궁금
22
느끼
23
시스템
##을때
나서
드라마
그동안
인해
##더라도
있어서
수출
##되지
##라면
여행
중요한
##이터
아파트
가치
가까
매출
의료
부동산
친일
##심히
음악
계약
##아야
다양한
##지지
##시장
실제로
가져
신경
수익
##먹고
##해주
보니
인터넷
##하다고
단체
자식
##기는
현장
##려서
다가
##요일
기분
관계자
출신
못하고
대회
업무
그룹
갑자기
##하는게
조작
바라
사과
안보
##운동
각각
여론
움직
앞서
##에요
오래
유럽
없었다
차지
하면서
선동
영업
세월
##리면
방문
부담
기능
##지마
##해요
##건데
어쩌
##사업
습니다
##드시
가슴
설치
이전
발견
부정
##대한
##조건
##사회
##났다
##간다
사망
대단
빨갱이
아닐
따라서
주식
##돼지
##으니까
나이
확보
자동차
들어가
##교육
##새끼
시절
모르는
어머니
##내고
외교
회의
지도
총선
주택
언급
##봐라
열심히
먹고
최소
광고
##하였다
새끼
##자인
공감
나와
##른다
통합
공급
##구요
아버지
우려
않을
불법
대응
보험
정확
##오는
전문가
LG
##던데
못하는
##군요
집단
선생
##하라
##억원
비해
인천
##정권
##보는
안정
##구만
남편
##거다
##거든
떠나
끝나
있지
처리
##전자
##대표
영국
하다
지구
##러스
##냐고
가는
광주
##8년
싶은
시험
글로
공무원
목적
유명
밝혀
알았
보도
구속
작업
입니다
여러분
##시는
거기
국회의원
자금
사는
바뀌
오전
##이션
나올
##조차
무시
##리즈
본인
단순
##학생
안타
가서
카드
정당
반응
전화
##대체
대책
갖고
26
##생각
참석
개혁
27
탄핵
여전
##이상
이익
과학
##국민
##어진
글로벌
했는데
시청
나쁜
평균
아베
##난다
사기
의사
지키
라이
괜찮
고민
영상
##이라면
시설
##5년
무서
##까요
보기
##너지
불가
이뤄
##7년
처벌
위치
SK
##9년
##이자
##거야
희망
달라
반면
강력
아래
되었
##이어
##없다
선정
제도
28
##했지만
제외
이동
뉴스
실시
따른
도대체
신고
관광
반드시
공식
있으며
##왔다
주는
훨씬
##세계
브랜드
군대
장기
받은
의해
소설
싸우
어찌
60
진심
제시
있으면
신천지
거리
잡아
최초
프랑
##갔다
##지면
소재
아는
무조건
투표
도입
되면
젊은
아빠
소속
말씀
권력
##으로서
평화
하여
좋아요
하늘
##생활
##BC
##내는
##듯이
독일
성격
따르면
핵심
##겠다고
TV
##워서
남성
공간
유치
##라서
##6년
##럼프
중소
인식
시행
청소
##준다
##하다는
롯데
해라
##지게
많다
사태
생각해
아프
만약
각종
아름
스포
감염
오른
스마트
마치
종교
##받고
불안
##했을
나중
자세
보유
일어나
소개
자주
너희
##지역
##단체
가정
심각
통신
느껴
비용
그거
##개월
예산
모델
인상
논란
##이크
아니냐
##겠습니다
이젠
증거
사장
##관계
있게
내부
##수있
##인트
진실
협력
수입
어려운
되지
보통
##겠다는
빠져
독립
점점
센터
싶다
트럼프
방향
연결
##어버
장애
음식
최종
##시민
선보
안나
##림픽
변호
자료
##으로써
작은
불구
증권
회복
맞는
인권
주제
쉽게
사무
거짓말
공연
감정
감소
당연히
##레스
전투
두고
없을
실패
고통
담당
##잖아요
대화
형태
올려
누군
그려
##어들
승리
202
29
여전히
신청
대선
이래
행정
미리
제목
전자
##하거나
한심
출시
청년
방안
##운드
##할때
개념
도와
주고
단계
김정은
대출
무능
감동
##냈다
마을
추천
시켜
아내
##디오
위원회
##머리
##되었
##여서
##4년
공공
##2년
더불어
들고
사례
업계
있도록
본격
플레이
자본
불러
##프로
개돼지
러시아
의혹
마찬
않아
진출
관한
오는
1년
주목
국정
##이드
노조
말하는
스트
포기
제기
##조사
소득
자꾸
모양
배댓
있기
나온다
재판
그럴
좋다
조정
타이
좌빨
일으
싫어
가짜
전개
수도
##위원회
당장
이기
강남
합의
지급
차량
##작가
위기
발언
수요
교회
그나
70
개최
이끌
아침
##로부터
전환
나타나
참가
하기
못하
##경제
전기
##했다는
제주
##그룹
##일보
살인
없었
마찬가지
혐의
인도
조용
응원
바꾸
고용
조성
교통
대형
불쌍
##3년
좋아하는
외국인
##두고
저거
코스
촬영
필요한
하락
##깨문
자산
31
##센터
공정
상관
파악
##시면
시리즈
받아들
##져서
##기관
##든지
오랜
만드는
##마디
유일
부탁
매일
##등학교
조건
자격
아시아
##하였
전달
프리
##라리
기획
##건지
예술
기반
할머니
##민주
연출
온라인
힘든
환자
지하
초반
민족
유리
혹은
확진
진보
인기
평생
##스코
독재
##고있
대중
##는거지
##란다
##리기
##하세요
재앙
받는
우승
##어라
충분히
것이라고
논의
동생
불과
자랑
##산업
아예
이사
##다운
그러면
성과
펀드
법무
참고
제한
##반기
그저
##뉴스
동시
종합
##르게
하며
연합
영어
없다는
이걸
구축
동물
##만한
차이
##지어
##아버
이라
받을
하자
세월호
으며
분량
인수
했던
성적
전통
가입
이때
실적
쓰는
조치
받았
거나
##1년
훈련
##시킨
##많은
관객
재산
보여주
완전히
해석
좋겠다
지난달
나머
500
행위
##봐야
비난
##느냐
단지
없다고
안되는
##습니까
건물
그랬
생각하는
취업
##스러운
##던가
베뎃
됐다
배경
요청
구매
됩니다
별로
주로
198
최저
해주
##우고
금지
대깨문
##해보
반영
2년
가르
서민
약간
신문
입국
##만큼
자살
시도
철저
끌어
##것같
##아가
생긴
##였던
복지
개정
검토
화장
설립
특징
##시키는
과연
프랑스
수상
있었던
설정
##들고
##인거
굉장
돌아가
황교
일자리
구체
##회사
대변
차례
강제
##지말고
약속
##어지
##장관
않다
##이든
목소리
이명
봐도
남아
규제
연속
상당히
##가락
차별
어린이
##무리
##리오
신뢰
80
보이는
선발
##겠냐
남북
강한
일정
혁신
그건
생명
애초
혹시
장난
인지
가만
##적이고
부문
홍보
##한게
불편
토착
달려
##이죠
##웹툰
##롭게
상처
##끼리
생겼
정리
##시키고
나무
민간
##문화
쓰고
하는거
##스럽게
귀여
모르고
갈등
##차피
하게
차라리
있으니
##한다면
피해자
멤버
근무
의심
부르
하이
평소
올리
통일
보다
전라도
덧붙
오빠
사상
상상
##예요
##나게
##겁니다
노무
##랐다
죽은
올림픽
싸움
소비자
##가요
미사
통과
작년
##페이지
##려야
내놓
알바
어차피
없애
목숨
저희
위원장
수행
직업
벌써
거지
공장
인터뷰
도로
눈치
분위기
연예
대사
는다
재미있
연재
지지율
군사
##같은데
##투자
애니
역대
듣고
물어
있음
아닙
##가지고
있어야
분노
한마디
희생
규정
항공
그린
3년
##프트
##싶다
##인줄
##대통령
##하려고
살고
##er
##아라
미세
이르
놓고
##국가
##먹는
타고
##개발
거부
확산
비중
국방
굉장히
##쳤다
본다
중소기업
제안
300
죽음
많아
충격
어쩔
##지원
심지어
무기
알게
확정
근거
##하려
일상
우주
##드립
전해
공사
지배
고양
그러니까
##바로
##50
여름
못할
이명박
비슷한
다행
엄청난
그림체
이라는
늘어
##사고
민주주의
##할수
똑같
##정책
기념
어서
이재
##나는
적폐
10년
##랍니다
마이
질문
##리게
아쉬
##당한
고생
중간
시점
촛불
게다가
4월
부끄
공포
포인트
##셔서
예전
##관리
근로
그나마
생기
보면서
분양
향후
자녀
##봐도
혜택
것입니다
이곳
있다면
신규
특수
맨날
졸업
오르
임명
후반
스포츠
통한
에너지
청소년
없어서
비율
##리카
완벽
야당
제조
전시
만족
바꿔
새로
동일
##개혁
저지
당선
##보기
눈물
뛰어
못했
옛날
된다고
나누
방침
액션
물건
등록
지식
##기술
##나오
직장
완성
##아닌
노무현
주도
##은거
바탕
가득
신용
##시지
독자
판결
바보
우수
##져야
##자고
없는데
레이
##하다가
##세대
중단
돌려
있나
진정
1000
임금
했지만
##우스
축구
전반
난리
연애
특정
겁니다
보장
데이터
유통
슈퍼
표정
무섭
아닌데
겨울
##시대
경기도
##텐츠
저러
기초
시기
돼지
맞춰
가면
##하신
접근
##문제
불구하고
##해야지
논리
몰아
예정이다
잠시
##다른
따로
있어요
같아요
##것이다
나머지
월드
선물
##우는
분기
##활동
마무리
##가면
##거운
형성
거쳐
벌어
존나
리그
##선거
밝히
윤석
현지
공주
##았는데
매력
수술
조합
##업체
##퓨터
##았던
##하라고
90
##받는
인구
바다
협상
3월
소유
모자
굳이
봐야
기부
재정
##시설
이루어
내일
##가족
멍청
##해진
위안
##환경
##겠죠
활성
제출
인한
나경
##연구
##인간
##됩니다
##스러
반복
변경
세대
현상
디지
대전
비밀
노인
개봉
달창
시각
##10
만들고
있네
똑같은
일베
##는거야
6월
지정
##0년대
위협
##걸로
체험
KBS
##려라
원칙
결론
##증권
답답
도전
일제
협의
살펴
미안
개월
##온다
이상한
원인
으면
않으면
##케팅
5월
사전
그러니
월급
동네
임대
##마라
된다는
##보자
악플
지분
사법
둘러
대박
##방송
믿고
일어
가능한
집안
호텔
디자인
##니스
베트
##거같
서울시
꾸준
저기
어른
만드
무대
반성
프로젝
가구
##거든요
황교안
선언
##리어
##이익
달성
##하려는
폭력
안하고
토론
##했습니다
선진
대기업
박정
경북
와서
##없고
##께서
하시
의식
삼성전자
투입
컴퓨터
##왜구
정주
초기
##리그
미세먼
계열
창업
시작했다
골프
금리
##일까
못했다
총리
##느라
##줘야
지랄
하나님
태양
##만화
##지요
마라
버스
파괴
##아지
보였
진정한
9월
##20
짜증
나름
##사건
##나서
보상
비행
측면
어울
MBC
마법
10월
세력
##도시
35
원하는
바이러스
아무것
최악
예방
공유
말해
12월
이미지
##메라
채용
구분
절차
##었다고
잘생
도망
불가능
늘어나
블랙
##거라
사퇴
요소
공수
되는데
7월
벗어나
드디어
심리
발행
무역
서울대
미치
하네
##조선
받았다
베트남
울산
싫어요
##짜리
수업
운용
##in
어제
무너
외모
##학년
운전
##는가
취급
대우
못해
##시켰
택시
다소
보였다
맞아
조심
##아이
중국인
크리스
그만큼
긴장
흔들
동료
##웠다
##마자
##래도
뭐냐
너무나
빠른
바닥
##이었던
온갖
스마트폰
한반
심판
의무
이벤
무리
한국인
같습니다
그렇지
없습니다
##이에요
없음
##하도록
귀엽
아나
있는지
말아
##있는데
스타일
##있고
리더
##으로부터
긍정
소녀
놀라
##보단
마케팅
8월
나섰
특성
쿠키
향해
노동자
동원
소통
##받은
아니라고
하니
문죄
회원
##30
주가
1월
거야
왔다
##바일
##되면서
정작
미사일
##수준
변호사
##하니까
는지
##말로
방어
##이팅
KT
영웅
경남
확실히
효율
흐름
인제
똑같이
않을까
##주시
이하
펼쳐
담배
휴대
페미
##친구
아닐까
##하셨
브라
단어
메이
풀어
전년
실험
출발
저녁
000
이성
대답
본부
금액
무식
##그러
극복
자원
##겠네요
데뷔
##주면
##경기
손해
친일파
생각하고
준다
체계
라면
사회주의
부인
##이네요
무료
불리
영역
##하네요
스페
##시오
봤는데
같아
절반
고소
##부모
아까
보니까
있었는데
소름
전했
이리
수많은
수십
##on
##달라고
물러
토착왜구
장소
남녀
덕분
적절
모바일
헌법
가고
죽을
디지털
악마
동의
사형
아냐
위반
이탈
##한국
높이
폭발
##인듯
몰랐
가까운
##규모
매년
교사
집회
더러운
##라스
먹는
문학
다이
안된다
##나고
법무부
않게
집행
영원
두려
나선
언어
허용
##겼다
자극
##보네
##해지
197
따뜻
통화
깨끗
##니아
대가리
테러
원작
조용히
정치인
외부
전형
매각
유튜
실망
양심
##독교
드립
가만히
작용
잘못된
여당
##마저
보건
사실상
검색
2월
2차
##받아
인증
아름다운
2000
강원
가수
언니
인근
##스토
채권
싶어
일주
누리
예고
##었을
모아
아닙니다
소송
웃음
##잡고
별점
연금
11월
높아
설명했다
##정보
##거래
수호
부여
연장
프레
하던
##이였
전용
방역
유니
##하러
인데
명예
홍콩
커피
##했으면
하는게
종목
비리
내리
통해서
건축
사항
##기사
나눠
바랍니다
기여
##카드
들여
이럴
콘텐츠
프로젝트
체제
수용
##플레이
추정
도착
아동
구입
있을까
체결
총장
공수처
##겠어요
폐지
들어오
주말
정규
인력
순수
앉아
##시킬
훌륭
의한
시위
##하는건
걸어
##조작
##돌아
##an
계산
작성
상징
##보험
우한
떠올
이나라
진단
반도
##쳐서
##나무
지시
낮은
수정
##대는
제2
식품
뒤집
##건설
애플
축하
소중
카메라
보지
잡고
설계
피부
가끔
통제
흘러
##이니까
냄새
팩트
보이지
##리티
##으려고
해야지
기계
배치
5년
다면서
감옥
좋았
##쓰고
36
##영업
##주택
나와서
왠지
##있어
상담
뉴욕
##진짜
간다
부부
케이
##했으며
감안
##길래
##한건
한나라
뭐라
##위해
합리
생존
내내
맞추
어떠
언제나
에이
있냐
평범
연락
45
봐라
회담
시원
##누리
나타났
없네
스킬
만난
이중
51
다면
##리스트
##리며
자한당
예측
법률
보자
억울
실천
법인
전했다
어이
##바리
백신
봉사
##세기
새벽
전세계
반일
나갈
##버린
##라니
다녀
비상
##려나
심사
교체
##놓은
정체
뭐야
매국
안타깝
##티브
##이라니
##었지만
##라지
개그
화려
모른다
대처
밀어
흥미
베이
당국
##워크
우연
인재
쏟아
가게
##히는
떨어진
왜이
그렇다고
투쟁
웃기
여부
한다면
정주행
제1
비정
나쁘
할인
자아
##달러
스크
알아서
남은
있으
없지
야구
전날
학습
집값
데려
라인
불만
기울
정신차
최소한
대로
##하겠다
개소리
내세
예비
유시민
##본다
쓰러
장비
공산주의
##아치
꾸준히
화면
공모
##대학
한계
먹을
속도
##시길
말할
##사랑
##모리
패션
창조
고위
홈페이지
아니야
##금융
출전
편의
실질
생겨
박정희
아쉽
##금지
들어서
주문
미군
적어도
제거
간단
1위
탄생
명령
공산당
말한다
정신병
이승
##댓글
이정도
최순
연습
##제품
말한
##었습니다
##피소
검은
윤석열
##되기
사이트
생각한다
원내
좋을
설마
기독교
태극
##지기
아무런
반도체
##인가요
도덕
##하는지
##회의
부상
##로그
신기
기소
가해
공항
##사는
겨우
##리자
이른
창출
이슈
생각합니다
나오고
##따라
제정
결코
카페
##임금
챙겨
##바이
##기간
무서운
보게
나왔다
안좋
##거면
##먹을
32
정은
입고
##하시는
전남
혼란
없으면
쇼핑
등등
가까이
뻔뻔
집권
강력한
실현
##지마라
상식
채널
체육
다루
이론
통계
소년
안돼
올랐
이혼
이벤트
의도
나오면
##소득
할아버
활약
##대회
수석
가야
알려졌
클럽
유사
김영
모여
분명히
##야말로
보낸
##서관
##어야지
청문
##자체
##대가리
틀딱
떠오
##이라며
아저
SBS
근본
더이상
계획이다
##항공
판사
주사
철학
취소
나경원
유튜브
##범죄
기타
안내
##친다
실력
불매
##메이션
##나가
2015년
물리
느낄
오픈
억지
못하게
간첩
죽여
압박
##들아
##남불
한화
앨범
않나
현금
##바닥
몰라
지상
가능하다
##까봐
소식
수학
##겠어
상장
칭찬
감성
방해
##구조
개입
##19
이외
미술
##거냐
인류
여주
##게임
끝내
애국
초딩
저번
잠깐
이용해
그곳
지수
때려
최대한
선배
등급
갖추
소환
추구
초등
##화점
##정치
오해
모른
##받을
광화
손가락
##상태
만한
미세먼지
2016년
관련된
리얼
가라
출마
수수
##라우
확률
##평가
괴롭
전면
##던지
일부러
돌아오
단순히
상위
동성
동아
##리트
수능
이달
해소
아니지만
##거고
뽑아
##회장
##TV
고백
##된다고
미디어
확장
복귀
빼고
법원
##여자
분리
##럽게
아이템
##먹은
장르
재밌게
없지만
어깨
국토
무한
키우
##기지
##라며
33
다를
##기에
살려
그리스
플랫
국무
##단다
##피스
##당히
주의
고향
증명
것이었다
안철
연계
아르
듯한
196
##치게
##싶은
34
##였는데
38
여유
##ar
다리
##없어
경쟁력
키워
많은데
청구
기생
감사합니다
에피소
팔아
보여주는
네트
하냐
전력
진지
상호
오지
관람
느낀
평등
자전
종북
설득
##치지
수원
거듭
##한번
##니깐
##주지
##든가
필요하다
저게
말이다
고발
##아니라
차단
왜냐
어려움
끝난
했고
과제
점검
아니지
##수수
모집
착각
수치
빠르
지옥
깊은
이웃
대놓고
정확히
한데
##상황
부품
한반도
박사
있었고
##거임
인공
99
갈수록
요리
바란다
영혼
갔다
2017년
##적이다
##되는데
대만
##비아
커플
##로지
교과
진입
##or
힘내
##는거다
대변인
복잡
내고
##카오
청원
재난
##그리
##프라
##져라
걸쳐
문빠
라헬
##버리
발사
떨어지
투자자
##긴다
반발
했으나
종류
겁나
##뮤니
부활
뛰어난
성폭
찬성
바른
매수
협박
##동생
공천
유도
물고
노출
빨간
대기
여야
괜히
##이라서
##노총
보조
##터리
최강
5000
검증
1인
들었다
사귀
고등학교
성능
인가
했다고
지루
발휘
조선일보
##버스
2014년
직후
완화
이란
착한
##보내
##배우
##히고
투기
배달
##있네
2018년
원전
00
후회
##여행
가량
##드리
연구원
배뎃
필수
짱깨
##의식
생각하면
소방
것이라는
김대
할수
경상
줄어들
자영업
지휘
이지
화학
입학
한미
위안부
표시
협회
##그래
고급
재무
아이디어
몰려
패배
죽어
유료
결제
투명
방사
##슬람
##직원
둘다
어야
##영상
멀리
했으며
##겠는데
인민
육성
KB
철저히
애니메이션
대다
둘째
##공사
##되서
올린
##나면
##미터
답변
응답
최순실
아닌가요
못한다
국립
그렇고
동기
멋진
비례
고정
##부대
##시절
어요
##줌마
연간
월드컵
배신
가을
제재
지하철
모르겠다
돌파
그러고
양성
다름
현대차
매장
좋지
보인
자율
이런거
##피언
##었으면
부대
어릴
맞고
고마
##장면
순위
자존
탈출
날아
실업
줄어
이탈리아
남한
##전쟁
스테
학원
옹호
조선족
이민
경고
균형
주지
2018
무려
파트
세종
자전거
노예
세워
##였고
##해주는
악화
대학생
##다시
단독
방지
##된다는
언젠
검찰개혁
상반기
아울
##NS
보안
성인
식당
형사
의지
일찍
수단
헤어
그다
대법
것이고
올라가
분류
떨어져
동양
IT
신체
##렀다
마주
느꼈
개판
김성
마침
##았고
봅니다
보이고
청문회
대결
##더만
##자나
받지
넘는
텔레
동맹
배려
당사
존경
##스포
한명
얻어
털어
아웃
커뮤니
공약
한정
##데이
모를
##이던
##을텐데
##협회
입주
이다
중인
##하지말고
페이스
##셔야
##스티
400
시나
유명한
들어간
##자산
데리고
새누리
마약
비롯한
##연금
2012년
##세력
임시
사용하는
##되며
파워
##수사
고등
하세요
##오고
기다리
긴급
3일
거주
다섯
지내
##보지
##힌다
트위
하는지
##먼트
##하겠다고
그날
##치기
물질
##드립니다
끌고
하반기
한다며
매달
나아
완료
마리
살짝
##으려
출산
##하긴
축제
태어나
뭔지
정기
1만
2013년
##총장
되게
시작한
비록
부처
경계
시킨
가난
근처
##성장
권리
것인가
스파
걸려
편집
##할까
2015
안타까
소화
무릎
향상
옮겨
머물
취임
주력
로봇
수백
모임
보고서
광화문
스피
예능
말하고
##분기
##om
두산
원자
##계획
서서
차원
##아도
죽이
##리라
예쁘
##래곤
##낸다
##있게
전두
실수
##했으나
거다
주세요
버섯
화이팅
네트워크
##너무
고속
##민지
맞지
대리
하셨
합격
소프트
부채
##버렸
촉구
##가능
빠진
2010년
주관
분열
##해주세요
많고
이념
압도
뮤지
것인지
스트레스
##럽다
##의회
우린
##가며
##발전
한나라당
##나다
##공업
죄송
치고
열어
##거리는
사랑하는
로맨
꺼내
빼앗
할지
후원
몇몇
신선
##로남불
명확
살해
연예인
공통
일으키
업종
이자
공직
##러워
##단계
##었다는
중이다
##지도
##아아
전설
##조합
추억
##에도
마세요
##치면
최저임금
보일
도쿄
##하겠다는
이겨
좀비
접촉
##게요
##여야
1차
우파
선진국
좋고
양아치
전세
질병
주둥
하였다
##스럽다
아시
##든다
##레이드
##있음
살아남
눌러
##했는지
강해
없으니
한심한
시선
걸린
나타났다
높다
아울러
37
당황
다니는
카카오
짧은
##악한
##메달
호흡
선고
수비
프리미
##연합
자유한국
##모습
2019년
있는거
어쨌
라도
##문학
요금
##구리
왕자
일어난
미쳤
워낙
55
나오지
대가
상대방
대북
도둑
장사
저항
해요
주차
챔피언
종료
1억
##드려
PC
어리
유저
죄다
마시
곳곳
당한
##다는게
##웨이
##감독
초대
버티
선호
취재
이라며
##스런
##었어요
한참
권한
특검
##경찰
같네요
과장
지닌
빠르게
다르게
사정
##미디
알았는데
##너스
변신
앞두고
##en
가로
아우
유학
##보이
아이돌
뿐이다
전두환
원장
익숙
건너
치열
이길
맞춤
법안
2016
축소
사유
아야
##이프
몰입
##버리고
주체
##가라
아깝
그런거
대학교
##복지
개편
##하지않
원내대표
하다가
##대고
데이
시나리오
유일한
귀신
개성
저질
##르면
바뀐
징역
대단한
반박
획득
이래서
찾는
##al
솔로
연대
그래야
감시
군인
##만명
스케
##아님
강요
2014
여의
##는거냐
한두
결승
##11
한달
특별한
원숭
2017
매국노
##어져
##라운드
단기
1일
##을듯
##사장
오직
덧붙였
대폭
강조했다
휴재
싫다
발매
문통
52
이쁘
넣어
않습니다
마감
자치
신한
150
폭행
태극기
고개
왜곡
바이오
접수
가리
개방
##40
##가야
가짜뉴스
뿌리
고구
재벌
똑똑
매입
##이었는데
깜짝
##다리
치매
잠재
SNS
점차
##었나
갖춘
##공자
비싸
##도로
아저씨
뭐지
고맙
##드라마
몰라도
시켰
사이다
##하고자
자빠
만남
아프리카
되기
아줌마
노선
타격
배출
누군가
늘어난
정식
김종
레벨
단일
그러한
조언
##으신
대충
치킨
##화된
것이
저리
존중
48
##쓰는
코리아
헛소리
호주
버리고
쉬운
완결
##선수
심각한
##겠나
건데
##산물
삭제
의회
함부
해체
안철수
활발
##at
알려진
##되어야
##로스
클래
핸드
결합
##란히
실행
뭐라고
임기
##했네
발굴
##답니다
아마도
오랜만
개별
이딴
##들이다
거예요
나아가
호소
##답게
적은
##총리
혁명
일이다
시급
문죄인
기록했다
해양
모으
지능
천재
2011년
조기
이스
다운
바라보
20대
오랫
토지
서류
만날
무지
41
유엔
##병원
들려
극장
39
##한것
좋다고
그럼에도
##자는
믿을
벤처
##st
##내용
격리
##니어
##할듯
출범
##프레
안경
연봉
비즈
해주세요
묘사
##하는것
남겨
##조리
밝힌
알려졌다
아기
물가
연말
##봐요
쉴드
않지만
트위터
거죠
했을
부진
근대
4년
부자
얻을
교류
##르크
무능한
##이유
관광객
찍어
라디오
죽는
##로써
##달라
강의
메르
좋은데
##봤다
해명
천안
이놈
사이비
지자체
학부모
##자금
##주기
전공
신설
##줄알
만들었다
심장
좀더
연주
객관
김태
끊임
오로지
빨아
있었지만
접종
부장
선임
알지
##우면
같음
주주
형제
재능
하더라도
보스
인하
중반
이어지
타임
폐기
##지사
동반
유행
형식
베스트
파티
##등급
##같다
일주일
추측
가볍
평범한
매매
어째
폐쇄
복합
3000
공원
이틀
유치원
##이긴
며칠
질환
##어리
김경
혐오
한쪽
2008년
##진핑
##오면
쪽바리
하니까
많아서
김치
이모
올바
맞다
깨달
위선
##합시다
사내
든다
##야한다
사로
알려져
만났
없어요
임신
내는
감싸
번역
인성
흔히
65
##줘서
생태
##이었고
올렸
42
##소년
집어
공기
주거
의존
백화점
아픈
고양이
무게
포장
물량
느그
보며
있어도
증시
##사태
동성애
##당하고
##었어
독특
감각
성향
합류
개막
농업
없었던
들어갔
편안
이내
그렇다면
예수
추세
면접
정비
했습니다
##했기
취득
위하여
무관
다수
##왔는데
패턴
수립
##이게
보고싶
내린
##있으면
품질
연구소
코미디
이경
그니까
합병
당연한
깨닫
우울
가스
당초
아무래도
무죄
##자마자
AI
철수
하긴
김대중
##이즈
영입
연관
##좋아
막아
달아
근육
깊이
공화
75
디스
부실
홈런
##과학
동남
영원히
복수
읽어
집계
##이도
구역
수시
2012
차기
제약
난다
요인
조절
최선
오바
비싼
회계
##시기
일방
적당히
##he
##웨어
매주
세트
황제
##가면서
박원
##으므로
##하더니
2009년
하지말고
맞이
석유
스카
반전
##효과
일하는
비롯해
구간
거론
부패
어려워
조만
재단
어쩌면
기아
2019
신속
##이름
##인물
##본부
디자
용서
텐데
에피소드
법정
정해
표출
충북
걸로
몰래
진영
배제
즐거
##저히
CJ
20년
오염
붙어
좌우
거절
즐기
가상
통상
뜨거운
이정
받아야
메인
내게
말하면
주먹
믿는
패러
##은데
오프
파업
##에게서
쉽지
##란드
매체
##졌네
알리
친환경
이렇
주영
즐길
상업
잔인
첫번
##단지
공중
크다
##했어
##시즌
재료
려는
자국민
직전
사용할
죽이고
##필요
가시
자본주의
이끌어
지니
##케이션
##주인
게이
고자
타이틀
에휴
##했어요
발달
##지말
##통신
할까
두번
몬스터
심한
##했지
##차례
##마스
고유
##능력
함부로
보여준다
보러
##에겐
허위
##해야한다
시진핑
방송된
어휴
##전문
고대
##나이
드래곤
게시
한글
풍부
절대로
그러다
##졌고
음주
##보니까
##민주주의
유기
떨어지는
숨겨
전파
단속
대규모
있으나
##으러
출입
쳐다
##대상
범위
안될
휴대폰
운행
김현
무언
##시켰다
오리
오늘날
저건
진화
5일
아니었다
파견
중학교
##았다고
참으로
조만간
제3
매번
태도
셈이다
막말
부과
##입니까
44
화재
지사
전원
##올라
##봤는데
미쳐
자고
대안
훌륭한
이른바
특허
흥행
##하시고
사로잡
허가
기름
뭔데
표준
##빨리
초청
##후보
드는
저렴
버리
##그네
받게
##줘라
등장하는
승인
일관
살기
미니
갖다
##르기
##시험
즉시
장악
3개
넘겨
##시마
철도
##집단
##겹다
보증
똑바로
장학
음성
보여준
논문
왼쪽
유출
##십니다
아니라는
##작용
##었음
전염
늦게
43
기다려
##하죠
##TA
##만들
갤럭
마시고
##보세요
소수
체포
##이여
멈추
##하려면
포항
물타
기생충
문자
부서
환율
욕하는
그렇다
##저리
지지하는
##서비스
대립
슬프
벌레
수록
오랫동안
더라도
어떠한
##규직
점유
##으론
주연
첫째
##펀드
구글
되는거
부족한
조달
##마을
##12
##집니다
출판
연령
##쟁이
없게
포스코
시내
그러면서
##으라고
매출액
##해주고
붉은
어렵다
195
베댓님
문서
역량
##노동
##아들
부드
극단
주사파
영양
으나
환영
가려
가동
모르겠
휴가
페이스북
##매매
한거
뮤지컬
CE
##운용
천만
오타
##트리
##해지는
같아서
##가게
없나
##이어서
퇴직
##벌레
은근
무사
김일
##처리
2010
##마리
##다란
##이면서
##서트
무장
스위
##선동
##했음
했으면
보냈
선전
죽고
연극
##60
유발
이득
레드
선두
무상
##없음
의외
의장
마이크
연합뉴스
##스팅
거두
맞서
아카
##공항
신분
##겠습니까
##으셨
하려고
외환
떡밥
최우
목사
충돌
출근
자연스럽게
덧붙였다
47
선사
저축
판타
직무
재밋
벌금
내면
##하자면
죽일
그렇지만
알았다
은퇴
어쨌든
##주민
기득
식사
##나와
##커녕
전북
10일
4대
194
폭탄
##할지
임원
북미
##해줄
데미
신종
유형
##이너
안다
눈길
입증
##었네
미만
가졌
##싸움
대하여
동영상
취약
비정규직
2020
전교
49
사냥
생각나
비서
##없네
적자
각자
강간
##많이
##나간
귀여워
극우
##관광
화이트
##로드
고작
이시
##라고요
향한
##사이
붕괴
가깝
##구역
바라는
흡수
한국당
##테니
##경영
정말로
왜냐하면
##이구나
##검사
##드라
배운
힘들어
2013
했다는
할아버지
끌려
만들어서
느끼는
멍청한
소련
##아니고
멀쩡
간호
오브
2007년
보급
##건가요
동참
읽고
홍준
소장
투수
##티즌
눈빛
급격
62
외치
리즈
##공개
대장
##리다
일일
##비용
갤럭시
본질
##80
같고
600
계열사
드러내
끝나고
국산
어떨
정확한
##더군요
황금
##거라고
2일
의문
안가
부지
드리
몇년
##하라는
##우리
##였습니다
##센트
하나하나
##토록
관측
자라
블록
정수
어느정도
색깔
듯이
보완
승부
미통
일자
진술
수영
협조
초등학교
열리
비즈니스
가질
##았습니다
인프라
갈아
중도
장치
쓰지
교환
누적
##스테
받는다
명단
잘하고
민생
##리네
캐나다
채택
담긴
다르다
##지면서
움직임
##하길
버린
과도
##안하고
한남
##차별
건지
15일
파트너
브라질
주기
후배
전작
생각할
공략
들어갈
나간
##있지
##저기
타이밍
공짜
넘어서
시달
첨단
##해지고
세우
연방
해방
##하지마
외면
마땅
인원
거대한
진중
고집
범죄자
챙기
좋게
쓸데
##통합
들어가는
##명한
죽인
1도
엔딩
##아닌가
자는
종종
메시
앞장
프레임
##해질
근로자
유승
자제
노트
##민족
번호
##결과
그러므로
광역
조각
상영
##어로
예쁜
항목
##과정
괴물
실시간
남주
오른쪽
캠페
호남
후속
당당
##보면서
##아리
특유
여친
입은
실무
##직한
수천
유입
나가는
46
공시
4일
##다는거
한일
20일
넘게
구라
서초
힘들게
빌려
자림
증상
##구석
##가격
수수료
그런지
누나
모르게
##르지
사업자
프리미엄
계기
구현
보세요
7일
운운
홍준표
명품
##느니
유동
어지
처분
노란
##시스템
태어난
구청
##고기
건가
보아
지점
거라고
새롭게
제외한
점수
이만
민노총
작전
그야말로
##는데요
##해준
침해
착용
##았을
##폐렴
아끼
귀족
한때
##다니는
##타임
달고
각오
들이
마인
표창
다이어
자국
적합
##수수색
신중
간부
부하
체력
던져
감히
문제인
장점
고교
어떡
말라
이행
54
재수
나면
진료
담아
드러나
##교통
양산
보관
예약
##을까요
산다
협약
##있냐
마스터
찬양
코스피
실장
할때
돌아온
후손
서양
##책임
##어지는
어려울
방탄
기다리고
##ou
기어
급증
##상품
드루
자세히
##라엘
맞게
창원
꿈꾸
지각
##었지
고문
정지
당하고
양반
##았지만
구멍
않도록
호랑
손실
추석
##동네
일대
모르겠지만
캠프
유닛
시킬
적응
강하게
충실
가벼
##가스
된다면
2개
일시
##버려
일반인
##회담
##십시오
금방
아이폰
##대학교
아오
추락
단순한
스페인
끊임없이
경선
붙여
들어온
맡은
기원
##내기
급여
곧바로
돈벌
정유
##이브
관찰
하하
어두
거대
변동
줄이
기기
부각
조중
만들어진
넘어가
특이
무서워
IM
요새
##분간
정착
조종
이태
아픔
고기
러브
##기준
끝날
열고
방사능
##되게
종이
즐겁
당해
충남
컬러
1등
재생
##렸는데
잘하는
##테크
채워
압수수색
여겨
커다란
연설
졸라
##되었고
매도
포함한
2011
아가
공작
##업계
지도자
유일하게
##듯한
어케
상당한
블루
부회장
나타난
시사
하는짓
그간
아닌지
14일
국개
##는다고
##언론
무식한
김기
인형
로마
힘들다
##버렸다
이스라엘
생길
끝났
##스키
캡처
정경
배당
##의탑
매니
청산
네티즌
여건
한가
해보
에어
##루션
보복
##et
투어
말았다
##그런
동부
전망이다
테크
감추
##피아
소위
메뉴
메이저
##IA
비핵
##잡아
회견
##줬다
지껄
보여주고
##시켜야
시계
##사항
메시지
바퀴
파리
신입
기구
비하
스럽
감상
국내외
입법
##제한
앞두
김진
##와중
더블
##es
##드러
현행
트리
않아도
모니
뇌물
기레기
생물
런던
밀려
##보호
##있습니다
##회견
화제
내지
도저히
여기저기
필리
이해할
개설
##일러
봤다
왕따
파란
##it
##갑니다
맞은
화려한
달라고
이영
생일
올바른
공인
전역
있는게
대량
추적
쓰면
##더라구요
##았으면
규칙
훼손
중요하다
부르는
재건
담겨
청약
기도
늙은
중고
미개
만일
초과
1조
남친
하얀
불가피
수고
안드
설레
하네요
하겠다
홀로
라면서
##했나
고령
안심
##년간
당부
위로
지출
##이래
윤미
##는것
지어
있다며
스릴
정의당
본래
진상
허락
##신문
아가리
59
틀린
##옵니다
GS
##이요
선박
브리
신인
##좋은
##럽고
급식
불행
##소한
만들기
##관련
##봤자
##공산
교도
지향
판정
##으시
불매운동
##15
##봅니다
구단
트렌
##하이
짐승
고쳐
사드
재개
한강
수집
1천
명칭
지혜
을까
경비
안쓰
내다
따뜻한
계층
마크
쪽팔
오토
지표
##중인
노사
부당
어르
120
허리
행복한
##버리는
##00만
올리는
주최
욕심
##되는거
##심한
하라고
키로
세포
이라고
선출
명백
##자동
동남아
25일
뒤집어
8일
탈락
걸리
평양
깔끔
같았다
오버
유가
지진
와중
실내
많네
주장했다
중립
취향
##장애
넣고
부딪
##투표
##겠는가
월요일
보편
성실
에스
측정
아파
노후
계속해서
즉각
비디오
자발
편이다
##였지만
욕먹
58
짱개
끔찍
180
상실
얻은
귀여운
배워
느냐
시골
태어
화장실
##르트
돼야
강아지
박수
인용
##혀서
약한
경향
##행위
기상
리뷰
##혁명
어둠
##ic
##가는데
##일뿐
이순
저장
##계약
싶어서
점이다
유전
견제
##왔던
블로그
완벽한
6일
담보
강원도
85
국방부
경력
없기
침묵
##남자
신호
##물고
간담
소문
핸드폰
드라이
못생
대거
##체육
창작
이러니
##해진다
장착
찾을
체크
있죠
상무
계좌
중독
2009
기자회견
분쟁
11일
물타기
올랐다
날려
위대한
##리즘
마녀
##이었지만
95
알아야
무시하고
스크린
나설
이수
있다가
김재
가계
강경
12일
한심하다
봐서
구상
##렸을
썩은
좌좀
듣는
윤리
앞세
13일
지주
##구먼
감당
6개월
실종
##이므로
고수
아름다
뮤직
자유한국당
뚜렷
놓은
기쁨
창의
16일
부러
9일
찍은
##그리고
나오는데
스펙
걸고
줘야
많았다
나섰다
위험한
시청자
주위
물류
나베
입원
비행기
최후
##훈련
문제다
##추행
##으세요
##수있는
행태
2008
안들
탄탄
먹어
56
성폭행
방영
고스
입시
##바라
핑계
금메달
지연
##선생
단식
비대
무척
살아라
재미있게
##감정
백성
코믹
애기
잃어버
편성
CEO
만만
숫자
사안
방치
23일
시끄
공주영
커뮤니티
천천
##러리
찾아가
그런가
보내고
콘서트
##리면서
충성
도발
싱글
간접
##로우
10점
딱히
떨어졌
해고
슬픔
의료진
못하면
웃긴
2주
평점
그지
집착
27일
확신
화장품
주간
##했냐
어머
마친
도서관
##연히
##쓰레기
싸워
##좌파
불리는
##았네
코너
제국
엔진
17일
계급
##부지
특혜
18일
내수
##사진
22일
26일
왜구
우연히
##이거나
배상
올리고
24일
사무실
거울
엄격
호기
##엄마
##할거
##무기
대법원
28일
중대
박살
신발
뽑은
열정
어우
21일
##자식
19일
##ST
오류
천천히
점령
##타고
성남
건립
너같은
려고
##세포
##에다
소형
여론조사
태풍
박지
소중한
##잡이
하드
##사무
PD
테스트
##디션
의학
없냐
일요일
위장
수리
구미
보라
의뢰
##국제
대대
설비
한대
일러
있는가
수주
해군
침체
종사
마누
먹은
구경
해피
##하실
내렸
전후
##었는지
날씨
##스레
수급
이어질
양국
누굴
귀찮
##아웃
##사실
하야
##사인
상속
사이버
관련해
이용한
518
않기
##정신
##있나
MC
손님
씨부
주면
모니터
유력
증언
하도
자존심
##km
회수
열리는
되찾
키스
불교
##레인
무력
응원합니다
여태
##까진
일어날
##미애
##겨서
호구
모조리
리스크
부추
##내려
##절한
살아가는
박원순
치는
2006년
뜯어
코스닥
53
들어와
##보수
테마
녹색
발동
시상
신경쓰
유권
##시코
막상
##기면
편리
자유민주주의
##민주당
##브리
엘리
억지로
세운
##는거임
사모
##했다면
##이었습니다
##있어요
##겟다
이슬람
플래
김동
꼬라지
하지마
임상
안녕
진중권
크고
농협
납치
이낙
웃고
핑크
지경
##70
##베댓
불쌍한
말라고
원정
##se
충족
치명
터뜨
득점
마구
입국금지
노릇
버려
보았다
신세계
있었습니다
작곡
잘라
5천
합시다
##리우
시범
##기다
##봐서
유로
보는데
우와
탑재
이제와서
예외
##있을
##ED
되면서
30분
##한지
미소
진모리
마침내
##제도
##하지마라
##트롤
##있던
민감
별도
##데이트
질투
나갔
유공자
물려
예배
비극
다크
장식
##아니냐
중동
##소설
사령
##순간
하라
도중
비트
우습
2번
일행
않았던
폭망
##프로그램
파이
최신
감수
제조업
항의
tv
##자치
이주
64
싸이
되어야
2020년
푸른
되었고
망가
어색
##해져
구제
인종
조지
줄여
잡은
##해졌
일본인
싸우는
이종
논쟁
녀석
##했다가
##한거지
추종
연상
차관
##박한
세무
뛰어나
것이라
30일
어르신
드루킹
장애인
안하는
미칠
타령
않는다는
위치한
##성한
포스터
것이며
라이브
질질
일종
주한
서구
나은
장례
피아
##재판
여의도
라운드
싸울
널리
북괴
스튜
한층
단단
길게
스티
영광
손혜
##그만
##시킨다
계시
대다수
##해졌다
국장
##예술
과감
컨설
욕망
플러스
##lo
두려워
잃은
갑니다
공단
민심
가자
제압
##운전
##위한
조회
##작품
##전략
30대
##하겠지
벗어
##안전
단행
목격
얼른
담은
##린다고
민중
농촌
##둥이
##혔다
있으니까
##하는거지
바쁘
##스러워
학년
역전
둘러싼
국세
다룬
##스카
잡을
성추행
청주
써야
새해
베네
5개
800
상임
괜찮은
테이
저지른
가르쳐
모색
아서
않아서
##버그
##re
그릇
말투
##지다
##것같다
통보
CC
도심
해운
##조직
용인
대외
지불
발악
떠난
##얼굴
이따
정규직
국정원
84
순식
조중동
살리
충청
확실한
##이거
화폐
다큐
낮추
해주는
66
입사
놀아
들은
몇번
1번
4개
시인
무렵
비유
말이야
##는건데
##스탄
##조정
끌어올
##시티
지적했다
##le
이분
고전
아쉬운
##잘못
고등학생
일치
개국
후쿠
성범죄
당일
엔터
##테인
##보이는
##물관
의하면
해제
##있는거
##그림
점포
없던
아닙니까
오바마
면역
살아야
승진
이대로
더벨
구별
본사
유아
편하게
##나온
종로
개학
초등학생
멀티
##섰다
기사입니다
공익
##있다고
아메
선도
1회
공동체
우유
모순
57
입찰
안고
##지능
총괄
신념
##타령
돌입
##립니다
전무
싶지
보다가
팀장
갈라
##레이션
버렸
##거같은데
전사
큰일
크루
합법
예의
않았지만
생각했다
하위
##맞고
##올림픽
도달
어마
인정받
뜬금
운명
하지마라
존재하는
적어
단위
입맛
##나보네
나빠
신앙
##있어서
제주도
잡는
다스
앞둔
슬픈
불어
아아
머릿
결의
유대
써서
막을
##시한
##am
마트
징계
스탠
##포르
3대
서서히
193
##십니까
임직원
수면
주자
##CD
##하였고
태양광
지명
안해
맥주
##보게
바르
태국
법무부장관
인격
적절한
숨어
##세상
갖게
정도면
안팎
IP
건드
히어로
지은
##았다는
개정안
합쳐
##인데요
##할것
오면
역겨
아이고
##모르
뭐하는
전직
신상
2005년
이만화
품목
##공간
##고생
들여다
가볍게
88
또라이
##걸까
시작한다
계신
좋아서
느끼고
격려
원숭이
스님
증권사
##그릇
##웠던
생각하지
히로
늘려
태평
초래
영업이익
##하다니
모은
소모
##고한
보존
##모델
대체로
떨어뜨
업데이트
한숨
63
남부
##빨갱
지나가
탈북
크기
com
싫어하는
교활
캐스팅
는가
작동
##번에
않았고
사라진
떠들
##18
뛰어넘
건전
언젠가
국민연금
점심
##시스
올릴
##자유
##장한
##이잖아
포르
평창
해상
표출된
떠나서
대륙
남탓
필리핀
시체
안나오
결말
케이스
##바람
말자
절감
양보
부적
인턴
경매
전주
소외
저딴
##했으니
##OOO
토요일
캠페인
건조
초월
주행
당분간
29일
##통수
김민
일진
##는건가
짐작
접속
뻔한
극혐
명절
##생명
자위
##이사
행보
늘리
마르
주어
##였다고
메르스
하수
오오
리더십
민지
다녔
11시
문대통령
72
발생한
용기
##해놓고
넘치는
배터리
무엇인지
조롱
풀이
방위
솔루션
##독재
하는건
MA
하시는
플랫폼
충전
케이블
##얘기
되나
로드
전제
비전
하더니
30년
2000년
##내야
어딘
바꿀
##하겠습니다
순환
지나치게
잡혀
회피
##싱턴
안됨
잊지
업그
찌질
강렬
꼴통
유연
독점
김수
##니즘
않음
지리
있나요
##해온
융합
많지
짓거리
혈액
비하면
될까
전일
##였어
작중
2천
섭취
이끄
##으려는
동일한
펼치
자네
유료페이지
청춘
관여
판타지
멸망
쓰레
예상된다
재활
각성
넓은
해준
김상
도박
어쩔수
##공단
엄청나게
##바다
수소
교통사고
뒤늦
##클럽
##가루
극대
도와주
다음주
##지구
아무튼
클라우
정서
엉덩
또다시
사서
##하진
영장
진작
편견
먹으면
다행히
정확하게
##아냐
몰고
바람직
대단하다
낫다
일각
##공격
추모
아니에요
##일듯
##시켜라
이재명
일으킨
남기
유용
##검찰
이천
정답
강행
육아
##렸던
2만
우한폐렴
##대책
있긴
안되고
농민
700
사죄
쫓아
##기능
더더
포스트
대목
절망
데이트
컨셉
려면
상황이다
크리스마스
부작용
트레이
서버
중구
세뇌
성매매
하여간
편의점
스타트
##없다고
받아서
##일으
베이징
안달
갖춰
문정
같다고
소프트웨어
합동
동화
##개념
들면
당첨
자회사
넘기
독특한
크로
세부
##법인
하지말
전수
윤미향
현황
방금
촉진
NH
높여
무덤
대해선
될지
4000
여신
했는지
##PG
이상하게
##릅니다
##와라
피고
마디
상환
한방
##그냥
##시네
나이트
떨어질
야권
##들여
변명
소상
IMF
##구멍
FTA
위조
##내서
의해서
있겠지만
교육청
수구
주장하는
##고속
##인건
##위기
제외하고
타입
낭비
믿음
##공원
아닐까요
##스럽고
운영하는
##재산
사실이다
##나가는
정황
넘쳐
발급
철거
돌아가는
연평
화성
나대
##리는게
무섭다
간신
유독
한창
신도
확인할
##트라
1주
기재
잃고
##마냥
버전
장군
심화
##스트라
싫은
디스플레이
지원금
누르
억제
최적
3번
자문
수습
동작
타자
머리카
옳은
교과서
힐링
식민지
병사
##시키기
놀이
##어주
##이건
외계
오피스
설문
해놓고
정통
그딴
이룬
박영
##없어서
왜이리
##TBC
##셨다
##로워
##당하는
전라
가속
튀어나
치러
##의자
식물
궁금하다
##에서부터
보낼
##현실
찾기
모르지만
상관없이
골목
왤케
경주
느끼게
열린다
하신
추미애
미성
이라크
친중
소요
새롭
민원
공개된
한동안
##스케
되냐
##빠진
성별
주리
##대출
강연
신화
3개월
쩝쩝
메갈
모험
##되나
맘대로
침략
생겼다
사망자
준우
경찰서
임무
일어났
2004년
유족
##꺼야
모범
대구시
멕시코
##다는건
나가서
이용하는
운전자
##없는데
빠지
시작된
여러가지
##기전
들어가서
##피탈
주었다
궁극
앞뒤
##하든
듯하다
정성
김지
##마음
올렸다
동해
좋겠습니다
티켓
##사기
어리석
##노조
기후
개웃
NC
시티
조장
다음날
##대문
파는
반려
조합원
피곤
거냐
많을
애매
조명
##경북
냉장
인공지능
신라
##중앙
따져
종족
##보며
벌이
##근데
교육부
##리나
여권
창피
자까
민정
암살
##꾸로
연휴
낮아
##하루
##이지요
엉망
이쁜
후진
실정
##ing
##겠지요
이어지는
##일본
거고
77
바꾼
사랑해
김일성
서브
놀랍
죽이는
되어서
스트레
##데미
꼬리
시민단체
결심
##시작
대한항공
편입
귀국
전하
##대사
오만
갑작
보소
##자본
##폭력
놀고
끌어내
##인게
받아들여
즐겨
대주
취지
힘내세요
##토리
소멸
몸매
재밌는
치유
성공한
바깥
하나같이
히트
절실
파일
지네
40대
정원
박스
이적
싶은데
대접
아는데
살아있는
성숙
##TE
토끼
응급
##그라
##가치
스승
1화
주류
독립운동
힘입
바스코
얻고
학과
갖는
워싱턴
줄줄
요약
근접
택배
당하는
뭐니
명분
이정도면
반대하는
시키는
거친
미션
놀러
살다
메리
##겠니
추경
##셨으면
싶습니다
수령
아샤
##가포르
틀림
##생산
교훈
연인
이쪽
67
가공
저정도
인건
출석
못해서
사라지
중계
남긴
##지방
가해자
하느
##더러
퀄리티
##느낌
환상
벌어진
철회
그러자
##비율
포켓
##어준
커버
상향
살면서
보내는
##인것
##교수
상생
골드
먼지
##가운
급등
천연
98
##파크
선제
마사
##우지
신임
로맨스
##테인먼트
걸렸
2021
##풀이
##약품
서술
##정당
싱가포르
싶으면
바란
컨트롤
게재
엉뚱
##역시
음료
부끄러운
곤란
빌딩
앞장서
연수
제이
않냐
패러디
깨끗한
하려
포트
코로나19
알렉
돌아다니
하여튼
위축
이해찬
있네요
꺼져
찾고
##네시아
금속
성명
##놀이
##보드
##16
CG
내야
##추어
죽창
지인
##로이드
##없으면
##위원장
있을지
vs
##야구
##월드
##더라고요
붙잡
카운
생각한
끝나면
패널
세탁
생기는
그다지
비핵화
구석
IB
조폭
##공화
길거리
##키는
전지
명작
##CC
가벼운
제공하는
1시간
##13
금강
거꾸로
마음대로
이병
등장한다
심상
2배
학살
##바지
##구니
추격
##아주
##사이트
시키고
모인
심하게
생생
서해
김용
보좌
##였음
2위
##종일
##대기
68
납부
##14
##시죠
견해
플라
콜라
저작
##지상
1개
##순위
영토
공지
프린
##경쟁
조항
관세
움직이는
하여금
스코
사우
돌아와
김연
2002년
##나오는
##출신
##el
특화
등장한
정신나간
막장
페이
192
지침
74
##되냐
공기업
욕하고
##운영
막고
유전자
경호
##NA
세기
##가다
금요일
##봉사
하거나
달린
기지
##둘러
##치료
바쁜
사면
즐거운
잔뜩
발목
노하
##알고
공무
##받침
철강
##적이지
동북
컨설팅
##였으면
법칙
특별히
##호텔
100만
셋째
매니저
앞선
같네
삼국
퇴출
인도네시아
말인가
간담회
에라이
걸릴
않았을
골라
저자
나눔
재미있는
육군
##못해
이용자
전담
그치
별다른
##안되는
맡고
##버릴
##디언
착수
주머니
방학
아니었
과세
69
정면
봉쇄
재현
##하듯
해줄
서명
##이후
##받지
##시피
##리는데
양쪽
재건축
현역
##동원
채무
유니클
안그
##패스
실화
만나는
시중
나서서
비타
확실하게
쓴다
##래요
##용차
##꺼다
살펴보
##부인
##축구
##인걸
탑승
적지
지나가는
국어
승객
미스터
아스
스웨
확충
강남구
말아야
선별
다닌
##이신
개척
납득
있었을
##아파트
내주
순식간
물었다
올라오
##하더라도
아름답
들어왔
##줘요
클라우드
표기
저소득
편지
##다는걸
유혹
지역구
밴드
대개
어떨까
놀라운
경찰청
잡지
해산
거품
개연
2007
미루
되돌
탄압
여동생
클래식
오를
일어나는
행정부
민폐
원천
누워
어딜
대항
AP
커지
플레이어
최상
권고
그중
##어마
징징
습관
포털
##해봐라
##상한
앉아서
##어지고
받으면
조카
미리보기
가요
FC
흥분
용산
와인
죽으면
##저나
있구나
못했던
발표한
산하
250
협정
티비
무엇인가
##졌는데
##하자는
고딩
##밀한
아나운
때문입니다
JTBC
##가기
것인데
한게
##100
73
##안타
조상
##졌다고
##연한
##대전
##우기
모래
인스타
##런스
##금리
과목
에너
##연맹
브리핑
시비
남는
이웹툰
##들이
가이드
충분한
레전
유가족
잠수
백만
지는
암튼
만나서
유재
있었다고
##분야
상가
늘어날
포지
요구하는
개헌
##is
순수한
이용해서
##내지
심의
추방
광장
워크
##보여
안됩니다
열었다
보육
표절
측근
다짐
##리포
왔는데
더한
3D
##키지
과시
화물
##주도
급속
그대
국적
##양반
2003년
자세한
##체계
##천지
##하구
파고
삼성전
##트로
아리
##오빠
역대급
예뻐
신비
##드려요
키우는
전기차
##마니
고스란히
##미널
바라보는
비로
지키는
지키고
##통일
하필
구름
아트
잘살
##버린다
살게
라이프
순서
##id
조세
##FC
##달라는
드림
##재단
안맞
##어질
걸음
기다렸
##달아
10대
가방
퇴근
모욕
불평
겨냥
##자료
들을
이낙연
거슬
제임
성립
여긴
##겠군
임총
없네요
맞을
##시요
장수
구성원
##테고
##25
온다
부끄럽
전광
입지
울고
해봐라
예금
##아프
맥락
하는것
금호
초록
프라이
##카페
안산
위성
여파
문씨
89
으면서
읽는
다닐
##스턴
문정부
터져
거치
그쪽
국익
슬퍼
분산
병역
코드
##반대
클린
##인사
문가
등판
현직
면적
없는거
했지
저걸
성형
터키
기다리는
탁월
스러운
연료
난민
무작
개소
1점
##테일
76
쌓아
최다
마이너스
소용
##기구
이집
##하자고
##사리
내릴
자칫
조금이라도
##자면
KIA
서부
##겟지
구원
어렵게
않아요
배웠
망할
오고
##못하는
##자원
##식품
자부
IC
그레이
관종
##피해
포럼
없다면
대통
##일리
지났
모드
브레이
##되자
잘생긴
나불
##걸고
슬슬
78
관료
등신
영화제
면제
기온
##인척
##거리고
봤을
독서
##장난
더구나
대학원
감탄
##재앙
재발
##부장
##르르
클리
유쾌
주년
방침이다
##쇼핑
내외
이제야
##줘도
원자력
출생
따지
맙시다
단축
##실험
엑스
호응
##ol
사립
다해
##마크
지켜보
꼼꼼
##이닝
##히지
인정하고
##이오
부디
기쁘
이마트
헤드
주재
어두운
대표팀
레알
영구
유해
##학자
무인
미성년
심심
발표했다
지지자
##걸이
##주얼
업그레이드
나타나는
나란히
차세대
사격
##17
공평
왜이렇게
사라져
뒷받침
안하면
지니고
떳떳
코난
어쩌고
막기
대미
기뻐
무선
전술
김제
같지
여섯
농구
내밀
스튜디오
중시
몰랐다
현안
귀엽다
부른
문화재
##지않고
공개했다
##세여
마이클
문제점
본능
가입자
얼음
고구마
자진
대구경북
납품
훈훈
대행
싫으면
영남
수장
중견
##는건지
비례대표
계절
제로
변태
간절
류현
니들
소지
이용할
##못하고
장학금
무소
이루어진
에이스
되었습니다
치우
##보소
젊은이
이참
##디아
더욱이
전락
##듣고
지목
##시켜서
##24
##수익
아닌듯
##하느라
비로소
소주
10억
보험료
보네
##냄새
짜증나
##닉스
크레
억압
##내며
이글
불량
##지네
일하고
보유하고
##컨대
##거죠
나리
박탈
이런식
주일
##기기
어린이집
그러지
침몰
맡아
발생하는
많습니다
##쳐먹
개통
##투자증권
경상도
원활
아깝다
나선다
온몸
##il
없었고
않다는
##입고
하는구나
담고
아니라면
지킬
##지수
내정
유산
전교조
페이지
트로
알파
뭐든
미드
휴식
저래
아티
잘생겼
가져다
공제
생각했는데
머리카락
안타까운
왕자림
통치
##화학
하느님
##ac
보이는데
##하나요
##께요
##머스
어마어마
##수석
당할
김해
소름돋
##짓거리
없어도
카이
목포
고무
깡패
한꺼
불쌍하다
이준
##미나
거뒀
##오프
오죽
배정
버튼
녹음
##질러
05
참조
증여
3천
##비리
##운다
그나저나
##기자
순이익
드물
범행
오락
복원
##중한
해당하는
준수
좌절
목요일
##었냐
둘러싸
1500
망해
##재밌
틀어
데모
일환
6000
##세한
이런게
이어진
한사람
기대하고
자빠졌네
##보인다
했더니
모르나
##번호
출동
무서워서
학대
문슬람
들어올
사용한
##ion
3차
로그
배울
##부족
스릴러
웃겨
97
기금
일당
홍어
위탁
##가자
##한당
강해효
스파이
##유럽
진학
조리
강세
시전
볼때
남을
##경우
##대응
주저
##같음
돌리
##라는게
죽어도
포착
마루
수련
존재한다
##전히
지난주
나고
한꺼번에
부천
##소시
MB
줄어든
흑인
사랑해요
##아빠
명시
##았어
등장인물
전해졌
##기록
좋겠어요
골든
##지않은
통하여
##겠음
##라시
휘두
네덜
들어갔다
범인
되돌아
##연대
##리우드
##거리며
만들어야
되도록
배급
페르
생계
국무총리
건강한
이런데
드러났
폭풍
96
더더욱
간주
##일지
배틀
날카
베르
섬유
없으며
만나게
나옴
82
지고
##지상주의
볼수
부를
이윤
피할
회상
구성된
지소
스키
##중심
피아노
커서
있었다는
##교회
##쓴다
##기야
돼서
아니죠
차고
두드러
그림체가
사후
##파이어
수험
##청산
생성
무산
형편
##하하
##이시
##준비
시정
##미아
되며
맞춘
한결
놀란
자매
비웃
자유롭게
묻고
중순
상한
까닭
수준이다
외교부
##싶어
##거에요
87
냈다
관점
이러면
법조
허무
지극
##서야
##내내
새삼
무거운
##됐고
있으므로
불공
만기
만나고
손혜원
##같아
02
부도
##못한
썩어
##집회
풍경
종전
닮은
비정상
계란
##이야기
##타운
총회
놓여
독도
당원
단편
관행
##이런
육체
##지노
어딨
몰라서
##나갈
##할려고
옵션
감축
하우스
3만
경유
마누라
##자동차
##빼고
싶네요
부들
먹여
중재
고시
지우
무효
##자연
성우
쇼핑몰
사원
출장
대략
끌어들
##ot
##의미
이대
자사
좋지만
미치는
말하지
이르는
병행
정밀
##화하는
##예산
##꺼면
한진
있었기
텔레콤
나라냐
##나온다
철저하게
또다른
실태
로스
좋았다
웃는
친절
프라
94
불렀
적발
유효
행복하게
트럭
느껴지는
오지게
패스
강도
스페셜
##신고
거래소
이사회
명문
##cm
넥센
김포
##중간
내비
제정신
운송
구해
합작
주시
날짜
통증
싶을
79
과일
했으니
10만
박물관
##음악
법무장관
달콤
##라라
찍고
차지하는
방탄소년
면세
얻는
시작하는
상태다
꼰대
##하여야
오마
##니까요
배송
개뿔
##알아
교섭
##렸고
스프
##는거죠
유머
고구려
날뛰
86
뭐하냐
아이디
기대할
##전화
클로
보여줄
가까워
가기
완벽하게
패스트
##합니까
아랫
##겠구나
열쇠
부탁드립니다
##PC
##저런
되자
##이었다고
##됐다고
나타난다
싶었다
서준
바닷
성분
##줬으면
노벨
정신병자
출자
명목
높게
##롭고
친한
반미
가난한
기각
기록한
마치고
어그
태권
선거법
그러는
그러다가
8000
메가
SM
##영웅
##할수있
비타민
지나면
기대감
즐기는
오프라인
컴백
나뉘
감지
불꽃
##시리즈
커뮤니케이션
프로듀
작작
기적
역겹다
말입니다
겪고
아시안
고추
섹시
포켓몬
간섭
브로
이은
EU
이재용
터진
않는다고
상공
수시로
##라기
##놨다
던지
타당
노답
불륜
크리
고도
버릴
누군지
죽어나
진짜로
유포
생리
92
##테러
##셔널
시세
2006
##인생
버리는
##혼자
음모
어쩌다
어도
이뻐
신동
테이블
우수한
가사
면허
내보
##셔도
들어오는
손석
야마
조화
든든
##되었던
##크로
강사
1명
##코리아
올라온
##공동
응시
질서
바지
국세청
##un
했어요
개무
한지
##모양
애비
가전
소신
##되니
두루
코치
신부
참석한
유니클로
93
불러일으
한국어
##기네
성희
그리는
스크롤
##스티벌
제고
을지
##기획
4차
2회
탄소
클리어
두개
물품
배우고
부른다
왜케
IS
할말
다이어트
##무역
##널리스트
더듬
쳐먹
부수
스타트업
아카데미
오리지
##였다는
##조원
##세트
##취급
##거니
일으켜
말하자면
##납니다
태평양
염두
발라
감방
총재
##체인
넘나
와이
열등
유망
헌신
신작
원가
요양
월세
폭로
싸우고
부정선거
비공
여왕
##밀리
무용
하향
카톡
주소
싶어요
일산
제휴
선포
부가
지낸
정의로운
##전환
장갑
어떻게든
저주
국민세
이뤄진
좋겠네요
되서
가중
학술
반란
첫날
내달
차지했다
허구
잘해
##톨릭
##묘한
##교사
힘드
모든게
한겨
랭킹
찾은
못된
손상
입술
##퍼스
오세
분할
스웨덴
##주자
##케이
보고싶다
##캐피탈
##진흥
##업자
못하면서
요원
10분
생각해서
새겨
강하
진다
2시간
돌아갈
만다
##지마세요
사단
지위
교황
진지하게
##베이터
정준
후쿠시마
청장
자아냈다
시공
##받는다
고의
재고
##드릴
나왔는데
대국민
##지라
재배
##아래
##ve
##bs
##종합
관절
좌익
대단히
적정
평택
##처분
과잉
##이군
온통
애정
기성
추리
빠졌
분당
살아온
물론이고
버렸다
##하던데
10시
믿어
몇십
날라
적게
일삼
##연재
##는구나
나지
정도다
미워
##하시길
드러난
노블
으니
해주고
190
유죄
불쾌
tvN
83
같애
잘난
잘한다
트라우
##국인
식량
##등록
##코인
해킹
전국민
##것입니다
진로
용역
포함해
즐겁게
각국
##농단
참여한
의미한다
##부문
보입니다
##는거고
참가자
밝은
신혼
성희롱
##진한
##알바
죽게
수작
의류
잇따라
위해선
복잡한
##하드
##하는거야
달한다
파크
아사
야외
정우
중개
호랑이
03
이른다
적대
원유
##었으니
놀랐
소원
##식이
다같이
몰락
디자이너
로운
해야한다
소셜
줄일
2명
##으려면
##다음
무뇌
트랙
야간
싶다고
지켜야
저격
끼고
비교해
열차
레전드
물러나
임대료
##리니
##을수
필요하다고
증오
몽골
도구
##하므로
대원
살았
##포먼
##받았다
##폭탄
우리집
##엘라
음반
되지만
안겨
끌었다
교장
##것같은데
찾아볼
발광
기대된다
위주
급격히
##래기
뭐고
쌍용
##무지
공군
바뀔
보유한
할배
학문
닥터
손바닥
양도
사라졌
달라진
축적
유승민
반해
##대한민국
도배
##수저
어울리는
살아가
##90
##스포츠
##ay
##투리
바이러
고사
개시
정글
믿지
전염병
##밀히
연맹
두려움
유상
모여서
힘들고
바둑
##의료
##일랜드
##할게
라이트
##차게
반장
진행된
세련
회전
부양
외모지상주의
2억
걷어
그만하고
##버트
ES
경로
직장인
되는지
건국
재밌다
선보인다
스틸
구도
달하는
잠실
동서
양측
##이용
##있으니
악플러
한류
타워
##어어
내렸다
정해진
소매
지워
이별
출국
해설
단장
이니
##하시면
##살아
맞는데
##이라는게
누리꾼
사찰
선보인
거라
우습게
상하
적혀
이승만
그러게
##였네
##박스
##이가
당내
것일
##방식
약화
하던데
여자친구
이해하고
들어가면
##넣고
때문이었다
문제지
##이구만
##오지
##덩어리
##살인
이순신
뒤늦게
당뇨
##보았다
##대비
북부
##파이
돌아왔
##입국
막내
받으며
##레벨
떨어지고
까는
##켰다
##드리고
##특별
##나올
주유
드러냈다
권위
흡연
않습니까
당사자
원조
##니당
대작
원리
철저한
않으며
견디
상승세
##가구
수색
##협력
들어와서
자유당
2005
그와중
##만들어
제천
##나니
여수
01
선행
건가요
피로
출현
건네
여지
관해
진주
##린거
##하겠네
불가능한
퍼포먼
##공장
영화다
레오
관중
##하지말
봤습니다
하죠
##워드
자이
오래된
로켓
용어
이사장
유인
2001년
##었기
제외하면
##리냐
들지
성폭력
노총
대표하는
##꼴통
조선시대
2부
것이지
모자라
수요일
최정
9시
##다녀
사연
대지
7000
타이어
그러냐
구나
##않고
공헌
##거같다
연세대
카리스
중학생
산책
##는다는
고3
사자
안된다고
않나요
냐는
교육감
##kg
오페
부사장
금감
닥치고
손흥
실용
어느새
댄스
##약한
지나지
화해
성취
전당
신장
##같은거
남쪽
##직자
카르
##더냐
결성
선택한
안타깝다
부사
안할
친척
정세
##더라면
당했
타는
김병
이말
벌인
일일이
이노
제법
늘었다
같다는
싶다는
배포
선관
유감
기아차
이끌고
##릭스
##보는데
##물질
받기
##하는구나
협업
##ig
느낀다
짜고
##해야할
마켓
해안
##세이
가맹
이런걸
빨라
##떨어
##조치
버닝
말해서
장미
모리
더럽
저승
이를
##포인트
##도안
같지만
들어간다
거북
##지나
##사용
내리는
영원한
##as
갖추고
마비
##되어서
1분
##상승
복구
##이기에
치면
잇는
08
130
본다면
언론사
인연
손목
막컷
경기장
많았
##래프트
##브라
마술
상사
바꿨
##받아서
플랜
더럽게
구사
흑자
만들면
##엔터
3명
##공산당
##였을
다른데
한도
제임스
협의회
사물
그정도
인테
알수
당당하게
표면
텔레비
##od
되겠네
아키
규명
##진영
윌리
에어컨
중공업
CD
##이하
출간
공고
바란다고
##이겠지
죄인
##키로
개조
탈원
##러니
##동물
반짝
거임
##된다면
실체
보인다고
함정
##중공업
성공했다
이인
##보다가
유리한
패거리
추구하는
교실
있잖아
준공
메달
부끄러
포기하고
계단
국경
머무
멈춰
유래
##다보니
##처벌
직면
##먹어
특집
실감
##리는거
시야
뛰어들
그만해라
튼튼
평론
봤어요
그래픽
수지
국가대표
폐렴
스킨
중공
모티브
##시키지
어우러
스위스
언더
건들
게이트
대치
##ct
터지
김무
저하
외출
표명
7년
다루는
간단한
##베이
31일
##되네
꼽힌다
##없지
차려
까다
만들지
묻는
짓고
##매도
##호선
##되었으며
수신
수렴
팬티
문구
비호
##새키
위생
##준다고
않다고
벌어지
살면
##지니어
비슷하게
살피
낙태
##사카
##하더라
퍼트
음원
입대
알면
죽는다
파헤
이러고
숙박
목욕
창립
싹다
어설
구두
##자다
##독한
DB
석탄
##였으나
밥그릇
앞세워
##서울
백수
쯧쯧
친박
떨어진다
##mm
발암
약물
클릭
기절
지도부
##23
생각함
10개
악역
합성
안보고
계승
##셔츠
잡았다
##어머니
가라앉
하려는
악질
백악
이끄는
아랍
무난
너거
우월
보냈다
타협
##됐던
권유
단백
고마워
##NG
##따위
사운드
알려주
어쩜
##방법
걸까
##줄아
거세
광복
미쳤다
##린지
기조
베이스
09
동조
파탄
입력
흔한
차지하고
신재
##블릿
개미
##소송
파라
GM
드릴
한복
배고
4대강
싫어서
일기
살지
##언니
중산
초중
때로
여학생
치료제
내뱉
07
어때
늘고
지키기
##데요
##이치
않았는데
##수지
이십
이어서
정한
##당시
##된거
낯선
나타내
주무
는다고
공백
썼다
##당할
##PS
원망
사람이다
이명박근혜
진압
아군
네덜란드
감자
것이라며
연동
잘못한
손잡고
예선
거둔
국개의원
공영
요건
횡령
강릉
수혜
어긋
된장
완공
어쩐
##신청
개개
주어진
##IC
##라스틱
좁은
십자
소음
야생
##ed
참모
##트랙
잊혀
링크
격차
천벌
압력
훗날
했었
##해왔다
도약
##건강
다른나라
농담
##걸음
신성
우정
간호사
안되지
참전
시켜야
죽어라
##엔딩
시상식
##텔레
천사
##이제
사라지고
##하곤
마리아
##미디어
시가
휘둘
##십시요
포도
여론조작
##들었다
##바이트
일원
무너지
듣기
황교활
참사
산불
7시
##플러스
화합
유나
구호
생기면
지극히
이러다
지금이라도
##행정
##폴리오
비추
공공기관
는다는
강점
떠오르
여우
주석
있었으면
고지
50대
주부
발효
너무너무
헷갈
대권
이용하여
기동
##일수
하나인
##바뀌
나타날
없애고
쓸데없는
봤던
박그네
파격
춘천
대상자
다큐멘
천안함
삼각
며느
상용
한가지
확립
아티스트
김경수
달하
##요한
리스트
맡았다
재판부
##연구소
##되지만
지원하는
북쪽
없으니까
긴장감
사시
양육
조례
헬스
수송
##디스
그만두
김원
##동맹
베네수
내기
아라
사용하고
고립
제작진
듣지
얼마든지
지나친
따지면
엘리트
이긴
가람
재학
고조
줄이고
보조금
되니
둘이
입구
가득한
단호
죽었다
운영하고
않았나
애널리스트
변해
2층
##도르
불편한
차분
##의사
걸맞
움직이
아니겠지
석방
꺼져라
세우고
신사
같냐
##안보
##이한
부친
마인드
떠났
예언
정직
김광
의결
##리안
니까
체중
간판
조현
내리고
라이벌
찾아서
수아
##행사
맡겨
많다는
마포
감염증
다니고
모르겠네
국면
둔화
노동조합
동계
스카이
##판매
안되면
생긴다
되니까
삼아
공정한
사용한다
오리지널
난이
제어
전성
코스프레
준다고
사나
결혼식
속성
줄줄이
##렸다고
유지하고
죽기
간편
##주셔서
아무렇
침대
초점
답이다
심정
변형
미개한
뱅크
적립
싸이코
났다
밀고
맞다고
제자
구독
재해
이진
900
##받아야
국채
의하여
##돼야
체감
멀쩡한
이어졌
##여성
한국영화
시너지
행진
죄책
##량한
문의
##가네
교복
##동강
바위
농가
아부
역설
누릴
염려
안양
궁금해
김준
모지
##차고
##청원
윤석렬
무더
보석
##하겠지만
부총리
굴러
항공기
인건비
##ER
꾸며
내려오
알면서
단점
포괄
들어선
##았나
하실
많다고
##im
넣은
안좋은
비틀
##주의자
고려대
소금
싸가지
안된
모든걸
것일까
##받게
선보이
주둔
원고
동력
박성
정화
콘셉
특권
하트
아니냐는
##시키면
유한
6개
안주
##르바
스테이지
빈곤
5분
많아요
##한텐
매치
임진
중장
나오네
입양
##다나
치솟
실명
무언가
상당수
집합
식구
3억
선동질
##선언
##리라고
양념
당기
##싫다
스피드
##적이
일까
안들어
케어
여객
조연
접한
기숙
6시
부시
남양
스태
안티
이완
책상
사이코
토대
##사한
날개
삼촌
교차
##인권
친북
냉정
외치는
##였나
쓰기
않는다면
##ad
##나지
문명
가는데
##화하고
신흥
##타이
MS
FA
##했었다
숨겨진
포지션
2002
오줌
제공한다
여자애
구리
글고
공직자
감기
CCTV
허허
나누어
##정말
위대
좋습니다
모른다는
여담
하겠지
트레
할수있
미스
##대요
레이저
그토록
미용
우아
##연구원
후기
##모토
점프
##해주면
프랜
전신
##치네
판다
지냈
더불어민주당
##베르
은근히
극히
깨어
소속사
된다며
110
욕할
보시면
그걸로
단정
느껴진다
##었으며
##ow
잔잔
부유
자화
이불
모금
양상
다이아
참신
##방향
늘어났
하려면
##IP
올라갈
은혜
여인
골프장
##르몬
##내면
##쳐도
불황
치열한
하겠다고
없는게
##했을때
공업
감안하면
양자
아닌거
생애
천지
망설
망하게
##일세
##있다는
##보라
말이죠
04
##당해
##을지
안한다
사법부
##하잖아
송파
##22
주범
휩쓸
1층
암호
그릴
진행할
같으면
브루
신탁
##에다가
##간히
옹호하는
떠들어
발음
포토
초콜
높고
후퇴
더해
여배우
총알
뷰티
06
시집
##사냥
다르지
맞는말
##는걸
김어준
농산물
보컬
일정한
좌빨들
문어
자칭
독재자
##는다면
전방
##어린
성사
##지금
않을까요
이경우
##히면
리얼미터
흐르는
연쇄
두렵
정무
해결할
쪼개
시즌2
##bc
팔고
##아시아
##데스
도모
##도우
##으라
대마
찐따
##이었으나
회사채
중국몽
어째서
##가는게
##지않나
##불가
서둘러
중점
사리
##접한
에드
##환자
##모두
걸리면
비참
그랜드
만세
높일
그쳤
##ch
바꾸고
그렇기
관련한
던진
있었으나
배후
비비
공존
바퀴벌레
##메이
우울증
소규모
##빨갱이
##수도
##이란게
등교
살림
이닝
이어져
나노
알고보니
어렸을
##벌이
##즈니
##쳐라
온도
##요웹툰
폭락
무너뜨
때리고
마블
하차
##간다고
삭발
시신
##되었다고
뿌려
##마귀
뜨겁
옮기
이뤄질
베어
##확실
피터
6년
플라스틱
일곱
부풀
그분
하든
##폭행
박형
시발
##아니다
##되었는데
##졌던
미국인
걸친
잃어버린
우익
포트폴리오
##대가
실리
존재하지
박찬
KBO
관할
스쿨
한전
##작업
고장
61
완전한
나왔던
##쯤되면
하루하루
그래요
확인하고
##에스
##공무원
이빨
이단
무겁
생각해보면
위법
말하는거
세일
화력
드러났다
##퍼센트
단말
##미래
치밀
출연한
재밌어요
페스티벌
증대
무작정
쿠베
장성
KBS2
연일
##해봐
안된다는
더러
슬로
많음
재직
낚시
부합
##줘야지
밝히고
고로
일베충
우호
휩싸
잡아서
저소득층
##과장
파산
무의식
적시
플로
출처
탈퇴
지겹다
검정
2004
건의
태어났
##전사
좋아하고
돼요
프롤
덮어
후임
나가고
가르치
##학원
보려고
파렴
km
부드러운
119
##겁니까
원료
불거
관념
김정일
대고
채우
인정하는
##진보
느꼈다
퍼뜨
세웠
이세
윌리엄
##돼서
##타는
나와야
아나운서
치르
##투쟁
##주년
문장
이만희
공안
보충
조율
상반
아니잖아
##끼고
한양
나눈
멘탈
반납
야기
늦은
지갑
다가오
엑소
191
부위
오너
도서
##틀러
참나
웃기는
벌어지는
관람객
몇개
명심
유흥
연루
##스토리
##대장
##미사
##시나
있을까요
##대변
막대한
학력
##키고
폭등
뜻이다
영등
##신다
예민
양극
달래
##랄까
몇명
찾아온
##였어요
##5000
사생활
증가했다
포스
항소
기록하며
The
박태
씁쓸
게스트
창문
##에너지
전액
##프리
공학
##치한
똑같다
깜빵
잊고
##이였다
불과하다
##만든다
데스
못차
동구
사업장
어머님
엇갈
소극
클라스
침입
오피스텔
##여도
복무
##용품
##철도
방탄소년단
##람회
##감사
제갈
베뎃이
동행
##급한
고난
빼돌
LA
##마나
못살
사인
##보도
3위
나쁘지
책정
음란
네이
학기
##고요
비서관
임종
외신
활용해
강동
##린다는
사촌
백인
##버스터
##군데
뭘까
지금껏
##겟네
꼬박
토크
##채널
LTE
페미니즘
역임
처형
노리
광우
걸려서
안동
아놔
고성
하는거지
##신도
악당
진모
매월
의약품
보건복지
##마켓
변수
명복
##것다
프레이
유사한
##먼저
모터
판매량
자란
멘토
있겠지
##나왔
대세
안무
끈다
클라
패키지
세제
카라
이데
##ns
설사
재계
##대해
않았다는
##기부
군수
취하
봐요
후계
발레
므로
복용
문득
아바
중복
작정
RD
웃기네
해수
##갖고
세계관
##갔는데
신축
상인
이산
진동
죽지
고래
레스토
만나면
보전
세번
무단
반갑
##널드
동정
괜찮아
아마추어
##지는게
강아
좋으면
어처
수강
소홀
할일
개꿀
하는가
밀어붙
##더스
함유
단절
흐르
##근무
트렌드
##분양
돌아올
모으고
될듯
차입
사각
레스토랑
##올레
구청장
##ir
갇혀
하겠습니다
발병
천억
안전한
##떨어진
짧게
삶은
##았어요
받아들이
##놓는
나갔다
##주행
터치
남매
##되거나
이같은
해병
읽을
했냐
프로세
발생할
##배상
##좋다
##권력
##잡을
중앙일보
매진
부근
중지
오르는
떨어졌다
정당한
따르는
본선
청탁
곳이다
혈압
고인
교도소
화요일
5만
그리하여
봉인
공룡
수여
증인
아이러니
똥꼬
악용
대조
시작해
민식이
있겠다
김학
언덕
급락
진행되는
처음이다
막는
출연해
##기념
세균
맞음
노트북
부럽
##려다
참여하는
짜파
정복
말레이
내려가
최우선
안되나
표지
동향
하루빨리
슈팅
시국
##공부
산림
메이크
전시회
듭니다
처먹
버닝썬
아도
140
종식
쫓겨
톡톡
목록
##새기
##했다며
꼬라
안지
보이며
터트
준비하고
##크라
갤러리
남기고
##학습
기습
되었는데
이겼
전도
##백화점
당연한거
##적이며
##지않는
##투성
이루어지
가톨릭
##잔아
감면
리듬
아르바이트
하겠다는
피의자
##졌을
도우
진태
##아내
망신
이래도
노숙
소폭
##었으나
걸레
고려해
##잖어
71
돌아왔다
암시
보살
맞물
##할머니
##역사
음주운전
##리한
사주
안죽
##해양
##지며
살아갈
크로스
꼼수
수당
실효
##중국
않는데
외무
중화
##니스트
광범
BM
##하는가
토론회
처방
##대신
않았다고
종업
병맛
마냥
잉글
유권자
이현
실은
인테리어
##퇴근
진흥
사도
##소녀
내각
오스트
미투
기차
이치
끼워
쓸모
##올려
말이지
퍼져
##체제
바라보고
애써
사라질
아랑
##셨어요
것이란
보임
아쉬움
보이지만
##FA
##졌다는
학자
수성
##계층
김희
인내
##같네
했어
갔는데
오라
백두
취직
##게이트
언급한
미련
구할
##였으며
##등등
the
먹지
##라이언
보신
##만든
해외여행
풍부한
사람이라면
감찰
배우는
##지인
퀘스트
많지만
아니니
사흘
##쳐야
저능
##마스크
됐다고
메세
##셔요
##하우스
##유예
가리지
하시고
대공
##하느냐
운항
벤츠
이었다
생각하게
##스타일
아미
반사
##간첩
사막
우스
가지는
관계없이
장인
육박
커질
##히게
토로
써라
처한
때문이라고
열매
노골
장제
줄기
##되네요
솔까
찍소리
천국
##보러
무시하는
엉뚱한
잘한
큰소리
보태
아메리카
##그마
##끄러
전격
살아서
직권
증정
##투기
신생
##치며
지요
빠질
비열
이런건
키우고
재미없
##OS
리플
돌아서
누르면
묶어
##오스
##티나
사우디
이루고
짝사랑
만성
아녀
등산
랜드
발전소
뻔뻔한
삭감
##보증
##지대
아이언
버디
지방선거
##엔터테인먼트
해봐
사대
8시
DNA
차트
쥐어
트랜
##확인
없어져야
유투
##거품
취미
낭만
오페라
말하며
인하여
사용해
쌓여
습격
늑대
##좌빨
그놈
말아먹
증폭
##DP
키운
양식
여주인
낙하
리버
어리석은
##지않아
레이스
저럴
##아니면
것이기
개같은
다시한번
1학년
주차장
이고
하다니
##리케이션
대면
##출산
임차
체육관
##차이즈
소대가리
발간
했나
상주
바뀌었다
모의
##지는데
##오르
수목
뭐하러
쓰여
할거
가졌다
소상공
안되는데
아이스
가죽
아산
강력하게
노동당
아일랜드
접목
내보내
넘은
조조
##오오
부르고
다른사람
숨기고
이언
시작해서
##부들
영등포
스폰
1999년
2030
상금
아그
이룰
전월
모양새
카타
##200
of
키울
부회
샤워
아마존
호기심
##여러
죽어서
버릇
##어버리고
저런거
안남
##이벤
엘리베이터
까고
초콜릿
유세
개장
US
접어들
##있었다
화염
##방울
마왕
되풀이
알아보
재원
인쇄
##지주
한자
##숙한
한건
마당
바꾸는
더니
침투
태블릿
##자산운용
걸러
우리국민
얼어
보던
크림
##것이고
통산
없죠
선보일
160
장모
##지않게
이메
노는
벗겨
일이었다
음식점
조속
넘치
아니네
원피스
도시락
없잖아
##야마
수차례
협동
나서는
고리
##48
3회
만든다
##nd
낸다
간혹
해골
##을거
##닫고
지소미아
폭동
어짜
끄덕
동급
되었다고
##할텐데
지상파
장례식
SP
그립
못보
다시금
베를
##하늘
눈동
##두면
##수호
김영삼
예매
만주
스캔
##망신
걸리는
청사
탄력
##키스탄
나오게
노잼
강호
##화한
어쩌구
이집트
누가봐도
정시
기운
전진
파생
추첨
##입장
##로움
더욱더
살던
뻔히
됐으며
시리아
딱딱
##보복
낫지
대여
부류
안하냐
경영자
열풍
ST
거칠
정교
##유공자
##싫어
개신
수확
편한
비겁
약점
영향력
순천
개그맨
##하였으며
일러스트
모르냐
붙은
신선한
입수
담당자
제대로된
모르면
DJ
##평화
쳐맞
받아들일
장담
와우
형석
모아서
##나와서
##자라
볼넷
할리우드
3주
1997년
돌고
우회
신약
##해준다
김승
유니폼
걸림
##담당
##영화제
마쳤
나는
상기
맛있는
미뤄
##중이다
모니터링
##중독
전경
##MC
동아시아
##리포니아
비트코인
발탁
막강
선보였다
안성
진행하고
따위
이해하기
역겹
광명
##수산
여럿
예컨대
필요할
화상
억울한
동지
득표
비아
훔쳐
똑똑한
좃선
무사히
##멘트
비판하는
집어넣
내장
정도였다
타락
달달
쓰게
내놓은
##되던
과도한
##올로
##는대
없었는데
##무라
현명
강대
싸게
1998년
같은데요
할려고
##분별
지붕
추신
##정상
미미
기다릴
이원
지킨
나오기
##구려
여사
##투어
속한
얻기
커지고
전부다
만들어낸
계정
SS
사는데
##유지
세미나
뚱뚱
숨기
##나봐
##나마
말라는
공방
동굴
환경부
막판
##기금
OE
모름
같으니
못함
남용
간신히
##조트
##26
실패한
있잖아요
지성
생각없이
총기
안해도
소독
레인
유령
미흡
전산
91
경제학
않은데
채소
같기
토마
통장
돌이
LH
지령
그림자
청렴
증진
강력히
왔습니다
약국
나루
사무총장
강렬한
비교하면
역시나
##쓰면
승용차
공화국
##평균
이화
파기
버텨
쥐고
식민
빼면
아요
있어라
##OC
부재
분담
탈탈
##겠고
##28
살릴
비춰
##넘어
찢어
지대
손석희
##버리면
##하노
진도
은폐
열려
러닝
안드로이드
천주
쿠팡
쿠데
##us
캘리포니아
9000
##수당
보강
##다며
넘어갈
비닐
적당한
누르고
떠날
스토어
나옵니다
##35
##군다나
전송
뭐하나
당하
##그려
##하는걸
차장
되었을
심해
##계열
##스피
##ag
중년
자격증
##비한
##느냐고
##체험
하고싶
##져도
##또한
안락
##코드
대입
불사
면담
살펴보면
베네수엘라
##이해
2학년
한국은행
용병
냉장고
대중교통
안먹
##격리
이듬
##순환
타율
깊게
박진
했네
장교
상관없
해임
##혹한
차리
##잡는
훌쩍
상세
빕니다
명확히
신한은행
##DI
##ut
공격력
추이
들었
김주
##청구
손톱
나랏
##메이크
##op
##도전
갖췄
도데
눈앞
때리
역겨운
쉽다
죄송합니다
로그인
일제히
불신
모습이다
노하우
일본군
##파티
터널
찾지
프랜차이즈
생기고
돈주고
다채
맞습니다
일간
드립니다
##남도
##시위
맞네
12시
건수
##파악
열릴
##도는
생각좀
파면
없도록
작품이다
심어
편히
수염
##자치단체
방한
벌이고
얻었다
주한미
형평
중부
새키
있으면서
엉덩이
좋다는
높이는
기업인
유타
센스
##뉴얼
별거
농사
그땐
관통
끔찍한
##다닌
버그
박주
손쉽
이영화
소집
간단히
시사회
##일베
폐업
족속
##일텐데
하더라
귀엽고
##결정
줄서
갔다가
##국적
등이다
##절로
맞으면
##고사
좋음
알레
##문서
##셨네
분명한
2003
쉬고
부산시
오십
영감
아테
각기
마니
4번
##분열
낳은
##에이
묵묵
하지않
##왔고
들으면
세입
선택할
##무슨
보는게
말레이시아
두근
이례
아쉽다
하라는
##모로
도요
##걸리
분배
분해
꼬집
1분기
##같으면
드러냈
장병
꼬마
국고
##27
처단
할듯
이랬
##간다는
쓰이는
웃으며
##테이너
##매국
있는건
SF
젠장
베뎃님
100년
다시는
##쳐먹고
헬조선
추진하고
기둥
##상관
시작할
사랑합니다
디즈니
세븐
##일때
##만해도
##요금
##되었다는
알리는
우대
##집행
##버드
근원
발상
##좋게
오글
당당히
##롭지
##45
찔러
책임자
군부
잡으면
##함께
바뀌면
뭐임
이듬해
호수
학회
##돌이
어짜피
유미
조센
보시
멍멍
북측
상정
알기
심각하게
있거나
유난
##한거야
##광고
비해서
시크
무방
가능할
두뇌
밥먹
1호
3학년
하러
현정부
반격
##구장
맞는거
낳고
##소연
호감
그다음
획기
있는것
한해
가관
없다며
손꼽
##실장
빛나는
할것
부착
두들
아르헨
##lose
착공
수많
브라운
약자
##xx
활용할
벗어난
개발한
##업뎃
사람인데
사는게
늘어나고
하청
야이
##려니
치워
줄거리
##미술
##텔레콤
달리는
해보고
##리라는
일상생활
꾸미
전차
주작
시원하게
차가운
한발
터질
##포트
진행된다
사료
일개
##베스트
탈원전
아이콘
좋네요
원화
##스틴
민경
##저축
노르
주권
24시간
굶어
기술력
##두리
흥미진
얻게
생김
제네
정동
남다른
있다니
제공하고
잠정
김형
차질
태워
##그렇
됐고
답했다
앞당
##됐다는
왜냐면
부들부들
상자
##협의회
청정
전임
밝혀진
##인해
생각하니
일할
두꺼
##TS
남겼
멋대로
되길
##했었는데
였다
오징
##게이
인천시
밀리
찍는
잔인한
##있는지
벗고
소나
우즈
##고있네
찾았다
잇따
더럽고
##MA
양호
소감
올리면
겁니까
하이브리
짓는
김혜
##시원
김선
않았습니다
구걸
몇백
표창장
단백질
펑펑
초보
품고
##수입
해결책
1대
##잇는
시술
취한
색다른
변함
아니더라도
겸손
안한
명성
##급식
혹시나
용품
헬기
##고등학교
아이스크
보는거
##슈타
수직
한걸
다음달
인질
##했더니
올라가는
지나치
민낯
close
##냐는
착취
인맥
활용한
더군다나
뒤통수
##21
영화입니다
지면
##셨는데
##치킨
주역
##서치
##자찬
꿈꾸는
도데체
책임지
숟가락
81
보도했다
뒤지
##한거다
##일수록
대주주
차명
##한가
일본어
이르기
시바
최하
##플러
종일
나눌
##억달러
궁금해서
##매김
대수
마나
구하기
성경
구워
스미
대금
낮춰
창고
##있는게
FI
한라
##말라
정신차려라
사탕
장려
##볼까
##하다면
주방
겪는
구출
##르며
##테랑
오르고
##사상
##말아
수년
##의무
컨텐츠
어쩐지
장벽
##비디오
기다려야
갓오
이석
저절로
비올레
##그렇게
동결
이어졌다
먹고살
주된
내놓고
수감
잡기
##던거
연다
박지원
##스틱
편향
##저래
인과
##발표
너머
노랑
거점
휘말
자리매김
##우며
복사
그러던
가령
국민은행
귀한
가지게
##주었다
##였지
얘기다
경찰관
이리저리
##비드
박상
겪은
##등한
메모리
각본
실점
##어울
특이한
무책임
kt
좋아할
깨알
종로구
최우수
선조
고아
강정
##플렉
전철
주전
##이었을
국정농단
피자
지검
##통제
민간인
있듯이
넘어가는
대두
노력하는
리스
자랑하는
분신
도깨
HP
백악관
50년
맞지만
그려졌다
외화
##종교
거라는
스티븐
##주신
가담
스윙
2인
했다면
##져요
나가면
있느냐
조짐
##이란걸
무개념
증세
내놔
불참
웃기고
발의
##외교
비주얼
##공화국
##어내
살인마
##99
맡기
면세점
의상
넉넉
유희
##하자마자
응용
문재인대통령
화살
바이든
소득세
안아
좌표
느껴지
차익
머저리
없구나
마음껏
한겨레
뜨고
신용카드
중2
결단
상권
##나나
열렸
타이거
모른다고
면상
##차이
열면
벌이는
사용하지
된거
진리
##부턴
전범
재개발
##달고
정상회담
가져야
특징이다
다문화
쌍둥이
고요
웃을
이어진다
##하는거냐
생략
바꿔야
넘어선
불확실
되겠다
의자
LED
저렴한
그리워
추산
추출
##이었다는
올라와
##라이더
비평
우는
출퇴근
즐거움
모르지
##유치
도와주는
##팔아
아까운
##재인
영화관
##레나
한두번
##걱정
똑같네
대동
##졌으면
##쓰기
##물어
제보
##더라고
취해
학업
##위해서
싶네
뱀파이어
그라
유능
##아는
오프닝
2루
로맨틱
##행동
해먹
깨어나
설명이다
박용
벤치
4천
하나요
내세워
나누는
인문
김명
동아리
##들게
어렵고
자유로운
요한
주워
##한듯
자화자찬
##OP
##기인
들어왔다
실사
사소한
##자라고
##북도
종결
##벤처
신곡
모르겠는데
사악한
주경
용감
##자한당
뚫고
##인원
어디갔
놓인
##았음
앨리스
몰두
간절히
잉글랜드
겪어
참석해
3인
삼십
핵무기
돌연
팍팍
동방
텍사
방패
##코올
다큐멘터리
##완전
##치면서
일가
오렌
쳐들어
극한
짓밟
노려
##맞은
##대지
업적
그제
채팅
한표
쉬는
조아
##인터
오디션
견인
펼쳤
이럴때
금강산
낙찰
떠나는
##제발
생선
재밌는데
가져가
싸운
비결
후유
기증
주입
보여주기
강성
김무성
##되요
##이냐고
속속
##묘하게
밀집
주신
발주
폴리
속상
메디
##나오면
15년
##이길
100만원
힘입어
싶었던
있는데요
깔려
아껴
바뀌는
유공
##잖은
##바꾸
##추진
전해졌다
좀처럼
통행
탄탄한
만났다
해온
##되었을
때문인지
욕구
우상
한중
##변호
##플레이션
몹시
##일까요
망쳐
폐기물
진행하는
있는거지
한시
하루종일
환호
추잡
해리
절약
##인지라
그런게
이뤘
교양
##팩트
벌여
##중인데
적폐청산
섹스
보여줬
혈세
미처
달라질
안함
확고
시카
엄중
도민
##셀러
이걸로
알겠다
필드
죽을때
##박이
##랍시고
##들면
문죄앙
##ur
반환
유진
강철
폭넓
풀려
실전
어릴때
이뤄지지
해본
황당
흔적
설탕
절친
텍스트
도출
사명
##처먹
불필요
##페이
럭키
욕설
나타내는
이색
피눈
##그럼
캡쳐
마산
생각하며
##되는게
병력
탐구
간다고
묻자
##자격
##타워
##도내
중증
돌아오는
인명
유언
외곽
힘든데
용납
##거렸다
김구
##하겠냐
CP
행성
St
엔지니어
##됐지만
일등
지칭
묻어
##됐는데
리메이크
움직일
##정지
##안해
마늘
송도
##학과
내려와
생각하는데
##이었으면
두는
높이고
막아야
##막고
CN
밤새
이기고
나비
표현하는
길고
이면
시켜라
##있지만
치즈
검거
안그래도
녹화
구린
가지가지
봐야지
이루는
이광
프로모
인디
남자친구
진행한다
##놓을
이사람
##DB
##하는거다
이어지고
폭주
멜로
백제
##개입
산정
등극
영세
##테니까
행운
불태
##올린
베테랑
똘똘
회색
못지
지지층
복제
##재미
애인
##롭다
##감치
습득
통째
증가한
맞아요
화보
이것저
지저
##기게
입단
재밌고
##재료
대성
##적으로
색히
##듭니다
지긋
뽑는
##싶은데
##해봐야
##써서
호르몬
##29
잡힌
쏟아져
그네
숨진
##봅시다
손자
##조각
다죽
남았다
역적
이와중
돌봄
불명
로버트
당했다
보람
쿠폰
2시
해준다
##하듯이
유지하는
됐는데
게시판
알겠는데
설명할
인스타그램
웃으면서
##겨운
##허가
깨진
김윤
메일
티셔츠
못생긴
모르겠고
##인한
##빠리
##TO
강구
##축제
##바퀴
군데
혼합
폭격
했다가
익숙한
단원
사교육
##소수
##웠는데
신년
찌라시
만원
비자
미얀
두기
메모
카리스마
교정
구로
히틀러
장마
필요하다는
형상
외식
지었다
장자연
##하단
기세
라인업
필름
몇달
자처
답답한
명백한
다툼
여성부
이력
입소
##학기
일선
가산
##만하면
발명
믿는다
취하고
체질
##드백
##있었는데
남지
원본
##네트
상원
##놓았다
악몽
돌아가신
반기
버는
스트라이
대갈
##질랜드
조원
간지
신세
기껏
글자
여러모로
삼고
설령
하도록
말아라
##없게
##대원
끝났다
##해보면
느끼지
인신
말했
성찰
##오리
보았
일회
영화라고
교원
소아
위상
##연기
##00만원
##면적
##지자
좋아한다
평상
비슷하다

