<s>
<pad>
</s>
<unk>
<mask>
[UNK0]
[UNK1]
[UNK2]
[UNK3]
[UNK4]
[UNK5]
[UNK6]
[UNK7]
[UNK8]
[UNK9]
[unused0]
[unused1]
[unused2]
[unused3]
[unused4]
[unused5]
[unused6]
[unused7]
[unused8]
[unused9]
[unused10]
[unused11]
[unused12]
[unused13]
[unused14]
[unused15]
[unused16]
[unused17]
[unused18]
[unused19]
[unused20]
[unused21]
[unused22]
[unused23]
[unused24]
[unused25]
[unused26]
[unused27]
[unused28]
[unused29]
[unused30]
[unused31]
[unused32]
[unused33]
[unused34]
[unused35]
[unused36]
[unused37]
[unused38]
[unused39]
[unused40]
[unused41]
[unused42]
[unused43]
[unused44]
[unused45]
[unused46]
[unused47]
[unused48]
[unused49]
[unused50]
[unused51]
[unused52]
[unused53]
[unused54]
[unused55]
[unused56]
[unused57]
[unused58]
[unused59]
[unused60]
[unused61]
[unused62]
[unused63]
[unused64]
[unused65]
[unused66]
[unused67]
[unused68]
[unused69]
[unused70]
[unused71]
[unused72]
[unused73]
[unused74]
[unused75]
[unused76]
[unused77]
[unused78]
[unused79]
[unused80]
[unused81]
[unused82]
[unused83]
[unused84]
[unused85]
[unused86]
[unused87]
[unused88]
[unused89]
[unused90]
[unused91]
[unused92]
[unused93]
[unused94]
[unused95]
[unused96]
[unused97]
[unused98]
[unused99]
[unused100]
[unused101]
[unused102]
[unused103]
[unused104]
[unused105]
[unused106]
[unused107]
[unused108]
[unused109]
[unused110]
[unused111]
[unused112]
[unused113]
[unused114]
[unused115]
[unused116]
[unused117]
[unused118]
[unused119]
[unused120]
[unused121]
[unused122]
[unused123]
[unused124]
[unused125]
[unused126]
[unused127]
[unused128]
[unused129]
[unused130]
[unused131]
[unused132]
[unused133]
[unused134]
[unused135]
[unused136]
[unused137]
[unused138]
[unused139]
[unused140]
[unused141]
[unused142]
[unused143]
[unused144]
[unused145]
[unused146]
[unused147]
[unused148]
[unused149]
[unused150]
[unused151]
[unused152]
[unused153]
[unused154]
[unused155]
[unused156]
[unused157]
[unused158]
[unused159]
[unused160]
[unused161]
[unused162]
[unused163]
[unused164]
[unused165]
[unused166]
[unused167]
[unused168]
[unused169]
[unused170]
[unused171]
[unused172]
[unused173]
[unused174]
[unused175]
[unused176]
[unused177]
[unused178]
[unused179]
[unused180]
[unused181]
[unused182]
[unused183]
[unused184]
[unused185]
[unused186]
[unused187]
[unused188]
[unused189]
[unused190]
[unused191]
[unused192]
[unused193]
[unused194]
[unused195]
[unused196]
[unused197]
[unused198]
[unused199]
!
"
%
'
,
-
.
/
0
1
2
3
4
5
6
7
8
9
:
?
@
A
B
C
D
E
F
G
H
I
J
K
L
M
N
O
P
Q
R
S
T
U
V
W
X
Y
Z
a
b
c
d
e
f
g
h
i
j
k
l
m
n
o
p
q
r
s
t
u
v
w
x
y
z
~
·
가
각
갂
갃
간
갅
갆
갇
갈
갉
갊
갋
갌
갍
갎
갏
감
갑
값
갓
갔
강
갖
갗
갘
같
갚
갛
개
객
갞
갟
갠
갢
갣
갤
갥
갧
갩
갫
갬
갭
갮
갯
갰
갱
갲
갳
갴
갵
갶
갷
갸
갹
갺
갼
갿
걀
걁
걃
걆
걇
걈
걉
걊
걋
걌
걍
걎
걐
걑
걒
걓
걔
걕
걖
걘
걜
걤
걥
걧
걨
걩
걬
걭
거
걱
걲
걳
건
걵
걶
걷
걸
걹
걺
걻
걼
걽
걾
걿
검
겁
겂
것
겄
겅
겆
겇
겈
겉
겊
겋
게
겍
겎
겏
겐
겒
겓
겔
겕
겗
겙
겚
겛
겜
겝
겞
겟
겠
겡
겢
겣
겤
겥
겦
겧
겨
격
겪
겫
견
겭
겮
겯
결
겱
겲
겳
겴
겵
겷
겸
겹
겺
겻
겼
경
겾
겿
곀
곁
곂
곃
계
곅
곆
곈
곋
곌
곔
곕
곖
곗
곘
곙
곚
곛
곜
곝
곟
고
곡
곢
곣
곤
곥
곧
골
곩
곪
곫
곬
곭
곮
곯
곰
곱
곲
곳
곴
공
곶
곷
곸
곹
곺
곻
과
곽
관
괁
괂
괃
괄
괅
괌
괍
괏
괐
광
괒
괓
괔
괕
괖
괗
괘
괙
괜
괝
괞
괠
괨
괫
괬
괭
괴
괵
괸
괺
괼
굄
굅
굇
굈
굉
굌
굎
교
굑
굔
굗
굘
굚
굠
굡
굣
굤
굥
굦
굧
굨
굩
굪
굫
구
국
굮
굯
군
굱
굲
굳
굴
굵
굶
굷
굺
굻
굼
굽
굾
굿
궀
궁
궂
궃
궄
궅
궆
궇
궈
궉
권
궍
궏
궐
궑
궓
궘
궙
궛
궜
궝
궠
궤
궥
궨
궬
궭
궮
궯
궲
궳
궵
궷
궸
궹
귀
귁
귄
귇
귈
귐
귑
귓
귔
귕
귖
귘
귛
규
귝
균
귣
귤
귥
귦
귬
귭
귯
귱
귴
귷
그
극
귺
귻
근
귽
귾
귿
글
긁
긂
긃
긄
긆
긇
금
급
긊
긋
긌
긍
긎
긏
긐
긑
긒
긓
긔
긕
긘
긛
긜
긞
긤
긥
긧
긩
긪
긬
긯
기
긱
긲
긴
긵
긶
긷
길
긹
긺
긻
긼
긿
김
깁
깂
깃
깄
깅
깆
깇
깈
깉
깊
깋
까
깍
깎
깐
깑
깒
깓
깔
깕
깖
깗
깛
깜
깝
깞
깟
깠
깡
깢
깣
깤
깥
깦
깧
깨
깩
깪
깬
깯
깰
깱
깵
깸
깹
깺
깻
깼
깽
깾
꺀
꺄
꺅
꺆
꺈
꺊
꺋
꺌
꺍
꺏
꺓
꺔
꺕
꺗
꺘
꺙
꺚
꺜
꺟
꺠
꺢
꺤
꺨
꺰
꺳
꺴
꺵
꺼
꺽
꺾
껀
껃
껄
껅
껇
껌
껍
껏
껐
껑
껒
껓
껔
껕
껗
께
껙
껚
껜
껠
껨
껩
껫
껬
껭
껰
껳
껴
껵
껶
껸
껼
꼄
꼅
꼇
꼈
꼉
꼊
꼌
꼍
꼏
꼐
꼣
꼤
꼥
꼨
꼬
꼭
꼮
꼰
꼲
꼳
꼴
꼵
꼶
꼷
꼹
꼻
꼼
꼽
꼿
꽀
꽁
꽂
꽃
꽄
꽅
꽆
꽇
꽈
꽉
꽊
꽌
꽐
꽑
꽘
꽙
꽛
꽜
꽝
꽠
꽤
꽥
꽦
꽨
꽭
꽳
꽴
꽹
꽼
꾀
꾁
꾄
꾈
꾐
꾕
꾜
꾝
꾠
꾤
꾬
꾭
꾱
꾳
꾸
꾹
꾺
꾼
꾾
꾿
꿀
꿁
꿂
꿃
꿄
꿇
꿈
꿉
꿋
꿌
꿍
꿎
꿏
꿐
꿑
꿓
꿔
꿕
꿘
꿜
꿝
꿤
꿥
꿧
꿨
꿩
꿬
꿯
꿰
꿱
꿲
꿴
꿸
꿹
꿻
꿿
뀀
뀃
뀄
뀅
뀈
뀌
뀍
뀐
뀔
뀜
뀝
뀟
뀠
뀡
뀤
뀨
뀩
뀪
뀬
뀰
뀱
뀳
뀷
뀸
뀹
뀻
뀽
끀
끄
끅
끆
끈
끉
끊
끋
끌
끍
끎
끏
끐
끓
끔
끕
끗
끘
끙
끚
끛
끜
끝
끞
끟
끠
끡
끤
끨
끯
끰
끵
끸
끼
끽
끾
낀
낂
낃
낄
낅
낋
낌
낍
낎
낏
낐
낑
낒
낓
낔
낕
낗
나
낙
낚
낛
난
낝
낞
낟
날
낡
낢
낣
낤
낥
낧
남
납
낪
낫
났
낭
낮
낯
낰
낱
낲
낳
내
낵
낶
낸
낻
낼
냄
냅
냇
냈
냉
냊
냋
냌
냍
냎
냏
냐
냑
냒
냔
냗
냘
냙
냠
냡
냣
냤
냥
냦
냧
냨
냩
냪
냫
냬
냰
냴
냼
냿
넀
넁
넄
너
넉
넊
넋
넌
넎
넏
널
넑
넒
넓
넔
넖
넗
넘
넙
넚
넛
넜
넝
넞
넟
넠
넡
넢
넣
네
넥
넦
넧
넨
넫
넬
넭
넴
넵
넶
넷
넸
넹
넺
넻
넼
넽
넾
넿
녀
녁
녂
년
녅
녆
녇
녈
념
녑
녓
녔
녕
녖
녗
녘
녙
녚
녛
녜
녝
녠
녤
녬
녭
녯
녰
녱
녴
노
녹
녺
녻
논
녽
녾
녿
놀
놁
놂
놃
놇
놈
놉
놊
놋
놌
농
놎
놏
놐
놑
높
놓
놔
놕
놖
놘
놛
놜
놝
놤
놥
놧
놨
놩
놪
놬
놯
놰
놴
놸
뇀
뇁
뇄
뇅
뇌
뇍
뇐
뇔
뇜
뇝
뇟
뇠
뇡
뇤
뇨
뇩
뇬
뇰
뇸
뇹
뇻
뇽
눀
눂
눃
누
눅
눈
눉
눋
눌
눍
눓
눔
눕
눗
눙
눚
눛
눜
눝
눞
눟
눠
눤
눨
눰
눳
눴
눵
눸
눹
눼
눽
뉀
뉄
뉅
뉌
뉍
뉑
뉔
뉘
뉙
뉜
뉠
뉨
뉩
뉫
뉬
뉭
뉰
뉴
뉵
뉸
뉼
늄
늅
늇
늉
늌
늎
늏
느
늑
늒
늓
는
늕
늖
늗
늘
늙
늚
늛
늜
늟
늠
늡
늣
늤
능
늦
늧
늨
늩
늪
늫
늬
늭
늰
늴
늼
늽
늿
닁
닄
니
닉
닊
닋
닌
닍
닏
닐
닑
닒
닗
님
닙
닚
닛
닜
닝
닞
닟
닠
닡
닢
닣
다
닥
닦
닧
단
닩
닪
닫
달
닭
닮
닯
닰
닱
닲
닳
담
답
닶
닷
닸
당
닺
닻
닼
닽
닾
닿
대
댁
댂
댄
댇
댈
댉
댏
댐
댑
댓
댔
댕
댖
댗
댘
댙
댚
댛
댜
댝
댠
댣
댤
댥
댦
댬
댭
댯
댰
댱
댲
댴
댷
댸
댼
덀
덈
덋
덌
덍
더
덕
덖
덗
던
덙
덛
덜
덝
덞
덟
덢
덣
덤
덥
덦
덧
덨
덩
덪
덫
덬
덭
덮
덯
데
덱
덲
덴
덷
델
덹
뎀
뎁
뎂
뎃
뎄
뎅
뎆
뎇
뎈
뎉
뎊
뎋
뎌
뎍
뎐
뎓
뎔
뎜
뎝
뎟
뎠
뎡
뎤
뎦
뎧
뎨
뎬
뎻
뎽
도
독
돆
돇
돈
돉
돋
돌
돍
돎
돐
돒
돓
돔
돕
돖
돗
돘
동
돚
돛
돜
돝
돞
돟
돠
돡
돤
돨
돩
돰
돱
돳
돴
돵
돸
돻
돼
돽
돾
됀
됃
됄
됌
됍
됏
됐
됑
됒
됔
됗
되
됙
됚
된
됝
됟
될
됡
됢
됤
됥
됧
됨
됩
됫
됬
됭
됮
됰
됱
됳
됴
됵
됸
됻
됼
둄
둅
둇
둉
둊
둋
둌
둏
두
둑
둒
둔
둗
둘
둙
둚
둛
둞
둟
둠
둡
둣
둥
둦
둧
둨
둩
둪
둫
둬
둭
둰
둴
둼
둽
둿
뒀
뒁
뒄
뒇
뒈
뒌
뒐
뒑
뒓
뒘
뒙
뒛
뒜
뒝
뒞
뒠
뒤
뒥
뒨
뒫
뒬
뒴
뒵
뒷
뒸
뒹
뒺
뒼
듀
듁
듄
듇
듈
듐
듑
듓
듕
듘
드
득
듞
듟
든
듡
듢
듣
들
듥
듦
듧
듨
듩
듪
듫
듬
듭
듯
듰
등
듲
듳
듴
듵
듶
듷
듸
듹
듼
딀
딈
딉
딋
딍
디
딕
딖
딘
딛
딜
딝
딞
딤
딥
딧
딨
딩
딪
딫
딬
딭
딮
딯
따
딱
딲
딳
딴
딷
딸
딹
딺
딻
딿
땀
땁
땃
땄
땅
땆
땈
땉
땋
때
땍
땎
땐
땓
땔
땜
땝
땟
땠
땡
땢
땣
땤
땦
땧
땨
땩
땬
땰
땸
땽
떃
떄
떅
떈
떌
떔
떗
떘
떙
떠
떡
떢
떣
떤
떥
떦
떧
떨
떩
떪
떫
떮
떯
떰
떱
떳
떴
떵
떶
떷
떸
떹
떺
떻
떼
떽
떾
뗀
뗄
뗌
뗍
뗏
뗐
뗑
뗔
뗗
뗘
뗙
뗜
뗠
뗨
뗫
뗬
뗭
뗳
뗴
뗵
뗸
뗼
똇
똈
또
똑
똒
똔
똗
똘
똙
똚
똝
똟
똠
똡
똣
똥
똦
똧
똨
똩
똫
똬
똭
똮
똰
똴
똵
똷
똻
똼
똽
똿
뙀
뙁
뙄
뙇
뙈
뙌
뙓
뙛
뙜
뙝
뙤
뙥
뙨
뙬
뙴
뙷
뙸
뙹
뙿
뚀
뚁
뚄
뚈
뚊
뚕
뚜
뚝
뚞
뚠
뚢
뚣
뚤
뚥
뚦
뚧
뚨
뚫
뚬
뚭
뚯
뚱
뚴
뚵
뚷
뚸
뚹
뚼
뛀
뛃
뛋
뛌
뛍
뛓
뛔
뛕
뛝
뛟
뛣
뛥
뛧
뛨
뛰
뛱
뛴
뛸
뜀
뜁
뜃
뜄
뜅
뜌
뜍
뜐
뜔
뜛
뜜
뜝
뜡
뜨
뜩
뜪
뜬
뜮
뜯
뜰
뜱
뜳
뜷
뜸
뜹
뜻
뜼
뜽
뜾
뜿
띀
띁
띃
띄
띅
띈
띌
띔
띕
띙
띟
띠
띡
띤
띧
띨
띰
띱
띳
띴
띵
띶
띸
띻
라
락
띾
띿
란
랁
랂
랃
랄
랅
랆
랇
랈
랉
랊
랋
람
랍
랎
랏
랐
랑
랒
랓
랔
랕
랖
랗
래
랙
랚
랜
랟
랠
랡
램
랩
랫
랬
랭
랮
랯
랰
랱
랲
랳
랴
략
랸
랺
랻
랼
럄
럅
럇
럈
량
럊
럌
럎
럏
럐
럑
럔
럗
럘
럠
럣
럤
럥
러
럭
럮
럯
런
럱
럲
럳
럴
럵
럶
럷
럸
럻
럼
럽
럾
럿
렀
렁
렂
렃
렄
렅
렆
렇
레
렉
렊
렋
렌
렏
렐
렑
렓
렗
렘
렙
렚
렛
렜
렝
렞
렠
렡
렢
렣
려
력
렦
렧
련
렩
렪
렫
렬
렭
렴
렵
렷
렸
령
렺
렻
렼
렽
렾
렿
례
롁
롄
롈
롐
롑
롓
롔
롕
롘
로
록
롞
론
롡
롣
롤
롥
롫
롬
롭
롮
롯
롰
롱
롲
롳
롴
롵
롶
롷
롸
롹
롻
롼
뢀
뢁
뢈
뢉
뢋
뢌
뢍
뢐
뢓
뢔
뢕
뢘
뢜
뢥
뢨
뢩
뢰
뢱
뢴
뢸
룀
룁
룃
룄
룅
룈
료
룍
룐
룔
룜
룝
룟
룠
룡
룢
룤
룧
루
룩
룪
룬
룯
룰
룱
룷
룸
룹
룻
룽
룾
룿
뤀
뤁
뤂
뤃
뤄
뤅
뤈
뤌
뤔
뤕
뤗
뤘
뤙
뤜
뤟
뤠
뤡
뤤
뤨
뤩
뤫
뤰
뤱
뤳
뤵
뤸
뤼
뤽
륀
륄
륌
륍
륏
륐
륑
륔
류
륙
륜
륟
률
륨
륩
륫
륭
륮
륰
륲
륳
르
륵
륶
른
륹
륻
를
륽
륾
륿
릀
릁
릂
릃
름
릅
릆
릇
릈
릉
릊
릋
릌
릍
릎
릏
릐
릑
릔
릘
릠
릡
릣
릥
릫
리
릭
릮
린
릱
릲
릳
릴
릵
릶
릷
릸
릹
릻
림
립
릾
릿
맀
링
맂
맃
맄
맅
맆
맇
마
막
맊
맋
만
맍
많
맏
말
맑
맒
맓
맔
맕
맖
맗
맘
맙
맚
맛
맜
망
맞
맟
맠
맡
맢
맣
매
맥
맨
맩
맪
맫
맬
맴
맵
맷
맸
맹
맺
맻
맼
맽
맿
먀
먁
먄
먆
먇
먈
먐
먑
먓
먕
먖
먗
먘
먛
먜
먠
먤
먱
머
먹
먺
먻
먼
먽
먾
먿
멀
멁
멂
멈
멉
멊
멋
멌
멍
멎
멏
멐
멑
멒
멓
메
멕
멘
멛
멜
멤
멥
멧
멨
멩
멪
멫
멬
멭
멮
멯
며
멱
멲
면
멵
멶
멷
멸
멿
몀
몁
몃
몄
명
몆
몇
몈
몉
몊
몋
몌
몐
몔
몟
몡
몢
몣
모
목
몪
몫
몬
몮
몯
몰
몱
몲
몴
몷
몸
몹
몺
못
몼
몽
몾
몿
뫀
뫁
뫂
뫃
뫄
뫅
뫈
뫌
뫔
뫕
뫗
뫘
뫙
뫚
뫜
뫠
뫤
뫼
뫽
묀
묄
묏
묑
묘
묙
묜
묠
묨
묫
묭
묯
무
묵
묶
묷
문
묹
묺
묻
물
묽
묾
묿
뭀
뭁
뭃
뭄
뭅
뭇
뭈
뭉
뭊
뭋
뭌
뭍
뭎
뭏
뭐
뭑
뭔
뭕
뭗
뭘
뭙
뭚
뭟
뭠
뭡
뭣
뭤
뭥
뭦
뭧
뭨
뭩
뭫
뭬
뭭
뭰
뭴
뭵
뭷
뭽
뭿
뮁
뮈
뮉
뮌
뮏
뮐
뮘
뮙
뮛
뮜
뮝
뮤
뮥
뮦
뮨
뮫
뮬
뮴
뮷
뮹
뮻
뮼
므
믁
믂
믄
믆
믇
믈
믉
믌
믏
믐
믑
믓
믕
믖
믘
믙
믛
믜
믝
믠
믣
믤
믬
믯
믰
믱
미
믹
믺
믻
민
믽
믾
믿
밀
밁
밂
밇
밈
밉
밊
밋
밌
밍
밎
및
밐
밑
밒
밓
바
박
밖
밗
반
밙
밚
받
발
밝
밞
밟
밠
밡
밢
밣
밤
밥
밦
밧
밨
방
밪
밫
밬
밭
밮
밯
배
백
밲
밳
밴
밷
밸
밹
뱀
뱁
뱃
뱄
뱅
뱆
뱇
뱈
뱉
뱊
뱋
뱌
뱍
뱎
뱐
뱓
뱔
뱕
뱗
뱛
뱜
뱝
뱟
뱡
뱤
뱥
뱨
뱩
뱬
뱰
뱸
뱽
벁
버
벅
벆
번
벉
벊
벋
벌
벍
벎
벏
벐
벑
벓
범
법
벖
벗
벘
벙
벚
벛
벜
벝
벞
벟
베
벡
벤
벧
벨
벩
벫
벭
벯
벰
벱
벲
벳
벴
벵
벶
벷
벸
벹
벺
벻
벼
벽
벾
변
볁
볂
볃
별
볅
볆
볇
볈
볋
볌
볍
볎
볏
볐
병
볒
볓
볔
볕
볖
볗
볘
볙
볜
볠
볫
볭
보
복
볶
볷
본
볹
볻
볼
볽
볾
봀
봁
봃
봄
봅
봆
봇
봈
봉
봊
봋
봌
봍
봎
봏
봐
봑
봒
봔
봗
봘
봙
봟
봠
봡
봣
봤
봥
봦
봨
봩
봫
봬
봭
봰
봴
봵
봽
봿
뵀
뵁
뵈
뵉
뵌
뵏
뵐
뵑
뵘
뵙
뵛
뵜
뵝
뵞
뵠
뵤
뵥
뵨
뵬
뵴
뵵
뵷
뵹
뵺
부
북
붂
붃
분
붅
붆
붇
불
붉
붊
붋
붌
붍
붎
붏
붐
붑
붓
붔
붕
붖
붗
붘
붙
붚
붛
붜
붝
붠
붤
붥
붬
붭
붯
붰
붱
붴
붸
붹
붼
뷀
뷁
뷃
뷇
뷉
뷋
뷍
뷐
뷔
뷕
뷘
뷜
뷤
뷥
뷧
뷩
뷮
뷰
뷱
뷴
뷷
뷸
뷹
븀
븁
븂
븃
븅
븈
븉
븋
브
븍
븎
븏
븐
븓
블
븕
븛
븜
븝
븞
븟
븡
븢
븤
븥
븦
븧
븨
븩
븬
븰
븸
븹
븻
븽
빂
비
빅
빆
빇
빈
빋
빌
빍
빎
빏
빓
빔
빕
빖
빗
빘
빙
빚
빛
빜
빝
빞
빟
빠
빡
빢
빣
빤
빧
빨
빩
빪
빫
빬
빭
빯
빰
빱
빳
빴
빵
빶
빷
빸
빹
빺
빻
빼
빽
빾
뺀
뺃
뺄
뺅
뺌
뺍
뺏
뺐
뺑
뺒
뺓
뺔
뺕
뺗
뺘
뺙
뺚
뺜
뺠
뺡
뺨
뺩
뺫
뺭
뺴
뺵
뺶
뺸
뺼
뻁
뻄
뻇
뻈
뻉
뻐
뻑
뻒
뻔
뻕
뻖
뻗
뻘
뻙
뻠
뻡
뻣
뻤
뻥
뻦
뻨
뻩
뻪
뻫
뻬
뻭
뻰
뻴
뻼
뻿
뼀
뼁
뼈
뼉
뼊
뼌
뼏
뼐
뼑
뼘
뼙
뼛
뼜
뼝
뼠
뼡
뼤
뼬
뽀
뽁
뽂
뽄
뽇
뽈
뽐
뽑
뽓
뽕
뽖
뽘
뽚
뽛
뽜
뽝
뽞
뽠
뽤
뽥
뽫
뽬
뽭
뽯
뽰
뽱
뽴
뽷
뽸
뽹
뾀
뾃
뾔
뾥
뾰
뾱
뾲
뾴
뾸
뿁
뿃
뿅
뿌
뿍
뿎
뿐
뿑
뿓
뿔
뿕
뿛
뿜
뿝
뿟
뿠
뿡
뿤
뿥
뿧
뿨
뿩
뿬
뿰
뿱
뿳
뿹
뿽
쀀
쀄
쀅
쀈
쀌
쀍
쀏
쀒
쀓
쀠
쀡
쀨
쀳
쀵
쀼
쀽
쀾
쁀
쁄
쁌
쁍
쁏
쁐
쁑
쁘
쁙
쁜
쁝
쁟
쁠
쁨
쁩
쁫
쁭
쁮
쁰
쁴
쁸
쁼
삉
삐
삑
삒
삔
삗
삘
삠
삡
삣
삤
삥
삦
삧
삨
삫
사
삭
삮
삯
산
삱
삲
삳
살
삵
삶
삷
삸
삹
삺
삻
삼
삽
삾
삿
샀
상
샂
샃
샄
샅
샆
샇
새
색
샊
샋
샌
샎
샏
샐
샑
샒
샓
샔
샕
샗
샘
샙
샚
샛
샜
생
샞
샟
샠
샡
샢
샣
샤
샥
샦
샨
샫
샬
샮
샴
샵
샷
샸
샹
샼
샽
샾
샿
섀
섁
섂
섄
섈
섉
섊
섐
섑
섓
섔
섕
섘
서
석
섞
섟
선
섡
섢
섣
설
섥
섦
섧
섨
섩
섪
섫
섬
섭
섮
섯
섰
성
섲
섳
섴
섵
섶
섷
세
섹
섺
섻
센
섽
섿
셀
셁
셂
셃
셆
셇
셈
셉
셋
셌
셍
셎
셏
셐
셑
셒
셓
셔
셕
셖
션
셛
셜
셟
셤
셥
셧
셨
셩
셪
셫
셬
셭
셮
셯
셰
셱
셲
셴
셸
솀
솁
솃
솄
솅
솈
솉
솊
소
속
솎
솏
손
솑
솒
솓
솔
솕
솖
솛
솜
솝
솟
솠
송
솢
솣
솤
솥
솦
솧
솨
솩
솬
솰
솸
솹
솻
솼
솽
쇀
쇄
쇅
쇆
쇈
쇌
쇔
쇗
쇘
쇙
쇜
쇟
쇠
쇡
쇣
쇤
쇨
쇱
쇳
쇵
쇸
쇼
쇽
숀
숄
숌
숍
숏
숐
숑
숔
숖
숗
수
숙
숚
순
숝
숟
술
숡
숢
숤
숧
숨
숩
숪
숫
숬
숭
숮
숯
숰
숱
숲
숳
숴
숵
숶
숸
숼
쉄
쉅
쉇
쉈
쉉
쉌
쉐
쉑
쉒
쉓
쉔
쉗
쉘
쉙
쉚
쉛
쉜
쉞
쉟
쉠
쉡
쉣
쉤
쉥
쉧
쉨
쉩
쉪
쉫
쉬
쉭
쉮
쉰
쉲
쉳
쉴
쉻
쉼
쉽
쉾
쉿
슀
슁
슂
슄
슅
슆
슇
슈
슉
슌
슏
슐
슘
슙
슛
슝
슞
슟
슠
슢
스
슥
슦
슧
슨
슩
슫
슬
슭
슮
슯
슰
슲
슳
슴
습
슶
슷
슸
승
슺
슻
슼
슽
슾
슿
싀
싁
싄
싅
싆
싇
싈
싐
싑
싓
싕
싖
싘
싙
싚
시
식
싞
싟
신
싡
싢
싣
실
싥
싦
싧
싨
싩
싪
싫
심
십
싮
싯
싰
싱
싲
싳
싴
싵
싶
싷
싸
싹
싺
싻
싼
싾
싿
쌀
쌂
쌇
쌈
쌉
쌋
쌌
쌍
쌎
쌐
쌑
쌒
쌓
쌔
쌕
쌖
쌗
쌘
쌛
쌜
쌞
쌟
쌤
쌥
쌧
쌨
쌩
쌬
쌯
쌰
쌱
쌴
쌸
쌻
썀
썁
썃
썄
썅
썋
썌
썍
썎
썐
썔
썖
썜
썝
썟
썠
썡
써
썩
썪
썫
썬
썯
썰
썱
썳
썸
썹
썻
썼
썽
썾
쎀
쎁
쎂
쎃
쎄
쎅
쎆
쎇
쎈
쎌
쎍
쎓
쎔
쎕
쎗
쎘
쎙
쎜
쎝
쎟
쎠
쎡
쎤
쎨
쎰
쎱
쎳
쎴
쎵
쎼
쎽
쎾
쏀
쏃
쏄
쏌
쏏
쏐
쏔
쏖
쏘
쏙
쏚
쏜
쏟
쏠
쏨
쏩
쏫
쏬
쏭
쏮
쏰
쏱
쏳
쏴
쏵
쏸
쏼
쐄
쐅
쐇
쐈
쐉
쐌
쐏
쐐
쐑
쐒
쐣
쐤
쐥
쐨
쐬
쐭
쐰
쐴
쐼
쐽
쐿
쑀
쑈
쑉
쑌
쑐
쑙
쑛
쑝
쑤
쑥
쑦
쑨
쑫
쑬
쑴
쑵
쑷
쑹
쑻
쑼
쒀
쒁
쒂
쒄
쒈
쒐
쒑
쒓
쒔
쒕
쒘
쒜
쒝
쒞
쒠
쒤
쒥
쒧
쒫
쒭
쒯
쒰
쒱
쒴
쒵
쒸
쒹
쒼
쓀
쓃
쓈
쓉
쓊
쓋
쓌
쓍
쓐
쓑
쓒
쓔
쓕
쓘
쓜
쓤
쓥
쓩
쓰
쓱
쓲
쓴
쓷
쓸
쓹
쓺
쓿
씀
씁
씂
씃
씄
씅
씆
씇
씈
씉
씊
씋
씌
씍
씐
씔
씗
씜
씝
씞
씟
씡
씢
씤
씥
씦
씧
씨
씩
씪
씬
씮
씯
씰
씱
씳
씶
씷
씸
씹
씺
씻
씼
씽
씾
씿
앀
앁
앂
앃
아
악
앆
앇
안
앉
않
앋
알
앍
앎
앏
앐
앑
앒
앓
암
압
앖
앗
았
앙
앚
앛
앜
앝
앞
앟
애
액
앢
앣
앤
앦
앧
앨
앩
앰
앱
앲
앳
앴
앵
앶
앷
앸
앹
앺
앻
야
약
앾
앿
얀
얁
얂
얃
얄
얅
얆
얇
얉
얊
얋
얌
얍
얎
얏
얐
양
얒
얓
얔
얕
얖
얗
얘
얙
얜
얠
얨
얩
얪
얫
얬
얭
얮
얰
얳
어
억
얶
얷
언
얹
얺
얻
얼
얽
얾
얿
엀
엁
엂
엃
엄
업
없
엇
었
엉
엊
엋
엌
엍
엎
엏
에
엑
엒
엓
엔
엕
엗
엘
엙
엜
엞
엠
엡
엢
엣
엤
엥
엦
엧
엨
엩
엪
엫
여
역
엮
엯
연
엱
엲
엳
열
엵
엶
엷
엸
엹
엻
염
엽
엾
엿
였
영
옂
옃
옄
옅
옆
옇
예
옉
옌
옐
옘
옙
옛
옜
옝
옞
옟
옠
옢
옣
오
옥
옦
옧
온
옩
옪
옫
올
옭
옮
옯
옰
옱
옲
옳
옴
옵
옶
옷
옸
옹
옺
옻
옼
옽
옾
옿
와
왁
왂
완
왅
왆
왇
왈
왉
왐
왑
왓
왔
왕
왖
왗
왘
왙
왚
왛
왜
왝
왠
왡
왢
왤
왥
왬
왭
왯
왰
왱
왲
왳
왴
왶
왷
외
왹
왼
욀
욈
욉
욋
욌
욍
욎
욐
욓
요
욕
욖
욗
욘
욛
욜
욝
욣
욤
욥
욧
욨
용
욪
욫
욬
욭
욮
욯
우
욱
욲
욳
운
욵
욷
울
욹
욺
욻
욼
욽
욾
욿
움
웁
웂
웃
웄
웅
웆
웇
웈
웉
웊
웋
워
웍
웎
원
웑
웒
웓
월
웕
웖
웗
웘
웙
웚
웛
웜
웝
웞
웟
웠
웡
웢
웣
웤
웥
웦
웧
웨
웩
웪
웬
웯
웰
웱
웳
웸
웹
웺
웻
웼
웽
웾
윀
윁
윂
위
윅
윈
윋
윌
윔
윕
윖
윗
윘
윙
윚
윜
윝
윟
유
육
윢
윣
윤
윥
윧
율
윩
윪
윯
윰
윱
윳
융
윶
윷
윸
윹
윺
윻
으
윽
윾
윿
은
읁
읂
읃
을
읅
읆
읇
읈
읉
읊
읋
음
읍
읎
읏
읐
응
읒
읓
읔
읕
읖
읗
의
읙
읜
읟
읠
읨
읩
읪
읫
읬
읭
읮
읯
읰
읱
읲
읳
이
익
읶
읷
인
읹
읺
읻
일
읽
읾
읿
잀
잁
잂
잃
임
입
잆
잇
있
잉
잊
잋
잌
잍
잎
잏
자
작
잒
잓
잔
잕
잖
잗
잘
잙
잚
잛
잜
잝
잞
잟
잠
잡
잢
잣
잤
장
잦
잧
잨
잩
잪
잫
재
잭
잮
잰
잲
잳
잴
잼
잽
잿
쟀
쟁
쟂
쟃
쟄
쟅
쟆
쟇
쟈
쟉
쟊
쟌
쟎
쟏
쟐
쟘
쟙
쟛
쟜
쟝
쟞
쟟
쟠
쟡
쟣
쟤
쟥
쟨
쟬
쟴
쟸
쟹
쟼
저
적
젂
젃
전
젅
젆
젇
절
젉
젊
젋
젌
젍
젎
젏
점
접
젒
젓
젔
정
젖
젗
젘
젙
젚
젛
제
젝
젞
젠
젡
젣
젤
젬
젭
젯
젰
젱
젲
젳
젴
젵
젶
젷
져
젹
젺
젼
젾
젿
졀
졂
졈
졉
졋
졌
졍
졎
졏
졐
졑
졒
졓
졔
졘
졜
졨
졩
조
족
졲
졳
존
졵
졶
졷
졸
졹
졺
졻
졽
졿
좀
좁
좂
좃
좄
종
좆
좇
좈
좉
좊
좋
좌
좍
좎
좐
좒
좓
좔
좜
좝
좟
좠
좡
좢
좣
좤
좥
좦
좧
좨
좩
좬
좭
좮
좯
좰
좱
좸
좼
좽
죄
죅
죈
죌
죔
죕
죗
죘
죙
죚
죜
죝
죠
죡
죢
죣
죤
죥
죧
죨
죰
죱
죳
죴
죵
죶
죷
죸
죹
죺
죻
주
죽
죾
죿
준
줁
줂
줃
줄
줅
줆
줈
줉
줊
줋
줌
줍
줏
줐
중
줒
줓
줔
줕
줖
줗
줘
줙
줚
줜
줝
줟
줠
줨
줩
줫
줬
줭
줮
줯
줰
줱
줳
줴
줵
줸
줼
쥄
쥅
쥇
쥈
쥉
쥐
쥑
쥔
쥘
쥠
쥡
쥣
쥤
쥥
쥦
쥨
쥫
쥬
쥭
쥰
쥳
쥴
쥼
쥽
쥿
즁
즂
즄
즇
즈
즉
즋
즌
즎
즏
즐
즑
즘
즙
즛
즜
증
즞
즟
즠
즡
즣
즤
즥
즨
즬
즴
즵
즷
즹
즺
즼
지
직
짂
짃
진
짅
짆
짇
질
짉
짊
짋
짌
짍
짎
짏
짐
집
짒
짓
짔
징
짖
짗
짘
짙
짚
짛
짜
짝
짞
짠
짢
짣
짤
짥
짦
짧
짪
짫
짬
짭
짮
짯
짰
짱
짲
짳
짴
짵
짶
짷
째
짹
짺
짼
짾
짿
쨀
쨈
쨉
쨋
쨌
쨍
쨎
쨐
쨓
쨔
쨕
쨖
쨘
쨚
쨜
쨟
쨤
쨥
쨧
쨨
쨩
쨬
쨰
쨱
쨲
쨴
쩀
쩁
쩃
쩄
쩅
쩌
쩍
쩎
쩐
쩑
쩓
쩔
쩕
쩖
쩗
쩘
쩛
쩜
쩝
쩟
쩠
쩡
쩢
쩣
쩤
쩦
쩧
쩨
쩩
쩬
쩰
쩸
쩹
쩻
쩼
쩽
쪄
쪅
쪈
쪌
쪔
쪕
쪗
쪘
쪙
쪚
쪜
쪟
쪠
쪵
쪹
쪻
쪼
쪽
쪾
쪿
쫀
쫂
쫃
쫄
쫅
쫌
쫍
쫏
쫐
쫑
쫒
쫓
쫔
쫕
쫖
쫗
쫘
쫙
쫚
쫛
쫜
쫟
쫠
쫨
쫩
쫫
쫭
쫰
쫴
쫵
쬈
쬎
쬐
쬑
쬔
쬘
쬠
쬡
쬥
쬬
쬭
쬮
쬰
쬲
쬴
쬼
쬽
쬿
쭀
쭁
쭂
쭃
쭄
쭅
쭈
쭉
쭊
쭌
쭏
쭐
쭕
쭘
쭙
쭛
쭝
쭞
쭟
쭠
쭤
쭥
쭨
쭬
쭭
쭵
쭷
쭸
쭹
쭻
쮀
쮁
쮇
쮉
쮑
쮓
쮔
쮕
쮜
쮝
쮠
쮤
쮭
쮱
쮸
쮹
쮼
쯀
쯈
쯉
쯋
쯍
쯎
쯔
쯕
쯘
쯛
쯜
쯤
쯥
쯧
쯨
쯩
쯪
쯫
쯰
쯱
쯴
찁
찅
찌
찍
찎
찏
찐
찓
찔
찗
찜
찝
찟
찠
찡
찢
찣
찤
찥
찦
찧
차
착
찫
찬
찭
찮
찯
찰
찱
찲
찳
찴
찷
참
찹
찻
찼
창
찾
찿
챀
챁
챂
챃
채
책
챈
챊
챋
챌
챔
챕
챗
챘
챙
챚
챜
챝
챠
챡
챤
챦
챨
챫
챰
챱
챳
챴
챵
챶
챷
챸
챺
챻
챼
챽
첑
처
척
천
첝
첞
첟
철
첡
첢
첣
첤
첧
첨
첩
첪
첫
첬
청
첮
첯
첰
첱
첲
첳
체
첵
첸
첻
첼
쳄
쳅
쳇
쳈
쳉
쳊
쳋
쳌
쳍
쳏
쳐
쳑
쳒
쳔
쳗
쳘
쳠
쳡
쳢
쳣
쳤
쳥
쳦
쳧
쳨
쳫
쳬
쳭
쳰
쳴
촀
초
촉
촌
촏
촐
촔
촘
촙
촛
촜
총
촞
촟
촠
촡
촣
촤
촥
촨
촪
촬
촴
촵
촷
촹
촺
촼
쵀
쵁
쵕
최
쵝
쵠
쵤
쵭
쵮
쵯
쵱
쵴
쵸
쵹
쵼
쵿
춀
춈
춉
춋
춌
춍
춎
춏
춐
추
축
춘
춚
춛
출
춝
춞
춟
춠
춡
춣
춤
춥
춧
충
춪
춫
춬
춭
춮
춯
춰
춱
춴
춸
췁
췃
췄
췅
췆
췈
췌
췍
췐
췔
췕
췜
췝
췟
췡
췤
취
췩
췬
췰
췸
췹
췻
췼
췽
츀
츄
츅
츈
츌
츔
츕
츗
츙
츛
츜
츞
츠
측
츤
츧
츨
츰
츱
츳
층
츶
츷
츸
츹
츼
츽
칀
칄
칌
칍
칑
칔
치
칙
친
칝
칞
칟
칠
칡
칢
칤
칧
침
칩
칫
칬
칭
칮
칯
칰
칱
칲
칳
카
칵
칶
칸
칻
칼
칽
캄
캅
캆
캇
캈
캉
캊
캋
캌
캍
캎
캏
캐
캑
캔
캘
캙
캠
캡
캢
캣
캤
캥
캨
캩
캪
캬
캭
캮
캰
캴
캵
캼
캽
캿
컀
컁
컄
컅
컇
컈
커
컥
컦
컨
컫
컬
컭
컯
컴
컵
컷
컸
컹
컺
컼
컽
컾
컿
케
켁
켄
켇
켈
켉
켐
켑
켓
켔
켕
켘
켙
켚
켛
켜
켝
켞
켠
켤
켬
켭
켯
켰
켱
켲
켴
켵
켷
켸
켼
콋
콌
코
콕
콘
콛
콜
콤
콥
콧
콩
콪
콫
콬
콭
콮
콯
콰
콱
콲
콴
콸
쾀
쾃
쾅
쾈
쾌
쾍
쾐
쾡
쾤
쾨
쾩
쾬
쾰
쾽
쿄
쿅
쿈
쿌
쿔
쿗
쿙
쿜
쿠
쿡
쿢
쿤
쿧
쿨
쿩
쿫
쿯
쿰
쿱
쿳
쿵
쿸
쿹
쿺
쿻
쿼
쿽
퀀
퀄
퀌
퀏
퀐
퀑
퀔
퀘
퀙
퀜
퀠
퀡
퀫
퀭
퀰
퀴
퀵
퀸
퀻
퀼
큄
큅
큇
큉
큌
큐
큑
큔
큘
큠
큡
큣
큥
큨
큩
큪
크
큭
큮
큰
큲
큳
클
큵
큷
큻
큼
큽
큿
킀
킁
킂
킄
킅
킆
킇
킈
킉
킌
킐
킘
킝
킠
키
킥
킦
킨
킫
킬
킴
킵
킶
킷
킸
킹
킺
킼
킽
킾
킿
타
탁
탂
탄
탅
탆
탇
탈
탉
탊
탍
탏
탐
탑
탓
탔
탕
탖
탗
탘
탙
탚
탛
태
택
탞
탟
탠
탣
탤
탬
탭
탯
탰
탱
탲
탴
탵
탶
탷
탸
탹
탼
턀
턈
턉
턋
턍
턐
턑
턔
턕
턘
턩
터
턱
턴
턷
털
턹
턺
텀
텁
텂
텃
텄
텅
텆
텇
텈
텉
텊
텋
테
텍
텐
텓
텔
템
텝
텟
텠
텡
텢
텣
텤
텥
텦
텧
텨
텩
텬
텰
텸
텹
텻
텼
텽
톀
톃
톄
톅
톈
톌
톔
토
톡
톢
톤
톧
톨
톩
톪
톰
톱
톳
통
톶
톷
톸
톹
톺
톻
톼
톽
퇀
퇄
퇌
퇍
퇏
퇑
퇔
퇘
퇙
퇜
퇧
퇫
퇬
퇭
퇮
퇴
퇵
퇶
퇸
퇼
툄
툅
툇
툈
툉
툊
툌
툐
툑
툠
툥
툨
툩
투
툭
툰
툱
툲
툳
툴
툻
툼
툽
툿
퉁
퉂
퉄
퉅
퉆
퉈
퉉
퉌
퉐
퉛
퉜
퉝
퉤
퉥
퉨
퉬
퉵
퉷
퉸
퉹
퉼
퉽
퉾
튀
튁
튄
튈
튐
튑
튓
튔
튕
튘
튜
튝
튠
튤
튬
튭
튱
튴
튵
튶
트
특
튺
튻
튼
튽
튿
틀
틁
틂
틅
틇
틈
틉
틊
틋
틍
틎
틏
틐
틑
틒
틓
틔
틕
틘
틜
틤
틧
틩
티
틱
틳
틴
틷
틸
팀
팁
팃
팄
팅
팆
팈
팉
팊
파
팍
팎
팏
판
팑
팒
팓
팔
팕
팖
팗
팘
팙
팚
팛
팜
팝
팟
팠
팡
팢
팣
팤
팥
팦
팧
패
팩
팬
팯
팰
팸
팹
팻
팼
팽
퍀
퍁
퍄
퍅
퍈
퍌
퍔
퍙
퍝
퍞
퍠
퍡
퍤
퍵
퍼
퍽
퍾
펀
펃
펄
펅
펌
펍
펏
펐
펑
펒
펔
펕
펖
펗
페
펙
펜
펟
펠
펨
펩
펫
펭
펰
펲
펴
펵
편
펹
펺
펻
펼
폄
폅
폇
폈
평
폌
폐
폑
폔
폘
폠
폡
폣
폥
폨
포
폭
폯
폰
폳
폴
폼
폽
폿
퐁
퐂
퐄
퐅
퐆
퐇
퐈
퐉
퐌
퐐
퐑
퐘
퐙
퐛
퐜
퐝
퐠
퐣
퐤
퐥
퐨
푀
푁
푄
푈
푕
표
푝
푠
푤
푬
푭
푯
푱
푲
푴
푶
푷
푸
푹
푼
푿
풀
풁
풂
풃
풇
품
풉
풋
풍
풎
풏
풐
풑
풒
풓
풔
풕
풘
풜
풩
풬
풰
풱
풴
풸
풹
퓅
퓌
퓍
퓐
퓔
퓟
퓡
퓨
퓩
퓬
퓰
퓸
퓹
퓻
퓽
퓿
픀
픂
픃
프
픅
픈
픋
플
픍
픎
픓
픔
픕
픗
픙
픚
픜
픝
픞
픟
픠
픤
픨
픵
픹
피
픽
핀
핃
필
핆
핋
핌
핍
핏
핐
핑
핒
핓
핔
핕
핖
핗
하
학
핚
핛
한
핝
핞
핟
할
핡
핢
핣
핤
핥
핦
핧
함
합
핪
핫
핬
항
핮
핯
핰
핱
핲
핳
해
핵
핶
핷
핸
핺
핻
핼
핽
햄
햅
햇
했
행
햊
햋
햌
햍
햎
햏
햐
햑
햔
햘
햙
햚
햛
햝
햟
햠
햡
햣
햤
향
햨
햩
햫
햬
햭
햰
햿
헀
헁
허
헉
헊
헋
헌
헍
헏
헐
헑
헒
헓
헔
헕
헗
험
헙
헚
헛
헜
헝
헞
헟
헠
헡
헢
헣
헤
헥
헦
헧
헨
헫
헬
헭
헯
헰
헱
헲
헳
헴
헵
헶
헷
헸
헹
헼
헽
헾
헿
혀
혁
혂
혃
현
혅
혆
혇
혈
혉
혐
협
혒
혓
혔
형
혖
혘
혙
혚
혛
혜
혝
혠
혤
혬
혭
혯
혰
혱
혲
혴
혷
호
혹
혺
혻
혼
혽
혾
혿
홀
홁
홅
홇
홈
홉
홋
홍
홎
홐
홑
홒
홓
화
확
홖
홗
환
홙
홛
활
홝
홟
홡
홣
홤
홥
홧
홨
황
홪
홫
홬
홭
홮
홯
홰
홱
홴
횃
횄
횅
회
획
횐
횓
횔
횜
횝
횟
횠
횡
횢
횤
횧
효
횩
횬
횰
횸
횹
횻
횽
훀
훃
후
훅
훈
훉
훊
훋
훌
훍
훏
훑
훓
훔
훕
훗
훙
훚
훛
훜
훝
훞
훟
훠
훡
훤
훨
훯
훰
훱
훳
훵
훸
훻
훼
훽
휀
휄
휅
휇
휍
휏
휐
휑
휔
휗
휘
휙
휜
휠
휨
휩
휫
휭
휰
휲
휳
휴
휵
휸
휼
흄
흅
흇
흉
흊
흌
흎
흏
흐
흑
흒
흓
흔
흗
흘
흙
흚
흛
흜
흝
흟
흠
흡
흣
흤
흥
흦
흨
흩
흪
흫
희
흭
흰
흳
흴
흵
흼
흽
흿
힁
힂
힄
힇
히
힉
힊
힌
힏
힐
힑
힒
힕
힗
힘
힙
힛
힜
힝
힞
힟
힠
힡
힢
힣
％
##졌
##다
##면
##문
##형
##냉
##장
##고
##작
##을
##하
##지
##말
##아
##주
##세
##요
##은
##증
##그
##대
##로
##인
##데
##자
##나
##한
##테
##사
##병
##격
##에
##화
##되
##위
##서
##도
##개
##매
##수
##D
##1
##8
##9
##5
##리
##딕
##이
##치
##집
##구
##석
##스
##해
##기
##써
##의
##흡
##연
##율
##붙
##혀
##라
##편
##박
##길
##생
##충
##내
##마
##P
##씨
##를
##었
##네
##저
##번
##부
##터
##들
##야
##른
##뒤
##일
##니
##3
##분
##올
##오
##던
##애
##된
##놈
##때
##간
##가
##국
##욕
##만
##게
##있
##질
##럿
##으
##쇼
##러
##운
##것
##영
##살
##릴
##성
##령
##원
##근
##와
##7
##6
##별
##방
##목
##적
##디
##발
##확
##산
##같
##소
##선
##어
##학
##교
##우
##갈
##까
##민
##했
##는
##콜
##제
##끼
##런
##투
##시
##두
##념
##식
##억
##캐
##껏
##란
##걸
##겠
##각
##람
##상
##전
##팀
##깽
##판
##정
##권
##침
##착
##려
##바
##습
##0
##년
##월
##안
##됬
##틸
##플
##래
##보
##토
##베
##린
##T
##N
##프
##램
##퇴
##댓
##글
##과
##차
##쿠
##멘
##탈
##알
##염
##중
##미
##금
##쓰
##거
##물
##왕
##품
##유
##통
##업
##메
##모
##명
##당
##관
##련
##점
##맞
##희
##극
##태
##진
##잡
##앗
##눈
##럭
##S
##너
##홀
##딩
##족
##톨
##섹
##싶
##회
##폐
##쇄
##켜
##름
##없
##현
##코
##신
##탁
##표
##탐
##짜
##임
##새
##승
##깨
##실
##동
##뜻
##님
##죽
##짓
##겅
##m
##f
##뜨
##예
##창
##푸
##광
##심
##값
##드
##뎃
##날
##될
##책
##겟
##벤
##트
##허
##슬
##웃
##키
##닐
##떨
##듯
##벌
##U
##묘
##덕
##조
##삐
##쩍
##르
##놓
##북
##체
##처
##단
##티
##댕
##순
##감
##됐
##든
##쉘
##타
##았
##합
##즌
##막
##짤
##좋
##달
##않
##후
##노
##파
##싱
##강
##꾼
##냐
##무
##레
##츠
##육
##계
##언
##론
##여
##답
##깆
##싫
##즘
##왜
##X
##청
##춘
##옇
##루
##효
##경
##등
##변
##웹
##툰
##비
##험
##됩
##골
##팬
##옆
##더
##포
##친
##추
##클
##카
##돈
##혜
##갚
##x
##호
##입
##검
##측
##2
##낭
##군
##힐
##송
##컷
##공
##긴
##큰
##랑
##빈
##썼
##궁
##용
##센
##룹
##넹
##립
##력
##누
##건
##콩
##찌
##척
##머
##엔
##맥
##직
##환
##튜
##좌
##휘
##녀
##봐
##범
##망
##였
##초
##함
##져
##닌
##양
##뜩
##뿌
##득
##존
##재
##먹
##쩐
##버
##릇
##뭉
##음
##잔
##므
##접
##탕
##패
##션
##피
##봄
##꼬
##팔
##못
##먼
##햇
##출
##견
##받
##솜
##행
##축
##h
##l
##o
##쌤
##픽
##속
##밀
##닥
##섭
##왤
##케
##셔
##많
##끌
##윤
##숲
##쉰
##압
##댄
##채
##황
##급
##히
##잘
##활
##탄
##핵
##규
##돼
##룩
##록
##셨
##겜
##림
##몇
##퀴
##n
##j
##s
##멸
##결
##며
##설
##겼
##꺼
##례
##찍
##돌
##씌
##웠
##풍
##쳐
##잖
##눠
##넷
##본
##뿐
##씀
##얼
##곸
##갵
##즈
##천
##뀌
##논
##링
##룽
##쩜
##백
##할
##워
##략
##얘
##께
##찬
##쳤
##A
##H
##I
##Z
##E
##큼
##딸
##랜
##a
##e
##b
##i
##g
##p
##떠
##협
##줄
##쏘
##폭
##쩌
##넙
##째
##향
##곡
##럼
##준
##똑
##김
##술
##익
##났
##싸
##d
##봣
##괴
##롭
##난
##튬
##슴
##반
##낸
##종
##샹
##4
##떼
##불
##징
##놀
##쇠
##평
##법
##춰
##밑
##울
##깐
##큐
##숙
##좀
##잠
##꿀
##잼
##쌍
##열
##찰
##렇
##락
##배
##킨
##량
##톤
##씩
##왔
##완
##균
##걷
##남
##낀
##뛴
##브
##십
##크
##넘
##겨
##줍
##읽
##최
##텐
##t
##r
##롯
##휴
##컨
##약
##떄
##류
##졸
##복
##맨
##멋
##눕
##줬
##핀
##펀
##온
##O
##Y
##닝
##외
##널
##페
##샷
##택
##탸
##늙
##삼
##색
##녹
##또
##V
##L
##G
##역
##뵈
##빨
##잏
##밥
##c
##찾
##y
##u
##쩔
##암
##담
##덜
##죠
##랐
##잇
##템
##따
##앜
##응
##찢
##븐
##빻
##굴
##졋
##겝
##밖
##뜸
##퍼
##흥
##힌
##붓
##씬
##쌈
##칼
##쿼
##융
##픈
##독
##헛
##삿
##혼
##k
##앙
##움
##쥐
##둥
##봉
##뤼
##걱
##빠
##객
##갇
##힘
##죸
##갔
##필
##볼
##륨
##샴
##옷
##쪽
##쯤
##렁
##샌
##빵
##틀
##핏
##슷
##씻
##욥
##둘
##낮
##쿨
##겻
##뮨
##률
##빌
##렀
##껒
##C
##웍
##엇
##슛
##냥
##췬
##죄
##참
##끄
##곳
##맹
##흑
##꽈
##윈
##튼
##늠
##느
##낌
##롱
##획
##젠
##쟁
##싄
##쟈
##늘
##믿
##섴
##샣
##햐
##뱉
##쩡
##탓
##꼴
##훈
##M
##줘
##특
##혁
##쏭
##액
##갑
##솔
##젤
##끝
##삭
##짰
##럽
##닮
##쉬
##짐
##줌
##탖
##층
##냄
##헌
##펴
##슨
##늬
##멍
##짠
##뭐
##믄
##능
##밋
##빛
##펫
##겁
##옹
##악
##낙
##뻔
##띠
##항
##핬
##갖
##뉴
##혈
##뇨
##뇌
##커
##킬
##섯
##절
##총
##잎
##쉽
##팅
##볶
##겄
##봤
##꿍
##쓸
##J
##맙
##껴
##랄
##핑
##얌
##랙
##턴
##잊
##셧
##찔
##딱
##륜
##첫
##놨
##셜
##컵
##딴
##앞
##취
##B
##잌
##뢰
##잃
##햏
##룰
##맴
##듬
##퐈
##철
##맡
##첩
##숍
##촤
##핫
##챠
##썰
##푼
##틴
##료
##톱
##칙
##밤
##렵
##닦
##찜
##닫
##K
##톰
##멱
##몰
##닼
##엄
##릉
##읍
##꼭
##벽
##뷔
##샘
##뽀
##힏
##렷
##껑
##딤
##썹
##빼
##곤
##뽑
##굿
##렌
##젝
##넣
##갓
##롤
##랬
##벨
##R
##땜
##깍
##귄
##펙
##쯔
##펜
##쨌
##헬
##쿡
##귀
##웤
##얻
##뮤
##컬
##혹
##뚝
##흘
##첨
##옮
##똥
##엘
##섥
##뛰
##츌
##럴
##풀
##겹
##갸
##블
##엡
##싼
##홧
##칭
##끔
##힣
##캔
##쁜
##겐
##줫
##뭇
##솥
##즉
##맛
##텔
##앖
##넬
##펼
##깜
##섬
##껀
##뚱
##몸
##랕
##샬
##긋
##눔
##댖
##v
##툭
##튀
##손
##춤
##츤
##쾅
##콤
##슈
##덥
##쓴
##듣
##짘
##웅
##덩
##벙
##깔
##슙
##슞
##렸
##옵
##댜
##됫
##웬
##털
##몬
##숭
##쌔
##킹
##농
##찡
##봗
##촌
##납
##봅
##샤
##섞
##렴
##빗
##캠
##쫄
##컴
##폰
##랰
##Q
##낢
##닛
##딜
##렬
##둬
##랏
##됨
##헸
##싁
##맺
##돔
##캘
##뎈
##떤
##낄
##닭
##옄
##닙
##녕
##릿
##옥
##떳
##훟
##핳
##F
##쟌
##햔
##둠
##W
##윽
##뱅
##쎄
##댁
##촉
##붐
##켰
##텅
##숨
##핸
##넛
##꾸
##뤄
##셋
##쪹
##밸
##높
##칫
##쯘
##떴
##쁨
##칠
##맘
##몽
##땅
##냈
##릭
##싀
##옸
##흐
##뤗
##뻐
##넼
##똘
##홍
##굽
##섳
##볏
##윸
##밌
##깝
##곘
##뽄
##앨
##땐
##갤
##짱
##엽
##퉅
##쁠
##뎅
##떡
##흉
##쨩
##냅
##낫
##꺽
##헤
##콕
##잉
##깤
##헨
##쪼
##빙
##룡
##퉁
##팠
##쵝
##팜
##갱
##엿
##콘
##셉
##쿄
##곰
##쿤
##옴
##웰
##썩
##쉐
##z
##홉
##껍
##쌘
##쉒
##듸
##폈
##욬
##뵤
##w
##캄
##낼
##벗
##빅
##딲
##밉
##힝
##쟤
##죡
##깡
##혔
##텨
##렉
##돋
##묶
##엥
##갯
##펌
##뜬
##샛
##륀
##숑
##뻬
##뇬
##즁
##팟
##낳
##깊
##픔
##덱
##흠
##챗
##흔
##젖
##릔
##땔
##붉
##댈
##넌
##둑
##뭡
##갛
##짹
##룸
##밍
##샙
##욤
##켓
##눌
##뜯
##섮
##혓
##샵
##꿨
##꿈
##듀
##궂
##놔
##볕
##씅
##캡
##잨
##뎌
##혐
##둔
##캣
##묵
##퓨
##샀
##웟
##밝
##붕
##랫
##엉
##돤
##틉
##솝
##묜
##깎
##욧
##챙
##룬
##끗
##랭
##빡
##얏
##훔
##롸
##셈
##팩
##끈
##벼
##됍
##델
##닞
##눅
##웋
##툼
##탑
##랖
##넓
##읻
##짖
##낑
##꿔
##릅
##랍
##덧
##썸
##햤
##뤅
##탱
##덴
##셩
##탠
##츄
##쭈
##늨
##왓
##뇸
##랴
##넉
##샜
##쾌
##탬
##밴
##훼
##햌
##넴
##썻
##젯
##녁
##뺐
##깃
##넨
##귱
##밭
##짙
##겪
##궐
##겍
##렛
##쥔
##좃
##낚
##냇
##찮
##좇
##힞
##앱
##톡
##믹
##눀
##쪄
##뷰
##깁
##셀
##퓰
##쌴
##왚
##썽
##셰
##쌌
##쐰
##깬
##쉥
##뽕
##엠
##딧
##댘
##쥬
##캬
##깉
##돠
##켄
##끊
##덯
##멀
##옌
##쭉
##껰
##뚜
##룻
##홈
##맵
##쒸
##걍
##촬
##꼇
##듭
##벡
##븅
##옳
##틱
##껜
##띵
##깠
##팡
##롳
##헣
##핔
##뒹
##끓
##섵
##렙
##곧
##떻
##잂
##빜
##챔
##둿
##솟
##뒷
##뽜
##뇽
##댔
##괵
##겇
##됴
##젹
##뻣
##껄
##륽
##퓸
##죤
##쭤
##뿜
##슐
##핟
##맑
##킵
##왈
##얔
##곺
##쟞
##킴
##뿔
##뉘
##짝
##핥
##댐
##줰
##뻗
##앤
##찝
##즐
##쩨
##퀸
##왼
##흰
##앟
##펏
##롬
##q
##펨
##젔
##삶
##촨
##좁
##닉
##괄
##렐
##뿍
##됌
##꾜
##콧
##훨
##뻥
##뀔
##숩
##뭘
##늪
##쵀
##칀
##펄
##랔
##쿰
##긔
##땡
##샐
##겆
##띄
##쇅
##텍
##뻘
##뢀
##괜
##솎
##뚤
##궈
##쁘
##씰
##빚
##좝
##랩
##앉
##휙
##풔
##잟
##뚫
##뼈
##뎄
##벵
##뢍
##솽
##쇆
##뭔
##랃
##얹
##륵
##죈
##꽁
##얄
##좔
##꽃
##뱌
##긍
##숫
##싷
##씹
##꼈
##멤
##욱
##팝
##봇
##밟
##닿
##첼
##놧
##붜
##삑
##폴
##덤
##컾
##촹
##궤
##헹
##뵜
##헷
##몀
##몹
##뢸
##뺏
##헐
##쌀
##멧
##꼼
##칸
##횡
##짚
##닷
##삽
##맏
##쉑
##썬
##및
##윗
##웁
##짧
##빋
##귤
##늑
##엮
##찐
##봏
##폼
##팍
##쵸
##쓥
##쳇
##퀘
##멈
##딪
##쌉
##벆
##냩
##륙
##젼
##핍
##귈
##슌
##듦
##쓱
##쎈
##뒀
##낯
##쑈
##걔
##띤
##빤
##싹
##뒈
##쥑
##믈
##늦
##멜
##엌
##웨
##헴
##켤
##튠
##얀
##멌
##뼝
##밈
##샼
##돕
##엤
##챰
##늕
##렪
##웂
##꿱
##굳
##컥
##댑
##늧
##햄
##쥘
##찼
##놰
##됀
##쟝
##캥
##엑
##닠
##엨
##턱
##찿
##햬
##셴
##넥
##낎
##렘
##캉
##뷸
##볜
##쏴
##톼
##칩
##띁
##엷
##읅
##굼
##츨
##횟
##먄
##끠
##윅
##킥
##겸
##캍
##잣
##땨
##괘
##꽉
##괭
##딨
##껬
##쭵
##샆
##삘
##펠
##꽝
##붗
##얐
##쒜
##겡
##빔
##틋
##샨
##덟
##쥤
##큨
##괏
##딘
##쉓
##쯧
##빢
##뀐
##젴
##쏜
##랠
##샸
##뉼
##쬬
##끙
##큘
##띡
##굶
##껭
##꼐
##잽
##밬
##떰
##푱
##쩝
##갰
##둣
##얇
##뭍
##뱃
##쏠
##엣
##퇘
##뫗
##팁
##뎁
##햨
##냔
##긁
##뢴
##첵
##틈
##웡
##곱
##뎨
##셍
##줏
##썠
##멕
##쉴
##냨
##짆
##헥
##묻
##뺌
##뜽
##맷
##깟
##숄
##뎀
##얜
##룟
##뷴
##욜
##셐
##섀
##쳣
##듄
##맜
##욯
##꽂
##뚭
##뺨
##쐐
##돨
##훑
##팽
##밎
##흙
##헙
##멊
##줴
##뻠
##쫌
##쨓
##쿵
##얗
##얽
##갘
##쨈
##싰
##텝
##녑
##랗
##팸
##걀
##잆
##렠
##벅
##샠
##힙
##툽
##믐
##겉
##굱
##씁
##꽤
##톧
##엎
##솓
##콥
##쏙
##롷
##샥
##펑
##즤
##쟎
##숴
##튕
##쐬
##왭
##퐁
##펐
##웝
##됏
##몫
##젓
##몌
##쎴
##켯
##퐨
##뭄
##훤
##픕
##콌
##맟
##슼
##벳
##앴
##죳
##씐
##퍽
##멩
##쟄
##씸
##샾
##잭
##텃
##앍
##퍠
##뮌
##눼
##홐
##웩
##쭐
##슥
##쒀
##럅
##뿅
##쌓
##슝
##첸
##쑤
##숏
##앰
##켔
##쑥
##맠
##냠
##얕
##쳅
##홣
##갗
##욘
##췄
##똬
##팥
##뻑
##맬
##곜
##륭
##쎠
##쉼
##웜
##앵
##늄
##칵
##땟
##틔
##퀄
##퀼
##뮬
##뎊
##퐝
##옛
##첬
##딛
##빆
##쳬
##뭌
##먿
##겧
##텼
##꺜
##녔
##좆
##잰
##맄
##갲
##돗
##엊
##셤
##뉜
##춧
##횽
##섰
##겔
##윕
##빽
##뗴
##뺄
##쨰
##맀
##컸
##낍
##봨
##왠
##꺾
##킝
##밷
##쭝
##훅
##훌
##벋
##닏
##깞
##헝
##갉
##랸
##쇽
##샅
##앋
##콴
##핝
##떵
##슺
##겯
##꼰
##땓
##씼
##뗐
##놉
##풋
##릍
##녜
##핰
##훳
##낰
##곁
##쉨
##뎋
##홓
##읎
##젊
##왑
##뉸
##렼
##꾹
##탯
##촛
##텤
##팰
##옘
##밧
##쫒
##읔
##닣
##헀
##뮈
##꿻
##떫
##흝
##솤
##귐
##좐
##넠
##깄
##먀
##삵
##끕
##렜
##휸
##츙
##갭
##씽
##눜
##옠
##닯
##푠
##휼
##썪
##졐
##뎐
##켐
##뿟
##앚
##닳
##멨
##빍
##읩
##댱
##쨔
##앝
##죵
##궄
##횐
##쁀
##툴
##냑
##춥
##윌
##렝
##딫
##겋
##꺄
##읾
##숱
##뵘
##땀
##귾
##녘
##튭
##쒓
##뱁
##쇗
##슦
##튈
##몃
##쑴
##꼽
##얶
##싣
##볌
##죌
##욭
##뿡
##끆
##윂
##멎
##싯
##왘
##젬
##쭌
##겈
##곗
##돞
##뎆
##굣
##뤘
##냬
##뻤
##킷
##펭
##닜
##쨋
##켈
##냌
##읯
##푀
##쥼
##릋
##꿋
##곴
##껌
##즙
##쮸
##엏
##솨
##슏
##뱄
##좽
##첻
##윙
##쫏
##샊
##녓
##얺
##뫄
##뭨
##텟
##쮹
##깻
##쌖
##릎
##튁
##킄
##긱
##죙
##깥
##켬
##뫼
##몈
##츰
##굵
##쨍
##탭
##셸
##흫
##퍄
##빴
##탤
##끅
##깅
##쎅
##칳
##쪙
##핌
##흣
##깈
##릐
##뱀
##푹
##짯
##챘
##곂
##텁
##쫓
##핮
##챈
##낵
##뺸
##싡
##젇
##롲
##볓
##뱝
##켠
##퀀
##욮
##탔
##츈
##혚
##댯
##밨
##덙
##햅
##딬
##짞
##뺀
##펩
##넢
##걕
##갠
##쌕
##갋
##컹
##넵
##졔
##좈
##닽
##슟
##졍
##됄
##밞
##첲
##얃
##딥
##췌
##삥
##잤
##곽
##뺠
##뒜
##뚠
##옐
##돚
##봠
##렫
##쥉
##잛
##쫑
##꺈
##콰
##풉
##찟
##뜀
##쥴
##헉
##벟
##췃
##쬐
##맣
##럇
##릏
##띸
##챨
##텡
##늗
##쉈
##졉
##뜰
##줼
##츼
##핧
##쫀
##짌
##쫘
##샒
##풰
##픙
##힉
##곈
##껐
##곀
##엵
##촠
##홥
##꿇
##챌
##톈
##맸
##퉈
##퀏
##칰
##봥
##닩
##쇡
##찻
##훗
##뻉
##덮
##쌨
##슀
##몆
##쳌
##슁
##뤠
##싴
##짴
##얍
##줜
##돳
##쌰
##볍
##뱔
##훙
##쳦
##쑨
##밒
##봫
##읊
##쎔
##둗
##닻
##읰
##몪
##씇
##꾿
##앂
##넿
##뾰
##벚
##앸
##삣
##늼
##갂
##톀
##갬
##롴
##뱡
##붖
##왱
##첞
##닚
##랼
##쮀
##엾
##앆
##뜼
##꿧
##쟼
##뤀
##땃
##갴
##끨
##챱
##듐
##찧
##쪔
##앎
##칮
##잦
##꿰
##햘
##닊
##뎉
##땄
##둡
##걋
##볻
##븡
##됔
##끽
##끋
##듈
##읏
##늉
##뗬
##랒
##찷
##곶
##쉇
##읮
##숯
##읗
##챦
##곙
##쏟
##좉
##켸
##둽
##죴
##텀
##꺵
##넝
##쉣
##렣
##슘
##읺
##띙
##듴
##쥳
##슉
##섕
##믱
##췤
##괼
##탴
##솬
##뚯
##웈
##쎌
##긓
##읐
##뗀
##뀨
##빱
##틐
##펍
##쌩
##팉
##걘
##맂
##슾
##볐
##챵
##됰
##굲
##븤
##긬
##킼
##뭠
##뒸
##쪘
##띨
##듳
##긺
##셒
##뛸
##뿝
##탉
##돵
##댸
##튿
##숟
##읭
##팻
##햊
##뿧
##헿
##탘
##핼
##딍
##꺆
##뢌
##욌
##힛
##쎗
##꾀
##켭
##뺴
##팖
##쯰
##늣
##궸
##줙
##촞
##랳
##쨀
##삱
##룐
##듵
##삡
##뺩
##읜
##젛
##홤
##뉨
##촟
##륩
##셌
##촜
##씝
##썅
##횹
##빰
##쒝
##쌋
##찹
##쨕
##쫙
##똭
##뼘
##뎇
##캅
##죾
##쭊
##짢
##힄
##귓
##욋
##붑
##쀨
##볾
##볗
##쭘
##뭣
##곹
##돜
##쐈
##믠
##쥭
##펔
##죻
##삾
##핪
##렂
##큿
##씡
##옿
##헠
##붇
##먕
##쮜
##곪
##힠
##팈
##봈
##뗼
##겊
##똔
##뻿
##퉷
##폄
##뤈
##녈
##꽇
##돻
##닺
##쟉
##챤
##뉔
##퇼
##썀
##딹
##욵
##볘
##쭙
##휠
##삲
##롄
##쎼
##킈
##렿
##긎
##뀜
##맢
##햑
##퀑
##줉
##숀
##퍀
##겢
##짬
##샏
##깣
##좨
##흭
##씺
##킺
##쪗
##녴
##랈
##촥
##츷
##픂
##꼍
##잗
##꿉
##돰
##괸
##춍
##죱
##쿸
##팼
##쌞
##먱
##뙨
##꾁
##섶
##뼉
##겤
##빕
##킅
##쓉
##윘
##줔
##츱
##쒞
##폿
##걌
##턷
##쐇
##췽
##읖
##뼛
##훠
##갹
##캭
##챕
##렄
##굉
##헗
##놬
##쁴
##섺
##톳
##홬
##뙤
##핶
##퓌
##븨
##뤁
##윰
##앀
##봑
##몾
##왁
##왇
##갼
##귝
##렢
##뵐
##켕
##늫
##쒵
##봌
##쯛
##늩
##큭
##셥
##됢
##넒
##킂
##줓
##퉵
##롰
##듷
##좍
##뜜
##릷
##뫘
##뽈
##뇰
##졷
##셯
##뗑
##홒
##츳
##뗭
##헼
##끛
##퀜
##갃
##쀼
##촐
##먺
##콬
##욨
##엩
##짼
##듥
##퀵
##뽚
##뎠
##뽰
##짭
##옼
##셬
##돍
##벉
##낟
##됑
##핡
##쳔
##쎘
##쎀
##꽼
##킁
##뵹
##늅
##엍
##젙
##뽐
##뷱
##넜
##땠
##팦
##텠
##깹
##톄
##놯
##곃
##픞
##칯
##숰
##큔
##뒬
##뚥
##쒫
##렚
##꼤
##줠
##굥
##벞
##눙
##롁
##즛
##긷
##땍
##맼
##잫
##겓
##즟
##웽
##줭
##읨
##앓
##붅
##쥥
##꼳
##싢
##뮴
##웇
##낱
##돸
##옫
##놘
##늡
##쿜
##걐
##꿩
##긕
##튤
##뗏
##쯱
##룔
##괞
##뎡
##옺
##밣
##넄
##얷
##줨
##즹
##럈
##듁
##믜
##믓
##샄
##뽂
##륌
##륾
##샋
##홋
##찤
##땝
##놂
##궜
##햣
##쉠
##뫅
##뗘
##꺠
##룀
##꼿
##롐
##숵
##컫
##뽓
##꼌
##뭊
##뙇
##홰
##긧
##쫠
##셛
##쳨
##쫃
##졓
##븍
##눗
##뉠
##꽌
##멬
##켘
##좡
##놋
##뤡
##줗
##쉅
##듲
##귑
##읶
##롶
##쥰
##뺑
##댤
##퐄
##쑌
##캇
##껼
##쿯
##벩
##띿
##쥡
##쪾
##줕
##겒
##횔
##뿩
##됗
##뎍
##슽
##솅
##뱎
##삯
##옭
##뀠
##꿘
##햿
##럄
##궹
##쪈
##캌
##펰
##뀪
##굨
##멉
##둟
##덫
##됳
##뗌
##궛
##쑹
##뫁
##삔
##옉
##밪
##닾
##벝
##탆
##낡
##캴
##묭
##쿱
##즼
##삤
##죨
##틳
##졀
##싲
##풘
##욳
##땤
##찎
##멓
##팎
##샞
##돟
##뤱
##쳡
##콱
##쳏
##둛
##셆
##쿳
##욪
##뭬
##텰
##뒴
##싳
##넋
##뭥
##앳
##큩
##눟
##멵
##긩
##짛
##썜
##윳
##옶
##땈
##굔
##땬
##빳
##텬
##푝
##꽥
##쟜
##뺙
##슄
##숸
##즬
##깵
##윾
##쎆
##뎟
##넫
##쒴
##뭏
##냘
##떈
##눨
##빝
##쳫
##놇
##돴
##뜌
##퉤
##젘
##뢐
##땋
##돱
##턘
##츜
##꺙
##욖
##둉
##곷
##엪
##킇
##떔
##죹
##탰
##똰
##겎
##혲
##듕
##붸
##벰
##썌
##꿏
##븽
##듶
##뜾
##쉭
##졈
##엧
##챡
##웦
##긑
##뜷
##닢
##탶
##붠
##럵
##칟
##싚
##땉
##읕
##멥
##멐
##뺭
##댠
##읿
##슫
##헵
##챴
##븁
##핲
##쩠
##싪
##츅
##젱
##셱
##촘
##뽁
##늒
##팓
##릊
##걈
##씯
##뽤
##잍
##씍
##읋
##쟛
##쭹
##놐
##덞
##쎜
##뫃
##쁭
##닧
##륻
##얋
##짅
##읠
##듨
##냪
##랚
##졏
##콸
##좯
##흜
##퍈
##돛
##맍
##졎
##깸
##뵙
##켑
##깰
##젿
##믁
##컄
##첟
##옪
##뻨
##휜
##큑
##죅
##뱇
##핢
##늟
##뉩
##튄
##껵
##칱
##팧
##똗
##휩
##흌
##퍌
##낕
##흼
##밦
##샚
##뚕
##쾡
##봽
##몁
##롥
##퇸
##끵
##룠
##쟣
##렆
##뮐
##슭
##엙
##퇄
##뤌
##꼨
##잲
##돩
##깓
##짂
##뀟
##짲
##굅
##깦
##곻
##깩
##춠
##꿂
##짇
##겦
##굈
##붤
##듡
##챃
##쓤
##횸
##읆
##쭁
##튱
##몄
##췐
##좒
##샎
##낂
##긘
##됻
##쭀
##빸
##컼
##벧
##껸
##쳑
##밠
##넽
##셕
##겾
##듼
##룍
##퇭
##쳄
##밗
##얖
##걨
##듓
##첑
##넚
##챻
##밙
##왐
##씾
##텄
##얭
##쐉
##랱
##덪
##짊
##뼠
##픜
##횰
##셂
##즥
##쟐
##춐
##쁰
##틓
##뽝
##쇣
##냫
##엳
##꿎
##쓔
##샇
##틑
##헑
##뒙
##앧
##젰
##궝
##웣
##뇐
##쒹
##큇
##텊
##뷁
##횃
##껔
##샡
##똴
##뢓
##냡
##쉡
##쭛
##깧
##긐
##꺔
##땩
##밢
##롘
##궇
##휵
##냣
##믇
##팤
##잿
##즵
##뚷
##탙
##톹
##툐
##툩
##븝
##좠
##켴
##뢱
##릳
##긤
##먈
##멒
##줒
##웾
##캑
##묀
##헜
##츕
##띔
##캤
##쎃
##턈
##눃
##붱
##녠
##섂
##랇
##댚
##죗
##껫
##꾐
##쥠
##챜
##긌
##톸
##슧
##쟙
##톻
##볠
##짏
##묾
##샢
##핚
##뢈
##뉵
##슳
##쫗
##옜
##옙
##쏼
##꽅
##욎
##쇙
##뚞
##쯩
##딮
##웱
##쑝
##뀰
##췰
##눴
##쟨
##핛
##헽
##짔
##켝
##핯
##젲
##닸
##읓
##띰
##싑
##욷
##꿐
##쿢
##긲
##낔
##혱
##깼
##뷘
##곅
##괌
##솀
##쬡
##죕
##뱍
##퐐
##꽄
##롣
##좸
##쒼
##헫
##눞
##녇
##촴
##뭅
##뉑
##땽
##텻
##돡
##쎁
##좩
##뷀
##깢
##쫭
##쉪
##떙
##댂
##웄
##쒕
##뫀
##쇳
##껨
##싩
##웑
##큡
##옻
##쳘
##횬
##쏖
##맆
##뱈
##픋
##땁
##덨
##왛
##봘
##랮
##덷
##컁
##홯
##잴
##곢
##렏
##싟
##촵
##쟀
##뷩
##깒
##댇
##쾽
##쏨
##섄
##봬
##혭
##봍
##윔
##봡
##럾
##쵹
##봒
##뒥
##젆
##닲
##띃
##섣
##즨
##헭
##벱
##냒
##숖
##읲
##뵛
##큥
##씥
##텣
##뺘
##슆
##촏
##쁩
##쪕
##뫙
##쉔
##얂
##앾
##잕
##쐒
##섿
##럥
##싓
##꺅
##풕
##쉤
##밯
##띌
##놌
##큅
##웻
##뀬
##좦
##뵠
##듪
##뫌
##퐙
##텈
##썖
##뿛
##읉
##춬
##싕
##왖
##굡
##춴
##툥
##흨
##냦
##귴
##솁
##솼
##낏
##쨉
##븜
##뚬
##쏀
##볒
##틍
##땸
##뗫
##웉
##쾈
##땦
##뫈
##륹
##젭
##숳
##쳉
##빩
##샿
##큄
##쯪
##캨
##틂
##걑
##룤
##븟
##덛
##맔
##쿈
##읃
##셁
##렦
##떱
##렊
##췆
##뵨
##쪵
##뀤
##뮙
##횤
##뇀
##닪
##깋
##겂
##켷
##혛
##꽦
##흟
##흛
##쮼
##헚
##붼
##핱
##멑
##떮
##퐌
##붛
##햠
##펹
##퍅
##팢
##앛
##짶
##쑵
##럐
##덣
##힜
##뇜
##잁
##컈
##넏
##듫
##췍
##휍
##봔
##젺
##쎾
##됭
##왲
##흄
##똠
##됝
##읙
##냏
##궷
##찯
##뎬
##뇻
##싧
##녆
##갥
##읁
##뭽
##됙
##닡
##먘
##릌
##쫩
##혂
##촡
##걵
##앢
##숼
##먁
##풜
##삨
##닶
##읹
##튐
##쮝
##뛔
##넺
##쯕
##뢉
##춌
##먑
##혘
##짥
##낗
##궘
##횝
##붚
##틩
##솰
##뉬
##놤
##넗
##잪
##즇
##븥
##낞
##밓
##흗
##괕
##볔
##읳
##힡
##삮
##폑
##칲
##푶
##룾
##즞
##큮
##귭
##줮
##싥
##쟂
##륰
##윚
##퀌
##흿
##죰
##샑
##귘
##믘
##멷
##렃
##닟
##쌜
##욿
##괖
##욛
##뻇
##츔
##꽐
##펖
##얅
##쉙
##쨎
##풒
##쎕
##몯
##웧
##뭎
##귁
##딋
##햡
##췼
##뀝
##긒
##댬
##먐
##뗄
##뚧
##벘
##땧
##얒
##뉙
##쟘
##읒
##흽
##뛱
##쫍
##폣
##벹
##몐
##돐
##걥
##쬘
##흩
##솦
##켁
##긶
##벏
##륄
##싦
##핖
##쾨
##쩬
##뗠
##훕
##렅
##좭
##쉿
##툑
##큉
##꾾
##깕
##섁
##걩
##몔
##뒺
##뒨
##붂
##룷
##껚
##옝
##륑
##벜
##꽜
##뜹
##왹
##흵
##뭰
##곯
##렺
##츸
##쩖
##똧
##캏
##큌
##뛃
##뒵
##짫
##퇶
##쨜
##릂
##옾
##걹
##괔
##솃
##떽
##햫
##숔
##밐
##곬
##큽
##텋
##섲
##힗
##홡
##켱
##맋
##뻄
##꿜
##륿
##댙
##흏
##눤
##뤽
##팹
##맅
##윀
##쯥
##랂
##쾤
##밫
##좟
##뭋
##쳥
##뙈
##찣
##듢
##퓻
##욝
##녤
##햭
##븰
##됮
##긇
##릁
##똙
##넾
##쬭
##뵝
##뻦
##뿨
##닱
##묠
##좄
##뵌
##힕
##룁
##쵱
##쥣
##듧
##틷
##롻
##녬
##뀡
##낒
##팛
##앇
##엫
##릮
##큵
##뉌
##팊
##꽙
##쥄
##뭴
##춚
##웕
##힊
##숧
##랓
##믽
##풩
##곌
##횩
##묯
##쮠
##쇜
##뤔
##폳
##웢
##뫠
##휰
##꾺
##즠
##랅
##벸
##삠
##놜
##둴
##궉
##렾
##븀
##킫
##싵
##믖
##앻
##쨘
##댝
##낲
##힁
##쐨
##룝
##쬽
##됤
##씃
##샗
##낋
##잚
##췟
##쏩
##쯉
##핻
##듘
##둨
##쐌
##몿
##쁏
##늽
##퉐
##볭
##됸
##뺵
##둏
##잢
##쎵
##잋
##쾍
##츹
##뽱
##솹
##쌐
##욫
##춞
##뤕
##슢
##턔
##늤
##쑬
##줃
##뺫
##삻
##홪
##굚
##꽹
##썡
##촙
##퍙
##땢
##눳
##쬼
##쁌
##붘
##몉
##밮
##썁
##츗
##쩅
##셑
##얩
##쉞
##궯
##슿
##븉
##졨
##첡
##뀳
##팏
##윜
##톢
##궨
##갏
##젏
##횻
##냊
##넸
##굘
##칬
##쪜
##퓡
##굇
##꺀
##붹
##픟
##럣
##덬
##컇
##뜅
##댗
##즣
##꽑
##픗
##뎤
##덲
##맫
##믺
##놃
##퉜
##깂
##읟
##푴
##뿠
##챝
##횅
##쉟
##껳
##쩛
##뼑
##륳
##늖
##쉲
##킠
##윋
##졲
##쒰
##촣
##뒝
##쁮
##펅
##뮛
##캿
##웸
##빶
##뿰
##틘
##뇤
##춣
##뻡
##햩
##뺍
##롓
##켙
##녂
##퉂
##랲
##꺌
##셭
##묽
##횜
##긊
##늰
##굎
##궅
##쎳
##옅
##뉭
##늇
##쇤
##큪
##즷
##폨
##롵
##쿙
##떢
##읇
##쨐
##끸
##죷
##싞
##뵬
##뀽
##쫔
##뱨
##륐
##썃
##뒌
##숡
##뢔
##뜛
##횄
##꺨
##냼
##덀
##쭞
##쏌
##궠
##엓
##죧
##갆
##괍
##삷
##몼
##뒁
##릫
##젋
##믕
##튓
##랎
##훜
##캈
##섢
##왉
##햋
##흦
##묫
##뀍
##싾
##썐
##릱
##뀩
##똫
##뚣
##꿁
##뗍
##뚴
##롕
##랋
##돾
##귿
##뭈
##뺃
##폘
##쐭
##젣
##츧
##쓩
##홱
##뮹
##칑
##쩓
##괁
##뜡
##헁
##섷
##슅
##짦
##꺕
##헕
##짗
##줳
##줯
##끜
##씪
##듰
##쌥
##뾴
##픝
##뚼
##긂
##쨴
##쯍
##돽
##닄
##뷍
##멶
##꼵
##뵁
##졶
##떯
##큠
##탹
##앏
##뺕
##텸
##젗
##굮
##퉬
##귽
##꾭
##뜐
##뮼
##죜
##롼
##왝
##낃
##갺
##섡
##뤙
##갌
##핞
##쓍
##덍
##엋
##팃
##쌱
##칞
##슰
##맗
##횢
##잀
##챚
##껗
##옽
##삸
##껩
##툳
##쓑
##쟹
##줈
##릠
##샂
##싿
##쨥
##옯
##휀
##뭃
##픅
##갞
##잧
##삳
##읬
##둰
##칡
##뎔
##졹
##쨖
##꺍
##펵
##짷
##썎
##쇸
##욍
##챳
##줋
##맇
##픨
##휄
##낐
##칌
##귕
##푄
##뼙
##뱩
##쯈
##냰
##찠
##춋
##긪
##킌
##떘
##쏱
##뇩
##쌸
##맕
##퉥
##섘
##닒
##젾
##뻴
##튽
##엦
##늿
##뫜
##곕
##웓
##띴
##앁
##빧
##킽
##벛
##펺
##뒠
##윺
##텥
##럌
##씈
##옂
##굄
##벴
##턀
##휑
##퐉
##븬
##퐜
##띱
##듩
##탇
##댴
##뭤
##쉗
##쏳
##훍
##짉
##셓
##믾
##틇
##폇
##잒
##툿
##홭
##돓
##쁄
##줊
##헰
##욲
##섨
##끍
##릆
##켇
##퇫
##졩
##뚸
##떩
##똵
##젂
##긄
##걳
##쪟
##퇀
##뱐
##럳
##퉌
##뻖
##퀠
##텩
##킾
##줖
##쉉
##낛
##먖
##븃
##푤
##섟
##얙
##뵀
##뒓
##쳈
##셇
##롹
##밡
##쏫
##쩃
##쯎
##쥨
##춉
##씮
##밚
##챂
##먾
##뵥
##셲
##뱆
##툠
##겷
##뗙
##걎
##흴
##섻
##괃
##폠
##긿
##엗
##솏
##퓔
##쳠
##춈
##볃
##귬
##읱
##쒥
##싮
##쵼
##눍
##쩧
##챊
##헞
##쿻
##껠
##펗
##콫
##휭
##킸
##긏
##풑
##낝
##쐑
##뺼
##핣
##녿
##젚
##뒘
##풂
##뤃
##릀
##풐
##갷
##넀
##핃
##묨
##뉍
##댭
##딈
##렽
##쐥
##탣
##띻
##떸
##즜
##펃
##좤
##숮
##릾
##캆
##첝
##쩄
##뱊
##꾤
##풃
##탂
##륏
##롡
##솈
##꼉
##챀
##꿓
##얿
##뇄
##맖
##믙
##띾
##즴
##컿
##퇑
##궏
##뭑
##붊
##혠
##놕
##뼌
##왷
##첮
##걾
##빫
##욀
##엱
##좊
##퐤
##겣
##귣
##뱜
##댷
##뼜
##겥
##꿑
##넻
##끤
##쫟
##뽷
##픎
##핤
##뷜
##뤂
##졵
##묙
##숗
##컅
##턑
##딷
##퇍
##줂
##픠
##몴
##빘
##쉄
##춫
##첰
##쁑
##윷
##됒
##늴
##췻
##똨
##쉫
##쾐
##혇
##홑
##쟸
##뮫
##쟆
##맃
##롈
##냍
##삺
##쥽
##졜
##쿧
##땰
##빟
##쟅
##즏
##봦
##붏
##꼊
##싨
##텽
##믰
##씂
##봁
##럱
##씄
##쇌
##뫕
##괬
##찲
##컽
##띈
##붰
##첣
##싺
##퀔
##덦
##쩘
##씔
##쀍
##쫴
##붔
##똣
##킐
##퐥
##굑
##긵
##괐
##윱
##몋
##뎜
##옃
##녅
##럷
##훓
##틎
##탼
##쾀
##봵
##넦
##뗗
##끰
##줩
##냤
##턕
##엢
##즑
##갅
##렻
##훃
##픚
##껅
##뜁
##턍
##읫
##귻
##끾
##숚
##얾
##붆
##먜
##폔
##냙
##눰
##끐
##맊
##죺
##눹
##훻
##췈
##쇘
##츀
##봊
##뻰
##줚
##솻
##헡
##쎙
##쌧
##뎽
##봩
##혤
##쟴
##흓
##녱
##쑛
##엂
##딀
##릶
##뿓
##뇠
##칽
##귯
##댥
##딯
##넎
##퓽
##컀
##왯
##푷
##춀
##꼏
##븎
##뇡
##앐
##왂
##쉮
##뽞
##쩟
##챋
##궭
##륟
##핗
##뿤
##긜
##셏
##혙
##럲
##똒
##닁
##팒
##쩦
##겱
##웛
##눝
##쒯
##랟
##싈
##덋
##쮔
##뼊
##켛
##눋
##뮥
##웥
##앶
##띀
##쎤
##쁟
##떣
##븹
##닍
##뻼
##꼥
##꼅
##꺤
##룜
##돆
##긹
##톺
##끚
##즄
##붋
##좥
##썯
##쮭
##욐
##쀄
##툻
##죔
##럤
##갣
##뒐
##츽
##웆
##둞
##줟
##흚
##돎
##얫
##쎂
##뢨
##깪
##줱
##긆
##힇
##솛
##쇈
##븈
##쁼
##욽
##뤰
##놑
##늜
##럯
##섓
##첯
##쑉
##쿫
##헱
##옟
##홨
##슠
##짋
##쿹
##쟠
##굪
##폽
##씤
##콛
##푯
##몊
##찭
##쭭
##퐆
##홛
##녾
##렭
##잜
##몮
##걜
##럔
##걿
##랆
##꼻
##츞
##몡
##첱
##렞
##쾰
##꾱
##믑
##롑
##켵
##콋
##벎
##씋
##짪
##릃
##븧
##룿
##왰
##릵
##븩
##걊
##춸
##탏
##젅
##뜍
##햙
##헧
##쓋
##뭦
##챽
##솩
##랊
##찓
##롔
##쭟
##짃
##챼
##뚈
##쫚
##뻭
##넖
##눵
##앷
##갊
##긥
##꺊
##궍
##듟
##혖
##퉛
##끎
##욹
##뎝
##툇
##녙
##썄
##굩
##얆
##쉌
##됥
##쵕
##햝
##뀻
##됟
##낻
##퓿
##봟
##녛
##떧
##셎
##뼀
##릹
##퇜
##륍
##땆
##꾈
##멫
##뀷
##톶
##숪
##꽛
##찱
##잩
##휫
##쨨
##읂
##팆
##겫
##갳
##풱
##햍
##딭
##쌎
##왴
##뾱
##톩
##돘
##듑
##픵
##묹
##쏐
##쾬
##뗨
##낶
##혝
##굻
##엁
##꽨
##쵁
##쿽
##얊
##멪
##횧
##퐑
##늓
##볹
##츛
##쳗
##탗
##줆
##휏
##휐
##쳴
##텹
##쮤
##짣
##뱰
##벍
##긞
##텆
##좱
##힑
##럻
##팚
##봃
##탚
##놎
##킿
##놥
##궙
##뼡
##웎
##옦
##굧
##똻
##갿
##솊
##읈
##핦
##젷
##냴
##뗳
##긃
##멁
##꺳
##빯
##쀽
##즎
##펲
##짮
##캎
##뜿
##옰
##톷
##룯
##뤤
##솸
##읷
##덗
##뇍
##춭
##웪
##죚
##겴
##졑
##탞
##죣
##핽
##컺
##뙹
##됼
##댏
##홝
##졳
##엀
##헊
##갍
##섦
##짍
##윻
##쁙
##곚
##뗔
##쇨
##퉄
##줐
##묄
##짳
##쨲
##텉
##쎍
##샕
##럑
##홙
##볽
##뚀
##턋
##뵵
##췕
##짒
##랯
##켉
##죘
##댛
##훽
##봙
##븻
##꿥
##뼤
##뼁
##쯴
##핓
##웗
##잙
##뫽
##쭏
##맽
##쫛
##쫐
##밁
##쟏
##훚
##낪
##숌
##낧
##츶
##훰
##땣
##릻
##뜝
##쓘
##핒
##곩
##걻
##윟
##쒔
##꺟
##빺
##퐂
##믆
##됵
##돝
##뢁
##믤
##젞
##뵷
##닑
##귔
##롫
##킀
##틜
##뻈
##롮
##떹
##챺
##뱓
##줁
##쀠
##떅
##댼
##맻
##쓷
##웖
##뤨
##뿹
##뿱
##얨
##콭
##럶
##엯
##흒
##덹
##쩼
##룅
##뺔
##좬
##뛣
##걼
##빣
##좼
##뚹
##욼
##릘
##엃
##룧
##욉
##힂
##읪
##웒
##쒠
##췅
##앲
##뫤
##쩻
##훀
##캩
##첢
##혽
##킦
##꽠
##쌂
##찥
##뷉
##겳
##뇔
##뒄
##텧
##찁
##넧
##흪
##놩
##윁
##붴
##숝
##쾃
##퀙
##쌬
##졿
##탅
##젃
##튘
##뛀
##넊
##뤫
##팑
##뵏
##띕
##궆
##븂
##벺
##볙
##쿔
##땎
##욺
##쓲
##찗
##폥
##셖
##늚
##쪌
##쵭
##꼄
##렧
##뜳
##첳
##깇
##펟
##뤜
##볷
##풴
##웺
##덈
##뢜
##칝
##됚
##젵
##틒
##뿕
##궓
##썋
##봎
##쨚
##곋
##툄
##랁
##띶
##췩
##벊
##뻪
##뚦
##쉚
##뵴
##꼣
##헾
##쭸
##섧
##굌
##뙜
##숐
##밲
##봀
##혴
##쬮
##붭
##쒈
##겮
##륫
##걺
##냗
##컭
##춛
##볅
##쳒
##쏸
##튑
##갮
##쑷
##밳
##뙌
##뱤
##쬔
##뉫
##걒
##먠
##귷
##슩
##춯
##햎
##멏
##뻩
##쏮
##혰
##딉
##뱽
##췡
##뺜
##옢
##쯜
##쮉
##둙
##헳
##눚
##핷
##섫
##맪
##윯
##섐
##멮
##놊
##얬
##릥
##빭
##삹
##췸
##쉛
##툉
##솄
##넡
##럊
##귛
##쯫
##벯
##볇
##뇝
##앺
##쒄
##퀐
##쳧
##뢋
##렩
##샟
##앩
##쬰
##탷
##댰
##쀈
##팕
##믣
##빪
##먻
##쓜
##퀫
##끘
##샮
##멿
##쯀
##쪅
##꾳
##똡
##텢
##헏
##쓕
##퐘
##춡
##딝
##꼹
##캙
##햰
##븓
##싆
##떦
##댉
##봋
##꾬
##껕
##짵
##듹
##끞
##끟
##궥
##쉩
##풓
##졘
##몱
##켞
##둦
##먤
##곟
##쵠
##훵
##쀀
##굗
##쪿
##폅
##쏵
##첧
##엻
##꺗
##펒
##뭫
##렋
##붝
##춪
##뗜
##뷥
##픍
##똿
##떗
##좢
##썾
##쨬
##벫
##얮
##싐
##얠
##겏
##꿴
##챶
##꼮
##궑
##뾸
##뭚
##캪
##휗
##맓
##씷
##벶
##맒
##냎
##덌
##봴
##윶
##챁
##솕
##뮉
##냋
##뇹
##괗
##팄
##퓐
##빏
##뒛
##댦
##쁫
##슂
##잓
##뮝
##걉
##촷
##칶
##뒇
##킘
##릲
##뷇
##슇
##쑐
##텦
##춎
##혿
##헓
##얓
##쭻
##틁
##벐
##툌
##쌯
##덭
##댣
##핐
##횠
##찅
##훸
##꾕
##좜
##릑
##쫜
##눂
##씟
##쥿
##묏
##뢕
##퍵
##퓹
##묺
##슸
##빾
##칻
##쁸
##솒
##뙷
##띳
##춮
##꼷
##캋
##쐅
##펕
##퍞
##퍝
##궵
##힢
##헍
##낓
##뛍
##퐛
##앹
##앿
##씉
##홁
##젒
##쥈
##훋
##꺰
##룃
##튴
##앃
##꾝
##칧
##껃
##똮
##뼐
##픀
##퉸
##궃
##퉝
##껙
##덖
##뿽
##긛
##쉾
##덝
##쟊
##캰
##쮑
##쬠
##걲
##쓐
##퇵
##늭
##뀸
##꽊
##쮓
##쏚
##뒼
##콯
##벖
##뷧
##뛓
##먗
##뽇
##굷
##귖
##똩
##럏
##풎
##섊
##퓬
##웚
##쫂
##쩢
##탛
##픓
##븏
##햟
##빞
##튝
##똷
##뛝
##먛
##깖
##섽
##쮕
##놏
##홟
##샃
##헟
##쌟
##홎
##넞
##쐤
##겙
##겚
##뒑
##뤸
##엶
##뙛
##둫
##뚄
##뛕
##켚
##줅
##쥇
##왥
##멭
##밇
##썟
##쇱
##웼
##뱕
##뛌
##뽫
##쓹
##툱
##슶
##돇
##뫔
##뤟
##즡
##씞
##캮
##줸
##띅
##룪
##떪
##쥦
##렡
##믻
##쁝
##륔
##벾
##걖
##쩗
##풏
##홫
##젶
##먆
##틏
##슲
##뺓
##낅
##춏
##빬
##괠
##꿕
##쨱
##퍤
##꿬
##쭠
##뛧
##뽠
##몺
##놪
##칢
##쟇
##똽
##엒
##샫
##밂
##떷
##뚵
##텇
##씆
##휅
##룱
##넑
##됡
##뛟
##뺒
##빹
##솢
##늛
##홮
##뀃
##넭
##옱
##뢩
##갫
##곆
##뤳
##쩩
##웞
##뫚
##뻫
##꿯
##굦
##쎨
##롞
##푭
##뇟
##묿
##셃
##걁
##꺘
##쭷
##홇
##퍡
##챸
##퓅
##뿁
##솧
##뜔
##큣
##옣
##픃
##앒
##둌
##낥
##뉄
##빓
##뙬
##귺
##왙
##꿤
##닰
##튵
##혷
##뽛
##굯
##쉳
##뗸
##튔
##퉨
##욻
##쬑
##캼
##랡
##겕
##혒
##뗵
##눽
##뭭
##븕
##뻒
##틊
##둩
##꽘
##벁
##뱟
##뙁
##숬
##쭨
##놸
##힒
##걶
##뀱
##듞
##윹
##뮜
##띧
##퉆
##줝
##곣
##쨟
##쩑
##삉
##뜱
##귥
##퐅
##뮷
##믛
##촀
##띟
##릣
##첤
##쩕
##퉽
##늎
##섈
##뷋
##뤩
##뀄
##꼲
##럎
##끯
##뉰
##괒
##탲
##둒
##헯
##쀾
##툅
##낤
##둚
##둇
##쫖
##푲
##끏
##괂
##벻
##뽘
##꿸
##쳰
##쨧
##걧
##늏
##섔
##쪠
##젳
##벓
##팣
##녝
##쳊
##휇
##쨤
##뭕
##흊
##쮁
##뽯
##쩎
##괨
##륶
##딖
##럸
##녰
##쏏
##셫
##놁
##쓀
##훡
##쎽
##궬
##솣
##쎡
##갶
##쒑
##윧
##헶
##슻
##꿃
##삒
##꺓
##흅
##빂
##솉
##딞
##웯
##췔
##쒁
##봰
##떶
##봆
##깛
##킉
##쵮
##곲
##빖
##좂
##뛋
##푈
##씦
##텂
##찳
##켲
##넟
##녖
##쿗
##괙
##곭
##붎
##렑
##팘
##륲
##뮻
##냿
##맿
##쿌
##싘
##짾
##껓
##뾀
##뽸
##쫰
##툲
##욾
##쐏
##췹
##곔
##뭩
##윿
##켼
##옩
##똼
##붃
##톔
##엲
##쭬
##훞
##샦
##벭
##랻
##햛
##딳
##쇵
##뇅
##댲
##썍
##틧
##쯨
##븦
##홴
##솑
##릸
##씜
##싖
##븢
##낣
##몲
##캊
##끀
##쑦
##웊
##끡
##뽭
##꿿
##둋
##쐴
##텓
##퇬
##흇
##쇟
##쟥
##뱸
##쒭
##뭷
##윖
##햚
##둪
##떾
##쵤
##꿝
##턺
##뱥
##껶
##윣
##쩰
##뚁
##촪
##좧
##녚
##쌻
##뼬
##뾥
##딺
##쬴
##혺
##럮
##톃
##꺚
##룈
##푬
##쒱
##곝
##퐇
##젌
##뱬
##둄
##뉀
##삧
##쐣
##쬈
##윝
##뫂
##뺚
##톌
##쉻
##헋
##엞
##튻
##쎝
##쌇
##둧
##뙝
##욣
##앑
##뎂
##큻
##굠
##퓩
##퀭
##풹
##깾
##둼
##콪
##뜮
##벷
##먓
##틅
##둅
##괫
##뵉
##뷃
##쏄
##꺴
##쓈
##춝
##쳍
##붥
##얳
##웙
##쿩
##똟
##큷
##괓
##묷
##떥
##즺
##춟
##쬎
##얎
##섩
##젉
##퀻
##쌑
##릡
##퉹
##싅
##쒧
##혬
##쒘
##쳋
##왆
##틕
##흎
##쎱
##삫
##늌
##죶
##숶
##뿥
##뺡
##힟
##쐿
##쀅
##섪
##끉
##볁
##흳
##퐠
##긯
##퓍
##먽
##붍
##찴
##큳
##쓒
##씊
##팯
##볫
##뜃
##껇
##샓
##췁
##굤
##됃
##쉧
##룄
##쎰
##섉
##쉜
##탍
##붌
##뤵
##픤
##잝
##뀈
##쀵
##븋
##걓
##풇
##셮
##턩
##겿
##쩣
##웘
##콮
##쎇
##튶
##럗
##폯
##렓
##뙴
##겲
##밊
##괅
##횓
##툨
##겵
##닗
##뻕
##젡
##뷕
##깗
##믉
##헒
##칄
##옞
##떺
##쭃
##욈
##헔
##캽
##쓌
##썱
##냧
##첪
##핺
##븞
##칤
##떌
##윢
##썔
##쇀
##뎓
##얰
##쏰
##훛
##쩤
##탵
##찦
##볋
##꽀
##쭥
##즂
##쩽
##옲
##왗
##딿
##뙿
##깑
##쎟
##꼶
##쏃
##춱
##쀒
##뾔
##좎
##홖
##윪
##잳
##쮱
##뭁
##휳
##뷐
##혻
##쏬
##훝
##뭵
##헢
##샔
##묑
##뱗
##쯋
##곛
##좰
##훏
##칍
##걽
##턐
##썫
##쓺
##쭂
##쬲
##췜
##봿
##걇
##퇌
##퀡
##쇔
##폡
##꺋
##븸
##곖
##푿
##녺
##탊
##뷤
##쫅
##욗
##넁
##싙
##븛
##믝
##엸
##놖
##씿
##뀅
##쾩
##휔
##볆
##뽴
##뷷
##눛
##굾
##뮏
##갎
##뼏
##깱
##렗
##됱
##뻙
##눸
##뮦
##뙸
##쓊
##죢
##슮
##쪚
##뵺
##딻
##뭀
##핕
##섑
##솖
##둊
##쀌
##쳭
##훊
##겺
##옧
##믏
##뜪
##톽
##쑫
##멛
##꿹
##얁
##킆
##톅
##긼
##돖
##놛
##눓
##럘
##엕
##뙥
##혯
##왬
##줵
##팗
##턉
##벲
##곮
##핋
##깺
##풁
##쩀
##뵞
##혅
##뭟
##녯
##큲
##믯
##쬥
##뛥
##뿎
##뚢
##뚊
##똇
##쐄
##맚
##갟
##챫
##꿄
##샽
##듇
##폌
##뱋
##곥
##펻
##뎦
##쀳
##졒
##굺
##걬
##뙄
##캵
##턹
##뱛
##탟
##꾄
##칔
##멯
##퇮
##퓟
##쌗
##짎
##놴
##찏
##헦
##퍔
##볂
##욓
##뽥
##뜄
##쓿
##찫
##씳
##겭
##혾
##꽆
##릈
##굫
##퇏
##죿
##몷
##쵿
##쓃
##꿌
##뮘
##짿
##쀏
##뎧
##벑
##뉅
##뚨
##덢
##궮
##녗
##빷
##볖
##컯
##똈
##숢
##둭
##쪻
##헲
##믬
##솠
##뀹
##쥫
##풬
##잮
##곫
##쥅
##뎻
##촼
##뽬
##퉼
##씶
##쒐
##핆
##밹
##킶
##긻
##싇
##쟬
##뵑
##쐼
##쁍
##왅
##랉
##쫫
##뢘
##멲
##쟡
##쫕
##먇
##쑀
##뿑
##눉
##뿬
##겞
##윩
##귇
##졽
##뽹
##삗
##뺶
##겛
##톪
##퇙
##숤
##컦
##뾲
##쑼
##셪
##홅
##똦
##랺
##틤
##넶
##룢
##뽖
##륮
##즋
##혃
##쐽
##꽭
##돉
##쭕
##볈
##쌛
##퉉
##휨
##꺏
##돒
##퉾
##똝
##왳
##쵴
##봭
##멂
##툊
##겗
##흤
##챷
##걭
##쵯
##엜
##혆
##훉
##졺
##픹
##잞
##푕
##붯
##떃
##혉
##쿅
##퍁
##툈
##씧
##훱
##쿺
##졻
##슯
##뙀
##뒞
##풸
##궳
##뙓
##얪
##홗
##좣
##뮁
##퍾
##쭄
##쑙
##얉
##됧
##뀀
##넔
##웳
##췝
##녽
##휲
##뇁
##퇔
##괺
##싻
##앦
##젍
##뺅
##걤
##뢥
##꺢
##뷮
##엹
##깯
##뿃
##젎
##쎓
##놝
##뒫
##윥
##튺
##죥
##앣
##몣
##똚
##궀
##쩹
##퀰
##빇
##녭
##럠
##몟
##닋
##궲
##꽳
##쩁
##꿲
##갢
##쒤
##붬
##볎
##쫨
##쬿
##죝
##퐣
##푁
##쏔
##씱
##뿳
##쀡
##믂
##퇧
##쀓
##쟃
##꾠
##쁐
##걆
##빎
##뺗
##촺
##팙
##괝
##녻
##꽴
##귦
##쩸
##쒂
##짺
##뾃
##좓
##뭧
##쟟
##걃
##믌
##쌒
##맩
##쭅
##썳
##뷹
##뭗
##콲
##훯
##썝
##갩
##몢
##뻁
##삦
##씢
##뭙
##쫵
##쳢
##캢
##셟
##뛨
##뭿
##왶
##왡
##왢
##씗
##졂
##쑻
##갧
##으로
##하는
##니다
##하고
##는데
##이다
##다고
##지만
있다
사람
아니
##라고
##했다
##00
##까지
##에서
있는
##었다
##면서
##다는
생각
우리
##하게
##부터
##해서
대한
##리고
##이라
##한다
20
하는
한다
한국
##보다
국민
##습니다
때문
##렇게
##으면
그러
영화
이런
진짜
##니까
지금
##하지
일본
지난
##하면
그런
문제
##하다
같은
너무
10
자신
다른
중국
##대로
나라
##는거
하나
##처럼
위해
##통령
들어
그리고
만들
미국
그래
경우
##하기
정부
##이고
##네요
201
##인데
##라는
아이
##어서
하고
이상
대통령
이제
19
이번
그냥
##세요
문재
작가
사실
다고
##한테
된다
##어요
아닌
##해야
##지고
다시
##나라
##았다
것이다
##입니다
시작
함께
사회
따라
없는
정도
정치
경제
서울
##이라고
많이
통해
##라도
보고
가능
하지만
모르
인간
##이지
시간
가장
아무
나오
필요
기업
아니라
##하여
##되는
##리는
정말
자기
북한
모두
##였다
상황
세계
##으며
지역
##다가
민주
200
이후
어떻
##같은
모든
대표
##려고
모습
좋아
시장
사업
관계
국가
이렇게
어떻게
문재인
사용
여자
관련
없다
##스트
마음
##주의
다음
여기
대해
##된다
이유
해야
##합니다
이미
있었
많은
##이라는
위한
##겠다
댓글
이야
##사람
정신
지원
##는다
##보고
아직
현재
돌아
그렇게
처음
사이
했다
계속
사랑
그러나
##하며
어떤
##어야
투자
##거나
얼마
라고
라는
무슨
프로
12
내용
역시
##민국
보여
경기
##으니
##구나
##는지
30
근데
있을
특히
##아서
좋은
##하면서
##인가
##인지
##어나
여성
남자
11
하지
##레이
밝혔
이해
보면
이어
##지는
다는
조국
진행
바로
여러
국내
100
##가는
대한민국
교육
이용
그래서
##있는
기대
오늘
결과
수준
결국
##도록
검찰
##로운
방송
##에게
중요
##잖아
피해
지만
있었다
기사
기술
어디
##이었다
면서
이름
그렇
##이었
##지막
최고
##밖에
연구
최근
조사
15
##시키
자유
##없이
보이
국회
또한
이러
##는게
##소리
잘못
마지막
설명
살아
계획
떨어
민주당
상대
저런
경찰
이거
삼성
없이
대학
##가지
지지
##되고
개발
웹툰
친구
우리나라
어느
사건
당시
의원
지난해
베댓
가족
학교
물론
나타
세상
##레기
당신
작품
정권
##해라
되는
같이
기록
감독
##어도
##머니
전문
올해
대상
이게
##으나
##비스
현실
알고
그럼
받아
관심
정책
얼굴
##이야
이날
후보
제대로
##거리
만들어
얼마나
##시아
개인
주인
##동안
사진
##주는
학생
##졌다
정보
##시간
회사
##했던
18
나온
누구
않고
##인다
평가
이야기
##부분
##하는데
조선
배우
하면
그것
##되어
가지
다양
한번
##겠지
자체
문화
##기업
말했다
찾아
##더니
따르
있는데
않는
부분
실제
일반
어려
직접
활동
알려
그만
동안
예정
운영
공개
##이트
그리
금융
해서
그림
선거
완전
##없는
언제
##운데
위원
##해도
##0년
새로운
상태
언론
##놓고
일부
올라
존재
##주고
그런데
대구
조금
의미
결정
##진다
소리
##스크
있고
게임
않은
##하나
제발
스토
책임
##로나
세금
공격
않았
발생
누가
한다고
재미
현대
먼저
아주
##이면
미래
##하자
제공
기준
##정부
##보면
인터
방법
확인
기자
부모
가지고
인정
합니다
##같이
##이냐
전체
하루
##다면
##하네
머리
지나
서비스
그녀
참여
있다는
관리
한편
준비
발표
만화
50
성공
자리
##을까
아니고
##라이
있어
##하는거
힘들
##한거
엄마
해도
사고
수사
##정도
주장
등장
##학교
만나
코로나
반대
##말고
과정
외국
##렸다
역사
13
주인공
선수
가격
서로
##리아
국제
##하시
산업
가운데
생활
대부분
25
보는
##러운
무엇
과거
16
##000
이건
최대
위해서
제품
행동
거의
##랜드
전국
증가
정상
성장
경쟁
더욱
기억
시민
##다니
있습니다
판매
##이며
재밌
해외
생산
노동
기다
요즘
효과
어린
보내
내려
##치고
그래도
##OO
해결
##리지
당연
이것
얘기
14
못한
선택
아닌가
엄청
표현
나왔
##근혜
추가
##이는
예상
##린다
규모
스타
운동
쓰레기
##만원
있다고
장관
영향
환경
아들
시대
없어
##그램
##의원
아니다
추진
빨리
교수
느낌
아버
대해서
요구
##이스
##려는
##시다
##가서
드러
한다는
포함
##치는
##와대
만든
알아
같다
##나요
다며
##들어
중심
기본
17
결혼
입장
##야지
문재앙
##주세요
청와대
##아요
##었는데
구성
노력
감사
##됐다
역할
##릭터
##한다고
도시
##했는데
유지
때문이다
마련
전쟁
좌파
장면
지방
##시켜
발전
##하던
##스로
되어
##라마
##와서
말고
##스럽
##하겠
##스터
부산
건강
정의
박근혜
소비
##아니
지적
보인다
##이란
##위원
##히려
분석
자동
판단
넘어
##는건
상당
해당
##이네
절대
확대
##하지만
고객
##리스
오히려
업체
자연
그게
공부
40
보수
오후
경험
안전
##자리
매우
##하냐
캐릭터
경영
범죄
만큼
기존
##했고
비교
사라
##더라
##시고
##이지만
도움
비판
전망
##이라도
솔직
비슷
없고
강화
스스로
##었던
거짓
##이버
시즌
##가고
기회
다르
강조
바이
##스템
그대로
기관
##파트
##이니
##어난
스토리
##디어
인물
제작
안되
##지않
상승
특별
주변
밝혔다
이루
하는데
거래
원래
공동
대비
##한다는
활용
##영화
미친
구조
대신
연기
능력
##므로
자한
빨갱
##가리
##되었다
프로그램
다만
되고
분명
행복
위험
순간
##드는
##르는
제일
##자기
OOO
그때
시키
치료
라며
인생
21
은행
조직
기간
김정
지속
##텐데
부족
아무리
24
##으면서
##보니
변화
바람
전혀
전부
##이기
##했다고
##거지
다니
방식
병원
상품
되었다
저렇게
도록
항상
혼자
적용
인사
집중
비롯
##하니
##무원
가진
##라인
않는다
마스크
##마트
회장
##르고
##정한
주민
##있다
일단
출연
분야
전략
내년
아니면
충분
않았다
지켜
네이버
걱정
##이나
확실
##한데
개선
는데
##겠지만
##동산
뭔가
##었고
##스타
같은데
의견
##수록
대체
공산
##은행
또는
높은
중앙
분위
##BS
더불
건설
##되면
적극
보호
아마
솔직히
##기고
199
받고
나가
이러한
주요
고려
목표
달러
검사
크게
있지만
아님
열린
나오는
직원
우선
어렵
그걸
달리
##려면
##겠네
행사
노래
##건가
신천
있던
궁금
22
느끼
23
시스템
##을때
나서
드라마
그동안
인해
##더라도
있어서
수출
##되지
##라면
여행
중요한
##이터
아파트
가치
가까
매출
의료
부동산
친일
##심히
음악
계약
##아야
다양한
##지지
##시장
실제로
가져
신경
수익
##먹고
##해주
보니
인터넷
##하다고
단체
자식
##기는
현장
##려서
다가
##요일
기분
관계자
출신
못하고
대회
업무
그룹
갑자기
##하는게
조작
바라
사과
안보
##운동
각각
여론
움직
앞서
##에요
오래
유럽
없었다
차지
하면서
선동
영업
세월
##리면
방문
부담
기능
##지마
##해요
##건데
어쩌
##사업
습니다
##드시
가슴
설치
이전
발견
부정
##대한
##조건
##사회
##났다
##간다
사망
대단
빨갱이
아닐
따라서
주식
##돼지
##으니까
나이
확보
자동차
들어가
##교육
##새끼
시절
모르는
어머니
##내고
외교
회의
지도
총선
주택
언급
##봐라
열심히
먹고
최소
광고
##하였다
새끼
##자인
공감
나와
##른다
통합
공급
##구요
아버지
우려
않을
불법
대응
보험
정확
##오는
전문가
LG
##던데
못하는
##군요
집단
선생
##하라
##억원
비해
인천
##정권
##보는
안정
##구만
남편
##거다
##거든
떠나
끝나
있지
처리
##전자
##대표
영국
하다
지구
##러스
##냐고
가는
광주
##8년
싶은
시험
글로
공무원
목적
유명
밝혀
알았
보도
구속
작업
입니다
여러분
##시는
거기
국회의원
자금
사는
바뀌
오전
##이션
나올
##조차
무시
##리즈
본인
단순
##학생
안타
가서
카드
정당
반응
전화
##대체
대책
갖고
26
##생각
참석
개혁
27
탄핵
여전
##이상
이익
과학
##국민
##어진
글로벌
했는데
시청
나쁜
평균
아베
##난다
사기
의사
지키
라이
괜찮
고민
영상
##이라면
시설
##5년
무서
##까요
보기
##너지
불가
이뤄
##7년
처벌
위치
SK
##9년
##이자
##거야
희망
달라
반면
강력
아래
되었
##이어
##없다
선정
제도
28
##했지만
제외
이동
뉴스
실시
따른
도대체
신고
관광
반드시
공식
있으며
##왔다
주는
훨씬
##세계
브랜드
군대
장기
받은
의해
소설
싸우
어찌
60
진심
제시
있으면
신천지
거리
잡아
최초
프랑
##갔다
##지면
소재
아는
무조건
투표
도입
되면
젊은
아빠
소속
말씀
권력
평화
하여
좋아요
하늘
##생활
##BC
##내는
##듯이
독일
성격
따르면
핵심
##겠다고
TV
##워서
남성
공간
유치
##라서
##6년
##럼프
중소
인식
시행
청소
##준다
##하다는
롯데
해라
##지게
많다
사태
생각해
아프
만약
각종
아름
스포
감염
오른
스마트
마치
종교
##받고
불안
##했을
자세
보유
일어나
소개
자주
너희
##지역
##단체
가정
심각
통신
느껴
비용
그거
##개월
예산
모델
인상
논란
##이크
아니냐
##겠습니다
이젠
증거
사장
##관계
있게
내부
##수있
##인트
진실
협력
수입
어려운
되지
보통
##겠다는
빠져
독립
점점
센터
싶다
트럼프
방향
연결
##어버
장애
음식
최종
##시민
선보
안나
##림픽
변호
자료
작은
불구
증권
회복
맞는
인권
주제
쉽게
사무
거짓말
공연
감정
감소
당연히
##레스
전투
두고
없을
실패
고통
담당
##잖아요
대화
형태
올려
누군
그려
##어들
승리
202
29
여전히
신청
대선
이래
행정
미리
제목
전자
##하거나
한심
출시
청년
방안
##운드
##할때
개념
도와
주고
단계
김정은
대출
무능
감동
##냈다
마을
추천
시켜
아내
##디오
위원회
##머리
##되었
##여서
##4년
공공
##2년
더불어
들고
사례
업계
있도록
본격
플레이
자본
불러
##프로
개돼지
러시아
의혹
마찬
않아
진출
관한
오는
1년
주목
국정
##이드
노조
말하는
스트
포기
제기
##조사
소득
자꾸
모양
배댓
있기
나온다
재판
그럴
좋다
조정
타이
좌빨
일으
싫어
가짜
전개
수도
##위원회
당장
이기
강남
합의
지급
차량
##작가
위기
발언
수요
교회
그나
70
개최
이끌
아침
전환
나타나
참가
하기
못하
##경제
전기
##했다는
제주
##그룹
##일보
살인
없었
마찬가지
혐의
인도
조용
응원
바꾸
고용
조성
교통
대형
불쌍
##3년
좋아하는
외국인
##두고
저거
코스
촬영
필요한
하락
##깨문
자산
31
##센터
공정
상관
파악
##시면
시리즈
받아들
##져서
##기관
##든지
오랜
만드는
##마디
유일
부탁
매일
##등학교
조건
자격
아시아
##하였
전달
프리
##라리
기획
##건지
예술
기반
할머니
##민주
연출
온라인
힘든
환자
지하
초반
민족
유리
혹은
확진
진보
인기
평생
##스코
독재
##고있
대중
##는거지
##란다
##리기
##하세요
재앙
받는
우승
##어라
충분히
것이라고
논의
동생
불과
자랑
##산업
아예
이사
##다운
그러면
성과
펀드
법무
참고
제한
##반기
그저
##뉴스
종합
##르게
하며
연합
영어
없다는
이걸
구축
동물
##만한
차이
##지어
##아버
이라
받을
하자
세월호
으며
분량
인수
했던
성적
전통
가입
이때
실적
쓰는
조치
받았
거나
##1년
훈련
##시킨
##많은
관객
재산
보여주
완전히
해석
좋겠다
지난달
나머
500
행위
##봐야
비난
##느냐
단지
없다고
안되는
##습니까
건물
그랬
생각하는
취업
##스러운
##던가
베뎃
됐다
배경
요청
구매
됩니다
별로
주로
198
최저
해주
##우고
금지
대깨문
##해보
반영
2년
가르
서민
약간
신문
입국
자살
시도
철저
끌어
##것같
##아가
생긴
##였던
복지
개정
검토
화장
설립
특징
##시키는
과연
프랑스
수상
있었던
설정
##들고
##인거
굉장
돌아가
황교
일자리
구체
##회사
대변
차례
강제
##지말고
약속
##어지
##장관
않다
##이든
목소리
이명
봐도
남아
규제
연속
상당히
##가락
차별
어린이
##무리
##리오
신뢰
80
보이는
선발
##겠냐
남북
강한
일정
혁신
그건
생명
애초
혹시
장난
인지
가만
부문
홍보
##한게
불편
토착
달려
##이죠
##웹툰
##롭게
상처
생겼
정리
##시키고
나무
민간
##문화
쓰고
하는거
##스럽게
귀여
모르고
갈등
##차피
하게
차라리
있으니
##한다면
피해자
멤버
근무
의심
부르
하이
평소
올리
통일
보다
전라도
덧붙
오빠
사상
상상
##예요
##나게
##겁니다
노무
##랐다
죽은
올림픽
싸움
소비자
##가요
미사
통과
작년
##페이지
##려야
내놓
알바
어차피
없애
목숨
저희
위원장
수행
직업
벌써
거지
공장
인터뷰
도로
눈치
분위기
연예
대사
는다
재미있
연재
지지율
군사
##같은데
##투자
애니
역대
듣고
물어
있음
아닙
##가지고
있어야
분노
한마디
희생
규정
항공
그린
3년
##프트
##싶다
##인줄
##대통령
##하려고
살고
##er
##아라
미세
이르
놓고
##국가
##먹는
타고
##개발
거부
확산
비중
국방
굉장히
##쳤다
본다
중소기업
제안
300
죽음
많아
충격
어쩔
##지원
심지어
무기
알게
확정
근거
##하려
일상
우주
##드립
전해
공사
지배
고양
그러니까
##바로
##50
여름
못할
이명박
비슷한
다행
엄청난
그림체
이라는
늘어
##사고
민주주의
##할수
똑같
##정책
기념
어서
이재
##나는
적폐
10년
##랍니다
마이
질문
##리게
아쉬
##당한
고생
중간
시점
촛불
게다가
4월
부끄
공포
포인트
##셔서
예전
##관리
근로
그나마
생기
보면서
분양
향후
자녀
##봐도
혜택
것입니다
이곳
있다면
신규
특수
맨날
졸업
오르
임명
후반
스포츠
통한
에너지
청소년
없어서
비율
##리카
완벽
야당
제조
전시
만족
바꿔
새로
동일
##개혁
저지
당선
##보기
눈물
뛰어
못했
옛날
된다고
나누
방침
액션
물건
등록
지식
##기술
##나오
직장
완성
##아닌
노무현
주도
##은거
바탕
가득
신용
##시지
독자
판결
바보
우수
##져야
##자고
없는데
레이
##하다가
##세대
중단
돌려
있나
진정
1000
임금
했지만
##우스
축구
전반
난리
연애
특정
겁니다
보장
데이터
유통
슈퍼
표정
무섭
아닌데
겨울
##시대
경기도
##텐츠
저러
기초
시기
돼지
맞춰
가면
##하신
접근
##문제
불구하고
##해야지
논리
몰아
예정이다
잠시
##다른
따로
있어요
같아요
##것이다
나머지
월드
선물
##우는
분기
##활동
마무리
##가면
##거운
형성
거쳐
벌어
존나
리그
##선거
밝히
윤석
현지
공주
##았는데
매력
수술
조합
##업체
##퓨터
##았던
##하라고
90
##받는
인구
바다
협상
3월
소유
모자
굳이
봐야
기부
재정
##시설
이루어
내일
##가족
멍청
##해진
위안
##환경
##겠죠
활성
제출
인한
나경
##연구
##인간
##됩니다
##스러
반복
변경
세대
현상
디지
대전
비밀
노인
개봉
달창
시각
##10
만들고
있네
똑같은
일베
##는거야
6월
지정
##0년대
위협
##걸로
체험
KBS
##려라
원칙
결론
##증권
답답
도전
일제
협의
살펴
미안
개월
##온다
이상한
원인
으면
않으면
##케팅
5월
사전
그러니
월급
동네
임대
##마라
된다는
##보자
악플
지분
사법
둘러
대박
##방송
믿고
일어
가능한
집안
호텔
디자인
##니스
베트
##거같
서울시
꾸준
저기
어른
만드
무대
반성
프로젝
가구
##거든요
황교안
선언
##리어
##이익
달성
##하려는
폭력
안하고
토론
##했습니다
선진
대기업
박정
경북
와서
##없고
하시
의식
삼성전자
투입
컴퓨터
##왜구
정주
초기
##리그
미세먼
계열
창업
시작했다
골프
금리
##일까
못했다
총리
##느라
##줘야
지랄
하나님
태양
##만화
##지요
마라
버스
파괴
##아지
보였
진정한
9월
##20
짜증
나름
##사건
##나서
보상
비행
측면
어울
MBC
마법
10월
세력
##도시
35
원하는
바이러스
최악
예방
공유
말해
12월
이미지
##메라
채용
구분
절차
##었다고
잘생
도망
불가능
늘어나
블랙
##거라
사퇴
요소
공수
되는데
7월
벗어나
드디어
심리
발행
무역
서울대
미치
하네
##조선
받았다
베트남
울산
싫어요
##짜리
수업
운용
##in
어제
무너
외모
##학년
운전
##는가
취급
대우
못해
##시켰
택시
다소
보였다
맞아
조심
##아이
중국인
크리스
그만큼
긴장
흔들
동료
##웠다
##마자
##래도
뭐냐
너무나
빠른
바닥
##이었던
온갖
스마트폰
한반
심판
의무
이벤
무리
한국인
같습니다
그렇지
없습니다
##이에요
없음
##하도록
귀엽
아나
있는지
말아
##있는데
스타일
##있고
리더
긍정
소녀
놀라
##보단
마케팅
8월
나섰
특성
쿠키
향해
노동자
동원
소통
##받은
아니라고
하니
문죄
회원
##30
주가
1월
거야
왔다
##바일
##되면서
정작
미사일
##수준
변호사
##하니까
는지
##말로
방어
##이팅
KT
영웅
경남
확실히
효율
흐름
인제
똑같이
않을까
##주시
이하
펼쳐
담배
휴대
페미
##친구
아닐까
##하셨
브라
단어
메이
풀어
전년
실험
출발
저녁
000
##만큼
이성
대답
본부
금액
무식
##그러
극복
자원
##겠네요
데뷔
##주면
##경기
손해
친일파
생각하고
준다
체계
라면
사회주의
부인
##이네요
무료
불리
영역
##하네요
스페
##시오
봤는데
같아
절반
고소
##부모
아까
보니까
있었는데
소름
전했
이리
수많은
수십
##on
##달라고
물러
토착왜구
장소
남녀
적절
모바일
헌법
가고
죽을
디지털
악마
동의
사형
아냐
위반
이탈
##한국
높이
폭발
##인듯
몰랐
가까운
##규모
매년
교사
집회
더러운
##라스
먹는
문학
다이
안된다
##나고
법무부
않게
집행
영원
두려
나선
언어
허용
##겼다
자극
##보네
##해지
197
따뜻
통화
깨끗
##니아
대가리
테러
원작
조용히
정치인
외부
전형
매각
유튜
실망
양심
##독교
드립
가만히
작용
잘못된
여당
보건
사실상
검색
2월
2차
##받아
인증
아름다운
2000
강원
가수
언니
인근
##스토
채권
싶어
일주
누리
예고
##었을
모아
아닙니다
소송
웃음
##잡고
별점
연금
11월
높아
설명했다
##정보
##거래
수호
부여
연장
프레
하던
##이였
전용
방역
유니
##하러
인데
명예
홍콩
커피
##했으면
하는게
종목
비리
내리
통해서
건축
사항
##기사
나눠
바랍니다
기여
##카드
들여
이럴
콘텐츠
프로젝트
체제
수용
##플레이
추정
도착
아동
구입
있을까
체결
총장
공수처
##겠어요
폐지
들어오
주말
정규
인력
순수
앉아
##시킬
훌륭
의한
시위
##하는건
걸어
##조작
##돌아
##an
계산
작성
상징
##보험
우한
떠올
이나라
진단
반도
##쳐서
##나무
지시
낮은
수정
##대는
제2
식품
뒤집
##건설
애플
축하
소중
카메라
보지
잡고
설계
피부
가끔
통제
흘러
##이니까
냄새
팩트
보이지
##리티
##으려고
해야지
기계
배치
5년
다면서
감옥
좋았
##쓰고
36
##영업
##주택
나와서
왠지
##있어
상담
뉴욕
##진짜
간다
부부
케이
##했으며
감안
##길래
##한건
한나라
뭐라
##위해
합리
생존
내내
맞추
어떠
언제나
에이
있냐
평범
연락
45
봐라
회담
시원
##누리
나타났
없네
스킬
만난
이중
51
다면
##리스트
##리며
자한당
예측
법률
보자
억울
실천
법인
전했다
어이
##바리
백신
봉사
##세기
새벽
전세계
반일
나갈
##버린
##라니
다녀
비상
##려나
심사
교체
##놓은
정체
뭐야
매국
안타깝
##티브
##이라니
##었지만
##라지
개그
화려
모른다
대처
밀어
흥미
베이
당국
##워크
우연
인재
쏟아
가게
##히는
떨어진
왜이
그렇다고
투쟁
웃기
여부
한다면
정주행
제1
비정
나쁘
할인
자아
##달러
스크
알아서
남은
있으
없지
야구
전날
학습
집값
데려
라인
불만
기울
정신차
최소한
대로
##하겠다
개소리
내세
예비
유시민
##본다
쓰러
장비
공산주의
##아치
꾸준히
화면
공모
##대학
한계
먹을
속도
##시길
말할
##사랑
##모리
패션
창조
고위
홈페이지
아니야
##금융
출전
편의
실질
생겨
박정희
아쉽
##금지
들어서
주문
미군
적어도
제거
간단
1위
탄생
명령
공산당
말한다
정신병
이승
##댓글
이정도
최순
연습
##제품
말한
##었습니다
##피소
검은
윤석열
##되기
사이트
생각한다
원내
좋을
설마
기독교
태극
##지기
아무런
반도체
##인가요
도덕
##하는지
##회의
부상
##로그
신기
기소
가해
공항
##사는
겨우
##리자
이른
창출
이슈
생각합니다
나오고
##따라
제정
결코
카페
##임금
챙겨
##바이
##기간
무서운
보게
나왔다
안좋
##거면
##먹을
32
정은
입고
##하시는
전남
혼란
없으면
쇼핑
등등
가까이
뻔뻔
집권
강력한
실현
##지마라
상식
채널
체육
다루
이론
통계
소년
안돼
올랐
이혼
이벤트
의도
나오면
##소득
할아버
활약
##대회
수석
가야
알려졌
클럽
유사
김영
모여
분명히
##야말로
보낸
##서관
##어야지
청문
##자체
##대가리
틀딱
떠오
##이라며
아저
SBS
근본
##마다
더이상
계획이다
##항공
판사
주사
철학
취소
나경원
유튜브
##범죄
기타
안내
##친다
실력
불매
##메이션
##나가
2015년
물리
느낄
오픈
억지
못하게
간첩
죽여
압박
##들아
##남불
한화
앨범
않나
현금
##바닥
몰라
지상
가능하다
##까봐
소식
수학
##겠어
상장
칭찬
감성
방해
##구조
개입
##19
이외
미술
##거냐
인류
여주
##게임
끝내
애국
초딩
저번
잠깐
이용해
그곳
동시
지수
때려
최대한
선배
등급
갖추
소환
추구
초등
##화점
##정치
오해
모른
##받을
광화
손가락
##상태
만한
미세먼지
2016년
관련된
리얼
가라
출마
수수
##라우
확률
##평가
괴롭
전면
##던지
일부러
돌아오
단순히
상위
동성
동아
##리트
수능
이달
해소
아니지만
##거고
뽑아
##회장
##TV
고백
##된다고
미디어
확장
복귀
빼고
법원
##여자
분리
##럽게
아이템
##먹은
장르
재밌게
없지만
어깨
국토
무한
키우
##기지
##라며
33
다를
##기에
살려
그리스
플랫
국무
##단다
##피스
##당히
주의
고향
증명
것이었다
안철
연계
아르
듯한
196
##치게
##싶은
34
##였는데
38
여유
##ar
다리
##없어
경쟁력
키워
많은데
청구
기생
감사합니다
에피소
팔아
보여주는
네트
하냐
전력
진지
상호
오지
관람
느낀
평등
자전
종북
설득
##치지
수원
거듭
##한번
##니깐
##주지
##든가
필요하다
저게
말이다
고발
##아니라
차단
왜냐
어려움
끝난
했고
과제
점검
아니지
##수수
모집
착각
수치
빠르
지옥
깊은
이웃
대놓고
정확히
한데
##상황
부품
한반도
박사
있었고
##거임
인공
99
갈수록
요리
바란다
영혼
갔다
2017년
##되는데
대만
##비아
커플
##로지
교과
진입
##or
힘내
##는거다
대변인
복잡
내고
##카오
청원
재난
##그리
##프라
##져라
걸쳐
문빠
라헬
##버리
발사
떨어지
투자자
##긴다
반발
했으나
종류
겁나
##뮤니
부활
뛰어난
성폭
찬성
바른
매수
협박
##동생
공천
유도
물고
노출
빨간
대기
여야
괜히
##이라서
##노총
보조
##터리
최강
5000
검증
1인
들었다
사귀
고등학교
성능
인가
했다고
지루
발휘
조선일보
##버스
2014년
직후
완화
이란
착한
##보내
##배우
##히고
투기
배달
##있네
2018년
원전
00
후회
##여행
가량
##드리
연구원
배뎃
필수
짱깨
##의식
생각하면
소방
것이라는
김대
할수
경상
줄어들
자영업
지휘
이지
화학
입학
한미
위안부
표시
협회
##그래
고급
재무
아이디어
몰려
패배
죽어
유료
결제
투명
방사
##슬람
##직원
둘다
어야
##영상
멀리
했으며
##겠는데
인민
육성
KB
철저히
애니메이션
대다
둘째
##공사
##되서
올린
##나면
##미터
답변
응답
최순실
아닌가요
못한다
국립
그렇고
동기
멋진
비례
고정
##부대
##시절
어요
##줌마
연간
월드컵
배신
가을
제재
지하철
모르겠다
돌파
그러고
양성
다름
현대차
매장
좋지
보인
자율
이런거
##피언
##로부터
##었으면
부대
어릴
맞고
고마
##장면
순위
자존
탈출
날아
실업
줄어
이탈리아
남한
##전쟁
스테
학원
옹호
조선족
이민
경고
균형
주지
2018
무려
파트
세종
자전거
노예
세워
##였고
##해주는
악화
대학생
##다시
단독
방지
##된다는
언젠
검찰개혁
상반기
아울
##NS
보안
성인
식당
형사
의지
일찍
수단
헤어
그다
대법
것이고
올라가
분류
떨어져
동양
IT
신체
##렀다
마주
느꼈
개판
김성
마침
##았고
봅니다
보이고
청문회
대결
##더만
##자나
받지
넘는
텔레
동맹
배려
당사
존경
##스포
한명
얻어
털어
아웃
커뮤니
공약
한정
##데이
모를
##이던
##을텐데
##협회
입주
이다
중인
##하지말고
페이스
##셔야
##스티
400
시나
유명한
들어간
##자산
데리고
새누리
마약
비롯한
##연금
2012년
##세력
임시
사용하는
##되며
파워
##수사
고등
하세요
##오고
기다리
긴급
3일
거주
다섯
지내
##보지
##힌다
트위
하는지
##먼트
##하겠다고
그날
##치기
물질
##드립니다
끌고
하반기
한다며
매달
나아
완료
마리
살짝
##으려
출산
##하긴
축제
##로서
태어나
뭔지
정기
1만
2013년
##총장
되게
시작한
비록
부처
경계
시킨
가난
근처
##성장
권리
것인가
스파
걸려
편집
##할까
2015
안타까
소화
무릎
향상
옮겨
머물
취임
주력
로봇
수백
모임
보고서
광화문
스피
예능
말하고
##분기
##om
두산
원자
##계획
서서
차원
##아도
죽이
##리라
예쁘
##래곤
##낸다
##있게
전두
실수
##했으나
거다
주세요
버섯
화이팅
네트워크
##너무
고속
##민지
맞지
대리
하셨
합격
소프트
부채
##버렸
촉구
##가능
빠진
2010년
주관
분열
##해주세요
많고
이념
압도
뮤지
것인지
스트레스
##럽다
##의회
우린
##가며
##발전
한나라당
##나다
##공업
죄송
치고
열어
##거리는
사랑하는
로맨
꺼내
빼앗
할지
후원
몇몇
신선
명확
살해
연예인
공통
일으키
업종
이자
공직
##러워
##단계
##었다는
중이다
##지도
##아아
전설
##조합
추억
##에도
마세요
##치면
최저임금
보일
도쿄
##하겠다는
이겨
좀비
접촉
##게요
##여야
1차
우파
선진국
좋고
양아치
전세
질병
주둥
하였다
##스럽다
아시
##든다
##레이드
##있음
살아남
눌러
##했는지
강해
없으니
한심한
시선
걸린
나타났다
높다
아울러
37
당황
다니는
카카오
짧은
##악한
##메달
호흡
선고
수비
프리미
##연합
자유한국
##모습
2019년
있는거
어쨌
라도
##문학
요금
##구리
왕자
일어난
미쳤
워낙
55
나오지
대가
상대방
대북
도둑
장사
저항
해요
주차
챔피언
종료
1억
##드려
PC
어리
유저
죄다
마시
곳곳
당한
##다는게
##웨이
##감독
초대
버티
선호
취재
이라며
##스런
##었어요
한참
권한
특검
##경찰
같네요
과장
지닌
빠르게
다르게
사정
##미디
알았는데
##너스
변신
앞두고
##en
가로
아우
유학
##보이
아이돌
뿐이다
전두환
원장
익숙
건너
치열
이길
맞춤
법안
2016
축소
사유
아야
##이프
몰입
##버리고
주체
##가라
아깝
그런거
대학교
##복지
개편
##하지않
원내대표
하다가
##대고
데이
시나리오
유일한
귀신
개성
저질
##르면
바뀐
징역
대단한
반박
획득
이래서
찾는
##al
솔로
연대
그래야
감시
군인
##만명
스케
##아님
강요
2014
여의
##는거냐
한두
결승
##11
한달
특별한
원숭
2017
매국노
##어져
##라운드
단기
1일
##을듯
##사장
오직
덧붙였
대폭
강조했다
휴재
싫다
발매
문통
52
이쁘
넣어
않습니다
마감
자치
신한
150
폭행
태극기
왜곡
바이오
접수
가리
개방
##40
##가야
가짜뉴스
뿌리
고구
재벌
똑똑
매입
##이었는데
깜짝
##다리
치매
잠재
SNS
점차
##었나
갖춘
##공자
비싸
##도로
아저씨
뭐지
고맙
##드라마
몰라도
시켰
사이다
##하고자
자빠
만남
아프리카
되기
아줌마
노선
타격
배출
누군가
늘어난
정식
김종
레벨
단일
그러한
조언
##으신
대충
치킨
것이
저리
존중
48
##쓰는
코리아
헛소리
호주
버리고
쉬운
완결
##선수
심각한
##겠나
건데
##산물
삭제
의회
함부
해체
안철수
활발
##at
알려진
##되어야
##로스
클래
핸드
결합
##란히
실행
뭐라고
임기
##했네
발굴
##답니다
아마도
개별
이딴
거예요
나아가
호소
##답게
적은
##총리
혁명
일이다
시급
문죄인
기록했다
해양
모으
지능
천재
2011년
조기
이스
다운
바라보
20대
오랫
토지
서류
만날
무지
41
유엔
##병원
들려
극장
39
##한것
좋다고
그럼에도
##자는
믿을
벤처
##st
##내용
격리
##니어
##할듯
출범
##프레
안경
연봉
비즈
해주세요
묘사
##에선
##하는것
남겨
##조리
밝힌
알려졌다
아기
물가
연말
##봐요
쉴드
않지만
트위터
거죠
했을
부진
근대
4년
부자
얻을
교류
##르크
무능한
##이유
관광객
찍어
라디오
죽는
##달라
강의
메르
좋은데
##봤다
해명
천안
이놈
사이비
지자체
학부모
##자금
##주기
전공
신설
##줄알
만들었다
심장
좀더
연주
객관
김태
끊임
오로지
빨아
있었지만
접종
부장
선임
알지
##우면
같음
주주
형제
재능
하더라도
보스
인하
중반
이어지
타임
폐기
##지사
동반
유행
형식
베스트
파티
##등급
##같다
일주일
추측
가볍
평범한
매매
어째
폐쇄
복합
3000
공원
이틀
유치원
##이긴
며칠
질환
##어리
김경
혐오
한쪽
2008년
##진핑
##오면
쪽바리
하니까
많아서
김치
이모
올바
맞다
깨달
위선
##합시다
사내
든다
##야한다
사로
알려져
만났
없어요
임신
내는
감싸
번역
인성
흔히
65
##줘서
생태
##이었고
올렸
42
##소년
집어
공기
주거
의존
백화점
아픈
고양이
무게
포장
물량
느그
보며
있어도
증시
##사태
동성애
##당하고
##었어
독특
감각
성향
합류
개막
농업
없었던
들어갔
편안
이내
그렇다면
예수
추세
면접
정비
했습니다
##했기
취득
위하여
무관
다수
##왔는데
패턴
수립
##이게
보고싶
내린
##있으면
품질
연구소
코미디
이경
그니까
합병
당연한
깨닫
우울
가스
당초
아무래도
무죄
##자마자
AI
철수
하긴
김대중
##이즈
영입
연관
##좋아
막아
달아
근육
깊이
공화
75
디스
부실
홈런
##과학
동남
영원히
복수
읽어
집계
##이도
구역
수시
2012
차기
제약
난다
요인
조절
최선
오바
비싼
회계
##시기
일방
적당히
##he
##웨어
매주
세트
황제
##가면서
박원
##으므로
##하더니
2009년
하지말고
맞이
석유
스카
반전
##효과
일하는
비롯해
구간
거론
부패
어려워
조만
재단
어쩌면
기아
2019
신속
##인물
##이름
##본부
디자
용서
텐데
에피소드
법정
정해
표출
충북
걸로
몰래
진영
배제
즐거
##저히
CJ
20년
오염
붙어
좌우
거절
즐기
가상
통상
뜨거운
이정
받아야
메인
내게
말하면
주먹
믿는
패러
##은데
오프
파업
쉽지
##란드
매체
##졌네
알리
친환경
이렇
즐길
상업
잔인
##단지
공중
크다
##했어
##시즌
재료
려는
자국민
직전
사용할
죽이고
##필요
가시
자본주의
이끌어
지니
##케이션
##주인
게이
고자
타이틀
에휴
##했어요
발달
##지말
##통신
할까
몬스터
심한
##했지
##차례
##마스
고유
##능력
함부로
보여준다
보러
허위
##해야한다
시진핑
방송된
어휴
##전문
고대
##나이
드래곤
게시
한글
풍부
절대로
그러다
##졌고
음주
##보니까
##민주주의
유기
떨어지는
숨겨
전파
단속
대규모
있으나
##으러
출입
쳐다
##대상
범위
안될
휴대폰
운행
김현
무언
##시켰다
오리
오늘날
저건
진화
5일
아니었다
파견
중학교
##았다고
참으로
조만간
제3
매번
태도
셈이다
막말
부과
##입니까
44
화재
지사
전원
##올라
##봤는데
미쳐
자고
대안
훌륭한
이른바
##때문
특허
흥행
##하시고
사로잡
허가
기름
뭔데
표준
##빨리
초청
##후보
드는
저렴
버리
##그네
받게
##줘라
등장하는
승인
일관
살기
미니
갖다
##르기
##시험
즉시
장악
3개
넘겨
##시마
철도
##집단
##겹다
보증
똑바로
장학
음성
보여준
논문
왼쪽
유출
##십니다
아니라는
##작용
##었음
전염
늦게
43
기다려
##하죠
##TA
##만들
갤럭
마시고
##보세요
소수
체포
##이여
멈추
##하려면
포항
물타
기생충
문자
부서
환율
욕하는
그렇다
##저리
지지하는
##서비스
대립
슬프
벌레
수록
오랫동안
더라도
어떠한
##규직
점유
주연
첫째
##펀드
구글
되는거
부족한
조달
##마을
##12
##집니다
출판
연령
##쟁이
없게
포스코
시내
그러면서
##으라고
매출액
##해주고
붉은
어렵다
195
베댓님
문서
역량
##노동
##아들
부드
극단
주사파
영양
으나
환영
가려
가동
모르겠
휴가
페이스북
##매매
한거
뮤지컬
CE
##운용
천만
오타
##트리
##해지는
같아서
##가게
없나
##이어서
퇴직
##벌레
은근
무사
김일
##처리
2010
##마리
##다란
##이면서
##서트
무장
스위
##선동
##했음
했으면
보냈
선전
죽고
연극
##60
유발
이득
레드
선두
무상
##없음
의외
의장
마이크
연합뉴스
##스팅
거두
맞서
아카
##공항
신분
##겠습니까
##으셨
하려고
외환
떡밥
최우
목사
충돌
출근
자연스럽게
덧붙였다
47
선사
저축
판타
직무
재밋
벌금
내면
##하자면
죽일
그렇지만
알았다
은퇴
어쨌든
##주민
기득
식사
##나와
##커녕
전북
10일
4대
194
폭탄
##할지
임원
북미
##해줄
데미
신종
유형
##이너
안다
입증
##었네
미만
가졌
##싸움
대하여
동영상
취약
비정규직
2020
전교
49
사냥
생각나
비서
##없네
적자
각자
강간
##많이
##나간
귀여워
극우
##관광
화이트
##로드
고작
이시
##라고요
향한
##사이
두번
붕괴
가깝
##구역
바라는
흡수
한국당
##테니
##경영
정말로
왜냐하면
##이구나
##검사
##드라
배운
힘들어
2013
했다는
할아버지
끌려
만들어서
느끼는
멍청한
소련
##아니고
멀쩡
간호
오브
2007년
보급
##건가요
동참
읽고
홍준
소장
투수
##티즌
눈빛
급격
62
외치
리즈
##공개
대장
##리다
일일
##비용
갤럭시
본질
##80
같고
600
계열사
드러내
끝나고
국산
어떨
정확한
##더군요
황금
##거라고
2일
의문
안가
부지
드리
몇년
##하라는
##우리
##였습니다
##센트
하나하나
##토록
관측
자라
블록
정수
어느정도
색깔
듯이
보완
승부
미통
일자
진술
수영
협조
초등학교
열리
비즈니스
가질
##았습니다
인프라
갈아
중도
장치
쓰지
교환
누적
##스테
받는다
명단
잘하고
민생
##리네
캐나다
채택
담긴
다르다
##지면서
움직임
##하길
버린
과도
##안하고
한남
##차별
건지
15일
파트너
브라질
주기
후배
전작
생각할
공략
들어갈
나간
##있지
##저기
타이밍
공짜
넘어서
시달
첨단
##해지고
세우
연방
해방
##하지마
외면
마땅
인원
거대한
진중
고집
범죄자
챙기
좋게
쓸데
##통합
들어가는
##명한
죽인
1도
엔딩
##아닌가
자는
종종
메시
앞장
프레임
##해질
근로자
유승
자제
노트
##민족
번호
##결과
그러므로
광역
조각
상영
##어로
예쁜
항목
##과정
괴물
실시간
남주
오른쪽
캠페
호남
후속
당당
##보면서
##아리
여친
입은
실무
##직한
수천
유입
나가는
46
공시
4일
##다는거
한일
20일
넘게
구라
서초
힘들게
빌려
증상
##구석
##가격
수수료
그런지
누나
모르게
##르지
사업자
프리미엄
계기
구현
보세요
7일
운운
홍준표
명품
##느니
유동
어지
처분
노란
##시스템
태어난
구청
##고기
건가
보아
지점
거라고
새롭게
제외한
점수
이만
민노총
작전
그야말로
##는데요
##해준
침해
착용
##았을
##폐렴
아끼
귀족
한때
##다니는
##타임
달고
각오
들이
마인
표창
다이어
자국
적합
##수수색
신중
간부
부하
체력
던져
감히
문제인
장점
고교
어떡
말라
이행
54
재수
나면
진료
담아
드러나
##교통
양산
보관
예약
##을까요
산다
협약
##있냐
마스터
찬양
코스피
실장
할때
돌아온
후손
서양
##책임
##어지는
어려울
방탄
기다리고
##ou
기어
급증
나중
##상품
드루
자세히
##라엘
맞게
창원
꿈꾸
지각
##었지
고문
정지
당하고
양반
##았지만
구멍
않도록
호랑
손실
추석
##동네
일대
모르겠지만
캠프
유닛
시킬
적응
강하게
충실
가벼
##가스
된다면
2개
일시
##버려
일반인
##회담
##십시오
금방
아이폰
##대학교
아오
추락
단순한
스페인
끊임없이
경선
붙여
들어온
맡은
기원
##내기
급여
곧바로
돈벌
정유
##이브
관찰
하하
어두
거대
변동
줄이
기기
부각
조중
만들어진
넘어가
특이
무서워
IM
요새
##분간
정착
조종
이태
아픔
고기
러브
##기준
끝날
열고
방사능
##되게
종이
즐겁
당해
충남
컬러
1등
재생
##렸는데
잘하는
##테크
채워
압수수색
여겨
커다란
연설
졸라
##되었고
매도
포함한
2011
아가
공작
##업계
지도자
유일하게
##듯한
어케
상당한
블루
부회장
나타난
시사
하는짓
그간
아닌지
14일
국개
##는다고
##언론
무식한
김기
인형
로마
힘들다
##버렸다
이스라엘
생길
끝났
##스키
캡처
정경
배당
매니
청산
네티즌
여건
한가
해보
에어
##루션
보복
##et
투어
말았다
##으로서
##그런
동부
전망이다
테크
감추
##피아
소위
메뉴
메이저
##IA
비핵
##잡아
회견
##줬다
지껄
보여주고
##시켜야
시계
##사항
메시지
바퀴
파리
신입
기구
비하
스럽
감상
국내외
입법
##제한
앞두
김진
더블
##es
##드러
현행
트리
않아도
모니
뇌물
기레기
생물
런던
밀려
##보호
##있습니다
##회견
화제
내지
도저히
여기저기
##으로부터
필리
이해할
개설
##일러
봤다
왕따
파란
##it
##갑니다
맞은
화려한
달라고
이영
생일
올바른
공인
전역
있는게
대량
추적
##으로써
쓰면
##더라구요
##았으면
규칙
훼손
중요하다
부르는
재건
담겨
청약
기도
늙은
중고
미개
만일
초과
1조
남친
하얀
불가피
수고
안드
설레
하네요
하겠다
홀로
라면서
##했나
고령
안심
##년간
당부
위로
지출
##이래
윤미
##는것
지어
있다며
스릴
정의당
본래
진상
허락
##신문
아가리
59
틀린
##옵니다
GS
##이요
선박
브리
신인
##좋은
##럽고
급식
불행
##소한
만들기
##관련
##봤자
##공산
교도
지향
판정
##으시
불매운동
##15
##봅니다
구단
트렌
##하이
짐승
고쳐
사드
재개
한강
수집
1천
##끼리
명칭
지혜
을까
경비
안쓰
내다
따뜻한
계층
마크
쪽팔
오토
지표
##중인
노사
부당
어르
120
허리
행복한
##버리는
##00만
올리는
주최
욕심
##되는거
##심한
하라고
키로
세포
이라고
선출
명백
##자동
동남아
25일
뒤집어
8일
탈락
걸리
평양
깔끔
같았다
오버
유가
지진
실내
많네
주장했다
중립
취향
##장애
넣고
부딪
##투표
##겠는가
월요일
보편
성실
에스
측정
아파
노후
계속해서
즉각
비디오
자발
편이다
##였지만
욕먹
58
짱개
끔찍
180
상실
얻은
귀여운
배워
느냐
시골
태어
화장실
##르트
돼야
강아지
박수
인용
##혀서
약한
경향
##행위
기상
리뷰
##혁명
어둠
##ic
##가는데
##일뿐
이순
저장
##계약
싶어서
점이다
유전
견제
##왔던
블로그
완벽한
6일
담보
강원도
85
국방부
경력
없기
침묵
##남자
신호
##물고
간담
소문
핸드폰
드라이
못생
대거
##체육
창작
이러니
##해진다
장착
찾을
체크
있죠
상무
계좌
중독
2009
기자회견
분쟁
11일
물타기
올랐다
날려
위대한
##리즘
마녀
##이었지만
95
알아야
무시하고
스크린
나설
이수
있다가
김재
가계
강경
12일
한심하다
봐서
구상
##렸을
썩은
좌좀
듣는
윤리
앞세
13일
지주
##구먼
감당
6개월
실종
##이므로
고수
아름다
뮤직
자유한국당
뚜렷
놓은
기쁨
창의
16일
부러
9일
찍은
##그리고
나오는데
스펙
걸고
줘야
많았다
나섰다
위험한
시청자
주위
물류
나베
입원
비행기
최후
##훈련
문제다
##추행
##으세요
##수있는
행태
2008
안들
탄탄
먹어
56
성폭행
방영
고스
입시
##바라
핑계
금메달
지연
##선생
단식
비대
무척
살아라
재미있게
##감정
백성
코믹
애기
잃어버
편성
CEO
만만
숫자
사안
방치
23일
시끄
공주영
커뮤니티
천천
##러리
찾아가
그런가
보내고
콘서트
##리면서
충성
도발
싱글
간접
##로우
10점
딱히
떨어졌
해고
슬픔
의료진
못하면
웃긴
2주
평점
그지
집착
27일
확신
화장품
주간
##했냐
어머
마친
도서관
##연히
##쓰레기
싸워
##좌파
불리는
##았네
코너
제국
엔진
17일
계급
##부지
특혜
18일
내수
##사진
22일
26일
왜구
우연히
##이거나
배상
올리고
24일
사무실
거울
엄격
호기
##엄마
##할거
##무기
대법원
28일
중대
박살
신발
뽑은
열정
어우
21일
##자식
19일
##ST
오류
천천히
점령
##타고
성남
건립
너같은
려고
##세포
소형
여론조사
태풍
박지
소중한
##잡이
하드
##사무
PD
테스트
##디션
의학
없냐
일요일
위장
수리
구미
보라
의뢰
##국제
대대
설비
한대
일러
있는가
수주
해군
침체
종사
마누
먹은
구경
해피
##하실
내렸
전후
##었는지
날씨
##스레
수급
이어질
양국
누굴
귀찮
##아웃
##사실
하야
##사인
상속
사이버
관련해
이용한
518
않기
##정신
##있나
MC
손님
씨부
주면
모니터
유력
증언
하도
자존심
##km
회수
열리는
되찾
키스
불교
##레인
무력
응원합니다
여태
##까진
일어날
##미애
##겨서
호구
모조리
리스크
부추
##내려
##절한
살아가는
박원순
치는
2006년
뜯어
코스닥
53
들어와
##보수
테마
녹색
발동
시상
신경쓰
유권
##시코
막상
##기면
편리
자유민주주의
##민주당
##브리
엘리
억지로
세운
##는거임
사모
##했다면
##이었습니다
##있어요
##겟다
이슬람
플래
김동
꼬라지
하지마
임상
안녕
진중권
크고
농협
납치
이낙
웃고
핑크
지경
##70
##베댓
불쌍한
말라고
원정
##se
충족
치명
터뜨
득점
마구
입국금지
노릇
버려
보았다
신세계
있었습니다
작곡
잘라
5천
합시다
##리우
시범
##기다
##봐서
유로
보는데
우와
탑재
이제와서
예외
##있을
##ED
되면서
30분
##한지
미소
진모리
마침내
##제도
##하지마라
##트롤
##있던
민감
별도
##데이트
질투
나갔
유공자
물려
예배
비극
다크
장식
##아니냐
중동
##소설
사령
##순간
하라
도중
비트
우습
2번
일행
않았던
폭망
##프로그램
파이
최신
감수
제조업
항의
tv
##자치
이주
64
싸이
되어야
2020년
푸른
되었고
망가
어색
##해져
구제
인종
조지
줄여
잡은
##해졌
일본인
싸우는
이종
논쟁
녀석
##했다가
##한거지
추종
연상
차관
##박한
세무
뛰어나
것이라
30일
어르신
드루킹
장애인
안하는
미칠
타령
않는다는
위치한
##성한
포스터
것이며
라이브
질질
주한
서구
나은
장례
피아
##재판
여의도
라운드
싸울
널리
북괴
스튜
한층
단단
길게
스티
영광
손혜
##그만
##시킨다
계시
대다수
##해졌다
국장
##예술
과감
컨설
욕망
플러스
##lo
두려워
잃은
갑니다
공단
민심
가자
제압
##운전
##위한
조회
##작품
##전략
30대
##하겠지
벗어
##안전
단행
목격
얼른
담은
##린다고
민중
농촌
##둥이
##혔다
있으니까
##하는거지
바쁘
##스러워
학년
역전
둘러싼
국세
다룬
##스카
잡을
성추행
청주
써야
새해
베네
5개
800
상임
괜찮은
테이
저지른
가르쳐
모색
아서
않아서
##버그
##re
그릇
말투
##지다
##것같다
통보
CC
도심
해운
##조직
용인
대외
지불
발악
떠난
##얼굴
이따
정규직
국정원
84
순식
조중동
살리
충청
확실한
##이거
화폐
다큐
낮추
해주는
66
입사
놀아
들은
몇번
1번
4개
시인
무렵
비유
말이야
##는건데
##스탄
##조정
끌어올
##시티
지적했다
##le
이분
고전
아쉬운
##잘못
고등학생
일치
개국
후쿠
성범죄
당일
엔터
##테인
##보이는
##물관
의하면
해제
##있는거
##그림
점포
없던
아닙니까
오바마
면역
살아야
승진
이대로
더벨
구별
본사
유아
편하게
##나온
종로
개학
초등학생
멀티
##섰다
기사입니다
공익
##있다고
아메
선도
1회
공동체
우유
모순
57
입찰
안고
##지능
총괄
신념
##타령
돌입
##립니다
전무
싶지
보다가
팀장
갈라
##레이션
버렸
##거같은데
전사
큰일
크루
합법
예의
않았지만
생각했다
하위
##맞고
##올림픽
도달
어마
인정받
자림
뜬금
운명
하지마라
존재하는
적어
단위
입맛
##나보네
나빠
신앙
##있어서
제주도
잡는
다스
앞둔
슬픈
불어
아아
머릿
결의
유대
써서
막을
##시한
##am
마트
징계
스탠
##포르
3대
서서히
193
##십니까
임직원
수면
주자
##CD
##하였고
태양광
지명
안해
맥주
##보게
바르
태국
법무부장관
인격
적절한
숨어
##세상
갖게
정도면
안팎
IP
건드
히어로
지은
##았다는
개정안
합쳐
##인데요
##할것
오면
역겨
아이고
##모르
뭐하는
전직
신상
2005년
이만화
품목
##공간
##고생
들여다
가볍게
88
또라이
##걸까
시작한다
계신
좋아서
느끼고
격려
원숭이
스님
증권사
##그릇
##웠던
생각하지
히로
눈길
늘려
태평
초래
영업이익
##하다니
모은
소모
##고한
보존
##모델
대체로
떨어뜨
업데이트
한숨
63
남부
##빨갱
지나가
탈북
크기
com
싫어하는
교활
캐스팅
는가
작동
##번에
않았고
사라진
떠들
##18
뛰어넘
건전
언젠가
국민연금
점심
##시스
올릴
##자유
##장한
##이잖아
포르
평창
해상
표출된
떠나서
대륙
남탓
필리핀
시체
안나오
결말
케이스
##바람
말자
절감
양보
부적
인턴
경매
전주
소외
저딴
##했으니
##OOO
토요일
캠페인
건조
초월
덕분
주행
당분간
29일
##통수
김민
일진
##는건가
짐작
접속
뻔한
극혐
명절
##생명
자위
##이사
행보
늘리
마르
주어
##였다고
메르스
하수
오오
리더십
민지
다녔
11시
문대통령
72
발생한
용기
##해놓고
넘치는
배터리
무엇인지
조롱
풀이
방위
솔루션
##독재
하는건
MA
하시는
플랫폼
충전
케이블
##얘기
되나
로드
전제
비전
하더니
30년
2000년
##내야
어딘
바꿀
##하겠습니다
순환
지나치게
잡혀
회피
##싱턴
안됨
잊지
업그
찌질
강렬
꼴통
유연
독점
김수
##니즘
않음
지리
있나요
##해온
융합
많지
짓거리
혈액
비하면
될까
전일
##였어
작중
2천
섭취
이끄
##으려는
동일한
펼치
자네
청춘
관여
판타지
멸망
쓰레
예상된다
재활
각성
넓은
해준
김상
도박
어쩔수
##공단
엄청나게
##바다
수소
교통사고
뒤늦
##클럽
##가루
극대
도와주
다음주
##지구
아무튼
클라우
정서
엉덩
또다시
사서
##하진
영장
진작
편견
먹으면
다행히
정확하게
##아냐
몰고
바람직
대단하다
낫다
일각
##공격
추모
아니에요
##일듯
##시켜라
이재명
일으킨
남기
유용
##검찰
이천
정답
강행
육아
##렸던
2만
우한폐렴
##대책
있긴
안되고
농민
700
사죄
쫓아
##기능
더더
포스트
대목
절망
데이트
컨셉
려면
상황이다
크리스마스
부작용
트레이
서버
중구
세뇌
성매매
하여간
편의점
스타트
##없다고
받아서
##일으
베이징
안달
갖춰
같다고
소프트웨어
합동
동화
##개념
들면
당첨
자회사
넘기
독특한
크로
세부
##법인
하지말
전수
윤미향
현황
방금
촉진
NH
높여
무덤
대해선
될지
4000
여신
했는지
##PG
이상하게
##릅니다
##와라
피고
마디
상환
한방
##그냥
##시네
나이트
떨어질
야권
##들여
변명
소상
IMF
##구멍
FTA
위조
##내서
의해서
있겠지만
교육청
수구
주장하는
##고속
##인건
##위기
제외하고
타입
낭비
믿음
##공원
아닐까요
##스럽고
운영하는
##재산
사실이다
##나가는
정황
넘쳐
발급
철거
돌아가는
연평
화성
나대
##리는게
무섭다
간신
유독
한창
신도
확인할
##트라
1주
기재
잃고
버전
장군
심화
##스트라
싫은
디스플레이
지원금
누르
억제
최적
3번
자문
수습
동작
타자
머리카
옳은
교과서
힐링
식민지
병사
##시키기
놀이
##어주
##이건
외계
오피스
설문
해놓고
정통
그딴
이룬
박영
##없어서
왜이리
##TBC
##셨다
##로워
##당하는
전라
가속
튀어나
치러
##의자
식물
궁금하다
보낼
##현실
찾기
모르지만
상관없이
골목
왤케
경주
느끼게
열린다
하신
추미애
미성
이라크
친중
소요
새롭
민원
공개된
한동안
##스케
되냐
##빠진
성별
주리
##대출
강연
신화
3개월
쩝쩝
메갈
모험
##되나
맘대로
침략
생겼다
사망자
준우
경찰서
임무
일어났
2004년
유족
##꺼야
모범
대구시
멕시코
##다는건
나가서
이용하는
운전자
##없는데
빠지
##마저
시작된
여러가지
들어가서
##피탈
주었다
궁극
앞뒤
##하든
듯하다
정성
김지
##마음
올렸다
동해
좋겠습니다
티켓
##사기
어리석
##노조
기후
개웃
NC
시티
조장
다음날
##대문
파는
반려
조합원
피곤
거냐
많을
애매
조명
##경북
냉장
인공지능
신라
##중앙
따져
종족
##보며
벌이
##근데
교육부
##리나
여권
창피
자까
민정
암살
##꾸로
연휴
낮아
##하루
##이지요
엉망
이쁜
후진
실정
##ing
##겠지요
이어지는
##일본
거고
77
바꾼
사랑해
김일성
서브
놀랍
죽이는
되어서
스트레
##데미
꼬리
시민단체
결심
##시작
대한항공
편입
귀국
전하
##대사
오만
갑작
보소
##자본
##폭력
놀고
끌어내
##인게
받아들여
즐겨
대주
취지
힘내세요
##토리
소멸
몸매
재밌는
치유
성공한
바깥
하나같이
히트
절실
파일
지네
40대
정원
박스
이적
싶은데
대접
아는데
살아있는
성숙
##TE
토끼
응급
##그라
##가치
스승
1화
주류
독립운동
힘입
바스코
얻고
학과
갖는
워싱턴
줄줄
요약
근접
택배
당하는
뭐니
명분
이정도면
반대하는
시키는
거친
미션
놀러
살다
메리
##겠니
추경
##셨으면
싶습니다
수령
아샤
##가포르
틀림
##생산
교훈
연인
이쪽
67
가공
저정도
인건
출석
못해서
사라지
중계
남긴
##지방
가해자
하느
##더러
퀄리티
##느낌
환상
벌어진
철회
그러자
##비율
포켓
##어준
커버
상향
살면서
보내는
##인것
##교수
상생
골드
먼지
##가운
급등
천연
98
##파크
선제
마사
##우지
신임
로맨스
##테인먼트
걸렸
2021
##풀이
##약품
서술
##정당
싱가포르
싶으면
바란
컨트롤
게재
엉뚱
##역시
음료
부끄러운
곤란
빌딩
앞장서
연수
제이
않냐
패러디
깨끗한
하려
포트
코로나19
알렉
돌아다니
하여튼
위축
이해찬
있네요
꺼져
찾고
##네시아
금속
성명
##놀이
##보드
##16
CG
내야
##추어
죽창
지인
##로이드
##없으면
##위원장
있을지
vs
##야구
##월드
##더라고요
붙잡
카운
생각한
끝나면
패널
세탁
생기는
그다지
비핵화
구석
IB
조폭
##공화
길거리
##키는
전지
명작
##CC
가벼운
제공하는
1시간
##13
금강
거꾸로
마음대로
이병
등장한다
심상
2배
학살
##바지
##구니
추격
##아주
##사이트
시키고
모인
심하게
생생
서해
김용
보좌
##였음
2위
##종일
##대기
68
납부
##14
##시죠
견해
플라
콜라
저작
##지상
1개
##순위
영토
공지
프린
##경쟁
조항
관세
움직이는
하여금
스코
사우
돌아와
김연
2002년
##나오는
##출신
##el
특화
등장한
정신나간
막장
페이
192
지침
74
##되냐
공기업
욕하고
##운영
막고
유전자
경호
##NA
세기
##가다
금요일
##봉사
하거나
달린
기지
##둘러
##치료
바쁜
사면
즐거운
잔뜩
발목
노하
##알고
공무
##받침
철강
동북
컨설팅
##였으면
법칙
특별히
##호텔
100만
셋째
매니저
앞선
같네
삼국
퇴출
인도네시아
말인가
간담회
에라이
걸릴
않았을
골라
저자
나눔
재미있는
육군
##못해
이용자
전담
그치
별다른
##안되는
맡고
##버릴
##디언
착수
주머니
방학
아니었
과세
69
정면
봉쇄
재현
##하듯
해줄
서명
##이후
##받지
##시피
##리는데
양쪽
재건축
현역
##동원
채무
유니클
안그
##패스
실화
만나는
시중
나서서
비타
확실하게
쓴다
##래요
##용차
##꺼다
살펴보
##부인
##축구
##인걸
탑승
적지
지나가는
국어
승객
미스터
아스
스웨
확충
강남구
말아야
선별
다닌
##이신
개척
납득
있었을
##아파트
내주
물었다
올라오
##하더라도
아름답
들어왔
##줘요
클라우드
표기
저소득
편지
##다는걸
유혹
지역구
밴드
대개
어떨까
놀라운
경찰청
잡지
해산
거품
개연
2007
미루
되돌
탄압
여동생
클래식
오를
일어나는
행정부
민폐
원천
누워
어딜
대항
AP
커지
플레이어
최상
권고
그중
##어마
징징
습관
포털
##해봐라
##상한
앉아서
##어지고
받으면
조카
미리보기
가요
FC
흥분
용산
와인
죽으면
##저나
있구나
못했던
발표한
산하
250
협정
티비
무엇인가
##졌는데
##하자는
고딩
##밀한
아나운
때문입니다
JTBC
##가기
것인데
한게
##100
73
##안타
조상
##졌다고
##연한
##대전
##우기
모래
인스타
##런스
##금리
과목
에너
##연맹
브리핑
시비
남는
이웹툰
##들이
가이드
충분한
레전
유가족
잠수
백만
지는
암튼
만나서
유재
있었다고
##분야
상가
늘어날
포지
요구하는
개헌
##is
순수한
이용해서
##내지
심의
추방
광장
워크
##보여
안됩니다
열었다
보육
표절
측근
다짐
##리포
왔는데
더한
3D
##키지
과시
화물
##주도
급속
그대
국적
##양반
2003년
자세한
##체계
##천지
##하구
파고
삼성전
##트로
아리
##오빠
역대급
예뻐
신비
##드려요
키우는
전기차
##마니
고스란히
##미널
바라보는
비로
지키는
지키고
##통일
하필
구름
아트
잘살
##버린다
고개
살게
라이프
순서
##id
조세
##FC
##달라는
드림
##재단
안맞
##어질
걸음
기다렸
##달아
10대
가방
퇴근
모욕
불평
겨냥
##자료
들을
이낙연
거슬
제임
성립
여긴
##겠군
임총
없네요
맞을
##시요
장수
구성원
##테고
##25
온다
부끄럽
전광
입지
울고
해봐라
예금
##아프
맥락
하는것
금호
초록
프라이
##카페
안산
위성
여파
문씨
89
으면서
읽는
다닐
##스턴
문정부
터져
거치
그쪽
국익
슬퍼
분산
병역
코드
##반대
클린
##인사
문가
등판
현직
면적
없는거
했지
저걸
성형
터키
기다리는
탁월
스러운
연료
난민
무작
개소
1점
##테일
76
쌓아
최다
마이너스
소용
##기구
이집
##하자고
##사리
내릴
자칫
조금이라도
##자면
KIA
서부
##겟지
구원
어렵게
않아요
배웠
망할
오고
##못하는
##자원
##식품
자부
IC
그레이
관종
##피해
포럼
없다면
대통
##일리
지났
모드
브레이
##되자
잘생긴
나불
##걸고
슬슬
78
관료
등신
영화제
면제
기온
##인척
##거리고
봤을
독서
##장난
더구나
대학원
감탄
##재앙
재발
##부장
##르르
클리
유쾌
주년
방침이다
##쇼핑
내외
이제야
##줘도
원자력
출생
따지
맙시다
단축
##실험
엑스
호응
##ol
사립
다해
##마크
지켜보
꼼꼼
##이닝
##히지
인정하고
##이오
부디
기쁘
이마트
헤드
주재
어두운
대표팀
레알
영구
유해
##학자
무인
미성년
심심
발표했다
지지자
##걸이
##주얼
업그레이드
나타나는
나란히
차세대
사격
##17
공평
왜이렇게
사라져
뒷받침
안하면
지니고
떳떳
코난
어쩌고
막기
대미
기뻐
무선
전술
김제
같지
여섯
농구
내밀
스튜디오
중시
몰랐다
현안
귀엽다
부른
문화재
##지않고
공개했다
##세여
마이클
문제점
본능
가입자
얼음
고구마
자진
대구경북
납품
훈훈
대행
싫으면
영남
수장
중견
##는건지
비례대표
계절
제로
변태
간절
류현
니들
소지
이용할
##못하고
장학금
무소
이루어진
에이스
되었습니다
치우
##보소
젊은이
##디아
더욱이
전락
##듣고
지목
##시켜서
##24
##수익
아닌듯
##하느라
비로소
소주
10억
보험료
보네
##냄새
짜증나
##닉스
크레
억압
##내며
이글
불량
##지네
일하고
보유하고
##컨대
##거죠
나리
박탈
주일
##기기
어린이집
그러지
침몰
맡아
발생하는
많습니다
##쳐먹
개통
##투자증권
경상도
원활
아깝다
나선다
온몸
##il
없었고
않다는
##입고
하는구나
담고
아니라면
지킬
##지수
내정
유산
전교조
페이지
트로
알파
뭐든
미드
휴식
저래
아티
잘생겼
가져다
공제
생각했는데
머리카락
안타까운
왕자림
통치
##화학
하느님
##ac
보이는데
##하나요
##머스
##께요
어마어마
##수석
당할
김해
소름돋
##짓거리
없어도
카이
목포
고무
깡패
한꺼
불쌍하다
이준
##미나
거뒀
##오프
오죽
배정
버튼
녹음
##질러
05
참조
증여
3천
##비리
##운다
그나저나
##기자
순이익
드물
범행
오락
복원
##중한
해당하는
준수
좌절
목요일
##었냐
둘러싸
1500
망해
##재밌
틀어
데모
일환
6000
##세한
이런게
이어진
한사람
기대하고
자빠졌네
##보인다
했더니
모르나
##번호
출동
무서워서
학대
문슬람
들어올
사용한
##ion
3차
로그
배울
##부족
스릴러
웃겨
97
기금
일당
홍어
위탁
##가자
##한당
강해효
스파이
##유럽
진학
조리
강세
시전
남을
##경우
##대응
주저
##같음
돌리
##라는게
죽어도
포착
마루
수련
존재한다
##전히
지난주
나고
한꺼번에
부천
##소시
MB
줄어든
흑인
사랑해요
##아빠
명시
##았어
등장인물
전해졌
##기록
좋겠어요
골든
##지않은
통하여
##겠음
##라시
휘두
네덜
들어갔다
범인
되돌아
##연대
##리우드
##거리며
만들어야
되도록
배급
페르
생계
국무총리
건강한
이런데
드러났
폭풍
96
더더욱
간주
##일지
배틀
날카
베르
섬유
없으며
만나게
나옴
82
지고
##지상주의
볼수
부를
이윤
피할
회상
구성된
지소
스키
##중심
피아노
커서
있었다는
##교회
##쓴다
##기야
돼서
아니죠
차고
두드러
그림체가
사후
##파이어
수험
##청산
생성
무산
형편
##하하
##이시
##준비
시정
##미아
되며
맞춘
한결
놀란
자매
비웃
자유롭게
묻고
중순
상한
까닭
수준이다
외교부
##싶어
##거에요
87
냈다
관점
이러면
법조
허무
지극
##서야
##내내
새삼
무거운
##됐고
있으므로
불공
만기
만나고
손혜원
##같아
02
부도
##못한
썩어
##집회
풍경
종전
닮은
비정상
계란
##이야기
##타운
총회
놓여
독도
당원
단편
관행
##이런
육체
##지노
어딨
몰라서
##나갈
##할려고
옵션
감축
하우스
3만
경유
마누라
##자동차
##빼고
싶네요
부들
먹여
중재
고시
지우
무효
##자연
성우
쇼핑몰
사원
출장
대략
끌어들
##ot
##의미
이대
자사
좋지만
미치는
말하지
이르는
병행
정밀
##예산
##꺼면
한진
있었기
텔레콤
나라냐
##나온다
철저하게
또다른
실태
로스
좋았다
웃는
친절
프라
94
불렀
적발
유효
행복하게
트럭
느껴지는
오지게
패스
강도
스페셜
##신고
거래소
이사회
명문
##cm
넥센
김포
##중간
내비
제정신
운송
구해
합작
주시
날짜
통증
싶을
79
과일
했으니
10만
박물관
##음악
법무장관
달콤
##라라
찍고
차지하는
방탄소년
면세
얻는
시작하는
상태다
꼰대
##하여야
오마
##니까요
배송
개뿔
##알아
교섭
##렸고
스프
##는거죠
유머
고구려
날뛰
86
뭐하냐
아이디
기대할
##전화
클로

