<s>
<pad>
</s>
<unk>
<mask>
[UNK0]
[UNK1]
[UNK2]
[UNK3]
[UNK4]
[UNK5]
[UNK6]
[UNK7]
[UNK8]
[UNK9]
[unused0]
[unused1]
[unused2]
[unused3]
[unused4]
[unused5]
[unused6]
[unused7]
[unused8]
[unused9]
[unused10]
[unused11]
[unused12]
[unused13]
[unused14]
[unused15]
[unused16]
[unused17]
[unused18]
[unused19]
[unused20]
[unused21]
[unused22]
[unused23]
[unused24]
[unused25]
[unused26]
[unused27]
[unused28]
[unused29]
[unused30]
[unused31]
[unused32]
[unused33]
[unused34]
[unused35]
[unused36]
[unused37]
[unused38]
[unused39]
[unused40]
[unused41]
[unused42]
[unused43]
[unused44]
[unused45]
[unused46]
[unused47]
[unused48]
[unused49]
[unused50]
[unused51]
[unused52]
[unused53]
[unused54]
[unused55]
[unused56]
[unused57]
[unused58]
[unused59]
[unused60]
[unused61]
[unused62]
[unused63]
[unused64]
[unused65]
[unused66]
[unused67]
[unused68]
[unused69]
[unused70]
[unused71]
[unused72]
[unused73]
[unused74]
[unused75]
[unused76]
[unused77]
[unused78]
[unused79]
[unused80]
[unused81]
[unused82]
[unused83]
[unused84]
[unused85]
[unused86]
[unused87]
[unused88]
[unused89]
[unused90]
[unused91]
[unused92]
[unused93]
[unused94]
[unused95]
[unused96]
[unused97]
[unused98]
[unused99]
[unused100]
[unused101]
[unused102]
[unused103]
[unused104]
[unused105]
[unused106]
[unused107]
[unused108]
[unused109]
[unused110]
[unused111]
[unused112]
[unused113]
[unused114]
[unused115]
[unused116]
[unused117]
[unused118]
[unused119]
[unused120]
[unused121]
[unused122]
[unused123]
[unused124]
[unused125]
[unused126]
[unused127]
[unused128]
[unused129]
[unused130]
[unused131]
[unused132]
[unused133]
[unused134]
[unused135]
[unused136]
[unused137]
[unused138]
[unused139]
[unused140]
[unused141]
[unused142]
[unused143]
[unused144]
[unused145]
[unused146]
[unused147]
[unused148]
[unused149]
[unused150]
[unused151]
[unused152]
[unused153]
[unused154]
[unused155]
[unused156]
[unused157]
[unused158]
[unused159]
[unused160]
[unused161]
[unused162]
[unused163]
[unused164]
[unused165]
[unused166]
[unused167]
[unused168]
[unused169]
[unused170]
[unused171]
[unused172]
[unused173]
[unused174]
[unused175]
[unused176]
[unused177]
[unused178]
[unused179]
[unused180]
[unused181]
[unused182]
[unused183]
[unused184]
[unused185]
[unused186]
[unused187]
[unused188]
[unused189]
[unused190]
[unused191]
[unused192]
[unused193]
[unused194]
[unused195]
[unused196]
[unused197]
[unused198]
[unused199]
!
"
%
'
,
-
.
/
0
1
2
3
4
5
6
7
8
9
:
?
@
A
B
C
D
E
F
G
H
I
J
K
L
M
N
O
P
Q
R
S
T
U
V
W
X
Y
Z
a
b
c
d
e
f
g
h
i
j
k
l
m
n
o
p
q
r
s
t
u
v
w
x
y
z
~
·
가
각
갂
갃
간
갅
갆
갇
갈
갉
갊
갋
갌
갍
갎
갏
감
갑
값
갓
갔
강
갖
갗
갘
같
갚
갛
개
객
갞
갟
갠
갢
갣
갤
갥
갧
갩
갫
갬
갭
갮
갯
갰
갱
갲
갳
갴
갵
갶
갷
갸
갹
갺
갼
갿
걀
걁
걃
걆
걇
걈
걉
걊
걋
걌
걍
걎
걐
걑
걒
걓
걔
걕
걖
걘
걜
걤
걥
걧
걨
걩
걬
걭
거
걱
걲
걳
건
걵
걶
걷
걸
걹
걺
걻
걼
걽
걾
걿
검
겁
겂
것
겄
겅
겆
겇
겈
겉
겊
겋
게
겍
겎
겏
겐
겒
겓
겔
겕
겗
겙
겚
겛
겜
겝
겞
겟
겠
겡
겢
겣
겤
겥
겦
겧
겨
격
겪
겫
견
겭
겮
겯
결
겱
겲
겳
겴
겵
겷
겸
겹
겺
겻
겼
경
겾
겿
곀
곁
곂
곃
계
곅
곆
곈
곋
곌
곔
곕
곖
곗
곘
곙
곚
곛
곜
곝
곟
고
곡
곢
곣
곤
곥
곧
골
곩
곪
곫
곬
곭
곮
곯
곰
곱
곲
곳
곴
공
곶
곷
곸
곹
곺
곻
과
곽
관
괁
괂
괃
괄
괅
괌
괍
괏
괐
광
괒
괓
괔
괕
괖
괗
괘
괙
괜
괝
괞
괠
괨
괫
괬
괭
괴
괵
괸
괺
괼
굄
굅
굇
굈
굉
굌
굎
교
굑
굔
굗
굘
굚
굠
굡
굣
굤
굥
굦
굧
굨
굩
굪
굫
구
국
굮
굯
군
굱
굲
굳
굴
굵
굶
굷
굺
굻
굼
굽
굾
굿
궀
궁
궂
궃
궄
궅
궆
궇
궈
궉
권
궍
궏
궐
궑
궓
궘
궙
궛
궜
궝
궠
궤
궥
궨
궬
궭
궮
궯
궲
궳
궵
궷
궸
궹
귀
귁
귄
귇
귈
귐
귑
귓
귔
귕
귖
귘
귛
규
귝
균
귣
귤
귥
귦
귬
귭
귯
귱
귴
귷
그
극
귺
귻
근
귽
귾
귿
글
긁
긂
긃
긄
긆
긇
금
급
긊
긋
긌
긍
긎
긏
긐
긑
긒
긓
긔
긕
긘
긛
긜
긞
긤
긥
긧
긩
긪
긬
긯
기
긱
긲
긴
긵
긶
긷
길
긹
긺
긻
긼
긿
김
깁
깂
깃
깄
깅
깆
깇
깈
깉
깊
깋
까
깍
깎
깐
깑
깒
깓
깔
깕
깖
깗
깛
깜
깝
깞
깟
깠
깡
깢
깣
깤
깥
깦
깧
깨
깩
깪
깬
깯
깰
깱
깵
깸
깹
깺
깻
깼
깽
깾
꺀
꺄
꺅
꺆
꺈
꺊
꺋
꺌
꺍
꺏
꺓
꺔
꺕
꺗
꺘
꺙
꺚
꺜
꺟
꺠
꺢
꺤
꺨
꺰
꺳
꺴
꺵
꺼
꺽
꺾
껀
껃
껄
껅
껇
껌
껍
껏
껐
껑
껒
껓
껔
껕
껗
께
껙
껚
껜
껠
껨
껩
껫
껬
껭
껰
껳
껴
껵
껶
껸
껼
꼄
꼅
꼇
꼈
꼉
꼊
꼌
꼍
꼏
꼐
꼣
꼤
꼥
꼨
꼬
꼭
꼮
꼰
꼲
꼳
꼴
꼵
꼶
꼷
꼹
꼻
꼼
꼽
꼿
꽀
꽁
꽂
꽃
꽄
꽅
꽆
꽇
꽈
꽉
꽊
꽌
꽐
꽑
꽘
꽙
꽛
꽜
꽝
꽠
꽤
꽥
꽦
꽨
꽭
꽳
꽴
꽹
꽼
꾀
꾁
꾄
꾈
꾐
꾕
꾜
꾝
꾠
꾤
꾬
꾭
꾱
꾳
꾸
꾹
꾺
꾼
꾾
꾿
꿀
꿁
꿂
꿃
꿄
꿇
꿈
꿉
꿋
꿌
꿍
꿎
꿏
꿐
꿑
꿓
꿔
꿕
꿘
꿜
꿝
꿤
꿥
꿧
꿨
꿩
꿬
꿯
꿰
꿱
꿲
꿴
꿸
꿹
꿻
꿿
뀀
뀃
뀄
뀅
뀈
뀌
뀍
뀐
뀔
뀜
뀝
뀟
뀠
뀡
뀤
뀨
뀩
뀪
뀬
뀰
뀱
뀳
뀷
뀸
뀹
뀻
뀽
끀
끄
끅
끆
끈
끉
끊
끋
끌
끍
끎
끏
끐
끓
끔
끕
끗
끘
끙
끚
끛
끜
끝
끞
끟
끠
끡
끤
끨
끯
끰
끵
끸
끼
끽
끾
낀
낂
낃
낄
낅
낋
낌
낍
낎
낏
낐
낑
낒
낓
낔
낕
낗
나
낙
낚
낛
난
낝
낞
낟
날
낡
낢
낣
낤
낥
낧
남
납
낪
낫
났
낭
낮
낯
낰
낱
낲
낳
내
낵
낶
낸
낻
낼
냄
냅
냇
냈
냉
냊
냋
냌
냍
냎
냏
냐
냑
냒
냔
냗
냘
냙
냠
냡
냣
냤
냥
냦
냧
냨
냩
냪
냫
냬
냰
냴
냼
냿
넀
넁
넄
너
넉
넊
넋
넌
넎
넏
널
넑
넒
넓
넔
넖
넗
넘
넙
넚
넛
넜
넝
넞
넟
넠
넡
넢
넣
네
넥
넦
넧
넨
넫
넬
넭
넴
넵
넶
넷
넸
넹
넺
넻
넼
넽
넾
넿
녀
녁
녂
년
녅
녆
녇
녈
념
녑
녓
녔
녕
녖
녗
녘
녙
녚
녛
녜
녝
녠
녤
녬
녭
녯
녰
녱
녴
노
녹
녺
녻
논
녽
녾
녿
놀
놁
놂
놃
놇
놈
놉
놊
놋
놌
농
놎
놏
놐
놑
높
놓
놔
놕
놖
놘
놛
놜
놝
놤
놥
놧
놨
놩
놪
놬
놯
놰
놴
놸
뇀
뇁
뇄
뇅
뇌
뇍
뇐
뇔
뇜
뇝
뇟
뇠
뇡
뇤
뇨
뇩
뇬
뇰
뇸
뇹
뇻
뇽
눀
눂
눃
누
눅
눈
눉
눋
눌
눍
눓
눔
눕
눗
눙
눚
눛
눜
눝
눞
눟
눠
눤
눨
눰
눳
눴
눵
눸
눹
눼
눽
뉀
뉄
뉅
뉌
뉍
뉑
뉔
뉘
뉙
뉜
뉠
뉨
뉩
뉫
뉬
뉭
뉰
뉴
뉵
뉸
뉼
늄
늅
늇
늉
늌
늎
늏
느
늑
늒
늓
는
늕
늖
늗
늘
늙
늚
늛
늜
늟
늠
늡
늣
늤
능
늦
늧
늨
늩
늪
늫
늬
늭
늰
늴
늼
늽
늿
닁
닄
니
닉
닊
닋
닌
닍
닏
닐
닑
닒
닗
님
닙
닚
닛
닜
닝
닞
닟
닠
닡
닢
닣
다
닥
닦
닧
단
닩
닪
닫
달
닭
닮
닯
닰
닱
닲
닳
담
답
닶
닷
닸
당
닺
닻
닼
닽
닾
닿
대
댁
댂
댄
댇
댈
댉
댏
댐
댑
댓
댔
댕
댖
댗
댘
댙
댚
댛
댜
댝
댠
댣
댤
댥
댦
댬
댭
댯
댰
댱
댲
댴
댷
댸
댼
덀
덈
덋
덌
덍
더
덕
덖
덗
던
덙
덛
덜
덝
덞
덟
덢
덣
덤
덥
덦
덧
덨
덩
덪
덫
덬
덭
덮
덯
데
덱
덲
덴
덷
델
덹
뎀
뎁
뎂
뎃
뎄
뎅
뎆
뎇
뎈
뎉
뎊
뎋
뎌
뎍
뎐
뎓
뎔
뎜
뎝
뎟
뎠
뎡
뎤
뎦
뎧
뎨
뎬
뎻
뎽
도
독
돆
돇
돈
돉
돋
돌
돍
돎
돏
돐
돒
돓
돔
돕
돖
돗
돘
동
돚
돛
돜
돝
돞
돟
돠
돡
돤
돨
돩
돰
돱
돳
돴
돵
돸
돻
돼
돽
돾
됀
됃
됄
됌
됍
됏
됐
됑
됒
됔
됗
되
됙
됚
된
됝
됟
될
됡
됢
됤
됥
됧
됨
됩
됫
됬
됭
됮
됰
됱
됳
됴
됵
됸
됻
됼
둄
둅
둇
둉
둊
둋
둌
둏
두
둑
둒
둔
둗
둘
둙
둚
둛
둞
둟
둠
둡
둣
둥
둦
둧
둨
둩
둪
둫
둬
둭
둰
둴
둼
둽
둿
뒀
뒁
뒄
뒇
뒈
뒌
뒐
뒑
뒓
뒘
뒙
뒛
뒜
뒝
뒞
뒠
뒤
뒥
뒨
뒫
뒬
뒴
뒵
뒷
뒸
뒹
뒺
뒼
듀
듁
듄
듇
듈
듐
듑
듓
듕
듘
드
득
듞
듟
든
듡
듢
듣
들
듥
듦
듧
듨
듩
듪
듫
듬
듭
듯
듰
등
듲
듳
듴
듵
듶
듷
듸
듹
듼
딀
딈
딉
딋
딍
디
딕
딖
딘
딛
딜
딝
딞
딤
딥
딧
딨
딩
딪
딫
딬
딭
딮
딯
따
딱
딲
딳
딴
딷
딸
딹
딺
딻
딿
땀
땁
땃
땄
땅
땆
땈
땉
땋
때
땍
땎
땐
땓
땔
땜
땝
땟
땠
땡
땢
땣
땤
땦
땧
땨
땩
땬
땰
땸
땽
떄
떅
떈
떌
떔
떗
떘
떙
떠
떡
떢
떣
떤
떥
떦
떧
떨
떩
떪
떫
떮
떯
떰
떱
떳
떴
떵
떶
떷
떸
떹
떺
떻
떼
떽
떾
뗀
뗄
뗌
뗍
뗏
뗐
뗑
뗔
뗗
뗘
뗙
뗜
뗠
뗨
뗫
뗬
뗭
뗳
뗴
뗵
뗸
뗼
똇
똈
또
똑
똒
똔
똗
똘
똙
똚
똝
똟
똠
똡
똣
똥
똦
똧
똨
똩
똫
똬
똭
똮
똰
똴
똵
똷
똻
똼
똽
똿
뙀
뙁
뙄
뙇
뙈
뙌
뙓
뙛
뙜
뙝
뙤
뙥
뙨
뙬
뙴
뙷
뙸
뙹
뙿
뚀
뚁
뚄
뚈
뚊
뚕
뚜
뚝
뚞
뚠
뚢
뚣
뚤
뚥
뚦
뚧
뚨
뚫
뚬
뚭
뚯
뚱
뚴
뚵
뚷
뚸
뚹
뚼
뛀
뛃
뛋
뛌
뛍
뛓
뛔
뛕
뛝
뛟
뛣
뛥
뛧
뛨
뛰
뛱
뛴
뛸
뜀
뜁
뜃
뜄
뜅
뜌
뜍
뜐
뜔
뜛
뜜
뜝
뜡
뜨
뜩
뜪
뜬
뜮
뜯
뜰
뜱
뜳
뜷
뜸
뜹
뜻
뜼
뜽
뜾
뜿
띀
띁
띃
띄
띅
띈
띌
띔
띕
띙
띟
띠
띡
띤
띧
띨
띰
띱
띳
띴
띵
띶
띸
띻
라
락
띾
띿
란
랁
랂
랃
랄
랅
랆
랇
랈
랉
랊
랋
람
랍
랎
랏
랐
랑
랒
랓
랔
랕
랖
랗
래
랙
랚
랜
랟
랠
랡
램
랩
랫
랬
랭
랮
랯
랰
랱
랲
랳
랴
략
랸
랺
랻
랼
럄
럅
럇
럈
량
럊
럌
럎
럏
럐
럑
럔
럗
럘
럠
럣
럤
럥
러
럭
럮
럯
런
럱
럲
럳
럴
럵
럶
럷
럸
럻
럼
럽
럾
럿
렀
렁
렂
렃
렄
렅
렆
렇
레
렉
렊
렋
렌
렏
렐
렑
렓
렗
렘
렙
렚
렛
렜
렝
렞
렠
렡
렢
렣
려
력
렦
렧
련
렩
렪
렫
렬
렭
렴
렵
렷
렸
령
렺
렻
렼
렽
렾
렿
례
롁
롄
롈
롐
롑
롓
롔
롕
롘
로
록
롞
론
롡
롣
롤
롥
롫
롬
롭
롮
롯
롰
롱
롲
롳
롴
롵
롶
롷
롸
롹
롻
롼
뢀
뢁
뢈
뢉
뢋
뢌
뢍
뢐
뢓
뢔
뢕
뢘
뢜
뢥
뢨
뢩
뢰
뢱
뢴
뢸
룀
룁
룃
룄
룅
룈
료
룍
룐
룔
룜
룝
룟
룠
룡
룢
룤
룧
루
룩
룪
룬
룯
룰
룱
룷
룸
룹
룻
룽
룾
룿
뤀
뤁
뤂
뤃
뤄
뤅
뤈
뤌
뤔
뤕
뤗
뤘
뤙
뤜
뤟
뤠
뤡
뤤
뤨
뤩
뤫
뤰
뤱
뤳
뤵
뤸
뤼
뤽
륀
륄
륌
륍
륏
륐
륑
륔
류
륙
륜
륟
률
륨
륩
륫
륭
륮
륰
륲
륳
르
륵
륶
른
륹
륻
를
륽
륾
륿
릀
릁
릂
릃
름
릅
릆
릇
릈
릉
릊
릋
릌
릍
릎
릏
릐
릑
릔
릘
릠
릡
릣
릥
릫
리
릭
릮
린
릱
릲
릳
릴
릵
릶
릷
릸
릹
릻
림
립
릾
릿
맀
링
맂
맃
맄
맅
맆
맇
마
막
맊
맋
만
맍
많
맏
말
맑
맒
맓
맔
맕
맖
맗
맘
맙
맚
맛
맜
망
맞
맟
맠
맡
맢
맣
매
맥
맨
맩
맪
맫
맬
맴
맵
맷
맸
맹
맺
맻
맼
맽
맿
먀
먁
먄
먆
먇
먈
먐
먑
먓
먕
먖
먗
먘
먛
먜
먠
먤
먱
머
먹
먺
먻
먼
먽
먾
먿
멀
멁
멂
멈
멉
멊
멋
멌
멍
멎
멏
멐
멑
멒
멓
메
멕
멘
멛
멜
멤
멥
멧
멨
멩
멪
멫
멬
멭
멮
멯
며
멱
멲
면
멵
멶
멷
멸
멿
몀
몁
몃
몄
명
몆
몇
몈
몉
몊
몋
몌
몐
몔
몟
몡
몢
몣
모
목
몪
몫
몬
몮
몯
몰
몱
몲
몴
몷
몸
몹
몺
못
몼
몽
몾
몿
뫀
뫁
뫂
뫃
뫄
뫅
뫈
뫌
뫔
뫕
뫗
뫘
뫙
뫚
뫜
뫠
뫤
뫼
뫽
묀
묄
묏
묑
묘
묙
묜
묠
묨
묫
묭
묯
무
묵
묶
묷
문
묹
묺
묻
물
묽
묾
묿
뭀
뭁
뭃
뭄
뭅
뭇
뭈
뭉
뭊
뭋
뭌
뭍
뭎
뭏
뭐
뭑
뭔
뭕
뭗
뭘
뭙
뭚
뭟
뭠
뭡
뭣
뭤
뭥
뭦
뭧
뭨
뭩
뭫
뭬
뭭
뭰
뭴
뭵
뭷
뭽
뭿
뮁
뮈
뮉
뮌
뮏
뮐
뮘
뮙
뮛
뮜
뮝
뮤
뮥
뮦
뮨
뮫
뮬
뮴
뮷
뮹
뮻
뮼
므
믁
믂
믄
믆
믇
믈
믉
믌
믏
믐
믑
믓
믕
믖
믘
믙
믛
믜
믝
믠
믣
믤
믬
믯
믰
믱
미
믹
믺
믻
민
믽
믾
믿
밀
밁
밂
밇
밈
밉
밊
밋
밌
밍
밎
및
밐
밑
밒
밓
바
박
밖
밗
반
밙
밚
받
발
밝
밞
밟
밠
밡
밢
밣
밤
밥
밦
밧
밨
방
밪
밫
밬
밭
밮
밯
배
백
밲
밳
밴
밷
밸
밹
밿
뱀
뱁
뱃
뱄
뱅
뱆
뱇
뱈
뱉
뱊
뱋
뱌
뱍
뱎
뱐
뱓
뱔
뱕
뱗
뱛
뱜
뱝
뱟
뱡
뱤
뱥
뱨
뱩
뱬
뱰
뱸
뱽
벁
버
벅
벆
번
벉
벊
벋
벌
벍
벎
벏
벐
벑
벓
범
법
벖
벗
벘
벙
벚
벛
벜
벝
벞
벟
베
벡
벤
벧
벨
벩
벫
벯
벰
벱
벲
벳
벴
벵
벶
벷
벸
벹
벺
벻
벼
벽
벾
변
볁
볂
볃
별
볅
볆
볇
볈
볋
볌
볍
볎
볏
볐
병
볒
볓
볔
볕
볖
볗
볘
볙
볜
볠
볫
볭
보
복
볶
볷
본
볹
볻
볼
볽
볾
봀
봁
봃
봄
봅
봆
봇
봈
봉
봊
봋
봌
봍
봎
봏
봐
봑
봒
봔
봗
봘
봙
봟
봠
봡
봣
봤
봥
봦
봨
봩
봫
봬
봭
봰
봴
봵
봽
봿
뵀
뵁
뵈
뵉
뵌
뵏
뵐
뵑
뵘
뵙
뵛
뵜
뵝
뵞
뵠
뵤
뵥
뵨
뵬
뵴
뵵
뵷
뵹
뵺
부
북
붂
붃
분
붅
붆
붇
불
붉
붊
붋
붌
붍
붎
붏
붐
붑
붓
붔
붕
붖
붗
붘
붙
붚
붛
붜
붝
붠
붤
붥
붬
붭
붯
붰
붱
붴
붸
붹
붼
뷀
뷁
뷃
뷇
뷉
뷋
뷍
뷐
뷔
뷕
뷘
뷜
뷤
뷥
뷧
뷩
뷮
뷰
뷱
뷴
뷷
뷸
뷹
븀
븁
븂
븃
븅
븈
븉
븋
브
븍
븎
븏
븐
븓
블
븕
븛
븜
븝
븞
븟
븡
븢
븤
븥
븦
븧
븨
븩
븬
븰
븸
븹
븻
븽
빂
비
빅
빆
빇
빈
빋
빌
빍
빎
빏
빓
빔
빕
빖
빗
빘
빙
빚
빛
빜
빝
빞
빟
빠
빡
빢
빣
빤
빧
빨
빩
빪
빫
빬
빭
빯
빰
빱
빳
빴
빵
빶
빷
빸
빹
빺
빻
빼
빽
빾
뺀
뺃
뺄
뺅
뺌
뺍
뺏
뺐
뺑
뺒
뺓
뺔
뺕
뺗
뺘
뺙
뺚
뺜
뺠
뺡
뺨
뺩
뺫
뺭
뺴
뺵
뺶
뺸
뺼
뻁
뻄
뻇
뻈
뻉
뻐
뻑
뻒
뻔
뻕
뻖
뻗
뻘
뻙
뻠
뻡
뻣
뻤
뻥
뻦
뻨
뻩
뻪
뻫
뻬
뻭
뻰
뻴
뻼
뻿
뼀
뼁
뼈
뼉
뼊
뼌
뼏
뼐
뼑
뼘
뼙
뼛
뼜
뼝
뼠
뼡
뼤
뼬
뽀
뽁
뽂
뽄
뽇
뽈
뽐
뽑
뽓
뽕
뽖
뽘
뽚
뽛
뽜
뽝
뽞
뽠
뽤
뽥
뽫
뽬
뽭
뽯
뽰
뽱
뽴
뽷
뽸
뽹
뾀
뾃
뾔
뾥
뾰
뾱
뾲
뾴
뾸
뿁
뿃
뿅
뿌
뿍
뿎
뿐
뿑
뿓
뿔
뿕
뿛
뿜
뿝
뿟
뿠
뿡
뿤
뿥
뿧
뿨
뿩
뿬
뿰
뿱
뿳
뿹
뿽
쀀
쀄
쀅
쀈
쀌
쀍
쀏
쀒
쀓
쀠
쀡
쀨
쀳
쀵
쀼
쀽
쀾
쁀
쁄
쁌
쁍
쁏
쁐
쁑
쁘
쁙
쁜
쁝
쁟
쁠
쁨
쁩
쁫
쁭
쁮
쁰
쁴
쁸
쁼
삉
삐
삑
삒
삔
삗
삘
삠
삡
삣
삤
삥
삦
삧
삨
삫
사
삭
삮
삯
산
삱
삲
삳
살
삵
삶
삷
삸
삹
삺
삻
삼
삽
삾
삿
샀
상
샂
샃
샄
샅
샆
샇
새
색
샊
샋
샌
샎
샏
샐
샑
샒
샓
샔
샕
샗
샘
샙
샚
샛
샜
생
샞
샟
샠
샡
샢
샣
샤
샥
샦
샨
샫
샬
샮
샴
샵
샷
샸
샹
샼
샽
샾
샿
섀
섁
섂
섄
섈
섉
섊
섐
섑
섓
섔
섕
섘
서
석
섞
섟
선
섡
섢
섣
설
섥
섦
섧
섨
섩
섪
섫
섬
섭
섮
섯
섰
성
섲
섳
섴
섵
섶
섷
세
섹
섺
섻
센
섽
섿
셀
셁
셂
셃
셆
셇
셈
셉
셋
셌
셍
셎
셏
셐
셑
셒
셓
셔
셕
셖
션
셛
셜
셟
셤
셥
셧
셨
셩
셫
셬
셭
셮
셯
셰
셱
셲
셴
셸
솀
솁
솃
솄
솅
솈
솉
솊
소
속
솎
솏
손
솑
솒
솓
솔
솕
솖
솛
솜
솝
솟
솠
송
솢
솣
솤
솥
솦
솧
솨
솩
솬
솰
솸
솹
솻
솼
솽
쇀
쇄
쇅
쇆
쇈
쇌
쇔
쇗
쇘
쇙
쇜
쇟
쇠
쇡
쇣
쇤
쇨
쇱
쇳
쇵
쇸
쇼
쇽
숀
숄
숌
숍
숏
숐
숑
숔
숖
숗
수
숙
숚
순
숝
숟
술
숡
숢
숤
숧
숨
숩
숪
숫
숬
숭
숮
숯
숰
숱
숲
숳
숴
숵
숶
숸
숼
쉄
쉅
쉇
쉈
쉉
쉌
쉐
쉑
쉒
쉓
쉔
쉗
쉘
쉙
쉚
쉛
쉜
쉞
쉟
쉠
쉡
쉣
쉤
쉥
쉧
쉨
쉩
쉪
쉫
쉬
쉭
쉮
쉰
쉲
쉳
쉴
쉻
쉼
쉽
쉾
쉿
슀
슁
슂
슄
슅
슆
슇
슈
슉
슌
슏
슐
슘
슙
슛
슝
슞
슟
슠
슢
스
슥
슦
슧
슨
슩
슫
슬
슭
슮
슯
슰
슲
슳
슴
습
슶
슷
슸
승
슺
슻
슼
슽
슾
슿
싀
싁
싄
싅
싆
싇
싈
싐
싑
싓
싕
싖
싘
싙
싚
시
식
싞
싟
신
싡
싢
싣
실
싥
싦
싧
싨
싩
싪
싫
심
십
싮
싯
싰
싱
싲
싳
싴
싵
싶
싷
싸
싹
싺
싻
싼
싾
싿
쌀
쌂
쌇
쌈
쌉
쌋
쌌
쌍
쌎
쌐
쌑
쌒
쌓
쌔
쌕
쌖
쌗
쌘
쌛
쌜
쌞
쌟
쌤
쌥
쌧
쌨
쌩
쌬
쌯
쌰
쌱
쌴
쌸
쌻
썀
썁
썃
썄
썅
썋
썌
썍
썎
썐
썔
썖
썜
썝
썟
썠
썡
써
썩
썪
썫
썬
썯
썰
썱
썳
썸
썹
썻
썼
썽
썾
쎀
쎁
쎂
쎃
쎄
쎅
쎆
쎇
쎈
쎌
쎍
쎓
쎔
쎕
쎗
쎘
쎙
쎜
쎝
쎟
쎠
쎡
쎤
쎨
쎰
쎱
쎳
쎴
쎵
쎼
쎽
쎾
쏀
쏃
쏄
쏌
쏏
쏐
쏔
쏖
쏘
쏙
쏚
쏜
쏟
쏠
쏨
쏩
쏫
쏬
쏭
쏮
쏰
쏱
쏳
쏴
쏵
쏸
쏼
쐄
쐅
쐇
쐈
쐉
쐌
쐏
쐐
쐑
쐒
쐣
쐤
쐥
쐨
쐬
쐭
쐰
쐴
쐼
쐽
쐿
쑀
쑈
쑉
쑌
쑐
쑙
쑛
쑝
쑤
쑥
쑦
쑨
쑫
쑬
쑴
쑵
쑷
쑹
쑻
쑼
쒀
쒁
쒂
쒄
쒈
쒐
쒑
쒓
쒔
쒕
쒘
쒜
쒝
쒞
쒠
쒤
쒥
쒧
쒫
쒭
쒯
쒰
쒱
쒴
쒵
쒸
쒹
쒼
쓀
쓃
쓈
쓉
쓊
쓋
쓌
쓍
쓐
쓑
쓒
쓔
쓕
쓘
쓜
쓤
쓥
쓩
쓰
쓱
쓲
쓴
쓷
쓸
쓹
쓺
쓿
씀
씁
씂
씃
씄
씅
씆
씇
씈
씉
씊
씋
씌
씍
씐
씔
씗
씜
씝
씞
씟
씡
씤
씥
씦
씧
씨
씩
씪
씬
씮
씯
씰
씱
씳
씶
씷
씸
씹
씺
씻
씼
씽
씾
씿
앀
앁
앂
앃
아
악
앆
앇
안
앉
않
앋
알
앍
앎
앏
앐
앑
앒
앓
암
압
앖
앗
았
앙
앚
앛
앜
앝
앞
앟
애
액
앢
앣
앤
앦
앧
앨
앩
앰
앱
앲
앳
앴
앵
앶
앷
앸
앹
앺
앻
야
약
앾
앿
얀
얁
얂
얃
얄
얅
얆
얇
얉
얊
얋
얌
얍
얎
얏
얐
양
얒
얓
얔
얕
얖
얗
얘
얙
얜
얠
얨
얩
얪
얫
얬
얭
얮
얰
얳
어
억
얶
얷
언
얹
얺
얻
얼
얽
얾
얿
엀
엁
엂
엃
엄
업
없
엇
었
엉
엊
엋
엌
엍
엎
엏
에
엑
엒
엓
엔
엕
엗
엘
엙
엜
엞
엠
엡
엢
엣
엤
엥
엦
엧
엨
엩
엪
엫
여
역
엮
엯
연
엱
엲
엳
열
엵
엶
엷
엸
엹
엻
염
엽
엾
엿
였
영
옂
옃
옄
옅
옆
옇
예
옉
옌
옐
옘
옙
옛
옜
옝
옞
옟
옠
옢
옣
오
옥
옦
옧
온
옩
옪
옫
올
옭
옮
옯
옰
옱
옲
옳
옴
옵
옶
옷
옸
옹
옺
옻
옼
옽
옾
옿
와
왁
왂
완
왅
왆
왇
왈
왉
왐
왑
왓
왔
왕
왖
왗
왘
왙
왚
왛
왜
왝
왠
왡
왢
왤
왥
왬
왭
왯
왰
왱
왲
왳
왴
왶
왷
외
왹
왼
욀
욈
욉
욋
욌
욍
욎
욐
욓
요
욕
욖
욗
욘
욛
욜
욝
욣
욤
욥
욧
욨
용
욪
욫
욬
욭
욮
욯
우
욱
욲
욳
운
욵
욷
울
욹
욺
욻
욼
욽
욾
욿
움
웁
웂
웃
웄
웅
웆
웇
웈
웉
웊
웋
워
웍
웎
원
웑
웒
웓
월
웕
웖
웗
웘
웙
웚
웛
웜
웝
웞
웟
웠
웡
웢
웣
웤
웥
웦
웧
웨
웩
웪
웬
웯
웰
웱
웳
웸
웹
웺
웻
웼
웽
웾
윀
윁
윂
위
윅
윈
윋
윌
윔
윕
윖
윗
윘
윙
윚
윜
윝
윟
유
육
윢
윣
윤
윥
윧
율
윩
윯
윰
윱
윳
융
윶
윷
윸
윹
윺
윻
으
윽
윾
윿
은
읁
읂
읃
을
읅
읆
읇
읈
읉
읊
읋
음
읍
읎
읏
읐
응
읒
읓
읔
읕
읖
읗
의
읙
읜
읟
읠
읨
읩
읪
읫
읬
읭
읮
읯
읰
읱
읲
읳
이
익
읶
읷
인
읹
읺
읻
일
읽
읾
읿
잀
잁
잂
잃
임
입
잆
잇
있
잉
잊
잋
잌
잍
잎
잏
자
작
잒
잓
잔
잕
잖
잗
잘
잙
잚
잛
잜
잝
잞
잟
잠
잡
잢
잣
잤
장
잦
잧
잨
잩
잪
잫
재
잭
잮
잰
잲
잳
잴
잼
잽
잿
쟀
쟁
쟂
쟃
쟄
쟅
쟆
쟇
쟈
쟉
쟊
쟌
쟎
쟏
쟐
쟘
쟙
쟛
쟜
쟝
쟞
쟟
쟠
쟡
쟣
쟤
쟥
쟨
쟬
쟴
쟸
쟹
쟼
저
적
젂
젃
전
젅
젆
젇
절
젉
젊
젋
젌
젍
젎
젏
점
접
젒
젓
젔
정
젖
젗
젘
젙
젚
젛
제
젝
젞
젠
젡
젣
젤
젬
젭
젯
젰
젱
젲
젳
젴
젵
젶
젷
져
젹
젺
젼
젾
젿
졀
졂
졈
졉
졋
졌
졍
졎
졏
졐
졑
졒
졓
졔
졘
졜
졨
졩
조
족
졲
졳
존
졵
졶
졷
졸
졹
졺
졻
졽
졿
좀
좁
좂
좃
좄
종
좆
좇
좈
좉
좊
좋
좌
좍
좎
좐
좒
좓
좔
좜
좝
좟
좠
좡
좢
좣
좤
좥
좦
좧
좨
좩
좬
좭
좮
좯
좰
좱
좸
좼
좽
죄
죅
죈
죌
죔
죕
죗
죘
죙
죚
죜
죝
죠
죡
죢
죣
죤
죥
죧
죨
죰
죱
죳
죴
죵
죶
죷
죸
죹
죺
죻
주
죽
죾
죿
준
줁
줂
줃
줄
줅
줆
줈
줉
줊
줋
줌
줍
줎
줏
줐
중
줒
줓
줔
줕
줖
줗
줘
줙
줚
줜
줝
줟
줠
줨
줩
줫
줬
줭
줮
줯
줰
줱
줳
줴
줵
줸
줼
쥄
쥅
쥇
쥈
쥉
쥐
쥑
쥔
쥘
쥠
쥡
쥣
쥤
쥥
쥦
쥨
쥫
쥬
쥭
쥰
쥳
쥴
쥼
쥽
쥿
즁
즂
즄
즇
즈
즉
즋
즌
즎
즏
즐
즑
즘
즙
즛
즜
증
즞
즟
즠
즡
즣
즤
즥
즨
즬
즴
즵
즷
즹
즺
즼
지
직
짂
짃
진
짅
짆
짇
질
짉
짊
짋
짌
짍
짎
짏
짐
집
짒
짓
짔
징
짖
짗
짘
짙
짚
짛
짜
짝
짞
짠
짢
짣
짤
짥
짦
짧
짪
짫
짬
짭
짮
짯
짰
짱
짲
짳
짴
짵
짶
짷
째
짹
짺
짼
짾
짿
쨀
쨈
쨉
쨋
쨌
쨍
쨎
쨐
쨓
쨔
쨕
쨖
쨘
쨚
쨜
쨟
쨤
쨥
쨧
쨨
쨩
쨬
쨰
쨱
쨲
쨴
쩀
쩁
쩃
쩄
쩅
쩌
쩍
쩎
쩐
쩑
쩓
쩔
쩕
쩖
쩗
쩘
쩛
쩜
쩝
쩟
쩠
쩡
쩢
쩣
쩤
쩦
쩧
쩨
쩩
쩬
쩰
쩸
쩹
쩻
쩼
쩽
쪄
쪅
쪈
쪌
쪔
쪕
쪗
쪘
쪙
쪚
쪜
쪟
쪠
쪵
쪹
쪻
쪼
쪽
쪾
쪿
쫀
쫂
쫃
쫄
쫅
쫌
쫍
쫏
쫐
쫑
쫒
쫓
쫔
쫕
쫖
쫗
쫘
쫙
쫚
쫛
쫜
쫟
쫠
쫨
쫩
쫫
쫭
쫰
쫴
쫵
쬈
쬎
쬐
쬑
쬔
쬘
쬠
쬡
쬥
쬬
쬭
쬮
쬰
쬲
쬴
쬼
쬽
쬿
쭀
쭁
쭂
쭃
쭄
쭅
쭈
쭉
쭊
쭌
쭏
쭐
쭕
쭘
쭙
쭛
쭝
쭞
쭟
쭠
쭤
쭥
쭨
쭬
쭭
쭵
쭷
쭸
쭹
쭻
쮀
쮁
쮇
쮉
쮑
쮓
쮔
쮕
쮜
쮝
쮠
쮤
쮭
쮱
쮸
쮹
쮼
쯀
쯈
쯉
쯋
쯍
쯎
쯔
쯕
쯘
쯛
쯜
쯤
쯥
쯧
쯨
쯩
쯪
쯫
쯰
쯱
쯴
찁
찅
찌
찍
찎
찏
찐
찓
찔
찗
찜
찝
찟
찠
찡
찢
찣
찤
찥
찦
찧
차
착
찪
찫
찬
찭
찮
찯
찰
찱
찲
찳
찴
찷
참
찹
찻
찼
창
찾
찿
챀
챁
챂
챃
채
책
챈
챊
챋
챌
챔
챕
챗
챘
챙
챚
챜
챝
챠
챡
챤
챦
챨
챫
챰
챱
챳
챴
챵
챶
챷
챸
챺
챻
챼
챽
첑
처
척
천
첝
첞
첟
철
첡
첢
첣
첤
첧
첨
첩
첪
첫
첬
청
첮
첯
첰
첱
첲
첳
체
첵
첸
첻
첼
쳄
쳅
쳇
쳈
쳉
쳊
쳋
쳌
쳍
쳏
쳐
쳑
쳒
쳔
쳗
쳘
쳠
쳡
쳢
쳣
쳤
쳥
쳦
쳧
쳨
쳫
쳬
쳭
쳰
쳴
촀
초
촉
촌
촏
촐
촔
촘
촙
촛
촜
총
촞
촟
촠
촡
촣
촤
촥
촨
촪
촬
촴
촵
촷
촹
촺
촼
쵀
쵁
쵕
최
쵝
쵠
쵤
쵭
쵮
쵯
쵱
쵲
쵴
쵸
쵹
쵼
쵿
춀
춈
춉
춋
춌
춍
춎
춏
춐
추
축
춘
춚
춛
출
춝
춞
춟
춠
춡
춣
춤
춥
춧
충
춪
춫
춬
춭
춮
춯
춰
춱
춴
춸
췁
췃
췄
췅
췆
췈
췌
췍
췐
췔
췕
췜
췝
췟
췡
췤
취
췩
췬
췰
췸
췹
췻
췼
췽
츀
츃
츄
츅
츈
츌
츔
츕
츗
츙
츛
츜
츞
츠
측
츤
츧
츨
츰
츱
츳
층
츶
츷
츸
츹
츼
츽
칀
칄
칌
칍
칑
칔
치
칙
친
칝
칞
칟
칠
칡
칢
칤
칧
침
칩
칫
칬
칭
칮
칯
칰
칱
칲
칳
카
칵
칶
칸
칻
칼
칽
캄
캅
캆
캇
캈
캉
캊
캋
캌
캍
캎
캏
캐
캑
캔
캘
캙
캠
캡
캢
캣
캤
캥
캨
캩
캪
캬
캭
캮
캰
캴
캵
캼
캽
캿
컀
컁
컄
컅
컇
컈
커
컥
컨
컫
컬
컭
컯
컴
컵
컷
컸
컹
컺
컼
컽
컾
컿
케
켁
켄
켇
켈
켉
켐
켑
켓
켔
켕
켘
켙
켚
켛
켜
켝
켞
켠
켤
켬
켭
켯
켰
켱
켲
켴
켵
켷
켸
켼
콋
콌
코
콕
콘
콛
콜
콤
콥
콧
콩
콪
콫
콬
콭
콮
콯
콰
콱
콲
콴
콸
쾀
쾃
쾅
쾈
쾌
쾍
쾐
쾡
쾤
쾨
쾩
쾬
쾰
쾽
쿄
쿅
쿈
쿌
쿔
쿗
쿙
쿜
쿠
쿡
쿢
쿤
쿧
쿨
쿩
쿫
쿯
쿰
쿱
쿳
쿵
쿸
쿹
쿺
쿻
쿼
쿽
퀀
퀄
퀌
퀏
퀐
퀑
퀔
퀘
퀙
퀜
퀠
퀡
퀫
퀭
퀰
퀴
퀵
퀸
퀻
퀼
큄
큅
큇
큉
큌
큐
큑
큔
큘
큠
큡
큣
큥
큨
큩
큪
크
큭
큮
큰
큲
큳
클
큵
큷
큻
큼
큽
큿
킀
킁
킂
킄
킅
킆
킇
킈
킉
킌
킐
킘
킝
킠
키
킥
킦
킨
킫
킬
킴
킵
킶
킷
킸
킹
킺
킼
킽
킾
킿
타
탁
탂
탄
탅
탆
탇
탈
탉
탊
탍
탏
탐
탑
탓
탔
탕
탖
탗
탘
탙
탚
탛
태
택
탞
탟
탠
탣
탤
탬
탭
탯
탰
탱
탲
탴
탵
탶
탷
탸
탹
탼
턀
턈
턉
턋
턍
턐
턑
턔
턕
턘
턩
터
턱
턴
턷
털
턹
턺
텀
텁
텂
텃
텄
텅
텆
텇
텈
텉
텊
텋
테
텍
텐
텓
텔
템
텝
텟
텠
텡
텢
텣
텤
텥
텦
텧
텨
텩
텬
텰
텸
텹
텻
텼
텽
톀
톃
톄
톅
톈
톌
톔
토
톡
톢
톤
톧
톨
톩
톪
톰
톱
톳
통
톶
톷
톸
톹
톺
톻
톼
톽
퇀
퇄
퇌
퇍
퇏
퇑
퇘
퇙
퇜
퇧
퇫
퇬
퇭
퇮
퇴
퇵
퇶
퇸
퇼
툄
툅
툇
툈
툉
툊
툌
툐
툑
툠
툣
툥
툨
툩
투
툭
툰
툱
툲
툳
툴
툶
툻
툼
툽
툿
퉁
퉂
퉄
퉅
퉆
퉈
퉉
퉌
퉐
퉛
퉜
퉝
퉤
퉥
퉨
퉬
퉵
퉷
퉸
퉹
퉼
퉽
튀
튁
튄
튈
튐
튑
튓
튔
튕
튘
튜
튝
튠
튤
튬
튭
튱
튴
튵
튶
트
특
튺
튻
튼
튽
튿
틀
틁
틂
틅
틇
틈
틉
틊
틋
틍
틎
틏
틐
틑
틒
틓
틔
틕
틘
틜
틤
틧
틩
티
틱
틳
틴
틷
틸
팀
팁
팃
팄
팅
팆
팈
팉
팊
파
팍
팎
팏
판
팑
팒
팓
팔
팕
팖
팗
팘
팙
팚
팛
팜
팝
팟
팠
팡
팢
팣
팤
팥
팦
팧
패
팩
팬
팯
팰
팸
팹
팻
팼
팽
퍀
퍁
퍄
퍅
퍈
퍌
퍔
퍙
퍝
퍞
퍠
퍡
퍤
퍵
퍼
퍽
퍾
펀
펃
펄
펅
펌
펍
펏
펐
펑
펒
펔
펕
펖
펗
페
펙
펜
펟
펠
펨
펩
펫
펭
펰
펲
펴
펵
편
펹
펺
펻
펼
폄
폅
폇
폈
평
폌
폐
폑
폔
폘
폠
폡
폣
폥
폨
포
폭
폯
폰
폳
폴
폼
폽
폿
퐁
퐂
퐄
퐅
퐆
퐇
퐈
퐉
퐌
퐐
퐑
퐘
퐙
퐛
퐜
퐝
퐠
퐣
퐤
퐥
퐨
푀
푁
푄
푈
푕
표
푝
푠
푤
푬
푭
푯
푱
푲
푴
푶
푷
푸
푹
푼
푿
풀
풁
풂
풃
풇
품
풉
풋
풍
풎
풏
풐
풑
풒
풓
풔
풕
풘
풜
풩
풬
풰
풱
풴
풸
풹
퓅
퓌
퓍
퓐
퓔
퓟
퓡
퓨
퓩
퓬
퓰
퓸
퓹
퓻
퓽
퓿
픀
픂
픃
프
픅
픈
픋
플
픍
픎
픓
픔
픕
픗
픙
픚
픜
픝
픞
픟
픠
픤
픨
픵
픹
피
픽
핀
핃
필
핆
핋
핌
핍
핏
핐
핑
핒
핓
핔
핕
핖
핗
하
학
핚
핛
한
핝
핞
핟
할
핡
핢
핣
핤
핥
핦
핧
함
합
핪
핫
핬
항
핮
핯
핰
핱
핲
핳
해
핵
핶
핷
핸
핺
핻
핼
핽
햄
햅
햇
했
행
햊
햋
햌
햍
햎
햏
햐
햑
햔
햘
햙
햚
햛
햝
햟
햠
햡
햣
햤
향
햨
햩
햫
햬
햭
햰
햿
헀
헁
허
헉
헊
헋
헌
헍
헏
헐
헑
헒
헓
헔
헕
헗
험
헙
헚
헛
헜
헝
헞
헟
헠
헡
헢
헣
헤
헥
헦
헧
헨
헫
헬
헭
헯
헰
헱
헲
헳
헴
헵
헶
헷
헸
헹
헼
헽
헾
헿
혀
혁
혂
혃
현
혅
혆
혇
혈
혉
혐
협
혒
혓
혔
형
혖
혘
혙
혚
혛
혜
혝
혠
혤
혬
혭
혯
혰
혱
혲
혴
혷
호
혹
혺
혻
혼
혽
혾
혿
홀
홁
홅
홇
홈
홉
홋
홍
홎
홐
홑
홒
홓
화
확
홖
홗
환
홙
홛
활
홝
홟
홡
홣
홤
홥
홧
홨
황
홪
홫
홬
홭
홮
홯
홰
홱
홴
횃
횄
횅
회
획
횐
횓
횔
횜
횝
횟
횠
횡
횢
횤
횧
효
횩
횬
횰
횸
횹
횻
횽
훀
훃
후
훅
훈
훉
훊
훋
훌
훍
훏
훑
훓
훔
훕
훗
훙
훚
훛
훜
훝
훞
훟
훠
훡
훤
훨
훯
훰
훱
훳
훵
훸
훻
훼
훽
휀
휄
휅
휇
휍
휏
휐
휑
휔
휗
휘
휙
휜
휠
휨
휩
휫
휭
휰
휲
휳
휴
휵
휸
휼
흄
흅
흇
흉
흊
흌
흎
흏
흐
흑
흒
흓
흔
흗
흘
흙
흚
흛
흜
흝
흟
흠
흡
흣
흤
흥
흦
흨
흩
흪
흫
희
흭
흰
흳
흴
흵
흼
흽
흿
힁
힂
힄
힇
히
힉
힊
힌
힏
힐
힑
힒
힕
힗
힘
힙
힛
힜
힝
힞
힟
힠
힡
힢
힣
％
##과
##접
##시
##보
##면
##상
##수
##감
##독
##같
##은
##날
##준
##비
##를
##한
##다
##동
##안
##갈
##려
##니
##품
##속
##주
##인
##공
##되
##서
##개
##지
##는
##가
##복
##었
##기
##도
##대
##원
##이
##거
##나
##자
##처
##라
##릿
##쫌
##갸
##아
##악
##회
##말
##타
##선
##형
##매
##능
##금
##액
##제
##해
##야
##할
##듯
##못
##하
##뜨
##운
##을
##요
##o
##r
##w
##a
##y
##9
##실
##신
##것
##음
##숙
##졋
##으
##까
##째
##따
##님
##찰
##일
##고
##죄
##로
##년
##짜
##리
##료
##훈
##있
##군
##여
##쌔
##헤
##체
##노
##좀
##재
##배
##척
##초
##등
##학
##교
##욕
##산
##용
##전
##치
##어
##느
##새
##각
##했
##업
##철
##에
##즈
##파
##트
##결
##손
##랑
##앗
##겠
##입
##뒷
##그
##림
##세
##무
##작
##페
##마
##바
##꿈
##택
##걸
##문
##표
##정
##테
##블
##피
##씨
##의
##맹
##덕
##죽
##록
##사
##발
##레
##롱
##적
##술
##네
##c
##p
##들
##납
##방
##망
##누
##릴
##데
##키
##역
##러
##엿
##던
##돌
##소
##만
##모
##화
##연
##분
##댕
##구
##유
##맙
##스
##읍
##잖
##2
##병
##웹
##툰
##환
##목
##랄
##급
##출
##국
##힏
##깤
##촉
##쵹
##간
##반
##설
##뭐
##쓰
##움
##내
##번
##령
##였
##순
##런
##우
##포
##외
##젤
##센
##터
##럼
##1
##올
##오
##욜
##꺼
##권
##통
##합
##건
##콤
##싫
##객
##계
##드
##물
##버
##폰
##조
##펀
##0
##7
##명
##밖
##엔
##팔
##쥐
##싱
##얔
##놓
##와
##n
##t
##e
##i
##l
##s
##m
##게
##든
##카
##른
##애
##없
##민
##3
##쿨
##때
##부
##봐
##장
##진
##식
##갑
##래
##단
##8
##률
##왠
##후
##천
##점
##메
##답
##류
##냐
##혁
##근
##절
##5
##중
##성
##k
##d
##박
##죠
##낰
##토
##늄
##확
##름
##왔
##임
##프
##채
##켜
##막
##관
##련
##된
##불
##꽃
##팝
##왕
##린
##란
##탄
##추
##행
##켓
##맨
##르
##엘
##험
##생
##밀
##위
##뻑
##삼
##워
##집
##며
##좋
##몰
##폭
##않
##겁
##태
##디
##셨
##락
##백
##족
##칭
##붙
##약
##직
##본
##견
##경
##광
##석
##렴
##활
##더
##육
##닐
##츠
##협
##력
##겄
##청
##필
##받
##놈
##율
##당
##큰
##케
##봉
##됐
##뱄
##밌
##4
##빼
##넘
##줬
##평
##혼
##머
##뿐
##베
##저
##R
##C
##월
##호
##뱃
##달
##눌
##럽
##왈
##g
##엇
##먹
##획
##브
##렀
##습
##캐
##릭
##질
##햇
##남
##았
##겟
##떡
##언
##딸
##떻
##섞
##알
##션
##T
##O
##흙
##뚥
##법
##미
##쟁
##담
##씀
##픔
##억
##종
##예
##크
##람
##몫
##렁
##졌
##낸
##투
##렸
##총
##창
##묶
##났
##탓
##켰
##펜
##킹
##팅
##울
##S
##L
##심
##윤
##랫
##씩
##깍
##묵
##난
##송
##온
##궁
##염
##퓰
##책
##뒤
##별
##념
##끼
##영
##찍
##댓
##긴
##십
##섬
##똑
##셧
##랴
##뚫
##귀
##줘
##줄
##희
##김
##격
##줍
##덧
##얼
##굴
##팩
##밤
##잘
##됄
##냥
##쎄
##길
##랩
##웅
##엡
##털
##넣
##닌
##흑
##맘
##옴
##앞
##컬
##링
##곤
##큐
##강
##범
##렌
##맛
##될
##곳
##찾
##쩌
##차
##I
##M
##F
##짼
##뎃
##끓
##엉
##킥
##판
##낼
##현
##J
##큼
##킨
##변
##헬
##춘
##친
##쌀
##살
##봤
##극
##낌
##쿠
##잃
##삽
##롤
##앙
##6
##팡
##황
##글
##P
##u
##두
##함
##꾼
##룹
##몇
##릉
##침
##뉴
##또
##숨
##띄
##뽑
##축
##뱇
##톤
##찌
##샷
##셤
##굿
##쁜
##텐
##둘
##코
##쿄
##끗
##닙
##찬
##떠
##엄
##x
##킴
##얽
##히
##랬
##충
##슷
##긋
##홍
##색
##볼
##랔
##휴
##싶
##셈
##믈
##b
##깔
##론
##빨
##잡
##삭
##숲
##힌
##왓
##닦
##렬
##셔
##루
##궐
##쉰
##규
##써
##많
##쉽
##갓
##멜
##팦
##콘
##깡
##빠
##티
##끝
##흘
##량
##끈
##혈
##칼
##녀
##편
##툼
##검
##뚱
##맞
##특
##쁘
##융
##뻐
##Q
##옥
##존
##둥
##튼
##꼴
##엣
##읽
##봣
##탈
##익
##겼
##H
##U
##뭔
##클
##낮
##잇
##묻
##씌
##낫
##샤
##겨
##됴
##찐
##쉬
##띠
##뜻
##떨
##깐
##플
##쩝
##갔
##뽀
##북
##커
##쾅
##닷
##껄
##께
##렙
##썅
##싸
##멈
##A
##튀
##숍
##칙
##껴
##닽
##슨
##뚝
##취
##좆
##앟
##농
##빡
##봇
##벌
##믿
##향
##퇴
##착
##닥
##뽄
##캡
##쳐
##패
##킬
##늘
##져
##랭
##썬
##깟
##잔
##괒
##립
##룡
##펴
##X
##쫄
##탁
##펫
##닮
##겜
##앉
##혀
##텍
##항
##얗
##층
##넠
##햐
##깨
##즘
##양
##퍼
##첨
##꾸
##값
##죳
##Y
##K
##즌
##B
##됀
##퇘
##측
##늠
##쓸
##돼
##릇
##맟
##땡
##먄
##z
##섰
##왜
##폐
##렵
##램
##쌤
##뎅
##풀
##컴
##섹
##슈
##므
##뇌
##푸
##틴
##땅
##퀸
##웁
##멋
##D
##잼
##허
##졸
##랳
##봨
##밥
##쩜
##냄
##짓
##쪽
##혘
##헹
##덤
##쯤
##쿵
##팟
##핵
##뿌
##짝
##륜
##q
##칠
##옷
##됨
##윙
##땐
##깆
##랜
##꼰
##슴
##웨
##밍
##찼
##퀘
##욱
##벽
##캠
##밋
##놨
##뻣
##너
##챠
##컷
##횔
##돈
##팬
##앤
##넥
##뺏
##탑
##봅
##G
##좌
##증
##골
##뉘
##벗
##븍
##뤼
##톱
##열
##쓴
##첩
##빙
##텃
##밭
##콜
##렛
##몽
##둑
##렇
##턴
##됫
##잠
##뱀
##좃
##콩
##줫
##덜
##략
##균
##승
##찝
##줏
##텔
##혹
##괄
##넷
##빵
##옆
##쳔
##홀
##딩
##윗
##빌
##슙
##뛰
##셆
##솔
##뿔
##맡
##떼
##뢰
##겐
##밑
##톨
##쌕
##봄
##효
##핑
##숭
##셜
##짬
##쌓
##뱅
##렿
##엽
##꼈
##퓨
##둔
##N
##뇨
##캔
##줌
##꼬
##논
##싼
##긔
##룬
##앱
##뇬
##촌
##쥬
##롴
##펌
##픈
##끌
##참
##랍
##꺄
##쌍
##빈
##잦
##슬
##낭
##엠
##뭘
##뚜
##걷
##징
##h
##헐
##꿎
##놀
##j
##늦
##쟈
##믹
##웃
##힘
##쳬
##꽝
##뜸
##암
##젔
##닼
##긍
##젝
##릅
##랐
##혜
##벵
##컨
##댄
##짖
##넹
##엌
##쿤
##맴
##탐
##퉤
##젼
##냇
##랰
##딱
##흥
##쉐
##퀴
##빴
##갱
##W
##랙
##쇄
##눈
##둡
##깠
##짱
##걱
##쑤
##힐
##늬
##멍
##챙
##녁
##풍
##룽
##듬
##샘
##넼
##렘
##웠
##쾌
##셰
##뚤
##쭉
##묘
##볐
##쳨
##댘
##섭
##폄
##놧
##큘
##득
##꺽
##냉
##닭
##픽
##칩
##셋
##팀
##뀌
##붕
##흐
##최
##쳤
##퀄
##끄
##닠
##젛
##딥
##탕
##쁨
##듣
##멘
##럭
##잉
##컸
##삥
##슼
##쉑
##넴
##흔
##돕
##빻
##쉴
##압
##딘
##뻔
##냔
##밨
##응
##씬
##딪
##짹
##휘
##됬
##먼
##찔
##뤄
##뜯
##벤
##엎
##춰
##팽
##낑
##쪄
##옹
##댁
##뭉
##핸
##콕
##닛
##례
##뺐
##V
##넜
##럴
##얘
##펑
##훌
##륭
##쇼
##갖
##틀
##곧
##곸
##슥
##뷰
##롬
##섯
##냨
##똘
##젹
##쌈
##E
##뀔
##깎
##앵
##츳
##흠
##괴
##췃
##f
##템
##얄
##닝
##샵
##놔
##냈
##벅
##짤
##뮬
##텨
##짐
##턱
##쇗
##널
##귄
##닞
##갂
##흰
##썹
##v
##뮤
##덯
##븅
##빤
##켸
##댜
##쟉
##춤
##춥
##겹
##겸
##펗
##캎
##젯
##쏘
##껏
##넌
##흡
##릎
##떤
##헕
##쪼
##싀
##폴
##햌
##귤
##곡
##멸
##곰
##즉
##껌
##큨
##델
##츄
##꼭
##깜
##윕
##덩
##완
##끔
##젖
##밟
##깈
##쿼
##딴
##뎈
##겅
##쩔
##톡
##엑
##꿔
##젠
##끊
##웰
##홉
##갤
##쥔
##헛
##짘
##슛
##돗
##됩
##퀵
##썰
##껀
##엥
##돠
##덱
##펍
##횡
##츤
##샌
##닿
##쥴
##땜
##욬
##믄
##촛
##룰
##짧
##슐
##잊
##팁
##댯
##뢀
##첫
##욧
##탱
##녹
##낀
##앨
##핀
##탔
##뇸
##샀
##뽕
##낳
##킄
##칸
##롯
##잭
##듴
##쩨
##똥
##벨
##튜
##퇄
##켘
##벼
##꼽
##둠
##밈
##좄
##넬
##룩
##뜹
##븐
##윾
##혔
##잽
##닫
##젓
##뉨
##갯
##높
##삶
##뙤
##몬
##쨩
##뜬
##믓
##핫
##및
##쟨
##셑
##깝
##뜩
##깥
##잤
##얎
##쭐
##렷
##랏
##웽
##빗
##뺨
##혐
##뒀
##뵈
##엵
##붑
##샹
##잌
##겧
##헌
##떴
##샠
##롭
##삘
##싢
##뼈
##꼐
##싹
##얻
##깊
##녜
##뒹
##볕
##Z
##댔
##몈
##뫼
##꿀
##푼
##끜
##댈
##햨
##탯
##썩
##낄
##긌
##졐
##벙
##찮
##뱌
##욤
##뇽
##뷔
##덴
##슝
##뎌
##펄
##긁
##찢
##녕
##쏴
##쵸
##톰
##씻
##눠
##쉭
##갚
##랗
##킵
##꿨
##킷
##텝
##쇳
##빛
##몸
##촬
##햏
##맥
##씝
##쥘
##팠
##눅
##볜
##셀
##넨
##핡
##켯
##틈
##탬
##밴
##궜
##팻
##쇠
##홥
##멕
##짅
##딕
##빜
##앜
##샐
##굽
##빔
##걀
##궈
##핳
##뺠
##캣
##쭈
##갠
##옐
##뭇
##씹
##럿
##뚠
##맄
##윽
##힙
##즙
##꽂
##캬
##컄
##홓
##쪘
##씁
##꿍
##녈
##컥
##쥉
##뻥
##옵
##릌
##쒀
##냠
##촠
##첸
##꼼
##띵
##헠
##칵
##삐
##곀
##퀑
##낙
##뭄
##밝
##렉
##웍
##듳
##쟤
##닳
##틸
##밸
##켄
##땨
##쿸
##컹
##둬
##뻘
##잪
##뎀
##퉈
##깃
##딧
##쁠
##풋
##숫
##셸
##쑈
##흉
##뜰
##춧
##겆
##옳
##옌
##썻
##쩡
##헀
##잣
##앋
##돋
##젊
##뛣
##쉘
##뷀
##됟
##덷
##댇
##돔
##튕
##듭
##즐
##딜
##껑
##헨
##렐
##횽
##낍
##엾
##핟
##왑
##흫
##훟
##윈
##겻
##싣
##윌
##쟎
##괍
##쌘
##뼘
##섴
##셐
##섐
##뛔
##쮜
##톼
##엨
##짙
##걍
##챤
##먀
##뿜
##팜
##뀐
##녔
##콰
##텟
##찹
##솜
##퀼
##앓
##떄
##휠
##궄
##옄
##땔
##븤
##랠
##갘
##삿
##갭
##륙
##뉭
##깽
##깩
##딨
##읜
##텀
##졓
##탛
##짚
##굼
##쳑
##툭
##닉
##쿙
##읏
##뚭
##듀
##쌌
##몃
##잋
##숴
##옛
##낏
##켈
##홧
##뗌
##뎄
##숩
##첵
##굔
##뱉
##풉
##끽
##잗
##밇
##뢐
##뗀
##죸
##윜
##쳉
##밐
##컵
##멩
##땤
##팍
##쏟
##줕
##훼
##넛
##쏠
##틱
##묭
##찡
##쨰
##깄
##뫄
##훙
##괜
##쮠
##쏨
##륵
##헝
##컼
##웩
##띁
##멤
##댐
##핥
##녤
##겪
##읕
##팹
##늉
##왐
##웆
##썼
##좁
##쫓
##싯
##캉
##꾹
##냅
##뤘
##짰
##낯
##넓
##잰
##딍
##곂
##챔
##벜
##깁
##맼
##뻗
##솝
##릔
##콧
##밉
##땀
##넉
##튠
##씽
##닺
##봫
##죡
##꺾
##욯
##쑴
##꽈
##늕
##텅
##괭
##맺
##뤽
##냑
##팉
##탙
##탸
##꿇
##얀
##찟
##몀
##얌
##헷
##떳
##졔
##쫗
##겉
##덮
##샨
##푹
##룸
##좈
##렏
##츨
##듵
##멀
##팸
##죤
##틔
##숯
##깅
##겡
##툴
##좇
##늙
##볏
##읺
##펠
##랖
##폼
##돰
##훤
##빝
##벳
##읃
##훔
##쩍
##쳣
##벰
##흣
##퀀
##넵
##랃
##붇
##쌋
##갬
##빽
##찜
##힣
##헿
##텡
##쉈
##똬
##캍
##곱
##홈
##몾
##쫘
##죵
##붓
##잏
##됰
##넄
##됌
##쌉
##굳
##쎀
##밠
##펖
##앢
##쑵
##욮
##귈
##윷
##꿩
##쐑
##핻
##삠
##췌
##쎅
##웒
##탤
##눔
##갇
##왼
##솤
##헣
##튄
##퉷
##셉
##훅
##롼
##밧
##쨀
##뗄
##뺀
##셌
##쐽
##멱
##셩
##챈
##돤
##잎
##쨚
##헥
##닯
##꺠
##짗
##꼇
##껠
##렼
##퍽
##뤰
##햄
##볶
##삤
##곁
##웤
##맂
##퐁
##샛
##섀
##얏
##쌩
##겋
##롷
##뺌
##촤
##쒸
##돟
##굶
##늑
##빅
##먖
##쟙
##꺀
##졈
##젭
##냌
##즁
##붉
##쿡
##썸
##괘
##욘
##샊
##됔
##늪
##뾴
##읠
##탠
##핼
##맷
##떵
##뤠
##쓱
##껍
##텼
##딫
##댑
##듈
##췄
##싦
##읭
##밬
##짭
##퉁
##걔
##벋
##뀨
##텋
##펐
##굉
##볍
##챗
##귑
##핏
##곗
##빚
##쁀
##햿
##쎈
##숰
##탗
##캅
##뻤
##찿
##멎
##앍
##녘
##콬
##쟝
##랒
##눗
##놐
##깉
##짠
##췼
##쩐
##쎔
##됏
##뼝
##핬
##냏
##붸
##쭝
##뵤
##뭅
##솓
##뎁
##긤
##햤
##곽
##샆
##뿝
##뎊
##낚
##꽉
##뺑
##쇡
##낐
##묠
##쏭
##읔
##팥
##넻
##푱
##왘
##쮸
##햔
##룐
##뜼
##윅
##듦
##즹
##왤
##멯
##뵝
##씸
##맑
##룻
##챱
##졍
##곘
##칫
##얹
##엊
##껬
##캌
##쒔
##떔
##폈
##쿰
##땁
##쫒
##눕
##쭤
##쨋
##빸
##빰
##싄
##핞
##킈
##궤
##봌
##훗
##맵
##탭
##깬
##굻
##솨
##캥
##렝
##겔
##쯔
##뾰
##엦
##꿘
##렠
##읻
##렻
##솥
##뎨
##혓
##쩠
##꼌
##뺄
##랼
##횟
##틐
##빢
##냣
##똔
##넙
##놬
##셬
##옼
##룍
##츕
##욨
##쐈
##틋
##폿
##왭
##릏
##윻
##잨
##썪
##촨
##읁
##낔
##줭
##늣
##썽
##뭡
##챌
##햬
##빳
##갗
##쑹
##쨌
##썜
##쉥
##놰
##쟌
##돜
##먿
##읿
##앚
##얍
##굇
##쯱
##슠
##딛
##섺
##왁
##쨕
##탘
##맠
##뷴
##샎
##낂
##옮
##샬
##눞
##밡
##꿋
##엤
##쎜
##헉
##둣
##뎧
##웡
##뒈
##혙
##읶
##쐇
##욺
##뵙
##쨔
##뺴
##윚
##뽈
##붖
##넿
##긕
##슉
##펙
##첼
##뿑
##씃
##딤
##놯
##맣
##낱
##펼
##덬
##옿
##묜
##뎍
##켔
##읗
##죙
##낟
##푶
##샏
##셕
##롹
##쪈
##홰
##싮
##뀜
##덟
##쥥
##웸
##짲
##럅
##욥
##댱
##벚
##핶
##딲
##몹
##꾀
##렜
##줸
##쁩
##녴
##좯
##삳
##큭
##췬
##콥
##팃
##돝
##돴
##궛
##둴
##륄
##푀
##쇅
##샸
##핍
##렄
##셍
##뮌
##웞
##궸
##떰
##눀
##깸
##엮
##곶
##훨
##땟
##몆
##룟
##얕
##젬
##웟
##잴
##엏
##텦
##핌
##넸
##꾜
##슺
##틉
##뱡
##겤
##짴
##튈
##폇
##켬
##쿱
##줴
##껕
##얇
##뼌
##붐
##퐄
##쬬
##햠
##푯
##갰
##즤
##츈
##앎
##벡
##죈
##띤
##끅
##늡
##넚
##튝
##죹
##휩
##멉
##찧
##륍
##첬
##왉
##믜
##젏
##넽
##냼
##쑨
##넦
##뛸
##닏
##쏜
##숀
##뮨
##퐐
##끉
##쾡
##앸
##놘
##뮴
##끠
##튤
##븥
##궂
##줔
##땋
##덥
##뽱
##쌨
##툽
##펏
##뎠
##앰
##옸
##옺
##뇻
##겢
##텈
##옟
##릐
##댛
##끙
##쭀
##굾
##쵮
##곲
##씂
##렚
##깂
##쑥
##궅
##뵨
##뿟
##쎠
##펕
##텤
##흄
##쎃
##긑
##옾
##믁
##앳
##뽜
##챕
##쉨
##뷩
##솸
##껨
##샥
##듷
##륨
##읎
##겊
##볗
##삑
##슘
##꿰
##뭍
##톈
##숱
##몐
##폑
##춌
##꽁
##듐
##뭣
##몄
##뷱
##켕
##빱
##깻
##녅
##쪌
##젅
##숑
##냬
##싷
##짆
##웬
##뇜
##봘
##뎋
##땍
##캇
##폣
##캄
##즛
##꽤
##됧
##힝
##낞
##콸
##갛
##댂
##췰
##줜
##왛
##펨
##뽐
##쥼
##쫏
##힛
##헡
##챘
##얒
##뛴
##뮈
##튭
##돳
##쌰
##낵
##륻
##멧
##츰
##듸
##픕
##겈
##븟
##깢
##멵
##좠
##눤
##죧
##롸
##횐
##찻
##겇
##댠
##꼿
##좦
##쉒
##콴
##쥽
##캤
##촐
##핔
##랂
##솟
##곻
##땃
##쳇
##넝
##즄
##돛
##쨍
##륿
##뤌
##핝
##쿳
##힉
##튐
##숟
##됮
##콱
##놋
##귘
##섶
##꿜
##솬
##쳌
##뭌
##놉
##쏙
##졷
##츌
##룾
##촵
##팘
##읅
##벞
##뺔
##쇽
##둿
##밎
##쒝
##샜
##뤡
##줠
##쵝
##킁
##샡
##쉼
##숸
##웜
##땠
##숮
##꿉
##옘
##쐴
##읂
##븡
##잍
##껵
##곪
##뤂
##팓
##눼
##뻡
##됍
##갉
##뱐
##죱
##잫
##켤
##궍
##흨
##됭
##뵜
##궇
##믐
##쎌
##흇
##옇
##킼
##곌
##썌
##쭘
##뻬
##렫
##싴
##굦
##얅
##셒
##쭌
##봥
##넋
##뵌
##띨
##쫑
##숝
##퍈
##뫠
##뼉
##졀
##봏
##젰
##슆
##롔
##괸
##딬
##헴
##걐
##뤸
##츙
##캘
##줮
##햑
##뤀
##눨
##늚
##킇
##헙
##뎐
##긱
##굚
##밢
##즇
##쳥
##켐
##뎡
##빕
##벊
##귓
##퉉
##샅
##덛
##럈
##챀
##삲
##괞
##멓
##텻
##듕
##쫙
##귐
##앖
##쾽
##쾨
##뎬
##꼳
##볓
##뼛
##귷
##좭
##겍
##쳄
##켠
##쨜
##섡
##뉸
##싥
##앲
##컁
##둟
##셇
##렗
##슁
##랸
##쪙
##맸
##얐
##뗴
##슭
##쟜
##샾
##솼
##앴
##쨉
##뎔
##옙
##갴
##졉
##핲
##푠
##썁
##섁
##깪
##읆
##녓
##짇
##벓
##낢
##쯧
##쐬
##굥
##홋
##읇
##롕
##멊
##앝
##홬
##덪
##끆
##쎗
##훠
##뢔
##뵬
##뚯
##믾
##핰
##깼
##잆
##핮
##뇠
##팼
##쫀
##텁
##뺩
##쒜
##욪
##갹
##햅
##뿡
##뜽
##괬
##돱
##뭕
##뒙
##놌
##힠
##녑
##뼠
##띱
##뎟
##긘
##츼
##텄
##듁
##뗬
##뱔
##듄
##촥
##륏
##덣
##쬐
##뱓
##촞
##멐
##쟘
##쳫
##냘
##쇤
##쯥
##읰
##즨
##엪
##횬
##럳
##듼
##쯰
##꽥
##챨
##륀
##겎
##늧
##낲
##뒬
##핦
##늼
##읋
##좡
##밯
##뙈
##윳
##씡
##쯘
##굡
##쳅
##웝
##몱
##햫
##럏
##뜀
##찯
##늗
##힁
##뫕
##픙
##뮉
##꺟
##딈
##럵
##헸
##릊
##쇘
##쥭
##숏
##땣
##챴
##켴
##맏
##좉
##샴
##췡
##쌯
##돚
##눟
##닸
##혠
##옶
##껜
##뽤
##븝
##뫃
##팰
##핛
##뉜
##맇
##쉣
##귱
##볌
##굵
##앣
##븨
##뻇
##롑
##숄
##됑
##싳
##홛
##됗
##쪅
##긷
##쟠
##싺
##줰
##뗘
##꺘
##섿
##삡
##땄
##챦
##뫅
##튿
##겾
##쥰
##긎
##챡
##얶
##섲
##싑
##큇
##휄
##퍄
##셴
##끕
##슽
##쪾
##샙
##갷
##췍
##앀
##뜪
##삔
##슫
##꾕
##껫
##씅
##욖
##폔
##굎
##틍
##넞
##튵
##솀
##깋
##곈
##늨
##캑
##뷸
##뮙
##맜
##칑
##뿍
##낻
##쑦
##멶
##릃
##킂
##갼
##탰
##둭
##껐
##칮
##롄
##턷
##펩
##삣
##몿
##뫈
##픠
##짞
##륩
##뜝
##횅
##햊
##웈
##뻿
##휜
##갋
##뤅
##밷
##뺘
##퉜
##빋
##껭
##붔
##듡
##묫
##닊
##핣
##뒄
##탂
##쮕
##톄
##뿱
##몌
##닁
##돒
##솏
##펔
##뉩
##쳡
##쎆
##읓
##칲
##휼
##녂
##땈
##욵
##잚
##뽁
##듨
##줒
##췽
##큉
##뀰
##꿧
##귿
##탉
##퉂
##뿅
##욀
##쓥
##쏖
##눙
##뭥
##얺
##벆
##궃
##쟣
##퐈
##먁
##쉿
##긩
##갅
##뫌
##욍
##뮥
##찎
##쟀
##퓔
##얓
##켑
##햝
##밪
##쨈
##왝
##쎘
##훰
##닪
##퐉
##귝
##죘
##뚕
##벍
##눴
##꼤
##걈
##쀼
##곺
##귛
##긇
##솄
##섥
##롐
##찴
##텥
##뾱
##겣
##쐐
##짛
##쒑
##샇
##짯
##컾
##쐣
##씐
##퐅
##옃
##됳
##돵
##땝
##칟
##갟
##잿
##렆
##갵
##꺰
##힜
##쌸
##툱
##퓸
##옭
##롥
##괼
##먺
##죻
##륰
##엗
##앒
##쭙
##촘
##죕
##뺙
##앾
##졎
##쒞
##쎕
##솽
##뱁
##읹
##맢
##땬
##찱
##먕
##꽌
##뢈
##슾
##봑
##맬
##젲
##쭥
##풑
##횩
##짢
##뭰
##봔
##궏
##껼
##꺌
##둉
##왯
##욝
##풰
##졘
##늖
##쨓
##홣
##앂
##뉼
##빟
##꿯
##줵
##둨
##렾
##돞
##닄
##꿱
##픵
##퍌
##큽
##휙
##읬
##펭
##팈
##샑
##듥
##픞
##뽛
##샣
##뛥
##껙
##벉
##젺
##컽
##뺓
##쳠
##컫
##궨
##됵
##휀
##쉅
##륌
##궉
##씼
##겥
##킅
##럾
##뜌
##솹
##셯
##뺜
##춪
##씰
##꺅
##괌
##콌
##퍠
##뵹
##뜷
##쳘
##짊
##뭬
##쩬
##늰
##묙
##욌
##흴
##쎼
##쳦
##튽
##뢴
##슌
##잟
##뷁
##얜
##췻
##믕
##봡
##넒
##냤
##뢉
##밞
##걵
##쎤
##픜
##즬
##팕
##쌂
##촣
##뜍
##붜
##븢
##얾
##혱
##꿐
##젇
##씺
##댙
##겷
##윘
##럌
##넡
##꾁
##튬
##끋
##쇆
##큠
##팤
##즠
##맗
##얃
##옻
##볔
##뵐
##읒
##쒰
##졨
##삻
##슧
##셖
##틑
##얫
##뷜
##녺
##귔
##웱
##굠
##칰
##봍
##츅
##뚬
##썡
##팆
##닢
##쥨
##잛
##흭
##캊
##퀜
##좝
##뼁
##챵
##픗
##됸
##죌
##쟄
##싕
##뗠
##걌
##랮
##짪
##퉄
##훃
##쟏
##엍
##긲
##캨
##톔
##폅
##뢍
##웧
##씤
##볾
##춯
##삾
##긐
##댖
##뚨
##촟
##둗
##췈
##맃
##뚹
##끾
##벱
##곃
##앆
##뫙
##몉
##밣
##쌖
##섣
##싰
##쇙
##럮
##꼉
##똫
##뒴
##챃
##춴
##떽
##읾
##씜
##턔
##걩
##쌴
##꿏
##젿
##쇜
##읊
##볘
##툐
##솊
##틏
##흟
##췁
##댝
##풂
##끵
##룀
##몁
##뻭
##줗
##풕
##뱈
##텉
##땽
##궹
##듘
##쁭
##쯩
##렺
##탵
##햘
##죔
##뵛
##쥑
##듲
##눜
##괔
##꾐
##퉅
##봒
##겝
##궷
##얖
##걲
##듫
##턘
##냰
##댼
##얳
##꿴
##쑫
##뎆
##윰
##낃
##떢
##폥
##탟
##걎
##쉤
##웇
##윸
##릠
##곷
##줳
##뵀
##몪
##똴
##돨
##텰
##톸
##읮
##뒁
##읙
##딷
##먾
##쟐
##곜
##넎
##괁
##퍅
##걑
##뭦
##꽄
##쥣
##쎟
##넢
##앧
##닲
##왆
##챰
##좨
##놜
##옫
##럤
##쩩
##믏
##엃
##얿
##몋
##궝
##럔
##샄
##앐
##셁
##큅
##햣
##뀝
##죗
##횄
##뀽
##엓
##횃
##넫
##쪗
##랉
##웂
##랻
##낗
##뺃
##셥
##엯
##웎
##묹
##픂
##띀
##헁
##뮐
##쥤
##갲
##웕
##띿
##걋
##먈
##띔
##붘
##놕
##덫
##죰
##펰
##읨
##멬
##쒼
##봠
##묺
##춋
##씋
##굘
##띸
##흿
##탴
##숵
##욭
##뻠
##왴
##꽙
##읐
##룅
##읳
##괕
##뇰
##뽚
##닜
##섕
##끤
##튱
##븈
##팯
##싈
##뀬
##쎳
##욛
##쫠
##퐆
##촙
##믺
##밗
##쉳
##맆
##꿃
##칌
##곯
##잙
##컈
##쎱
##왱
##뒺
##닻
##텢
##흒
##젞
##킝
##쥡
##믘
##뙜
##갊
##엱
##쮹
##덨
##껔
##팎
##굣
##럐
##뢱
##댸
##껰
##쭁
##뺸
##쭷
##쀨
##댴
##깒
##혬
##긓
##끟
##톽
##낡
##긧
##촹
##릋
##췆
##귴
##깰
##떪
##릱
##큥
##홴
##젃
##큿
##깧
##놎
##쑝
##랲
##궘
##꺆
##풒
##떅
##툥
##찣
##잒
##럱
##렣
##왂
##띈
##싵
##롰
##걉
##햍
##뒘
##흛
##흩
##뭨
##랓
##븀
##쨥
##굗
##쓔
##짍
##헵
##쫩
##쯉
##쬽
##먓
##욷
##뉵
##꼏
##뱍
##옽
##섳
##핯
##핱
##좟
##돍
##좐
##쁑
##뺍
##찷
##띃
##붱
##쭸
##꺜
##놂
##옠
##둰
##륽
##맍
##냡
##튓
##녠
##옂
##쎙
##섷
##뮜
##쾈
##춫
##떫
##휑
##뺵
##왬
##븽
##벛
##뽬
##텽
##캆
##뽯
##쁏
##촏
##짶
##젱
##퓌
##쌱
##죨
##놥
##쫍
##뽖
##긆
##픚
##튁
##멁
##샒
##둼
##냦
##짃
##횹
##뭊
##쭛
##츔
##렂
##숬
##꾾
##럲
##걹
##덲
##풁
##뼤
##볻
##깞
##셂
##갆
##쬑
##퉌
##쉔
##뤗
##쏩
##숼
##츱
##삯
##썐
##됻
##쒕
##둦
##젘
##뫘
##옰
##줐
##늌
##릡
##늅
##륾
##룤
##쮝
##빩
##꼍
##옜
##겲
##븜
##쭵
##칀
##쌜
##쫂
##퇮
##욐
##끨
##짔
##텩
##덙
##봙
##빆
##꿑
##븬
##맀
##럇
##쒘
##쳭
##엙
##퐝
##랚
##탼
##뽂
##풜
##댬
##똒
##햭
##슄
##윂
##샂
##롲
##솎
##섓
##뜁
##냍
##럄
##릍
##찓
##톳
##삵
##쨘
##홤
##뢸
##탏
##솁
##쒄
##딯
##쑐
##댤
##븻
##픅
##뀠
##죴
##떙
##굑
##헜
##훑
##뇄
##깦
##힄
##쓉
##춬
##숳
##뙨
##쨱
##녾
##홫
##옯
##랋
##찤
##붛
##홯
##걘
##랟
##혯
##삮
##푴
##샞
##츗
##쾀
##읖
##맋
##핧
##붼
##뉔
##똩
##칡
##흗
##큄
##볃
##둏
##덝
##묄
##큔
##떈
##눳
##폽
##폨
##롣
##굌
##롳
##싞
##뤈
##퇸
##뭑
##헳
##젴
##봗
##룔
##뒠
##챂
##팧
##혴
##씈
##뎉
##걿
##꺨
##팒
##뻈
##켇
##첰
##밓
##쪔
##룠
##킾
##쩰
##껗
##숶
##웦
##꿥
##샋
##퐨
##롶
##귕
##싲
##껃
##댲
##캭
##휸
##캋
##뤔
##릳
##솑
##찭
##뺫
##쵱
##겦
##섂
##쒹
##낒
##렦
##푝
##똗
##띡
##먘
##슮
##싁
##귬
##빧
##멏
##녬
##샢
##혛
##놤
##섘
##닰
##봊
##띰
##딀
##핤
##횻
##굱
##츸
##쭬
##쩧
##딹
##뻄
##쪕
##읯
##큌
##뛟
##뭵
##휅
##뤩
##벴
##읉
##껶
##쏫
##릵
##돩
##뷐
##췟
##툑
##퓽
##쉞
##홮
##묾
##멥
##뚸
##쎴
##밁
##떱
##롓
##흅
##듧
##쉲
##좤
##슿
##챸
##읩
##먐
##쏼
##닶
##럎
##턩
##춍
##쓩
##짥
##젣
##혖
##좔
##뫤
##쯈
##췐
##쬭
##뭋
##솈
##쫃
##굨
##켱
##쪠
##쟞
##쌧
##칽
##퉸
##늏
##퍙
##넾
##괓
##릈
##셱
##꽐
##얆
##뇔
##늟
##훚
##빞
##띾
##왇
##홐
##쁙
##몴
##늫
##퓐
##볠
##룜
##툉
##탹
##욹
##헑
##컭
##믽
##켁
##탇
##륳
##윧
##솩
##맫
##렞
##싓
##즥
##혤
##썯
##끚
##뙁
##홨
##닣
##펲
##첻
##춉
##츀
##톪
##댗
##랕
##챊
##뎤
##혰
##푤
##봬
##탆
##듟
##쐥
##덹
##뽓
##쯪
##릮
##쎵
##뒇
##짂
##풔
##쥠
##쯕
##잀
##넗
##뗐
##쯜
##뎇
##샼
##쵤
##칬
##쉙
##웾
##탶
##걽
##걁
##켷
##귣
##슩
##믠
##갞
##캪
##긜
##벘
##됥
##젗
##뭠
##쓍
##뒝
##햛
##쩃
##쟛
##룁
##긒
##맅
##칢
##뽝
##쟸
##쏀
##릶
##뎽
##폳
##뿨
##껒
##텧
##훀
##킸
##쀍
##뗜
##짳
##쁫
##씆
##츶
##춮
##덋
##죚
##뿠
##헏
##좍
##묀
##쨴
##죺
##뗑
##횤
##빍
##쉌
##춣
##쿹
##꺵
##뜾
##짏
##핋
##쮀
##뽥
##쩄
##왖
##괐
##쑌
##졑
##쬰
##쉇
##쪿
##핚
##눚
##빷
##먠
##칞
##홎
##겓
##힢
##틷
##겂
##쌻
##뛧
##뼬
##뾥
##똭
##훓
##얂
##꿓
##빾
##앶
##텬
##걺
##횰
##팑
##띙
##챽
##컺
##갣
##흝
##굯
##쏰
##뉰
##궙
##벻
##칱
##븕
##뒵
##먑
##쟟
##렃
##뉀
##깗
##앩
##퉥
##쌬
##푿
##귾
##첝
##갃
##닾
##녚
##틎
##믑
##늩
##섄
##벹
##빶
##넀
##쓤
##싐
##궥
##땆
##쳗
##쥿
##눰
##툈
##펵
##쬠
##틘
##좽
##죾
##넺
##쫭
##뎜
##돽
##윔
##즣
##댚
##굲
##첤
##캈
##픋
##첟
##륫
##쒴
##힟
##좩
##뗏
##킺
##맊
##멌
##랱
##웻
##롞
##냊
##돡
##꽇
##뮼
##톧
##헔
##곬
##똰
##쯍
##껸
##걊
##렊
##싟
##뙄
##뚧
##훻
##챼
##벸
##졳
##훵
##좬
##흼
##숔
##닟
##욿
##몼
##짦
##홑
##뱥
##쒓
##웊
##뚣
##툇
##랅
##듢
##칧
##칻
##뇩
##엫
##웋
##굮
##덞
##멨
##큡
##붚
##흌
##쌐
##싡
##뼀
##눛
##뒸
##꽅
##퉝
##뻨
##싿
##뷥
##몯
##웄
##퇼
##푭
##푁
##잧
##뼜
##묨
##썠
##싙
##쇈
##낓
##첞
##훊
##슻
##쿜
##쫐
##엷
##뒨
##뉠
##룝
##쳒
##줃
##쫴
##쉉
##쑉
##쾃
##뙇
##젆
##옝
##겱
##걖
##딿
##쵼
##곙
##졒
##슢
##껓
##짒
##줼
##먜
##쾍
##졲
##웓
##곹
##첲
##녇
##밦
##줟
##긬
##쟬
##컿
##싆
##녆
##벧
##붌
##츞
##욗
##엩
##쿻
##뽷
##솢
##꺙
##뙬
##잲
##럻
##똿
##닡
##빘
##멷
##윱
##쐉
##뻩
##겯
##옅
##낋
##렋
##싨
##벩
##즼
##퓡
##짌
##욫
##퀠
##뗔
##칯
##앻
##칳
##앛
##쁰
##풐
##씊
##폠
##쨖
##쁟
##덗
##딳
##뢨
##걾
##퍞
##엀
##찅
##딋
##돻
##횓
##닒
##홝
##뜅
##떧
##덌
##읫
##읪
##뤜
##곩
##캿
##췅
##뫔
##퍔
##꽊
##뗭
##즞
##댭
##춠
##풬
##냩
##묽
##쳧
##쎾
##욲
##챁
##퐌
##벑
##뗍
##잁
##츽
##뻫
##댣
##떦
##잓
##꺈
##덖
##븋
##퐤
##뵘
##랡
##쐒
##쟇
##얬
##둊
##똨
##픟
##첯
##뽹
##왙
##뱩
##렩
##껩
##쒯
##딭
##휨
##꾺
##큮
##쿢
##괙
##뀸
##솧
##줚
##쌟
##븹
##벁
##섵
##뭏
##튑
##흦
##솉
##둌
##뫀
##곅
##쑬
##셓
##숐
##꿤
##핪
##웛
##봈
##텆
##걤
##쟹
##횧
##쉄
##풓
##훍
##빬
##썀
##휵
##짎
##췩
##덍
##쨐
##썎
##닩
##퀙
##뭈
##겴
##긪
##짫
##묑
##쩦
##굈
##듪
##쵯
##젋
##륶
##퉼
##쌥
##칤
##뗫
##줊
##븓
##턍
##긃
##짉
##긛
##돘
##뗸
##듰
##큳
##슦
##뷘
##걕
##뜔
##엋
##룱
##횢
##첮
##퍀
##헓
##랆
##혺
##귁
##맻
##똡
##춈
##텊
##홟
##븁
##쭟
##볽
##쏬
##췤
##늴
##괵
##귯
##옪
##릸
##뮫
##붂
##돆
##읱
##잩
##멂
##덢
##뭃
##춭
##곆
##깛
##볋
##섮
##귻
##뺼
##퇀
##녿
##괏
##냴
##벟
##긂
##턐
##켛
##엳
##쪜
##룷
##붥
##꾿
##봩
##읈
##솰
##귺
##칝
##뿩
##졿
##훜
##줩
##줆
##섻
##찲
##딖
##줉
##쟆
##뒐
##웑
##끐
##똻
##쿗
##엧
##웢
##쩻
##늤
##앏
##떶
##쬼
##헊
##썖
##숖
##븃
##뵴
##맪
##꽹
##얷
##땩
##챺
##쁍
##놇
##헭
##렧
##깓
##뀀
##엲
##짣
##똽
##붤
##랎
##윀
##꺴
##짺
##쉡
##쀠
##쇟
##옦
##뤤
##쫔
##괠
##땎
##볹
##늇
##뀄
##쓲
##뭽
##뮛
##뻴
##헗
##쇱
##뒼
##욈
##섟
##놛
##썟
##뤃
##욉
##댥
##뇐
##뱗
##뵏
##믇
##싅
##휭
##믻
##끛
##꼻
##휏
##벾
##솃
##뤕
##뱨
##땸
##벝
##뷇
##꺗
##퇫
##퐛
##뷕
##춎
##뱸
##벫
##뢁
##픝
##졵
##뵥
##햡
##윣
##엒
##셛
##쎡
##쎁
##퐜
##긺
##킆
##쪹
##쒱
##뉫
##얙
##툳
##뙸
##챝
##넊
##꺕
##뱆
##켲
##귭
##셟
##섈
##엻
##쎨
##녱
##핽
##긄
##슏
##틩
##왹
##푬
##깇
##돸
##힇
##챳
##삉
##꽑
##볆
##븩
##뚀
##궠
##궆
##벖
##횝
##뤙
##맚
##씉
##즂
##랈
##쏱
##봴
##쿽
##롫
##챜
##낝
##핢
##놑
##둛
##쉛
##잂
##옣
##뺕
##줙
##졏
##퉐
##슂
##긼
##밙
##둽
##뤱
##봭
##깹
##곋
##툠
##뉌
##맒
##즺
##쵠
##텓
##얨
##몡
##픀
##꼮
##떸
##쐅
##놏
##줈
##쳍
##혷
##뱬
##탖
##훕
##튶
##츧
##큵
##쟴
##뿤
##쁄
##팗
##솅
##풱
##쭊
##꺔
##섫
##헼
##륔
##얭
##쟅
##롁
##궑
##츜
##풃
##젷
##캴
##캏
##씯
##뫜
##멭
##틓
##릷
##잕
##눃
##퓬
##쌞
##룿
##갌
##듇
##덭
##돾
##짋
##콯
##쥫
##욳
##윺
##쟼
##켚
##냒
##켭
##싧
##녛
##땢
##줱
##셭
##쨎
##댰
##뷉
##웘
##뫗
##끍
##덀
##컇
##놩
##훋
##힑
##퓅
##럣
##똈
##쾬
##쫟
##즋
##빭
##뺒
##낎
##긹
##좢
##끰
##쁌
##좂
##밮
##텸
##핓
##톻
##쳈
##뎝
##퉵
##촺
##쁴
##줋
##콮
##쟂
##쌎
##뚄
##헒
##됙
##뮹
##돐
##촴
##츹
##콭
##핷
##룈
##쀳
##켙
##톅
##쏸
##퀫
##켝
##횠
##쭃
##긵
##쒫
##쀓
##꿿
##뻰
##왰
##욋
##탣
##잜
##햋
##톺
##륐
##걜
##왚
##탚
##꾤
##둫
##밫
##톹
##릣
##뚢
##춐
##쐰
##닧
##깣
##탍
##긥
##봀
##힗
##횸
##롻
##줯
##먽
##곛
##뽠
##큑
##핃
##헢
##틅
##듓
##븉
##쮁
##냫
##뇹
##쵁
##쓐
##즜
##땦
##쀄
##쇣
##짮
##힞
##걻
##졶
##쫛
##뵁
##좸
##곟
##뎓
##듶
##헋
##씄
##붎
##솻
##늭
##뚈
##녻
##띌
##뱽
##퐠
##볙
##쳊
##틁
##꾳
##릂
##힊
##뇝
##찗
##뇀
##쫰
##뙝
##쏌
##짷
##퀐
##툿
##씪
##똣
##띳
##떯
##뿥
##붊
##똧
##쭠
##쭞
##쩟
##갏
##뜃
##듹
##쳰
##웗
##빹
##곴
##욣
##옲
##흽
##됚
##갳
##뜿
##슀
##뚊
##쩎
##쫜
##싚
##븧
##퉽
##쾐
##햎
##퉆
##윿
##넧
##쉟
##뤫
##좱
##뱜
##댷
##딺
##둞
##톌
##즵
##훽
##핕
##쉓
##뭩
##엞
##빂
##쑻
##늽
##훏
##뿬
##붅
##릫
##뻖
##욼
##쩼
##즎
##샕
##섩
##뿕
##뛓
##퉨
##깕
##붬
##뛍
##헾
##섪
##썾
##뀟
##쒭
##쒥
##떌
##헟
##헞
##뱕
##줨
##곚
##죷
##냪
##굤
##윟
##랇
##쓷
##륹
##푷
##뾲
##탲
##똠
##폌
##륲
##꼣
##젙
##좼
##웚
##챚
##둙
##쩅
##홱
##옉
##씦
##풏
##헯
##퓍
##꼥
##윹
##줖
##쀅
##뜡
##팢
##몊
##꼷
##셲
##쩢
##붆
##쩓
##숚
##턀
##쐭
##쩀
##믣
##찫
##앇
##뮷
##뉑
##젳
##쾰
##괃
##앹
##좜
##뻙
##롵
##팛
##핖
##븎
##꿂
##붍
##퀏
##쨲
##겕
##굷
##듩
##쵀
##쉫
##샗
##즏
##캰
##떗
##녽
##춝
##렽
##쥄
##즟
##갿
##춸
##킫
##즴
##봁
##뢘
##쓀
##혽
##쨬
##둚
##셃
##뭷
##잳
##뻦
##몣
##됤
##럑
##릲
##쪵
##쎍
##볒
##찠
##쩖
##뿰
##붠
##앿
##펃
##옧
##븏
##쇵
##힡
##봆
##뱝
##몺
##럯
##팄
##뚞
##훳
##삱
##됱
##롈
##껚
##됒
##휔
##뙛
##삷
##봟
##젵
##뢜
##젂
##빪
##뉙
##룧
##닑
##볖
##홪
##퇏
##폘
##쉻
##걥
##줎
##퀭
##끘
##퀔
##뤟
##뀻
##낤
##뎂
##짿
##댉
##윢
##눍
##쁸
##찦
##좒
##눝
##퀌
##롡
##쿺
##쁼
##씔
##돎
##솦
##볫
##꽘
##췹
##팚
##됢
##넁
##쉪
##렪
##캼
##맿
##킐
##뱛
##됼
##죿
##콫
##긊
##얠
##깱
##슯
##뤨
##샟
##엕
##볂
##뿛
##뿎
##흏
##뢓
##퀡
##굩
##봽
##곝
##엢
##줅
##핐
##쏵
##옞
##씍
##붋
##찳
##힒
##괨
##꺤
##뉬
##죅
##촀
##볅
##귖
##뀍
##틇
##홭
##넑
##뀩
##겒
##뫂
##뢌
##뵠
##혝
##뷧
##럊
##씳
##뱎
##쐤
##춛
##긿
##홁
##햙
##볭
##랯
##틜
##녙
##뒥
##벯
##칔
##쟥
##킽
##넖
##밚
##숌
##뜜
##핒
##돇
##뗙
##됝
##몲
##쒈
##뢋
##듑
##뽭
##먗
##썍
##늿
##쬎
##켞
##쯫
##틒
##뼐
##멿
##떘
##섉
##헱
##딉
##뀪
##뒛
##뻒
##씾
##탷
##뀃
##붏
##맓
##땧
##뛱
##흳
##밒
##쮼
##냿
##뭤
##뫁
##섽
##솖
##푄
##꼹
##읲
##퐇
##뇍
##륑
##볷
##릘
##럶
##쏃
##춱
##쇀
##줁
##톩
##첳
##풘
##톷
##뷷
##톀
##쮓
##꼄
##룯
##롘
##뀡
##곕
##훡
##혿
##퐂
##쩤
##궭
##췕
##휫
##릾
##킌
##즷
##꾈
##뛝
##낅
##꼲
##똵
##껳
##튘
##읟
##롮
##띴
##뉍
##핗
##턑
##겿
##곢
##삨
##겫
##혇
##쏐
##릥
##긯
##쩕
##멑
##삸
##숡
##턉
##썔
##퍤
##짵
##맽
##꾱
##똟
##쉗
##욎
##펅
##츛
##섦
##퓹
##퓩
##잢
##촜
##탊
##젒
##쓌
##셎
##띕
##뢕
##렢
##벏
##웙
##얮
##홖
##븰
##벶
##넏
##뽰
##뭴
##퇬
##렭
##붗
##볎
##쑼
##혚
##귽
##걼
##닚
##늒
##럘
##냗
##둇
##쟃
##톶
##쨧
##땓
##씞
##녝
##웉
##뭫
##뭁
##젉
##굄
##햟
##툄
##봦
##뭎
##씿
##앃
##뛀
##뭟
##돉
##샦
##쨤
##휗
##뵑
##앁
##킦
##헧
##릑
##꼅
##헍
##촷
##쭭
##묏
##퉛
##눋
##훞
##뱤
##훉
##퍡
##붃
##웳
##꺍
##뻼
##춀
##픤
##춞
##릁
##웣
##쭹
##뗳
##뼙
##늜
##뿧
##텠
##뵵
##긏
##룃
##흓
##됡
##횜
##닍
##죜
##쀽
##쿌
##괖
##쩗
##쯋
##굫
##싩
##텇
##붰
##븦
##펺
##뇟
##띅
##걶
##뺭
##먻
##깵
##뀤
##뻉
##윝
##퍝
##낪
##돓
##샫
##엶
##췜
##툅
##읷
##씥
##톃
##뽞
##뽴
##췝
##뤁
##훝
##깯
##뺗
##쐨
##쾤
##깾
##쎰
##쯴
##큩
##먱
##꿬
##믱
##갶
##춚
##끞
##쬘
##떣
##븞
##켉
##랁
##툲
##뢩
##뀅
##텂
##뙷
##낛
##뙌
##땉
##갮
##쓈
##쿧
##쉩
##뀷
##첢
##숧
##헫
##젾
##툨
##틤
##믬
##텹
##갧
##뷍
##냎
##꽜
##끀
##쮑
##욽
##뒌
##슸
##넭
##젌
##뮁
##졹
##늛
##윋
##쭻
##싾
##좓
##곣
##퓻
##퍾
##귥
##쿯
##퀰
##켵
##싪
##걧
##썃
##됃
##쌑
##먆
##믉
##튴
##슶
##춡
##콋
##씟
##낕
##쏳
##쎽
##븛
##쎝
##싘
##쉧
##봋
##엸
##뗵
##몔
##냋
##봃
##퇍
##큣
##빫
##픃
##퇶
##쳏
##뜐
##뗗
##썋
##툣
##툩
##둪
##웖
##꼨
##앑
##톢
##쓊
##쬔
##꼶
##릹
##샔
##렓
##뚼
##맖
##쏏
##렅
##끸
##덈
##틂
##떩
##뚵
##럷
##찁
##굧
##벐
##숢
##멒
##밳
##솣
##떥
##뵉
##뒓
##긶
##긻
##솛
##걨
##궵
##툻
##꿌
##뚷
##딞
##릻
##붯
##뺅
##줓
##붴
##꾝
##킿
##똦
##뿽
##헽
##쓕
##빖
##꿁
##앺
##밹
##럠
##쉜
##꿻
##싖
##쯨
##홒
##셏
##풎
##쥦
##릀
##붭
##뿁
##튺
##밲
##뺶
##턋
##쪟
##푲
##샓
##혲
##썱
##촪
##첧
##툊
##띻
##묿
##춟
##붹
##굅
##젶
##엹
##씷
##첪
##숗
##맔
##눹
##컀
##걇
##쉚
##슲
##꿕
##쬿
##뼏
##턹
##턕
##욻
##꿸
##뱰
##겵
##쀌
##뜱
##뮝
##쁝
##꺊
##팊
##욾
##쿈
##츃
##꿲
##킉
##픓
##킀
##빎
##걳
##렑
##빏
##첑
##젚
##퇙
##왲
##띟
##갺
##헲
##듞
##묷
##즡
##핆
##꽦
##뇁
##쉾
##놖
##캽
##칶
##웪
##쬮
##툌
##뵷
##뙴
##먇
##봵
##첱
##똙
##탅
##멛
##픎
##벎
##쯀
##뤵
##칄
##꺳
##솕
##샚
##튔
##섊
##쀏
##퐙
##옩
##쑛
##쒁
##쓿
##둒
##챋
##퉹
##쭄
##솠
##딝
##흪
##뽇
##밊
##흜
##얩
##헚
##혭
##팙
##곫
##뷃
##끏
##엜
##삹
##끎
##뎦
##볈
##쒧
##쮭
##겗
##춏
##륮
##씮
##뤳
##쇨
##빺
##욓
##옱
##쫅
##틕
##얋
##믝
##겚
##녗
##뇡
##쵴
##홇
##녖
##빣
##꿹
##씶
##쭕
##놴
##궳
##딻
##믯
##슅
##휰
##줝
##쟊
##윁
##뛌
##벲
##풇
##쿔
##쏄
##둩
##윶
##홡
##캩
##벷
##챷
##챫
##췸
##좎
##믛
##뎻
##폯
##믖
##궯
##렡
##댏
##꼊
##눽
##폡
##펒
##쫚
##줂
##젍
##뱟
##윯
##삧
##슰
##쀵
##쓋
##뷋
##갍
##쓒
##뜛
##핺
##잞
##둧
##흚
##쬴
##꿝
##쓑
##랊
##궓
##땰
##눵
##멫
##봎
##셫
##퉬
##뮻
##턈
##갢
##씱
##꼵
##쫖
##궀
##섔
##흵
##붝
##햩
##밂
##옢
##엂
##픍
##넟
##슳
##먤
##돖
##쉠
##쀈
##쒐
##뽘
##꾭
##콪
##샿
##팏
##훛
##쑀
##쨟
##뜳
##쇸
##쥈
##텣
##쿩
##봰
##휍
##뷤
##햰
##뚦
##쎇
##궮
##혻
##쩣
##쑷
##낣
##닗
##쭂
##놁
##챻
##섧
##깑
##젡
##쟡
##냙
##낶
##썳
##녰
##뼡
##쳋
##눂
##흎
##잝
##벺
##걒
##흊
##믰
##낥
##놪
##츷
##쮱
##껅
##겮
##냧
##쩘
##픨
##뷹
##띧
##쓺
##꽆
##풩
##뒑
##슇
##팖
##좊
##헦
##싇
##뱋
##웥
##룄
##삺
##봿
##딮
##쒵
##킠
##쒂
##럥
##퍵
##믤
##걓
##혉
##뾀
##겳
##꽼
##룢
##귇
##꽀
##쐏
##퐑
##갎
##왗
##큲
##혂
##뗼
##괺
##웯
##뛃
##늎
##풴
##웺
##뢥
##괂
##똷
##캵
##걬
##빓
##뀈
##쫵
##쿫
##헰
##푈
##뼊
##떹
##뽫
##럗
##빯
##뭿
##뒜
##맕
##륟
##퍁
##쐌
##뭀
##혅
##떮
##졜
##멮
##뿓
##첡
##콲
##젎
##펟
##쨨
##혾
##겺
##쵕
##샽
##뚴
##쿅
##늓
##겛
##휇
##곔
##쥇
##섨
##꽠
##썝
##뻪
##섢
##썄
##뷮
##뉅
##퇵
##묯
##쀾
##잮
##낧
##믆
##큻
##뺚
##쌇
##븸
##꺢
##슟
##쑙
##뇤
##몷
##쩹
##쀒
##휳
##샃
##쓹
##뇅
##홗
##뽸
##퇑
##똮
##컅
##깖
##떾
##펻
##떷
##셮
##놸
##쇌
##괫
##죢
##겙
##팣
##엁
##꽨
##믂
##훱
##쮤
##겏
##띶
##괗
##졩
##쏚
##퓟
##뒫
##뱊
##큪
##촼
##둄
##쵿
##몮
##첣
##쯛
##뙀
##눸
##뫽
##틳
##뙹
##쁮
##뭭
##쌒
##뿹
##몢
##걭
##챶
##쫨
##퀻
##얰
##쩛
##쩽
##씧
##혆
##뭙
##뙿
##죶
##긞
##꾬
##쮔
##튻
##꽛
##슞
##섑
##쬈
##쒠
##좧
##촡
##풸
##뾸
##눉
##릆
##윩
##찪
##퇌
##삫
##녯
##쮉
##곮
##빇
##얊
##홙
##멪
##췔
##쥅
##꺓
##굪
##뻁
##괅
##넶
##삒
##믙
##뀹
##턺
##뙥
##겞
##걆
##먛
##펹
##칍
##쓘
##죥
##뉄
##뗨
##앷
##찏
##쎂
##썫
##쌗
##룪
##혒
##믌
##뜮
##쭨
##뮏
##궬
##헶
##탞
##쩸
##쵭
##끡
##쳢
##찥
##훯
##죣
##곭
##쪚
##댦
##쀀
##쥳
##큷
##궲
##덦
##숪
##훸
##뙓
##꿄
##즑
##쬲
##퇜
##쬡
##꽴
##쉮
##돏
##퇭
##홅
##뵞
##갥
##햚
##뛋
##눓
##좰
##랺
##힕
##귦
##뾔
##윖
##삗
##똚
##꽭
##쐼
##뚁
##뀱
##갫
##픹
##끯
##킘
##캢
##쏮
##럸
##뺡
##졽
##캙
##뻕
##틊
##쓜
##닱
##뀳
##둅
##흤
##웼
##퐣
##좣
##쌛
##푕
##캮
##몟
##놊
##콛
##븂
##졺
##뛨
##혃
##굺
##휲
##쫕
##똝
##퇧
##킶
##꾄
##얪
##쩁
##컯
##뛕
##쀡
##윥
##뫚
##뮦
##쳴
##깺
##힂
##넔
##퓿
##쁐
##퐥
##뿃
##틧
##쭏
##뜄
##똼
##꺏
##쐄
##쐿
##볇
##휐
##솒
##졻
##쯎
##샮
##풹
##왅
##얉
##곖
##좥
##겭
##왥
##씇
##뿳
##왶
##닋
##놃
##둋
##뵺
##밿
##놝
##졂
##쾩
##뭗
##켼
##괝
##뒞
##꾠
##삦
##쫫
##쒤
##퐘
##쏔
##쬥
##얁
##짾
##뭧
##맩
##볁
##씗
##툶
##떺
##곥
##녭
##쩑
##쪻
##뮘
##뼑
##꺚
##갩
##쵲
##싻
##왳
##걃
##꺋
##숤
##똇
##왷
##쭅
##왡
##앦
##뾃
##멲
##뭚
##쎓
##꽳
##쇔
##죝
##껇
##쓃
##왢
##으로
##에서
##하는
##니다
##하고
##는데
##이다
##다고
##지만
있다
사람
아니
##라고
##했다
##00
##까지
있는
##었다
##면서
##다는
##에게
생각
우리
##하게
##부터
##해서
대한
##리고
##이라
##한다
20
하는
한다
한국
##보다
국민
##습니다
##적인
때문
##렇게
##으면
그러
영화
이런
진짜
##니까
지금
##하지
일본
지난
##하면
그런
문제
##이나
##하다
같은
너무
10
자신
다른
중국
##대로
나라
##는거
하나
##처럼
위해
##통령
들어
그리고
만들
미국
그래
경우
##하기
정부
##이고
##네요
201
##인데
##라는
아이
##어서
하고
이상
대통령
이제
19
이번
그냥
##세요
문재
작가
사실
다고
##한테
된다
##어요
아닌
##해야
##지고
다시
##나라
##았다
것이다
##입니다
시작
함께
사회
따라
없는
정도
정치
경제
서울
##이라고
많이
통해
##라도
보고
가능
하지만
모르
인간
##이지
시간
가장
아무
나오
필요
기업
아니라
##하여
##되는
##리는
정말
자기
북한
모두
##였다
상황
세계
##으며
지역
##다가
민주
200
이후
어떻
##같은
모든
대표
##려고
모습
좋아
시장
사업
관계
국가
이렇게
어떻게
문재인
사용
여자
관련
없다
##스트
마음
##주의
다음
여기
대해
##된다
이유
해야
##합니다
이미
있었
많은
##이라는
위한
##겠다
댓글
이야
##사람
정신
지원
##는다
##보고
아직
현재
돌아
그렇게
처음
사이
했다
계속
사랑
그러나
##하며
어떤
##어야
투자
##거나
얼마
라고
라는
무슨
프로
12
내용
역시
##민국
보여
경기
##으니
##구나
##는지
30
근데
있을
특히
##아서
좋은
##하면서
##인가
##인지
##어나
여성
남자
11
하지
##레이
밝혔
이해
보면
이어
##지는
다는
조국
진행
바로
여러
국내
100
##가는
대한민국
교육
이용
그래서
##있는
기대
오늘
결과
수준
결국
##도록
검찰
##로운
방송
중요
##잖아
피해
지만
있었다
기사
기술
어디
##이었다
면서
이름
그렇
##이었
##지막
최고
##밖에
연구
최근
조사
15
##시키
자유
##없이
보이
국회
또한
이러
##는게
##소리
잘못
마지막
설명
살아
계획
떨어
민주당
상대
저런
경찰
이거
삼성
없이
대학
##가지
지지
##되고
개발
웹툰
친구
우리나라
어느
사건
당시
의원
지난해
베댓
가족
학교
물론
나타
세상
##레기
당신
작품
정권
##해라
되는
같이
기록
감독
##어도
##머니
전문
올해
대상
이게
##으나
##비스
현실
알고
그럼
받아
관심
정책
얼굴
##이야
이날
후보
제대로
##거리
만들어
얼마나
##시아
개인
주인
##동안
사진
##주는
학생
##이랑
##졌다
정보
##시간
회사
##했던
18
나온
누구
않고
##인다
평가
이야기
##부분
##하는데
조선
배우
하면
그것
##되어
가지
다양
한번
##겠지
자체
문화
##기업
말했다
찾아
##더니
따르
있는데
않는
부분
실제
일반
어려
직접
활동
알려
그만
동안
예정
운영
공개
##이트
그리
금융
해서
그림
선거
완전
##없는
언제
##운데
위원
##해도
##0년
새로운
상태
언론
##놓고
일부
올라
존재
##주고
그런데
대구
조금
의미
결정
##진다
소리
##스크
있고
게임
않은
##하나
제발
스토
책임
##로나
세금
공격
않았
발생
누가
한다고
재미
현대
먼저
아주
##이면
미래
##하자
제공
기준
##정부
##보면
인터
방법
확인
기자
부모
가지고
인정
합니다
##같이
##이냐
전체
하루
##다면
##하네
머리
지나
서비스
그녀
참여
있다는
관리
한편
준비
발표
만화
50
성공
자리
##을까
아니고
##라이
있어
##하는거
힘들
##한거
엄마
해도
사고
수사
##정도
주장
등장
##학교
만나
코로나
반대
##말고
과정
외국
##렸다
역사
13
주인공
선수
가격
##마다
서로
##리아
국제
##하시
산업
가운데
생활
대부분
25
보는
##러운
무엇
과거
16
##000
이건
최대
위해서
제품
행동
거의
##랜드
전국
증가
정상
성장
경쟁
더욱
기억
시민
##다니
있습니다
판매
##이며
재밌
해외
생산
노동
기다
요즘
효과
어린
보내
내려
##치고
그래도
##OO
해결
##리지
당연
이것
얘기
14
못한
선택
아닌가
엄청
표현
나왔
##근혜
추가
##이는
예상
##린다
규모
스타
운동
쓰레기
##만원
있다고
장관
영향
환경
아들
시대
없어
##그램
##의원
아니다
추진
빨리
교수
느낌
아버
대해서
요구
##이스
##려는
##시다
##가서
드러
한다는
포함
##치는
##와대
만든
알아
같다
##나요
다며
##들어
중심
기본
17
결혼
입장
##야지
문재앙
##주세요
청와대
##아요
##었는데
구성
노력
감사
##됐다
역할
##릭터
##한다고
도시
##했는데
유지
때문이다
마련
전쟁
좌파
장면
지방
##시켜
발전
##하던
##스로
되어
##라마
##와서
말고
##스럽
##하겠
##스터
부산
건강
정의
박근혜
소비
##아니
지적
보인다
##이란
##위원
##히려
분석
자동
판단
넘어
##는건
상당
해당
##이네
절대
확대
##하지만
고객
##리스
오히려
업체
자연
그게
공부
40
보수
오후
경험
안전
##자리
매우
##하냐
캐릭터
경영
범죄
만큼
기존
##했고
비교
사라
##더라
##시고
##이지만
도움
비판
전망
##이라도
솔직
비슷
없고
강화
스스로
##었던
거짓
##이버
시즌
##가고
기회
다르
강조
바이
##스템
그대로
기관
##파트
##이니
##어난
스토리
##디어
인물
제작
안되
##지않
상승
특별
주변
밝혔다
이루
하는데
거래
원래
공동
대비
##한다는
활용
##영화
미친
구조
대신
연기
능력
##므로
자한
빨갱
##가리
##되었다
프로그램
다만
되고
분명
행복
위험
순간
##드는
##르는
제일
##자기
OOO
그때
시키
치료
라며
인생
21
은행
조직
기간
김정
지속
##텐데
부족
아무리
24
##로서
##으면서
##보니
변화
바람
전혀
전부
##이기
##했다고
##거지
다니
방식
##에선
병원
상품
되었다
저렇게
도록
항상
혼자
적용
인사
집중
비롯
##하니
##무원
가진
##라인
않는다
마스크
##마트
회장
##르고
##정한
주민
##있다
일단
출연
분야
전략
내년
아니면
충분
않았다
지켜
네이버
걱정
확실
##한데
개선
는데
##겠지만
##동산
뭔가
##었고
##스타
같은데
의견
##수록
대체
공산
##은행
또는
높은
중앙
분위
##BS
더불
건설
##되면
적극
보호
아마
솔직히
##기고
199
받고
나가
이러한
주요
고려
목표
달러
검사
크게
있지만
아님
열린
나오는
직원
우선
어렵
그걸
달리
##려면
##겠네
행사
노래
##건가
##때문
신천
있던
궁금
22
느끼
23
시스템
##을때
나서
드라마
그동안
인해
##더라도
있어서
수출
##되지
##라면
여행
중요한
##이터
아파트
가치
가까
매출
의료
부동산
친일
##심히
음악
계약
##아야
다양한
##지지
##시장
실제로
가져
신경
수익
##먹고
##해주
보니
인터넷
##하다고
단체
자식
##기는
현장
##려서
다가
##요일
기분
관계자
출신
못하고
대회
업무
그룹
갑자기
##하는게
조작
바라
사과
안보
##운동
각각
여론
움직
앞서
##에요
오래
유럽
없었다
차지
하면서
선동
영업
세월
##리면
방문
부담
기능
##지마
##해요
##건데
어쩌
##사업
습니다
##드시
가슴
설치
이전
발견
부정
##대한
##조건
##사회
##났다
##간다
사망
대단
빨갱이
아닐
따라서
주식
##돼지
##으니까
나이
확보
자동차
들어가
##교육
##새끼
시절
모르는
어머니
##내고
외교
회의
지도
총선
주택
언급
##봐라
열심히
먹고
최소
광고
##하였다
새끼
##자인
공감
나와
##른다
통합
공급
##구요
아버지
우려
않을
불법
대응
보험
정확
##오는
전문가
LG
##던데
못하는
##군요
집단
선생
##하라
##억원
비해
인천
##정권
##보는
안정
##구만
남편
##거다
##거든
떠나
끝나
있지
처리
##전자
##대표
영국
하다
지구
##러스
##냐고
가는
광주
##8년
싶은
시험
글로
공무원
목적
유명
밝혀
알았
보도
구속
작업
입니다
여러분
##시는
거기
국회의원
자금
사는
바뀌
오전
##이션
나올
##조차
무시
##리즈
본인
단순
##학생
안타
가서
카드
정당
반응
전화
##대체
대책
갖고
26
##생각
참석
개혁
27
탄핵
여전
##이상
이익
과학
##국민
##어진
글로벌
했는데
시청
나쁜
평균
아베
##난다
사기
의사
지키
라이
괜찮
고민
영상
##이라면
시설
##5년
무서
##까요
보기
##너지
불가
이뤄
##7년
처벌
위치
SK
##9년
##이자
##거야
희망
달라
반면
강력
아래
되었
##이어
##없다
선정
제도
28
##했지만
제외
이동
뉴스
실시
따른
도대체
신고
관광
반드시
공식
있으며
##왔다
주는
훨씬
##세계
브랜드
군대
장기
받은
의해
소설
싸우
어찌
60
진심
제시
있으면
신천지
거리
잡아
최초
프랑
##갔다
##지면
소재
아는
무조건
투표
도입
되면
젊은
아빠
소속
말씀
권력
##으로서
평화
하여
좋아요
하늘
##생활
##BC
##내는
##듯이
독일
성격
따르면
핵심
##겠다고
TV
##워서
남성
공간
유치
##라서
##6년
##럼프
중소
인식
시행
청소
##준다
##하다는
롯데
해라
##지게
많다
사태
생각해
아프
만약
각종
아름
스포
감염
오른
스마트
마치
종교
##받고
불안
##했을
나중
자세
보유
일어나
소개
자주
너희
##지역
##단체
가정
심각
통신
느껴
비용
그거
##개월
예산
모델
인상
논란
##이크
아니냐
##겠습니다
이젠
증거
사장
##관계
있게
내부
##수있
##인트
진실
협력
수입
어려운
되지
보통
##겠다는
빠져
독립
점점
센터
싶다
트럼프
방향
연결
##어버
장애
음식
최종
##시민
선보
안나
##림픽
변호
자료
##으로써
작은
불구
증권
회복
맞는
인권
주제
쉽게
사무
거짓말
공연
감정
감소
당연히
##레스
전투
두고
없을
실패
고통
담당
##잖아요
대화
형태
올려
누군
그려
##어들
승리
202
29
여전히
신청
대선
이래
행정
미리
제목
전자
##하거나
한심
출시
청년
방안
##운드
##할때
개념
도와
주고
단계
김정은
대출
무능
감동
##냈다
마을
추천
시켜
아내
##디오
위원회
##머리
##되었
##여서
##4년
공공
##2년
더불어
들고
사례
업계
있도록
본격
플레이
자본
불러
##프로
개돼지
러시아
의혹
마찬
않아
진출
관한
오는
1년
주목
국정
##이드
노조
말하는
스트
포기
제기
##조사
소득
자꾸
모양
배댓
있기
나온다
재판
그럴
좋다
조정
타이
좌빨
일으
싫어
가짜
전개
수도
##위원회
당장
이기
강남
합의
지급
차량
##작가
위기
발언
수요
교회
그나
70
개최
이끌
아침
##로부터
전환
나타나
참가
하기
못하
##경제
전기
##했다는
제주
##그룹
##일보
살인
없었
마찬가지
혐의
인도
조용
응원
바꾸
고용
조성
교통
대형
불쌍
##3년
좋아하는
외국인
##두고
저거
코스
촬영
필요한
하락
##깨문
자산
31
##센터
공정
상관
파악
##시면
시리즈
받아들
##져서
##기관
##든지
오랜
만드는
##마디
유일
부탁
매일
##등학교
조건
자격
아시아
##하였
전달
프리
##라리
기획
##건지
예술
기반
할머니
##민주
연출
온라인
힘든
환자
지하
초반
민족
유리
혹은
확진
진보
인기
평생
##스코
독재
##고있
대중
##는거지
##란다
##리기
##하세요
재앙
받는
우승
##어라
충분히
것이라고
논의
동생
불과
자랑
##산업
아예
이사
##다운
그러면
성과
펀드
법무
참고
제한
##반기
그저
##뉴스
동시
종합
##르게
하며
연합
영어
없다는
이걸
구축
동물
##만한
차이
##지어
##아버
이라
받을
하자
세월호
으며
분량
인수
했던
성적
전통
가입
이때
실적
쓰는
조치
받았
거나
##1년
훈련
##시킨
##많은
관객
재산
보여주
완전히
해석
좋겠다
지난달
나머
500
행위
##봐야
비난
##느냐
단지
없다고
안되는
##습니까
건물
그랬
생각하는
취업
##스러운
##던가
베뎃
됐다
배경
요청
구매
됩니다
별로
주로
198
최저
해주
##우고
금지
대깨문
##해보
반영
2년
가르
서민
약간
신문
입국
##만큼
자살
시도
철저
끌어
##것같
##아가
생긴
##였던
복지
개정
검토
화장
설립
특징
##시키는
과연
프랑스
수상
있었던
설정
##들고
##인거
굉장
돌아가
황교
일자리
구체
##회사
대변
차례
강제
##지말고
약속
##어지
##장관
않다
##이든
목소리
이명
봐도
남아
규제
연속
상당히
##가락
차별
어린이
##무리
##리오
신뢰
80
보이는
선발
##겠냐
남북
강한
일정
혁신
그건
생명
애초
혹시
장난
인지
가만
##적이고
부문
홍보
##한게
불편
토착
달려
##이죠
##웹툰
##롭게
상처
##끼리
생겼
정리
##시키고
나무
민간
##문화
쓰고
하는거
##스럽게
귀여
모르고
갈등
##차피
하게
차라리
있으니
##한다면
피해자
멤버
근무
의심
부르
하이
평소
올리
통일
보다
전라도
덧붙
오빠
사상
상상
##예요
##나게
##겁니다
노무
##랐다
죽은
올림픽
싸움
소비자
##가요
미사
통과
작년
##페이지
##려야
내놓
알바
어차피
없애
목숨
저희
위원장
수행
직업
벌써
거지
공장
인터뷰
도로
눈치
분위기
연예
대사
는다
재미있
연재
지지율
군사
##같은데
##투자
애니
역대
듣고
물어
있음
아닙
##가지고
있어야
분노
한마디
희생
규정
항공
그린
3년
##프트
##싶다
##인줄
##대통령
##하려고
살고
##er
##아라
미세
이르
놓고
##국가
##먹는
타고
##개발
거부
확산
비중
국방
굉장히
##쳤다
본다
중소기업
제안
300
죽음
많아
충격
어쩔
##지원
심지어
무기
알게
확정
근거
##하려
일상
우주
##드립
전해
공사
지배
고양
그러니까
##바로
##50
여름
못할
이명박
비슷한
다행
엄청난
그림체
이라는
늘어
##사고
민주주의
##할수
똑같
##정책
기념
어서
이재
##나는
적폐
10년
##랍니다
마이
질문
##리게
아쉬
##당한
고생
중간
시점
촛불
게다가
4월
부끄
공포
포인트
##셔서
예전
##관리
근로
그나마
생기
보면서
분양
향후
자녀
##봐도
혜택
것입니다
이곳
있다면
신규
특수
맨날
졸업
오르
임명
후반
스포츠
통한
에너지
청소년
없어서
비율
##리카
완벽
야당
제조
전시
만족
바꿔
새로
동일
##개혁
저지
당선
##보기
눈물
뛰어
못했
옛날
된다고
나누
방침
액션
물건
등록
지식
##기술
##나오
직장
완성
##아닌
노무현
주도
##은거
바탕
가득
신용
##시지
독자
판결
바보
우수
##져야
##자고
없는데
레이
##하다가
##세대
중단
돌려
있나
진정
1000
임금
했지만
##우스
축구
전반
난리
연애
특정
겁니다
보장
데이터
유통
슈퍼
표정
무섭
아닌데
겨울
##시대
경기도
##텐츠
저러
기초
시기
돼지
맞춰
가면
##하신
접근
##문제
불구하고
##해야지
논리
몰아
예정이다
잠시
##다른
따로
있어요
같아요
##것이다
나머지
월드
선물
##우는
분기
##활동
마무리
##가면
##거운
형성
거쳐
벌어
존나
리그
##선거
밝히
윤석
현지
공주
##았는데
매력
수술
조합
##업체
##퓨터
##았던
##하라고
90
##받는
인구
바다
협상
3월
소유
모자
굳이
봐야
기부
재정
##시설
이루어
내일
##가족
멍청
##해진
위안
##환경
##겠죠
활성
제출
인한
나경
##연구
##인간
##됩니다
##스러
반복
변경
세대
현상
디지
대전
비밀
노인
개봉
달창
시각
##10
만들고
있네
똑같은
일베
##는거야
6월
지정
##0년대
위협
##걸로
체험
KBS
##려라
원칙
결론
##증권
답답
도전
일제
협의
살펴
미안
개월
##온다
이상한
원인
으면
않으면
##케팅
5월
사전
그러니
월급
동네
임대
##마라
된다는
##보자
악플
지분
사법
둘러
대박
##방송
믿고
일어
가능한
집안
호텔
디자인
##니스
베트
##거같
서울시
꾸준
저기
어른
만드
무대
반성
프로젝
가구
##거든요
황교안
선언
##리어
##이익
달성
##하려는
폭력
안하고
토론
##했습니다
선진
대기업
박정
경북
와서
##없고
##께서
하시
의식
삼성전자
투입
컴퓨터
##왜구
정주
초기
##리그
미세먼
계열
창업
시작했다
골프
금리
##일까
못했다
총리
##느라
##줘야
지랄
하나님
태양
##만화
##지요
마라
버스
파괴
##아지
보였
진정한
9월
##20
짜증
나름
##사건
##나서
보상
비행
측면
어울
MBC
마법
10월
세력
##도시
35
원하는
바이러스
아무것
최악
예방
공유
말해
12월
이미지
##메라
채용
구분
절차
##었다고
잘생
도망
불가능
늘어나
블랙
##거라
사퇴
요소
공수
되는데
7월
벗어나
드디어
심리
발행
무역
서울대
미치
하네
##조선
받았다
베트남
울산
싫어요
##짜리
수업
운용
##in
어제
무너
외모
##학년
운전
##는가
취급
대우
못해
##시켰
택시
다소
보였다
맞아
조심
##아이
중국인
크리스
그만큼
긴장
흔들
동료
##웠다
##마자
##래도
뭐냐
너무나
빠른
바닥
##이었던
온갖
스마트폰
한반
심판
의무
이벤
무리
한국인
같습니다
그렇지
없습니다
##이에요
없음
##하도록
귀엽
아나
있는지
말아
##있는데
스타일
##있고
리더
##으로부터
긍정
소녀
놀라
##보단
마케팅
8월
나섰
특성
쿠키
향해
노동자
동원
소통
##받은
아니라고
하니
문죄
회원
##30
주가
1월
거야
왔다
##바일
##되면서
정작
미사일
##수준
변호사
##하니까
는지
##말로
방어
##이팅
KT
영웅
경남
확실히
효율
흐름
인제
똑같이
않을까
##주시
이하
펼쳐
담배
휴대
페미
##친구
아닐까
##하셨
브라
단어
메이
풀어
전년
실험
출발
저녁
000
이성
대답
본부
금액
무식
##그러
극복
자원
##겠네요
데뷔
##주면
##경기
손해
친일파
생각하고
준다
체계
라면
사회주의
부인
##이네요
무료
불리
##하네요
영역
스페
##시오
봤는데
같아
절반
고소
##부모
아까
보니까
있었는데
소름
전했
이리
수많은
수십
##on
##달라고
물러
토착왜구
장소
남녀
덕분
적절
모바일
헌법
가고
죽을
디지털
악마
동의
사형
아냐
위반
이탈
##한국
높이
폭발
##인듯
몰랐
가까운
##규모
매년
교사
집회
더러운
##라스
먹는
문학
다이
안된다
##나고
법무부
않게
집행
영원
두려
나선
언어
허용
##겼다
자극
##보네
##해지
197
따뜻
통화
깨끗
##니아
대가리
테러
원작
조용히
정치인
외부
전형
매각
유튜
실망
양심
##독교
드립
가만히
작용
잘못된
여당
##마저
보건
사실상
검색
2월
2차
##받아
인증
아름다운
2000
강원
가수
언니
인근
##스토
채권
싶어
일주
누리
예고
##었을
모아
아닙니다
소송
웃음
##잡고
별점
연금
11월
높아
설명했다
##정보
##거래
수호
부여
연장
프레
하던
##이였
전용
방역
유니
##하러
인데
명예
홍콩
커피
##했으면
하는게
종목
비리
내리
통해서
건축
사항
##기사
나눠
바랍니다
기여
##카드
들여
이럴
콘텐츠
프로젝트
체제
수용
##플레이
추정
도착
아동
구입
있을까
체결
총장
공수처
##겠어요
폐지
들어오
주말
정규
인력
순수
앉아
##시킬
훌륭
의한
시위
##하는건
걸어
##조작
##돌아
##an
계산
작성
상징
##보험
우한
떠올
이나라
진단
반도
##쳐서
##나무
지시
낮은
수정
##대는
제2
식품
뒤집
##건설
애플
축하
소중
카메라
보지
잡고
설계
피부
가끔
통제
흘러
##이니까
냄새
팩트
보이지
##리티
##으려고
해야지
기계
배치
5년
다면서
감옥
좋았
##쓰고
36
##영업
##주택
나와서
왠지
##있어
상담
뉴욕
##진짜
간다
부부
케이
##했으며
감안
##길래
##한건
한나라
뭐라
##위해
합리
생존
내내
맞추
어떠
언제나
에이
있냐
평범
연락
45
봐라
회담
시원
##누리
나타났
없네
스킬
만난
이중
51
다면
##리스트
##리며
자한당
예측
법률
보자
억울
실천
법인
전했다
어이
##바리
백신
봉사
##세기
새벽
전세계
반일
나갈
##버린
##라니
다녀
비상
##려나
심사
교체
##놓은
정체
뭐야
매국
안타깝
##티브
##이라니
##었지만
##라지
개그
화려
모른다
대처
밀어
흥미
베이
당국
##워크
우연
인재
쏟아
가게
##히는
떨어진
왜이
그렇다고
투쟁
웃기
여부
한다면
정주행
제1
비정
나쁘
할인
자아
##달러
스크
알아서
남은
있으
없지
야구
전날
학습
집값
데려
라인
불만
기울
정신차
최소한
대로
##하겠다
개소리
내세
예비
유시민
##본다
쓰러
장비
공산주의
##아치
꾸준히
화면
공모
##대학
한계
먹을
속도
##시길
말할
##사랑
##모리
패션
창조
고위
홈페이지
아니야
##금융
출전
편의
실질
생겨
박정희
아쉽
##금지
들어서
주문
미군
적어도
제거
간단
1위
탄생
명령
공산당
말한다
정신병
이승
##댓글
이정도
최순
연습
##제품
말한
##었습니다
##피소
검은
윤석열
##되기
사이트
생각한다
원내
좋을
설마
기독교
태극
##지기
아무런
반도체
##인가요
도덕
##하는지
##회의
부상
##로그
신기
기소
가해
공항
##사는
겨우
##리자
이른
창출
이슈
생각합니다
나오고
##따라
제정
결코
카페
##임금
챙겨
##바이
##기간
무서운
보게
나왔다
안좋
##거면
##먹을
32
정은
입고
##하시는
전남
혼란
없으면
쇼핑
등등
가까이
뻔뻔
집권
강력한
실현
##지마라
상식
채널
체육
다루
이론
통계
소년
안돼
올랐
이혼
이벤트
의도
나오면
##소득
할아버
활약
##대회
수석
가야
알려졌
클럽
유사
김영
모여
분명히
##야말로
보낸
##서관
##어야지
청문
##자체
##대가리
틀딱
떠오
##이라며
아저
SBS
근본
더이상
계획이다
##항공
판사
주사
철학
취소
나경원
유튜브
##범죄
기타
안내
##친다
실력
불매
##메이션
##나가
2015년
물리
느낄
오픈
억지
못하게
간첩
죽여
압박
##들아
##남불
한화
앨범
않나
현금
##바닥
몰라
지상
가능하다
##까봐
소식
수학
##겠어
상장
칭찬
감성
방해
##구조
개입
##19
이외
미술
##거냐
인류
여주
##게임
끝내
애국
초딩
저번
잠깐
이용해
그곳
지수
때려
최대한
선배
등급
갖추
소환
추구
초등
##화점
##정치
오해
모른
##받을
광화
손가락
##상태
만한
미세먼지
2016년
관련된
리얼
가라
출마
수수
##라우
확률
##평가
괴롭
전면
##던지
일부러
돌아오
단순히
상위
동성
동아
##리트
수능
이달
해소
아니지만
##거고
뽑아
##회장
##TV
고백
##된다고
미디어
확장
복귀
빼고
법원
##여자
분리
##럽게
아이템
##먹은
장르
재밌게
없지만
어깨
국토
무한
키우
##기지
##라며
33
다를
##기에
살려
그리스
플랫
국무
##단다
##피스
##당히
주의
고향
증명
것이었다
안철
연계
아르
듯한
196
##치게
##싶은
34
##였는데
38
여유
##ar
다리
##없어
경쟁력
키워
많은데
청구
기생
감사합니다
에피소
팔아
보여주는
네트
하냐
전력
진지
상호
오지
관람
느낀
평등
자전
종북
설득
##치지
수원
거듭
##한번
##니깐
##주지
##든가
필요하다
저게
말이다
고발
##아니라
차단
왜냐
어려움
끝난
했고
과제
점검
아니지
##수수
모집
착각
수치
빠르
지옥
깊은
이웃
대놓고
정확히
한데
##상황
부품
한반도
박사
있었고
##거임
인공
99
갈수록
요리
바란다
영혼
갔다
2017년
##적이다
##되는데
대만
##비아
커플
##로지
교과
진입
##or
힘내
##는거다
대변인
복잡
내고
##카오
청원
재난
##그리
##프라
##져라
걸쳐
문빠
라헬
##버리
발사
떨어지
투자자
##긴다
반발
했으나
종류
겁나
##뮤니
부활
뛰어난
성폭
찬성
바른
매수
협박
##동생
공천
유도
물고
노출
빨간
대기
여야
괜히
##이라서
##노총
보조
##터리
최강
5000
검증
1인
들었다
사귀
고등학교
성능
인가
했다고
지루
발휘
조선일보
##버스
2014년
직후
완화
이란
착한
##보내
##배우
##히고
투기
배달
##있네
2018년
원전
00
후회
##여행
가량
##드리
연구원
배뎃
필수
짱깨
##의식
생각하면
소방
것이라는
김대
할수
경상
줄어들
자영업
지휘
이지
화학
입학
한미
위안부
표시
협회
##그래
고급
재무
아이디어
몰려
패배
죽어
유료
결제
투명
방사
##슬람
##직원
둘다
어야
##영상
멀리
했으며
##겠는데
인민
육성
KB
철저히
애니메이션
대다
둘째
##공사
##되서
올린
##나면
##미터
답변
응답
최순실
아닌가요
못한다
국립
그렇고
동기
멋진
비례
고정
##부대
##시절
어요
##줌마
연간
월드컵
배신
가을
제재
지하철
모르겠다
돌파
그러고
양성
다름
현대차
매장
좋지
보인
자율
이런거
##피언
##었으면
부대
어릴
맞고
고마
##장면
순위
자존
탈출
날아
실업
줄어
이탈리아
남한
##전쟁
스테
학원
옹호
조선족
이민
경고
균형
주지
2018
무려
파트
세종
자전거
노예
세워
##였고
##해주는
악화
대학생
##다시
단독
방지
##된다는
언젠
검찰개혁
상반기
아울
##NS
보안
성인
식당
형사
의지
일찍
수단
헤어
그다
대법
것이고
올라가
분류
떨어져
동양
IT
신체
##렀다
마주
느꼈
개판
김성
마침
##았고
봅니다
보이고
청문회
대결
##더만
##자나
받지
넘는
텔레
동맹
배려
당사
존경
##스포
한명
얻어
털어
아웃
커뮤니
공약
한정
##데이
모를
##이던
##을텐데
##협회
입주
이다
중인
##하지말고
페이스
##셔야
##스티
400
시나
유명한
들어간
##자산
데리고
새누리
마약
비롯한
##연금
2012년
##세력
임시
사용하는
##되며
파워
##수사
고등
하세요
##오고
기다리
긴급
3일
거주
다섯
지내
##보지
##힌다
트위
하는지
##먼트
##하겠다고
그날
##치기
물질
##드립니다
끌고
하반기
한다며
매달
나아
완료
마리
살짝
##으려
출산
##하긴
축제
태어나
뭔지
정기
1만
2013년
##총장
되게
시작한
비록
부처
경계
시킨
가난
근처
##성장
권리
것인가
스파
걸려
편집
##할까
2015
안타까
소화
무릎
향상
옮겨
머물
취임
주력
로봇
수백
모임
보고서
광화문
스피
예능
말하고
##분기
##om
두산
원자
##계획
서서
차원
##아도
죽이
##리라
예쁘
##래곤
##낸다
##있게
전두
실수
##했으나
거다
주세요
버섯
화이팅
네트워크
##너무
고속
##민지
맞지
대리
하셨
합격
소프트
부채
##버렸
촉구
##가능
빠진
2010년
주관
분열
##해주세요
많고
이념
압도
뮤지
것인지
스트레스
##럽다
##의회
우린
##가며
##발전
한나라당
##나다
##공업
죄송
치고
열어
##거리는
사랑하는
로맨
꺼내
빼앗
할지
후원
몇몇
신선
##로남불
명확
살해
연예인
공통
일으키
업종
이자
공직
##러워
##단계
##었다는
중이다
##지도
##아아
전설
##조합
추억
##에도
마세요
##치면
최저임금
보일
도쿄
##하겠다는
이겨
좀비
접촉
##게요
##여야
1차
우파
선진국
좋고
양아치
전세
질병
주둥
하였다
##스럽다
아시
##든다
##레이드
##있음
살아남
눌러
##했는지
강해
없으니
한심한
시선
걸린
나타났다
높다
아울러
37
당황
다니는
카카오
짧은
##악한
##메달
호흡
선고
수비
프리미
##연합
자유한국
##모습
2019년
있는거
어쨌
라도
##문학
요금
##구리
왕자
일어난
미쳤
워낙
55
나오지
대가
상대방
대북
도둑
장사
저항
해요
주차
챔피언
종료
1억
##드려
PC
어리
유저
죄다
마시
곳곳
당한
##다는게
##웨이
##감독
초대
버티
선호
취재
이라며
##스런
##었어요
한참
권한
특검
##경찰
같네요
과장
지닌
빠르게
다르게
사정
##미디
알았는데
##너스
변신
앞두고
##en
가로
아우
유학
##보이
아이돌
뿐이다
전두환
원장
익숙
건너
치열
이길
맞춤
법안
2016
축소
사유
아야
##이프
몰입
##버리고
주체
##가라
아깝
그런거
대학교
##복지
개편
##하지않
원내대표
하다가
##대고
데이
시나리오
유일한
귀신
개성
저질
##르면
바뀐
징역
대단한
반박
획득
이래서
찾는
##al
솔로
연대
그래야
감시
군인
##만명
스케
##아님
강요
2014
여의
##는거냐
한두
결승
##11
한달
특별한
원숭
2017
매국노
##어져
##라운드
단기
1일
##을듯
##사장
오직
덧붙였
대폭
강조했다
휴재
싫다
발매
문통
52
이쁘
넣어
않습니다
마감
자치
신한
150
폭행
태극기
고개
왜곡
바이오
접수
가리
개방
##40
##가야
가짜뉴스
뿌리
고구
재벌
똑똑
매입
##이었는데
깜짝
##다리
치매
잠재
SNS
점차
##었나
갖춘
##공자
비싸
##도로
아저씨
뭐지
고맙
##드라마
몰라도
시켰
사이다
##하고자
자빠
만남
아프리카
되기
아줌마
노선
타격
배출
누군가
늘어난
정식
김종
레벨
단일
그러한
조언
##으신
대충
치킨
##화된
것이
저리
존중
48
##쓰는
코리아
헛소리
호주
버리고
쉬운
완결
##선수
심각한
##겠나
건데
##산물
삭제
의회
함부
해체
안철수
활발
##at
알려진
##되어야
##로스
클래
핸드
결합
##란히
실행
뭐라고
임기
##했네
발굴
##답니다
아마도
오랜만
개별
이딴
##들이다
거예요
나아가
호소
##답게
적은
##총리
혁명
일이다
시급
문죄인
기록했다
해양
모으
지능
천재
2011년
조기
이스
다운
바라보
20대
오랫
토지
서류
만날
무지
41
유엔
##병원
들려
극장
39
##한것
좋다고
그럼에도
##자는
믿을
벤처
##st
##내용
격리
##니어
##할듯
출범
##프레
안경
연봉
비즈
해주세요
묘사
##하는것
남겨
##조리
밝힌
알려졌다
아기
물가
연말
##봐요
쉴드
않지만
트위터
거죠
했을
부진
근대
4년
부자
얻을
교류
##르크
무능한
##이유
관광객
찍어
라디오
죽는
##로써
##달라
강의
메르
좋은데
##봤다
해명
천안
이놈
사이비
지자체
학부모
##자금
##주기
전공
신설
##줄알
만들었다
심장
좀더
연주
객관
김태
끊임
오로지
빨아
있었지만
접종
부장
선임
알지
##우면
같음
주주
형제
재능
하더라도
보스
인하
중반
이어지
타임
폐기
##지사
동반
유행
형식
베스트
파티
##등급
##같다
일주일
추측
가볍
평범한
매매
어째
폐쇄
복합
3000
공원
이틀
유치원
##이긴
며칠
질환
##어리
김경
혐오
한쪽
2008년
##진핑
##오면
쪽바리
하니까
많아서
김치
이모
올바
맞다
깨달
위선
##합시다
사내
든다
##야한다
사로
알려져
만났
없어요
임신
내는
감싸
번역
인성
흔히
65
##줘서
생태
##이었고
올렸
42
##소년
집어
공기
주거
의존
백화점
아픈
고양이
무게
포장
물량
느그
보며
있어도
증시
##사태
동성애
##당하고
##었어
독특
감각
성향
합류
개막
농업
없었던
들어갔
편안
이내
그렇다면
예수
추세
면접
정비
했습니다
##했기
취득
위하여
무관
다수
##왔는데
패턴
수립
##이게
보고싶
내린
##있으면
품질
연구소
코미디
이경
그니까
합병
당연한
깨닫
우울
가스
당초
아무래도
무죄
##자마자
AI
철수
하긴
김대중
##이즈
영입
연관
##좋아
막아
달아
근육
깊이
공화
75
디스
부실
홈런
##과학
동남
영원히
복수
읽어
집계
##이도
구역
수시
2012
차기
제약
난다
요인
조절
최선
오바
비싼
회계
##시기
일방
적당히
##he
##웨어
매주
세트
황제
##가면서
박원
##으므로
##하더니
2009년
하지말고
맞이
석유
스카
반전
##효과
일하는
비롯해
구간
거론
부패
어려워
조만
재단
어쩌면
기아
2019
신속
##인물
##이름
##본부
디자
용서
텐데
에피소드
법정
정해
표출
충북
걸로
몰래
진영
배제
즐거
##저히
CJ
20년
오염
붙어
좌우
거절
즐기
가상
통상
뜨거운
이정
받아야
메인
내게
말하면
주먹
믿는
패러
##은데
오프
파업
##에게서
쉽지
##란드
매체
##졌네
알리
친환경
이렇
주영
즐길
상업
잔인
첫번
##단지
공중
크다
##했어
##시즌
재료
려는
자국민
직전
사용할
죽이고
##필요
가시
자본주의
이끌어
지니
##케이션
##주인
게이
고자
타이틀
에휴
##했어요
발달
##지말
##통신
할까
두번
몬스터
심한
##했지
##차례
##마스
고유
##능력
함부로
보여준다
보러
##에겐
허위
##해야한다
시진핑
방송된
어휴
##전문
고대
##나이
드래곤
게시
한글
풍부
절대로
그러다
##졌고
음주
##보니까
##민주주의
유기
떨어지는
숨겨
전파
단속
대규모
있으나
##으러
출입
쳐다
##대상
범위
안될
휴대폰
운행
김현
무언
##시켰다
오리
오늘날
저건
진화
5일
아니었다
파견
중학교
##았다고
참으로
조만간
제3
매번
태도
셈이다
막말
부과
##입니까
44
화재
지사
전원
##올라
##봤는데
미쳐
자고
대안
훌륭한
이른바
특허
흥행
##하시고
사로잡
허가
기름
뭔데
표준
##빨리
초청
##후보
드는
저렴
버리
##그네
받게
##줘라
등장하는
승인
일관
살기
미니
갖다
##르기
##시험
즉시
장악
3개
넘겨
##시마
철도
##집단
##겹다
보증
똑바로
장학
음성
보여준
논문
왼쪽
유출
##십니다
아니라는
##작용
##었음
전염
늦게
43
기다려
##하죠
##TA
##만들
갤럭
마시고
##보세요
소수
체포
##이여
멈추
##하려면
포항
물타
기생충
문자
부서
환율
욕하는
그렇다
##저리
지지하는
##서비스
대립
슬프
벌레
수록
오랫동안
더라도
어떠한
##규직
점유
##으론
주연
첫째
##펀드
구글
되는거
부족한
조달
##마을
##12
##집니다
출판
연령
##쟁이
없게
포스코
시내
그러면서
##으라고
매출액
##해주고
붉은
어렵다
195
베댓님
문서
역량
##노동
##아들
부드
극단
주사파
영양
으나
환영
가려
가동
모르겠
휴가
페이스북
##매매
한거
뮤지컬
CE
##운용
천만
오타
##트리
##해지는
같아서
##가게
없나
##이어서
퇴직
##벌레
은근
무사
김일
##처리
2010
##마리
##다란
##이면서
##서트
무장
스위
##선동
##했음
했으면
보냈
선전
죽고
연극
##60
유발
이득
레드
선두
무상
##없음
의외
의장
마이크
연합뉴스
##스팅
거두
맞서
아카
##공항
신분
##겠습니까
##으셨
하려고
외환
떡밥
최우
목사
충돌
출근
자연스럽게
덧붙였다
47
선사
저축
판타
직무
재밋
벌금
내면
##하자면
죽일
그렇지만
알았다
은퇴
어쨌든
##주민
기득
식사
##나와
##커녕
전북
10일
4대
194
폭탄
##할지
임원
북미
##해줄
데미
신종
유형
##이너
안다
눈길
입증
##었네
미만
가졌
##싸움
대하여
동영상
취약
비정규직
2020
전교
49
사냥
생각나
비서
##없네
적자
각자
강간
##많이
##나간
귀여워
극우
##관광
화이트
##로드
고작
이시
##라고요
향한
##사이
붕괴
가깝
##구역
바라는
흡수
한국당
##테니
##경영
정말로
왜냐하면
##이구나
##검사
##드라
배운
힘들어
2013
했다는
할아버지
끌려
만들어서
느끼는
멍청한
소련
##아니고
멀쩡
간호
오브
2007년
보급
##건가요
동참
읽고
홍준
소장
투수
##티즌
눈빛
급격
62
외치
리즈
##공개
대장
##리다
일일
##비용
갤럭시
본질
##80
같고
600
계열사
드러내
끝나고
국산
어떨
정확한
##더군요
황금
##거라고
2일
의문
안가
부지
드리
몇년
##하라는
##우리
##였습니다
##센트
하나하나
##토록
관측
자라
블록
정수
어느정도
색깔
듯이
보완
승부
미통
일자
진술
수영
협조
초등학교
열리
비즈니스
가질
##았습니다
인프라
갈아
중도
장치
쓰지
교환
누적
##스테
받는다
명단
잘하고
민생
##리네
캐나다
채택
담긴
다르다
##지면서
움직임
##하길
버린
과도
##안하고
한남
##차별
건지
15일
파트너
브라질
주기
후배
전작
생각할
공략
들어갈
나간
##있지
##저기
타이밍
공짜
넘어서
시달
첨단
##해지고
세우
연방
해방
##하지마
외면
마땅
인원
거대한
진중
고집
범죄자
챙기
좋게
쓸데
##통합
들어가는
##명한
죽인
1도
엔딩
##아닌가
자는
종종
메시
앞장
프레임
##해질
근로자
유승
자제
노트
##민족
번호
##결과
그러므로
광역
조각
상영
##어로
예쁜
항목
##과정
괴물
실시간
남주
오른쪽
캠페
호남
후속
당당
##보면서
##아리
특유
여친
입은
실무
##직한
수천
유입
나가는
46
공시
4일
##다는거
한일
20일
넘게
구라
서초
힘들게
빌려
자림
증상
##구석
##가격
수수료
그런지
누나
모르게
##르지
사업자
프리미엄
계기
구현
보세요
7일
운운
홍준표
명품
##느니
유동
어지
처분
노란
##시스템
태어난
구청
##고기
건가
보아
지점
거라고
새롭게
제외한
점수
이만
민노총
작전
그야말로
##는데요
##해준
침해
착용
##았을
##폐렴
아끼
귀족
한때
##다니는
##타임
달고
각오
들이
마인
표창
다이어
자국
적합
##수수색
신중
간부
부하
체력
던져
감히
문제인
장점
고교
어떡
말라
이행
54
재수
나면
진료
담아
드러나
##교통
양산
보관
예약
##을까요
산다
협약
##있냐
마스터
찬양
코스피
실장
할때
돌아온
후손
서양
##책임
##어지는
어려울
방탄
기다리고
##ou
기어
급증
##상품
드루
자세히
##라엘
맞게
창원
꿈꾸
지각
##었지
고문
정지
당하고
양반
##았지만
구멍
않도록
호랑
손실
추석
##동네
일대
모르겠지만
캠프
유닛
시킬
적응
강하게
충실
가벼
##가스
된다면
2개
일시
##버려
일반인
##회담
##십시오
금방
아이폰
##대학교
아오
추락
단순한
스페인
끊임없이
경선
붙여
들어온
맡은
기원
##내기
급여
곧바로
돈벌
정유
##이브
관찰
하하
어두
거대
변동
줄이
기기
부각
조중
만들어진
넘어가
특이
무서워
IM
요새
##분간
정착
조종
이태
아픔
고기
러브
##기준
끝날
열고
방사능
##되게
종이
즐겁
당해
충남
컬러
1등
재생
##렸는데
잘하는
##테크
채워
압수수색
여겨
커다란
연설
졸라
##되었고
매도
포함한
2011
아가
공작
##업계
지도자
유일하게
##듯한
어케
상당한
블루
부회장
나타난
시사
하는짓
그간
아닌지
14일
국개
##는다고
##언론
무식한
김기
인형
로마
힘들다
##버렸다
이스라엘
생길
끝났
##스키
캡처
정경
배당
##의탑
매니
청산
네티즌
여건
한가
해보
에어
##루션
보복
##et
투어
말았다
##그런
동부
전망이다
테크
감추
##피아
소위
메뉴
메이저
##IA
비핵
##잡아
회견
##줬다
지껄
보여주고
##시켜야
시계
##사항
메시지
바퀴
파리
신입
기구
비하
스럽
감상
국내외
입법
##제한
앞두
김진
##와중
더블
##es
##드러
현행
트리
않아도
모니
뇌물
기레기
생물
런던
밀려
##보호
##있습니다
##회견
화제
내지
도저히
여기저기
필리
이해할
개설
##일러
봤다
왕따
파란
##it
##갑니다
맞은
화려한
달라고
이영
생일
올바른
공인
전역
있는게
대량
추적
쓰면
##더라구요
##았으면
규칙
훼손
중요하다
부르는
재건
담겨
청약
기도
늙은
중고
미개
만일
초과
1조
남친
하얀
불가피
수고
안드
설레
하네요
하겠다
홀로
라면서
##했나
고령
안심
##년간
당부
위로
지출
##이래
윤미
##는것
지어
있다며
스릴
정의당
본래
진상
허락
##신문
아가리
59
틀린
##옵니다
GS
##이요
선박
브리
신인
##좋은
##럽고
급식
불행
##소한
만들기
##관련
##봤자
##공산
교도
지향
판정
##으시
불매운동
##15
##봅니다
구단
트렌
##하이
짐승
고쳐
사드
재개
한강
수집
1천
명칭
지혜
을까
경비
안쓰
내다
따뜻한
계층
마크
쪽팔
오토
지표
##중인
노사
부당
어르
120
허리
행복한
##버리는
##00만
올리는
주최
욕심
##되는거
##심한
하라고
키로
세포
이라고
선출
명백
##자동
동남아
25일
뒤집어
8일
탈락
걸리
평양
깔끔
같았다
오버
유가
지진
와중
실내
많네
주장했다
중립
취향
##장애
넣고
부딪
##투표
##겠는가
월요일
보편
성실
에스
측정
아파
노후
계속해서
즉각
비디오
자발
편이다
##였지만
욕먹
58
짱개
끔찍
180
상실
얻은
귀여운
배워
느냐
시골
태어
화장실
##르트
돼야
강아지
박수
인용
##혀서
약한
경향
##행위
기상
리뷰
##혁명
어둠
##ic
##가는데
##일뿐
이순
저장
##계약
싶어서
점이다
유전
견제
##왔던
블로그
완벽한
6일
담보
강원도
85
국방부
경력
없기
침묵
##남자
신호
##물고
간담
소문
핸드폰
드라이
못생
대거
##체육
창작
이러니
##해진다
장착
찾을
체크
있죠
상무
계좌
중독
2009
기자회견
분쟁
11일
물타기
올랐다
날려
위대한
##리즘
마녀
##이었지만
95
알아야
무시하고
스크린
나설
이수
있다가
김재
가계
강경
12일
한심하다
봐서
구상
##렸을
썩은
좌좀
듣는
윤리
앞세
13일
지주
##구먼
감당
6개월
실종
##이므로
고수
아름다
뮤직
자유한국당
뚜렷
놓은
기쁨
창의
16일
부러
9일
찍은
##그리고
나오는데
스펙
걸고
줘야
많았다
나섰다
위험한
시청자
주위
물류
나베
입원
비행기
최후
##훈련
문제다
##추행
##으세요
##수있는
행태
2008
안들
탄탄
먹어
56
성폭행
방영
고스
입시
##바라
핑계
금메달
지연
##선생
단식
비대
무척
살아라
재미있게
##감정
백성
코믹
애기
잃어버
편성
CEO
만만
숫자
사안
방치
23일
시끄
공주영
커뮤니티
천천
##러리
찾아가
그런가
보내고
콘서트
##리면서
충성
도발
싱글
간접
##로우
10점
딱히
떨어졌
해고
슬픔
의료진
못하면
웃긴
2주
평점
그지
집착
27일
확신
화장품
주간
##했냐
어머
마친
도서관
##연히
##쓰레기
싸워
##좌파
불리는
##았네
코너
제국
엔진
17일
계급
##부지
특혜
18일
내수
##사진
22일
26일
왜구
우연히
##이거나
배상
올리고
24일
사무실
거울
엄격
호기
##엄마
##할거
##무기
대법원
28일
중대
박살
신발
뽑은
열정
어우
21일
##자식
19일
##ST
오류
천천히
점령
##타고
성남
건립
너같은
려고
##세포
##에다
소형
여론조사
태풍
박지
소중한
##잡이
하드
##사무
PD
테스트
##디션
의학
없냐
일요일
위장
수리
구미
보라
의뢰
##국제
대대
설비
한대
일러
있는가
수주
해군
침체
종사
마누
먹은
구경
해피
##하실
내렸
전후
##었는지
날씨
##스레
수급
이어질
양국
누굴
귀찮
##아웃
##사실
하야
##사인
상속
사이버
관련해
이용한
518
않기
##정신
##있나
MC
손님
씨부
주면
모니터
유력
증언
하도
자존심
##km
회수
열리는
되찾
키스
불교
##레인
무력
응원합니다
여태
##까진
일어날
##미애
##겨서
호구
모조리
리스크
부추
##내려
##절한
살아가는
박원순
치는
2006년
뜯어
코스닥
53
들어와
##보수
테마
녹색
발동
시상
신경쓰
유권
##시코
막상
##기면
편리
자유민주주의
##민주당
##브리
엘리
억지로
세운
##는거임
사모
##했다면
##이었습니다
##있어요
##겟다
이슬람
플래
김동
꼬라지
하지마
임상
안녕
진중권
크고
농협
납치
이낙
웃고
핑크
지경
##70
##베댓
불쌍한
말라고
원정
##se
충족
치명
터뜨
득점
마구
입국금지
노릇
버려
보았다
신세계
있었습니다
작곡
잘라
5천
합시다
##리우
시범
##기다
##봐서
유로
보는데
우와
탑재
이제와서
예외
##있을
##ED
되면서
30분
##한지
미소
진모리
마침내
##제도
##하지마라
##트롤
##있던
민감
별도
##데이트
질투
나갔
유공자
물려
예배
비극
다크
장식
##아니냐
중동
##소설
사령
##순간
하라
도중
비트
우습
2번
일행
않았던
폭망
##프로그램
파이
최신
감수
제조업
항의
tv
##자치
이주
64
싸이
되어야
2020년
푸른
되었고
망가
어색
##해져
구제
인종
조지
줄여
잡은
##해졌
일본인
싸우는
이종
논쟁
녀석
##했다가
##한거지
추종
연상
차관
##박한
세무
뛰어나
것이라
30일
어르신
드루킹
장애인
안하는
미칠
타령
않는다는
위치한
##성한
포스터
것이며
라이브
질질
일종
주한
서구
나은
장례
피아
##재판
여의도
라운드
싸울
널리
북괴
스튜
한층
단단
길게
스티
영광
손혜
##그만
##시킨다
계시
대다수
##해졌다
국장
##예술
과감
컨설
욕망
플러스
##lo
두려워
잃은
갑니다
공단
민심
가자
제압
##운전
##위한
조회
##작품
##전략
30대
##하겠지
벗어
##안전
단행
목격
얼른
담은
##린다고
민중
농촌
##둥이
##혔다
있으니까
##하는거지
바쁘
##스러워
학년
역전
둘러싼
국세
다룬
##스카
잡을
성추행
청주
써야
새해
베네
5개
800
상임
괜찮은
테이
저지른
가르쳐
모색
아서
않아서
##버그
##re
그릇
말투
##지다
##것같다
통보
CC
도심
해운
##조직
용인
대외
지불
발악
떠난
##얼굴
이따
정규직
국정원
84
순식
조중동
살리
충청
확실한
##이거
화폐
다큐
낮추
해주는
66
입사
놀아
들은
몇번
1번
4개
시인
무렵
비유
말이야
##는건데
##스탄
##조정
끌어올
##시티
지적했다
##le
이분
고전
아쉬운
##잘못
고등학생
일치
개국
후쿠
성범죄
당일
엔터
##테인
##보이는
##물관
의하면
해제
##있는거
##그림
점포
없던
아닙니까
오바마
면역
살아야
승진
이대로
더벨
구별
본사
유아
편하게
##나온
종로
개학
초등학생
멀티
##섰다
기사입니다
공익
##있다고
아메
선도
1회
공동체
우유
모순
57
입찰
안고
##지능
총괄
신념
##타령
돌입
##립니다
전무
싶지
보다가
팀장
갈라
##레이션
버렸
##거같은데
전사
큰일
크루
합법
예의
않았지만
생각했다
하위
##맞고
##올림픽
도달
어마
인정받
뜬금
운명
하지마라
존재하는
적어
단위
입맛
##나보네
나빠
신앙
##있어서
제주도
잡는
다스
앞둔
슬픈
불어
아아
머릿
결의
유대
써서
막을
##시한
##am
마트
징계
스탠
##포르
3대
서서히
193
##십니까
임직원
수면
주자
##CD
##하였고
태양광
지명
안해
맥주
##보게
바르
태국
법무부장관
인격
적절한
숨어
##세상
갖게
정도면
안팎
IP
건드
히어로
지은
##았다는
개정안
합쳐
##인데요
##할것
오면
역겨
아이고
##모르
뭐하는
전직
신상
2005년
이만화
품목
##공간
##고생
들여다
가볍게
88
또라이
##걸까
시작한다
계신
좋아서
느끼고
격려
원숭이
스님
증권사
##그릇
##웠던
생각하지
히로
늘려
태평
초래
영업이익
##하다니
모은
소모
##고한
보존
##모델
대체로
떨어뜨
업데이트
한숨
63
남부
##빨갱
지나가
탈북
크기
com
싫어하는
교활
캐스팅
는가
작동
##번에
않았고
사라진
떠들
##18
뛰어넘
건전
언젠가
국민연금
점심
##시스
올릴
##자유
##장한
##이잖아
포르
평창
해상
표출된
떠나서
대륙
남탓
필리핀
시체
안나오
결말
케이스
##바람
말자
절감
양보
부적
인턴
경매
전주
소외
저딴
##했으니
##OOO
토요일
캠페인
건조
초월
주행
당분간
29일
##통수
김민
일진
##는건가
짐작
접속
뻔한
극혐
명절
##생명
자위
##이사
행보
늘리
마르
주어
##였다고
메르스
하수
오오
리더십
민지
다녔
11시
문대통령
72
발생한
용기
##해놓고
넘치는
배터리
무엇인지
조롱
풀이
방위
솔루션
##독재
하는건
MA
하시는
플랫폼
충전
케이블
##얘기
되나
로드
전제
비전
하더니
30년
2000년
##내야
어딘
바꿀
##하겠습니다
순환
지나치게
잡혀
회피
##싱턴
안됨
잊지
업그
찌질
강렬
꼴통
유연
독점
김수
##니즘
않음
지리
있나요
##해온
융합
많지
짓거리
혈액
비하면
될까
전일
##였어
작중
2천
섭취
이끄
##으려는
동일한
펼치
자네
유료페이지
청춘
관여
판타지
멸망
쓰레
예상된다
재활
각성
넓은
해준
김상
도박
어쩔수
##공단
엄청나게
##바다
수소
교통사고
뒤늦
##클럽
##가루
극대
도와주
다음주
##지구
아무튼
클라우
정서
엉덩
또다시
사서
##하진
영장
진작
편견
먹으면
다행히
정확하게
##아냐
몰고
바람직
대단하다
낫다
일각
##공격
추모
아니에요
##일듯
##시켜라
이재명
일으킨
남기
유용
##검찰
이천
정답
강행
육아
##렸던
2만
우한폐렴
##대책
있긴
안되고
농민
700
사죄
쫓아
##기능
더더
포스트
대목
절망
데이트
컨셉
려면
상황이다
크리스마스
부작용
트레이
서버
중구
세뇌
성매매
하여간
편의점
스타트
##없다고
받아서
##일으
베이징
안달
갖춰
문정
같다고
소프트웨어
합동
동화
##개념
들면
당첨
자회사
넘기
독특한
크로
세부
##법인
하지말
전수
윤미향
현황
방금
촉진
NH
높여
무덤
대해선
될지
4000
여신
했는지
##PG
이상하게
##릅니다
##와라
피고
마디
상환
한방
##그냥
##시네
나이트
떨어질
야권
##들여
변명
소상
IMF
##구멍
FTA
위조
##내서
의해서
있겠지만
교육청
수구
주장하는
##고속
##인건
##위기
제외하고
타입
낭비
믿음
##공원
아닐까요
##스럽고
운영하는
##재산
사실이다
##나가는
정황
넘쳐
발급
철거
돌아가는
연평
화성
나대
##리는게
무섭다
간신
유독
한창
신도
확인할
##트라
1주
기재
잃고
##마냥
버전
장군
심화
##스트라
싫은
디스플레이
지원금
누르
억제
최적
3번
자문
수습
동작
타자
머리카
옳은
교과서
힐링
식민지
병사
##시키기
놀이
##어주
##이건
외계
오피스
설문
해놓고
정통
그딴
이룬
박영
##없어서
왜이리
##셨다
##TBC
##로워
##당하는
전라
가속
튀어나
치러
##의자
식물
궁금하다
##에서부터
보낼
##현실
찾기
모르지만
상관없이
골목
왤케
경주
느끼게
열린다
하신
추미애
미성
이라크
친중
소요
새롭
민원
공개된
한동안
##스케
되냐
##빠진
성별
주리
##대출
강연
신화
3개월
쩝쩝
메갈
모험
##되나
맘대로
침략
생겼다
사망자
준우
경찰서
임무
일어났
2004년
유족
##꺼야
모범
대구시
멕시코
##다는건
나가서
이용하는
운전자
##없는데
빠지
시작된
여러가지
##기전
들어가서
##피탈
주었다
궁극
앞뒤
##하든
듯하다
정성
김지
##마음
올렸다
동해
좋겠습니다
티켓
##사기
어리석
##노조
기후
개웃
NC
시티
조장
다음날
##대문
파는
반려
조합원
피곤
거냐
많을
애매
조명
##경북
냉장
인공지능
신라
##중앙
따져
종족
##보며
벌이
##근데
교육부
##리나
여권
창피
자까
민정
암살
##꾸로
연휴
낮아
##하루
##이지요
엉망
이쁜
후진
실정
##ing
##겠지요
이어지는
##일본
거고
77
바꾼
사랑해
김일성
서브
놀랍
죽이는
되어서
스트레
##데미
꼬리
시민단체
결심
##시작
대한항공
편입
귀국
전하
##대사
오만
갑작
보소
##자본
##폭력
놀고
끌어내
##인게
받아들여
즐겨
대주
취지
힘내세요
##토리
소멸
몸매
재밌는
치유
성공한
바깥
하나같이
히트
절실
파일
지네
40대
정원
박스
이적
싶은데
대접
아는데
살아있는
성숙
##TE
토끼
응급
##그라
##가치
스승
1화
주류
독립운동
힘입
바스코
얻고
학과
갖는
워싱턴
줄줄
요약
근접
택배
당하는
뭐니
명분
이정도면
반대하는
시키는
거친
미션
놀러
살다
메리
##겠니
추경
##셨으면
싶습니다
수령
아샤
##가포르
틀림
##생산
교훈
연인
이쪽
67
가공
저정도
인건
출석
못해서
사라지
중계
남긴
##지방
가해자
하느
##더러
퀄리티
##느낌
환상
벌어진
철회
그러자
##비율
포켓
##어준
커버
상향
살면서
보내는
##인것
##교수
상생
골드
먼지
##가운
급등
천연
98
##파크
선제
마사
##우지
신임
로맨스
##테인먼트
걸렸
2021
##풀이
##약품
서술
##정당
싱가포르
싶으면
바란
컨트롤
게재
엉뚱
##역시
음료
부끄러운
곤란
빌딩
앞장서
연수
제이
않냐
패러디
깨끗한
하려
포트
코로나19
알렉
돌아다니
하여튼
위축
이해찬
있네요
꺼져
찾고
##네시아
금속
성명
##놀이
##보드
##16
CG
내야
##추어
죽창
지인
##로이드
##없으면
##위원장
있을지
vs
##야구
##월드
##더라고요
붙잡
카운
생각한
끝나면
패널
세탁
생기는
그다지
비핵화
구석
IB
조폭
##공화
길거리
##키는
전지
명작
##CC
가벼운
제공하는
1시간
##13
금강
거꾸로
마음대로
이병
등장한다
심상
2배
학살
##바지
##구니
추격
##아주
##사이트
시키고
모인
심하게
생생
서해
김용
보좌
##였음
2위
##종일
##대기
68
납부
##14
##시죠
견해
플라
콜라
저작
##지상
1개
##순위
영토
공지
프린
##경쟁
조항
관세
움직이는
하여금
스코
사우
돌아와
김연
2002년
##나오는
##출신
##el
특화
등장한
정신나간
막장
페이
192
지침
74
##되냐
공기업
욕하고
##운영
막고
유전자
경호
##NA
세기
##가다
금요일
##봉사
하거나
달린
기지
##둘러
##치료
바쁜
사면
즐거운
잔뜩
발목
노하
##알고
공무
##받침
철강
##적이지
동북
컨설팅
##였으면
법칙
특별히
##호텔
100만
셋째
매니저
앞선
같네
삼국
퇴출
인도네시아
말인가
간담회
에라이
걸릴
않았을
골라
저자
나눔
재미있는
육군
##못해
이용자
전담
그치
별다른
##안되는
맡고
##버릴
##디언
착수
주머니
방학
아니었
과세
69
정면
봉쇄
재현
##하듯
해줄
서명
##이후
##받지
##시피
##리는데
양쪽
재건축
현역
##동원
채무
유니클
안그
##패스
실화
만나는
시중
나서서
비타
확실하게
쓴다
##래요
##용차
##꺼다
살펴보
##부인
##축구
##인걸
탑승
적지
지나가는
국어
승객
미스터
아스
스웨
확충
강남구
말아야
선별
다닌
##이신
개척
납득
있었을
##아파트
내주
순식간
물었다
올라오
##하더라도
아름답
들어왔
##줘요
클라우드
표기
저소득
편지
##다는걸
유혹
지역구
밴드
대개
어떨까
놀라운
경찰청
잡지
해산
거품
개연
2007
미루
되돌
탄압
여동생
클래식
오를
일어나는
행정부
민폐
원천
누워
어딜
대항
AP
커지
플레이어
최상
권고
그중
##어마
징징
습관
포털
##해봐라
##상한
앉아서
##어지고
받으면
조카
미리보기
가요
FC
흥분
용산
와인
죽으면
##저나
있구나
못했던
발표한
산하
250
협정
티비
무엇인가
##졌는데
##하자는
고딩
##밀한
아나운
때문입니다
JTBC
##가기
것인데
한게
##100
73
##안타
조상
##졌다고
##연한
##대전
##우기
모래
인스타
##런스
##금리
과목
에너
##연맹
브리핑
시비
남는
이웹툰
##들이
가이드
충분한
레전
유가족
잠수
백만
지는
암튼
만나서
유재
있었다고
##분야
상가
늘어날
포지
요구하는
개헌
##is
순수한
이용해서
##내지
심의
추방
광장
워크
##보여
안됩니다
열었다
보육
표절
측근
다짐
##리포
왔는데
더한
3D
##키지
과시
화물
##주도
급속
그대
국적
##양반
2003년
자세한
##체계
##천지
##하구
파고
삼성전
##트로
아리
##오빠
역대급
예뻐
신비
##드려요
키우는
전기차
##마니
고스란히
##미널
바라보는
비로
지키는
지키고
##통일
하필
구름
아트
잘살
##버린다
살게
라이프
순서
##id
조세
##FC
##달라는
드림
##재단
안맞
##어질
걸음
기다렸
##달아
10대
가방
퇴근
모욕
불평
겨냥
##자료
들을
이낙연
거슬
제임
성립
여긴
##겠군
임총
없네요
맞을
##시요
장수
구성원
##테고
##25
온다
부끄럽
전광
입지
울고
해봐라
예금
##아프
맥락
하는것
금호
초록
프라이
##카페
안산
위성
여파
문씨
89
으면서
읽는
다닐
##스턴
문정부
터져
거치
그쪽
국익
슬퍼
분산
병역
코드
##반대
클린
##인사
문가
등판
현직
면적
없는거
했지
저걸
성형
터키
기다리는
탁월
스러운
연료
난민
무작
개소
1점
##테일
76
쌓아
최다
마이너스
소용
##기구
이집
##하자고
##사리
내릴
자칫
조금이라도
##자면
KIA
서부
##겟지
구원
어렵게
않아요
배웠
망할
오고
##못하는
##자원
##식품
자부
IC
그레이
관종
##피해
포럼
없다면
대통
##일리
지났
모드
브레이
##되자
잘생긴
나불
##걸고
슬슬
78
관료
등신
영화제
면제
기온
##인척
##거리고
봤을
독서
##장난
더구나
대학원
감탄
##재앙
재발
##부장
##르르
클리
유쾌
주년
방침이다
##쇼핑
내외
이제야
##줘도
원자력
출생
따지
맙시다
단축
##실험
엑스
호응
##ol
사립
다해
##마크
지켜보
꼼꼼
##이닝
##히지
인정하고
##이오
부디
기쁘
이마트
헤드
주재
어두운
대표팀
레알
영구
유해
##학자
무인
미성년
심심
발표했다
지지자
##걸이
##주얼
업그레이드
나타나는
나란히
차세대
사격
##17
공평
왜이렇게
사라져
뒷받침
안하면
지니고
떳떳
코난
어쩌고
막기
대미
기뻐
무선
전술
김제
같지
여섯
농구
내밀
스튜디오
중시
몰랐다
현안
귀엽다
부른
문화재
##지않고
공개했다
##세여
마이클
문제점
본능
가입자
얼음
고구마
자진
대구경북
납품
훈훈
대행
싫으면
영남
수장
중견
##는건지
비례대표
계절
제로
변태
간절
류현
니들
소지
이용할
##못하고
장학금
무소
이루어진
에이스
되었습니다
치우
##보소
젊은이
이참
##디아
더욱이
전락
##듣고
지목
##시켜서
##24
##수익
아닌듯
##하느라
비로소
소주
10억
보험료
보네
##냄새
짜증나
##닉스
크레
억압
##내며
이글
불량
##지네
일하고
보유하고
##컨대
##거죠
나리
박탈
이런식
주일
##기기
어린이집
그러지
침몰
맡아
발생하는
많습니다
##쳐먹
개통
##투자증권
경상도
원활
아깝다
나선다
온몸
##il
없었고
않다는
##입고
하는구나
담고
아니라면
지킬
##지수
내정
유산
전교조
페이지
트로
알파
뭐든
미드
휴식
저래
아티
잘생겼
가져다
공제
생각했는데
머리카락
안타까운
왕자림
통치
##화학
하느님
##ac
보이는데
##하나요
##머스
##께요
어마어마
##수석
당할
김해
소름돋
##짓거리
없어도
카이
목포
고무
깡패
한꺼
불쌍하다
이준
##미나
거뒀
##오프
오죽
배정
버튼
녹음
##질러
05
참조
증여
3천
##비리
##운다
그나저나
##기자
순이익
드물
범행
오락
복원
##중한
해당하는
준수
좌절
목요일
##었냐
둘러싸
1500
망해
##재밌
틀어
데모
일환
6000
##세한
이런게
이어진
한사람
기대하고
자빠졌네
##보인다
했더니
모르나
##번호
출동
무서워서
학대
문슬람
들어올
사용한
##ion
3차
로그
배울
##부족
스릴러
웃겨
97
기금
일당
홍어
위탁
##가자
##한당
강해효
스파이
##유럽
진학
조리
강세
시전
볼때
남을
##경우
##대응
주저
##같음
돌리
##라는게
죽어도
포착
마루
수련
존재한다
##전히
지난주
나고
한꺼번에
부천
##소시
MB
줄어든
흑인
사랑해요
##아빠
명시
##았어
등장인물
전해졌
##기록
좋겠어요
골든
##지않은
통하여
##겠음
##라시
휘두
네덜
들어갔다
범인
되돌아
##연대
##리우드
##거리며
만들어야
되도록
배급
페르
생계
국무총리
건강한
이런데
드러났
폭풍
96
더더욱
간주
##일지
배틀
날카
베르
섬유
없으며
만나게
나옴
82
지고
##지상주의
볼수
부를
이윤
피할
회상
구성된
지소
스키
##중심
피아노
커서
있었다는
##교회
##쓴다
##기야
돼서
아니죠
차고
두드러
그림체가
사후
##파이어
수험
##청산
생성
무산
형편
##하하
##이시
##준비
시정
##미아
되며
맞춘
한결
놀란
자매
비웃
자유롭게
묻고
중순
상한
까닭
수준이다
외교부
##싶어
##거에요
87
냈다
관점
이러면
법조
허무
지극
##서야
##내내
새삼
무거운
##됐고
있으므로
불공
만기
만나고
손혜원
##같아
02
부도
##못한
썩어
##집회
풍경
종전
닮은
비정상
계란
##이야기
##타운
총회
놓여
독도
당원
단편
관행
##이런
육체
##지노
어딨
몰라서
##나갈
##할려고
옵션
감축
하우스
3만
경유
마누라
##자동차
##빼고
싶네요
부들
먹여
중재
고시
지우
무효
##자연
성우
쇼핑몰
사원
출장
대략
끌어들
##ot
이대
자사
좋지만
미치는
말하지
이르는
병행
정밀
##화하는
##예산
##꺼면
한진
있었기
텔레콤
나라냐
##나온다
철저하게
또다른
실태
로스
좋았다
웃는
친절
프라
94
불렀
적발
유효
행복하게
트럭
느껴지는
오지게
패스
강도
스페셜
##신고
거래소
이사회
명문
##cm
넥센
김포
##중간
내비
제정신
운송
구해
합작
주시
날짜
통증
싶을
79
과일
했으니
10만
박물관
##음악
법무장관
달콤
##라라
찍고
차지하는
방탄소년
면세
얻는
시작하는
상태다
꼰대
##하여야
오마
##니까요
배송
개뿔
##알아
교섭
##렸고
스프
##는거죠
유머
고구려
날뛰
86
뭐하냐
아이디
기대할
##전화
클로
보여줄
가까워
가기
완벽하게
패스트
##합니까
아랫
##겠구나
열쇠
부탁드립니다
##PC
##저런
되자
##이었다고
##됐다고
나타난다
싶었다
서준
바닷
성분
##줬으면
노벨
정신병자
출자
명목
높게
##롭고
친한
반미
가난한
기각
기록한
마치고
어그
태권
선거법
그러는
그러다가
8000
메가
SM
##영웅
##할수있
비타민
지나면
기대감
즐기는
오프라인
컴백
나뉘
감지
불꽃
##시리즈
커뮤니케이션
프로듀
작작
기적
역겹다
말입니다
겪고
아시안
고추
섹시
포켓몬
간섭
브로
이은
EU
이재용
터진
않는다고
상공
수시로
##라기
##놨다
던지
타당
노답
불륜
크리
고도
버릴
누군지
죽어나
진짜로
유포
생리
92
##테러
##셔널
시세
2006
##인생
버리는
##혼자
음모
어쩌다
어도
이뻐
신동
테이블
우수한
가사
면허
내보
##셔도
들어오는
손석
야마
조화
든든
##되었던
##크로
강사
1명
##코리아
올라온
##공동
응시
질서
바지
국세청
##un
했어요
개무
한지
##모양
애비
가전
소신
##되니
두루
코치
신부
참석한
유니클로
93
불러일으
한국어
##기네
성희
그리는
스크롤
##스티벌
제고
을지
##기획
4차
2회
탄소
클리어
두개
물품
배우고
부른다
왜케
IS
할말
다이어트
##무역
##널리스트
더듬
쳐먹
부수
스타트업
아카데미
오리지
##였다는
##조원
##세트
##취급
##거니
일으켜
말하자면
##납니다
태평양
염두
발라
감방
총재
##체인
넘나
와이
열등
유망
헌신
신작
원가
요양
월세
폭로
싸우고
부정선거
비공
여왕
##밀리
무용
하향
카톡
주소
싶어요
일산
제휴
선포
부가
지낸
정의로운
##전환
장갑
어떻게든
저주
국민세
이뤄진
좋겠네요
되서
가중
학술
반란
첫날
내달
차지했다
허구
잘해
##톨릭
##묘한
##교사
힘드
모든게
한겨
랭킹
찾은
못된
손상
입술
##퍼스
오세
분할
스웨덴
##주자
##케이
보고싶다
##캐피탈
##진흥
##업자
못하면서
요원
10분
생각해서
새겨
강하
진다
2시간
돌아갈
만다
##지마세요
사단
지위
교황
진지하게
##베이터
정준
후쿠시마
청장
자아냈다
시공
##받는다
고의
재고
##드릴
나왔는데
대국민
##지라
재배
##아래
##ve
##bs
##종합
관절
좌익
대단히
적정
평택
##처분
과잉
##이군
온통
애정
기성
추리
빠졌
분당
살아온
물론이고
버렸다
##하던데
10시
믿어
몇십
날라
적게
일삼
##연재
##는구나
나지
정도다
미워
##하시길
드러난
노블
으니
해주고
190
유죄
불쾌
tvN
83
같애
잘난
잘한다
트라우
##국인
식량
##등록
##코인
해킹
전국민
##것입니다
진로
용역
포함해
즐겁게
각국
##농단
참여한
의미한다
##부문
보입니다
##는거고
참가자
밝은
신혼
성희롱
##진한
##알바
죽게
수작
의류
잇따라
위해선
복잡한
##하드
##하는거야
달한다
파크
아사
야외
정우
중개
호랑이
03
이른다
적대
원유
##었으니
놀랐
소원
##식이
다같이
몰락
디자이너
로운
해야한다
소셜
줄일
2명
##으려면
##다음
무뇌
트랙
야간
싶다고
지켜야
저격
끼고
비교해
열차
레전드
물러나
임대료
##리니
##을수
필요하다고
증오
몽골
도구
##하므로
대원
살았
##포먼
##받았다
##폭탄
우리집
##엘라
음반
되지만
안겨
끌었다
교장
##것같은데
찾아볼
발광
기대된다
위주
급격히
##래기
뭐고
쌍용
##무지
공군
바뀔
보유한
할배
학문
닥터
손바닥
양도
사라졌
달라진
축적
유승민
반해
##대한민국
도배
##수저
어울리는
살아가
##90
##스포츠
##ay
##투리
바이러
고사
개시
정글
믿지
전염병
##밀히
연맹
두려움
유상
모여서
힘들고
바둑
##의료
##일랜드
##할게
라이트
##차게
반장
진행된
세련
회전
부양
외모지상주의
2억
걷어
그만하고
##버트
ES
경로
직장인
되는지
건국
재밌다
선보인다
스틸
구도
달하는
잠실
동서
양측
##이용
##있으니
악플러
한류
타워
##어어
내렸다
정해진
소매
지워
이별
출국
해설
단장
이니
##하시면
##살아
맞는데
##이라는게
누리꾼
사찰
선보인
거라
우습게
상하
적혀
이승만
그러게
##였네
##박스
##이가
당내
것일
##방식
약화
하던데
여자친구
이해하고
들어가면
##넣고
때문이었다
문제지
##이구만
##오지
##덩어리
##살인
이순신
뒤늦게
당뇨
##보았다
##대비
북부
##파이
돌아왔
##입국
막내
받으며
##레벨
떨어지고
까는
##켰다
##드리고
##특별
##나올
주유
드러냈다
권위
흡연
않습니까
당사자
원조
##니당
대작
원리
철저한
않으며
견디
상승세
##가구
수색
##협력
들어와서
자유당
2005
그와중
##만들어
제천
##나니
여수
01
선행
건가요
피로
출현
건네
여지
관해
진주
##린거
##하겠네
불가능한
퍼포먼
##공장
영화다
레오
관중
##하지말
봤습니다
하죠
##워드
자이
오래된
로켓
용어
이사장
유인
2001년
##었기
제외하면
##리냐
들지
성폭력
노총
대표하는
##꼴통
조선시대
2부
것이지
모자라
수요일
최정
9시
##다녀
사연
대지
7000
타이어
그러냐
구나
##않고
공헌
##거같다
연세대
카리스
중학생
산책
##는다는
고3
사자
안된다고
않나요
냐는
교육감
##kg
오페
부사장
금감
닥치고
손흥
실용
어느새
댄스
##약한
지나지
화해
성취
전당
신장
##같은거
남쪽
##직자
카르
##더냐
결성
선택한
안타깝다
부사
안할
친척
정세
##더라면
당했
타는
김병
이말
벌인
일일이
이노
제법
늘었다
같다는
싶다는
배포
선관
유감
기아차
이끌고
##릭스
##보는데
##물질
받기
##하는구나
협업
##ig
느낀다
짜고
##해야할
마켓
해안
##세이
가맹
이런걸
빨라
##떨어
##조치
버닝
말해서
장미
모리
더럽
저승
이를
##포인트
##도안
같지만
들어간다
거북
##지나
##사용
내리는
영원한
##as
갖추고
마비
##되어서
1분
##상승
복구
##이기에
치면
잇는
08
130
본다면
언론사
인연
손목
막컷
경기장
많았
##래프트
##브라
마술
상사
바꿨
##받아서
플랜
더럽게
구사
흑자
만들면
##엔터
3명
##공산당
##였을
다른데
한도
제임스
협의회
사물
그정도
인테
알수
당당하게
표면
텔레비
##od
되겠네
아키
규명
##진영
윌리
에어컨
중공업
CD
출간
공고
바란다고
##이겠지
죄인
##키로
개조
탈원
##러니
##동물
반짝
거임
##된다면
실체
보인다고
함정
##중공업
성공했다
이인
##보다가
유리한
패거리
추구하는
교실
있잖아
준공
메달
부끄러
포기하고
계단
국경
머무
멈춰
유래
##다보니
##처벌
직면
##먹어
특집
실감
##리는거
시야
뛰어들
그만해라
튼튼
평론
봤어요
그래픽
수지
국가대표
폐렴
스킨
중공
모티브
##시키지
어우러
스위스
언더
건들
게이트
대치
##ct
터지
김무
저하
외출
표명
7년
다루는
간단한
##베이
31일
##되네
꼽힌다
##없지
차려
까다
만들지
묻는
짓고
##매도
##호선
##되었으며
수신
수렴
팬티
문구
비호
##새키
위생
##준다고
않다고
벌어지
살면
##지니어
비슷하게
살피
낙태
##사카
##하더라
퍼트
음원
입대
알면
죽는다
파헤
이러고
숙박
목욕
창립
싹다
어설
구두
##자다
##독한
DB
석탄
##였으나
밥그릇
앞세워
##서울
백수
쯧쯧
친박
떨어진다
##mm
발암
약물
클릭
기절
지도부
##23
생각함
10개
악역
합성
안보고
계승
##셔츠
잡았다
##어머니
가라앉
하려는
악질
백악
이끄는
아랍
무난
너거
우월
보냈다
타협
##됐던
권유
단백
고마워
##NG
##따위
사운드
알려주
어쩜
##방법
걸까
##줄아
거세
광복
미쳤다
##린지
기조
베이스
09
동조
파탄
입력
흔한
차지하고
신재
##블릿
개미
##소송
파라
GM
드릴
한복
배고
4대강
싫어서
일기
살지
##언니
중산
초중
때로
여학생
치료제
내뱉
07
어때
늘고
지키기
##데요
##이치
않았는데
##수지
이십
이어서
정한
##당시
##된거
낯선
나타내
주무
는다고
공백
썼다
##당할
##PS
원망
사람이다
이명박근혜
진압
아군
네덜란드
감자
것이라며
연동
잘못한
손잡고
예선
거둔
국개의원
공영
요건
횡령
강릉
수혜
어긋
된장
완공
어쩐
##신청
개개
주어진
##IC
##라스틱
좁은
십자
소음
야생
##ed
참모
##트랙
잊혀
링크
격차
천벌
압력
훗날
했었
##해왔다
도약
##건강
다른나라
농담
##걸음
신성
우정
간호사
안되지
참전
시켜야
죽어라
##엔딩
시상식
##텔레
천사
##이제
사라지고
##하곤
마리아
##미디어
시가
휘둘
##십시요
포도
여론조작
##들었다
##바이트
일원
무너지
듣기
황교활
참사
산불
7시
##플러스
화합
유나
구호
생기면
지극히
이러다
지금이라도
##행정
##폴리오
비추
공공기관
는다는
강점
떠오르
여우
주석
있었으면
고지
50대
주부
발효
너무너무
헷갈
대권
이용하여
기동
##일수
하나인
##바뀌
나타날
없애고
쓸데없는
봤던
박그네
파격
춘천
대상자
다큐멘
천안함
삼각
며느
상용
한가지
확립
아티스트
김경수
달하
##요한
리스트
맡았다
재판부
##연구소
##되지만
지원하는
북쪽
없으니까
긴장감
사시
양육
조례
헬스
수송
##디스
그만두
김원
##동맹
베네수
내기
아라
사용하고
고립
제작진
듣지
얼마든지
지나친
따지면
엘리트
이긴
가람
재학
고조
줄이고
보조금
되니
둘이
입구
가득한
단호
죽었다
운영하고
않았나
애널리스트
변해
2층
##도르
불편한
차분
##의사
걸맞
움직이
아니겠지
석방
꺼져라
세우고
신사
같냐
##안보
##이한
부친
마인드
떠났
예언
정직
김광
의결
##리안
니까
체중
간판
조현
내리고
라이벌
찾아서
수아
##행사
맡겨
많다는
마포
감염증
다니고
모르겠네
국면
둔화
노동조합
동계
스카이
##판매
안되면
생긴다
되니까
삼아
공정한
사용한다
오리지널
난이
제어
전성
코스프레
준다고
사나
결혼식
속성
줄줄이
##렸다고
유지하고
죽기
간편
##주셔서
아무렇
침대
초점
답이다
심정
변형
미개한
뱅크
적립
싸이코
났다
밀고
맞다고
제자
구독
재해
이진
900
##받아야
국채
의하여
##돼야
체감
멀쩡한
이어졌
##여성
한국영화
시너지
행진
죄책
##량한
문의
##가네
교복
##동강
바위
농가
아부
역설
누릴
염려
안양
궁금해
김준
모지
##청원
##차고
윤석렬
무더
보석
##하겠지만
부총리
굴러
항공기
인건비
##ER
꾸며
내려오
알면서
단점
포괄
들어선
##았나
하실
많다고
##im
넣은
안좋은
비틀
##주의자
고려대
소금
싸가지
안된
모든걸
것일까
##받게
선보이
주둔
원고
동력
박성
정화
콘셉
특권
하트
아니냐는
##시키면
유한
6개
안주
##르바
스테이지
빈곤
5분
많아요
##한텐
매치
임진
중장
나오네
입양
##다나
치솟
실명
무언가
상당수
집합
식구
3억
선동질
##선언
##리라고
양념
당기
##싫다
스피드
##적이
일까
안들어
케어
여객
조연
접한
기숙
6시
부시
남양
스태
안티
이완
책상
사이코
토대
##사한
날개
삼촌
교차
##인권
친북
냉정
외치는
##였나
쓰기
않는다면
##ad
##나지
문명
가는데
##화하고
신흥
##타이
MS
FA
##했었다
숨겨진
포지션
##의미
2002
오줌
제공한다
여자애
구리
글고
공직자
감기
CCTV
허허
나누어
##정말
위대
좋습니다
모른다는
여담
하겠지
트레
할수있
미스
##대요
레이저
그토록
미용
우아
##연구원
후기
##모토
점프
##해주면
프랜
전신
##치네
판다
지냈
더불어민주당
##베르
은근히
극히
깨어
소속사
된다며
110
욕할
보시면
그걸로
단정
느껴진다
##었으며
##ow
잔잔
부유
자화
이불
모금
양상
다이아
참신
##방향
늘어났
하려면
##IP
올라갈
은혜
여인
골프장
##르몬
##내면
##쳐도
불황
치열한
하겠다고
없는게
##했을때
공업
감안하면
양자
아닌거
생애
천지
망설
망하게
##일세
##있다는
##보라
말이죠
04
##당해
##을지
안한다
사법부
##하잖아
송파
##22
주범
휩쓸
1층
암호
그릴
진행할
같으면
브루
신탁
##에다가
##간히
옹호하는
떠들어
발음
포토
초콜
높고
후퇴
더해
여배우
총알
뷰티
06
시집
##사냥
다르지
맞는말
##는걸
김어준
농산물
보컬
일정한
좌빨들
문어
자칭
독재자
##는다면
전방
##어린
성사
##지금
않을까요
이경우
##히면
리얼미터
흐르는
연쇄
두렵
정무
해결할
쪼개
시즌2
##bc
팔고
##아시아
##데스
도모
##도우
##으라
대마
찐따
##이었으나
회사채
중국몽
어째서
##가는게
##지않나
##불가
서둘러
중점
사리
##접한
에드
##환자
##모두
걸리면
비참
그랜드
만세
높일
그쳤
##ch
바꾸고
그렇기
관련한
던진
있었으나
배후
비비
공존
바퀴벌레
##메이
우울증
소규모
##빨갱이
##수도
##이란게
등교
살림
이닝
이어져
나노
알고보니
어렸을
##벌이
##즈니
##쳐라
온도
##요웹툰
폭락
무너뜨
때리고
마블
하차
##간다고
삭발
시신
##되었다고
뿌려
##마귀
뜨겁
옮기
이뤄질
베어
##확실
피터
6년
플라스틱
일곱
부풀
그분
하든
##폭행
박형
시발
##아니다
##되었는데
##졌던
미국인
걸친
잃어버린
우익
포트폴리오
##대가
실리
존재하지
박찬
KBO
관할
스쿨
한전
##작업
고장
61
완전한
나왔던
##쯤되면
하루하루
그래요
확인하고
##에스
##공무원
이빨
이단
무겁
생각해보면
위법
말하는거
세일
화력
드러났다
##퍼센트
단말
##미래
치밀
출연한
재밌어요
페스티벌
증대
무작정
쿠베
장성
KBS2
연일
##해봐
안된다는
더러
슬로
많음
재직
낚시
부합
##줘야지
밝히고
고로
일베충
우호
휩싸
잡아서
저소득층
##과장
파산
무의식
적시
플로
출처
탈퇴
지겹다
검정
2004
건의
태어났
##전사
좋아하고
돼요
프롤
덮어
후임
나가고
가르치
##학원
보려고
파렴
km
부드러운
119
##겁니까
원료
불거
관념
김정일
대고
채우
인정하는
##진보
느꼈다
퍼뜨
세웠
이세
윌리엄
##돼서
##타는
나와야
아나운서
치르
##투쟁
##주년
문장
이만희
공안
보충
조율
상반
아니잖아
##끼고
한양
나눈
멘탈
반납
야기
늦은
지갑
다가오
엑소
191
부위
오너
도서
##틀러
참나
웃기는
벌어지는
관람객
몇개
명심
유흥
연루
##스토리
##대장
##미사
##시나
있을까요
##대변
막대한
학력
##키고
폭등
뜻이다
영등
##신다
예민
양극
달래
##랄까
몇명
찾아온
##였어요
##5000
사생활
증가했다
포스
항소
기록하며
The
박태
씁쓸
게스트
창문
##에너지
전액
##프리
공학
##치한
똑같다
깜빵
잊고
##이였다
불과하다
데스
못차
동구
사업장
어머님
엇갈
소극
클라스
침입
오피스텔
##여도
복무
##용품
##철도
방탄소년단
##람회
##감사
제갈
베뎃이
동행
##급한
고난
빼돌
LA
##마나
못살
사인
##보도
3위
나쁘지
책정
음란
네이
학기
##고요
비서관
임종
외신
활용해
강동
##린다는
사촌
백인
##버스터
##군데
뭘까
지금껏
##겟네
꼬박
토크
##채널
LTE
페미니즘
역임
처형
노리
광우
걸려서
안동
아놔
고성
하는거지
##신도
악당
진모
매월
의약품
보건복지
##마켓
변수
명복
##것다
프레이
유사한
##먼저
모터
판매량
자란
멘토
있겠지
##나왔
대세
안무
끈다
클라
패키지
세제
카라
이데
##ns
설사
재계
##대해
않았다는
##기부
군수
취하
봐요
후계
발레
므로
복용
문득
아바
중복
작정
RD
웃기네
해수
##갖고
세계관
##갔는데
신축
상인
이산
진동
죽지
고래
레스토
만나면
보전
세번
무단
반갑
##널드
동정
괜찮아
아마추어
##지는게
강아
좋으면
어처
수강
소홀
할일
개꿀
하는가
밀어붙
##더스
함유
단절
흐르
##근무
트렌드
##분양
돌아올
모으고
될듯
차입
사각
레스토랑
##올레
구청장
##ir
갇혀
하겠습니다
발병
천억
안전한
##떨어진
짧게
삶은
##았어요
받아들이
##놓는
나갔다
##주행
터치
남매
##되거나
이같은
해병
읽을
했냐
프로세
발생할
##배상
##좋다
##권력
##잡을
중앙일보
매진
부근
중지
오르는
떨어졌다
정당한
따르는
본선
청탁
곳이다
혈압
고인
교도소
화요일
5만
그리하여
봉인
공룡
수여
증인
아이러니
똥꼬
악용
대조
시작해
민식이
있겠다
김학
언덕
급락
진행되는
처음이다
막는
출연해
##기념
세균
맞음
노트북
부럽
##려다
참여하는
짜파
정복
말레이
내려가
최우선
안되나
표지
동향
하루빨리
슈팅
시국
##공부
산림
메이크
전시회
듭니다
처먹
버닝썬
아도
140
종식
쫓겨
톡톡
목록
##새기
##했다며
꼬라
안지
보이며
터트
준비하고
##크라
갤러리
남기고
##학습
기습
되었는데
이겼
전도
##백화점
당연한거
##적이며
##지않는
##투성
이루어지
가톨릭
##잔아
감면
리듬
아르바이트
하겠다는
피의자
##졌을
도우
진태
##아내
망신
이래도
노숙
소폭
##었으나
걸레
고려해
##잖어
71
돌아왔다
암시
보살
맞물
##할머니
##역사
음주운전
##리한
사주
안죽
##해양
##지며
살아갈
크로스
꼼수
수당
실효
##중국
않는데
외무
중화
##니스트
광범
BM
##하는가
토론회
처방
##대신
않았다고
종업
병맛
마냥
잉글
유권자
이현
실은
인테리어
##퇴근
진흥
사도
##소녀
내각
오스트
미투
기차
이치
끼워
쓸모
##올려
말이지
퍼져
##체제
바라보고
애써
사라질
아랑
##셨어요
것이란
보임
아쉬움
보이지만
##FA
##졌다는
학자
수성
##계층
김희
인내
##같네
했어
갔는데
오라
백두
취직
##게이트
언급한
미련
구할
##였으며
##등등
the
먹지
##라이언
보신
##만든
해외여행
풍부한
사람이라면
감찰
배우는
##지인
퀘스트
많지만
아니니
사흘
##쳐야
저능
##마스크
됐다고
메세
##셔요
##하우스
##유예
가리지
하시고
대공
##하느냐
운항
벤츠
이었다
생각하게
##스타일
아미
반사
##간첩
사막
우스
가지는
관계없이
장인
육박
커질
##히게
토로
써라
처한
때문이라고
열매
노골
장제
줄기
##되네요
솔까
찍소리
천국
##보러
무시하는
엉뚱한
잘한
큰소리
보태
아메리카
##그마
##끄러
전격
살아서
직권
증정
##투기
신생
##치며
지요
빠질
비열
이런건
키우고
재미없
##OS
리플
돌아서
누르면
묶어
##오스
##티나
사우디
이루고
짝사랑
만성
아녀
등산
랜드
발전소
뻔뻔한
삭감
##보증
##지대
아이언
버디
지방선거
##엔터테인먼트
해봐
사대
8시
DNA
차트
쥐어
트랜
##확인
없어져야
유투
##거품
취미
낭만
오페라
말하며
인하여
사용해
쌓여
습격
늑대
##좌빨
그놈
말아먹
증폭
##DP
키운
양식
여주인
낙하
리버
어리석은
##지않아
레이스
저럴
##아니면
것이기
개같은
다시한번
1학년
주차장
이고
하다니
##리케이션
대면
##출산
임차
체육관
##차이즈
소대가리
발간
했나
상주
바뀌었다
모의
##지는데
##오르
수목
뭐하러
쓰여
할거
가졌다
소상공
안되는데
아이스
가죽
아산
강력하게
노동당
아일랜드
접목
내보내
넘은
조조
##오오
부르고
다른사람
숨기고
이언
시작해서
##부들
영등포
스폰
1999년
2030
상금
아그
이룰
전월
모양새
카타
##200
of
키울
부회
샤워
아마존
호기심
##여러
죽어서
버릇
##어버리고
저런거
안남
엘리베이터
까고
초콜릿
유세
개장
US
접어들
##있었다
화염
##방울
마왕
되풀이
알아보
재원
인쇄
##지주
한자
##숙한
한건
마당
바꾸는
더니
침투
태블릿
##자산운용
걸러
우리국민
얼어
보던
크림
##것이고
통산
없죠
선보일
160
장모
##지않게
이메
노는
벗겨
일이었다
음식점
조속
넘치
아니네
원피스
도시락
없잖아
##야마
수차례
협동
나서는
고리
##48
3회
만든다
##nd
낸다
간혹
해골
##을거
##닫고
지소미아
폭동
어짜
끄덕
동급
되었다고
##할텐데
지상파
장례식
SP
그립
못보
다시금
베를
##하늘
눈동
##두면
##수호
김영삼
예매
만주
스캔
##망신
걸리는
청사
탄력
##키스탄
나오게
노잼
강호
##화한
어쩌구
이집트
누가봐도
정시
기운
전진
파생
추첨
##입장
##로움
더욱더
살던
뻔히
됐으며
시리아
딱딱
##보복
낫지
대여
부류
안하냐
경영자
열풍
ST
거칠
정교
##유공자
##싫어
개신
수확
편한
비겁
약점
영향력
순천
개그맨
##하였으며
일러스트
모르냐
붙은
신선한
입수
담당자
제대로된
모르면
DJ
##평화
쳐맞
받아들일
장담
와우
형석
모아서
##나와서
##자라
볼넷
할리우드
3주
1997년
돌고
우회
신약
##해준다
김승
유니폼
걸림
##담당
##영화제
마쳤
나는
상기
맛있는
미뤄
##중이다
모니터링
##중독
전경
##MC
동아시아
##리포니아
비트코인
발탁
막강
선보였다
안성
진행하고
따위
이해하기
역겹
광명
##수산
여럿
예컨대
필요할
화상
억울한
동지
득표
비아
훔쳐
똑똑한
좃선
무사히
##멘트
비판하는
집어넣
내장
정도였다
타락
달달
쓰게
내놓은
##되던
과도한
##올로
##는대
없었는데
##무라
현명
강대
싸게
1998년
같은데요
할려고
##분별
지붕
추신
##정상
미미
기다릴
이원
지킨
나오기
##구려
여사
##투어
속한
얻기
커지고
전부다
만들어낸
계정
SS
사는데
##유지
세미나
뚱뚱
숨기
##나봐
##나마
말라는
공방
동굴
환경부
막판
##기금
OE
모름
같으니
못함
남용
간신히
##조트
##26
실패한
있잖아요
지성
생각없이
총기
안해도
소독
레인
유령
미흡
전산
91
경제학
않은데
채소
같기
토마
통장
돌이
LH
지령
그림자
청렴
증진
강력히
왔습니다
약국
나루
사무총장
강렬한
비교하면
역시나
##쓰면
승용차
공화국
##평균
이화
파기
버텨
쥐고
식민
빼면
아요
있어라
##OC
부재
분담
탈탈
##겠고
##28
살릴
비춰
##넘어
찢어
지대
손석희
##버리면
##하노
진도
은폐
열려
러닝
안드로이드
천주
쿠팡
쿠데
##us
캘리포니아
9000
##수당
보강
##다며
넘어갈
비닐
적당한
누르고
떠날
스토어
나옵니다
##35
##군다나
전송
뭐하나
당하
##그려
##하는걸
차장
되었을
심해
##계열
##스피
##ag
중년
자격증
##비한
##느냐고
##체험
하고싶
##져도
##또한
안락
##코드
대입
불사
면담
살펴보면
베네수엘라
##이해
2학년
한국은행
용병
냉장고
대중교통
안먹
##격리
이듬
##순환
타율
깊게
박진
했네
장교
상관없
해임
##혹한
차리
##잡는
훌쩍
상세
빕니다
명확히
신한은행
##DI
##ut
공격력
추이
들었
김주
##청구
손톱
나랏
##메이크
##op
##도전
갖췄
도데
눈앞
때리
역겨운
쉽다
죄송합니다
로그인
일제히
불신
모습이다
노하우
일본군
##파티
터널
찾지
프랜차이즈
생기고
돈주고
다채
맞습니다
일간
드립니다
##남도
##시위
맞네
12시
건수
##파악
열릴
##도는
생각좀
파면
없도록
작품이다
심어
편히
수염
##자치단체
방한
벌이고
얻었다
주한미
형평
중부
새키
있으면서
엉덩이
좋다는
높이는
기업인
유타
센스
##뉴얼
별거
농사
그땐
관통
끔찍한
##다닌
버그
박주
손쉽
이영화
소집
간단히
시사회
##일베
폐업
족속
##일텐데
하더라
귀엽고
##결정
줄서
갔다가
##국적
등이다
##절로
맞으면
##고사
좋음
알레
##문서
##셨네
분명한
2003
쉬고
부산시
오십
영감
아테
각기
마니
4번
##분열
낳은
묵묵
하지않
##왔고
들으면
세입
선택할
##무슨
보는게
말레이시아
두근
이례
아쉽다
하라는
##모로
도요
##걸리
분배
분해
꼬집
1분기
##같으면
드러냈
장병
꼬마
국고
##27
처단
할듯
이랬
##간다는
쓰이는
웃으며
##테이너
##매국
있는건
SF
젠장
베뎃님
100년
다시는
##쳐먹고
헬조선
추진하고
기둥
##상관
시작할
사랑합니다
디즈니
세븐
##일때
##만해도
##요금
##되었다는
알리는
우대
##집행
##버드
근원
발상
##좋게
오글
당당히
##롭지
##45
찔러
책임자
군부
잡으면
##함께
바뀌면
뭐임
이듬해
호수
학회
##돌이
어짜피
유미
조센
보시
멍멍
북측
상정
알기
심각하게
있거나
유난
##한거야
##광고
비해서
시크
무방
가능할
두뇌
밥먹
1호
3학년
하러
현정부
반격
##구장
맞는거
낳고
##소연
호감
그다음
획기
있는것
한해
가관
없다며
손꼽
##실장
빛나는
할것
부착
두들
아르헨
##lose
착공
수많
브라운
약자
##xx
활용할
벗어난
개발한
##업뎃
사람인데
사는게
늘어나고
하청
야이
##려니
치워
줄거리
##미술
##텔레콤
달리는
해보고
##리라는
일상생활
꾸미
전차
주작
시원하게
차가운
한발
터질
##포트
진행된다
사료
일개
##베스트
탈원전
아이콘
좋네요
원화
##스틴
민경
##저축
노르
주권
24시간
굶어
기술력
##두리
흥미진
얻게
생김
제네
정동
남다른
있다니
제공하고
잠정
김형
차질
태워
##그렇
됐고
답했다
앞당
##됐다는
왜냐면
부들부들
상자
##협의회
청정
전임
밝혀진
##인해
생각하니
일할
두꺼
##TS
남겼
멋대로
되길
##했었는데
였다
오징
##게이
인천시
밀리
찍는
잔인한
##있는지
벗고
소나
우즈
##고있네
찾았다
잇따
더럽고
##MA
양호
소감
올리면
겁니까
하이브리
짓는
김혜
##시원
김선
않았습니다
구걸
몇백
표창장
단백질
펑펑
초보
품고
##수입
해결책
1대
##잇는
시술
취한
색다른
변함
아니더라도
겸손
안한
명성
##급식
혹시나
용품
헬기
##고등학교
아이스크
보는거
##슈타
수직
한걸
다음달
인질
##했더니
올라가는
지나치
민낯
close
##냐는
착취
인맥
활용한
더군다나
뒤통수
##21
영화입니다
지면
##셨는데
##치킨
주역
##서치
##자찬
꿈꾸는
도데체
책임지
숟가락
81
보도했다
뒤지
##한거다
##일수록
대주주
차명
##한가
일본어
이르기
시바
최하
##플러
종일
나눌
##억달러
궁금해서
##매김
대수
마나
구하기
성경
구워
스미
대금
낮춰
창고
##있는게
FI
한라
##말라
정신차려라
사탕
장려
##볼까
##하다면
주방
겪는
구출
##르며
##테랑
오르고
##사상
##말아
수년
컨텐츠
어쩐지
장벽
##비디오
기다려야
갓오
이석
저절로
비올레
##그렇게
동결
이어졌다
먹고살
주된
내놓고
수감
잡기
##던거
연다
박지원
##스틱
편향
##저래
인과
##발표
너머
노랑
거점
휘말
자리매김
##우며
복사
그러던
가령
국민은행
귀한
가지게
##주었다
##였지
얘기다
경찰관
이리저리
##비드
박상
겪은
##등한
메모리
각본
실점
##어울
특이한
무책임
kt
좋아할
깨알
종로구
최우수
선조
고아
강정
##플렉
전철
주전
##이었을
국정농단
피자
지검
##통제
민간인
있듯이
넘어가는
대두
노력하는
리스
자랑하는
분신
도깨
HP
백악관
50년
맞지만
그려졌다
외화
##종교
거라는
스티븐
##주신
가담
스윙
2인
했다면
##져요
나가면
있느냐
조짐
##이란걸
무개념
증세
내놔
불참
웃기고
발의
##외교
비주얼
##공화국
##어내
살인마
##99
맡기
면세점
의상
넉넉
유희
##하자마자
응용
문재인대통령
화살
바이든
소득세
안아
좌표
느껴지
차익
머저리
없구나
마음껏
한겨레
뜨고
신용카드
중2
결단
상권
##나나
열렸
타이거
모른다고
면상
##차이
열면
벌이는
사용하지
된거
진리
##부턴
전범
재개발
##달고
정상회담
가져야
특징이다
다문화
쌍둥이
고요
웃을
이어진다
##하는거냐
생략
바꿔야
넘어선
불확실
되겠다
의자
LED
저렴한
그리워
추산
추출
##이었다는
올라와
##라이더
비평
우는
출퇴근
즐거움
모르지
##유치
도와주는
##팔아
아까운
##재인
영화관
##레나
한두번
##걱정
똑같네
대동
##졌으면
##쓰기
##물어
제보
##더라고
취해
학업
##위해서
싶네
뱀파이어
그라
유능
##아는
오프닝
2루
로맨틱
##행동
해먹
깨어나
설명이다
박용
벤치
4천
하나요
내세워
나누는
인문
김명
동아리
##들게
어렵고
자유로운
요한
주워
##한듯
자화자찬
##OP
##기인
들어왔다
실사
사소한
##자라고
##북도
종결
##벤처
신곡
모르겠는데
사악한
주경
용감
뚫고
##인원
어디갔
놓인
##았음
앨리스
몰두
간절히
잉글랜드
겪어
참석해
3인
삼십
핵무기
돌연
팍팍
동방
텍사
방패
##코올
다큐멘터리
##완전
##치면서
일가
오렌
쳐들어
극한
짓밟
노려
##맞은
##대지
업적
그제
채팅
한표
쉬는
조아
##인터
오디션
견인
펼쳤
이럴때
금강산
낙찰
떠나는
##제발
생선
재밌는데
가져가
싸운
비결
후유
기증
주입
보여주기
강성
김무성
##되요
##이냐고
속속
##묘하게
밀집
주신
발주
폴리
속상
메디
##나오면
15년
##이길
100만원
힘입어
싶었던
있는데요
깔려
아껴
바뀌는
유공
##잖은
##바꾸
##추진
전해졌다
좀처럼
통행
탄탄한
만났다
해온
##되었을
때문인지
욕구
우상
한중
##변호
##플레이션
몹시
##일까요
망쳐
폐기물
진행하는
있는거지
한시
하루종일
환호
추잡
해리
절약
##인지라
그런게
이뤘
교양
##팩트
벌여
##중인데
적폐청산
섹스
보여줬
혈세
미처
달라질
안함
확고
시카
엄중
도민
##셀러
이걸로
알겠다
필드
죽을때
##박이
##랍시고
##들면
문죄앙
##ur
반환
유진
강철
폭넓
풀려
실전
어릴때
이뤄지지
해본
황당
흔적
설탕
절친
텍스트
도출
사명
##처먹
불필요
##페이
럭키
욕설
나타내는
이색
피눈
##그럼
캡쳐
마산
생각하며
##되는게
병력
탐구
간다고
묻자
##자격
##타워
중증
돌아오는
인명
유언
외곽
힘든데
용납
##거렸다
김구
##하겠냐
CP
행성
St
엔지니어
##됐지만
일등
지칭
묻어
##됐는데
리메이크
움직일
##안해
##정지
마늘
송도
##학과
내려와
생각하는데
##이었으면
두는
높이고
막아야
##막고
CN
밤새
이기고
나비
표현하는
길고
이면
시켜라
##있지만
치즈
검거
안그래도
녹화
구린
가지가지
봐야지
이루는
이광
프로모
인디
남자친구
진행한다
##놓을
이사람
##DB
##하는거다
이어지고
폭주
멜로
백제
##개입
산정
등극
영세
##테니까
행운
불태
##올린
베테랑
똘똘
회색
못지
지지층
복제
##재미
애인
##롭다
##감치
습득
통째
증가한
맞아요
화보
이것저
지저
##기게
입단
재밌고
##재료
대성
##적으로
색히
##듭니다
지긋
뽑는
##싶은데
##해봐야
##써서
호르몬
##29
잡힌
쏟아져
그네
숨진
##봅시다
손자
##조각
다죽
남았다
역적
이와중
돌봄
불명
로버트
당했다
보람
쿠폰
2시
해준다
##하듯이
유지하는
됐는데
게시판
알겠는데
설명할
인스타그램
웃으면서
##겨운
##허가
깨진
김윤
메일
티셔츠
못생긴
모르겠고
##인한
##빠리
##TO
강구
##축제
##바퀴
군데
혼합
폭격
했다가
익숙한
단원
사교육
##소수
##웠는데
신년
찌라시
만원
비자
미얀
두기
메모
카리스마
교정
구로
히틀러
장마
필요하다는
형상
외식
지었다
장자연
##하단
기세
라인업
필름
몇달
자처
답답한
명백한
다툼
여성부
이력
입소
##학기
일선
가산
##만하면
발명
믿는다
취하고
체질
##드백
##있었는데
남지
원본
##네트
상원
##놓았다
악몽
돌아가신
반기
버는
스트라이
대갈
##질랜드
조원
간지
신세
기껏
글자
여러모로
삼고
설령
하도록
말아라
##없게
##대원
끝났다
##해보면
느끼지
인신
말했
성찰
##오리
보았
일회
영화라고
교원
소아
위상
##연기
##00만원
##면적
##지자
좋아한다
평상
비슷하다
망치
상해
깨닫게
이데올로
조별
표현한
##방지
싫다고
고고
소리하고
다하고
저러고
##가량
호칭
##신도시
담임
한개
잘했다
##였다면
임영웅
일명
위태
장기간
단연
압축
진전
자택
무능력
다각
##란한
애완
안방
##대결
하나다
사라졌다
오사카
5억
올리지
코트
윤지
170
모았다
##아버지
재밌어
돕는
영주
자막
대인
월화
말씀드
소망
본다고
고치
길러
후예
##진이
실컷
추후
우왕
##줍니다
##주인공
알겠지만
재인
기호
##보유
잘보고
##IS
저질렀
불가능하다
퇴임
찍을
예고편
##찌감치
##가는거
생각해요
다를게
벗어날
합니까
도널드
국군
압수
이새끼
##수아
K리그
프로야구
짜파구리
##페이스
망한다
생각했던
하이브리드
##하구나
##부러
사들
교역
테니
공소
박종
크지
클레
산소
인체
왼손
약세
프롤로그
방구석
푸드
빠는
해진
시작된다
기피
거래량
실버
부정부
불공정
똥싸
마르크
탱크
##될듯
모기
법치
들어야
##디움
공조
규탄
안좋아
조약
##적이라고
단합
##세끼
3분기
미리보
자유대한민국
자립
베를린
등장했다
사라지는
##참여
웃었다
초코
삼진
삼성물
기정
범법
초창
##것같아요
싸지
죽어야
##다녔
장거리
##다닐
##우주
만들려고
아버님
디젤
##수술
추운
막대
번지
배부
드론
마른
이것저것
생겨서
이뤄졌
반가
##들어서
미치지
김문
##오게
##해달라고
조립
무수
외국어
곱게
사직
8년
##배댓
소방관
살자
제시한
육상
##했을까
OST
시켜서
21세기
지친
##댕이
허브
댓글조작
사탄
ET
열광
줄곧
양민지
##84
##맙시다
##주니
유성
만만치
헤지
눈감
염병
적절히
##아트
AB
활짝
넘긴
실존
정형
탈당
전광훈
원격
##랭크
삽입
생각난다
생각해도
같은거
희귀
준다는
나타나고
따돌
현기
정계
##ent
날카로운
코인
집행유예
장난감
드문
##바이러스
뉴질랜드
##ver
이해하는
##뿐이다
##광역시
적합한
##다르
화웨이
나발
접어
해졌
계곡
수두
캠퍼스
##최고
##공감
고르
노동부
보나
일어나고
마운드
중기
사다
그해
써도
깔아
스물
마법사
##렬한
시한
환장
알코올
했음
방송사
사양
장래
##긴한데
##뿐인가
625
건설사
소름끼
류현진
예능프로그램
맛있
##다니고
못한다는
척추
소득주도
눈깔
특정한
##공주
플레이오프
수위
호평
딸기
##아파
20분
앤드
내버려
휴게
핵실험
애플리케이션
고맙다
진지한
바짝
드라이브
부럽다
실려
눈높
일조
동경
##33
빠지는
동포
검열
성질
돌리고
파악하고
꿀잼
우물
지식인
단단히
쟁점
항공사
따지고
볼수있
없었을
##규제
안간다
한국전
##셨습니다
LCD
이런저런
세요
바뀌고
##EC
##키퍼
##부담
##소시엄
이해안
노리는
전인
##셨네요
가늠
손잡
등록금
알아라
공세
사외
베이비
시트
입체
폭스
배트
필연
되도
일으킬
통일부
##겠느냐
얘기하는
##였구나
스티브
##에대한
첫사랑
주름
어필
씨앗
체인
##탄핵
법인세
마찰
##파괴
학창
모았
대명
상품권
서면
도끼
##찍고
보답
머니
늘어나는
아름다움
캠핑
반찬
앉은
옆집
SU
소울
낙동강
##거워
##질환
진행되고
주축
글씨
딜러
모호
지켜보고
##선택
니콜
##구성
##셨나
처참
디테일
잘해서
김제동
기안
메이크업
##분석
민주노총
개구리
##오늘
##몬드
빠뜨
손해배상
드러나는
파이팅
호러
줄었다
##넘들
##싶어서
수상한
대부
마신
배분
없으면서
저런게
손흥민
오일
사제
재정부
분단
생겼네
보물
내신
##업무
##하셨습니다
펼칠
경제성장
##어버린
당근
##해져서
겹쳐
서정
와이프
관장
허나
HD
인정하지
피어
미술관
유의
미혼
서초구
이기는
마녀사냥
방통
##두는
않은가
프리미어
정년
불안한
그만좀
##가르
체류
변호인
등락
##회계
GDP
OECD
##00원
다니면서
##드니
유지할
준비하는
1부
##네여
말장난
4만
스태프
건강보험
로또
자취
일으키는
지법
각별
퇴진
끊어
의미하는
어떡해
되는게
구하
클래스
##일드
##그대로
2001
내어
##왔습니다
져야
##라구
암흑
리서치
있었어요
부리
안희
자신감
어린아이
맞나
지지합니다
근혜
##주시면
##아저
입점
sns
저질러
##간질
먹어야
매물
##있네요
쓸데없이
휘발
##시브
자질
##라면서
##이예요
이왕
대사관
모나
비단
추상
구한
배댓님
건담
투신
우롱
##겠구만
패러다
하이닉스
모양이다
메타
트래
##무니
나치
싶다면
표본
일어나지
블라
##ap
마찬가지다
보너스
북핵
컨테이너
반역
안다고
못난
통신사
##처음
초고
백종
엄벌
##무시
받아라
함께하는
미모
마라톤
노력하고
##신탁
버린다
바랄
베도
크라
부임
##보려고
##하냐고
가문
안건
싫고
숨쉬
사용하면
중형
일체
챙기는
날아가
동북아
클린턴
##으실
##거려
##논리
지역사회
##주면서
##페미
멋지
많으면
소각
없어진
블록체인
감염자
먹거리
풀고
있었으며
##승리
종사자
전과
통찰
##였기
섬세
##감염
동대문
불렀다
그레
##이나마
기부금
동창
흉내
가져온
##치다
여경
수없이
만들었
친근
소액
삼가
우위
4강
원수
비방
절벽
해야할
도무지
##한걸
미안해
보행
나타냈
##해야함
적고
##커스
##대왕
햇빛
7개
받았던
인물이다
돌아간다
인텔
금감원
수월
정몽
있습니까
속옷
##았지
##거부
찾아와
댓글창
괴롭히
나왔으면
##소나
살수
난무
뮤직비디오
있을때
방출
##LED
그늘
##봤습니다
다니엘
먹는다
해줘야
사거리
어려웠
연초
안믿
페북
##꼬박
##제일
원하
##저스
호전
물고기
주당
오른손
싶었는데
글쎄
따름
##으니깐
받으면서
##이구
##내요
법제
이국
BMW
##RA
급하게
노블레스
연내
사랑하고
##나오고
쳐도
버프
##적일
##으라는
읽은
탁월한
일괄
이유다
편파
##답시고
##버리지
350
선명
200만
폭파
전선
##리얼
공범
농림
##틀딱
흑백
소니
컸다
##슬라
발견한
유비
##이었기
높아지고
중딩
산출
10명
##77
실물
가도
언행
양파
실어
하나라도
변이
서두
보좌관
포용
도청
인접
나가야
##장이
SK텔레콤
##고있는데
팽팽
호의
##코스
그리스도
##5천
사용되는
아쉬워
도래
박람회
무술
반지
구조조정
아니라서
안하
셔츠
오케
kr
제4
하자고
##라는걸
쾌적
나라다
내란
경악
폴란드
##노릇
##52
배우자
이식
샤오
##통화
밝혀졌다
허술
흰색
소스
전복
묘한
추정된다
헝가리
환불
파주
아진짜
##경험
나을
카레
##테이션
여러번
떨고
##졌지만
##나옴
아크
용돈
유예
피지
해대
아니며
총선때
##가니
술집
저놈
##HO
민망
가즈
##리온
2조
##졌어
밝혀라
강좌
혼인
헤이
맞았다
##파리
##하니깐
소릴
##받으면
청취
맺고
##러드
아홉
울컥
박멸
저출산
어벤
임용
처지
##진다면
염색
##아무
유신
8개
나쁜놈
우마
스무
드러낸
빌어
##36
우기
##붙어
동영
##가진
터미널
생색
논술
세웠다
서방
##사퇴
##건만
역동
4명
##만하고
좋겠네
슬프다
놀이터
##해줘야
나눴
중소형
저널
하던가
##회복
후지
##오래
강서
돌리는
##되길
다뤄
흘려
뜬금없이
극중
자이언
봅시다
개인정보
처녀
빨개
적당
중세
##채권
높였
##렸네
일찌감치
낡은
그루
##아닐
##되었습니다
선보였
in
한몫
##철수
세습
##이라면서
기상청
김장
골키퍼
대본
전투기
##않는
##만들고
##줄알고
했기
##수기
##캐릭터
물어뜯
세이
##해볼
MV
없었지만
매너
##거네
개표
연예계
까먹
정국
##깁니다
방관
싸그리
없었습니다
어렵지
189
높였다
##렉션
증거인
트라우마
##줬는데
쏘아
웨이
##넘이
입는
북조선
##없지만
여주인공
노리고
딱봐도
그런건
힙합
보건복지부
후문
그후
수두룩
라크
오스트리아
변하지
결정했다
자손
##아니야
##노래
가축
##소비
나오냐
##보네요
기용
##다이
말이냐
##중대
싶고
1주일
좋아하는데
루머
고졸
지형
마무
##신분
먹기
##주는거
볼만
총수
심상정
최경
시그
버틸
조승
현명한
##치가
저것
권장
##시청
용도
과태
올라왔
##해야합니다
##사령
지오
르노
##집권
듀얼
##PGA
집구석
다행이다
명의
인정할
어렵다는
개도
탈모
크루즈
선한
벗어나지
상시
패치
컨소시엄
커진
호위
군림
꼼꼼히
##ri
솔직하게
원자재
박재
##분한
올려서
##렸지만
필요합니다
##블리
과자
재편
안사
모르겠네요
##백만
중간중간
전전
시원한
청주시
##라이트
거둬
찾아내
들어도
오로
##오염
모자란
시시
투자하는
##외과
나간다
요시
##슬러
농성
##같아요
##하셔서
답답하다
자각
비스
1995년
##이는데
##LS
유난히
2대
초상
##공학
리드
않았으면
알렉산
않았을까
뚜껑
##안고
메데이
원주
101
최민
평일
모지리
작화
폭염
상급
않으니
농장
상하이
올레
미친듯이
해변
출제
##으시고
못하겠
3배
모르면서
3년간
적화
강하다
것이니
피하
나누고
##기계
금전
달라지
머물러
##인증
아니란
볼거리
다투
혈관
해운대
자책
1편
회관
침착
묻혀
남겼다
떠오르는
##미야
##무게
##데기
##까리
##고속도로
또래
5번
경영진
##티아
##장군
##캠프
기만
독려
작아
자원봉사
타카
아주머니
드레스
퍼포먼스
원주민
꼴보기
블랙리스트
가면서
메이저리그
사회생활
##먹기
##하였습니다
보여주었다
프시
3분
방문해
##인거지
늘릴
##여대
못했고
##랄한
##티비
##위험
말든
살다가
유명하다
일으켰
##하였으나
과다
##시키며
책임지고
어렸
옆동네
기억하고
잉여
실습
캐릭
임산
뜻하는
##센티브
CGV
본회의
넣는
##들은
경위
##심사
##읍니다
다친
##적이었다
1초
발령
##대교
분홍
중요하지
##메디
마시는
##놓으면
단골
구슬
그쳤다
이모양
유방
깔끔하게
##GM
동쪽
유병
온실
참여할
묵묵히
받았다고
옳고
##속도
##버섯
연애혁명
군단
드레
##주는게
##좋아요
그러는데
달걀
야동
방법이다
##정도면
새누리당
줘서
떨어지면
##ro
서식
센서
##이로
총체
##르타
춤추
섞여
들어가고
조민
##연하게
포함된
급히
덧글
5시
날리
##사무소
자리잡
누른
한유
##났는데
맞춰서
자연스러운
##루스
분명하다
##갔고
국당
임진왜
##와이
##았으니
##훼손
서초동
빅뱅
보궐
자연스레
개관
사쿠
오토바이
치마
계엄
들러
엄연히
걷는
##개선
불리한
되야
신도시
경신
마이너
치부
##베뎃
근절
냉동
던지는
부러워
##내라
재차
승무원
신하
후진국
##퓰리즘
낮게
기저
보내야
무심
유관
##34
한껏
군산
타인
인센티브
전적
##겠다며
되었다는
어땠
이러면서
정유라
평론가
이렇듯
개수
##이란다
UN
우편
차마
루이스
##노스
앵커
학계
원금
남조선
##장사
포르투
##뱅크
명동
##색히
병신
##것인가
작고
학위
##았냐
우체
박쥐
##었죠
중요하다고
단행본
##장치
안녕하세요
##해보자
다정
나와도
유익
세이브
좋아해서
##DA
강조하는
##에셋
드러내는
되잖아
피고인
이마
두둔
미네
싱크
불합
##무장
될수
없는지
사무소
##가능한
##이어야
회생
뿌듯
시가총
업소
축복
방송국
사신
##맞는
원동
수분
했을까
##소재
마련해
모자이크
거침
아니기
##한사람
백지
치과
미야
스프링
발산
##김없이
불펜
모시
말려
왔던
파도
천막
레이더
현수
##ak
고가
##엇는데
빨강
와닿
멋있다
때리는
##덩이
20만
40년
문건
##라미
감사원
##역할
간직
풍요
못한다고
증자
##었네요
찾아보
신나게
어처구니
참여해
오른다
사살
질주
짜증난다
싸고
치안
출구
걸어서
죽이지
상류
전대
##같고
리조트
정치하는
원시
정재
있다는게
##화폐
있단
오세훈
재검
##드네
주파
지름
자폭
과천
이룩
김유
추악한
서쪽
KTX
##났네
관련해서
루시
적을
절제
박영선
옮긴
내역
##될지
집필
태클
사재
##댄다
여가
통하는
우세
##전지
##스톤
영문
모르는데
##끼는
외형
사세요
줘라
없었다고
동상
달인
트집
타운
##인상
밀양
##해하는
무적
떨어져서
##고루
좌석
할매
키보드
순차
##사정
있었다면
먹어도
내려다
##인민
가야지
떠넘
필립
미성년자
워터
최고다
치사
모독
퍼센트
맑은
##설명
따라가
어느나라
한없이
##제국
선수단
시작하면
해피엔딩
수산
마쳤다
웃긴다
대하는
가깝다
민정수석
너그
우산
##혜택
조그만
관건
AR
개돼
사람입니다
##실점
빵터
고액
분석했다
조센징
펼치고
##가슴
셀프
가능하게
##주는데
1996년
빈번
온전히
##차기
재활용
오렌지
붙인
민영화
자현
디스크
해지
재혼
##부르크
탐욕
잘했다고
1990년
정립
##퍼니
들먹
냐고
##위반
짜릿
##전형
검출
취할
망언
윤총장
농어
주장하고
광주시
가져오
킬러
숙청
연구개발
##해야하는
부끄러워
버티고
후려
대피
정수기
지부
텍사스
알지만
EX
비치
##부채
변한
##소서
여대
##학규
환승
##협상
##할꺼
사령관
진부
승계
배구
주희
위임
과반
이끈
##준호
##어디
티저
##릴라
포기한
빠지게
항암
자궁
못하도록
쩐다
저조
했었다
감금
어둡
아니니까
사망한
열렸다
복권
하원
없었으면
##차량
안일
관리하는
실린
다물
에릭
올라간
안간
##홈런
##실히
지음
저능아
아르헨티나
도착한
받았고
느린
성동
줄이는
##여름
##수리
애쓴다
보낸다
##이미
특별법
팔레
교주
하고싶은
매트
실드
낙관
표현할
지난번
결정하는
더빙
텔레비전
보증금
간단하게
##햇는데
담당하는
망하는
절로
손절
##오니
비교할
미달
##보스
닫고
들통
희생자
##소프트
길어
흥미진진
컨디션
기밀
##관념
평가했다
안전하게
준비해
사지
아지
하노
돌아가고
캐리
무늬
마지막컷
까발
##기대
항만
회동
할까요
미얀마
환수
이방
바라보며
들었는데
준비한
동호
##으시면
##냅니다
가다
##건물
신제품
깨닫고
서운
토록
불린다
유튜버
하는거야
가드
##레이터
기업가
약탈
공정거래
전망된다
불이익
시속
내몰
##되도록
어울리
어느날
것이죠
감성팔
사과하고
입건
먼가
케이크
우방
항복
8강
##일기
필터
노태
난이도
오게
아영
치른
누구냐
통계청
야스
승차
일어나서
##싶네
먹이
100억
개성공단
적힌
##북한
보이콧
참을
떠오른
아비
일이라고
##한다며
며느리
더불당
##OU
북구
kg
헤아
되었던
서른
##지긋
모르니
금연
꼼짝
##55
##졌습니다
선착
그닥
산타
끼어
유적
나라망
넘겼
내구
아닥
충고
아무말
##되니까
##스텔
사야
극찬
가파
대강
카피
90년대
뚜렷한
이렇다
##해주지
아가씨
##EA
하천
##시네요
예쁘고
예술가
무기징
이시국
##나가고
달라는
선교
아이스크림
살리는
잡아야
##밀하게
간다는
찌그러
##버려라
회원국
할줄
웬만한
데미지
금수저
미나
꼬박꼬박
가맹점
살리기
PS
아닌것
칼럼
관리자
장본
줬다
쉬워
바라고
사라져야
오름
남짓
강북
것임
표방
멸종
##하던가
##투스
##빌리티
용사
##미네
##이었으며
타다
능가
KO
배추
해달라고
메카
피우
##타자
##끈한
매직
##었다가
3시
##때매
카카오톡
알리고
##하시네
연평균
공격하는
벌어질
유투브
필살
합계
##유리
걱정하는
고마운
##피니
콜라보
용이
##대면
드러난다
못알아
3연
한우
한잔
조사한
##원인
업뎃
##할수있는
나오는거
섞인
김정숙
가루
요구했다
우덜
##할만한
##이라는데
##독립
##렸다는
80년대
박병
놀랐다
하진
끄는
알아차
말하는데
지키지
단말기
복선
장외
가르치는
아프다
구형
낙선
돌대가리
쌓인
##버림
천주교
모듈
묻은
공론
대림
공정위
스파이더
오죽하면
것이냐
걸그룹
완자
유착
못하지
##둬라
맞췄
챔피언십
##안한
수명
인문학
파이터
개똥
##주며
광우병
손학규
##지랄
보여줬다
쇄신
섞어
맹목
선거구
##크스
했었는데
##전선
신조
한수
않으면서
집사
왕국
##한거고
##먹으면
랜덤
위하는
##우니
펼쳐진다
##오른
펼쳤다
뿐이었다
했어야
차려라
눈부
하인
비판했다
오우
데이비드
카운터
두들겨
##급여
할텐데
##화장
줘도
손수
이브
##주식
##못할
모를까
##스러울
격투
몇일
코어
##부리
잃지
별명
##장구
##당했다
##두지
인해서
쓰러져
##란시
아세
판매하는
쓰면서
1200
남발
물어보
통틀
지켰
##부정
##여러분
어드
조석
승점
방송인
스캔들
거에요
원로
이해하지
##교육청
눈썹
해봐야
막혀
들리
한녀
##눌러
##스쿨
돋보
브레이크
골고루
모셔
선관위
일제시대
엄정
전동
차리고
중대한
##신저
그외
##했죠
##반응
아담
본토
쳐먹고
못했지만
유물
브래
불어넣
국한
##이었어요
식탁
거시
쿠베라
자행
주춤
AT
다들
트리플
버림
있던데
##이군요
##자꾸
##천만
밝힐
세수
##버거
떼어
채취
프로모션
죽었
##세서
##해지면
검찰총장
##영향
많으니
급한
원더
수동
##엑스
이루어지는
잘하면
##궁금
상륙
무섭게
동거
불러서
입금
타고난
##포기
정진
절라도
걸린다
쉽고
##타이어
SC
못하니
##의장
##보건
##모르고
불안감
재열
패밀리
박혀
온천
4시
모시고
##적이라
##꺼이
의대
타석
좋아하지
##왔다고
##생겼
변질
없어지
때린
친화
복싱
슬쩍
추진하는
진한
독보
이송
오가
면모
이르러
##효율
##조절
무한도전
입장이다
사업비
바로잡
영리
##노트
##급적
ICT
내세운
영수
가져올
모스크
다른건
소유자
애미
##해보고
드럽게
소리지
주인공인
끝내고
##이였는데
인종차별
주장한다
특기
운반
실시한
뛰는
다양하게
##렸으면
김창
##발언
풍자
발자
다신
그라운드
남해
##십자
시어머니
신원
타임스
못믿
마일
광신도
페널
한국당은
때면
재임
석사
##화되고
울트라
##하되
군복
곤충
찾아오
##꼬리
희대
##고리
xx
횡단
보드
남미
동아일보
시합
창설
되죠
똘마니
귀환
응징
포퓰리즘
선비
내걸
공허
##없나
로비
별개
##베이션
미생
경과
다르고
해봤
드나
시작되는
창단
배럴
사학
##마지막
##퍼런스
##엇다
##려다가
흥미로운
학부
##써라
웃어
PB
타깃
오신
##줄게
##진행
올라서
##외선
##부부
##신경
지원하고
##판사
요괴
##37
원거리
의사소
시련
##갈등
##것같아
부정부패
##매일
문닫
제왕
박명
##은게
원치
닮았다
##단말
뒤져
반문
악수
##주라
자산운용
벨기에
종업원
고서
않았기
팔아먹
필요없다
찾아야
##가나
산재
상습
충당
방송된다
##되었지만
깨고
공포영화
무리한
되나요
위해서라도
태어나서
전향
안쓰고
숙제
발견하고
치아
몰리
퍼부
나뭇
##ID
EBS
사임
이지경
##스님
빠져서
##없으니
##이었어
사설
빠르고
##vs
##보장
##충이
안걸
뭐라도
##버려야
민사
해치
조사해서
2분
##커플
##레오
나온다고
좋겠
라스
속내
5명
국제사회
빵빵
악의
갖는다
대형마트
##인정
돌진
깊숙
환원
연합회
온전
장동
지긋지긋
##당초
개구
망치고
무너진
실업자
##했어야
정하
현혹
방위비
오리온
##프라이
탈취
버리지
##겨라
##들지
사회복지
가나
오산
입문
잡히
이소
웨딩
친정
##저러
스트리
하버드
신영
바빠
작살
해볼
놀랄
증가하고
김남
반일감정
우량
경희
##um
자유주의
포함되어
무자
생각나는
신용등급
탐사
문화예술
공부하고
나오면서
헌법재판
넓혀
뽀뽀
##저우
그램
대담
##연수
굴욕
##기억
캡틴
일련
천문학
재선
##모르는
남북한
강수
설명하는
가로막
##없다는
얼마전
넷플
시작하고
양승
오세요
사육
친문
남아있는
외계인
괴로워
드네요
연이
##삼아
잡아먹
##보상
예견
이메일
즐기고
급감
##도않
선점
##려구
부려
황정
볼수록
기록하고
60대
고속도로
벼슬
각인
오징어
책임질
소나무
재테크
새끼야
발송
##지검
해주면
진행했다
무궁
경인
검진
없나요
새우
##는디
양해
##IT
##가인
##88
##스킬
##ew
ESG
5회
##아픈
느냐는
침공
위헌
화두
##유산
##렸습니다
카지노
잊을
기법
##창출
제대
용량
나가지
위함
나팔
##65
홍수
다듬
##몰라
##골프
일깨
제공할
쓰인다
마실
등재
##없습니다
##아닌가요
레저
##넘은
##em
불쌍해
여느
##했네요
##액션
##같아서
있었는지
##이었음
##보라고
끝장
보름
있어야지
호박
##도와
##오던
##지말자
갑옷
1990년대
3시간
꾸려
##까고
센트
##복합
서슴
워킹
글구
감행
##라나
##제철
활력
##th
종자
통수
콘셉트
요금제
##때로
가리고
주한미군
##에르
부끄럽다
프렌
내놨
##대변인
광해
라시
기체
가뜩
시카고
갖지
어쩌라고
삼성물산
메탈
김두
IPO
규정하고
확인한
우동
##기위해
헤어지
조준
빨고
있는듯
트레이드
##티스
##계속
전념
요구하고
112
##국장
##그래서
사라진다
대위
펼친
암울
떠올랐다
죄없는
##비슷
##집어
거창
생각나네
피난
4회
달랐
성공할
동점
##베이스
법령
직결
넘어섰
생산하는
샌드
##내자
무능하고
##베스
심히
##인드
테이프
보훈
나니
##폭망
정해져
##폐기
이루어져
재킷
신학
견찰
무너져
의정부
쓰는데
##이었다면
가뭄
공판
기분나
##오롱
사표
쓸쓸
경부
##보내고
새기
안보면
##없을
1994년
맛집
있었나
간과
많기
##셀로나
실세
올인
다루고
각광
흡사
들었습니다
##궁창
##본데
좋았던
방면
이뤄지는
##개국
망한
발렌
데려다
자작
##라는거
##키아
일인
버려야
여덟
이뤄지고
멋지게
한인
##방해
탐색
말야
처치
예산안
보라고
##런트
여름철
축산
지방자치단체
일어났다
##후군
1990
시작했고
승강
도깨비
송금
프시케
##해본
갈색
거덜
정신좀
차림
떠났다
진행될
##죽이고
반항
축하드려요
미안하다
호조
##립시다
골라서
##시게
##라는데
영화였다
거뒀다
팔아서
##로울
법대
다가오는
##맘대로
모릅니다
지나고
붙잡고
##평등
급기야
##대행
다녀온
##좋고
언론인
그까
주면서
시즌1
조류
##당해서
부스
##티콘
우라
보여서
남구
16강
만들어라
##것네
봤으면
##네일
##낭비
중국어
역학
선량한
프로듀서
상의
파이어
가뜩이나
내재
불로
죽여야
먹었다
꼽히
##혁신
낯설
##박혀
빠지고
최태
보이네
달콤한
몰라요
이창
포르투갈
최애
어울리지
지내는
은데
듣게
##인식
한다면서
공부하는
시행령
그전
잠잠
개웃기네
서울시장
좋네
개신교
CF
##드림
내며
만료
어려서
트윈
안되서
##이렇게
가세요
올스타
규범
위선자
명확한
국민청원
지역감정
늘리고
##주네
##적이라는
지나간
##놔라
만점
##94
발생한다
김우
이해관계
않았다면
##살이
못하다
울려
칼라
태극기부대
득실
금품
##시계
중요하지만
교통부
선대
##해보지
극장판
파멸
이상하다
삼성그룹
굴복
##주제
존엄
멋지다
##뿐인
##그래도
2분기
DM
네오
김씨
##IG
##웠고
엘지
예쁘게
장남
망상
특수한
##한거냐
안되냐
어용
##성향
느껴질
비꼬
##면허
애쓰
유키
견뎌
사이클
최저시
이야기하는
남는다
##아나
##네임
##도안되는
##만나
과학자
사마
자르
사옥
기숙사
부지런
유교
증거인멸
광산
오기
어이없는
도미
사이즈
특급
금융감독
보면은
##갈이
타결
##누구
모친
스노
특례
##공연
넘버
##세금
메이커
싶어도
저택
제조사
잊어버
##버리네
지쳐
사이드
기에
존잘
태세
피드백
의아
##딩스
진성
##시픽
지문
지원해
관습
무소속
스톤
##장인
기한
##갔다가
##가냐
수상자
5대
알려주는
되네요
회식
미팅
관련하여
일어서
어마어마한
장중
라이온
##주냐
씹어
##티어
##린데
몸무게
##oo
##없어요
##ul
문제지만
질러
썩을
인조
##거같음
제작한
넣어서
##상담
임진왜란
김미
냄비
##제작
AS
바꿔서
하다하다
##했구나
##멋대로
블룸
##고시
이케
원형
##31
##여겨
수박
이병헌
##장비
##AR
장편
##벗고
보이게
낮다
응답자
쓰나
##찮은
첨가
10만원
##햇다
##티드
수거
기꺼이
2기
망하고
베풀
서기
엄격한
납입
차지한
음식물
##이득
##75
##되야
조회수
2세
자수
##협정
그런말
가증
MP
##에이
루트
도라
고심
밸런스
밝히는
방문한
##사다
구구
거래일
##센스
##할수록
제시했다
아시아나
잃게
누르는
가급적
대역
방울
바가지
굳건
레지
공산국가
벚꽃
루이
살린
넣을
흔들어
드라이버
징수
시아
까불
있거든요
공표
이야기다
어버
입각
동요
인위
리모
돌아간
방과
인플
PE
##사관
김종인
돼지고
현실이다
국외
웃김
과학기술
##될까
터지는
쿠데타
몰카
밟고
생각된다
어렵다고
불필요한
이쁘다
연기력
정전
##미사일
무분별
사춘
##올리
논평
수다
##AS
비어
민자
##예정
CBS
잠수함
거제
##의혹
##마일
김세
선호하는
휴일
마련이다
전멸
중요하게
##잔데
챙기고
##대며
빠졌다
##가던
남자애
아팠
민감한
MVP
이상해
견딜
통쾌
교보
늘어났다
##어떻
인삼
##맞아
오승
스리
개한
부역
주목된다
지겹
김부
속이고
무의미
바나나
실리콘
시흥
영하
##다니며
황태
##그린
##거리면서
3점
##결혼
못하는데
##크리트
변하는
코오롱
파운드
##부장관
글쓴
##토론
알뜰
파렴치한
##무새
작곡가
제의
발생했다
BB
만하다
##여친
바르셀로나
할게
맞벌이
문제라고
마틴
##하기전
장현
능동
1980년
주유소
높았다
##신거
##인력
산업단지
##진거
쓰러뜨
일입니다
결집
구하는
##그레
오키
박힌
스토커
서열
현충
##ce
권영
있겠냐
활용하는
놓아
프레스
안중
1사
검은색
세끼
열기
톡톡히
괜찮다
뭔소리
##었구나
천하
##으리라
생체
##카이
뽑을
이루어질
현정권
20세기
구성되어
##다보면
덴마크
한것
원산
공매도
##배기
걷고
빌리
떡볶
##인양
##나는데
##남용
매운
싶어하는
##좀해라
사채
사극
직선
##넘게
위키
거둘
시일
카타르
지체
##수출
앞잡이
다가가
편안한
어딘가
##표현
##러브
선보여
횟수
연산
##불리
##시킴
##줍시다
##없냐
허벅
비선
맞물려
흐뭇
올드
##처먹고
##됐으며
속아
##란시스코
##회관
이런말
궁금한
아쿠
벌어지고
홍대
번개
말미
모방
현대건설
독창
조사하고
##내리
거미
댓글달
세울
활기
증설
##부탁
광범위
페미니스트
놀라게
거느
지날
##보임
##마시고
에이즈
정찰
토니
가는게
나서고
##안돼
VIP
##39
우두
탄도
##앉아
고독
어벤져
정류
LS
##누나
##00억
성균
제2차
에코
장단
하룻
못하냐
##66
걸었다
개빡
##손가락
높이기
##쿼터
##네스
광양
쓰인
할지라도
##귀여
활발한
##추천
##수요
와라
좋았는데
제천대
##인구
내려온
반성하고
수출입
##벨트
내세우
##인베스트
던지고
자정
유격
어울려
파인
##사자
단숨
##ab
갑시다
오이
신랑
넘길
나락
목숨걸고
품격
YG
최성
연도
철폐
그랬는데
오마이
자면
궁금하네
생산량
펼치는
벌였
못했을
##박살
하태
##화면
문희
잘못하면
전이
안봐도
은하
##38
##듣는
##할래
##사라
##탈출
부리는
거리는
정관
아재
옥수수
녹아
포상
김건
말씀하신
모텔
스페이스
##VD
대하
막론
삼성증권
저마다
설명해
교감
##임대
가출
사람이라고
거잖아
플레
##데레
납세
미녀
납니다
상표
담담
##2000
중요한건
망치는
밝혀졌
키즈
못배
알아보고
승격
일인데
보여주며
놓치지
될것
손쉽게
##치는데
시궁창
높다고
노래방
##귀신
멋있
단숨에
출연했다
##GA
스러
2000년대
출력
닮아
더러워
##같지
힘들다고
환생
스텔
##중학교
여서
잘사는
보이기
내려놓
테니까
활동하고
##음식
해결하기
자초
이용하고
나뉜
전망했다
하락세
건축물
##많아
왔다갔다
올라오는
디아
##해결
들리는
보내라
##무사
유보
왕복
들어가지
유선
##근로
참여했다
연체
##업소
명명
##십쇼
##금속
##껀데
떠드는
산학
조심스럽게
성지
##꼬라지
##투수
달빛
속하는
##만달러
결정할
70년
해질
복면
당대표
즈음
##도서관
사모펀드
##포터
시킨다
##도어
받아들이는
드리고
쓰던
건강하게
올라간다
휴대전화
헤매
들었던
당선인
생각하나
일본여행
사치
여타
밀착
##준거
문신
이제서야
##오르는
SUV
늘리는
하겠지만
##만족
띄워
페어
주고받
아시아나항공
무당
안하지
전정권
깨끗하게
퍼주고
매개
짖어
최장
##주사
눈여겨
3가지
##DS
런닝
판문
빅토
아니잖아요
##부르
탈세
조용한
카즈
연승
한판
##os
중앙은행
지나가던
KCC
말안
바래
쓸어
##자너
임마
낙하산
속보
바리
빨래
불과한
먹어서
몇천
싶지만
가세
##천군
행동하는
노린
가혹
데일리
분포
나열
##이동
간다르바
키움
CS
높다는
반칙
##전시
파급
엑스트라
멀어
##원칙
호황
않겠다
5배
있지요
심야
이선
건설업
다운로드
유무
양현
사냐
##드레
##드래곤
아끼지
연고
되려
살았던
##코로나
민경욱
감격
총력
##소개
##한거임
거든
안되니
내년도
##진다고
못가
산악
쿠바
말리
##대서
##데이터
말아먹고
힘없는
##신용
503
퇴장
1998
ETF
##뜨고
안볼
매화
##취업
공모전
관대
과격
선원
다음편
숭배
##바탕
장제원
보이면
불려
미티
번갈
후안
제사
##무서
자하
##주로
도마
##된게
삼국지
화가
105
블로
##봤어요
구급
2연
출신인
빨간색
올림
뽑아서
미드필
타점
보니깐
##플래
##맞추
막지
##베리
VS
번쩍
19금
##그나
선택하는
어떤지
못합니다
들어오면
합창
선글
마포구
고양시
##강간
띄는
라이언
무고
1시
묶여
끝판
에버
제치고
찾아가는
EM
##거릴
지루한
맡게
테니스
휴지
##살다
이목
재빨리
맞붙
##징금
저정도면
정정
맞죠
##안되
산업은행
생활비
##치는거
되살
##파탄
오타쿠
연패
있겠
보자마자
중얼
총무
불출
코레
쳐서
카사
##하지마세요
##되는지
흘리
있었지
##브랜드
##스타인
##세우
무례
달리고
피눈물
표적
##야할
##가시
##라든가
##셨던
아닠
##한다는게
놓았다
충실히
백퍼
##통상
##마드
하자는
##러지
알았네
정리해
##당한다
덕후
##등장
엄지
##무진
##났다고
보기싫
포기하지
혼돈
저러면
풍성
대비해
어린애
저지르고
코르
대우건설
봐주
해보자
##오라
관제
##입은
다룰
소설가
전승
서사
다르다고
##아닌데
권총
부당한
야근
내륙
과태료
##받았
푸틴
건다
##형제
##진다는
인플레이션
넷째
커리어
깨우
서장
##주주
##44
##극장
수평
붙이고
관내
비난하는
에르
##나타
##시스트
미끄러
대포
복붙
##다시피
년간
해경
나타냈다
##부진
문어벙
도매
피의
단언
재래
수법
레즈
##들인데
처먹고
유럽연합
4개월
빠져나가
##결제
##드만
사천
##바이오
속출
의구
필자
##이라는걸
##igh
시뮬
##기때문
생각안
##셔야죠
시네
몰랐던
이같이
꺼지
제5
보건소
지원할
알릴
월간
맞춤법
##95
좋은거
파이널
##귀엽
투자한
요정
##인건가
카트
확인해
개체
명회
간식
절단
걸렸다
이땅
##산다
유나이
##GB
마련했다
끝나지
페널티
앉혀
김호
끝난다
##앨범
360
##가막
##뭐야
들게
프로토
배드
##내면서
종속
그랬다
잔치
부칸
##가정
골수
도와줄
예정인
정권잡
이번주
국악
아시는
공격수
대검
덩어리
만난다
악재
생각하
성장세
호도
지녔
##왔지만
할당
부르며
아는게
스타디움
총살
되는거지
##택시
##트릭
1980년대
창당
Ch
##라든지
태그
##답다
연중
나오나
남동생
바꾸어
존슨
팬덤
올라갔
귀걸이
##밴드
기고
이언주
아니냐고
베댓아
공개됐다
감싸고
기어나
살았다
익명
사위
키웠