<s>
<pad>
</s>
<unk>
<mask>
[UNK0]
[UNK1]
[UNK2]
[UNK3]
[UNK4]
[UNK5]
[UNK6]
[UNK7]
[UNK8]
[UNK9]
[unused0]
[unused1]
[unused2]
[unused3]
[unused4]
[unused5]
[unused6]
[unused7]
[unused8]
[unused9]
[unused10]
[unused11]
[unused12]
[unused13]
[unused14]
[unused15]
[unused16]
[unused17]
[unused18]
[unused19]
[unused20]
[unused21]
[unused22]
[unused23]
[unused24]
[unused25]
[unused26]
[unused27]
[unused28]
[unused29]
[unused30]
[unused31]
[unused32]
[unused33]
[unused34]
[unused35]
[unused36]
[unused37]
[unused38]
[unused39]
[unused40]
[unused41]
[unused42]
[unused43]
[unused44]
[unused45]
[unused46]
[unused47]
[unused48]
[unused49]
[unused50]
[unused51]
[unused52]
[unused53]
[unused54]
[unused55]
[unused56]
[unused57]
[unused58]
[unused59]
[unused60]
[unused61]
[unused62]
[unused63]
[unused64]
[unused65]
[unused66]
[unused67]
[unused68]
[unused69]
[unused70]
[unused71]
[unused72]
[unused73]
[unused74]
[unused75]
[unused76]
[unused77]
[unused78]
[unused79]
[unused80]
[unused81]
[unused82]
[unused83]
[unused84]
[unused85]
[unused86]
[unused87]
[unused88]
[unused89]
[unused90]
[unused91]
[unused92]
[unused93]
[unused94]
[unused95]
[unused96]
[unused97]
[unused98]
[unused99]
[unused100]
[unused101]
[unused102]
[unused103]
[unused104]
[unused105]
[unused106]
[unused107]
[unused108]
[unused109]
[unused110]
[unused111]
[unused112]
[unused113]
[unused114]
[unused115]
[unused116]
[unused117]
[unused118]
[unused119]
[unused120]
[unused121]
[unused122]
[unused123]
[unused124]
[unused125]
[unused126]
[unused127]
[unused128]
[unused129]
[unused130]
[unused131]
[unused132]
[unused133]
[unused134]
[unused135]
[unused136]
[unused137]
[unused138]
[unused139]
[unused140]
[unused141]
[unused142]
[unused143]
[unused144]
[unused145]
[unused146]
[unused147]
[unused148]
[unused149]
[unused150]
[unused151]
[unused152]
[unused153]
[unused154]
[unused155]
[unused156]
[unused157]
[unused158]
[unused159]
[unused160]
[unused161]
[unused162]
[unused163]
[unused164]
[unused165]
[unused166]
[unused167]
[unused168]
[unused169]
[unused170]
[unused171]
[unused172]
[unused173]
[unused174]
[unused175]
[unused176]
[unused177]
[unused178]
[unused179]
[unused180]
[unused181]
[unused182]
[unused183]
[unused184]
[unused185]
[unused186]
[unused187]
[unused188]
[unused189]
[unused190]
[unused191]
[unused192]
[unused193]
[unused194]
[unused195]
[unused196]
[unused197]
[unused198]
[unused199]
!
$
%
,
-
.
/
:
?
@
A
B
C
D
E
F
G
H
I
J
K
L
M
N
O
P
Q
R
S
T
U
V
W
X
Y
Z
a
b
c
d
e
f
g
h
i
j
k
l
m
n
o
p
q
r
s
t
u
v
w
x
y
z
~
·
가
각
갂
갃
간
갅
갆
갇
갈
갉
갊
갋
갌
갍
갎
갏
감
갑
값
갓
갔
강
갖
갗
갘
같
갚
갛
개
객
갞
갟
갠
갢
갣
갤
갥
갧
갩
갫
갬
갭
갮
갯
갰
갱
갲
갳
갴
갵
갶
갷
갸
갹
갺
갼
갿
걀
걇
걈
걉
걊
걋
걌
걍
걎
걐
걑
걒
걔
걕
걖
걘
걜
걤
걥
걧
걨
걩
거
걱
걲
걳
건
걵
걶
걷
걸
걹
걺
걻
걼
걽
걾
걿
검
겁
겂
것
겄
겅
겆
겇
겈
겉
겊
겋
게
겍
겎
겏
겐
겒
겓
겔
겖
겙
겚
겛
겜
겝
겞
겟
겠
겡
겢
겣
겤
겥
겦
겧
겨
격
겪
겫
견
겭
겮
겯
결
겱
겲
겳
겴
겵
겷
겸
겹
겺
겻
겼
경
겾
겿
곀
곁
곂
곃
계
곅
곆
곈
곋
곌
곔
곕
곗
곘
곙
곚
곛
곜
곝
곟
고
곡
곢
곣
곤
곧
골
곩
곪
곫
곬
곭
곮
곯
곰
곱
곲
곳
곴
공
곶
곷
곸
곹
곺
곻
과
곽
곾
관
괁
괂
괃
괄
괆
괋
괌
괍
괏
괐
광
괒
괓
괔
괕
괖
괗
괘
괙
괜
괝
괞
괠
괨
괫
괬
괭
괴
괵
괸
괺
괼
굄
굅
굇
굈
굉
굌
교
굑
굔
굗
굘
굚
굠
굡
굣
굤
굥
굦
굧
굨
굩
굪
굫
구
국
굮
굯
군
굱
굲
굳
굴
굵
굶
굷
굹
굺
굻
굼
굽
굾
굿
궀
궁
궂
궃
궄
궅
궆
궇
궈
궉
권
궍
궎
궏
궐
궘
궙
궛
궜
궝
궞
궠
궤
궥
궨
궬
궮
궯
궵
궷
궸
궹
귀
귁
귄
귈
귐
귑
귓
귔
귕
귖
귘
규
귝
균
귣
귤
귦
귬
귭
귯
귱
귲
귴
그
극
귺
귻
근
귽
귾
귿
글
긁
긂
긃
긄
긆
긇
금
급
긊
긋
긌
긍
긎
긏
긐
긑
긒
긓
긔
긕
긘
긛
긜
긤
긥
긧
긨
긩
긬
기
긱
긲
긴
긵
긶
긷
길
긹
긺
긻
긼
긽
긾
긿
김
깁
깂
깃
깄
깅
깆
깇
깈
깉
깊
깋
까
깍
깎
깐
깒
깓
깔
깕
깖
깛
깜
깝
깞
깟
깠
깡
깢
깣
깤
깥
깦
깧
깨
깩
깪
깬
깯
깰
깳
깸
깹
깺
깻
깼
깽
깾
꺀
꺄
꺅
꺆
꺈
꺉
꺊
꺌
꺍
꺎
꺏
꺑
꺓
꺔
꺕
꺖
꺗
꺘
꺙
꺚
꺛
꺜
꺝
꺟
꺠
꺡
꺢
꺤
꺨
꺳
꺴
꺵
꺼
꺽
꺾
껀
껃
껄
껅
껌
껍
껏
껐
껑
껒
껓
껔
껕
껗
께
껙
껚
껜
껠
껨
껩
껫
껬
껭
껮
껰
껴
껵
껶
껸
껼
꼄
꼅
꼇
꼈
꼉
꼊
꼌
꼍
꼏
꼐
꼔
꼣
꼤
꼥
꼨
꼬
꼭
꼮
꼰
꼲
꼳
꼴
꼵
꼶
꼷
꼹
꼻
꼼
꼽
꼿
꽁
꽂
꽃
꽄
꽅
꽆
꽇
꽈
꽉
꽊
꽌
꽐
꽘
꽙
꽛
꽜
꽝
꽠
꽤
꽥
꽦
꽨
꽬
꽴
꽷
꽹
꽼
꾀
꾁
꾄
꾈
꾐
꾕
꾜
꾝
꾠
꾤
꾬
꾭
꾱
꾳
꾸
꾹
꾺
꾼
꾽
꾾
꾿
꿀
꿁
꿂
꿃
꿄
꿆
꿇
꿈
꿉
꿋
꿌
꿍
꿎
꿏
꿐
꿑
꿓
꿔
꿕
꿘
꿜
꿤
꿥
꿧
꿨
꿩
꿬
꿯
꿰
꿱
꿲
꿴
꿸
뀀
뀁
뀃
뀄
뀅
뀈
뀌
뀍
뀐
뀔
뀜
뀝
뀟
뀠
뀡
뀨
뀩
뀪
뀬
뀰
뀷
뀸
뀹
뀻
뀽
끄
끅
끆
끈
끉
끊
끋
끌
끍
끎
끏
끐
끓
끔
끕
끗
끘
끙
끚
끛
끜
끝
끞
끟
끠
끡
끤
끨
끰
끱
끵
끼
끽
끾
끿
낀
낂
낃
낄
낅
낇
낋
낌
낍
낎
낏
낐
낑
낒
낓
낔
낕
낖
낗
나
낙
낚
낛
난
낝
낞
낟
날
낡
낢
낣
낤
낥
낧
남
납
낪
낫
났
낭
낮
낯
낰
낱
낲
낳
내
낵
낶
낸
낹
낺
낻
낼
낽
냀
냃
냄
냅
냇
냈
냉
냊
냋
냌
냍
냎
냏
냐
냑
냒
냔
냗
냘
냠
냡
냣
냤
냥
냦
냧
냨
냩
냪
냫
냬
냰
냴
냼
냽
냿
넀
넁
넄
너
넉
넊
넋
넌
넍
넎
넏
널
넑
넒
넓
넔
넖
넗
넘
넙
넚
넛
넜
넝
넞
넟
넠
넡
넢
넣
네
넥
넦
넨
넫
넬
넴
넵
넷
넸
넹
넺
넻
넼
넽
넾
넿
녀
녁
녂
녃
년
녅
녆
녇
녈
녉
녊
녋
녏
념
녑
녓
녔
녕
녖
녗
녘
녙
녚
녛
녜
녝
녠
녤
녬
녭
녯
녰
녱
녴
노
녹
녺
녻
논
녽
녾
녿
놀
놁
놂
놃
놄
놇
놈
놉
놊
놋
놌
농
놎
놏
놐
놑
높
놓
놔
놕
놖
놘
놛
놜
놤
놥
놧
놨
놩
놪
놬
놯
놰
놱
놴
뇀
뇁
뇄
뇅
뇌
뇍
뇐
뇓
뇔
뇜
뇝
뇟
뇠
뇡
뇤
뇨
뇩
뇬
뇮
뇯
뇰
뇸
뇹
뇻
뇽
뇾
눀
눂
눃
누
눅
눈
눉
눋
눌
눍
눔
눕
눗
눙
눚
눜
눝
눞
눟
눠
눤
눨
눰
눱
눳
눴
눵
눻
눼
눽
뉀
뉄
뉌
뉍
뉑
뉘
뉙
뉜
뉠
뉨
뉩
뉫
뉬
뉭
뉴
뉵
뉸
뉼
늄
늅
늇
늉
늌
늏
느
늑
늒
늓
는
늕
늖
늗
늘
늙
늚
늛
늜
늟
늠
늡
늣
늤
능
늦
늧
늨
늩
늪
늫
늬
늭
늰
늴
늼
늽
늿
닁
닄
닇
니
닉
닊
닌
닍
닏
닐
닑
닒
닗
님
닙
닚
닛
닜
닝
닞
닟
닠
닡
닢
닣
다
닥
닦
닧
단
닩
닪
닫
달
닭
닮
닯
닰
닱
닲
닳
담
답
닶
닷
닸
당
닺
닻
닼
닽
닾
닿
대
댁
댂
댃
댄
댇
댈
댉
댏
댐
댑
댒
댓
댔
댕
댖
댗
댘
댙
댚
댛
댜
댝
댠
댣
댤
댥
댬
댭
댯
댱
댴
댸
댹
댼
덀
덋
덌
덍
더
덕
덖
덗
던
덙
덚
덛
덜
덝
덞
덟
덢
덣
덤
덥
덦
덧
덨
덩
덪
덫
덬
덭
덮
덯
데
덱
덲
덴
덷
델
뎀
뎁
뎃
뎄
뎅
뎆
뎇
뎈
뎉
뎊
뎋
뎌
뎍
뎐
뎓
뎔
뎜
뎝
뎟
뎠
뎡
뎦
뎧
뎨
뎬
뎰
뎽
도
독
돆
돇
돈
돉
돋
돌
돍
돎
돏
돐
돑
돒
돓
돔
돕
돗
돘
동
돚
돛
돜
돝
돞
돟
돠
돡
돤
돨
돩
돰
돱
돳
돴
돵
돶
돸
돼
돽
돾
됀
됃
됄
됋
됌
됍
됏
됐
됑
됒
됔
됗
되
됙
된
됝
됟
될
됡
됢
됣
됤
됥
됦
됨
됩
됫
됬
됭
됮
됯
됰
됱
됲
됳
됴
됵
됸
됻
됼
둄
둅
둇
둉
둊
둋
둍
둏
두
둑
둔
둗
둘
둙
둚
둞
둟
둠
둡
둣
둤
둥
둦
둧
둨
둩
둪
둫
둬
둭
둯
둰
둴
둼
둽
둿
뒀
뒁
뒄
뒇
뒈
뒉
뒌
뒐
뒘
뒙
뒛
뒜
뒝
뒞
뒤
뒥
뒨
뒫
뒬
뒴
뒵
뒷
뒸
뒹
뒺
뒽
뒿
듀
듁
듄
듈
듐
듑
듓
듕
드
득
듞
듟
든
듡
듢
듣
들
듥
듦
듧
듨
듩
듪
듫
듬
듭
듯
듰
등
듲
듳
듴
듵
듶
듷
듸
듹
듼
딀
딈
딉
딋
딍
딒
디
딕
딖
딘
딙
딛
딜
딝
딞
딤
딥
딦
딧
딨
딩
딪
딫
딬
딭
딮
딯
따
딱
딲
딳
딴
딵
딷
딸
딹
딺
딻
딽
딿
땀
땁
땃
땄
땅
땆
땈
땉
땋
때
땍
땎
땐
땓
땔
땜
땝
땟
땠
땡
땢
땣
땤
땦
땧
땨
땩
땬
땰
땸
땽
떄
떅
떈
떌
떔
떗
떘
떙
떠
떡
떢
떣
떤
떥
떦
떧
떨
떩
떪
떫
떮
떯
떰
떱
떳
떴
떵
떶
떷
떸
떹
떺
떻
떼
떽
떾
뗀
뗄
뗌
뗍
뗏
뗐
뗑
뗔
뗗
뗘
뗙
뗜
뗠
뗨
뗩
뗫
뗬
뗭
뗳
뗴
뗵
뗸
뗼
똇
똉
똏
또
똑
똒
똔
똗
똘
똙
똚
똝
똟
똠
똡
똣
똥
똦
똧
똨
똩
똫
똬
똭
똰
똴
똵
똿
뙁
뙇
뙈
뙌
뙛
뙜
뙝
뙡
뙤
뙥
뙨
뙬
뙴
뙷
뙸
뙹
뙿
뚀
뚁
뚈
뚕
뚜
뚝
뚞
뚠
뚢
뚣
뚤
뚥
뚦
뚧
뚨
뚫
뚬
뚭
뚯
뚱
뚴
뚵
뚷
뚸
뚹
뚼
뛀
뛋
뛌
뛍
뛔
뛕
뛥
뛧
뛨
뛬
뛰
뛱
뛴
뛸
뜀
뜁
뜃
뜄
뜅
뜌
뜍
뜐
뜔
뜛
뜝
뜡
뜨
뜩
뜪
뜬
뜮
뜯
뜰
뜱
뜳
뜷
뜸
뜹
뜻
뜼
뜽
뜾
뜿
띀
띁
띃
띄
띅
띈
띌
띔
띕
띗
띙
띟
띠
띡
띤
띧
띨
띰
띱
띳
띴
띵
띶
띸
띻
라
락
띾
띿
란
랁
랂
랃
랄
랅
랆
랇
랈
랉
랊
랋
람
랍
랎
랏
랐
랑
랒
랓
랔
랕
랖
랗
래
랙
랚
랜
랟
랠
램
랩
랫
랬
랭
랮
랯
랰
랱
랲
랳
랴
략
랸
랺
랻
랼
럄
럅
럆
럇
럈
량
럊
럌
럎
럏
럐
럑
럔
럕
럖
럗
럘
럠
럣
럤
럥
러
럭
럮
럯
런
럱
럲
럳
럴
럵
럶
럷
럸
럹
럻
럼
럽
럾
럿
렀
렁
렂
렃
렄
렅
렆
렇
레
렉
렊
렋
렌
렏
렐
렑
렘
렙
렛
렜
렝
렞
렠
렡
렢
렣
려
력
렦
렧
련
렩
렪
렫
렬
렭
렳
렴
렵
렶
렷
렸
령
렺
렻
렼
렽
렾
렿
례
롁
롄
롇
롈
롐
롑
롓
롔
롕
롘
로
록
롞
롟
론
롡
롢
롣
롤
롥
롦
롫
롬
롭
롮
롯
롰
롱
롲
롳
롴
롵
롶
롷
롸
롹
롼
뢀
뢈
뢉
뢋
뢌
뢍
뢐
뢓
뢔
뢕
뢘
뢜
뢧
뢨
뢩
뢰
뢱
뢴
뢸
룀
룁
룃
룄
룅
료
룍
룐
룓
룔
룜
룝
룟
룠
룡
룢
룤
루
룩
룬
룯
룰
룸
룹
룻
룽
룾
룿
뤀
뤁
뤂
뤃
뤄
뤅
뤈
뤌
뤔
뤕
뤗
뤘
뤙
뤟
뤠
뤡
뤤
뤨
뤰
뤱
뤳
뤴
뤵
뤸
뤼
뤽
륀
륄
륌
륍
륏
륐
륑
류
륙
륜
륝
륟
률
륧
륨
륩
륫
륭
륮
륰
륲
륳
르
륵
륶
른
륹
륻
를
륽
륾
륿
릀
릁
릂
릃
름
릅
릆
릇
릈
릉
릊
릋
릌
릍
릎
릏
릐
릑
릔
릘
릠
릡
릣
릥
릫
리
릭
릮
린
릱
릳
릴
릵
릶
릷
릸
릹
릺
릻
림
립
릾
릿
맀
링
맂
맃
맄
맅
맆
맇
마
막
맊
맋
만
맍
많
맏
말
맑
맒
맓
맔
맕
맖
맗
맘
맙
맚
맛
맜
망
맞
맟
맠
맡
맢
맣
매
맥
맨
맩
맪
맫
맬
맴
맵
맷
맸
맹
맺
맻
맼
맽
맾
맿
먀
먁
먄
먆
먇
먈
먐
먑
먓
먕
먖
먗
먙
먛
먜
먝
먠
먤
먱
머
먹
먺
먻
먼
먽
먾
먿
멀
멁
멂
멄
멈
멉
멊
멋
멌
멍
멎
멏
멐
멑
멒
멓
메
멕
멘
멛
멜
멤
멥
멧
멨
멩
멪
멫
멬
멭
멮
며
멱
멲
면
멵
멶
멷
멸
멺
멼
멿
몀
몁
몃
몄
명
몆
몇
몈
몉
몊
몋
몌
몍
몐
몔
몜
몟
몡
몢
몣
모
목
몪
몫
몬
몭
몮
몯
몰
몱
몲
몳
몴
몶
몷
몸
몹
몺
못
몼
몽
몾
몿
뫀
뫁
뫂
뫃
뫄
뫅
뫈
뫌
뫔
뫕
뫗
뫘
뫙
뫚
뫟
뫠
뫡
뫤
뫴
뫵
뫼
뫽
묀
묄
묌
묍
묏
묑
묘
묙
묜
묠
묨
묫
묭
묯
무
묵
묶
묷
문
묹
묺
묻
물
묽
묾
묿
뭀
뭁
뭂
뭃
뭄
뭅
뭇
뭈
뭉
뭊
뭋
뭌
뭍
뭎
뭏
뭐
뭑
뭔
뭕
뭗
뭘
뭙
뭚
뭛
뭟
뭠
뭡
뭣
뭤
뭥
뭦
뭧
뭨
뭩
뭪
뭫
뭬
뭭
뭰
뭴
뭽
뭿
뮁
뮈
뮉
뮌
뮏
뮐
뮘
뮙
뮛
뮜
뮝
뮤
뮥
뮦
뮨
뮫
뮬
뮭
뮴
뮷
뮹
뮻
뮼
므
믁
믂
믄
믅
믆
믇
믈
믉
믌
믏
믐
믑
믓
믕
믖
믘
믙
믛
믜
믝
믠
믣
믤
믬
믯
믱
미
믹
믺
민
믽
믾
믿
밀
밁
밂
밄
밇
밈
밉
밊
밋
밌
밍
밎
및
밐
밑
밒
밓
바
박
밖
밗
반
밙
밚
받
발
밝
밞
밟
밠
밡
밢
밣
밤
밥
밦
밧
밨
방
밪
밫
밬
밭
밮
밯
배
백
밲
밳
밴
밷
밸
밹
뱀
뱁
뱃
뱄
뱅
뱆
뱇
뱈
뱉
뱊
뱋
뱌
뱍
뱎
뱐
뱓
뱔
뱕
뱗
뱛
뱜
뱝
뱟
뱡
뱤
뱥
뱨
뱩
뱬
뱰
뱸
뱻
뱽
벁
버
벅
벆
번
벉
벊
벋
벌
벍
벎
벏
벐
벑
벒
벓
범
법
벖
벗
벘
벙
벚
벛
벜
벝
벞
벟
베
벡
벤
벥
벧
벨
벩
벫
벰
벱
벲
벳
벴
벵
벶
벷
벸
벹
벻
벼
벽
벾
변
볁
볂
볃
별
볅
볆
볇
볈
볋
볌
볍
볎
볏
볐
병
볒
볓
볔
볕
볖
볗
볘
볙
볜
볠
볫
볭
볱
보
복
볶
볷
본
볹
볺
볻
볼
볽
볾
볿
봀
봁
봂
봃
봄
봅
봆
봇
봈
봉
봊
봋
봌
봍
봎
봏
봐
봑
봒
봔
봗
봘
봙
봟
봠
봡
봣
봤
봥
봦
봨
봩
봫
봬
봭
봰
봴
봵
봽
뵀
뵁
뵈
뵉
뵌
뵏
뵐
뵑
뵘
뵙
뵛
뵜
뵝
뵞
뵤
뵥
뵨
뵬
뵴
뵵
뵷
뵹
뵺
뵽
부
북
붂
붃
분
붅
붆
붇
불
붉
붊
붋
붌
붍
붎
붏
붐
붑
붒
붓
붔
붕
붖
붗
붘
붙
붚
붛
붜
붝
붠
붤
붥
붭
붯
붰
붱
붴
붸
붹
붼
뷀
뷁
뷃
뷉
뷋
뷍
뷔
뷕
뷘
뷜
뷤
뷥
뷧
뷩
뷰
뷱
뷴
뷶
뷷
뷸
뷹
븀
븁
븂
븃
븅
븇
븈
븉
븋
브
븍
븎
븐
븓
블
븕
븘
븜
븝
븞
븟
븡
븢
븣
븤
븥
븧
븨
븩
븬
븰
븸
븹
븻
븽
비
빅
빆
빈
빋
빌
빍
빎
빏
빓
빔
빕
빗
빘
빙
빚
빛
빜
빝
빞
빟
빠
빡
빢
빣
빤
빧
빨
빩
빪
빫
빬
빭
빮
빯
빰
빱
빳
빴
빵
빶
빷
빸
빹
빺
빻
빼
빽
빾
뺀
뺃
뺄
뺅
뺌
뺍
뺏
뺐
뺑
뺒
뺓
뺔
뺕
뺗
뺘
뺙
뺜
뺠
뺨
뺩
뺫
뺭
뺴
뺵
뺶
뺸
뺼
뻄
뻅
뻇
뻈
뻉
뻐
뻑
뻒
뻔
뻕
뻖
뻗
뻘
뻙
뻟
뻠
뻡
뻣
뻤
뻥
뻦
뻨
뻩
뻫
뻬
뻭
뻰
뻴
뻼
뻿
뼀
뼁
뼈
뼉
뼊
뼌
뼏
뼐
뼘
뼙
뼛
뼜
뼝
뼡
뼤
뼥
뼷
뽀
뽁
뽂
뽄
뽇
뽈
뽉
뽐
뽑
뽒
뽓
뽕
뽖
뽘
뽚
뽜
뽝
뽠
뽤
뽥
뽭
뽯
뽰
뽱
뽷
뽸
뽹
뾀
뾍
뾔
뾕
뾜
뾥
뾰
뾱
뾴
뾸
뿀
뿁
뿃
뿅
뿌
뿍
뿎
뿐
뿑
뿓
뿔
뿕
뿛
뿜
뿝
뿟
뿠
뿡
뿤
뿥
뿧
뿨
뿩
뿰
뿽
쀄
쀅
쀌
쀍
쀏
쀠
쀨
쀵
쀼
쀽
쀾
쁀
쁄
쁌
쁍
쁑
쁘
쁙
쁜
쁝
쁟
쁠
쁨
쁩
쁫
쁭
쁮
쁴
쁸
쁼
삉
삐
삑
삔
삗
삘
삠
삡
삣
삤
삥
삦
삧
삩
사
삭
삮
삯
산
삱
삲
삳
살
삵
삶
삷
삸
삹
삺
삻
삼
삽
삾
삿
샀
상
샂
샃
샄
샅
샆
샇
새
색
샊
샋
샌
샎
샏
샐
샑
샒
샓
샔
샕
샗
샘
샙
샚
샛
샜
생
샞
샟
샠
샡
샢
샣
샤
샥
샦
샨
샫
샬
샮
샴
샵
샷
샸
샹
샼
샽
샾
샿
섀
섁
섂
섃
섄
섈
섉
섊
섐
섑
섓
섔
섕
섘
서
석
섞
섟
선
섡
섢
섣
설
섥
섦
섧
섨
섩
섪
섫
섬
섭
섮
섯
섰
성
섲
섳
섴
섵
섶
섷
세
섹
섺
섻
센
섽
섿
셀
셁
셅
셇
셈
셉
셊
셋
셌
셍
셎
셏
셐
셑
셒
셓
셔
셕
셖
션
셛
셜
셟
셤
셥
셧
셨
셩
셫
셬
셭
셮
셯
셰
셱
셲
셴
셸
솀
솁
솃
솄
솅
솈
솉
솊
소
속
솎
솏
손
솑
솒
솓
솔
솕
솖
솘
솛
솜
솝
솟
솠
송
솢
솣
솤
솥
솦
솧
솨
솩
솬
솰
솸
솹
솻
솼
솽
쇄
쇅
쇆
쇇
쇈
쇌
쇔
쇕
쇗
쇘
쇙
쇜
쇝
쇟
쇠
쇡
쇢
쇣
쇤
쇨
쇰
쇱
쇳
쇴
쇵
쇸
쇼
쇽
숀
숄
숌
숍
숏
숐
숑
숒
숔
숕
숖
숗
수
숙
숚
숛
순
숝
숞
숟
술
숡
숢
숣
숤
숧
숨
숩
숫
숬
숭
숮
숯
숰
숱
숲
숳
숴
숵
숶
숸
숼
쉄
쉅
쉆
쉇
쉈
쉉
쉌
쉏
쉐
쉑
쉒
쉓
쉔
쉗
쉘
쉙
쉛
쉜
쉠
쉡
쉣
쉤
쉥
쉦
쉧
쉨
쉩
쉪
쉫
쉬
쉭
쉮
쉰
쉲
쉳
쉴
쉻
쉼
쉽
쉾
쉿
슀
슁
슂
슄
슅
슆
슇
슈
슉
슊
슌
슏
슐
슘
슙
슛
슝
슠
슢
스
슥
슦
슧
슨
슩
슫
슬
슭
슮
슯
슰
슲
슳
슴
습
슶
슷
슸
승
슺
슻
슼
슽
슾
슿
싀
싁
싂
싄
싅
싆
싇
싈
싐
싑
싓
싕
싘
싚
시
식
싞
싟
신
싡
싢
싣
실
싥
싦
싧
싨
싩
싪
싫
심
십
싮
싯
싰
싱
싲
싳
싴
싵
싶
싷
싸
싹
싺
싻
싼
싾
싿
쌀
쌂
쌃
쌇
쌈
쌉
쌋
쌌
쌍
쌎
쌐
쌑
쌒
쌓
쌔
쌕
쌖
쌗
쌘
쌛
쌜
쌝
쌤
쌥
쌧
쌨
쌩
쌬
쌭
쌯
쌰
쌱
쌲
쌴
쌸
썀
썁
썃
썄
썅
썋
썌
썍
썎
썐
썖
썜
썝
썟
썠
썡
썤
써
썩
썪
썫
썬
썯
썰
썱
썸
썹
썻
썼
썽
썾
쎀
쎁
쎃
쎄
쎅
쎆
쎇
쎈
쎌
쎍
쎐
쎓
쎔
쎕
쎗
쎘
쎙
쎜
쎝
쎟
쎠
쎡
쎢
쎤
쎨
쎰
쎱
쎳
쎴
쎵
쎼
쎽
쎾
쏀
쏃
쏍
쏏
쏐
쏔
쏕
쏖
쏗
쏘
쏙
쏚
쏜
쏟
쏠
쏨
쏩
쏫
쏬
쏭
쏮
쏰
쏱
쏳
쏴
쏵
쏸
쏻
쏼
쐄
쐅
쐇
쐈
쐉
쐏
쐐
쐑
쐒
쐔
쐡
쐣
쐤
쐥
쐨
쐬
쐭
쐰
쐴
쐼
쐽
쐿
쑀
쑈
쑉
쑌
쑏
쑐
쑙
쑛
쑜
쑝
쑤
쑥
쑦
쑨
쑫
쑬
쑴
쑵
쑷
쑹
쑻
쑽
쑿
쒀
쒁
쒂
쒄
쒈
쒐
쒑
쒓
쒔
쒕
쒘
쒜
쒝
쒞
쒠
쒤
쒭
쒯
쒰
쒱
쒴
쒸
쒹
쒼
쓀
쓃
쓈
쓉
쓊
쓋
쓌
쓍
쓏
쓐
쓑
쓒
쓔
쓕
쓘
쓜
쓤
쓥
쓩
쓰
쓱
쓲
쓴
쓶
쓷
쓸
쓹
쓺
쓿
씀
씁
씂
씃
씄
씅
씆
씇
씈
씉
씊
씋
씌
씍
씐
씔
씗
씜
씝
씞
씟
씡
씢
씥
씦
씧
씨
씩
씪
씬
씮
씯
씰
씱
씳
씶
씷
씸
씹
씺
씻
씼
씽
씾
씿
앀
앁
앂
앃
아
악
앆
앇
안
앉
않
앋
알
앍
앎
앏
앐
앑
앒
앓
암
압
앖
앗
았
앙
앚
앛
앜
앝
앞
앟
애
액
앢
앤
앦
앧
앨
앩
앰
앱
앲
앳
앴
앵
앶
앷
앸
앹
앺
앻
야
약
앾
앿
얀
얁
얂
얃
얄
얅
얆
얇
얉
얊
얋
얌
얍
얎
얏
얐
양
얒
얓
얔
얕
얖
얗
얘
얙
얚
얜
얠
얨
얩
얪
얫
얬
얭
얮
얰
얳
어
억
얶
얷
언
얹
얺
얻
얼
얽
얾
얿
엀
엁
엂
엃
엄
업
없
엇
었
엉
엊
엋
엌
엍
엎
엏
에
엑
엒
엓
엔
엕
엗
엘
엙
엠
엡
엢
엣
엤
엥
엦
엧
엨
엩
엪
엫
여
역
엮
엯
연
엱
엲
엳
열
엵
엶
엷
엸
엹
엺
엻
염
엽
엾
엿
였
영
옂
옃
옄
옅
옆
옇
예
옉
옊
옌
옐
옒
옘
옙
옛
옜
옝
옞
옟
옠
옢
옣
오
옥
옦
옧
온
옩
옪
옫
올
옭
옮
옯
옰
옱
옲
옳
옴
옵
옶
옷
옸
옹
옺
옻
옼
옽
옾
옿
와
왁
왂
완
왅
왆
왇
왈
왉
왐
왑
왓
왔
왕
왖
왗
왘
왙
왚
왛
왜
왝
왠
왢
왤
왬
왭
왯
왰
왱
왲
왳
왴
외
왹
왼
욀
욈
욉
욋
욌
욍
욎
욏
욐
욓
요
욕
욖
욗
욘
욛
욜
욤
욥
욧
욨
용
욪
욫
욬
욭
욮
욯
우
욱
욲
운
욵
욶
욷
울
욹
욺
욻
욼
욽
욾
욿
움
웁
웂
웃
웄
웅
웆
웇
웈
웉
웊
웋
워
웍
웎
원
웑
웒
웓
월
웕
웖
웗
웘
웙
웚
웛
웜
웝
웞
웟
웠
웡
웢
웤
웥
웦
웧
웨
웩
웪
웬
웰
웱
웸
웹
웻
웼
웽
윀
윁
윂
위
윅
윈
윋
윌
윔
윕
윖
윗
윘
윙
윚
윛
윜
윝
윟
유
육
윢
윣
윤
윥
윦
윧
율
윪
윯
윰
윱
윲
윳
윴
융
윶
윷
윸
윹
윺
윻
으
윽
윾
윿
은
읁
읂
읃
을
읅
읆
읇
읈
읉
읊
읋
음
읍
읎
읏
읐
응
읒
읓
읔
읕
읖
읗
의
읙
읜
읟
읠
읨
읩
읪
읫
읬
읭
읮
읯
읰
읱
읲
읳
이
익
읶
읷
인
읹
읺
읻
일
읽
읾
읿
잀
잁
잂
잃
임
입
잆
잇
있
잉
잊
잋
잌
잍
잎
잏
자
작
잒
잓
잔
잕
잖
잗
잘
잙
잚
잛
잜
잝
잞
잟
잠
잡
잢
잣
잤
장
잦
잧
잨
잩
잪
잫
재
잭
잮
잰
잲
잳
잴
잼
잽
잾
잿
쟀
쟁
쟂
쟃
쟄
쟅
쟆
쟇
쟈
쟉
쟊
쟌
쟎
쟏
쟐
쟗
쟘
쟙
쟛
쟜
쟝
쟞
쟟
쟠
쟡
쟢
쟣
쟤
쟥
쟨
쟬
쟴
쟵
쟸
쟹
쟼
저
적
젂
젃
전
젅
젆
젇
절
젉
젊
젋
젌
젍
젎
젏
점
접
젒
젓
젔
정
젖
젗
젘
젙
젚
젛
제
젝
젞
젠
젡
젣
젤
젫
젬
젭
젯
젰
젱
젲
젳
젴
젵
젶
젷
져
젹
젺
젼
젾
젿
졀
졁
졂
졈
졉
졋
졌
졍
졎
졏
졐
졑
졓
졔
졘
졜
졧
졨
졩
조
족
졲
졳
존
졵
졶
졷
졸
졹
졺
졻
졼
졽
졾
졿
좀
좁
좂
좃
좄
종
좆
좇
좈
좉
좊
좋
좌
좍
좎
좐
좒
좓
좔
좜
좝
좟
좠
좡
좢
좣
좤
좥
좦
좧
좨
좩
좪
좫
좬
좭
좮
좯
좰
좱
좸
좻
좼
좽
죂
죃
죄
죅
죈
죋
죌
죍
죔
죕
죗
죘
죙
죚
죜
죝
죟
죠
죡
죢
죣
죤
죧
죨
죰
죱
죳
죴
죵
죶
죷
죸
죹
죺
죻
주
죽
죾
죿
준
줁
줂
줃
줄
줅
줆
줇
줈
줉
줊
줋
줌
줍
줎
줏
줐
중
줒
줓
줔
줕
줖
줗
줘
줙
줚
줜
줝
줟
줠
줨
줩
줫
줬
줭
줮
줯
줰
줱
줳
줴
줵
줸
줼
쥄
쥅
쥇
쥈
쥉
쥐
쥑
쥔
쥗
쥘
쥠
쥡
쥣
쥤
쥥
쥦
쥨
쥫
쥬
쥭
쥯
쥰
쥳
쥴
쥼
쥽
쥿
즀
즁
즂
즄
즇
즈
즉
즋
즌
즏
즐
즑
즘
즙
즛
즜
증
즞
즟
즠
즡
즣
즤
즥
즨
즬
즮
즴
즵
즶
즷
즹
즺
즼
지
직
짂
짃
진
짅
짆
짇
질
짉
짊
짋
짌
짍
짎
짏
짐
집
짒
짓
짔
징
짖
짗
짘
짙
짚
짛
짜
짝
짞
짟
짠
짢
짣
짤
짥
짦
짧
짪
짫
짬
짭
짮
짯
짰
짱
짲
짳
짴
짵
짶
짷
째
짹
짺
짼
짾
짿
쨀
쨈
쨉
쨋
쨌
쨍
쨎
쨐
쨒
쨓
쨔
쨕
쨘
쨚
쨜
쨟
쨤
쨥
쨧
쨨
쨩
쨰
쨱
쨴
쩁
쩃
쩄
쩅
쩌
쩍
쩎
쩐
쩓
쩔
쩖
쩗
쩘
쩜
쩝
쩞
쩟
쩠
쩡
쩢
쩣
쩤
쩥
쩦
쩧
쩨
쩩
쩬
쩰
쩸
쩹
쩻
쩼
쩽
쪄
쪅
쪈
쪌
쪔
쪕
쪗
쪘
쪙
쪚
쪠
쪰
쪱
쪵
쪹
쪻
쪼
쪽
쪾
쪿
쫀
쫃
쫄
쫅
쫇
쫌
쫍
쫏
쫐
쫑
쫒
쫓
쫔
쫕
쫖
쫗
쫘
쫙
쫚
쫛
쫜
쫟
쫠
쫤
쫨
쫩
쫫
쫬
쫭
쫮
쫴
쫵
쬈
쬎
쬐
쬑
쬔
쬘
쬠
쬡
쬤
쬥
쬧
쬬
쬭
쬮
쬰
쬳
쬴
쬼
쬽
쬿
쭀
쭁
쭂
쭃
쭅
쭈
쭉
쭊
쭌
쭏
쭐
쭕
쭘
쭙
쭛
쭜
쭝
쭞
쭟
쭠
쭤
쭥
쭨
쭫
쭬
쭭
쭵
쭷
쭸
쭹
쭻
쭿
쮀
쮁
쮑
쮓
쮜
쮝
쮠
쮡
쮤
쮭
쮱
쮸
쮹
쮼
쯀
쯈
쯉
쯋
쯍
쯔
쯕
쯘
쯛
쯜
쯤
쯥
쯧
쯨
쯩
쯪
쯫
쯭
쯮
쯯
쯰
쯱
쯴
찁
찅
찌
찍
찎
찏
찐
찓
찔
찗
찜
찝
찟
찠
찡
찢
찣
찤
찥
찦
찧
차
착
찪
찫
찬
찭
찮
찯
찰
찱
찲
찳
찴
찵
찶
찷
참
찹
찻
찼
창
찾
찿
챀
챁
챂
챃
채
책
챇
챈
챊
챋
챌
챔
챕
챗
챘
챙
챚
챜
챠
챡
챤
챦
챨
챯
챰
챱
챳
챴
챵
챶
챸
챻
챼
챽
첐
첑
처
척
첛
천
첝
첞
첟
철
첡
첢
첣
첤
첥
첦
첧
첨
첩
첪
첫
첬
청
첮
첯
첰
첱
첲
첳
체
첵
첸
첻
첼
쳄
쳅
쳇
쳈
쳉
쳊
쳋
쳌
쳏
쳐
쳑
쳒
쳔
쳖
쳗
쳘
쳠
쳡
쳣
쳤
쳥
쳦
쳧
쳨
쳩
쳫
쳬
쳰
쳴
쳿
촀
촁
초
촉
촌
촏
촐
촘
촙
촛
촜
총
촞
촟
촠
촡
촣
촤
촥
촨
촪
촬
촮
촰
촴
촵
촷
촹
쵀
쵁
쵄
쵕
최
쵝
쵠
쵤
쵭
쵮
쵯
쵰
쵱
쵲
쵴
쵸
쵹
쵼
춀
춈
춉
춋
춌
춍
춎
춏
춑
추
축
춗
춘
춚
춛
출
춝
춞
춟
춠
춡
춢
춣
춤
춥
춧
춨
충
춪
춫
춬
춭
춮
춯
춰
춱
춴
춸
췁
췃
췄
췅
췆
췌
췍
췐
췝
췟
췠
췡
췤
취
췩
췬
췰
췸
췹
췻
췼
췽
췾
츀
츃
츄
츅
츈
츌
츔
츕
츗
츙
츠
측
츤
츧
츨
츩
츰
츱
츳
층
츶
츷
츸
츼
츽
칀
칄
칌
칍
칏
칑
치
칙
칚
친
칝
칞
칟
칠
칡
칢
칤
칥
칧
침
칩
칫
칬
칭
칮
칯
칰
칱
칲
칳
카
칵
칶
칸
칻
칼
칽
캄
캅
캆
캇
캈
캉
캊
캋
캌
캍
캎
캏
캐
캑
캔
캘
캠
캡
캢
캣
캤
캥
캨
캩
캪
캬
캭
캮
캰
캴
캼
캽
캿
컀
컁
컄
컈
컜
커
컥
컨
컫
컬
컴
컵
컶
컷
컸
컹
컺
컼
컽
컾
컿
케
켁
켄
켇
켈
켐
켑
켓
켔
켕
켖
켘
켙
켚
켛
켜
켝
켞
켠
켣
켤
켥
켬
켭
켯
켰
켱
켲
켴
켵
켷
켸
콀
콉
콋
콌
콍
코
콕
콖
콘
콛
콜
콢
콣
콤
콥
콦
콧
콩
콪
콫
콬
콭
콮
콯
콰
콱
콲
콴
콸
쾀
쾃
쾅
쾈
쾌
쾍
쾐
쾒
쾔
쾡
쾤
쾨
쾩
쾬
쾰
쾽
쿄
쿈
쿌
쿔
쿗
쿙
쿜
쿠
쿡
쿤
쿧
쿨
쿯
쿰
쿱
쿳
쿵
쿸
쿹
쿺
쿼
쿽
퀀
퀄
퀌
퀏
퀐
퀑
퀘
퀙
퀜
퀠
퀧
퀫
퀭
퀰
퀴
퀵
퀸
퀻
퀼
큄
큅
큇
큉
큌
큍
큐
큑
큔
큘
큠
큡
큣
큥
큨
크
큭
큮
큰
큱
큲
큳
클
큵
큹
큻
큼
큽
큿
킀
킁
킂
킄
킅
킇
킈
킉
킌
킐
킘
킝
키
킥
킧
킨
킫
킬
킴
킵
킷
킸
킹
킺
킼
킽
킾
킿
타
탁
탂
탃
탄
탅
탆
탇
탈
탉
탊
탋
탌
탍
탏
탐
탑
탒
탓
탔
탕
탖
탗
탘
탙
탚
탛
태
택
탟
탠
탣
탤
탬
탭
탯
탰
탱
탲
탴
탵
탶
탷
탸
탹
탼
턀
턈
턉
턋
턍
턔
턕
턘
턩
터
턱
턴
턷
털
턹
턺
텀
텁
텂
텃
텄
텅
텆
텇
텈
텉
텊
텋
테
텍
텐
텑
텓
텔
템
텝
텟
텠
텡
텢
텣
텤
텥
텦
텧
텨
텩
텬
텰
텸
텹
텻
텼
텽
톃
톄
톅
톈
톌
톔
토
톡
톤
톧
톨
톩
톰
톱
톲
톳
통
톶
톷
톸
톹
톺
톻
톼
톽
퇀
퇄
퇍
퇏
퇑
퇔
퇘
퇙
퇜
퇩
퇫
퇬
퇭
퇮
퇱
퇳
퇴
퇵
퇶
퇸
퇼
툄
툅
툇
툈
툉
툊
툌
툏
툐
툑
툠
툡
툥
투
툭
툰
툳
툴
툻
툼
툽
툿
퉁
퉂
퉄
퉅
퉆
퉈
퉉
퉌
퉐
퉛
퉜
퉝
퉤
퉥
퉨
퉬
퉯
퉴
퉵
퉷
퉸
퉹
퉺
퉼
퉽
퉾
퉿
튀
튁
튄
튈
튐
튑
튓
튔
튕
튘
튛
튜
튝
튠
튤
튬
튭
튱
튶
트
특
튺
튻
튼
튽
튿
틀
틁
틂
틃
틅
틇
틈
틉
틊
틋
틍
틎
틏
틐
틑
틒
틓
틔
틕
틘
틜
틧
틩
티
틱
틴
틷
틸
팀
팁
팃
팄
팅
팆
팈
팉
팊
파
팍
팎
팏
판
팑
팒
팓
팔
팕
팖
팗
팘
팙
팚
팛
팜
팝
팟
팠
팡
팢
팣
팤
팥
팦
팧
패
팩
팬
팯
팰
팸
팹
팻
팼
팽
퍀
퍁
퍃
퍄
퍅
퍈
퍌
퍔
퍗
퍘
퍙
퍛
퍝
퍠
퍡
퍤
퍵
퍼
퍽
펀
펃
펄
펅
펌
펍
펏
펐
펑
펒
펔
펕
펖
펗
페
펙
펜
펟
펠
펨
펩
펫
펬
펭
펰
펲
펴
펵
편
펹
펺
펻
펼
폄
폅
폇
폈
평
폊
폌
폍
폏
폐
폑
폔
폗
폘
폠
폡
폣
폥
폦
폨
포
폭
폮
폯
폰
폳
폴
폼
폽
폿
퐁
퐂
퐄
퐅
퐆
퐇
퐈
퐉
퐌
퐐
퐘
퐙
퐛
퐜
퐝
퐞
퐠
퐤
퐥
푀
푁
푄
푈
푕
표
푝
푠
푣
푤
푬
푭
푯
푱
푲
푴
푶
푷
푸
푹
푼
푿
풀
풁
풂
풅
풇
품
풉
풋
풍
풎
풐
풑
풒
풓
풔
풕
풘
풜
풩
풰
풱
풴
풸
퓅
퓌
퓍
퓐
퓔
퓜
퓟
퓡
퓨
퓩
퓬
퓰
퓸
퓹
퓻
퓽
픂
프
픅
픈
픋
플
픎
픔
픕
픗
픙
픚
픜
픝
픞
픟
픠
픤
픨
픵
피
픽
핀
핃
필
핅
핆
핈
핋
핌
핍
핏
핐
핑
핒
핓
핔
핕
핖
핗
하
학
핚
핛
한
핝
핞
핟
할
핡
핢
핣
핤
핥
핦
핧
함
합
핪
핫
핬
항
핮
핯
핰
핱
핲
핳
해
핵
핶
핷
핸
핺
핻
핼
핽
햄
햅
햇
했
행
햊
햋
햌
햍
햎
햏
햐
햑
햔
햗
햘
햙
햚
햛
햝
햞
햟
햠
햡
햣
햤
향
햨
햩
햫
햬
햭
햰
햽
햿
헀
헁
허
헉
헊
헌
헍
헏
헐
헑
헒
헓
헔
헕
헗
험
헙
헚
헛
헜
헝
헞
헠
헡
헢
헣
헤
헥
헦
헨
헬
헭
헴
헵
헷
헸
헹
헼
헽
헾
헿
혀
혁
혂
혃
현
혅
혆
혇
혈
혉
혊
혌
혍
혐
협
혒
혓
혔
형
혖
혗
혘
혙
혚
혛
혜
혝
혠
혣
혤
혬
혭
혯
혰
혱
혲
혳
혴
혵
호
혹
혺
혻
혼
혽
혾
혿
홀
홁
홅
홇
홈
홉
홋
홍
홎
홏
홐
홑
홒
홓
화
확
홖
홗
환
홙
홛
활
홝
홞
홟
홠
홡
홣
홤
홥
홧
홨
황
홪
홬
홭
홮
홯
홰
홱
홴
홸
횃
횄
횅
회
획
횐
횓
횔
횜
횝
횞
횟
횠
횡
횢
횤
횦
횧
효
횩
횬
횰
횸
횹
횻
횽
훀
훃
후
훅
훈
훉
훊
훋
훌
훍
훎
훏
훑
훒
훓
훔
훕
훗
훙
훚
훛
훜
훝
훞
훟
훠
훡
훤
훨
훪
훬
훯
훰
훱
훳
훵
훸
훻
훼
훽
휀
휄
휌
휏
휐
휑
휔
휘
휙
휜
휟
휠
휧
휨
휩
휫
휭
휰
휲
휳
휴
휵
휸
휼
흄
흅
흇
흉
흊
흌
흏
흐
흑
흒
흓
흔
흖
흗
흘
흙
흜
흝
흟
흠
흡
흣
흥
흦
흨
흩
흪
흫
희
흭
흰
흳
흴
흼
흽
흿
힁
힂
힄
히
힉
힌
힍
힏
힐
힑
힒
힕
힗
힘
힙
힛
힜
힝
힞
힟
힠
힡
힢
힣
％
##협
##된
##u
##d
##e
##x
##훔
##치
##려
##다
##s
##h
##o
##r
##n
##화
##못
##하
##네
##이
##들
##니
##깟
##즈
##는
##조
##각
##떨
##어
##봐
##야
##A
##R
##T
##E
##C
##l
##a
##i
##c
##을
##그
##렀
##게
##만
##지
##면
##P
##Z
##토
##착
##떼
##놈
##아
##y
##j
##관
##구
##풀
##장
##단
##I
##X
##w
##말
##층
##민
##t
##b
##v
##렉
##답
##서
##m
##U
##S
##K
##상
##바
##가
##g
##z
##먹
##곳
##재
##리
##스
##주
##사
##터
##고
##도
##쪕
##에
##q
##찰
##판
##실
##굴
##텡
##O
##로
##보
##투
##표
##선
##족
##냐
##글
##자
##출
##설
##수
##할
##껄
##클
##킨
##용
##성
##득
##디
##대
##접
##벙
##거
##퀴
##과
##레
##라
##엔
##같
##시
##많
##국
##몽
##꾼
##깐
##프
##임
##요
##즐
##기
##세
##력
##소
##랑
##싱
##쉐
##데
##누
##여
##까
##Y
##L
##N
##우
##인
##호
##경
##해
##은
##늠
##줄
##짐
##회
##오
##정
##신
##p
##f
##k
##슈
##크
##일
##W
##B
##롢
##잖
##렪
##룩
##준
##광
##질
##열
##셰
##킷
##덜
##론
##적
##벨
##전
##명
##품
##배
##삭
##엽
##란
##짓
##강
##왕
##속
##의
##텟
##트
##굔
##르
##안
##되
##생
##합
##워
##무
##쇄
##M
##먼
##중
##창
##록
##원
##공
##종
##령
##롭
##더
##위
##래
##H
##당
##내
##혁
##산
##탈
##켜
##본
##행
##동
##진
##쉬
##형
##땍
##있
##뭐
##영
##으
##년
##올
##찬
##간
##길
##송
##끼
##현
##드
##를
##벌
##테
##러
##체
##순
##티
##폼
##환
##달
##않
##쥔
##봉
##불
##비
##마
##한
##틀
##린
##쟁
##추
##D
##빠
##쇼
##혔
##미
##개
##남
##셐
##V
##부
##덕
##희
##캐
##묵
##발
##핵
##녁
##언
##채
##F
##놨
##유
##움
##극
##량
##옘
##병
##깅
##꺄
##물
##찾
##균
##덴
##타
##태
##커
##플
##황
##루
##룡
##걍
##버
##섯
##딱
##검
##새
##파
##노
##악
##취
##직
##윤
##겨
##난
##별
##쓰
##쯤
##왔
##때
##작
##헌
##문
##목
##학
##나
##긴
##멜
##와
##릇
##런
##엇
##초
##므
##운
##뎅
##처
##럼
##닐
##코
##후
##죽
##댔
##퍼
##연
##감
##쉽
##헤
##렣
##흥
##숩
##권
##웅
##양
##롱
##났
##음
##석
##넼
##얔
##엌
##두
##식
##방
##집
##금
##싫
##듫
##앓
##격
##능
##견
##매
##익
##씩
##꾸
##쇠
##느
##G
##좋
##켔
##습
##베
##업
##탑
##겻
##져
##천
##둥
##락
##애
##꼴
##통
##곧
##암
##닌
##했
##것
##귄
##패
##든
##힌
##던
##쾅
##뽕
##끄
##갭
##승
##염
##키
##뎌
##넣
##퇴
##골
##교
##춤
##블
##뤼
##엑
##참
##며
##필
##옥
##쏘
##냈
##씨
##번
##붜
##결
##심
##됴
##료
##손
##찼
##꽈
##갈
##짜
##른
##멘
##딘
##봅
##듯
##톨
##꼬
##몇
##곤
##저
##었
##푸
##폰
##카
##숙
##범
##삼
##술
##욕
##릴
##탄
##놓
##럽
##녀
##제
##뀌
##춰
##굽
##혀
##팔
##펴
##딴
##윌
##복
##입
##놘
##객
##포
##첩
##케
##근
##알
##랄
##페
##혜
##렴
##총
##없
##슬
##색
##듣
##녔
##받
##침
##쌥
##죠
##멋
##군
##렌
##갓
##흑
##넨
##겠
##궁
##걱
##뼈
##뇌
##쁘
##갸
##땅
##붕
##폭
##윗
##날
##건
##모
##썩
##앗
##규
##냥
##섀
##충
##욱
##택
##뭘
##역
##백
##억
##곡
##몌
##츠
##곸
##닥
##줘
##갱
##릭
##넘
##변
##외
##퀸
##읍
##머
##빨
##찌
##릉
##계
##았
##님
##밥
##앙
##J
##킹
##쳐
##삶
##살
##잡
##망
##쉰
##돌
##빌
##섬
##책
##렇
##햤
##쿠
##젠
##훈
##홍
##띠
##뜨
##둔
##징
##졌
##뛰
##분
##맞
##쥬
##따
##히
##쒹
##멸
##편
##법
##등
##갰
##쭉
##괴
##갑
##갇
##또
##싶
##특
##겟
##섹
##꿇
##틴
##턴
##췃
##촤
##촥
##너
##반
##엠
##뜰
##앉
##겁
##섭
##털
##죄
##쯜
##좌
##솔
##큰
##웃
##쳤
##최
##읏
##박
##쓸
##뜩
##꺼
##예
##윽
##옐
##딸
##섺
##탓
##닷
##컴
##뇨
##좀
##윾
##급
##빅
##뒤
##뱅
##궤
##뚱
##친
##츤
##숭
##례
##챕
##밀
##튼
##름
##람
##차
##볼
##넹
##푼
##험
##찮
##겧
##봄
##뱽
##북
##링
##맥
##눼
##돼
##응
##눙
##뀽
##힘
##맹
##킈
##왈
##겼
##폴
##걸
##련
##쳣
##척
##핳
##깜
##퀙
##얼
##온
##Q
##싼
##십
##청
##및
##브
##숴
##칠
##웰
##롸
##롹
##항
##촹
##몰
##랏
##섞
##눌
##넬
##싸
##굿
##짝
##녑
##똥
##멍
##핧
##펠
##닄
##햇
##줭
##즥
##뎨
##끍
##늘
##웨
##쌈
##놀
##갼
##돠
##셀
##벼
##빛
##틍
##샤
##셋
##평
##댓
##룹
##림
##팩
##랫
##잔
##줏
##점
##봤
##톰
##렸
##철
##컵
##윈
##켄
##월
##값
##째
##빈
##완
##볘
##늄
##셨
##륵
##콘
##륑
##닉
##돈
##렁
##쩔
##왜
##썽
##싹
##빙
##맨
##볏
##첨
##혈
##휘
##봣
##럴
##텐
##께
##쨔
##밟
##쭈
##딜
##퀼
##릿
##메
##옴
##씬
##뢀
##얒
##즘
##쨍
##틱
##효
##뿐
##귀
##뭔
##허
##뒈
##뚜
##논
##쎄
##액
##껙
##랬
##얘
##냰
##댸
##였
##활
##션
##흐
##막
##함
##풍
##낙
##셩
##퍝
##쩝
##쥐
##씹
##낟
##쇅
##됩
##념
##울
##짱
##깨
##피
##탱
##떄
##딮
##써
##덝
##삐
##힐
##압
##잽
##궐
##냔
##셔
##귈
##센
##꽃
##즙
##밴
##찔
##쉥
##놔
##팍
##촨
##절
##엘
##닢
##낼
##콴
##끽
##빵
##컨
##좦
##씐
##옹
##흙
##퉤
##뎡
##뿟
##넷
##핀
##뻥
##졔
##앤
##뽑
##걷
##뭌
##낝
##랋
##쓔
##닭
##뒹
##김
##괭
##둬
##괌
##쉉
##놥
##숄
##묘
##룐
##립
##잉
##댄
##쫙
##덮
##뢰
##훼
##샘
##빽
##궈
##츙
##줌
##쓉
##칼
##륨
##솨
##증
##핚
##꺵
##긔
##졸
##융
##벽
##뮌
##획
##닝
##똘
##뿔
##뎬
##팜
##옷
##독
##끔
##높
##젼
##댕
##냉
##뷰
##촵
##촙
##쏠
##쌌
##렛
##쒝
##몬
##좡
##뢔
##땐
##큼
##큐
##춘
##촌
##겋
##축
##덱
##뤄
##담
##휴
##닞
##뚝
##뭇
##땡
##율
##긋
##롤
##쑤
##빱
##뀠
##칭
##녕
##꿈
##널
##램
##훤
##똑
##셈
##턱
##엿
##쪽
##먄
##갤
##밖
##렬
##륭
##닦
##챵
##꼰
##혓
##뽀
##닮
##묻
##햐
##쭵
##뽜
##끝
##짚
##챊
##볶
##류
##샠
##랜
##톱
##눈
##곗
##랙
##핑
##빼
##콜
##캔
##엨
##갔
##홉
##뉴
##떠
##헬
##꼐
##얀
##펀
##렠
##킼
##퉷
##쓴
##꾜
##옮
##밤
##넴
##깡
##큅
##쿨
##향
##갖
##돔
##꿔
##젤
##톄
##팅
##뻰
##앜
##눰
##뉘
##끠
##쒀
##뽄
##쭙
##쪙
##땩
##촛
##렝
##꿘
##쟌
##팡
##쭘
##봘
##잇
##듀
##졋
##풉
##잘
##쌔
##쉌
##폇
##뜻
##륜
##룻
##텝
##붓
##폐
##촬
##펌
##칩
##찐
##굻
##귝
##랴
##덀
##냨
##밝
##깍
##될
##뚬
##룬
##낀
##쪌
##탁
##뚠
##퐁
##샊
##쩨
##확
##쐑
##퍄
##깃
##잠
##냄
##봡
##넌
##뱉
##닻
##뷱
##늬
##갯
##튜
##샛
##꼭
##찍
##뭄
##흔
##듬
##슴
##겡
##뇬
##팎
##쒜
##꿀
##쟈
##삽
##벤
##벅
##뇸
##셥
##챦
##믈
##짖
##빗
##긁
##땀
##똴
##쎅
##밭
##젊
##쥘
##릅
##쩍
##줬
##밈
##몃
##랭
##넺
##햄
##핸
##낰
##펑
##댑
##뮈
##렷
##략
##롼
##컷
##혹
##렵
##읭
##존
##숳
##뚤
##뜬
##쪄
##됏
##싲
##쑈
##킄
##윰
##퉁
##쮸
##쁜
##슥
##톡
##룰
##흦
##깥
##혐
##측
##뛸
##썌
##픈
##룸
##첼
##즬
##끌
##톤
##딩
##펬
##꼼
##흉
##듐
##곽
##칙
##댐
##뻔
##켓
##믆
##뫃
##률
##빧
##찿
##탐
##옌
##걔
##틸
##꿩
##슨
##낭
##돵
##땜
##폘
##뎈
##밍
##앵
##갘
##빰
##읂
##샎
##꺊
##쉑
##셱
##쒸
##텅
##믿
##랔
##썬
##삿
##슁
##맺
##약
##델
##녜
##덩
##믄
##곱
##쫩
##룽
##쌀
##촉
##쯔
##짭
##곬
##흡
##껐
##좃
##눠
##춥
##빳
##슝
##탕
##옵
##얄
##샬
##롬
##끗
##녠
##섴
##캬
##딳
##뜸
##켘
##뵙
##욧
##뻤
##낮
##댜
##잀
##쑥
##쟴
##욘
##틋
##렐
##흌
##짘
##웈
##둘
##낳
##횡
##쌖
##팬
##육
##껀
##솟
##웩
##냬
##텍
##농
##녹
##낫
##췄
##혼
##탆
##쾌
##셍
##흰
##첸
##콕
##놧
##븀
##겐
##렘
##헝
##앸
##돕
##풜
##덍
##뎁
##콧
##앞
##햬
##냅
##뻬
##땨
##팘
##쌘
##찡
##엉
##깝
##슙
##깔
##꾿
##샹
##깎
##옆
##갚
##캇
##엮
##켈
##밪
##닙
##챱
##볭
##숨
##웬
##샨
##붙
##뒀
##꺆
##섕
##킥
##눔
##숑
##웹
##붸
##첫
##뭉
##흘
##땁
##꺠
##귁
##텼
##쓍
##컹
##왓
##닫
##곲
##샣
##낄
##끊
##챨
##몆
##븐
##팽
##뿌
##죵
##툥
##뉨
##깈
##럭
##씀
##퇏
##궉
##둑
##낸
##겔
##됬
##륙
##챃
##콩
##쌍
##뺐
##꿍
##뵈
##쏴
##즌
##훙
##떤
##쁀
##쁨
##젴
##핰
##츄
##렑
##젎
##껴
##믁
##짤
##얽
##쩌
##욷
##꿰
##꽹
##롄
##넉
##펜
##갠
##츈
##랩
##꾹
##빔
##랐
##븨
##뵌
##겉
##츰
##줍
##뭙
##킴
##낃
##씅
##퐐
##쌰
##웠
##챠
##텔
##뾰
##킬
##컽
##띤
##띨
##뼁
##줜
##왚
##샡
##뱃
##콥
##귱
##뎃
##빝
##녤
##잎
##엄
##꿎
##늑
##껏
##멓
##밣
##됨
##듭
##똔
##겅
##쪠
##챙
##뻉
##먜
##텈
##좁
##섰
##짢
##빡
##궹
##쌩
##뷸
##홋
##훟
##밧
##슆
##맛
##떡
##쉭
##슘
##폈
##듲
##똒
##죤
##뻘
##흭
##챌
##칸
##줩
##놰
##몫
##쌱
##틈
##댁
##쒼
##잍
##퍌
##쏃
##댱
##얍
##튭
##뀨
##륄
##궠
##챤
##괸
##쟎
##튀
##뱀
##닼
##괘
##뺠
##좔
##큄
##픔
##띰
##홀
##뵤
##쌓
##캥
##껌
##믓
##줫
##빤
##꺙
##싄
##뇽
##긕
##얏
##졈
##싁
##랰
##괙
##냘
##숯
##즁
##뱈
##끾
##튬
##뷔
##쩜
##젖
##챔
##쿤
##뻑
##쳔
##썡
##킸
##펐
##낌
##싴
##콰
##띡
##캄
##퀘
##팠
##켰
##컥
##쬭
##쨩
##뜯
##겍
##곰
##쉠
##덧
##즜
##쯨
##찜
##쿵
##퍽
##읽
##섶
##뱝
##붇
##힉
##쿄
##끓
##쫌
##썁
##쿸
##꼈
##껍
##퇬
##눞
##찷
##샵
##헣
##훻
##콤
##겸
##햅
##쥽
##챳
##핱
##쉔
##햑
##엎
##툰
##딕
##뽱
##듵
##튱
##묹
##닛
##컬
##볌
##쨌
##줴
##쿡
##긶
##챗
##딧
##햘
##듼
##쨉
##돳
##붠
##즉
##핌
##웁
##뮤
##뱌
##껭
##쫀
##퇘
##궅
##녇
##캘
##킁
##뀩
##쯫
##쯪
##땈
##롯
##펫
##랍
##쇆
##놜
##겄
##뻡
##삔
##셸
##춍
##썪
##끈
##댒
##팀
##녓
##넝
##텤
##퉄
##쭟
##뙈
##됐
##쌕
##헷
##릎
##캣
##떵
##붐
##잦
##닯
##꽂
##횐
##맘
##훌
##쀼
##큿
##퉜
##뭅
##쭌
##긱
##땃
##퀜
##냠
##웸
##닿
##뒷
##납
##텽
##듸
##쭝
##졍
##넙
##씻
##옛
##팥
##싀
##긍
##덤
##깊
##횬
##뀔
##쪘
##릐
##헐
##쑵
##닜
##덟
##췼
##벡
##팝
##쉼
##펨
##템
##됄
##캆
##잼
##꽁
##뺏
##쫛
##봆
##똬
##쭛
##셜
##걩
##펗
##큉
##꺌
##뀻
##휸
##꺘
##랼
##퐉
##궷
##짣
##룀
##돋
##떰
##얌
##뎄
##뽠
##넥
##캉
##뎀
##볜
##읺
##넛
##퓨
##씌
##붤
##썋
##녆
##샕
##궸
##늕
##먀
##큘
##븅
##꿉
##챈
##콸
##짞
##뱔
##늙
##덥
##젱
##갹
##덯
##톈
##댏
##펍
##좝
##옄
##띵
##쎈
##꿄
##껚
##됱
##젹
##쑝
##괵
##낵
##뻐
##쩢
##벞
##럱
##짧
##꺽
##곴
##곘
##컄
##뢱
##꼽
##띄
##섘
##먁
##쫓
##핞
##뺑
##맬
##뱍
##켤
##쭤
##좭
##볠
##깋
##탭
##밋
##뿡
##빴
##짠
##앱
##쮭
##딲
##졷
##괄
##넽
##겤
##툌
##퉈
##댈
##씁
##딥
##딹
##싢
##깁
##떻
##칵
##췬
##쟙
##잰
##쌋
##낚
##큔
##돛
##깽
##짰
##쐐
##죸
##둣
##퓍
##젯
##봍
##쭐
##쪼
##햏
##섻
##뮬
##샐
##꺢
##윅
##앳
##헹
##멩
##쉴
##멕
##쿼
##슉
##츕
##늅
##윔
##닺
##섁
##빻
##췌
##푴
##젓
##긑
##쩐
##썼
##멬
##겣
##쥭
##랃
##뺄
##걀
##싯
##늼
##궨
##쥰
##잌
##섣
##뵁
##늣
##겆
##맙
##좩
##넓
##앂
##곌
##쐬
##픗
##쉨
##훍
##뚥
##졀
##퐈
##짯
##첞
##벗
##쓥
##삑
##툐
##썎
##쥼
##쇤
##뚫
##맵
##뫈
##셓
##펄
##쌴
##몸
##띱
##씽
##뼝
##흠
##셴
##즤
##젬
##몀
##쨱
##됵
##힙
##텨
##앚
##멈
##밑
##붰
##쁫
##핡
##됫
##읃
##샅
##뿅
##괼
##밉
##훯
##쒞
##샋
##낏
##쬬
##듈
##꽝
##뀪
##럿
##휼
##웽
##눕
##뫙
##걋
##쓿
##꽥
##짬
##잭
##씿
##딪
##뷴
##뭰
##찹
##엥
##좆
##쟢
##쨘
##믐
##숸
##슫
##퓩
##읔
##뻨
##숍
##멀
##렊
##긲
##헼
##샟
##돝
##핏
##뀝
##쯧
##웊
##붚
##듳
##앨
##벐
##됌
##벱
##숚
##봇
##젝
##솩
##캍
##앍
##칽
##캌
##닪
##빚
##튠
##헴
##붹
##냫
##겹
##쏕
##뽁
##갛
##욤
##쟤
##홈
##껫
##뮹
##핫
##꿃
##랸
##낯
##롷
##낂
##떽
##쳫
##몹
##쑴
##풰
##췅
##솬
##텀
##삥
##꽐
##찴
##볕
##믹
##굼
##챰
##샷
##읜
##꺅
##뤠
##퇫
##켸
##넖
##봥
##맄
##됻
##굑
##엣
##뫼
##픵
##솤
##썅
##솉
##퉯
##얹
##꼥
##큑
##꾺
##묠
##늡
##뵹
##쏨
##싮
##샜
##퇄
##웟
##떈
##뛧
##낋
##쒄
##둡
##켕
##뾱
##닠
##꼿
##텁
##쾡
##튔
##겈
##먙
##졶
##갆
##떪
##쨧
##겥
##젒
##릾
##윷
##쑹
##찻
##뫄
##댯
##탸
##쫭
##쐨
##맣
##괜
##밌
##솥
##꼇
##뮨
##읋
##탯
##셧
##햩
##뾸
##헙
##먕
##겊
##롐
##욯
##푹
##쎆
##왠
##눴
##궥
##듁
##쳖
##얗
##쓱
##갗
##꾤
##훡
##넵
##땟
##읫
##릥
##헸
##쟝
##졉
##읗
##쎙
##겂
##먠
##셭
##듦
##홧
##꿑
##칫
##럐
##볇
##랗
##깄
##뺙
##냇
##쎍
##뱡
##뽝
##켯
##펭
##뺵
##듢
##슼
##맇
##릏
##묜
##쏵
##곁
##낹
##훜
##굶
##좱
##얖
##칬
##맑
##쒰
##얭
##얚
##쯩
##붑
##꿨
##팁
##쩡
##늿
##솝
##됳
##헿
##펙
##웜
##찟
##쎼
##뻭
##짇
##뜡
##꿕
##쯈
##툴
##쏜
##욬
##놋
##졐
##렄
##맠
##힣
##짒
##냼
##숫
##뽈
##뷘
##뛕
##딛
##벳
##휄
##얠
##칟
##뷁
##쫘
##옳
##쌑
##튕
##씸
##뺘
##쑉
##툼
##찢
##뗑
##셉
##핬
##댝
##굳
##밚
##깒
##츨
##굾
##긐
##뎠
##됙
##윜
##쫑
##맏
##썹
##힛
##탔
##씝
##쎽
##끕
##춛
##켁
##윕
##힄
##낑
##눝
##탠
##밸
##멱
##삠
##쏫
##곀
##읅
##늉
##룔
##햔
##멧
##꼳
##젔
##싣
##뷉
##퍠
##쒭
##홰
##쉿
##훠
##쯛
##녘
##웍
##돸
##뉸
##뽤
##곶
##죈
##셌
##됗
##뺨
##늪
##헉
##좨
##꾱
##쉘
##윙
##욜
##앰
##썻
##샀
##풴
##짙
##샴
##볐
##뺃
##쥴
##뢴
##뽸
##헠
##겜
##낱
##쏟
##슌
##떳
##딍
##먾
##맴
##뉜
##쩰
##꽊
##쵸
##횟
##뫤
##녱
##떴
##죃
##쪹
##륀
##뫌
##삲
##뒬
##왐
##뛴
##됀
##솜
##슷
##랠
##섄
##몼
##잏
##얇
##풒
##겢
##궍
##읎
##쫄
##샢
##엊
##쪅
##콬
##쌉
##쭭
##챻
##둠
##쑨
##샌
##둿
##짆
##꿋
##옇
##홥
##쉩
##쀅
##촐
##첵
##깤
##픽
##캡
##쩠
##샏
##믜
##샙
##잃
##쏖
##섓
##푶
##봑
##쮹
##쮜
##븃
##긂
##횽
##덫
##옙
##닚
##걐
##빋
##굉
##쳰
##긤
##캤
##닏
##퉛
##뇀
##겝
##닽
##싳
##밯
##긇
##짏
##슐
##쳄
##즨
##첬
##펩
##뛔
##킝
##쏭
##뚣
##좇
##먤
##벸
##뵷
##틷
##벍
##큇
##닳
##걕
##셅
##듕
##숀
##컿
##힡
##먈
##삡
##뙤
##죙
##쪈
##둉
##칡
##럾
##샚
##낎
##딤
##꿜
##틉
##웡
##윘
##툇
##앟
##쿯
##쯰
##숲
##쳈
##찝
##쫨
##폄
##쳠
##떱
##읻
##훗
##뀈
##찎
##쩓
##붘
##뼐
##껑
##쌜
##놉
##숵
##툭
##깉
##쟉
##춧
##싥
##흣
##겓
##솦
##왁
##쉒
##땔
##헛
##섦
##쁠
##샫
##맡
##뿛
##틜
##잊
##훵
##쇟
##쳥
##왘
##벰
##믕
##훨
##릌
##옜
##쇙
##엡
##죳
##녛
##삳
##핥
##빢
##좫
##웻
##쉣
##럻
##쒱
##낻
##늴
##벩
##밷
##뻟
##팟
##퀵
##몿
##꽉
##촞
##헨
##욥
##퍀
##찤
##팰
##꽦
##낒
##쿽
##괗
##잨
##쇣
##씮
##벓
##녏
##틧
##튓
##솽
##꾀
##낗
##놐
##롶
##퓽
##쓃
##밞
##놂
##뻣
##쟨
##럥
##굲
##갅
##쒴
##뉩
##뇰
##뭨
##홇
##빕
##팃
##찦
##뎐
##셑
##벵
##펼
##쪾
##좐
##휩
##퇵
##녈
##텬
##쨋
##쥑
##퀀
##꼤
##씊
##붝
##뺭
##퓡
##톳
##꽤
##똠
##좽
##롦
##댙
##갢
##쫏
##쳬
##즛
##햛
##욋
##웞
##쯥
##읖
##뎔
##잤
##샑
##깂
##룅
##캭
##퉝
##늗
##쬎
##킵
##벖
##궂
##빹
##둴
##썰
##촟
##띔
##뗌
##곯
##뇍
##큌
##싩
##댘
##늩
##칞
##딫
##궃
##뺌
##꼌
##쬽
##끆
##쫜
##돗
##캠
##폽
##뀐
##꿐
##봽
##곟
##줓
##잒
##냏
##뼜
##슭
##훑
##냣
##픅
##솰
##혠
##휫
##훳
##얻
##솹
##퍙
##줮
##쌸
##죡
##슶
##틊
##쾨
##흟
##엙
##쀄
##싕
##쎤
##쉈
##큽
##셕
##넄
##쎴
##샥
##뷩
##앀
##샇
##볓
##푠
##쳡
##뗴
##늦
##깰
##뻠
##힏
##삯
##꽜
##떩
##쒓
##씰
##셤
##룍
##넠
##꼣
##묽
##꿌
##멵
##귬
##렂
##쎠
##봨
##츌
##썸
##켠
##뿝
##탇
##췁
##웝
##챡
##샒
##짼
##믑
##쳇
##힝
##밬
##엗
##깼
##슄
##쎔
##똣
##컼
##뗀
##쿜
##빩
##뜛
##륧
##얋
##깺
##햙
##뮛
##얶
##풋
##늫
##뎋
##궛
##뼘
##쌬
##빯
##햊
##핍
##즹
##줃
##걶
##묭
##삤
##춱
##껠
##끰
##쟥
##헀
##삣
##좸
##똏
##휭
##줼
##뒝
##릡
##읬
##쥤
##쥥
##땠
##껨
##붛
##삘
##쬡
##띈
##둍
##쉲
##걲
##흨
##폿
##쫴
##쉅
##훅
##캑
##뿎
##붂
##봈
##뇻
##죧
##뺀
##쁩
##샗
##쩦
##쳑
##밎
##띧
##뿜
##뢍
##헥
##슛
##왤
##밐
##쨕
##픠
##뤔
##눜
##볂
##쳌
##슢
##퍅
##읈
##퓸
##낕
##샾
##낓
##끅
##큨
##튽
##잣
##쥳
##몐
##듷
##졎
##쮝
##꿲
##췡
##뗸
##됭
##켐
##쇽
##찭
##왝
##뗭
##돱
##쐒
##뜽
##뀅
##옸
##뷍
##쓈
##됔
##툽
##꿧
##탤
##껰
##딨
##봔
##햌
##튁
##맟
##큥
##맀
##삵
##꿂
##츼
##읶
##꺡
##걘
##볗
##쾍
##첲
##샸
##텃
##켑
##캅
##뺍
##킫
##큭
##핟
##윳
##빸
##봊
##왱
##휔
##뜳
##덬
##촘
##잟
##걑
##쯮
##쉜
##퓰
##묶
##팧
##틓
##첮
##슾
##곈
##짴
##쎡
##닊
##윹
##밨
##쿰
##퓌
##깸
##긎
##냑
##뾥
##돡
##룜
##칀
##돟
##렿
##냌
##낔
##쉙
##풔
##뭥
##줠
##볅
##궘
##끨
##뗏
##릮
##퓔
##꺓
##뿍
##핋
##숱
##줗
##븡
##싰
##횰
##뿰
##젭
##눅
##좢
##틔
##뱰
##팻
##굚
##겛
##롴
##샞
##핝
##뒺
##맷
##굡
##썀
##콱
##찓
##윱
##끙
##갿
##쐰
##뉵
##긧
##휀
##웄
##퀰
##췤
##멨
##휜
##챼
##쿧
##됃
##뀬
##뮴
##깳
##둇
##봌
##돜
##꿏
##똭
##숏
##툿
##얬
##꾾
##릳
##칯
##붒
##돐
##땄
##뺴
##죴
##렙
##멎
##쵹
##튻
##륍
##뇝
##쟣
##밢
##밦
##풎
##걉
##횄
##괬
##짷
##뀍
##귯
##믾
##쨚
##뼥
##맢
##읒
##쨈
##좟
##댭
##눟
##잩
##갏
##뾀
##컈
##쒕
##햟
##귾
##캨
##놎
##븍
##쭻
##숰
##헭
##귿
##췻
##팢
##혯
##좒
##쨥
##칰
##깞
##낲
##탙
##혛
##됡
##밊
##쿌
##쭹
##쌧
##톽
##엏
##튘
##괍
##둰
##꿱
##돤
##쏸
##럄
##챴
##쯕
##밓
##솓
##앋
##떶
##눤
##띁
##붉
##얜
##쭥
##냤
##혭
##뇜
##읊
##귤
##쥇
##눗
##쓒
##땰
##짹
##힜
##햭
##츀
##넒
##뺔
##낍
##핪
##굥
##긵
##쇜
##쏼
##쌤
##쭁
##믘
##쯍
##헕
##넻
##놤
##옫
##얙
##럠
##쁮
##뼌
##쾈
##뜿
##켱
##묺
##찧
##깠
##뜌
##싺
##껸
##갬
##뗘
##졨
##팣
##좣
##읐
##쒯
##넜
##촪
##벚
##쀍
##쯀
##꼮
##톼
##춉
##먗
##퀫
##쩟
##줨
##딬
##쉓
##칮
##갲
##촷
##쁑
##젛
##뼉
##풐
##갉
##뙇
##섿
##잆
##훕
##낣
##궜
##몢
##푀
##빆
##붱
##딻
##얨
##렜
##흫
##퇀
##쪗
##츅
##껵
##쭫
##듧
##쟄
##럘
##칧
##띾
##뜅
##댼
##꿥
##뫅
##쵼
##걈
##횃
##콪
##헜
##훱
##팸
##뼛
##깢
##옧
##럇
##켬
##볍
##쓘
##읰
##싑
##탹
##쇳
##핔
##괒
##잫
##멤
##닾
##걜
##럔
##햰
##턔
##깩
##쥅
##뜍
##벊
##뜀
##쎕
##탶
##퓟
##돚
##긩
##뵘
##멐
##꾭
##롕
##븝
##쓩
##봬
##앾
##숟
##걤
##쏙
##앖
##뀟
##빓
##핖
##뉼
##켴
##좉
##읁
##힠
##꿁
##럵
##뀡
##젚
##똵
##잗
##뱥
##췽
##뤀
##휏
##멊
##핶
##홓
##뷀
##괞
##섮
##욌
##쿙
##쥿
##앲
##듨
##쎜
##롰
##낐
##잕
##녙
##뽭
##썃
##벧
##퉹
##볻
##쏀
##홐
##혻
##쌯
##괆
##젙
##뎉
##퓐
##넫
##옻
##엃
##헗
##랖
##뷧
##뤈
##믽
##췸
##댤
##겪
##긿
##욲
##멏
##턍
##탉
##둼
##뤙
##뗄
##뱨
##햡
##듥
##잧
##좯
##읠
##뱬
##떔
##뗳
##몈
##늰
##긬
##좍
##팈
##딀
##뽉
##솅
##팛
##쳅
##궝
##뤘
##맂
##넎
##늟
##낪
##푈
##쇗
##냗
##곺
##옼
##뱐
##쒈
##롮
##햽
##븻
##챁
##샆
##뉍
##돰
##쳦
##귕
##뀄
##뭏
##렩
##뭽
##넁
##넡
##퓜
##녉
##떅
##팤
##혳
##꽙
##팕
##녅
##쫒
##뿁
##뺜
##슏
##흗
##굮
##쾃
##굵
##좂
##랎
##얎
##끟
##핣
##쉤
##쏗
##춯
##릠
##읙
##쥡
##섈
##똗
##춌
##댣
##슽
##쉧
##갷
##쯱
##퍗
##픕
##퀌
##얂
##웤
##얐
##횦
##팒
##눵
##뤌
##괠
##꾬
##뀷
##뱄
##옃
##퉸
##퍵
##홱
##짋
##펵
##뤽
##싡
##믠
##셁
##뎟
##췐
##퉼
##덋
##왑
##섊
##껬
##냎
##듹
##쟬
##멥
##쩽
##쉫
##귑
##셯
##벟
##홯
##슿
##췍
##얃
##낇
##툈
##끵
##킘
##뭣
##쎗
##죷
##뮝
##튿
##턘
##쳨
##앴
##됼
##찣
##펔
##췰
##뇄
##씍
##텂
##뀰
##댠
##쎾
##젺
##쥨
##뗙
##욪
##똨
##먺
##슅
##힢
##팼
##샦
##뒐
##옽
##쨰
##췩
##윿
##엓
##쑬
##뚕
##풕
##핮
##낅
##놬
##퐝
##팏
##랒
##쫖
##궬
##쮤
##밗
##껜
##뺩
##뒥
##냪
##덷
##슊
##꽷
##늭
##슧
##밮
##괔
##쫍
##깻
##핼
##쎘
##퀄
##빫
##밒
##솧
##짛
##샔
##룝
##쨜
##휐
##뒨
##먖
##뢈
##쇡
##츃
##옺
##엧
##햿
##췝
##웒
##횞
##삾
##굘
##뉌
##흩
##궄
##뚁
##킽
##쐉
##샄
##흪
##떙
##뛥
##뎰
##줟
##얪
##쳘
##옶
##뽓
##꾠
##쌝
##힟
##쭕
##낡
##줈
##뿨
##쫃
##깬
##댥
##갥
##벜
##촣
##볱
##붔
##휠
##횔
##켝
##랳
##헡
##쬐
##넚
##퓻
##즞
##챜
##씱
##뵬
##젇
##밁
##쮀
##얕
##씼
##뽚
##뵨
##햠
##뿀
##뭑
##멉
##슺
##셲
##닶
##겦
##긒
##빟
##픙
##뚞
##퇙
##귖
##깛
##긛
##짉
##넿
##꽘
##땽
##햫
##롑
##덞
##쵮
##쒤
##왼
##뒿
##볺
##햣
##좊
##맗
##혰
##얺
##겮
##섟
##뺫
##뭍
##튺
##팦
##홑
##캎
##꽆
##릂
##늨
##욨
##쵝
##쯉
##싿
##탬
##꼍
##쁄
##귐
##텻
##푱
##횻
##줙
##뻦
##뙁
##읹
##컫
##씋
##꽌
##뙷
##죿
##캮
##뿽
##펏
##읉
##줋
##좈
##뼙
##렼
##끜
##탘
##킅
##뻗
##땝
##괋
##곷
##쩬
##녿
##륶
##틒
##랂
##퉾
##읲
##놌
##햨
##풩
##싷
##툻
##덣
##죌
##댛
##젘
##쟹
##뱜
##눃
##읪
##씂
##칍
##쁍
##뚸
##줒
##돍
##춭
##긓
##퀑
##냡
##쨓
##궙
##흄
##뭡
##뇹
##뱗
##켷
##믅
##믂
##춴
##휙
##쬘
##쇵
##꿯
##냋
##뇩
##렧
##쀠
##턀
##꺾
##렡
##띙
##곂
##섷
##줅
##봏
##릆
##앎
##뙛
##돽
##옅
##샂
##싧
##쯭
##퀭
##맆
##뗔
##혴
##뻩
##헽
##뜐
##짅
##넸
##챘
##훽
##힞
##뱕
##풂
##끚
##갍
##꺜
##끿
##핻
##싅
##걳
##엒
##읮
##솈
##듩
##앏
##맸
##뺅
##짺
##쑐
##붖
##꺍
##쎀
##싞
##꺝
##쐥
##뗐
##갧
##랕
##됍
##혖
##켚
##껅
##졁
##엤
##쯋
##뜃
##쟘
##탂
##렺
##앝
##솼
##닸
##뚨
##쉛
##짫
##뮜
##흇
##똿
##쫠
##떧
##뫁
##뱩
##혣
##둞
##젆
##칢
##퓬
##춚
##퇮
##툉
##욺
##첑
##쮠
##듄
##퉐
##쉗
##봠
##걵
##꽼
##밠
##퍈
##쭊
##몔
##꺉
##튄
##쐇
##뤁
##졽
##씾
##꺖
##쟠
##쬑
##맫
##껕
##듴
##헚
##땎
##릊
##몉
##녴
##겎
##뗫
##욐
##굗
##쳒
##벛
##엩
##땸
##츔
##좄
##쎝
##큍
##릔
##숌
##죻
##릸
##슇
##앛
##쩃
##뎊
##짂
##죗
##촀
##썍
##퉵
##괕
##홝
##쬰
##덪
##뎝
##쫚
##햍
##걖
##칳
##곻
##뺶
##혙
##뇁
##괏
##롣
##꿓
##엍
##긃
##쇇
##즷
##몊
##륌
##댇
##잙
##텹
##즣
##퐌
##덛
##푝
##벋
##뻴
##쁴
##셇
##깇
##낛
##읷
##덗
##갮
##벴
##쟜
##찁
##뫠
##읨
##뽂
##웆
##옂
##죾
##끐
##앁
##먿
##얷
##옾
##넑
##쓋
##촴
##쒂
##벻
##갴
##쬥
##붏
##뜱
##냩
##몪
##읓
##죕
##핤
##롁
##짲
##몄
##볫
##뤱
##멌
##묄
##푷
##싵
##럕
##꺕
##셎
##릋
##뷥
##콲
##볈
##뽐
##밡
##즟
##죰
##졓
##쵁
##뵀
##씪
##갫
##퐄
##쫤
##댗
##븽
##퓹
##뷜
##릷
##갋
##쵱
##틁
##읕
##듰
##릃
##웪
##줆
##팆
##떢
##줳
##끛
##쥣
##긘
##읩
##맓
##삷
##줊
##셟
##섧
##갊
##닧
##뀸
##렅
##볔
##힁
##넦
##껼
##쑛
##샃
##젅
##삉
##씃
##슂
##컸
##씆
##녭
##뚯
##롡
##즼
##봟
##쑙
##낖
##솁
##귴
##햎
##쩧
##깆
##굇
##뱁
##챽
##볹
##긹
##쪵
##쟞
##뚹
##끡
##쁸
##먝
##뵐
##귓
##쳧
##뿠
##곢
##젾
##섢
##듡
##틘
##놴
##듞
##췠
##엷
##챯
##탴
##췟
##얓
##댖
##췹
##븹
##홪
##봗
##븥
##쳉
##먐
##띅
##뜾
##럳
##죅
##횤
##큠
##벝
##긷
##왂
##뙥
##쟀
##뒁
##즄
##뽘
##앆
##잋
##탒
##틑
##맿
##씡
##뇾
##헓
##헢
##뢋
##빮
##뿃
##쥉
##쎃
##꾈
##홗
##돨
##졹
##콋
##짔
##옝
##퉥
##읿
##쁌
##끋
##랅
##쉏
##륩
##붗
##쾰
##뭬
##돶
##얅
##뙨
##쀏
##믤
##맍
##뗍
##엳
##꾁
##긌
##몴
##윶
##쮱
##쿳
##룁
##꼉
##뗠
##잢
##윀
##쳗
##줂
##껓
##졏
##챂
##샽
##횅
##뤅
##썄
##쎇
##흏
##빬
##왙
##냦
##럏
##혱
##츳
##쎁
##싓
##쑜
##혬
##똰
##륏
##핲
##읳
##짗
##뤸
##싂
##뱸
##캴
##넗
##쓲
##돞
##녂
##빾
##뗨
##뇮
##왉
##앩
##죹
##잪
##텇
##럈
##롓
##샓
##봫
##즴
##쵀
##킉
##븜
##댬
##줐
##휵
##끘
##뮥
##픜
##퉽
##챸
##싐
##롲
##놊
##룄
##놁
##줔
##묀
##붭
##굈
##셊
##륽
##뷋
##봒
##킺
##춋
##옠
##윖
##툠
##콦
##닰
##쨤
##뮐
##톸
##켭
##뚀
##렦
##돴
##킾
##괨
##퇼
##띗
##곃
##솄
##맚
##땬
##흅
##뎜
##엪
##혝
##뢜
##쟐
##싈
##쎌
##뉠
##쭞
##뭭
##뫟
##홬
##펲
##랺
##헵
##쵭
##맻
##뮻
##뭋
##뎍
##뒌
##왴
##씯
##찠
##큳
##굣
##흒
##낧
##돓
##캈
##밫
##귻
##쩘
##븰
##풱
##캢
##븩
##깓
##갵
##뤳
##빘
##묑
##꺗
##띃
##뮙
##폔
##웧
##꼅
##궏
##륻
##훋
##뼏
##쮑
##곹
##걥
##죔
##둗
##쐈
##꾕
##쐴
##씟
##젋
##엢
##씜
##빏
##꽛
##쫟
##씥
##쩩
##훓
##셒
##츷
##죚
##곾
##듶
##탣
##낞
##뙹
##섑
##븬
##뗬
##굷
##퉅
##숖
##럤
##뵜
##쁭
##깖
##헁
##갞
##컁
##둊
##펟
##숬
##춣
##뒫
##쿱
##즑
##뢸
##깪
##굤
##됟
##됸
##빺
##촡
##쿹
##혉
##켥
##빶
##튝
##됋
##뤰
##긊
##봙
##덌
##븟
##껔
##힗
##엲
##젞
##엫
##릘
##뢨
##굩
##뛌
##엦
##븞
##옞
##퉨
##뇓
##궞
##뎆
##쩅
##뗩
##돩
##폯
##죋
##몾
##흳
##쬔
##웑
##꺳
##솒
##탼
##븕
##떗
##앿
##흴
##횹
##똫
##봴
##쯘
##큮
##맜
##뛀
##홤
##맊
##믛
##굱
##곙
##횩
##댉
##썟
##돇
##퇭
##갂
##뿓
##쌂
##럑
##끤
##끞
##솑
##똩
##춫
##졿
##쭜
##뗵
##텓
##꽠
##쇈
##땤
##퇱
##닡
##춠
##뤡
##뵥
##븂
##웋
##첰
##뱎
##씦
##힍
##텠
##핢
##펕
##쨨
##쑌
##쒑
##뽹
##삻
##뻒
##핐
##쟡
##섡
##푤
##씇
##옿
##겙
##엾
##퍡
##왖
##앧
##딷
##얰
##앑
##찲
##겴
##퇑
##뮉
##놕
##뙝
##켛
##젗
##턩
##굅
##뒛
##녽
##넾
##뀃
##쇱
##죜
##왰
##틩
##쟆
##쫐
##뢐
##쌨
##몡
##큻
##휑
##죱
##탰
##횸
##핺
##쥠
##뤤
##늚
##뇐
##싘
##퉿
##녃
##뤗
##읯
##튑
##걊
##걨
##렏
##땋
##쒘
##닩
##놛
##폮
##헑
##헔
##녗
##퍁
##쭬
##뚼
##뀜
##롳
##됒
##얿
##윸
##텢
##겿
##뜹
##겾
##쉡
##첯
##긜
##쩞
##흿
##끏
##숔
##섐
##엋
##싦
##놯
##쭀
##맼
##춈
##룿
##쟛
##걧
##넏
##놑
##쨀
##뒸
##켖
##앻
##춸
##꺚
##좥
##셏
##뱋
##볋
##홴
##뾴
##뇔
##뭈
##넔
##팑
##뗜
##휰
##넀
##룟
##녯
##꺟
##잾
##킐
##쉦
##킌
##뤵
##뉑
##풑
##딈
##냊
##뱓
##죨
##뤨
##듪
##쐅
##삱
##삮
##뛨
##톩
##볖
##곩
##쓊
##뿥
##졑
##퐛
##잿
##웉
##삹
##닒
##뉄
##넞
##쿺
##꿬
##닑
##쬴
##줎
##풸
##츶
##묙
##긏
##펅
##쭠
##챀
##눀
##킧
##튤
##뻄
##좎
##삸
##텋
##덦
##궇
##둩
##똚
##묫
##엵
##됑
##딝
##볽
##캰
##껗
##뭫
##쵤
##텄
##섵
##줕
##죣
##맔
##댂
##붃
##렫
##뉀
##햋
##퐙
##싚
##첳
##벆
##깦
##쎰
##걎
##윚
##푯
##쾤
##홟
##뙜
##겒
##혾
##흓
##솎
##퉌
##돆
##퉴
##벏
##샼
##폳
##뛋
##쭏
##왛
##쏱
##쫗
##뤕
##봭
##쫔
##셫
##댹
##렆
##줸
##벫
##캩
##젏
##턹
##싆
##잂
##꼹
##폅
##몋
##쓀
##젷
##귣
##묾
##즵
##탍
##썜
##볒
##웇
##떫
##춮
##잴
##뽇
##팗
##붌
##쒁
##솸
##쩖
##썠
##굨
##씳
##혘
##뺼
##갃
##쯴
##섲
##씺
##렞
##럅
##냒
##퐆
##춑
##쪔
##랈
##곆
##톶
##쟂
##눉
##썝
##뵉
##쀵
##뾜
##꽅
##탵
##섂
##흼
##듑
##쁙
##덖
##쎱
##짥
##븓
##벲
##훛
##웂
##굄
##붋
##굧
##뵏
##걾
##졳
##릈
##팯
##쁟
##횝
##쀌
##첟
##졻
##횢
##꾝
##왲
##뻕
##턋
##딋
##릍
##롫
##븎
##헾
##뫀
##씉
##큱
##꺀
##퐤
##뎇
##홛
##벹
##졲
##붆
##즂
##렋
##퀐
##칲
##렳
##싨
##궯
##댚
##앢
##탛
##셬
##꿴
##덲
##뢘
##춟
##빍
##뼤
##햝
##뾕
##걌
##툑
##둅
##궮
##냧
##폑
##톧
##뺒
##윢
##뷃
##뤂
##쌗
##떾
##얫
##둄
##틇
##갣
##찱
##돎
##낤
##깧
##흽
##썤
##훰
##쩗
##싟
##쩹
##끎
##씔
##쓜
##긥
##캏
##욍
##랚
##꺨
##짊
##믖
##뷷
##몣
##땣
##퀠
##쉄
##띿
##겞
##쐤
##롔
##랇
##괐
##뚭
##쫮
##튐
##꺔
##퇜
##씄
##렭
##킇
##굫
##뽯
##걹
##빷
##낢
##겯
##눻
##떯
##팄
##춪
##괫
##큲
##푲
##퀻
##핈
##껒
##붯
##쪻
##팓
##녋
##욫
##섳
##틐
##픞
##믱
##돘
##딦
##혇
##촮
##롥
##혤
##뜼
##윝
##쫅
##탷
##쏍
##톻
##뮏
##뺸
##쫵
##괃
##퍤
##겚
##쌭
##륲
##덙
##늖
##퇳
##텆
##뙬
##숮
##꼻
##몯
##쎳
##쥈
##욼
##퉺
##풓
##줱
##웛
##츱
##턕
##웼
##쐭
##곪
##븤
##뛬
##깯
##엯
##닣
##됰
##룢
##er
##um
##ber
##umber
number
으로
에서
##니다
한다
사람
아니
는데
라고
에게
나라
지만
국민
우리
다고
까지
생각
라는
면서
다는
대한
습니다
때문
그러
일본
해서
이나
이런
으면
그리
된다
해야
지금
한국
보다
##렇게
문제
하나
그런
중국
부터
대통
그리고
정부
자신
대통령
다른
그래
인간
처럼
위해
만들
문재
정치
진짜
정도
어서
인데
가지
는지
이제
아이
합니다
아닌
입니다
미국
이상
그냥
경우
는다
사실
경제
민주
##대로
북한
사회
국가
들어
다가
모르
한테
시간
자기
조국
정권
문재인
##니까
아무
다시
##주의
해라
너무
나오
소리
정신
시키
세요
모든
##민국
기사
많이
대한민국
따라
필요
가능
정말
세계
라도
사용
어떻
시작
이렇게
네요
어야
모두
해도
무슨
인지
여자
같이
얼마
재앙
못하
그러나
그것
니까
상황
보이
대해
그렇게
사이
가장
여기
당신
으며
거나
다음
기업
다면
검찰
아서
어떤
돌아
이미
그렇
인가
이후
지지
없이
아직
어떻게
자유
##지만
이유
댓글
마음
바로
려고
민주당
이야
지역
세금
##라도
함께
어디
이러
조선
수준
어요
그래서
잘못
으니
계속
조사
모습
도록
저런
하지만
다니
결국
##거리
세상
##스트
관계
이해
프로
이번
피해
사건
언론
아야
시켜
여러
라면
이야기
##다고
보여
이게
한다고
이용
좌파
남자
이름
어느
교육
이것
중요
##어나
쓰레
##소리
선거
서울
얼마나
국회
쓰레기
상대
또한
그럼
역시
대표
대로
능력
제대로
새끼
운동
대학
수사
자리
위한
나가
떨어
##레이
그만
공격
통해
##number
동안
존재
한다는
역사
시대
가족
##갱이
누구
시장
더니
##머니
얘기
머리
학교
방송
자체
버리
아주
을까
빨갱이
그런데
당시
처음
누가
결과
##다는
제발
그녀
##스크
현재
관련
지원
보수
의미
방법
정책
##OO
장관
얼굴
구나
경기
책임
내용
OOO
경찰
본인
나온
일반
보내
상태
공산
은데
기술
회사
부모
조작
여성
전쟁
정의
뉴스
행동
는가
반대
먼저
지나
박근
게임
사랑
어도
물론
개인
아닌가
현실
완전
오늘
박근혜
만큼
언제
연구
인정
내려
##버지
##가리
거짓
당연
특히
새로
잖아
활동
##부터
자식
기자
의원
나타
아들
##러운
부분
못한
생활
거의
마스크
문화
개혁
영화
위해서
친구
마다
정보
##부분
힘들
##천지
들어가
시민
학생
똑같
등장
주장
사고
선동
무엇
려는
올라
밖에
서로
신천지
조금
범죄
거기
당하
사업
집단
거리
봐라
대부분
나이
실제
청와
절대
청와대
이건
관리
로서
과정
관심
근데
결정
##구나
나요
이랑
하루
어려
그게
그래도
만든
권력
직접
일부
해결
바라
기본
##시아
##인다
투자
김정
이루
##스로
정상
대상
##로나
최고
전부
엄청
아버지
개발
나와
##가지
매우
검사
스스로
과거
코로나
빨리
지요
공개
##라이
##시다
##으며
##없이
으나
걱정
스럽
탄핵
단체
더라
이거
새로운
그때
외국
##린다
요즘
효과
##의원
기록
##진다
미친
발전
교수
만나
주인
##in
대구
##아가
미래
##돼지
입장
의해
선수
선택
텐데
그대로
친일
성공
어린
다만
사라
다르
진행
##려고
차이
개돼지
는구나
지난
아라
건데
전체
국회의원
오히
부정
대해서
오히려
표현
총선
전문
아베
확인
아요
설명
독재
도시
교회
세력
평가
또는
##어지
##무원
##리아
발생
공부
아무리
민족
여론
준비
인터
상당
나왔
유지
자한
인물
금지
세월
삼성
처벌
해야지
##지막
드러
국내
작품
영향
종교
비교
해당
대신
만드
더라도
듯이
노력
기억
조직
기준
가치
시절
감정
따라서
결혼
확실
##이트
알려
노동
기관
판단
전혀
건지
사진
생산
위원
어라
분명
원래
의사
공무원
기회
##다가
엄마
그걸
건가
마지막
혼자
비판
어찌
자연
가진
순간
국제
너희
으로서
도움
올리
요구
정당
가짜
경험
구조
행위
더욱
구속
##으나
이전
인생
부르
으면서
겁니다
한심
외교
에선
운영
무기
도대
가격
더불
바람
도대체
모양
대가리
의식
진정
돌아가
여행
어쩌
논리
보호
무시
봐야
무능
사기
달리
일단
지켜
됩니다
보인다
지도
방식
##스터
병원
주변
환경
넘어
계획
지방
출신
위험
변화
아마
인해
포함
사과
##나라
가져
와서
추가
선생
김정은
증거
거짓말
목적
비슷
스타
평화
중심
처리
죽이
대체
기대
적폐
제도
인사
##어난
역할
토착
기다
입국
떠나
못했
바이
찾아
##드시
군대
반드시
한당
아님
시기
후보
제일
치료
대단
구성
부족
##자리
돼지
아파
지키
배우
거든
밝혀
시킨
##조건
으로써
위치
##른다
하고
투표
전화
##한다
무조건
##심히
말씀
항상
플레이
성장
왜구
이젠
바뀌
##려서
어머니
구만
전투
비리
던데
해외
한데
개념
이래
승리
카드
신경
하늘
캐릭
라이
##아먹
##동안
살인
나쁜
사태
독립
사망
열심히
시즌
가까
움직
오래
한다면
다양
진실
##세요
설치
아래
산업
정확
생명
캐릭터
려면
발표
진보
건강
경쟁
우선
실제로
난리
일어나
로부터
끼리
나중
습니까
남편
##운데
##ing
부대
제품
가리
충분
봐도
동시
소설
##리스
므로
최대
발견
피해자
냐고
당연히
이익
직원
버렸
본다
불법
어렵
##이스
인권
마찬
마시
자동
도와
아도
참여
##자기
##므로
현대
재산
황교
당장
마찬가지
따르
조차
강력
정치인
가정
##으니
사상
부동
인식
과학
##아들
떨어지
감사
마치
노래
신문
공산당
달창
서민
의견
의료
훨씬
자주
중앙
전라도
민주주의
고려
시스
##수록
나온다
조용
기간
느끼
형태
부동산
만약
이기
##비스
고통
##랜드
감독
통일
살아
##러스
던지
그림
프랑
상관
목소리
특별
준다
기능
보도
중국인
증가
##럼프
가만
독일
가르
소비
나올
단순
일으
통합
아파트
망하
영국
나경
##라고
으니까
법무
트럼프
그럴
지지율
줘야
생기
제공
갑자기
하나님
언급
야당
느낌
총장
느냐
##일보
지구
실패
행복
위기
임명
유명
가슴
제작
대응
촛불
자고
최소
보통
고자
대화
군사
가운데
세기
지식
##라지
적용
안타
나경원
##해서
보험
유럽
세대
아예
제외
심각
한국인
시스템
양심
완전히
시리
##으면
혹은
무서
된다는
바꾸
된다고
올려
죽음
변호
자격
미사
포기
매국
솔직
께서
빠져
환자
##워서
오르
광고
부끄
공정
노인
주제
성격
라니
프로그
서비스
누군
할까
행정
조건
동물
할머니
노무
불러
레이
자는
아닐
영상
자세
##너지
##학교
##디어
자꾸
그거
집회
전국
내리
판매
던가
의심
그랬
목표
평생
인터넷
이어
이때
전략
관한
미세
임금
해요
##이버
눈치
그나
라서
작가
강화
최근
아프
건물
경영
싸움
없애
비용
어차
레기
강제
어차피
계약
윤석
사회주의
##라리
주식
공동
원인
그저
기존
소득
##레스
음식
프랑스
감염
청원
친일파
시켰
분석
음악
##이지
노조
목숨
상당히
##어들
라며
##전히
차리
##간다
월급
재판
이명
이미지
질문
싸우
방향
주민
간다
자국
##gh
아닙
판사
알아
황교안
자본
행사
마리
든지
프로그램
단계
##au
자료
다며
그건
궁금
현상
나타나
마을
예전
으려
드라
무식
동네
응원
나무
이리
러시아
예요
뭔가
바보
인구
취급
시험
에요
기분
이동
아침
문학
참고
부산
불쌍
주로
미사일
발언
시리즈
속도
불리
자살
안전
반성
운전
마이
아내
파악
분위
작업
차라리
부탁
철저
##어진
규모
아냐
자랑
보고
일자리
괜찮
대책
보였
지랄
주인공
##려야
개월
비난
이르
안정
규정
타이
받아들
사장
바리
수처
그나마
대변
거래
남성
우한
마법
생긴
이걸
힘든
쳐먹
광주
활용
한편
걸로
분위기
달려
##지어
마련
그러니까
공장
반응
거부
공간
네이버
유일
여당
##마디
부인
##먼지
불안
간첩
지적
노무현
눈물
무리
인기
불구
소속
분노
시설
청년
공식
더러운
멍청
업체
반일
내부
점점
어려운
미세먼지
연기
의혹
바이러스
일제
걸리
심지어
여러분
문서
보상
차지
집안
최저
생겼
공산주의
파괴
동일
모자
언어
초기
사법
스트
인도
##augh
주의
한마디
고등
고생
리그
laugh
개소리
laughing
지속
비해
수출
근거
##려라
장난
유리
국정
저지
유시
심판
인상
상식
매일
물건
정리
##on
체제
솔직히
당한
온갖
특징
희망
##랍니다
사형
방어
비롯
업무
시위
대중
했었
장면
고객
##다니
문정
연금
버린
불매
설정
수입
사퇴
일어
으로부터
상품
건설
게다가
분야
그동안
연결
관광
판결
단어
이란
바랍니다
이론
최초
대하
유시민
박정
권리
차원
적극
굉장
나머
여전히
지배
스러운
제시
어쩔
애초
문죄
직업
차별
범죄자
회의
해석
담당
시도
몰라
제한
시킬
조치
일까
들어오
희생
대사
##이션
구분
신고
난다
위하
하여
아무것
버스
진심
은행
주택
바라보
그러면
특정
대회
확진
스킬
##가락
아름
예상
현장
의도
제목
##이터
나서
기독
나머지
따로
저렇게
훈련
뿌리
인민
상승
프레
내년
누리
뻔뻔
미군
대답
정은
장애
집중
감옥
교사
청소
과연
덕분
변호사
태도
##an
유치
도망
자동차
도로
특성
종북
엄청난
신뢰
별로
사무
돌려
연예
깨문
이재
일정
전통
규제
최악
영어
합시다
요소
수행
바꿔
시점
외국인
##어도
역대
##난다
당했
우주
어야지
기독교
요청
짱깨
잠시
다리
고민
제국
장기
지하
드리
택시
모델
복지
주도
법무부
시청
흔들
을지
애국
집권
는다는
기부
##ar
헌법
굉장히
전기
부담
회복
수도
중간
강남
짓거리
표정
유공
회장
차량
는다고
부자
주사
느라
직장
드라마
위원회
실력
통제
윤석열
고개
영원
키우
충분히
박정희
처먹
예수
전문가
조정
여야
가만히
맨날
##바로
악마
자금
할지
형성
남불
오른
모아
##학생
##토리
아닌데
기다리
고요
장사
군인
로운
대전
집값
단지
이사
원칙
약간
출연
분열
혁명
달라
개선
느껴
상상
나누
돌리
유공자
등등
TV
대선
벌써
우파
수많
##란다
예술
외치
각종
##말로
이성
변경
태극
##우스
공감
마저
의지
방문
미리
위안
합의
아빠
강조
사례
자녀
갈등
연합
그룹
주요
조심
영웅
똑같이
다행
강한
금융
냄새
몰랐
웃기
이끌
재미
##디오
투기
했으나
기생
소유
부부
특수
페미
불과
올라가
의무
옛날
깨끗
조선일보
##아치
근무
조선족
시켜야
원전
전자
도덕
매국노
평등
폭력
넘어가
이곳
물러
비행
저러
실수
올림
안보
교통
추진
꼬라지
##라인
자면
체계
약속
바닥
정체
미치
의한
대비
목사
##BS
의하
달러
그리스
성적
##다보
기에
가득
국방
조용히
##여서
무섭
초등
고서
지급
정작
바다
통과
반면
명령
지지자
##이드
드립
억울
최순
누군가
동맹
실시
폐지
내놓
부리
공기
혹시
프리
##져서
대학교
예산
사항
보장
핵심
수익
잖아요
남북
살펴
혜택
했으며
당해
보유
굳이
밝히
모른다
최종
이명박
철학
나간
##리카
센터
아닙니다
이놈
공급
위협
수십
소개
두려
축구
노예
거든요
구체
폐렴
실험
당선
##다면
다녀
주둥
##진국
이럴
구하
으므로
으려고
봅니다
##미지
다이
인제
박사
대출
법원
타령
레벨
빠지
짜리
국당
베트
고소
동원
수단
이탈
빠르
거지
동생
태극기
격리
뒤집
초반
토론
합리
나와서
##or
장소
제기
개판
동의
청문
죄인
마세요
접근
라인
지도자
민국
놀라
문통
작용
후반
보스
기도
확실히
주위
강하
구요
노동자
움직이
자빠
에너지
답답
천만
지내
올림픽
##화문
개정
반복
옹호
예정
평소
멤버
통하
니깐
논란
챙기
하이
심리
각각
헛소리
떠들
디자
끝나
항공
데리
##어내
일상
죽여
성과
고용
양아치
계산
신청
자원
사정
물리
##반도
어른
참가
손해
어떠
광화문
높이
통신
거대
차례
향해
도입
대처
더럽
확보
증명
대놓
저기
방해
정신병
세우
이하
너무나
사라지
지시
##뜨리
연예인
프레임
##머리
따지
스포
그곳
위선
가해
터지
제정
기초
비하
꼴통
어제
통해서
스러
협력
자영
아니면
상처
구매
감소
컴퓨
아름다
유저
졸업
청산
적당
베트남
청문회
대변인
유니
십시
시행
이념
공사
전환
확대
장비
사전
아무런
앞서
##아내
##으로
애니
전두
##프트
형식
충격
선언
컴퓨터
더만
안타깝
위안부
한번
숫자
##어리
때려
겨우
최소한
평균
코스
철수
봉사
취업
천지
뭔지
개입
총리
만족
공공
기계
심하
##운드
자영업
비밀
좋아
우승
서울대
살리
화장
도둑
지경
불편
군요
결론
제주
##at
영역
벗어나
한반도
##하면
황제
결코
논문
협상
기반
학원
시국
훌륭
전두환
영업
동료
##져야
지나가
밝혔
체력
야지
바란다
비례
사이트
##en
소식
차단
데려
작전
학년
따른
생겨
청구
인터뷰
다운
##은이
보복
리더
저녁
미안
때리
무너
에게서
간단
한계
들여
을까요
경상
독자
무역
어린이
막말
왜냐
확률
스토리
부여
수용
그만큼
월드
물질
상대방
전형
가까운
다수
협박
저희
어리
따위
슈퍼
소비자
수치
줘라
가끔
가입
노선
인류
##와서
본질
고발
걸려
수상
적어도
전달
들이
유학
찬성
우려
그래야
장군
민간
아닐까
근본
##아리
제거
공화
통계
방사
나름
맞추
에겐
투쟁
담배
태양
한지
감성
등록
주체
그네
디자인
클럽
이중
도착
##al
창조
numbernumber
지정
느그
보낸
종류
무장
다루
식민
언제나
자국민
측면
진출
##BC
##라스
유사
다를
##숭이
아야지
##니아
작성
둘러
고등학교
불가
죄다
아까
녀석
공포
와중
수정
교체
배치
인한
대놓고
웃음
임대
극우
어울
묘사
망치
살아가
양반
소환
상징
오랜
수업
추천
용서
나쁘
완성
비율
진다
세워
고대
쓰러
칭찬
##로지
교활
폭발
##다수
적절
##아지
당당
공연
영혼
모른
소재
말아먹
##리어
##마자
시각
브랜드
numberm
범위
취소
짜증
시켜라
선물
##벤트
혼란
##요일
##바닥
##쳐서
##이팅
논의
멀리
##준다
설립
기타
저질
플레이어
집행
무서운
이벤트
에다
장악
들어갔
인천
경향
기생충
명단
표시
근처
명예
어이
시원
한가
성인
착각
추구
분리
사냥
구역
##아버지
나갔
흘러
무대
오직
지옥
자라
오지
여름
##튜브
제안
순위
스포츠
##인트
바른
원숭이
수석
대다수
요리
철저히
줄이
참석
유튜브
##es
져야
시선
분명히
전하
근로
내일
마침
걸린
존경
사유
문자
저것
기획
보단
대형
패배
정의당
아닌가요
성능
##철수
배경
건너
검색
가난
빠른
돌아오
입학
는데요
버전
소수
효율
##사자
발사
고향
저거
연속
자마자
수술
망해
의문
외부
성향
활약
입니까
홍보
백성
비싸
민심
이외
저리
주일
시진
으시
지휘
에이
인가요
여부
연장
니다
메이
로마
정확히
생존
소년
순수
이혼
스페
못할
유닛
편지
위반
사실상
##노총
못해
끝내
김대
몰려
가까이
저항
떨어진
똑바로
번역
전해
##조리
상호
해방
소녀
스테
버티
기념
형제
드러나
제조
구라
아시아
모여
종합
손가락
조합
아이템
홍콩
아르
근대
로써
배신
만화
분류
올랐
안철수
나눠
선정
다름
될까
테러
오리
겨울
참으로
일본인
민노총
저렇
아기
추정
이자
모를
호구
법률
##리오
수록
마르
유치원
계시
용기
전개
##드리
꺼내
주문
보냈
마약
도전
성폭
##거운
등급
달성
##어났
케이
였으며
부활
실천
가수
맞춰
소송
아줌
단다
이래서
강간
왜곡
임기
인성
공항
카페
모드
챙겨
오로지
편집
시급
완벽
블랙
아줌마
##나무
아가리
일어난
중단
시진핑
남녀
스타일
감싸
그날
괴롭
선진국
우린
중소
일부러
방역
욕심
실망
계기
이딴
편하
비록
운운
조중
압수
엘리
해체
출발
부끄럽
빼앗
늘어나
마냥
절차
알리
자존
먼지
이탈리아
연락
디지
반영
중대
나갈
펀드
브라
더러
폭행
번호
피하
무지
일으키
기득
혐의
자극
징역
불만
에휴
이민
위대
실업
기울
변하
야구
회담
나베
후손
진영
나아가
타격
언젠
금액
걸어
구입
그려
오늘날
우리나라
공작
학습
전원
허용
관점
어쨌
극복
##저리
절대로
직전
청소년
수백
삭제
사이비
출시
신분
스트레스
병사
경계
고정
드루
확정
떨어져
주목
바탕
성우
식사
아웃
정해
질서
자산
위원장
이만
살펴보
자본주의
드래
무죄
특검
##고기
##무리
##더니
기소
발매
단식
마디
고양
가해자
그러므로
데미지
재정
전반
진중
온라인
건가요
태어나
거라
신체
자빠졌
##le
산다
대우
설득
이득
학자
탈출
억지
식당
치매
는군
조중동
원하
지상
더군
든다
란다
공중
귀족
이승
파이
고마
해졌
함부
##구요
혐오
##전자
지니
벌레
김일
충성
##he
빠진
몬스터
크기
대장
리얼
둘째
##센트
문가
인원
운명
보조
전염
이웃
##민주
변명
윤미
대기
실현
쩝쩝
똑똑
스런
영원히
정신병자
##트리
권한
식민지
내세
새기
##긴다
##마트
버린다
소중
##로스
다섯
일당
노릇
부상
긍정
흐름
부패
단순히
저게
가로
이슈
##연히
예배
붙이
해봐
평범
혈세
소문
팔아먹
계열
애비
대가
화이팅
numberk
핑계
투입
한참
어째
크리스
종이
먹이
놀이
왜냐하면
선전
김대중
확산
##니스
몇몇
드러내
강의
폭탄
절반
가게
새벽
편의
힘내
미개
지켜보
아저
고맙
함부로
박원
기원
꺼져
떠올
혁신
존나
폐기
검토
감시
였으나
했으니
복잡
속성
실질
연대
당할
제재
아저씨
윤미향
##잡이
욕먹
##구석
수요
일반인
어깨
시체
선발
물어
문정부
남한
자네
지껄
한정
아름다운
통한
소련
재난
살려
올해
한두
대안
김일성
##기업
배상
이루어지
장치
고위
대리
미소
할아버지
비행기
##타기
마누
취하
고기
철도
공유
계급
단위
몰라도
인재
표창
##버스
어휴
앨범
연관
갖추
확장
##레이드
방사능
일종
##이도
데이터
된다면
위키
##ic
오후
미쳤
즐기
인증
젊은이
압박
이스
수학
잠깐
경기도
받아들이
각자
대만
##어버
##오르
기여
구축
아닌지
작년
지능
바르
줘서
요인
못한다
배운
으라고
좌우
일찍
공동체
관계자
아깝
##정부
##란드
그대
본격
텔레
비상
북괴
##친다
##래도
괜히
물가
종자
아마도
통화
##혜원
채널
##워하
짐승
반도
일행
실행
키워
카메
강요
이렇
패턴
##젝트
며칠
적당히
미쳐
쓰이
부하
KBS
무한
공통
##너스
흘리
십시오
지닌
애니메
용어
커피
정경
원리
들어간
올바
채용
심한
설계
신앙
버려
##it
들려
객관
미디어
##직자
매달
마땅
진중권
마무리
연습
명칭
조성
구리
무릎
정규
길래
데뷔
찬양
추종
손혜원
죽인
이겨
셔서
은가
건축
포장
수호
들리
표기
옮겨
뇌물
버릴
점수
현금
후회
뛰어
자존심
아동
나타났
제출
윤리
촬영
##저기
드립니다
호텔
역겹
내내
여기저기
최선
낭비
살아남
여유
퍼센트
적자
의료진
물타기
이라
내게
구간
검증
인력
거주
발달
##is
인하
진단
투명
본래
매출
어려움
보일
재벌
모조리
다면서
포인트
시인
쉬운
전용
탄생
오빠
열린
준다고
제정신
이분
거쳐
획득
파티
배달
원작
##준표
공주
끌려
세트
거두
균형
되돌
깊이
뛰어난
운행
패스
협회
김경
꼬리
감방
홍준표
비중
올린
할려고
의존
한쪽
경고
##어져
비싼
애니메이션
저자
##시지
우습
이른
도중
돌아다니
유도
워낙
노리
는다면
항목
성폭행
신기
주가
명분
하락
실체
필수
최대한
작중
무사
존중
해명
동양
전력
조각
##시마
그니까
##파이
벌이
휴대
흔히
발악
상위
자유민주
명확
화면
비서
고집
마누라
남기
다소
우수
날아
연봉
개최
##야지
주차
임무
##다란
발휘
마케
휴가
공약
허가
내보
허리
동기
생물
당사자
맘대로
시켜서
공화국
깨달
만일
합니까
##저히
긴장
체험
회원
마주
몰아
박살
정식
아가
부러
유통
숨기
좋아하
형사
고속
냐는
늘리
중소기업
걸까
타인
복수
미터
모임
수구
프로젝트
전세
농단
통치
어지
중도
도구
일어났
멀쩡
지하철
카메라
오염
이라도
알아보
종료
줄어들
메인
점령
벌금
고유
출산
문장
공격력
어이없
전사
법안
아우
독재자
만난
자유민주주의
날리
죽일
그분
커뮤
언젠가
커뮤니
이재명
자유당
재료
학부
피부
느낀
물러나
서양
시계
지나치
그야
흐르
누굴
그놈
여서
여인
토지
예측
감각
허위
위조
정말로
아프리카
전시
수수
엄청나
##거지
즉시
인격
구멍
가르치
배려
메르
베이
고문
##구리
압도
지위
대립
큰일
어쨌든
##아나
리라
감히
첫째
공짜
붕괴
불교
매체
찾아가
으라
심장
거품
출판
다스
사법부
장점
음주
깨닫
유형
올렸
어둠
##티브
교과
롯데
해진
알바
시킨다
덩어리
드디어
수비
빨간
문명
은지
##로운
백만
고작
##조선
공천
##어졌
가졌
에피
거절
파일
신라
채우
전파
느꼈
처분
상관없
치우
해봐라
폐쇄
규칙
##소드
연출
마인
갈수록
견제
발동
##구려
공원
연방
파워
요금
의회
병력
에스
조장
자치
그린
특이
파리
조상
홍어
이뤄
아쉬
만났
매년
국적
##am
일치
LG
사내
대충
##에도
내렸
대국
이어지
써서
아무래도
그리스도
언니
질병
몰래
일관
사단
트리
##온다
출마
마당
봐요
진리
##다리
신화
가시
확신
차려라
중공
마케팅
아픈
##둥이
왕국
멈추
학문
고급
부문
##비아
정서
울산
선배
가문
지대
이쪽
걸렸
도쿄
##수색
##르트
기구
기름
무너지
복귀
과제
구경
이슬
초대
답변
법인
불렀
종종
소통
진화
추측
무력
축제
괴물
엔진
##ou
압수수색
아군
조지
따뜻
마구
##미터
경비
매장
봐서
배워
가스
으론
방안
저지르
면은
고양이
침략
오브
추미
꾸준
협의
그야말로
##이크
지원금
으신
원자
교도
개그
여지
에라이
요새
안타까
출전
드래곤
##덩이
커다란
박수
끝난
넘기
어쩌면
개성
상실
쳐다보
부서
재인
무료
망신
지향
체포
기지
되게
붙여
서류
전설
방지
셔야
그지
신호
구해
자위
다는데
스피
마침내
해산
전라
체육
시나
반박
##학자
에피소드
수장
글로
중학교
데모
애기
##잖아
운용
살해
##생활
금방
경상도
오랫
신용
반도체
발행
아닙니까
민생
해군
스카
행태
점차
책임지
고인
종족
명백
의해서
불행
##om
항의
유대
바퀴
하긴
##웨이
도저히
전제
어울리
모이
동아
떨어졌
세뇌
부품
끊임
노출
연주
될지
재수
내려가
협조
전면
티비
오해
밀어
난이도
구원
극단
잠재
내려오
여겨
문제점
과장
특혜
천안
히로
##re
이낙
사령
주말
유가
기어
사망자
수천
사리
모으
의학
증상
씨부
죽창
결합
쓴다
동질
일가
지네
던져
도서
신상
늘어
본부
은퇴
동성
겁나
한글
외모
노트
넘겨
구별
중반
타임
누르
순서
벌어지
파탄
믿음
무려
스마트
수당
직후
위장
김영
양성
추방
하여간
예의
일방
##따위
틀린
패거리
감동
들어왔
감당
지점
개방
후원
붙잡
학살
극장
위주
든가
전교
신도
침묵
유승
조종
##스타
마스터
강원
제자
습관
탄압
판정
설마
##영상
걸레
##클로
그렇지만
맛있
접촉
동남
그럼에도
써라
소름
그릇
무언
창출
진지
시끄
만만
바위
교환
부처
상자
뒤지
오만
어리석
걸음
합격
공인
관찰
나타내
움직임
소용
라면서
서술
데이
보건
베네
MBC
조롱
최후
열리
일보
소위
조만
허락
경력
대법
유기
꼼수
##터리
파트
지사
장학
훼손
색히
잘라
가요
입시
로봇
이낙연
##임금
##as
##ol
으러
동영상
연애
닥치
착한
보여준다
유니클로
가깝
활성
마사
안다
추미애
오랫동안
음성
끌어
간신
권위
이길
정하
경북
아나
##힌다
남겨
민중
뉴욕
등신
심사
골라
라디오
집어
박원순
대결
##범죄
겁니까
끔찍
부추
알려져
예방
공평
역겨
영향력
체크
핸드
향상
##el
경쟁력
유행
나불
모자라
인수
바뀐
조절
망할
는구
태어난
##운동
상담
욕망
소모
날려
##벌이
진입
보안
려나
수령
##인지
대접
계층
쓸데
이날
개학
의외
화력
흥미
단속
써야
모시
##빨리
보편
머물
한때
후쿠
게이
틀림
감추
축하
부장
올바른
numberkm
갈라
천하
가려
느낄
SK
펼쳐
육체
간부
중독
##텐츠
이치
심정
지혜
안내
미술
원장
일지
이만희
흡수
메시지
재미있
무렵
이내
방위
걸쳐
국산
견해
약한
가사
범인
이승만
부끄러
재단
수시
부채
손실
매력
진술
해제
와이
화장실
지껄이
스페인
내지
바치
글로벌
양식
사죄
연구소
여담
한방
들어서
하수
##쟁이
임시
정지
이해찬
이순
어두
감수
게시
조만간
협정
이스라
멸망
창피
간호
독도
바쁘
출입
무덤
합법
부끄러운
잡혀
지진
언론사
성립
인종
사격
소방
전망
우기
방영
저지른
정수
물려
당황
표준
중립
단점
숨겨
참조
김경수
주먹
약점
그쪽
##비전
진상
다닌
대학생
밀리
마트
쪽팔
신세
##어먹
폭동
사무실
왼쪽
새롭
근로자
최강
시청자
##느님
자제
북쪽
대대
급여
최저임금
보인
장식
모순
변신
환영
마녀
침해
남쪽
끌어내
시나리오
졸라
##거나
저주
사라졌
뭔데
고쳐
하느님
으려는
회피
넘치
지명
엉망
##려면
교류
주둥이
하여튼
코드
가라
이스라엘
부지
아이돌
들어갈
게이트
천천
다녔
봉쇄
로스
널리
김성
옮기
가구
지겹
현지
천천히
대박
영토
밀려
미아
장수
챔피
자발
아이디어
테이
돼서
대륙
사안
외면
가르쳐
천국
##권자
에서부터
앞장
소프트
시내
추적
월드컵
패치
나타난
사드
어릴
자아
도발
싸워
살짝
충돌
전술
##프레
세이
##리스트
매번
수리
이슬람
환상
쇼핑
신학
취재
장학금
열차
마인드
엔딩
온다
운전자
감안
연설
농민
반발
으리
음모
라운드
가볍
법정
어마
속이
인용
채워
반미
죽였
김치
보급
강도
서구
파견
예비
전공
##의자
업적
들어온
##시고
익숙
쟁이
색깔
작정
디지털
##ion
기운
진작
##나다
링크
알려진
분양
##핵화
다물
하위
비핵화
자율
대북
시골
찌질
##그리
글자
또라이
때로
자세히
사자
임신
회수
하드
##그릇
반란
오버
입맛
예외
오른쪽
##르크
파업
줄여
애플
##리즘
구석
광장
##나가
정유
논쟁
초딩
표창장
화학
사원
국익
식품
증권
신념
영입
측정
가져가
배웠
추락
비디오
가질
김종
##벌레
편성
호주
인공
아카
한자
스펙
약하
따라가
지인
주머니
메르스
대개
어떨
전염병
성경
상인
계신
열받
꾸준히
클래
원수
##낸다
식물
차기
증언
호소
맡기
영장
만세
##et
##치기
나대
미션
##아이
발광
선호
황금
이적
오류
카이
##구니
##id
서서
선고
떳떳
사라져
누나
소장
암살
##석희
약자
투수
동남아
위로
거듭
법칙
화려
재능
으세요
네트
성범죄
단독
##해야
공단
##지르
##그러
세운
압력
##들이
출근
타자
마라
##대가리
욕구
다닐
끊임없이
편안
스님
각성
회계
충실
지리
가을
맞이
양쪽
아스
망가
버려야
단기
##로그
잔인
현명
매수
곳곳
사물
전차
지령
무언가
만날
을려고
##토록
꼰대
이순신
##다른
평양
보소
소멸
대량
##매매
지소
내린
왕따
먹여
허구
속하
멋진
전작
고구려
작곡
동참
텔레비전
다던
진정한
부드
내면
세포
개별
마음대로
지불
제압
더라고
개국
##랑이
실장
에다가
배제
##워크
보관
한숨
##지사
무척
부당
리스트
그라
오프
자전
귀신
보존
국립
차려
우울
호남
오죽
저딴
##리트
관념
들어와
##러리
면허
져서
악화
터진
주관
필리
맥주
투자자
타입
통수
회견
성실
초월
양보
형편
엄격
유출
어려워
특권
##동생
상하
천재
빌려
방치
너거
고치
버프
모욕
유발
앞뒤
성추
가방
##ac
눈앞
##il
시비
소신
화폐
기쁨
악질
트랙
승인
밥그릇
절망
특유
이야말로
커녕
고전
일시
입법
이틀
디스
치명
왕조
수집
맞서
오전
한국어
##운전
장착
별도
얼른
연계
부딪
관료
오픈
심해
육군
싱글
수립
발목
그만두
적응
준다는
골프
열정
고백
은근
지수
선거법
일어날
식구
당원
생성
업계
저작
흑인
포르
흔적
우스
니들
여태
해소
도달
타이틀
찾아보
강경
국무
##립니다
##걸이
매도
성추행
##나이
다가오
망한
자르
대항
올라오
전교조
침대
교주
##시스
단일
구먼
취임
저놈
의자
서버
조약
답니다
조카
방탄
분쟁
국토
근접
승부
날뛰
죄송
간섭
인형
단단
교과서
구청
넘쳐
아쉽
추경
망했
욕하
억지로
하도
깜짝
영감
이재용
면상
인정받
이루어
##bs
신부
퀘스트
결승
각오
정답
태어났
민정
전후
구성원
박탈
의장
나아
소원
나섰
스위
오토
궁극
PC
신중
지르
##다지
줄어
성질
페이
나빠
흥분
##란히
끼치
동성애
김학
학부모
대원
부른다
전광
깡패
IM
매매
씨부리
공지
마이크
유전자
더블
생각나
##주의자
공직자
개편
독립운동
적합
##같이
이루어진
왕자
생길
교도소
##바이
무게
날씨
하여금
위력
퇴출
축소
세끼
아부
짐작
그치
캐나다
더군요
잡지
고시
내밀
당국
시전
계정
전역
심상
원내
식이
케이스
상업
가상
관광객
가벼
향하
여경
일으킨
저건
지자
원정
##식간
서서히
더냐
거울
비유
##거렸
손석희
##어준
긴급
코미
처지
좌익
종일
날개
김어준
##지션
##업자
제주도
십니다
성매매
그런지
사악
갑니다
수고
경호
밴드
윤석렬
시달
챔피언
유용
치르
##피아
지난해
정착
대체로
김제
합류
기체
점심
##합니다
해진다
신성
종목
정비
돌아왔
보고서
져라
양산
휴대폰
##크스
주한
작자
비로
학대
##페이지
입원
별명
강아지
취득
발음
레드
순식간
수원
##대표
민폐
국군
쯧쯧
길거리
잣대
대학원
독점
다시피
엉뚱
##케이션
대갈
##교육
스테이지
금리
웃긴
법대
이른바
홈페이지
막대
패러
피아
입증
크로
는구만
##하여
고스
개조
옵션
직무
즐거
어르
카운
근육
모지
농업
간주
과도
##웨어
보낼
꿈꾸
느니
사업자
품질
체결
강행
어려울
집착
고도
주기
한남
부들
더구나
##구멍
장갑
마크
동작
##트롤
달린
##풀이
대지
내보내
구현
박지
상속
더듬
##든지
그림자
도리
에어
도서관
##든가
고는
처형
부디
요원
푸른
##혀서
창작
선교
삼국
일기
족속
스크
##루스
일러
중재
십니까
부도
니까요
막히
영양
어딘
식량
이단
서초
결심
아픔
비트
아메
놀랍
##데이트
비극
상사
으셨
줘도
이대로
호기
터져
포스
신속
업데이트
미국인
연극
기차
배틀
착용
히트
포켓
기적
내주
해질
네트워크
탈락
수능
루트
앙이
독특
두려움
그다지
주력
버려라
바깥
억압
##보이
홈런
페르
세종
남부
나이트
장자
화재
약국
감염자
군주
대강
관여
주자
앞두
손님
간접
였을
작동
떠났
만남
놔두
남용
미스
모인
난민
코미디
소화
몰락
스마트폰
박스
미니
연령
노란
추세
광역
부작
안중
앞잡이
받아들여
아끼
안심
##마스
스러워
형상
##는데
유승민
전선
정기
돼요
정원
##레이션
괴롭히
##ot
무상
돌아온
야마
비웃
태풍
##us
재밌
머릿
시티
채택
사로
돌아보
온통
곧바로
유엔
응답
잡히
실적
교인
##느리
호흡
비로소
일자
휘둘
군데
인근
징징
과목
바람직
떠오르
척하
발상
일으켜
비전
쳐서
바지
선출
자전거
연상
돌파
소나
코스프레
강사
일세
딱히
즉각
어르신
조폭
애매
홀로
신비
##두르
##리티
떠드
서울시
사모
도박
할인
곤란
적대
낸다
완료
핸드폰
올릴
로드
잔뜩
##ow
퍼지
신규
피우
김제동
안달
스승
두드
마법사
몰아내
튀어나
충이
태평
빠졌
대미지
대법원
씌우
중계
여섯
삭발
저렴
후배
펼치
충청
화살
지역구
##일러
환장
구도
장교
인디
정직
꺼져라
라이트
손잡
내려와
보증
더더
피곤
병역
##까요
간절
##어마
들으면
관리자
명성
비평
전적
다크
국경
합쳐
부적
막상
이주
가져다
vs
음주운전
덧붙
명의
아리
실정
국어
셋째
기동
지우
정황
국방부
아키
선조
마나
나타난다
추악
고사
수소
아무튼
스케
제약
사로잡
김진
수영
세웠
모여서
컨트롤
라던
회전
조화
이행
##하나
다행히
##마니
IMF
북미
소릴
십시요
역적
입구
살림
목록
별개
취지
싸이
경남
되찾
근원
##백과
활발
꺼리
페이지
격차
방송국
슬픔
전직
유래
흔들리
염병
무관
납치
##태우
모험
창문
계단
와라
조언
무효
가량
면제
강점
어마어마
원조
테크
놀리
눌러
급격
기기
##렴치
##릅니다
##ct
동조
##통일
파렴치
소지
행성
라이브
신발
뛰어나
쓸모
라구
알렉
##엘라
예언
##ed
인과
대폭
가면
데스
틀리
보여준
중화
증오
장르
제로
지식인
특별히
인건
하얀
한나라
계승
고의
페미니
한나라당
출장
기재
팔리
지성
##남도
계좌
달라지
유죄
내려놓
바꿀
석방
지표
##bc
책상
어벙
용도
색기
습격
친절
경유
위키백과
말투
줄줄
카르
떨어질
브리
비자
화이트
찍소리
잘난
함정
공략
길이
앞세
##os
구상
진료
막장
눈빛
파란
스파이
대단히
제사
코치
더더욱
##화점
잠수
필드
향후
동쪽
베르
나선
##통수
자칭
그런가
신나
주주
구단
왠지
복무
귀찮
간다고
한겨
불량
교황
퇴직
스코
전수
풍부
수습
초점
트위
##타인
주둔
노후
게시판
입술
거치
백인
##무기
관심없
자질
수수료
강원도
사도
갖춘
소주
부위
of
관객
타당
타이밍
레오
초래
전광훈
역량
역전
군부
조센
질환
저능
보완
빠리
##총리
인척
컨셉
미루
간호사
호선
도망가
고수
한동안
통상
토대
##본다
강해
보임
그리하여
여왕
찾아내
중앙일보
포지션
드릴
필자
주소
미성
생일
누군지
##야마
멋지
공익
분기
농사
개무
한단
##여행
다름없
득점
강연
노벨
##ad
서쪽
생계
마비
자화
두려워
모래
##ch
치킨
참모
갈아
공산주의자
천사
까진
지켜야
본사
진압
할래
하필
냐면
손자
훗날
녹음
태국
반역
손바닥
기각
아사
박영
육성
채권
밝혀졌
##수엘라
봅시다
싸울
아오
베네수엘라
실상
걸려서
머저리
원망
인연
맥락
걸릴
점프
쏟아
지출
포켓몬
박물
장제
후진국
떠난
농담
##카오
잡아먹
조기
영구
리얼미터
라기
스티
이언
##고생
머릿속
왜놈
사지
도우
가즈
출생
연재
출현
이룬
지킬
##장난
으려면
쓸데없
거론
##회사
##로드
배출
위선자
이정
정복
방패
가관
메모
##nd
철거
저장
하수인
동정
피의자
부를
황당
국정원
해고
아름답
테스트
##집니다
기다려
뒤통수
향한
##은행
버릇
의뢰
십자
집구석
풀리
생태
종식
##끼리
드러났
시사
침몰
##무지
##톨릭
징용
냉정
코너
광신
써먹
수지
김현
사령관
라곤
The
##컨대
학과
완화
쉴드
할까요
나치
동화
집합
누워
측근
유전
대왕
서명
드물
드라이
무서워
청장
중시
말리
담보
위성
최상
콜라
뜨거운
사거리
지냈
일삼
소대
건국
고르
엑스
모범
그딴
부실
규명
후기
수작
접속
철회
군단
는겨
우익
타워
트위터
보석
조그
유가족
오스
얼음
##어야
페이스
교실
배급
부수
추억
교육부
목격
동지
싫어
어딜
순환
까닭
조원
##라우
전락
##러지
목포
진동
바쁜
동반
유입
##부인
바꾼
구제
할꺼
요시
법치
SBS
망한다
부과
본능
인데요
돌아간다
시집
충족
백제
년놈
커지
살인마
변형
잃어버
커뮤니케이션
##권력
건드리
한다며
끄덕
##더라
어떡
장례
솔로
##ns
##이치
놓여
성별
영광
나간다
##그레이드
업그레이드
필리핀
##번에
문구
저래
##지않
패스트
기뻐
양자
합병
유투
하나하나
부류
저걸
인건비
이마
월세
유독
세계관
당한다
##NA
플라
개뿔
은혜
지극
한미
정면
강대
사이버
사면
##오스
박물관
버그
처단
아녀
변동
##모토
아울
리스
교장
함대
적화
찌르
백화점
백수
조조
급하
쪽발
아이고
기세
기만
##트라
##가르
비즈
점검
구름
텍스트
된장
뚜렷
후쿠시마
위상
놓치
공군
건담
비정
몰라서
##어날
열등
납득
플래
고리
사라진
구린
레인
질질
참전
##피스
날아가
주년
##북도
오스트
##빠진
저격
앞장서
편향
##입니다
보병
려다
사립
부각
치열
FC
물량
##성이
놀아나
명복
##인물
쳐도
몰아가
쳐들
신사
망언
런던
시끄럽
따져
증인
틀림없
지났
공학
##문학
귀국
스탠
편의점
줘야지
특기
경로
모리
버튼
좌표
깔끔
시야
정통
중동
무고
##소년
매입
아랫
우위
대략
석탄
분배
폭격
그간
##산물
음반
정유라
##스탄
창업
부작용
주둥아리
정성
복합
브레이
석유
슬프
가져오
가동
탈탈
유족
수급
빌리
경찰서
거꾸
으리라
학위
골목
##니어
어지간
해골
참사
물품
주범
이래도
애국자
##ay
베스트
모집
발전소
우연히
##어로
양상
들어와서
일곱
망국
선포
##드로
면역
부른
주저
온몸
연수
자진
가리키
웬만
원주
비추
견디
메뉴
히어로
봉인
비열
##투리
골드
피할
태양광
던전
표면
유아
반사
성취
스키
나마
무서워서
요약
빛나
벌어진
사명
행하
뻔하
키스
조민
끌어들
신자
면접
새끼야
애정
클리어
numberc
소금
호감
떨어진다
엘지
학기
마이너스
여신
##텐데
보좌
소음
기호
중고
지자체
몽골
일원
본성
내수
주간
##까봐
이데
##스레
술집
경주
총기
전남
신설
명심
##자찬
자화자찬
해안
호의
성숙
선진
클라스
이끄
##NS
안타까운
새겨
집사
대국민
개봉
북부
국장
고지
##ir
독서
모독
집어넣
모아서
유산
인턴
가하
오마
커뮤니티
만주
이언주
소서
화나
##보드
차전
원가
##ve
치밀
제법
내버
##도로
일본어
통장
미만
기다렸
출처
시신
모지리
헤드
공안
사방
##스럽
개미
개신
##봐야
거꾸로
미성년
우유
힘드
후속
부진
창의
아이폰
고교
저축
비즈니스
##메달
이정부
화제
접수
수법
망쳐
핵무기
여도
##im
스웨
아가씨
편법
편입
배울
들어올
주권
낙태
차릴
유비
날카
이여
내릴
아무렇
범법
풍경
##새끼
가드
이집
이완
추잡
어쩌다
민원
최우
이집트
유혹
유포
용병
당은
역겨운
산불
##하루
##옵니다
입주
나뉘
전신
지분
##바지
트럭
헌신
잔치
친척
전방
국왕
항복
납니다
여사
날라
과학자
일체
추모
내세우
감기
게끔
중세
저번
퇴근
##시코
전범
테마
문화재
벌리
맡겨
몹시
언덕
낮추
터미
멀티
치워
슬슬
부추기
구걸
연구원
지침
써도
노총
행보
그래요
아나운
학력
아나운서
동부
##od
채무
편들
오랜만
돌아갈
성서
나옴
입력
재생
어두운
정세
##틀러
KT
내뱉
상관없이
상가
헬기
우연
그토록
초등학생
비참
##스티
일간
기법
침입
들먹
돌렸
조항
민감
우월
몰리
어머
섹스
물고기
오바
스토
애쓰
브라질
한결
##서트
부럽
망상
암튼
결단
승진
재수없
커버
점유
코리아
억제
화염
밝혀라
보험료
구글
임종
격려
수신
은폐
쳐라
주의자
공소
때려잡
액션
##어질
우물
어린아이
돌보
어딨
려니
김재
즐겁
고장
연인
구할
남아
상당수
줄기
##un
신선
살피
아울러
실업자
국격
##방식
개시
입사
말기
오가
매니
금강
한겨레
파라
예고
주연
##세대
달하
성분
##사고
파헤
탱크
사후
여권
자비
어처
가라앉
이제야
수련
개수
##로우
오를
##스키
뻔한
두렵
##고리
위법
분단
질투
어렸
##이즈
달려들
##ter
예약
재건
선관
치유
어쩜
엘리트
xx
정규직
창고
공업
버림
책임자
서기
이닝
사마
늑대
원천
파트너
취약
동사
##세이
수명
결제
사고방식
알려졌
서부
굴리
안녕
영주
먹히
명목
후퇴
화물
패션
갔다
##대기
오리지
개신교
취미
패널
장자연
순진
소스
모바
약해
##질러
사신
소유자
##무라
##런스
아시
방송사
돌아와
무인
동포
화해
방면
대주
상장
심심
업자
은데요
좌절
동급
보물
호수
휴식
들어간다
취향
날짜
만지
실은
행정부
새삼
면적
##덜란드
네덜란드
지연
등장인물
이따위
어떨까
우방
충전
엉덩이
명품
모였
마감
대구경
사시
쿠데
종전
불꽃
보너스
임영
##로기
여동생
배당
놀라운
삼성전자
광우
정치판
징계
시발
정교
가치관
모른다는
국수
박지원
##눈물
촉진
정화
비정규
살아온
클래스
가속
저능아
장제원
더라면
피눈물
연맹
기상
가벼운
신인
사생활
꺼지
운송
절실
유권자
토막
잡아
더라구요
##의식
우롱
미드
##op
St
남긴
택배
비틀
호랑이
동북
굴러
공기업
늘어난
취직
호기심
광신도
건조
원내대표
수면
세탁
똘마니
용인
##TV
빼돌
하루빨리
구호
중지
숭배
타락
##가운
휘두르
가톨릭
모바일
했어도
두둔
해결책
##오리
안경
발급
개개
명시
종로
##크로
인듯
타카
트레이
간다는
이태
고립
돌아다
똥개
명문
##동자
조리
변수
놀랐
합성
비정규직
파도
쓰여
결성
합당
복구
구청장
편가르
건드
건전
는군요
민경
사대
어처구니
입대
박멸
분산
일으켰
공통점
전대
변해
북조선
해외여행
다네
다룬
백신
해져
오사
불명
느냐고
쿠데타
했잖아
출동
##스토
암시
스튜
생긴다
##뜨린
복음
임대료
세습
즐겨
전투기
희생자
사사
언행
주류
관행
착취
할배
뿌려
바둑
시세
여의
변태
포도
폭락
정수기
두루
설사
제보
화웨이
발라
바퀴벌레
보살
대권
터졌
도배
##워드
장모
기르
대조
당일
##ur
태우
멕시코
고등학생
개통
삼가
numberG
라니까
지워
##디아
##레인
이모
콘서트
##TA
상기
전도
임진
할려
각국
사제
폭풍
커서
##붙이
베이스
유교
투어
모니
둘러싸
방어력
##부들
예쁘
일일
원고
##버트
실시간
##르르
이인
청탁
민낯
the
소프트웨어
늘려
타협
봐야지
약화
##가루
부들부들
개구리
##페인
자손
대목
##카락
머리카락
일본군
##유럽
지형
찾아볼
네놈
여긴
어째서
블루
실명
열매
구사
서방
지극히
할수록
콘텐츠
업종
여건
귀여
주거
히틀러
포항
발굴
관대
##운다
반납
이데올
피로
사귀
멋대로
자부
심상정
복장
소형
대행
미투
경매
친한
엄중
공영
이윤
요건
서둘
추하
튼튼
실무
임원
공권력
줄서
리더십
비명
해상
별다른
정국
사찰
총알
육아
과감
개체
크루
진주
눈길
부사
경기장
입지
방학
나랏
투성이
애쓴
손상
극히
공신
무거운
실종
카카오
본다면
편히
농촌
보입니다
남겼
이데올로기
온도
두들
울리
자니
비아
리어
쳐넣
포스트
인지라
예능
느낀다
선관위
벌어졌
무작
사소
마리아
교묘
호도
공자
멍멍
터미널
김정일
댕이
우상
서해
명절
##드라
##더기
##ER
작작
PD
열쇠
더라고요
##병대
키트
다구
법조
##바람
토끼
달려가
구당
탑승
지각
횟수
수색
방침
흉내
니놈
태평양
로켓
달래
돌대가리
갤럭
야기
숟가락
유착
해양
생색
프라
어린이집
어쩌구
돌이
##보기
닥터
관할
분별
오락
염려
##ag
단정
##처럼
자매
차관
실리
크리
들여다보
##다나
원한
사쿠
지킨
민족주의
터키
으라는
말장난
##지오
현역
높여
숙이
천주
랄까
이어서
축적
천황
갤럭시
등교
슬픈
승객
스쿨
대구경북
임영웅
퍼져
##소득
뻔히
확립
numbercm
어린애
뭉가
랍시고
마왕
데려가
외출
일러스트
랜드
거친
빼먹
내역
초과
스파
쪼개
바뀔
동서
포로
실내
배후
벗겨
침공
##ut
반지
한창
사막
선장
안락
일수록
성당
가공
멍청이
선량
그레이
후예
조센징
걸러
지긋
캠프
재무
권고
장인
어딘가
##린다고
서브
참나
전복
괴로
기둥
화성
떠올리
변했
고령
부역
선박
올라갔
감상
예쁜
말라
치사
깨진
연평
범주
낚시
스웨덴
기밀
행적
뜬금
##소년단
급속
불평
전이
어짜
고무
싸그리
처하
방탄소년단
##쳐야
나팔
스프
엄벌
대외
그제
이니
##디션
산하
##무성
보조금
해설
주차장
대문
과일
논하
바닷
##ent
수송
쫓겨
중산
그걸로
유물
드렸
풀려
드러난
깨지
건들
금속
우덜
명박
가루
컨텐츠
흘려
초청
재현
사우
##이너
박살내
뮤직
불신
찾아오
모금
훈장
상세
바래
단편
뒤늦
언론인
유언
저질러
##뜨렸
늘어놓
구한
아이디
후자
SNS
선비
트집
생리
일까요
선임
##성기
처녀
선행
테이블
늙은이
멋있
Mnumber
##사리
민경욱
쪽팔리
마루
예선
##공화
이지
고선
맙시다
소상
줄줄이
속국
##북자
뛰어넘
발명
대수
지저
돌아갔
기습
반격
호위
##까리
도둑놈
드럽
어긋
애미
경영자
저질렀
태워
##꺼번에
한꺼번에
며느리
대인
치고
플로
종말
이리저리
##노스
작살
##네스
비호
대공
간단히
소외
다치
소요
밝혀진
아일
교차
##어놓
##살이
차트
올려서
윌리
프라이
마력
간혹
동해
비겁
웨이
유효
##추어
문제지
전철
내각
폭로
가까워
##브리
탑재
부시
자란
##ST
보컬
빨아먹
일대
성명
팀장
세무
나르
기부금
담긴
체하
고만
마셔
혈안
도망치
편리
상공
숙청
김영삼
##일리
문득
차명
출석
진학
토리
연료
무용
##행위
교통사고
증세
탁월
내란
소린
원자력
교훈
numbermm
##밀리
돼야
이라크
##가스
갑작
나발
장로
사이코
라스
자신감
양도
##관계
선보
주작
강대국
낙하
한강
##지부
##버리
김원
프리미
코믹
##서야
끝날
려던
##카드
규범
부유
신문사
빠져나가
간신히
Gnumber
거슬
가르침
에드
시달리
이영
듭니다
전장
욕설
저쪽
개척
아랍
##스턴
내버려
창원
원본
허허
##티나
방위비
빨라
기아
도라
촉구
폴란드
##그라
고로
##세스
동굴
편견
건네
당분
접대
부친
박영선
사인
##게요
조명
메이저
방금
담당자
극치
재고
지라
피고
관해
거시
마르크스
더욱이
다니엘
편파
위인
탈북자
보충
외교부
직장인
원한다
제어
농장
##두리
오리지널
제조업
제임
신장
기절
형량
환율
혼인
사연
자유주의
김기
마신
라네
대거
##사람
블록
신입
유신
numberD
친하
인질
등지
오줌
야말로
##지컬
접하
유령
주어진
수시로
빌딩
##IA
적혀
녹색
어짜피
따구
도적
사세요
티어
한전
잊어버
거니
예컨대
더군다나
주고
커플
애쓴다
취한
##트로
##기사
정시
첨단
레이저
판타
동방
공세
개설
헌금
욕할
고민정
은근히
착하
하우스
아비
감지
농구
연간
해줘
서초동
도장
다스리
울음
클릭
유감
##FA
공수
관통
협약
편한
벼슬
산소
당대
귀한
현직
죽여야
모름
악용
한화
##프라
아마추어
단절
관하
##뜨려
글쎄
크로스
전진
토스
국고
급식
비해서
충동
쓰러지
신하
불쾌
았었
오세
의상
지붕
는대
고종
박쥐
부가
##EC
##을까
궁리
에이스
과세
찔러
유연
사양
##퍼스
만행
거북
서둘러
##기야
하루하루
청주
김진태
간격
탐구
침투
다가가
미련
개독
냐며
하네
나리
천박
방구석
모음
김상
이빨
청정
##싸움
통증
어쩐
매각
나와야
외계
유력
부풀
글러
들어도
이수
호로
동경
카운터
sns
일요일
혈액
더욱더
모티브
일산
제임스
거늘
해치
설레
지나친
목욕
설비
플랫
전주
통령
악수
이를
즐거움
어기
공매
너머
실컷
열렸
취해
신종
야동
들통
어때
실점
정해진
공지영
암흑
IT
군수
들어야
AI
마술
미성년자
번지
납부
권총
미칠
지금껏
구두
대세
성령
개헌
도시락
아지
늘어지
##사상
생선
겸손
애써
급한
무방
웃긴다
통보
##공화국
세로
이긴
개검
트로
담겨
흐리
내려야
제이
결의
필연
정준
양국
구출
모은
프린
기껏
초보
물어뜯
랭크
거르
후지
불통
간판
허나
배우자
특허
계엄
저하
꼬박
주석
뛰어들
반짝
여럿
유능
파산
통로
변함
싸이코
인민공화국
도요
애인
가계
검열
유로
##부패
##하니
불타
부정부패
안개
호칭
과잉
못난
도주
살아갈
##문서
각지
바로잡
페미니즘
입히
멈춰
공직
까다
##래프트
감자
가중
잘사
종사
치러
바가지
할려면
본선
변한
대해선
관해서
상점
주전
개개인
##조합
부끄러움
갤러리
##하라
##하하
분량
건만
짓밟
사라질
투기꾼
유정
추격
아메리카
부재
해야죠
느리
끌려가
##시오
드만
대치
##이다
몸통
필살
득실
비단
연말
원소
용사
캠페인
임종석
지칭
음료
망설
국무총리
지난번
도끼
는디
웃겨
사라져야
어미
일련
가죽
의대
단축
기울이
CD
병기
어느새
터질
##밀히
이사장
##ap
교육감
유세
리스크
모셔
간절히
허물
볼까
가령
##싱턴
복원
정한
노르
당나라
##재판
상반
추상
총회
후반부
버텨
고난
그러다가
권유
시공
김정숙
악랄
설령
복사
어설
아름다움
가증
여학생
도데
단장
놀란
노골
배포
생명체
속한
관람
별거
축복
두산
주역
표본
그러니
로고
양육
튜버
공범
경제학
##어요
다간
수두
본토
강점기
고추
용돈
말려
증여
tv
앞날
저서
횡령
광복
보이콧
탈퇴
유재
미달
아쉬운
결말
일일이
토요일
관세
아트
약탈
묘지
분할
강자
시바
비스
김동
교리
자수
모른다고
이완용
랍니다
전날
동상
금수
항공기
심화
비방
소망
한답
질러
탈취
패러디
인내
단단히
배고
조현
##크라
차이점
세균
이종
쓰래
##느니
기질
확고
자폭
도무지
우호
표지
생활비
심의
노려
사료
복제
엔터
파이터
든든
설문
천주교
기인
안겨
CC
단호
아니하
눈깔
##ri
과실
미수
들렸
군림
클로
헝가리
대마
약물
피아노
원시
처치
허무
고래
##ec
최신
한텐
아바
DNA
사탄
지장
##모습
지주
밝힌
아미
당분간
인쇄
트레
걸어가
이력
지휘관
포트
중얼
융합
폐업
모색
침체
##포트
딜러
섭취
파기
싸가지
기술력
쫓아
등판
러브
로비
털리
정정
마귀
성전
코어
물체
애국심
##브라
악의
행세
올라왔
출세
미일
유동
학회
통째
시정
도데체
짜장
마이클
아닐까요
라이프
천억
대사관
목숨걸
댄스
감찰
되돌아
유린
시어
폐간
줄어든
반해
불륜
성희
돌아올
종업
이쁘
결혼식
##이나
기관총
직권
현행
충고
끼워
매주
남조선
기피
정계
잃어버린
##어가
스위스
정의연
꼼짝
정령
알렉산
##배우
그래픽
하트
끝장
스피드
따름
굴욕
미나
아홉
살릴
##라이더
알파
안티
회상
안쪽
엄한
##em
똘똘
밀접
합작
주고받
##항공
모형
머무
유인
전무
외환
##왜란
나물
김무성
치가
여우
을수록
속보
라이벌
카톡
임진왜란
시궁
매니저
잡힌
하인
소독
키운
읍니다
내장
형평
갇혀
연동
##반대
거들
종결
사표
조선인
친문
가담
출범
실드
은하
와이프
수두룩
글씨
지저분
처참
내편
JT
안다고
상향
배부
혈압
유적
타고
골든
되풀이
윌리엄
사재
다던데
넘어서
비치
스카이
포괄
##받침
기후
##og
공헌
몽둥이
아일랜드
대상자
삽질
조공
종업원
찌그러
여덟
응급
친다
희대
이어졌
세일
세비
관측
경찰관
우정
바이오
세부
거칠
국기
돌진
조그만
잉글
차림
불어
동등
맞춤
당과
##어트
됩니까
고마워
##보내
가이
이겼
동력
여전
구절
용감
인자
돌격
멘탈
배신자
생생
##지긋
##커녕
실용
폭파
감탄
지긋지긋
마니
상한
주적
자민
노비
초록
재개
폭주
유흥
벌였
퍼트리
광범
##일으
잠수함
저절
노라
빌미
불가피
불러일으
데이트
치부
깃발
##모로
증대
격투
서리
눈감
고스란히
##타임
국력
유키
준수
효력
개한
와인
엘프
입수
어우
유우
달인
미처
##oc
##십니다
탐욕
##스트라
##th
무소
부근
불로
했으면
대동
##어진다
##라기
십자가
부려
##PS
려다가
어려웠
산책
선사
왜냐면
역설
처방
제갈
매치
천장
향기
떠날
헤이
슬퍼
저절로
##광역
당해서
##창기
##세포
본데
양념
재주
물음
화합
학술
가두
달랐
라는데
플러스
나카
왕위
도모
##아웃
주행
##러니
시킴
케이블
김태
핑크
안드로
준용
요양
흡연
다지
드나
워싱턴
공제
저소득
막내
조달
평론
교단
깨어나
하나같이
기원전
올라온
위생
평상
흥행
여러모로
망명
할매
제작진
우라
##팡이
이루어져
미야
야간
##ew
numberg
##ak
외신
보태
집니다
시궁창
대의
설교
계절
##들여
신다
혐한
나란히
인신
훔쳐
외쳤
##광역시
문단
차선
할텐데
##PC
파고
떨거지
와야
수다
Ch
한들
두꺼
여대
구미
어색
스미
자이
동아시아
갑옷
신지
원거리
늘어났
시드
귀걸이
손목
즐거운
차분
주부
사학
금메달
저승
임의
##ver
휩쓸
##으므로
출간
불러서
바꿔야
광경
실려
다니까
소울
자문
생애
관련자
오사카
키로
체인
쓰인다
출국
##희정
내놔
##베르
##걸음
담론
라더니
하야
교육청
으니깐
가이드
나와도
낙선
항구
실세
##러기
##릭스
적화통일
초창기
연루
스러웠
떠올랐
기숙
썩어
싫어하
싸웠
움직일
사살
클라
체감
공고
요정
이룩
##도우
성찰
팍팍
라라
경악
후계
뭉치
거세
역임
치안
잊혀
익히
격파
는데도
서사
##베이
반기
블로그
카즈
습득
내정
나불대
삭감
##떨어진
성희롱
도민
코메
성역
도지사
어용
조준
판타지
극도
미스터
선두
##무소
틀렸
분해
##회장
크리스마스
번개
분포
쌓여
행운
우회
까발
지낸
낯선
무난
포위
승강
총수
올라갈
이랬
교양
두들겨
뒤져
JTBC
##스케
으니까요
딱딱
현대차
넘어갈
극대
##책감
떠오
염두
##수아
우울증
권력자
##검찰
부드럽
환수
끼리끼리
천연
루이
될까요
단원
킬로
총살
띄우
껍질
투사
사나
개막
불화
메리
전투력
덩치
메타
기하
강국
급히
아까운
박통
김용
저럴
레전
생겨서
응시
불길
참가자
백작
에라
생전
무수
막강
여객
펑펑
장담
교역
다투
동맹국
보전
시시
모니터
과자
메가
못함
화장품
선제
다닌다
떠돌
물자
공모
좌석
중년
장본
장례식
범법자
우두
모를까
으이
남발
몰이
음식점
##내리
다이아
각하
내전
내외
고고
관습
브로
줄게
더니만
둘러보
창설
썩어빠진
하향
##닉스
구독
뒷받침
영문
독감
청춘
빨개
카라
반전
주워
아이러니
이용자
실존
위임
##총장
그레
계란
서열
척결
부양
우와
편드
가져야
앉혀
친정
맹목
초상
드림
코인
교민
옮겼
제국주의
떡밥
야생
승격
밝혀야
전멸
다더니
심히
장병
오토바이
이걸로
##저것
관상
을라고
##동원
이것저것
각본
스킨
브레이크
정류
까먹
실전
한다니
즉위
최우선
유머
분립
계통
리아
사관
따까리
블랙리스트
냄비
kbs
차렸
산다는
일생
들먹이
맹세
망친
현혹
##ation
김지
궤변
지부
노부
디스크
##가와
위태
인프라
세자
CE
무사히
리버
##더스
자처
##불리
합치
해리
피터
##멘트
공무
극장판
합동
용납
걸맞
##베이터
모션
클레
체질
II
사치
살인자
치료비
궤도
장난감
금강산
횡단
재빨리
강렬
장래
김성태
장려
벗어난
묵묵
맞벌이
제의
장미
윤지오
##따라
반감
아인
##폭탄
줍시다
반려
개도
철학자
이왕
걸친
표출
빈곤
퇴진
불안감
국론
밸런스
##st
허공
안희정
등기
원형
잠들
양파
##포르
잉글랜드
흔한
사무소
제명
진짜로
존엄
직면
까불
줍니다
##HO
삼각
여가
클리
받아들일
메일
리듬
올라서
설득력
계집
클린
청렴
자격증
중개
아티
상해
개표
기금
듀얼
기성
었었
섬기
응용
아주머니
득표
당당히
지도부
골라서
풍기
안락사
존재감
##데기
생략
배송
계곡
가혹
장본인
각기
기리
페이스북
던졌
메달
이준
##데이
아작
쳐다
사카
넘어갔
불당
주최
코르
##데미
엉터리
아버
광범위
오스트리아
공매도
성남
끌어내리
축내
마른
근성
키보드
야비
몰두
즐길
무단
뭘까
바랄
마친
철면
씨앗
해킹
사운드
김학의
상주
##박이
배터리
서적
후안
코스트
HP
붙인
배정
아테
명명
신재
버틸
##당초
어음
불능
주입
방출
필살기
터널
이나마
##무니
##갈이
분담
찬다
가설
수위
라시
면모
유의
둘러싼
위해선
예술가
분신
내기
유해
##올리
사나이
출력
최적
스페셜
적군
굴복
in
스튜디오
나폴
영리
일선
할지라도
떨리
무신
즈음
백두
총독
그까
바짝
군사력
요한
소방관
벌인
쌍둥이
움직여
비타
매개
마셨
떨어뜨리
죄책감
저택
대도
관중
명사
여겼
기업인
입단
##상식
공존
캐스
갖춰
싸지르
아카데미
##구장
네티
수염
폐하
민간인
소각
키울
나눈
구실
##타리
개망
소총
공시
##거래
해선
지독
모방
구기
절벽
과시
냉장
장난치
##성장
심리학
사이드
김원봉
신전
절감
두려워하
퍼트
루시
어지럽
눈치보
모기
어선
워크
##ED
재판소
휴전
들이대
범행
의리
돌려주
남매
반하
너그
헨리
수없이
부임
표적
화가
후려
인해서
##데스
레전드
추석
출판사
자각
비닐
엄연히
코메디
소득세
세르
상륙
엘리베이터
내라
넘쳐나
예금
수동
##바다
총체
평창
불사
##우치
되살
마츠
##생긴
베풀
유난
바꿨
##랭이
새해
들으
인체
항공사
베이징
##위병
##타이
악기
##쓰기
캠퍼스
오세훈
나비
사위
스크린
개똥
다카
토벌
감금
연합군
##and
수백만
못해서
이국
##조사
실재
노사
골수
괴뢰
흘러가
앵커
소매
이듬
사촌
상급
##플레이
##몬드
일개
##라이언
##TO
무겁
김구
##tbc
왕비
줄께
결승전
의석
방가
몰수
판국
전함
느껴졌
파동
Anumber
네티즌
인맥
수직
대포
표명
코트
##ce
중복
게이지
떨어져서
솜씨
하청
환승
철면피
누릴
드려
MA
쌓이
수감
도심
일어서
사탕
못된
나타날
재발
##린다는
인지도
나부
##네시아
칭송
쏟아지
원했
##그마
증명서
치마
자부심
##PG
살아나
복종
찬스
서식
##레나
팀원
광우병
본문
전지
명중
기숙사
##박혀
부르짖
알아듣
증거인
근간
상상력
방울
모릅니다
단군
누적
박이
행해
무적
단백
완장
고아
무늬
포착
검정
지지층
오타
메모리
암호
##무시
운동장
연쇄
##ul
##ia
깊숙
메탈
행진
##하고
정밀
화법
지름
자칫
무산
분자
노하
노가
호르
부합
징글
흔드
특집
날조
##우드
위함
벤츠
그러다
불려
상정
두뇌
잠잠
포털
도피
장성
이듬해
틀어
퇴임
불린다
모자란
환원
얻어
##대문
연이
##시대
지목
시중
중점
달렸
줄어드
길러
디아
고가
불의
출구
차가운
의의
무당
엎드
정립
흉악
소드
몽땅
밤새
스트라이
특화
추한
터치
돌아서
막혀
랜덤
기점
글고
머신
지루
수년
칭하
했어야
찾아왔
인명
꼼꼼
전승
개량
토해
사이즈
파멸
응징
박혀
예시
칼날
반환
빨대
##넘기
##라이트
는지요
##ig
방관
활짝
분당
혈통
반공
씁쓸
꼬마
##테르
고려대
머니
##퇴근
##우지
반동
분간
니라
밀어주
플라스
레어
마스
전북
성폭력
살아왔
신임
보육
지롤
급급
나락
시리아
히데
동행
생물학
소홀
줄일
오마이
드문
정준영
라틴
색출
힘든데
헤어
맞춘
잡아가
전했
납품
라지만
AP
사라진다
생김
달콤
발병
마진
호평
정찰
해임
지갑
유총
생겨나
외쳐
그리도
함선
아머
점포
이룰
부드러운
말미
갑시다
소설가
항해
적정
##베스
선별
하사
예민
느냐는
금전
우동
교전
박힌
드러난다
강성
협동
회로
쏟아져
능가
자사
레이더
갈리
염치
승차
몰살
렀다
제자리
광기
##퓰리즘
거점
##카와
포퓰리즘
던진
가로막
나팔수
후계자
낙하산
낭만
똥물
끝났
아껴
정반대
원흉
일어난다
달아
왕실
나눌
길드
잠자
발정
오프닝
FI
문법
퍼부
##갑니다
뭉쳐
양극
스탈
바꿔라
가져온
깔려
동선
이시
모가지
장벽
##시브
어다
정년
##용차
유대인
경지
휘둘리
댄다
퍼뜨리
속한다
냉전
홍위병
결과물
못사
보낸다
지면
호환
모호
연방제
김종인
폭등
인민재판
실로
오오
낙인
트라우
##영화
포격
명확히
그립
헷갈
##OS
결사
물들
정치검찰
보라
날카로운
수만
리치
MS
성지
가져왔
흑자
겠다
와도
석사
컬러
장전
##ame
한층
MB
넉넉
교대
울트라
병자
국면
고독
화자
그늘
주어지
하차
숨겨진
우편
피자
기쁘
의아
못지않
바꿔서
부엉
선의
격렬
구슬
몰아넣
안쓰
전향
외형
우체
모녀
스톤
시즈
단백질
##지기
다시금
노숙
파시
건립
잔당
한없이
종교인
나옵니다
폴리
배트
본국
보정
당첨
과거사
호들
CEO
처한
모의
모았
이원
##꼬리
난무
자위대
꾸미
후세
단결
나루
소극
천막
문헌
수저
폐기물
작곡가
실감
로맨
손절
트라우마
##듀서
프로듀서
공허
풍요
거인
연고
청나라
알아차
끝판
쌍욕
현황
입각
##츠키
변질
티켓
##방울
포르투
##오프
춤추
환호
기술자
쓸데없이
찐따
##테스
정적
단행
유희
보상금
공산화
부스
허구헌
급격히
개고생
슬쩍
경제력
##렁이
강철
불상
눈동자
오이
심보
간사
중학생
임상
네임
개탄
##파리
복도
불문
##우리
동전
적국
다거나
매크로
찾아온
사용자
걸린다
중국어
미지
딸년
트랜
##민석
블리
태생
포드
소니
아크
이즈
태영
기용
선심
아하
영남
체육관
리드
년차
기사단
XX
비서관
소수자
시트
아시안
유방
FA
봉투
극심
##에르
올라간
무자
품격
흡사
냉장고
원주민
맞춰서
아이콘
키웠
애완
후진
야스
이불
나뭇
빌붙
출퇴근
##가포르
박사모
싱가포르
잡것
안주
성형
사주
경사
##서스
군중
보좌관
소용없
것다
회색
수첩
직시
용이
햇빛
숙소
무너뜨리
대금
에미
어쩐지
스캔
다짐
아다
할께
였으면
스러움
사령부
법관
무너져
벗어날
몰카
진전
탈당
노태우
##지도
통신사
호들갑
피난
파생
돌입
오라
전과
아버님
성도
재배
무공
부천
이따
전성기
경전
처해
현관
##파이어
거둔
맞대
자행
발자
맞음
오른다
진다고
##즈키
과반
정조
나설
빠질
선명
카스
극좌
정류장
오케
저급
뜻대로
사직
그램
향했
순이
보리
야만
미묘
직선
다툼
한잔
공룡
앞세워
포용
일거
소집
통역
이해관계
뚜껑
다큐
일조
전가
혼돈
##원지
옥수
##비드
프리미엄
공립
메카
비타민
주름
줄까
지겨
붕어
가진다
종속
주재
소굴
국세
후대
시합
##환경
해준다
##레이터
이식
아재
시카
멸종
신혼
로또
데려다
여의도
요란
지민
리본
귀하
지체
일식
EX
벤치
휘말
로그
평상시
부엌
벤처
온전
형벌
친해
신생
단합
레알
퀴들
파크
섞여
뮤지컬
레이스
매춘
강력히
욕해
마차
돌연
발매되
대령
고모
싸운
연구자
깨져
잉여
무선
텐트
여군
다신
파이어
관장
오페
##저나
교정
계몽
내재
앞선
IC
IS
##코드
##ra
지켰
김수
쓰였
혼합
농부
번영
시아
갈기
실검
항쟁
##공정
돌아간
##타로
물려받
마도
옆집
##누스
그나저나
다지만
인도네시아
노망
추운
카나
잡혔
PS
뒤집어
공로
조세
##렉스
동아일보
관직
꼭두
오크
로우
##세지
##마크
틀니
반항
쾌락
만물
로버트
설쳐
업소
##오카
전전
##ip
꼬투리
치루
묻혀
우려먹
##art
느껴진다
##다듬
##요시
정숙
삽입
담임
압승
생명력
들러
용품
보여서
가마
삼촌
할땐
부흥
독립운동가
들어라
##버렸
거미
공표
그러게
다녀오
공방
놔야
역학
슬로
결함
##ro
세미
탈세
달라진
산다고
말살
몰라라
##교통
외국어
옮긴
권장
견딜
##단다
타국
numberkg
선한
구형
치료제
파면
망가지
흘러나
통찰
필터
주방
UN
서슴
무례
흰색
##버그
자작
비비
고조
무마
오너
남로
간직
쓰리
귀엽
랑께
졸개
연세대
지뢰
##러드
특전
속아
양승
일안
판치
프란
놔라
영세
양키
##AR
MC
기미
관계없이
잔재
차마
##구치
헤어지
사쿠라
라우
몰라요
우세
라고요
혹시나
##키아
부탁드
모자랄
유진
하반
노동당
가산
쓰레기통
브루
클래식
외계인
쓴다고
드라이브
걸어서
품목
성조
세입
무제
##TS
물결
이산
동창
감축
##어스
##임자
추리
홍수
여주
호응
병우
서장
탐색
요괴
플라스틱
쉬워
미약
세수
제왕
후원금
재직
초토
한도
빠져서
디언
내세워
막론
볼일
후방
일찍이
##바이트
우두머리
쳐들어
화상
접어들
영부인
##러워
##나니
가지가지
번쩍
남경
뭘로
교섭
정점
##고속
케어
뜬금없이
묵묵히
마음껏
세례
불빛
직위
촉새
애요
격추
전당
판매량
노회
##놀이
캐스팅
하마
원치
김문
팬덤
대대로
숙제
비위
왕창
무작정
소명
계약서
NC
반장
##테크
원활
패권
프랜
차장
차명진
어지간히
판단력
매스
이어져
동무
이윽
강물
회차
##유예
급증
아아
어머님
닌자
선도
쥐새끼
위축
랭킹
퀄리티
임차
제대
사각
라이더
사설
액수
장하
모스크
코믹스
부끄러워
저널
동인
귀환
준거
힘없
어떤지
스티브
물어야
번방
어휘
필름
보냅
처넣
싸구려
게스트
농락
열기
##하장
이쁜
침범
붙들
조립
고마운
이윽고
질렀
전송
기뻐하
돌릴
심했
다이어트
##먼트
놓인
승자
타도
치졸
기병
단서
동북아
구려
열려
재학
화산
둔다
사토
지어
여파
##AN
배분
분수
##킨다
쓰러져
스물
##산부
외노
신데
악한
병들
부지런
해적
가축
동아리
필사
몸매
다중
아휴
캐리
신가
악당
이병
대중교통
용산
청약
나랏돈
죄지
해온
귀여운
굽신
부회장
떡검
본명
변환
가부
품위
상단
빠져나
##공격
준다면
##각시
어긋나
본체
라든가
버스터
기꺼
에이즈
설화
결여
Re
그해
저분
상의
##머스
붙였
우대
넘어지
공과
일으킬
가식
외고
배민
영지
이루어진다
BG
시가
회식
설리
뭡니까
줘요
툭하면
꾸며
노가다
##뉴스
두목
각도
개이
명나라
까라
강용
고찰
는지라
비대
짜르
띄워
##직원
현충
플랜
돈벌이
직책
암울
군복
정중
미미
망각
대꾸
다녀온
올바르
스러울
VS
접시
테이프
관절
내려갔
인들
중기
넷째
조두
KB
팬티
##tt
상속세
제작자
입금
끼어들
일환
인접
하버
문신
볼트
구로
가입자
상류
##igh
##LC
마음속
임마
문희
착수
컨설
함수
kt
수렴
볼모
소행
적절히
기한
바빠
한인
국사
복용
##슈타인
##돌이
불렸
날렸
채소
대명
법령
용량
캘리
##일드
가전
예견
까마
해운
대들
교복
들린다
베를
주유
희미
지상파
##먼스
전담
아르헨
왠만
크림
적반
풍자
호르몬
센스
외로
강릉
##유키
행방
받들
##와이
절단
내려온
계셨
아이스
학점
본보기
결집
로즈
부제
피고인
실린
까이
맛보
현존
국산화
밀도
##lear
##멋대로
더러워
병행
발리
난다고
을려
탄소
##티아
문건
##베트
절약
연산
자주국
아르헨티나
마리오
섬나라
챙피
수반
신음
물류
대위
지나간
칼리
항일
치욕
기침
누이
손녀
수필
에어컨
마늘
털어놓
배워야
SP
입찰
똥줄
시녀
침착
벌벌
블라
발발
##ist
대요
##지마
대담
정자
로워
재판부
땜시
유한
악법
추위
포르투갈
보드
##꼬박
##패스
트레이드
꼬박꼬박
##출산
상환
배척
경원
어스
남북한
거시기
그런다고
그름
타운
청사
루스
자초
가면라이더
무심
##도리
처절
꼴리
명제
거실
jtbc
이방
타고난
끝난다
슈트
웹툰
평안
깽판
미인
섬유
이브
PR
김건
원로
일족
걸림
반대편
적반하장
기꺼이
왼손
세속
WHO
나열
어버
##소통
속내
태그
##차례
일화
인조
걸까요
미라
의사소통
설레발
섞인
매너
부칸
헤쳐
명백히
체중
##십니까
꼭두각시
둬라
선거구
자루
유료
내성
속셈
라지
사교육
배워라
퍼붓
우체국
쿠키
장거리
학사
짤라
애라
그로
적시
승무원
콩밥
경직
발레
리오
일리
오페라
경선
무얼
일차
##문화
아르바이트
진이
스코어
눈먼
##바라
성기
모토
취했
머물러
자랐
큰소리
한답시고
트라
이세
스타크
동요
##부르크
조져
익명
개그맨
거스
##보잡
가릴
##시간
조두순
새우
DJ
사범
허접
설탕
독선
선원
총질
정글
악역
울려
저술
반역자
##커스
이노
노래방
신랑
낯짝
옵니다
바뀐다
연일
콜라보
이기주의
or
쓸모없
진로
디자이너
나미
미필
찰스
천문학
대역
셔요
재판관
자주국방
미워하
중형
거둬
학업
마산
이간
산출
수여
쓰인
원대
블레이드
포토
투구
저소득층
절로
듣보잡
노동력
주무
참담
이별
택하
철판
마실
알아내
단가
내려왔
하물
일전
정치가
NPC
저쩌
공명
희한
너거들
개망신
SS
외상
고함
정차
저출산
clear
하하
북송
리메
불황
유무
##단체
산물
댕기
기단
##AS
어려서
지으며
건의
성사
외곽
IP
빨간색
여적
수사관
열악
치즈
##부림
파일럿
친분
산맥
우릴
##러진
기웃
중력
카트
##라면
휴지
수월
인플
칭호
요코
루머
##적으로
느라고
호가
해금
드러운
##겨서
온다고
##저래
겨냥
##사랑
마땅히
등산
퍼포
세울
창립
절친
제물
주저앉
지나갔
플레
버려서
퍼포먼스
광역시
뿌린
장단
말년
안일
극한
clearing
심신
경인
스텔
조아
이나라
최다
무시무시
호박
엔지
용지
한몫
##경기
포스터
에르
강용석
##서리
연예계
파이널
US
역풍
빼놓
헤매
나기
마찰
주교
바울
토크
갈래
쓸어버
##뜨릴
노스
No
공백
달려드
레스
마드
진다는
독립군
##깨비
이뤄지
보람
고성
변호인
버젓
삼국지
악몽
뱃속
마주치
미숙
승려
퍼졌
선봉
빈번
밑바닥
속해
당도
바늘
해야함
충당
낮춰
당뇨
신봉
뺏기
시범
##때로
하물며
목회
잠자리
시마
식탁
우산
미워
용역
##키지
본색
도미
때렸
정사
지문
헤아
혈관
속상
프랭
무라
막판
##저스
자막
키리
터무니
전액
끌어들이
기력
미끄
수용소
보수당
##ab
크레
통행
펼쳤
폄하
글쓰기
자력
대여
색상
무너진
재선
생각없이
대성
악행
##라미
곡선
둔갑
느린
스터
과격
뒤쪽
이어진
도태
도약
##듭니다
이북
자백
##실히
바쳐
##셔서
쇼핑몰
죄수
##소연
의거
##불위
저년
장부
내포
물어봐
알레
무슬
##지능
굶주
국수호
하태
이른다
인공지능
앉히
모양새
해져서
때린
태세
유성
데로
미용
그따위
보훈
관제
CP
맥스
우째
흉기
휩싸
반찬
였음
한다던
을걸
문인
무슬림
나폴레
아산
##est
경과
여라
올려라
상무
창궐
달라질
휴일
글구
달라졌
종사자
워치
할라고
CJ
##고루
사업가
하찮
##립시다
민망
##서니
성욕
할당
토모
기종
구녕
##페이
재혼
올라간다
대입
피스
입양
##걸리
경쟁자
당해도
##고사
건다
대한항공
##준호
크라
체면
##관리
이석
주지
얘길
##김없이
위탁
입당
생존자
유난히
입자
총동원
향수
깡통
생산량
아유
증진
패키지
자중
채팅
플레이오프
내려와라
봉건
흔하
커리어
인문
##ess
차린
이어받
증폭
스탈린
잔혹
막힌
##바리
개수작
동족
##사이
처장
놀이터
상권
어려우
주시
지기
상영
할거
보이스
손톱
공조
기강
음란
표절
타점
겹치
간지
세입자
지난달
한기
헌터
아담
진격
주식회사
가뜩
운반
##수아비
허수아비
민사
##무치
서른
##특별
나폴레옹
재물
으냐
오프라인
알코
햇살
GD
노동조합
##ON
밥상
그랜드
니미
골치
사회악
자립
과하
기장
불공정
징수
처신
들키
##의사
자멸
동결
호황
매달리
폭도
##제품
영수
백날
병실
극소
적성
규탄
부역자
토마
김포
따랐
지녔
나을
성조기
책정
우아
탐험
시련
끝없이
캘리포
작사
한탄
안습
견주
MP
이인영
의병
갈색
내국
냅두
수십억
찾아와
휘하
들어선
카오스
본받
카타
##공사
로스쿨
##징글
무주
장기간
##망이
빈도
여타
였으니
총경
딴소리
발사체
리모
고속도로
성금
지팡이
조이
충청도
##ill
한단다
줄지
드레
연사
AT
안위
여하
달빛
정무
징글징글
캘리포니아
넘겼
책임질
##IN
수평
미학
비씨
손수
뒤질
늘어날
음원
대면
기득권
어둡
발끈
보름
승강장
건대
문어
궁전
자가
살포
김연
실버
증시
기울여
평론가
##릴라
기량
보답
상술
끌어안
아드
사이다
도래
미카
##방송
올라와
본다고
주체사상
실태
김해
중상
나날
들어섰
##포터
후유
외우
탐사
교안
##리그
가뜩이나
부속
받아들였
각인
##현진
달라붙
죽여도
부착
장차
파장
베를린
리메이크
전체주의
보네
당초
집필
해병대
힘입
광대
요법
오지랖
좌지
스티븐
무술
##VP
##다이
##경영
싸잡
판례
##더미
그루
남양
이러다
카더라
유학생
드러냈
지럴
라구요
요지
비굴
그렸
아랑
손발
보안법
춘천
의전
편협
부엉이
귀중
자이언
틀림없이
패밀리
바나
토르
카피
모터
##게이
후안무치
스틸
예기
표창원
헤르
다가왔
김민
충남
한대
책임져야
오랑
스폰
할리
##겠다
당기
한발
아쉬움
얼만
중심지
니콜
양승태
구르
열광
복판
마일
외제
내몰
남미
골고루
한양
집행유예
누명
아티스트
당부
도청
오른손
일컫
차익
중위
수확
가둬
두드리
유병
연도
이온
막걸리
찔리
절제
아사히
장난질
선거철
##납니다
벼락
견뎌
히스
얻어맞
알라
In
흡혈
덤벼
알코올
다이아몬드
에디
조문
간과
브리핑
전년
숙련
선교사
비들
아리스
한다면서
빼앗기
미네
##FC
아파서
물리치
네이
반론
정해져
분란
루이스
간질
묻히
법규
지쳐
얘긴
과대
내신
또래
유익
이면
참수
임용
고액
흠집
발작
부산대
변이
딱지
물려주
시조
월요일
삼청
토록
메세지
안드로이드
싸워야
부턴
경위
##idnumber
부탁드립니다
화내
수레
통곡
터뜨리
태종
뜻밖
##셔널
##학규
고스톱
드린
국물
데려오
진도
후속작
들여다
비주
횡포
조연
숙주
이케
수갑
지오
발간
옥수수
벌려
대갈통
안목
모함
만기
삼진
엘리자
다기
발판
임하
들려왔
##꾸라지
팔린
프로세스
유승준
정문
세여
절정
벨트
튀어나오
파르
펀치
적발
유서
할망
무성
진급
시어머니
##mf
손학규
건방
김여
당파
첫날
징징대
열등감
잠복
때때로
##AT
##평가
어부
인민군
인대
##단지
안민석
나아지
실험실
드레스
움켜
##버린
내려서
실화
디즈
##ate
반듯
가맹
집계
경상북도
일각
괴수
어벙이
패시브
간담
성직자
이메
따라잡
스쳐
깨끗이
이루어질
##ard
매진
국한
##테이션
소리쳤
승용차
오키
꺼냈
의인
제네
당근
직관
태클
시너지
국채
즈그
남침
자나
부적절
재원
아우성
손쉽
조회
스리
SM
쟁점
유망
고졸
재건축
알렸
동거
인치
똑똑히
남이
기이
라던데
스무
무법
어필
세련
양손
허술
엔지니어
쿠팡
박살나
미츠
빈부
국내외
브레
니시
뭉개
동문
검새
빙신
##원수
집권당
오바마
수십만
계십니다
말레이
##미야
여정
경협
##신문
디스플레이
저그
염색
완수
해냈
물갈이
레지
추후
합체
신탁
터트
이준석
대마도
데이비드
편찬
중순
치켜
마는
보인다고
실효
셔도
평타
한통
통틀
안함
선다
페미니스트
망조
##무새
등록금
울부
##펙트
임산부
총사
미당
나불거리
광산
##키스탄
동성애자
신축
해지
공대
신재민
전례
두려운
거릴
##테면
떠넘기
신조
로움
보증금
##렌드
공손
##도르
기업가
간간
##크리트
쌓인
착오
가파
해변
내다보
##비어
##히로
우매
수주
한테서
다듬
현기
수량
##ine
배워서
바그
부메
광명
아바타
덧붙였
스턴
뒤덮
불참
이이
렌즈
압축
중부
넘어간
갱신
황후
##사키
서정
일진
부메랑
으실
특별법
밀집
유니폼
생색내
거려
##ang
체류
머지않
지치
두껍
##프리카
차츰
비상식
하태경
##가내
좌지우지
##돌아
##ctv
놀러
살인범
그지없
고위직
##세기
##ie
와대
모모
백배
종양
과언
세라
위엄
물리학
##부모
유급
평일
퇴직금
태자
좀처럼
콘크리트
심부
탄약
여호
윈도우
##pp
존속
연휴
##업자득
모로
장애물
희귀
자업자득
비꼬
기수
냐구
훔치
소라
입문
책임져
킬로미터
##로디
이토록
##블릿
일회
놔서
무거
무진
생체
의논
내쉬
##자식
이를테면
마이너
나온다고
구했
치솟
최상위
상임
노회찬
줄려고
안동
던데요
기조
브라운
수류
그럭
경찰청
김병
약사
항소
에고
사임
com
힘쓰
내려다보
학계
책임감
한통속
보호법
번식
예예
탱커
김문수
요동
서부터
타마
##니즘
씌워
힘써
야외
트랜스
니스
주술
디젤
한복
샌드
커졌
참패
여관
모자이크
함락
실책
강호
휴게
살아라
군산
이터
카리스
겁먹
무소불위
##가미
정형
법위
회귀
셀프
밥통
올려야
조수
##ell
회화
관심사
쿨타임
피트
##ath
베리
리처
활기
##if
계엄령
바친
##소문
탄도
멍멍이
탄력
이간질
안양
초인
장남
경호원
역활
분탕
인아
놀음
지날
태아
스위치
##저럭
속옷
수하
개발자
동계
김명
핵폭탄
노트북
청아
어택
청취
추출
이만큼
해답
게으
수억
어땠
찌푸
통닭
열망
빅토
##토스
오카
시종
수혜
학급
안방
영화제
해피
##스토랑
동학
발걸음
레스토랑
##무실
동향
상생
이제서야
##마리
반칙
강압
초라
완공
진흙
금요일
환불
발길
사흘
##회의
세이브
풍선
노려보
로다
농산물
서점
죄악
숙박
창당
살인죄
드론
통일부
다정
##일기
샤워
자책
벌어질
진흥
못한다는
태블릿
능동
다급
망해야
백종
달라진다
칼럼
하단
꼭대기
교육대
악명
타케
상부
스톰
환경부
반증
태권
험한
이메일
법학
발톱
비춰
일제히
기고
내린다
##틀랜드
제동
mbc
끄덕였
아따
스프링
마피아
뛰쳐
소인
을래
사리사
습성
청중
인위
도리어
코끼리
공용
자분
검경
수류탄
마마
넘긴
뒷전
이질
번갈
만든다고
생사
벌여
제인
적이
팔려
##AM
작금
태반
개장
버젓이
정상인
김건모
유체
본다는
유유
언더
라마
FIFA
협의회
압류
포르노
일격
옥상
커맨
##리학
and
Al
년경
소닉
총재
테일
강구
찌그러져
교감
GM
중장
모스크바
기묘
구치
쫓아내
##타운
풍년
실형
초조
부릴
되돌려
짝사랑
개명
로맨스
##용지
고속도
전한
도사
동구
래도
그럭저럭
는커녕
덤비
도깨비
원금
져야지
##OR
복권
문희상
당해야
수험
쿠로
헐뜯
레이드
줄곧
울부짖
하와이
경성
봉기
파편
스트리
카풀
세워야
우러
니나
지름길
천문
태조
타이거
모르쇠
휴직
걸치
공론
허세
EU
##에이
서원
기회주의자
대두
##수리
구민
운동가
창단
다라
전라남도
##장구
##연대
형법
총괄
재해
퇴장
달걀
나온다는
손길
자취
하다
연명
탄탄
도마
걷어
다룰
텐데요
무기고
어울려
인양
##버둥
본작
혼동
저랬
사라져라
##리안
만연
추론
발등
묵시
레닌
##IC
위쪽
흘렀
어여
마음먹
##진우
한눈
보료
월등
문의
시라
##ok
매사
나부랭이
명상
전생
##러져
방한
스페이스
녹화
돌린
경멸
##위대
밀어붙이
보트
##ack
소파
후임
노친
쓸쓸
손꼽
사무총장
모친
후일
떼쓰
버섯
상응
전념
네여
받아
##질랜드
발버둥
상종
뉴질랜드
등재
거니와
말없이
갈까
파인
##프리
##줄기
의정부
내려라
##짜기
뜯어
깨우
나와라
선택지
Sh
거느리
완결
사스
노란색
변국
외양
공갈
루타
김두
초콜
표상
앨리스
트루
미혼
##OC
속삭
우르르
파운드
cctv
려구
끊이
숨쉬
국제법
토하
중증
잡아내
스미스
성비
짤리
이마트
##투스
매직
니코
넘길
곧장
에로
하급
권하
중권
깨달음
겹쳐
거룩
르노
강탈
쓴다는
넘버
대부
노하우
##소니
인방
피땀
개종
##다임
사이코패스
감행
가리킨다
아세요
동명
패러다임
다고요
해서라도
치아
만져
유태
평준
그쳤
유격
이토
만점
문체
뛰어내
교토
페르시아
세인트
이어질
##올라
배반
알아주
소아
##웃음
영사
난감
망정
사리사욕
보험금
반문
장외
이래저래
도출
반갑
사노
생각난다
친환경
베타
드셨
의협
여수
현수
딸리
스와
##덩어리
터진다
월북
성범죄자
이소
징병
외화
퇴사
두세
월남
취할
무도
까보
자의
단골
타로
논평
개천
차려야
이어진다
노년
헤비
재테크
##AC
박찬
##셔야
소란
##다물
이분법
##자키
방정
숙명
리가
개업
리뷰
numberM
관용
온전히
방화
다녀라
몰표
청정기
잊어버리
##구름
거슬러
아테네
##러미
붙여서
두어
기저
박차
여친
쌍방
마오
##레일
##래미
인디언
별장
사수
홍영
잠실
정우
발기
봉급
상표
앵무새
주축
##ttp
더미
사재기
제지
거래소
잠입
기온
호화
대본
증말
스모
뜯어먹
메이커
벌떡
시내버스
건수
희생양
커스
극소수
리라는
어그
알아들
Sp
엄지
슈팅
간담회
농협
백색
다케
그깟
빚내
현안
이상황
집요
대군
원료
빨래
외교관
가져와
대란
리온
시킨다는
##BM
핀란드
무명
울타리
푸르
##티스
외침
카리스마
곤충
신났
사비
직인
제트
두꺼운
자연히
저따위
뒈지
처사
뚫린
미술관
대일
인심
##특별시
오피스
쉬쉬
따라야
투표용지
깝치
처맞
억대
유배
정산
매트
##셔츠
마우스
마사오
디즈니
해줘도
##팩트
흘렸
사채
환기
발자국
경부
개박
야단
도요타
유촉
##이어
레슬
##ore
마린
신원
##너무
정전
자정
다른가
육상
세븐
루터
고귀
가르쳤
암컷
정쟁
서울특별시
##바르
표방
조종사
전쟁터
사다리
발탁
아웅
이스트
파이팅
찾아갔
##all
자회사
직종
떠받
징그
##높이
극악
와우
익스
속담
매달려
다친
싸질러
##마음
북방
수양
하구
사파
우주선
합쳐서
형편없
성품
최성
잡종
경영진
방호
엎드려
놀랄
성벽
포수
##손손
몰입
토니
미꾸라지
너무너무
스포일러
##ue
마키
##천하
CCTV
Snumber
나노
##께끼
논점
수수께끼
사투리
죗값
지탱
하반기
섬세
##업소
메이드
유이
검찰청
##르타
게재
음모론
##스카
하버드
정예
왕후
수탈
##줘야
내걸
금고
방심
빌드
##메이
목적지
수순
여포
친밀
경기력
농도
보행
포탑
에리
마쳤
물러서
심재
밀어내
리처드
무너졌
##통령
따라오
상도
하룻
벙어리
분화
TK
날린
##ts
반말
도우미
정동
두리
리라고
##TE
든데
난장
딴지
루카
##혁명
독일군
천상
검색어
국외
##사전
승계
서너
관광지
불태
박해
해수
몸부림
최하
미끼
아즈
나타낸다
근래
이경
보강
온천
중견
첨가
장하성
풍속
역쉬
달아나
점거
시카고
돌려보내
학창
##ers
망나니
안도
마켓
의구
안산
나올까
부러워
파란색
내구
막아내
철새
백종원
입다물
종신
채찍
티나
살살
원산
GDP
상원
이의
집결
자자
뒷돈
패트
사병
내비
발암
양면
르네
건너가
자궁
##교도
지친
보호자
페리
파이프
막힌다
중공업
가히
스며
OEC
과다
신다면
평택
중구
해내
날아오
계열사
무증
중추
카미
의결
나사
보냅니다
면담
키가
능력자
프랜차
##테일
##ep
##모리
오리발
마지
강변
폭넓
따질
닥쳐
부총리
따윈
연패
신동
배불리
작태
기다릴
드럼
##IP
비결
##모니
잔머리
난동
##AL
대피
뱅크
OECD
쪽발이
소나무
민법
노벨상
서문
앵벌이
라든지
직결
충만
##태섭
유쾌
은밀
쥐어
그제야
가늠
주접
LC
페북
##플렉스
생겨났
화석
받쳐
가위
다분
금세
동사무소
DLC
열폭
덴마크
해낼
따를
발의
##ive
웨스트
프랜차이즈
허경영
##나와
눈부
나뉜
신약
숙여
멀리서
육지
탁자
말미암
약혼
패전
발령
발각
##언정
챕터
활력
알맞
제갈량
중원
##IS
선가
고딩
못지
고구
출소
##박스
연안
케인
양주
전동
누드
세리
쇠퇴
선보이
지그
선보였
줄여서
그물
역병
베이비
농가
태어날
질려
시동
##사기
사당
교재
변할
호시
분과
물러가
이국종
경상남도
##클럽
##마다
일부분
##미사
AK
http
낱낱
덧붙여
돌려서
백악
무궁
가급
묶여
액체
한태
손주
속여
이드
바닷가
성급
##벨트
발부
순종
유선
음식물
상이
구구
굳건
버드
##런트
한결같이
짜장면
껍데기
지켜라
밤낮
타이어
행렬
활개
왕족
경감
##드레
열렬
사이클
버거
##세우
안하
치뤄
꿰뚫
수군
내심
조례
끈질
명이
판도
믹스
##기에
시킵
##ho
기어들
수용자
대명사
급진
에릭
김유
numberK
기색
조원진
둬야
완치
##쿠스
이라든가
야권
들인
보직
까마귀
문다
벽돌
##화기
km
대승
실물
통지
소고기
회개
순방
의구심
드신
쳐묵
끄집
할려는
##치산
불순
처우
##규모
스타크래프트
##가시
한게
아부지
해독
움직였
파고들
닭대가리
수차례
변기
얼룩
정신줄
밤중
명함
올린다
로리
따라다니
공황
할라
오디션
수컷
이현
사회생활
조르
쿠바
단련
##ne
가져올
다뤄
경험치
두기
##시효
돌아와서
퇴치
##머님
선지
라야
못한다면
##따리
##our
##즈음
셔야죠
하노
연합뉴스
원동
한건
느려
구워
껴안
imf
먹거리
진단서
신한
카지
##불명
권영
기다려야
토론회
남짓
프로그래
손대
시위대
AC
레인저
잠재력
이광
두르
오렌
노르웨이
특급
알릴
연소
경비원
교포
들여서
크루즈
볼넷
빼내
콜로
치명타
쇼크
AS
민변
쳐내
GS
원화
어딘지
풀이
묘한
왕복
소박
강인
북유럽
##슬라
연타
이라든지
SC
청하
##스크림
아다가
대법원장
수녀
##통제
암만
질주
방구
대서
아팠
이타
써야지
우루
##필드
햇볕
포크
수표
규율
##숨에
##살렘
단숨에
독단
##테리
공소장
한류
무림
무모
든다고
조율
##루살렘
재래
수도원
훈훈
##력자
망설이
합법화
캡틴
바글
삼키
##투사
검거
줄여야
자재
냅둬
우드
찍히
송금
치하
그르
맞물
올인
빨강
당께
싱크
신빙
근심
동호
로이
는구먼
기어나
안쓰럽
초콜릿
요직
가급적
열사
##퍼드
금태섭
범하
보여야
뜨겁
트롯
질까
BGM
국가원수
메이지
놀려
재촉
Fnumber
##시장
찬사
지으
제작사
수호자
문예
심문
쳐야
드라이버
팽창
울프
데드
sk
대리인
##인격
궁지
문주
제휴
소규모
성대
배기
퍼진
쓰러진
읍시다
지낼
착륙
획기
시술
밝혀내
만인
이권
to
건축물
질책
피격
조합원
밝힐
사돈
사육
돌려받
계수
파스
교육자
센트
키워드
보따리
척도
마틴
##ong
도울
##사태
예루살렘
나약
워커
킹크
본진
요번
다나
생겨난
반쪽
미흡
덮어
적법
아치
발효
머무르
야심
불허
야합
북경
DM
여적죄
키즈
계략
김현미
목구멍
서운
급기야
바란
단죄
김부
Bl
당내
뜨거
끌어올
수긍
매출액
배열
갔다온
소시
말레이시아
얻어먹
##라노
##텐도
닌텐도
배수
실증
학벌
하얗
곳간
평판
그래프
이점
객관적으로
일깨
헌데
쌍용
무분
의류
외식
온다는
캐논
앤드
여느
재화
목걸이
비우
통산
소생
##무사
##코인
고등어
단말
난입
몸소
WW
오물
남학생
조서
갈비
자석
##나미
역동
강했
김태우
나스
내쫓
져도
무지하
드려야
예비군
개교
##구역
네오
연승
미시
##못해
상습
양측
작위
교원
##올랐
흑백
진나라
중생
파병
건데요
만성
후유증
피드
아이언
코코
수중
어조
##볶이
국유
외무
원문
처박
한판
미친개
퍼줄
명과
원합니다
로빈
무분별
정은이
가부장
죄질
친근
그리워
안하무
양복
망해도
##거품
외압
신세계
쌍판
래요
복직
소리치
준공
돌아섰
우짜
가래
배설
안성
누른
여진
야채
봉사자
카르텔
부녀
챙길
히메
갔었
발현
구태
면죄
막무
트윗
간장
막무가내
##그머니
챌린
##큐어
안팎
회고
경이
확충
##바탕
특위
어면
이루어져야
직속
이룬다
따른다
슬롯
엄정
야근
##크라테스
스코틀랜드
똥칠
NO
인멸
곽상
따온
검진
드러낸
해줄
조류
학파
여배우
여고
신변
센티
악취
외롭
지껄여
막연
바램
구타
회관
다녀왔
요금제
필립
논다
해경
빼돌리
그래서인지
철없
결전
안감
토마스
기쁜
지른
누워서
순천
가뭄
김형
##징어
들으며
변한다
하룻밤
염원
제제
기라
Th
리타
쪼다
챙겨라
##자드
분대
계약직
Le
하기야
무주택
##ight
역행
빠짐
삽니다
우발
##은색
아플
##속히
응하
제고
남동생
의약
다녀야
떠난다
탁상
투스
세일즈
뱃지
샤오
파시즘
개소
예감
로울
pc
헤라
테라
출혈
##호식
AR
아이구
분비
##워야
포즈
##루션
타율
딸래미
홍영표
전임
쿵쾅
겁박
이제껏
##어붙
##다운
속지
편해
코앞
패망
고분
성문
없앤
본관
김호
프롤
##루미
고안
오스만
정돈
고갈
간행
##스런
산정
논술
다른데
꼽히
동당
넘어선
오렌지
냅시다
비공
바디
개탄스럽
수분
일괄
반중
트윈
꼴찌
충실히
##철도
무너질
단기간
무전
계실
사체
##자루
케이크
방황
찍힌
장편
까대
결핍
포상
상용
자택
킬러
게르
엮이
혹독
소년법
유재석
여행사
자빠져
잔소리
기다려라
낙동
떠서
떡볶이
플라톤
호의호식
체코
종편
마십
독교
우측
겠지
##기구
몰랑
MVP
##그룹
돌봄
농성
인신공격
톡톡
별반
제치
부관
업주
선대
동일시
짝퉁
황태
##누르
##퉁이
강기
##VE
돌아온다
할까봐
실습
안기
어야죠
##av
국교
말세
##지대
##OP
쑥대
위계
##잔치
렉서스
재끼
지크
신흥
우즈
할걸
죽임
등쳐
수강
참신
달했
초토화
눈썹
보유국
투신
##벌리
능숙
상품권
김준
아쿠
##꿈치
철폐
속임
판명
전산
잡아들
애시
고구마
일류
##ik
소변
용의자
손잡이
볼려고
성씨
앞둔
대모
##초리
다다
##특기
스태
기증
대머리
사회학
감격
저명
어설픈
주특기
마포
정진
로라
시뮬
판다
세계인
러시
새로이
복선
훌쩍
걸려도
태연
순찰
라가
감형
끊기
알렉산드
아자
라임
성주
사역
디오
##틀리
가져갔
스폰서
노린
대등
터트리
탐정
LA
집안일
의외로
##멘터리
시네
졌으며
사로잡혀
신뢰도
언스
저마다
레코드
뭉쳐서
오로
기승
##VD
##블로
누군데
더위
어중
특공
아래쪽
개차
들판
때릴
스캔들
분만
국보
색채
##받이
내로
커맨드
매월
증후
트래
따돌
사슴
구상권
사업장
전화기
피라미
천도
그려진
뚱뚱
우에
##는지
낙관
을라
##ind
방언
파격
어따
##블린
법인세
라나
원상
고칠
당사
차후
휘발
국공
그닥
다큐멘터리
공성
시킨다고
경각
오징어
구치소
간파
간식
하소연
세이버
##ity
가야
플래시
문란
요즈음
챙겼
자명
쫒아
트렌드
##감치
거창
실사
영변
크리티
엄밀히
간신배
지평
미제
KO
문양
진핑
윗선
심부름
슬라이
미모
얼어붙
전격
##테리어
스타트
##찌감치
경관
여행자
비트코인
다느니
벨기에
GP
시커
외세
갈아입
받치
정관
여지껏
어뢰
횃불
더운
미화
부도덕
포탄
##BA
일탈
살길
들어온다
했을까
카를
구더기
유부
주파
조짐
방송인
질량
냉동
외래
대남
재임
콘스탄
법제
은신
구조물
못합니다
외전
평민
##ain
들려오
Pr
우왕
센서
끄덕이
##건건
##순환
업로드
사사건건
퍼다
비시
학비
카운트
수인
잔디
종점
단종
##ub
휘청
수식
무작위
몰려들
요령
타선
##인공
부린
에드워드
들으면서
맞춤법
컨설팅
트라이
오랑캐
미키
개꿀
깜빡
미움
금기
st
아이스크림
호전
쿼터
알아볼
신주
당명
후반기
박주
##공항
졌으면
사슬
미녀
변혁
미뤄
포럼
깨물
아케
헬스
파헤치
골짜기
묵인
혼내
파주
한중
모세
부치
적힌
유라
규격
##네임
적립
KIA
경연
재활
##베리아
부딪히
거액
가재
발렌
산타
원만
유보
야쿠
까요
엘리자베스
망해서
미즈
뱀파이어
군기
애당초
지마
유언비어
존나게
분홍
혓바닥
우선시
결재
오영
시한
테니스
둥지
사기업
셔츠
자연스레
음흉
##구장창
이중인격
##스티벌
주구장창
정제
소동
페스티벌
##사스
망해라
고스트
묘하
##검사
청화
내시
##던지
해법
테러리스트
부조리
죽인다
모질
밥맛
할머님
자선
배짱
안하무인
끼친
스치
속마음
려는데
온상
SKT
수뇌
부르주
name
인텔
##se
뭔가요
여성부
Lv
아마존
자구
성실히
순례
셔틀
##은혜
반반
날치기
목줄
정석
라인업
최태
일말
정녕
희안
##부치
선하
선상
HD
스케줄
바나나
이문
결투
진성
세제
##ant
야이
간략
페널
안식
오메
##앙스
주정
이장
##고집
맡겼
상성
임차인
비장
여실히
##카리
서재
시늉
##죽이
악어
박상
월호
가미
갈려고
산지
추궁
살상
기관지
스트라이크
스팀
하원
냉철
미팅
준하
틀어막
##구만
행한
폭스
##per
양정
답글
경의
구마
빌어먹
##사르
지중
빵빵
장가
평정
속인
모텔
우르
피디
동이
모노
절박
애용
애새끼
뉘앙스
눈치채
##코토
내뿜
도려
반가
산화
폐허
열중
스텝
이민자
상납
트롤
핍박
도산
참으
흘린
남산
단교
##베이스
간다면
똥구멍
초상화
아수
만난다
일식집
바스
바이올
오니
파헤쳐
##디스
대지진
예언자
이태원
유흥업소
검술
간곡
증식
OST
연구실
밥값
법사
거역
채취
수신료
선구
##아내리
끓여
망원
구약
경수
꾸짖
오우
경희
An
좌측
세미나
지배자
마블
사교
위배
부숴
허다
떨린다
산림
예리
루나
감면
치과
흩어져
재즈
NH
눈높이
제독
통용
##하마
주어
무어
이진
난사
고상
##부리
육신
맞출
##ID
쑤셔
분통
허탈
채울
##버거
독창
세워진
이법
해부
시그
오산
잠겨
후작
으이구
빌라
아폴
리니
##센스
주군
##카이도
양호
##고래
놨다
파울
가출
빈민
오일
관례
##ry
교만
루수
##지처
관우
젠더
원비
한다더니
못생긴
어니
후술
난다는
와일드
양도세
낙원
갈망
백악관
자숙
겨누
여혐
##베리
매운
##부수
##테랑
사절
만능
토너
민속
##슬쩍
섹시
어두워
여단
투덜
상국
##치아
타다
가네
치를
나랏일
쿠폰
본연
그려져
선례
안면
##진창
수천만
##그레
선천
제끼
세분
쓰러뜨리
블로
꼴값
주니어
속출
헌재
거긴
프랑스어
##마루
낙동강
균열
용접
핏줄
왔다
눈알
아슬
메커
식별
##영향
이은
##양함
끊임없
블러드
새꺄
플래그
엉망진창
연못
점잖
인구수
슬그머니
중첩
평온
살려야
걸림돌
애도
포탈
##맹이
시상식
아네
수성
국제공항
미쓰
긴장감
맡길
##르기
신민
클라우
손아
프레이
##씌우
맡긴
미르
멜로디
일쑤
극성
관철
트인
영수증
참여연대
그릴
조주
스노
##배기
불나
증발
제후
낄낄
곤두
비관
배트맨
포도주
백지
화끈
나눔
수괴
빨치산
##해군
홧팅
찢어지
시원찮
플라이
이래라
형국
김광
아랑곳
발뺌
추월
변론
수산물
재회
자급
방자
조개
회생
##뚜기
영조
광선
빡빡
영생
추대
뺑소니
##천군
담화
빠진다
다발
브래
##당기
요기
FTA
샘플
화신
간당
무안
전파자
망령
하이퍼
성수
가늘
사기극
시일
시노
건설사
방과
##치우
고뇌
상금
토사
##튀기
절도
플리
민영화
WTO
악순환
##널드
거처
교제
문대
여보
##크리
드나들
국세청
화풀이
무자비
작화
냄새나
하드웨어
De
고심
방대
추앙
구급
한걸
##실험
##가짐
불릴
메커니즘
장신
박탈감
뻥튀기
어드
벗기
##가족
괜한
진즉
밀수
열풍
열린다
위헌
파츠
비평가
원한다면
속속
그제서야
신년
무지막
무지막지
왕성
까발려
던가요
까다롭
산악
마드리
자라나
순순
마야
한다니까
생김새
파묻
시댁
수박
현대인
단추
다방
경질
쓰다듬
방조
독일어
유토
비약
파문
세치
수치심
차갑
가나
교화
등극
괴리
##ES
소소
채권자
넘어오
된다며
크리티컬
티베트
노멀
안중근
염증
개짓
Cnumber
사부
제니
페이즈
불출
##게임
릴리
애꿎
구세
정주
국민당
정벌
암기
고비
##ove
막막
코스피
함유
가성
시끄러운
변모
세세
귀속
출제
제각
널렸
넥센
노자
스케일
##지리
논증
육박
판문
마드리드
팔자
순조
튕겨
소중히
정했
##방위
월간
이따금
재일
평행
우겨
신격
관건
전시회
야수
뒤졌
회유
쓰러졌
적나라
견고
어림
인테리어
SD
애원
야망
제비
돌봐
##내미
서인
중성
뎅이
커질
거침
약정
문과
날까
빈약
동점
두부
근절
연구회
난국
유영
내요
선인
심층
궁궐
면죄부
개차반
수건
준표
존슨
교부
유병언
항공모
증후군
면회
애교
보스턴
상반기
제게
상시
박자
만든다
역겨워
도다
에구
자판
소진
카레
로구나
깊숙이
생식
기억나
제멋대로
경각심
힙합
이긴다
첨부
드래프트
루비
동산
공상
##만장
견인
대대손손
가꾸
제스
공소시효
##광이
자괴
좌천
독려
각별
관문
게요
타가
뾰족
비켜
토로
다구요
##들아
수조
집합소
으휴
장구
편곡
가세
보인다는
namenumber
지미
공적
초중
퍼즐
구비
시경
전과자
이라고
선동이
시초
여행객
배움
결탁
할게요
불러야
패닉
##자락
##의정
레일
이러면
##레일리아
멈춘
갈지
치중
매물
퇴보
비워
팔레스
어이구
백두산
칸트
좋아한다
도매
백업
경인선
퀴즈
##나갔
김여정
석고
노고
상대편
고증
요런
터져서
주된
대법관
##스러운
부렸
행각
시들
##키퍼
느닷
기갑
아득
항문
리카
봉지
증권사
등용
스피커
등쳐먹
에도
정대
했다
가신
싸워서
대타
오더
텍사스
계세요
보르
대차
##모스
아집
개떡
햄버거
술잔
남친
핵실험
Knumber
갖가지
조교
일국
임팩트
병장
커넥
후면
국도
##고속도로
열람
라이온
심재철
높일
파손
머슴
일파
즉사
낙마
채무자
계발
백억
참된
더한
오름
추이
급등
돌이켜
이달
외관
침뱉
##MA
리프
피임
염소
하지
##시스코
가지가
기형
낸다고
메디
동양인
마요
경제성장
동물원
소도
차체
##로이
빈틈
심성
BM
내세운
골키퍼
항공모함
이례
틈새
홍대
구독자
마라톤
신의
성모
수모
부호
찬탈
공해
힘듭니다
집중력
김밥
허덕
처묵
철강
프리큐어
##TN
효용
서면
투척
개인주의
빠뜨리
중독자
속임수
피라미드
조별
선방
그리스도교
불쑥
무증상
여행가
안토
꺼려
합창
자본가
운항
진한
숨길
병합
만찬
모종
무스
지로
바쳤
나뉜다
피드백
서포터
어의
장이
직행
보아
드세요
맥도
깃털
앞쪽
자만
법치주의
송이
연세
서독
사춘
어김없이
의례
부딪치
강림
건너편
지만원
##생물
강남구
##둬라
일회용
프로필
퇴원
소양
난폭
한족
반대파
##봐도
반정부
트레이닝
자며
중얼거렸
큐브
도루
매몰
늘어난다
환생
의존도
얼핏
Ar
떠밀
요하
흡혈귀
만한
존스
왔었
일컬
##ld
우뚝
호출
과태
개고기
포고
미치광이
욱일기
키는
진실로
총대
미역
준우
탄창
군함
허브
행군
순순히
초심
바라기
단체장
황폐
여력
일수
지겨워
낙찰
요컨대
참견
정신없
기웃거리
소령
##나리
베인
이회
스탠드
쓰일
어찌하
위급
순전히
이목
##시지가
공시지가
늦추
##오줌
시외
구석구석
사회주의자
교차로
버블
어려운데
숨통
팔레스타인
##제국
느긋
니체
색이
나눠서
##아래
일지라도
교란
오스트레일리아
외로움
평화통일
세팅
없앨
원동력
##마당
회원국
판문점
어쩌다가
앞세우
몸짓
흐려
쫓겨나
미친다
어설프
언뜻
고소득
프로토
수산
지울
##iv
근친
이화
노통
밀가루
##RA
총력
사대주의
##시스트
감춰
허벅
코난
개기
열일
딸랑
양말
물러났
버금
##설수
펼쳐지
재용
캐스터
몸뚱
CG
헷갈리
엄연
구축함
쯔쯔
하층
만료
고운
김승
가오
얽매
타일
종래
DVD
굴뚝
쿠르
##적거리
기왕
이색
수개
유나이
승률
마그
##ark
한다는데
의제
보건복
한다거나
후미
##대표제
리안
양현
Se
갱이
특사
한기총
강세
열흘
출격
공휴
지아
테두리
이부
포섭
모스
쪽팔려서
엔젤
##나르
리터
변장
땅값
항아리
파키스탄
모는
베테랑
국밥
뒤흔
받아들인
SF
솔선
진행자
진수
천체
유나이티
과태료
곡식
한시
잡혀가
낱말
카테
성리학
칼라
뜬다
배역
놓아
때우
앞길
탄환
위시
가디
트리플
##ob
바라볼
시멘트
조커
통치자
양대
##OM
뒷모습
슬퍼하
사춘기
지도층
기일
독수리
##란트
고마움
##쓸이
벌어들
채운
루크
현주
신분증
편집자
보건복지부
로프
울렸
일찌감치
전경
쩔쩔
##레마
조우
상고
똥오줌
부름
올드
리즈
통진
꼬락
보건소
깽깽
가차
증여세
북아
꼬이
하리
무리수
전학
치워라
서글
씨부려
거만
강타
일용
놀아
엑스트라
줄래
되돌리
안다는
충실하
견지
인파
충북
코우
연습생
고질
과부
무색
현자
달려갔
KBSnumber
성관
요미
이대
시요
징그럽
맞붙
프랑크
##나마
모듈
들락
제때
##te
낱낱이
항명
배타
다냐
덜떨어진
나인
버려진
경시
##간첩
모을
##EM
공휴일
그땐
서영
지원자
괴롭힘
AM
경보
##망상
미운
쳐드
무의
끼쳤
비례대표제
낯설
일면
쪽팔린다
##무장
내통
##렁거리
싹쓸이
굽히
분식
유미
증원
발가락
##능력
예뻐
곰곰
놨는데
호주머니
##사실
다자
아리스토
타나
대구시
자괴감
보호막
이성계
워터
유모
둥근
정장
sh
기업체
벼랑
삽시다
배신감
무릅
기대감
히나
석상
트릭
##조심
김세
폐해
##하르트
해봐도
##상스
전기세
어찌나
세심
훈계
퇴각
실례
하부
##지부지
었잖
찬란
흐지부지
더럽히
열거
드러날
사명감
데기
최면
호프
##둘기
적중
##박질
뜯어내
KBO
놓이
두말
쫓기
임직원
찌질이
날카롭
발해
폭포
##OL
데이터베이스
끼친다
봉준호
푸틴
똥통
재팬
폭격기
학생회
누렸
로렌
효소
국방비
조동
피워
이석기
바랐
울화
돋보이
기막
길가
이끈
Vnumber
유고
탈환
변증
기울였
격하
불러일으키
쟁취
깨졌
까다로운
과오
인문학
챙긴
이양
##위원
카자
좋아할
버터
갈아타
길바닥
달랑
침실
주유소
재미없
이송
찾아다니
난장판
니아
과외
삐뚤
개칭
UE
##ud
FM
미쳐서
만하
옮길
시력
요렇게
##페이스
참회
저해
충견
한수
전라북도
##클리
도쿠
전업
탐지
해버
타수
개정안
유치원생
느껴질
송파
아리아
광물
궁민
소액
단언
여겨진다
창시
##바글
찰나
율법
소크라테스
캡쳐
텅텅
어긴
멍하니
애시당초
재기
##Bnumber
조그마
페어
저버리
여태껏
르네상스
모처럼
##시계
왕래
명중률
낙제
엘라
스파이더
창구
몰상식
하프
대낮
##나물
아니한
다가와
토양
권위주의
나아갈
비오
박용
주포
도살
문무
배차
지질
YG
개구
영국인
금발
장만
바글바글
여간
그러니깐
을껄
상소
의료인
뒤섞
재상
양해
힘껏
##클린
악영향
배부르
가가
테타
토너먼트
##외과
늘릴
안건
머물렀
대열
여편
연차
적임자
성과급
중재자
우방국
아수라
십자군
할애
반짝이
면역력
외양간
##들리
밝혀진다
불복
통할
스태프
##증권
상냥
동독
여편네
잡힐
##런지
##저우
가닥
빼앗긴
에반
입성
기념관
상회
캐시
욕했
##들인
출발점
퍼스트
훤히
송구
##뱅이
차근
순교
고국
한껏
유추
대니
불펜
구동
스트리트
불우
기획사
그럴듯
원유
사족
달라서
왜국
대검
꼼꼼히
풀린
족보
징징거리
여하튼
김남
성원
그라운드
떠도
넘어간다
영성
노령
맘껏
초록색
##하이
배구
해본다
꾸려
하등
##보라
##깁니다
OS
다운로드
바야
불어넣
카리
개원
##바퀴
지나갈
##두고
강수
CN
피카
어버이
여길
분탕질
대나무
국방력
젊음
강서
체온
빅뱅
매기
기어나오
미덕
숭고
시오
타석
다더라
무더기
캐치
귀순
잭슨
다가올
열심
권영진
엄두
##겨운
들릴
한일
속히
원판
##상가
속죄
도왔
강등
맞먹
바칠
솟아
명동
속일
과천
JR
김선
널려
보루
위정
벙커
카마
프레스
사무관
절규
골프장
메리트
충청남도
치이
패자
번거
##니발
##변이
국영
마물
이오
ch
옆구리
청동
크리스탈
휘둘러
책임져라
서클
던질
돌연변이
나무라
##말라
원격
형수
경제학자
프로이트
허벅지
일절
분개
연합회
##부대
헛발
유은혜
지검
충신
##필더
아니야
코스닥
미드필더
동감
로열
파출
지선
내륙
태산
가맹점
디지몬
눌렀
드로
취해서
그러고
그리움
웨이브
덩달
어원
죽여라
모던
토마토
##차림
강경화
소홀히
##차기
제소
유목
상전
흐트
사야
느니라
##셀러
내미
현미
CPU
비주얼
##위치
포교
막부
##거진
수비수
줄거리
직감
카츠
징벌
장보
의정
화기
마가
약소
손익
서신
호스
입법부
스텔스
내고
차용
##미사일
충성심
테스
##창호
줄어든다
엿보
##둥절
TH
연연
일그러
타르
될까봐
실지
흐른
수뇌부
지중해
무혐
##에나
본심
어리둥절
공교육
조형
의기
주당
타파
화약
쫓아가
아키라
결렬
##EN
다잖아
황실
조직원
희열
두고
붙일
입가
혼혈
이글
초고
돌이킬
긴밀
승승
##ast
##국적
일기장
과감히
창가
추태
힘겹
항모
오거
나자
수료
클랜
김의
지폐
EBS
제우스
체인지
척추
리조
잘나
로얄
매니아
샤이
##텔레스
위증
이뻐
필두
세에
테레
진열
##ly
고하
##리칸
##마르
생산자
정신력
포터
두고두고
하천
리플
체자
가산점
초원
##쿠라
짝짝
##ge
대주주
흉악범
구장
소심
거물
군자
열도
법조인
본당
se
분실
YTN
머금
양지
카지노
확연히
##내기
##자재
밝혀질
벚꽃
운수
파급
하기사
외할
컨디션
소탕
응급실
베일
은유
치렀
살펴볼
갇힌
장애인
저조
유년
한진
따님
누스
미주
입안
아리스토텔레스
몰려오
몽고
알렉스
게릴라
고이
전해졌
안타까워
큰소리치
헤엄
꽁꽁
시크
월말
명언
내놔라
경청
쇄신
고의로
빙자
금연
어당
히토
물정
국과
은근슬쩍
극찬
##IT
똥고집
푸하하
SU
중화민국
핸들
부르주아
멸시
먹칠
연금술
히어로즈
개보
어느덧
반부
구린내
아인슈타인
터득
제보자
머뭇
박성
들려주
클린턴
막아
드니
잘생긴
몸집
##을지도
뒤따라
마쓰
부원
세워서
잖니
배드
민첩
단연
소감
살펴본
월경
창간
됐었
##방망이
돼지고기
고야
섭섭
체격
노화
윗대
절실히
강령
단발
전기차
월급쟁이
토요
##one
유예
행실
활보
마취
비지
함성
##대사
결실
영화배우
최전
한문
사무라이
요리사
시끄러
동강
보라색
해전
오보
보여요
스가
괴상
가르친
독제
나뭇가지
믿기
##비치
선처
##실록
미우
지발
신속히
갈아엎
다릅니다
좋아했
약품
자생
가도
인피
하루카
##age
베스
##벼락
공문
미러
무서웠
걸요
이롭
알렉산더
화랑
구질
레즈
암것
영위
##ff
비둘기
만진
##자와
제단
고쳐야
승점
조양
자가용
탈피
음양
재질
##승부
그럴수록
일본식
바우
선풍
질타
청계
뒤따
장갑차
##달리
##테이너
토의
아실
##체어
중량
판서
##덕지
편승
풍습
열강
UEFA
급속히
홈즈
뿐이
오락가락
##막이
구애
논할
외친
호흡기
부지런히
입체
조로
득세
아이큐
문지
##프란
라이언
친화
런지
여겨졌
수상자
증기
철퇴
마사지
변절
##무늬
주파수
당선자
결속
그럴싸
이용수
루마
암살자
갈려
농지
아츠
요거
##체스터
손짓
티셔츠
튀기
멧돼지
십상
멱살
들끓
카네
악덕
작별
그럴까
이성윤
You
공교
을려면
사상자
단말기
넓히
신아
수배
소국
연달
왕가
휠체어
티스
풍토
끝냈
그니
잘려
블랙홀
동대문
Be
장대
영화관
부화
과반수
적금
##카이
즐겼
라이플
구매자
단거리
신병
그리스도인
원피스
쟎아
가만있
대물
러스
탄다
어치
십쇼
##갔다
##폭력
장안
통찰력
질리
누님
##DA
김윤
포스코
자이언츠
소이다
아까워
딜링
이중성
엊그
토미
디시
섭외
주휴
개관
레임
##효과
놀림
됐으니
기독교인
도망갈
지켜봐야
속초
도도
목욕탕
괴로움
간간히
날아다니
관공
초간
비만
원통
마구잡이
자결
춘추
보위
정치색
독립투사
정보원
겠죠
쫄리
서두르
커져
Bnumber
오디오
소용돌이
문맥
싸늘
영등
라틴어
WWE
시뮬레이션
##불호
볼까요
당함
호불호
금지법
##장수
불출마
멘토
한성
느슨
무릅쓰
터뜨렸
루피
노바
상수
대패
##제이
반란군
강간범
혼수
권세
벅스
호적
치른
나주
메시
엔드
코카
만천하
왔다갔다
초미
참혹
야마토
갈라지
강박
택했
무지개
닉네임
##에스
흉노
오지마
추해
출자
장판
커진
노아
추접
뽑아내
저래도
레온
심기
데몬
떨쳐
##니티
개당
기정
산재
워드
영탁
독보
테르
순리
어수
제조사
개연
타지
선수단
홍익
예우
무정부
누락
뽑히
해머
##다녔
수락
차질
연민
치닫
유관
자구요
박종
못한다고
아닐지
단국
노이
연회
쏘아
잠식
김미
음향
시간대
상세히
구한말
서경
에버
쭈욱
천성
합친
##UT
망원경
함량
넓혀
서북
가락
누설
오케스트라
애착
내공
미동
거쳐서
##더니즘
죄목
능지처
순응
후드
강북
데카
나이다
야죠
자서
헬리
얽혀
##갈기
강동
갈취
습니
프랭크
하하하
살아오
투여
티아
평면
저작물
꼬시
간병
묵살
으려나
망가뜨리
레임덕
##니스탄
##조각
##무진
내려앉
꼬락서니
발주
손흥
기다린다
인내심
##차별
비밀리
머리통
의석수
공격수
주진우
##블리
천자
라그
아세
살라
갈릴
찍혀
게을
성태
에프
총무
내야
나올지
마져
훔친
음악가
노동부
풀렸
시호
부여받
멀쩡히
휘발유
끝낼
무턱
유수
방귀
갔다오
핵미사일
기껏해야
##신저
방사선
순공
아들딸
##레타
##코스
교향
꿀꺽
특권층
은총
패악
##리히
로크
현수막
능지처참
남동
페널티
림종
깨져도
화두
반경
브라이언
순이익
##플러
##코트
##강도
할리우드
최강욱
데스크
명장
백과
덕목
면세
중얼거리
손흥민
리틀
대교
재차
워리어
스테이션
정연
로군
가까웠
먼가
PP
특색
괴로워
구시대
뿌듯
이건희
납세
연행
면전
##ood
##무게
도망간
##ass
고영
궤멸
나츠
모라
올스타
항우
넘나
선우
바닷물
##에트
울분
시온
몹쓸
간통
특례
멈출
팽팽
퍼트린
마계
전단
정몽
다스려야
송도
##부동
마하
에티
몸무게
캄보
밥줄
함박
면도
스핀
빌빌
수거
노역
급속도
##서도
알려야
성균
##소스
가망
주임
쓸어버리
영공
##날드
부득
차등
재산세
포획
꿈틀
##유산
주변인
프리미어
진천
새겨진
난도
사우스
개웃
비나
##미아
살린
워킹
메트로
여호와
왕권
냐고요
체내
유재수
기어이
두드러지
김주
오른팔
느닷없이
일장
독한
은커녕
콤비
남방
막혔
파벌
CS
변종
돈다
우치
프라임
굴러가
국판
언젠데
##티노
##지심
이바지
징조
뚫리
##체류
빈다
가르칠
##세서
##레이크
간디
둥글
천민
승승장구
꾀하
중전
채웠
당위
분쇄
##수범
스펠
어울린다
성균관
양분
두께
선후
구덩이
풍성
노마
키를
##end
통틀어
버럭
불법체류
수족
다국적
무참
술수
피신
간편
북극
애썼
비상사태
##렐라
빠짐없이
단도
깔깔
꾸리
##uc
이철
폭언
재대로
눈뜨
약관
가까스로
유리창
투하
직계
건달
독성
손질
급행
떵떵
모국
헌정
나쁨
바랬
융통
신물
언데
챌린지
프론
##전쟁
제리
트릴
래퍼
공생
사정거리
뒤쳐
헤겔
심야
한바탕
만년
특별시
구국
문젠
미신
암묵
함경
듀오
위자
##분자
더러워서
야구장
사니
다이빙
스윙
무임
강가
온화
왤케
##튿날
입김
##픕니다
무제한
마음가짐
경향신문
상류층
노랑
택한
튀어나온
##과점
선입
싸인
다원
발산
필기
세연
시다
왕건
친숙
영재
사려
드롭
##man
오키나와
일주
안재
경심
학설
당뇨병
당혹
노파
미남
버들
스톱
용자
했으므로
무수히
잠복기
모여들
식용
미분
이튿날
동그
만회
힘차
욕한
기상청
풀려나
대적
항암
포화
떠오른다
##나도
굴려
차세대
거둘
허영
추진력
석가
돼도
으르
발원지
단두
##글라스
권익
옷차림
나니
롤러
단번에
환하
이뤄진
파국
솔선수범
시베리아
석기
그자
되새
황사
##타르
양질
손아귀
연기자
선뜻
으란
루프
라즈
발하
##대고
욕보이
유니크
빅토리아
진위
불태우
근거리
신다고
##일비
딜레이
못살
어젯
나타낸
조아리
두드러기
##라이나
세간
팬텀
씁니다
마흔
추행
##바른
재계
어젯밤
목재
만류
여운
원서
와이파이
바기
자지
상어
완벽히
기동성
그랜
밀착
저당
너도
옥순
시모
빽빽
EP
조부
기와
서지
환산
주디
He
바비
로보
밀어붙
##워프
해놨
고블린
부릅
세조
Cl
였으므로
현저
카시
펼쳐진
산수
암것도
사생
이펙트
처했
점진
스즈
발바닥
별것
##하시
보궐
정청
지닌다
골통
비축
승패
상경
초계
움직인다
어벤
되려
해악
나와요
오피스텔
쫒겨
유화
비법
딸내미
타이탄
갑작스럽
홀리
링컨
##거려
소작
사상가
무실
콩고
##이동
몰린
원년
CF
남인
##의회
##르노
##연합
의약품
캄보디아
커넥션
까페
선거전
비벼
맹신
는다며
일인
스티커
광부
예절
접할
##댕이
예보
공채
엣지
커밍
##떨어지
##절절
틀려
마십시오
탄식
구구절절
걸어갔
얼빠진
##자치
동년
힐링
열릴
디바
성의
부대원
로선
무의미
##람회
아메리칸
납작
효도
불씨
상체
엊그제
플루
국지
##마침
피닉스
구차
조제
모병
베드
공양
방정식
줄인
사대부
돌변
카이사르
유토피아
##당당
엿볼
인플레이션
가족사
##프란시스코
우지
땅바닥
샌프란시스코
##으리
##뿌리
모략
지근
휘두
잠정
만사
카인
SE
시킬려고
길목
혜성
칠레
크레이
부귀
매스컴
귀결
때마침
##날두
##ock
버틴
한데요
숙종
뒤진
##와라
호날두
##AP
##코프
Com
달려오
종부
국민학교
수요일
작단
본의
재량
별일
쿠스
내셔널
뒷배
삼류
지탄
담장
사문서
야겠다
갑작스런
밧줄
해병
Tnumber
문파
으니라고
김재규
출입국
세밀
데요
다가갔
섬뜩
저감
청각
향해서
국부
젤리
정열
삼척
모성
간경
딸아이
중용
블럭
전법
무서움
ww
허약
##차근
이기심
차근차근
쥐어짜
싹싹
맛집
끝낸
승낙
겨루
정파
떠올렸
함장
신관
끌어올리
부사관
와해
키워야
에코
객체
통한다
망쳤
구부
주점
바꿔치기
게리
세키
마술사
빠를
냐구요
푼돈
라크
아야죠
선로
캐슬
쪽지
관청
##VA
징후
천둥
짜여
새빨
성가
스로
유람
거제
불법행위
황급
DS
깜깜
몰아주
유태인
박태
거듭나
불분
히라
빨갛
기념식
살만
인칭
궁합
서울역
##시피
판검사
##노릇
급제
육갑
낙엽
얍삽
얄팍
넘친다
다네요
싸대
게나
엇갈
힌두
AD
뮌헨
혹여
엘레
카테고리
면하
전문직
꽃뱀
배상금
냉면
란스
멈췄
국인
##거든
설훈
황소
나뭇잎
디질
NG
##아슬
손오
단행본
기우
일어섰
아슬아슬
케네
데일리
통영
언젠간
가려서
보류
노모
단검
휴게소
싸돌
첼시
언주
대리점
하계
##답니다
정희
할껄
으리라고
부사장
뼛속
뒷면
RPG
관동
악인
취록
지켜볼
가소
배꼽
담담
모험가
SR
허망
원자재
대표자
나위
##OD
잔류
##길이
방통
제하
왕궁
레몬
민초
Su
레딧
창의력
박진
발포
단두대
정신없이
##베르트
보가
배현진
배추
슬로건
바르셀
이보
바르셀로나
기괴
날로
뒤돌아
초능력
거쳐야
서포트
형용
김창
타쿠
늘려서
무승부
사키
찬물
현저히
알려준다
총칼
하치
일으킨다
축출
무턱대고
쾌감
드러낸다
열혈
하의
실까
무형
북서
싸운다
과속
선점
컨테이너
##OT
걸쳐서
거슬리
pp
어지럽히
##화학
증강
##노동
트로이
돌림
말자
네일
##독부
트레이너
반대쪽
뼈저리
피치
##ae
##러그
드워프
구인
정치학
땅콩
밀레
스토커
젠장
구지
부스터
도르
스틱
요가
비운
사가
숨긴
퉤퉤
사납
조급
병동
영도
영미
연신
슈퍼맨
콘솔
안토니
짊어지
BS
연유
직급
가디언
번복
강단
사적
##혜선
벌거
허우
지난주
불분명
무의식
얼만데
설거지
론가
간수
적패
아구
외과
광진
텔레콤
취업률
몰려와서
이력서
공판
문제없
시속
유망주
순결
간곡히
앨런
중공군
실직
반민
피했
커튼
신작
갤러
잘리
준우승
추기
저지를
스토어
대제
말썽
텃밭
그기
올려다보
정인
바이올린
무고죄
내려와서
지휘자
획일
이공
##며시
ST
Te
##외선
언데드
더빙
DC
영창
넥타이
위아래
경영학
고정간첩
원성
악재
피시
날아갔
##iz
##여겨
뛰어다니
먹일
간만
첩보
꼭지
##오루
모면
운전사
수라
떨구
반값
기스
종시
초선
##어드
뉘우치
합산
라이너
개비
Me
꾸역
더구만
업보
후려치
인품
원초
모사
##바위
오노
치도
##살개
내팽
테크닉
로그인
먹힐
BBC
시립
총각
함축
누진
트러
까발리
쥐뿔
얌전
수영장
##훼손
평원
버르
펌프
솜방망이
화난다
경쟁사
배낭
##대원
어나
드려요
맞은
받아들여야
왔으며
보로
야욕
거주지
분장
공국
서진
악착
##애나
나쁠
재심
현충일
면책
상여
이어폰
서유럽
하우
오메가
피해야
높였
구렁
였었
움켜쥐
손오공
키워서
극일
돌아다녀
돌아다닌
파랑
용맹
##모사
입혀
##푸스
요격
풀릴
거렸
지망
개콘
밀려나
##메리카
##ith
메우
주선
필히
알아차리
질수록
어진
기억력
흐뭇
##oy
히로시마
도어
말단
##고가
다마
##이면
##LL
초미세
매점
솔루션
##ort
난데
변증법
고약
클론
다녀도
명예훼손
단면
보디
족치
메이플
이방인
스레
영영
주광
진공
행패
엄하
자그마
조또
모진
무주택자
시청료
생소
##케인
합심
광해군
삽살개
국감
친목
기념일
창백
터무니없
맹자
품종
뻔한데
체벌
스테이
추첨
목요일
코레
파우
기행
선양
공감대
충주
독백
였음을
영등포
로이드
산산
##지물
갈구
전관
나선다
여생
불린
민영
송환
배부른
리버풀
위정자
다님
잠그
경건
꼬붕
방어구
익혀
BJ
총출
가의
공습
##슬리
잖어
주춤
쾌적
특목
패기
큽니다
음료수
씨름
피보
들으니
컴백
때려라
실실
안무
##시티
이태리
##어서
Gr
떠오른
##저곳
벗어났
이곳저곳
냉각
아멘
청자
판매자
지리산
총격
여중
이회창
폴리스
경재
##수무
투항
응답자
사발
멘붕
게이머
목동
미노
카스트
행정관
헬멧
맹렬
아날
해괴
김호중
돌아다녔
권력욕
부러지
사익
케네디
버금가
취업자
실무자
방호복
때론
아프가
거래처
맞은편
고사하고
풍수
살렸
신진
##야스
수십조
카프
##돌프
학년도
김두한
헌납
망토
죽여서
꿋꿋
리얼돌
처해야
##겹살
라오
맹박
슬라
정발
날릴
필라
##심장
리나
김종민
삼겹살
으이그
##ont
끈질기
그랑
기보
##딱지
빤히
가옥
하이에나
김희
피지
홋카이도
아틀
조선총
내세울
문턱
Pl
끓이
낙타
토라
##일치
비누
도통
건져
돈독
악물
자다
연하
촉발
줄여라
허덕이
경계선
살폈
##Anumber
신대
도식
신정
알고
흘러나오
##피어
사천
잠든
했잖아요
승소
케빈
이견
딸기
정액
뒤바
불기
바빠서
빛깔
정미
트로피
EM
인삼
사르
조선총독부
재조사
신학자
하류
뒤엎
이호
낸다는
GT
동정심
알몸
출산율
노이즈
미나미
마운
이규
소린지
전해진다
갔다왔
결계
눈여겨
포진
천배
후쿠오카
당면
작당
Tr
연평도
나았
본분
시안
쑥대밭
리조트
심해서
일사
지어서
##mer
농어
꼬집
황급히
속편
동시대
출가
비료
장정
될수록
애완견
곡물
유다
##숭아
##내려
단의
스즈키
섭리
진가
쑤시
근사
##잣집
풀어놓
##개치
프로그래밍
도려내
궁정
이와
기냥
찬반
##ice
마수
서번
호통
리자
통솔
감투
##좌파
##해전
청취자
토우
코멘트
아프가니스탄
갉아먹
슬기
추산
해짐
군국
시방
낙후
들이밀
서태
치러야
찌꺼
농경
블라디
미명
##주부
명하
심도
##뜨린다
직격
저질러도
미궁
호리
##리스타
나루토
##아시아
향유
환각
으리라는
따먹
이관
조인
세도
적색
베기
##ire
반가운
실익
내치
벌일
천진
스카웃
톡톡히
대시
길들여
외로운
이산화
정세균
계모
다쳤
##ews
시게
윌슨
안가
뽑힌
다각
마담
사우디
항거
부축
완성도
##ian
강좌
오호
소실
든게
아무데
미생물
강해서
발짝
동남아시아
자갈
바빴
아레나
친족
전한다
##레이트
통칭
수교
터전
합계
병든
##젤레스
독신
토종
릴레이
현충원
이판
##일체
청도
포대
가져다주
CV
뒤틀
##소녀
결별
총출동
도망쳐
황태자
최민
비아냥
먹혀
뜯기
매뉴
건드려
착공
##사벽
소비에트
거뒀
##미르
##나불
두근
트랩
넘사벽
중임
쪽팔려
후한
우승자
힌트
브레인
서번트
알뜰
변제
Un
문치
결부
수혜자
자서전
##레기
테츠
##쓴이
망칠
모하
우찌
글쓴이
날라가
졌으니
애국가
감내
비스트
걷어차
따라갈
어떨지
발송
약해서
원더
록맨
상판
조영
시발점
대소
##렉트
어학
한국군
경솔
여주인공
점주
가엾
##ure
##ory
어떻하
앞바다
세계사
가열
렉스
안장
원종
청량
끼칠
담합
유례
불태워
허울
물어봐라
구명
일과
심이
불변
메신저
레아
이겨야
입힌
되돌아가
검출
##우트
희박
체조
내려갈
물든
빨려
##니스트
de
똥파리
생업
궁중
양육비
도성
가야지
동떨어진
본전
분출
탈모
난관
군부대
전속
여장
탄원
밀린
비수
찌꺼기
리코
베가
최영
까놓
갖은
괴롭혔
도자기
근력
네모
금호
##러움
관공서
역습
걸어야
전기료
몸값
부서지
상투
쌩까
##가치
뿌렸
콜롬
스마
레이디
어울릴
연평해전
영락
재편
받아쓰
##본부
건재
피폭
자포
발열
##해하
화난
본디
여고생
오인
일례
려는지
분담금
괘씸
논조
하스
가리켜
동반자
쉼터
동국
찔끔
사옵니다
재림
CIA
꺼낸
단물
설날
타오르
역사가
버지
놀라울
말린
##ord
##스틴
자장
DD
하이닉스
역차별
과열
매혹
신경질
길들이
지으면
허허허
ES
유분
김장
불멸
안간
올립니다
소리지르
진군
합세
평형
동유럽
삐딱
언능
총액
해역
에이전
고충
명료
호크
빼액
즐거워
특목고
모닝
비키
워즈
같잖
개도국
하노이
몰려다니
엄격히
##ust
세율
##수거
잔잔
왕정
사과문
오디
과업
타이완
부셔
증서
강당
##팽이
휴전선
동태
불감
몸담
연희
중거리
난처
철권
생화학
양수
단총
재력
연비
##자원
무서워하
##급식
##하늘
하이데
연약
편할
즉흥
찍혔
무상급식
나고
암담
히든
신생아
번번
여긴다
전할
##렉션
해저
##당겨
주광덕
##몰라
한가요
##ect
반군
주공
절묘
촉수
팔렸
리얼리즘
마코토
너도나도
배때
##NG
수축
원룸
상하이
알콜
고단
몰려가
반죽
외야
유지비
##킨스
나들
봐선
다섯째
##사업
시외버스
관악
산골
장작
품절
바티
은수
토시
듀스
원할
##바나
가와
심할
미스터리
신곡
당겨
을사
단과
매뉴얼
공민
쯧쯧쯧
노브라
흐느
와카
##월드
열라
화병
크라이
성자
왈가
PK
장년
##택시
##이센
장원
후궁
##대소
처자식
떠벌리
거린
프로이센
지하실
도교
금성
무비
대림
오케이
녹취
실속
까치
걸세
지은
##송이
성종
찰리
수천억
한일전
문세
압권
장시간
한줌
따왔
골렘
갈겨
참배
푸드
헤아리
피폐
##덕션
교시
외칠
비석
다른지
상법
순국
밀양
실력자
난독
깽깽이
이찬
순사
동승
##aw
##천리
코디
크롬
무방비
도망쳤
##누이
분리수거
##아닌
통계청
##대교
첩자
천리
해인
해다
지양
에세이
망가진
떼거지
##좌왕
흑우
선형
우왕좌왕
키나
세르비아
##산업
넥슨
##대군
브라우
캄캄
금감
잖냐
혜원
간결
##구질
##승차
한낱
여직
페스
접목
경희대
금품
눈부신
쇠고기
휴양
사변
팔꿈치
내분
활발히
받침
하녀
과금
소꿉
카구
운전기사
무르
냉소
사업주
법리
후련
리퍼
언론통제
상거래
지력
들어줄
일거리
##na
변방
용암
두터
수칙
우버
##재단
국자
도망갔
##대죄
펑크
잡혀서
어수선
팬클럽
아편
전유
러서
관리비
석고대죄
##젠테이션
##잘못
접근성
히데요시
페인트
라느니
처들
프로모
장마
현정
김기춘
음력
##다드
국공립
줏대
호국
##oon
어판
하곤
##타카
김혜
뜬구름
합니다만
신명
정재
주스
만두
##마시
손모
##ft
덕택
반기문
차차
했어요
인터페이스
오다
고아원
내준
강전
이계
샤오미
얽힌
떨치
효자
황혼
성전환
괴로운
합하
##가요
쪽쪽
뭉친
이봐
일텐데
성년
드린다
접한
제반
들어맞
힐러
##꼴라
프로게이
움직인
최우수
프로게이머
쪼가리
이뤄졌
돌팔
잃어버렸
##니시
놓친
벌어진다
배양
변인
식욕
알레르기
강민
메스
쉽사리
맞물려
모빌
방콕
들였
일색
numberR
코마
전세금
복부
볼수록
천마
##질서
세탁기
전정
옆방
눈꼽
주사위
매듭
북동
화분
윤곽
펼친
하아
안타까움
기겁
벽화
##쨋든
어쨋든
황홀
##yp
육식
서두
궁금증
##로리
##시원
열세
확장팩
에밀리
피리
안간힘
저의
쿠라
굴하
요점
Ex
정력
##여객
나몰라
연필
##ib
헤아릴
중하
몰렸
달달
나들목
무현
저래라
고른
강효
돌려보
포켓몬스터
온건
##바꿈
커트
혼다
흩어지
##리케이션
교통부
도련
트레일러
종용
흡입
고을
발끝
##린내
포맷
베네치아
중령
거저
출몰
빠져들
폴더
기록관
애서
##중기
for
썬더
콤플렉스
노부나가
먹방
유심히
태수
구질구질
남길
탕진
성화
합방
질의
##베르크
sbs
##만치
부응
건축가
피싱
가다듬
속박
이가
##날리
살까
피력
약소국
김홍
망자
무임승차
##금속
감리
순차
배임
마자
주희
계보
저금
행여
남작
www
##PM
별짓
우마
파출소
대관
덜덜
아첨
BL
발화
피어
고식
##과이
기마
환멸
깔보
나나
넘어섰
프렌
##무도
##탱이
접전
천한
후보자
선일
바론
역사학
가했
분하
추기경
균등
신데렐라
팔짱
감출
껴서
소리야
검장
##타나
무서울
데려와
복면
타임스
말문
아파하
부검
##무이
죄의식
문항
옛말
주니
임박
##폴리오
수퍼
##터스
번지르
우크라
포트폴리오
끼니
맴돌
새겨져
##화물
도가
원산지
박람회
혈연
사와
엽기
흥청
버렸으면
보탬
챔피언십
직구
막힐
GR
선악
이참
사본
사서
겉모습
이조
허둥
극동
미얀
묻혔
꾸민
편도
교내
대용
짱꼴라
복싱
재빠
카우
맞짱
윗사람
저력
일깨워
나타냈
술사
영정
유류
허상
연주자
항성
호러
어떤가
전폭
노노
달릴
때려서
짬뽕
##히토
나이프
소견
부조
겐지
기고만장
먹인
디테일
밝혀져
진에
고착
서머
둘러싸여
겸허
보여도
##터지
신용카드
##데레
바둑이
내키
브랜
애잔
numberC
다를까
라스트
CM
거림
끌어들여
서랍
거주자
부글
##메다
부풀리
유스
속상하
고루
납입
팔다리
빌려서
꼽힌다
이희
항만
나아졌
분주
하츠
우가
마법소녀
성난
요양원
불이
저울
렌트
김한
어시스트
##ide
면치
크나
NE
보유자
사냥개
헤어진
##폭풍
내세웠
다분히
구혜선
##챙이
빌린
진다면
골목길
그래봐야
우량
섬멸
테오
대할
실과
불러오
친위대
수아
##부지
인권위
사색
문학사
궁예
막혀서
유상
경복
따스
##마개
거린다
광복절
반열
수복
신영
담그
원도
라던가
##다닌
치사율
치는
한답니다
걸작
졸지
토가
격퇴
민지
사케
에픽
장막
엇다
##중국
미들
애처
고우
구토
스탭
정선
정승
일용직
얼렁
##불성
기저귀
살림살이
이카
올리브
갈라놓
까끼
이사회
취해야
허리케인
봐줄
조계
시흥
##히코
으십니다
##ows
토사구
쳐박혀
##OU
베스트셀러
OUT
공경
헌병
둘째치
코프
충원
그려지
승화
둘레
종영
나불나불
정정당당
깔린
말렸
엄밀
윈드
술탄
스나이
천명
하이드
크나큰
희석
아폴로
회사원
주어진다
일간지
돈줄
잔다
목수
거행
서남
VIP
대원군
모씨
어물
잉크
##두렁
이용객
그러면은
##꾸역
돌린다
##리나
##브리드
##기름
##감당
##앤젤레스
로스앤젤레스
루리
결백
그니깐
꾸역꾸역
저널리즘
라파
어리버리
손씨
때려야
기무사
독과점
해커
##귀신
하이브리드
삼각형
비친
전남편
먼데
내려올
고원
헛된
바쿠
순회
스칼
흔들림
아우구
목선
범용
##io
기제
##국수
저학
남다른
줄리
징역형
영진
제너
고양시
주어졌
항변
니즈
자일
낙서
토사구팽
우환
악령
딴따라
러지
워프
초유
KTX
리베
셨으니
효능
단조
금치
혈당
백조
다채
분기점
한스
그레이트
바꾼다
쌓았
마르크스주의
al
화대
패딩
쓰여진
##포드
빙의
루마니아
나돌
##ick
대한제국
참석자
밉상
대전차
이직
진자
통탄
치장
모델링
장재
##수염
디렉
잡초
신공
계명
다윗
별의
술자리
집약
뒷감당
죄짓
내려간
비웃음
BC
순경
주상
측은
##선언
공관
희극
무녀
명인
험악
사극
농약
##길동
득표율
##도록
물으면
numberp
해운대
메꾸
채식
나이스
교구
상쇄
연기력
별의별
귀가
양정철
어버버
함양
어는
기로
랜다
동래
박히
숱한
주창
할망정
시연
곰팡이
개지
마카
가져간
경작
피조
고위층
##스코
제수
구정
비고
##건설
린다
보아하니
가주
자상
농간
뒹굴
범죄인
스러우
THE
베푸
비뚤
연체
사칭
스카우트
악성
혈맹
생활고
고학
올지
명색
해대
손꼽히
내무
슬리
지만은
괴멸
물증
떠올라
##버릇
서늘
권능
모신
모병제
둬서
새낀
만하다
독사
캐서
말꼬리
app
샤를
다쳐
##aud
대나
고든
도스
물기
역경
부잣집
더리
램프
사림
어정
천왕
##유국
화교
타깃
막가
딜레마
이복
포병
발린
이재정
통사
위나라
보살펴
산적
신격화
반년
난방
이산가족
lg
매연
##워즈
피켓
아날로그
갈기갈기
쓸개
다윈
성배
올라타
북측
결산
발단
목격자
막바지
얼간
위화
유대교
기약
스파르타
울릉
왕관
대통령령
건드렸
영령
##무스
꽃잎
##종양
억장
거스르
겸하
혼나
구니
숨겼
결점
탄광
다름아닌
극명
교육비
스며들
스콧
대생
구이
조속히
말다
반달
춘향
##원장
지성인
위자료
희롱
마모
포지
초석
사각지대
##래시
동동
향한다
종파
최경
빌보드
왔으니
입건
펼칠
들추
말로
빙판
야전
##기지
딸린
병상
말소
회자
독박
오퍼
잔해
즉석
아십니까
퍼시
창업자
인원수
양현석
생필
어쨌거나
개떼
개새
미로
아브라
##AD
도면
커진다
훈육
재수사
기하학
생필품
뮤지션
클라우드
전용기
수화기
##락치
부두
들여놓
##BI
가린
멋져
지날수록
즐비
내리막
남극
홀대
광고주
노약
반듯이
안드레
이강
##먹이
지구촌
경화
찬송
생산력
##메라
이씨
##모자
바흐
훑어
은사
##퍼니
##이상
상승세
조선왕
그람
뇌종양
가운
남서
독주
##콥터
작살내
조양호
석이
시로
인다
훼방
##반구
무급
##클레스
김인
##ov
정할
스나
친지
병신
정거
아그
##역사
히로시
보신
리서
충청북도
미식
##일관
우글
월등히
정교회
내민
대칭
미용실
다량
네스
##장이
##에른
다우
다이소
불감증
난도질
끼얹
저편
고조선
미륵
쉬우
망한다고
총탄
통신망
비상시
구해서
방산
원나라
##는데도
스목
남여
연호
방법론
총독부
선구자
기본기
모아야
PSnumber
들렀
표제
교묘히
로키
차입
겨자
곡인
암세포
이용해
라니깐
리사
내란죄
실마리
잡음
엿같
여차
미완
욕실
애액
자락
젓가락
대졸
운전대
제천
시뻘
파파
언어학
심술
##더슨
한해서
쏠리
작물
스타리그
코피
나온다면
전동차
가당
탈바꿈
##보인다
튜브
대청
도색
발찌
홍성
중앙선
배고프
폐암
합격자
##다르
##to
경리
자는데
싫어한다
버크
걸어다니
기동전
박명
샷건
하자
희곡
영업자
들쑤
펜스
다룬다
산문
연탄
##셉트
쭉쭉
때려치
여야지
어벤져
페니
히히
식기
목매
토키
소각장
프로모션
럼프
##가림
ID
아쉬울
평화상
뒷구멍
워너
차린다
패륜
엄숙
Xnumber
중심부
무궁화
##닐라
굽신거리
개의
토머스
문창
주물
급변
북구
애칭
임대차
지역주의
워낙에
아픕니다
불러도
스톡
오두
골격
교외
본가
미쿠
액티브
영호
전보
심리학자
형체
스파이더맨
손모가지
알림
그런다
꿀꿀
찌푸리
들이닥
냉혹
온실
전근
##드리히
고혈
가장자리
솔로몬
김우
반한
초코
도화
My
로지
##라는
중종
레이어
산모
쥐꼬리
일으켜서
으련
어업
팔릴
베개
원곡
얌전히
문드
제노
징집
밝힌다
헬리콥터
도트
마유
요상
폄훼
브라더스
숨겨져
##호흡
으뜸
##리다
BTS
##프스
독립성
메아리
고산
고대로
에이지
역명
영동
돌발
악착같이
문물
구가
Wor
식상
낭만주의
모태
머스
문화유산
강습
##Fnumber
민수
역도
줄였
격노
의료비
라거나
##령관
서해안
라미
벌금형
역효과
도쿠가와
호에
##ial
싸워라
마중
말뚝
태운
가벼워
무용지물
휘말리
레슬링
화형
용언
##타고
방아
둔화
시부
부득이
나체
유역
소질
거리낌
군비
김관
알아채
쳐죽
오스카
##버릴
박제
지킨다
떵떵거리
검역
##낍니다
프리드리히
싱어
겁쟁이
세차
영하
종착
교직원
살벌
때메
나날이
거른다
경합
참관
척살
김상조
능한
수질
계책
LTE
아낙
레바
외주
일구
거침없이
강정
##응보
판결문
트러블
적재
대감
블리자드
내놨
인과응보
안젤
카톨릭
##랭크
##시로
경치
추징
갑갑
밀어부치
공문서
띨띨
서요
서산
어루
번성
테일러
커밍아웃
포식
##oh
집무실
진하
신통
바이에른
이남
변함없
건넸
##근성
날린다
is
##속기
AV
샤프
정현
전면전
치료법
모니터링
너스
스트라이커
살려라
논두렁
##께요
강효상
위기감
다녀서
볼땐
유민
Fr
서약
IBM
표기법
객실
##봅시다
##분해
불운
재판장
거하
남양주
검은색
위세
##매김
##위원회
농수
양준
송출
대인배
다그
조선왕조
##타입
비어
암말
##장머리
고용주
이과
홍진
새빨간
투정
급상
때기
스트로
컴퍼니
출입구
말끔
매끄
원점
조희
행방불명
카타르
테리
툭툭
갈리아
연장선
그년
아스트
##예프
박동
이선
오브젝트
오판
##ee
바구니
이발
자리매김
맥도날드
바오
턱없이
페루
빼돌린
EC
음색
##ich
지긋지긋하
펭귄
근접전
기발
등골
Pnumber
갑판
브이
정설
순양함
##디움
그른
##선다
리비아
##기수
보우
문제삼
접종
각색
다스려
한다든지
버르장머리
섣불리
에스파
센티미터
뉴턴
밑밥
질린
무너진다
포옹
부상자
허리띠
단락
그란
떨어짐
헤드라인
담뱃
느낍니다
슬라이드
소량
신안
문디
태백
##럴드
미향
보잉
군국주의
출연료
마의
성신
송영
##오래
방공
보여줘
##불만
좁혀
말귀
##제비
두드려
맞췄
CR
노점
키라
커스텀
손놓
##US
##ost
사뭇
선입견
쉬울
체스
Wh
스노우
강력범
MM
적잖
일장기
##진다는
베어
##대왕
친서
리포트
모일
##론자
디펜
##거린다
시가지
찾아와서
수학여행
개진
지간
##쩌둥
남아도
마오쩌둥
Br
현제
사회단체
안테
의미심장
장문
초연
아랫사람
오래오래
##ite
곧잘
정박
화요일
집유
명쾌
가한
러쉬
유명세
맞아
조광
티끌
급락
후폭풍
아스카
잘라서
체형
려거든
수기
알지
##팔트
방도
뒤집어쓰
장녀
초소
놀아난
가로질러
##디다
다르크
내려다
질식
워라
제철
이해력
받아들인다
도망친
양당
예지
파내
온난
아스팔트
쩔쩔매
##구미
고물
피지컬
노조원
가발
찌든
서훈
구금
불난
엔트리
주치
저격수
글리
발족
노라고
정거장
강남좌파
소재지
출중
정치권력
다오
전류
안부
자치구
전처
공구
처자
스콜
번호판
미비
심연
조목
이당
시킵시다
전위
겸비
항로
##충제
동갑
현시
소이
깨져서
호모
독식
파열
섀도우
##로그램
볼래
호재
##레오
너덜
세워졌
엑소
카탈
타우
밝혀서
체구
임자
전도사
본업
펠리
제작비
동호회
꽃길
마르코
떨어진다는
크리스토
해협
숭이
##택동
틈타
동탁
시상
외인
복지부
##익스
##삼촌
박경
검표
자해
절호
##ps
최상급
##슬러
연전
당직
부강
사조
잘잘못
카바
안다면
베토
고층
성행
잠자코
련다
비서실
아낌
섬광
말려야
들러리
배속
##바이벌
주절
써준
자시
사업체
난간
산탄
##들였
세워라
##샅이
NHK
##기능
명재
눈초리
곡소리
터보
타이거즈
배리
부랴
차서
##급수
놓쳤
요시다
후원자
곧이어
샅샅이
수학자
찔렀
헬렌
유희왕
험담
이중인격자
능률
듬뿍
참모총장
드려라
맥아
튀겨
망친다
타구
스케치
수영복
서슴없이
저럴까
들춰
벡터
전반기
수목
뛰어가
도당
빙시
독설
##토미
성행위
##사의
클러
날강도
송혜
레이싱
numberB
했다간
화사
##케이
덧붙이
on
추수
무실점
사로잡힌
과소
총통
병진
아전
특공대
겠다는
연임
화염병
웬일
신령
##노소
BB
화질
까맣
책무
##성대
##탐정
##레타리아
전일
정민
살아날
##칩니다
흑마
로브
오즈
##IG
창시자
에바
프롤레타리아
해준
비일비
상쾌
층간
비일비재
쇼트
팔찌
매드
존립
문학상
묵직
홍길동
하비
호조
누비
각광
사오
독해
가로채
이동하
해충
건널
팔아
장동
##깅스
벨라
##다하고
##IM
들어내
리셋
웅장
끄집어내
전매
레깅스
내달
테크놀
레인지
막스
##가드
데려온
집어치우
NBA
립스
실록
거북선
자랄
##리우스
접점
En
나아질
극렬
도메
모택동
새리
폼페이
##미리
배운다
이럼
##공업
급감
빙빙
고환
독방
관계없
폐단
할망구
다더
동자
무심코
남측
다닌다고
웨일
기틀
달한다
유탄
할로
##선거
조윤
훈수
전월
격투기
집집
피식
갈대
세의
볼펜
무지한
송나라
##사카
어거지
아킬
가책
선아
박형
탱이
휴먼
도의
베란다
학번
퍼뜨린
사용료
##oll
사이토
고달
왜군
##CC
밀폐
박기
국비
동맥
어때서
익힌
##익스피어
거센
셰익스피어
빠구리
인걸
직진
올려놓
속력
전세기
re
기쁨조
엑스맨
남아프리카
파이트
소송법
수난
닛산
판교
찾아냈
주동자
폭리
##해도
의뢰인
##멩이
울림
어려워서
리우스
자크
장례식장
삽화
내게는
비선
나타낼
명작
흑역사
요미우리
ED
매립
진태
피조물
이겨낼
출루
갓난
멀다하고
늙다리
빡세
성동
##센터
관리인
만신
##ans
원균
하강
까만
달력
니즘
##위성
골절
엑시
걸어오
도표
투영
됐으며
민의
남녀노소
장지
국민은행
바빌
부통령
##시안
##긍긍
부피
치우치
전전긍긍
선회
마타
청국
송혜교
쏴서
콘돔
대표작
지멋대로
미오
통쾌
뛰어났
소급
자성
앙리
브로커
제쳐
호식
##개골
뜻밖에
부산광역시
##메르
거머
레버
하이데거
##의지
개밥
튀김
##ace
전래
판박이
우로
미트
거쳤
능욕
아뢰
들린
리바
성산
스릴
분홍색
명회
사셨
진우
백정
초가
교관
네이트
제라
##처분
##qu
##미디어
이눔
여초
등불
준영
지법
대파
미역국
탈법
파밍
운하
비문
찾아낸
프린세스
모셨
우스운
천정
카터
##보살
소셜
##바야
송강
송중기
가액
헤치
뒤쫓
프랑스군
돌멩이
가져라
깁니다
##식물
##도전
가자
책략
체재
잔여
여대생
써요
기교
파괴력
as
##ook
택지
개중
치워야
##따박
병풍
##박따박
따박따박
분발
로저
오도
##강대
공리
거래량
들켜
던진다
##현실
스페인어
협동조합
힐러리
으려다
따져야
폭군
독소
검사장
패드
레저
청룡
물어볼
자긍
삼국사기
열병
민자
시에
나아진
왕세
피해망상
사나운
혹평
자살골
어중간
토익
승마
양민
아연
##ime
북치
numberA
수줍
##근무
각서
군량
리프트
무예
신다는
덩이
챔프
값싼
도감
퍼준
백마
팔촌
터스
##병원
허황
식단
운석
수비력
에디션
주무르
초안
홍석
##나절
부지기수
났으면
대출금
매화
맨체스터
억누르
부려라
취한다
헛되
떠라
최대치
떠안
찾아간
##갱생
아무거
내력
잡스
으셔
늘렸
이율
numberth
##ii
그만둔
놀라움
퇴학
불가사의
자력갱생
도널드
경신
들통나
##드립
찢어진
무법천지
까스
공중분해
##ung
요코하마
한하
appl
지고
족장
생떼
반출
시커먼
충무
##ax
별자리
라자
뭔들
문틀
조오
도처
근까
평지
멸치
환관
북풍
몰아붙이
배급제
짜내
깨어난
밀렸
성교
만장
##행정
##메스
책자
##ond
가이드라인
늘려야
잘린
음란물
책봉
시몬
급상승
##가슴
어루만
묻힌
you
성장률
떨어져도
살아간다
리트
문고
이아
연설문
께선
도보
홧병
쪼끔
레이블
무한도전
가차없이
손수건
환급
박재
김명수
내막
밑천
사바
세액
스타디움
게르만
캡슐
장영
##순간
지어야
out
분업
탄로
군정
커피숍
컵라면
감염병
라이들
신중히
합의금
못생
산속
던지라
차종
콘셉트
음해
가브리
노련
구해야
산동
벌거벗
제복
스피릿
기복
##병호
진솔
허비
히가시
##만큼
전입
일터
폭정
판소리
쉐리
아브라함
기입
##법인
나왓
나왔었
실리콘
피에르
일테
진사
차주
지나쳐
가리켰
Sc
예사
순정
통감
프리랜
관두
까봐
땅덩어리
오거돈
살균
##니카
조경
생수
씌워서
##ox
##세서리
긴데
정청래
제프
토목
벌어먹
일억
어정쩡
부국
##욕장
역사관
선글라스
##티콘
겉보기
절절
칼슘
워크래프트
주황
##ies
명당
드래곤볼
금년
부평
실토
토큰
야후
베토벤
낙인찍
꺼라
아쉬워
법전
기회주의
처남
유사시
불경
든다는
고령화
고를
끄나
그래라
난쟁이
김규
심경
총알받이
타리
Mar
세인
친히
불가리
곤경
리브
오냐
탄수
##나간
무참히
초계기
##절머리
다람
진절머리
알려준
저리도
거란
연산군
애견
네이션
마초
numberL
무위
##평생
머리채
가져갈
오비
인륜
##교사
혼잣
##왈부
오르내리
끈기
퓨전
난해
라그나
열전
왈가왈부
하시
죄명
한영
중대장
다인
미군정
거자
루저
수로
패했
##매장
자유자재
고친
단풍
머뭇거리
리서치
수렁
시구
##떼기
바쁜데
항시
홍문
현대사
쌍도
원폭
##orn
막대기
카운티
끼여
청바지
징병제
반신
##마차
시군
##재해
몸뚱이
붙어먹
보여진다
백과사전
인부
##버섯
간만에
나참
자물
이글스
니혼
##맥스
날아갈
우민
물으
다져
##래기
찌들
휘말려
유기체
이에
배지
기관차
키드
미얀마
소린가
키타
유나
국제기구
능하
문아
눈물나
소피
도그
러닝
빨아들
정우성
애호
그새
유마
##덜미
위한다면
감명
윤지
자청
득실거리
오타쿠
경복궁
내용물
경산
서초구
##은정
시설물
정교수
괴인
우의
잡소리
다가온
##이치로
연초
타살
자임
도마뱀
청계천
타결
##공주
서양인
거미줄
외삼촌
유격수
뇌리
자잘
자연재해
부단
두른
야쿠자
험난
어데
조여
시네마
기린
에이전트
경도
현대판
희소
성적표
##불성설
하후
장사치
어불성설
어처구니없
박인
세운다
소품
저물
청기
케이트
모차
대물림
##짜고
시킵니다
##끄러미
일품
반입
어벤져스
브루스
리티
떄문
케리
공공연
##아르
##선교
입마개
진시
거름
레이트
풍족
BMW
트리거
재갈
까딱
뭉쳐야
판도라
끌리
고발자
##auding
속수무
속수무책
##경찰
##드라마
재명
##짜고짜
다짜고짜
추스
피오
모욕죄
카사
투고
할복
걸핏
리야
무이
삐라
안이
실기
찝찝
대수롭
토트
applauding
##활약
지켜본
자긍심
칼로리
노예근성
바라본
##act
흉터
연락처
드가
식스
농림
레나
진원지
드러누
아만
페인
조진
##시타
샌드위치
벌인다
체념
남궁
튀어나와
손색
초식
최재
고깃
섞이
은닉
주세요
총사퇴
물귀신
변덕
논설
옮김
하다못해
거들떠
문수
Wind
내국인
할꼬
OK
##나기
딸려
자작극
칭기
##부인과
간청
매미
프랑스인
야유
##린데
갈라서
도용
태후
##봐라
어부지리
스플
바바
격전
스스
지영
족족
했는데도
웅동
캠핑
##댕기
대갈빡
덤벼들
##파크
##ake
감사원
괴롭혀
남아돌
시드니
팔라
근방
케이드
부르스
털릴
로망
초빙
ML
th
정렬
아포
작렬
퍼스
석학
혹사
정약
다면서요
숨결
물거품
테이크
기하급수
쪽박
개울
두개골
알루미
금감원
모건
소방서
실렸
정봉
넓이
러니
넘어온
비틀즈
마주쳤
레시피
##민주당
카니발
혼잡
으루
부질
빗대
이춘
살래
승천
어다가
영감탱이
명부
##매기
유카
개노릇
리들
치뤄야
해야겠
선거제
활주
허점
발라드
된지
맛없
무기력
바깥쪽
방망이
아이유
대응책
고노
##ix
보일러
중사
##안경
에밀
변두리
해왔
고라
치카
현주소
분전
해리스
##환자
급부
프리랜서
내림
리츠
호호
흘릴
점하
##그려
가져와서
농어촌
변변
마티
물의
언저리
라디
피웠
##만년
놨으니
진부
콩나물
몰려왔
##처리
아리랑
송신
잡수
##골목
소관
##언스
##다닐
우라늄
피크
##한국
##LED
가랑
구세주
해태
멜론
웃음거리
뚝뚝
최정
numberx
코스튬
이슬람교
로웠
브레이커
라이온즈
성병
매복
조재
사단장
알린
##철호
OVA
하이라이트
비기
송곳
지애
복숭아
꼬나
연발
제네시스
흐른다
그리스어
쇠약
추워
안드로메다
계파
정명
염장
표식
들일
##문서답
다변
동문서답
통통
게을리
고나
그쵸
놔도
디비
옥스
유구
의복
미쳐도
##죽음
뜬금없
쏟아부
아쿠아
어렴
무찌
##테이
심복
공연장
시달렸
닷컴
이기주
신청서
##ph
알고리즘
청결
미국식
국화
까내리
리비
안재현
##두사
주동
박유
숙지
출두
는걸
대덕
LP
##렁크
순직
박찬주
자빠지
##회전
활자
부비
승산
간병인
김도
이천
체납
명실
끄나풀
혹세
떨어져야
빤쓰
힘주
진에어
투르
보살피
상학
다니요
휴업
기어코
라이센스
##경화
##비슷
흘러내
플로리다
갇히
뻥치
인거
갈증
공전
노렸
리부
베어스
Love
##현민
스컬
움츠
떠올려
블릿
라운
감도
만무
올려도
면허증
소정
치민
##ah
물리학자
##수원
초밥
도륙
춘장
인센
립니
자바
강연료
김천
최진
거길
이뤘
트렁크
병균
색다른
스크롤
변함없이
권했
땅볼
군소
유골
자카
강진
리알
고속버스
정숙이
총애
##커트
##세우스
선착
인센티브
국위
맹활약
##부글
생각났
##천사
통폐
모어
##az
분교
내사
저글
단역
소피아
아테나
창조주
선풍기
꼭꼭
##거릴
스트레
상봉
전권
##망정
##ET
가려내
무거워
블러
임정
으랴
개사
답습
지마는
전우
송두리
주마
창녀
##부랴
##믹스
부글부글
코로
항체
##ment
한적
##착오
정의감
물끄러미
스모그
협업
편안히
알루미늄
가이아
카와
총선거
가솔
넘보
조던
뿌리치
흡연자
쌀값
오공
심포
평점
밤하늘
니트
시행착오
되돌릴
시미
정보력
남남
Dr
델타
만취
스기
여과
주라
진해
역주
##퍼런스
보였으나
공법
설상가
우크
보행자
구울
별칭
짭새
설상가상
망함
연막
대장군
명랑
헤어졌
##벤처
어드벤처
개호
냅다
걷잡
불리우
참내
우크라이나
달라요
##잇감
뒤흔들
게거품
매료
문책
타개
라드
방랑
차가
뒷조사
부식
한식
이누
하숙
고위급
##트랙
##비언
##어치
궁핍
아지매
연좌
인어
압록
조건부
개막전
장단점
나머진
no
차고
부랴부랴
카일
##로이드
발전기
구식
직함
임대인
버스트
##ree
아메바
기집
##바라지
##티지
방문객
녹여
##레븐
흑막
사복
기모
노니
포천
유행어
가전제품
산부인과
해로운
이웃집
FBI
채집
몸살
채보
상책
방어선
버텼
Sk
에메
##먼드
버지니아
갈라져
알선
빨리빨리
행인
성체
차려서
났었
노론
##마른
numberP
뽐내
정오
처박혀
망가져
방방
##아티아
고삐
크로아티아
로제
쓰임
얼씬
확증
##닥거리
이리하여
플랫폼
##장군
표류
청부
고어
시퍼
깨갱
메주
센트럴
징하
승전
어째서인지
통학
힘없이
##어져서
족발
아선
연어
##모어
덮어씌우
숨소리
호스트
비이
여개
포니
소나타
정동영
돌기
실거
히사
기울여야
당리
##정신
사용법
##던가
뽑혔
창작물
다저스
외투
조끼
##장치
자물쇠
식료
격상
전대통령
드실
흐를
광양
우여
이무
한국사
CNN
동종
가르쳐야
깔리
소마
숨진
파시스트
들썩
커리
##미스
##퀘어
짤막
전자파
쏟아졌
떠나가
아까워서
식견
트윈스
에워
을려는
페이크
일신
##각형
급사
항생
잠기
환한
주리
시그마
불바다
계장
태권도
펜션
세모
수임
싸움질
준엄
##입국
대각
두만
배심
##키리
독하
아벨
써놨
표결
약체
좀비
혼잣말
버린다는
자당
who
교향곡
덕지
역사책
형용사
쐐기
양양
연의
부담금
한국은행
모차르트
##그래
으면은
독살
메카닉
내보냈
데빌
야야
심취
강의실
으레
이안
##사관
아이즈
둘러싸인
어렴풋
##부절
꺼꾸
쉬웠
거사
템포
그리곤
투철
떠들썩
여서는
지켜줄
모나
얼릉
콩가루
안타까울
백미
빙산
종국
참새
봄날
알파벳
게라도
실탄
##AE
##산성
의과
축사
홍남
간소
전리
New
장터
##석기
뭘까요
통폐합
배고픈
구겨
재외
은인
현종
##드름
자고로
벼룩
붕대
안절
머리칼
안절부절
중후
입장료
굴레
양동
##iss
기네스
원심
바이킹
조현아
numberd
##레스트
전문의
급박
백혈
죄파
한탕
##다닥
통념
##OW
외지
크리스티
개종자
다가온다
깃들
ABC
템플
우스꽝
츠카
##플러스
관음
그리워하
도맡
재야
프레젠테이션
분별력
가할
스택
답장
정체불명
모티
AA
math
액정
흐릿
반포
##부족
갈라진
달아났
포커스
호드
참작
남구
교육학
여념
신차
쓰러질
마에
비근
초당
가로지
한패
산길
파가
무표
신학교
이사단
부설
김연철
속물
원효
##던트
허풍
심혈
은둔
남겨진
##맞추
로스트
라니요
나눴
##어든
##상부
##sh
##헤이
##데르
놀래
등본
불가리아
##무민
달라도
LCD
되돌아보
##르바
부유층
혹세무민
블룸
왔으나
양치기
캐롤
다가서
성공회
나빴
패소
LED
상서
달려왔
부가세
센타
한국식
근무자
타스
##들레
온다면
아케이드
혜안
부적합
도와야
휴교
묶인
적진
각료
도토리
포유
##머니즘
xxx
자격지심
구운
##곡절
수식어
프로덕션
조력자
인피니티
노엘
권역
완강
마기
패한
오월
권리금
유트
침탈
역관
제곱
사고력
##ank
모퉁이
편중
공급자
노상
발칸
생가
음직
고취
수재
황가
청했
도인
회동
궁녀
탤런트
려야
##맞춤
끈다
##포스
이끌려
만지작
라비
츠바
훈련소
입혔
훑어보
니기
깨알
서비스업
아방
한우
저곳
크래프트
조선소
반인
신순
SN
돌출
뚫려
천치
가든
조망
xnumber
기다린
정종
제각각
하층민
재워
따내
서대문
은서
방편
떠맡
된단
사놓
잡이
트이
니가
후베이
퍼펙트
뒷담
##사정
부들거리
홀딩
##Enumber
은빛
점대
습기
##턴트
떨어뜨려
스피어
각계
현물
건도
소자
##헌영
시찰
지도력
초동
제스처
류현진
여름철
컨설턴트
드셔
잔존
포르쉐
읍내
할께요
잠긴
예고편
현관문
스타워즈
산행
척척
다이스
세일즈맨
gnumber
고군
초범
##분투
나지
와요
다독
낮잠
레비
장풍
절충
##ance
누웠
이새
kf
호세
mb
어로
리우
##II
도난
대학살
어질
클라이
자책점
우여곡절
여명
시켰으면
카카오톡
달비
블라인
입방
경영인
슈가
연마
레이첼
울컥
하워드
홍남기
be
마두
자른
##old
대미
##정책
퍼질
만끽
을꼬
적도
선호도
차인
금화
성남시
이끼
이영훈
전조
귀태
떠받들
뒤편
##토르
라이터
반세기
소유주
로동
외가
한경
회심
불명예
쉰내
고참
원어
헤아려
역력
미연
##곡동
철도역
노름
카를로스
다단
현우
직설
붙여진
휘감
구야
사다
세가
차출
안색
##바구니
물러난
빅토르
꽁짜
억양
호사
불경기
악보
가정폭력
호대
괴롭힌
##그네
NS
러셀
##거림
기념비
퇴역
스파크
자이언트
시당
이정현
개짓거리
부가가치
선지자
더워
숙부
졸업식
광분
뜨거워
실추
하명
크라운
##ach
상층
씌운
##오른
대혁명
일언
보듬
살육
질린다
펼쳐져
챙겨야
낀데
자인
NGO
관사
그리구
월터
구직
##호란
휘둘렀
문호
인벤
오리온
역겨움
무가
라다
타의
밀러
중남
생쥐
##RI
수선
염수
지병
##우회
##제리
##허가
머리털
바래요
콜롬비아
대학원생
고파
바꼈
안치
바이크
광란
몰고가
수연
옥중
남파
##플릭스
김부겸
두리번
사골
주정차
가브리엘
넷플릭스
건방지
떡하니
중한
대진
병영
어겼
지역민
휩쓸려
해집니다
노원
승복
거진
스펙트
저글링
인줄
사들이
풍조
이연
식초
왈왈
정가
선후배
냅니다
끌려갔
퇴계
##중파
만화책
짱구
내딛
뽑아
양가
숙였
전사자
로컬
찾아낼
박살난
나눈다
##돌아다니
수심
##조림
굳히
미하
남원
닥칠
병맛
신수
먹였
삼켜
부끄럼
갤럽
##십자
철갑
처가
중고차
##험자
무협
이광수
떨어진다고
gr
시끄러워
이한
아무개
나빠서
매춘부
갈린다
서바이벌
형주
낭패
피한
준다는데
고부
왕좌
이월
능선
뒤돌
게임기
소모품
어때요
인출
점원
##작전
털렸
그리운
어긋난
어슬
현세
빼앗겼
유식
폐인
고음
투데이
아우르
차남
카디
맞춰야
불평불만
냉기
욕지
선보인
전열
종로구
쇄국
사무직
오래가
진구
OP
일명
다던가
극진
예산안
괴담
심미
또렷
분사
퇴색
##상종
거느
웰빙
##망청
##투표
으련만
모레
정색
창세기
##배상
##대장
가명
유니버스
흥청망청
기동력
정태
놔둬
연꽃
의향
본드
창밖
친중파
시행령
자판기
디아블로
뻥긋
##ary
김성근
내던
대했
물대
##립트
붙잡혀
일동
특종
##칼리
글렀
두둑
산더미
이비
##구이
##Xnumber
깜박
아린
진찰
봉황
손들
쏠쏠
한술
기판
경색
미티
세계일보
바라본다
장황
깎아내리
신호등
배당금
클레어
인계
OO
기막힌
인색
울화통
지렁이
##저러
민요
선율
공청
저쩌구
까부
타츠
회오리
##바라기
스나이퍼
골랐
연한
TS
울트라맨
고고학
##마켓
베르크
웨어
초음
블랙박스
가창
병과
연합국
수원시
상충
도호
실루
물방울
심산
한입
먹잇감
대내
판별
포주
##ish
앤디
Enumber
실크
진흙탕
##ss
최태민
비쳐
주심
맞선
으흠
긍지
일벌
헐리
백발
송가
열불
홀드
권태
##그라드
무표정
놓쳐
다든지
공예
나간다고
싱싱
##시설
러라
재탕
##슬링
모리스
스네
천당
이레
전등
난세
사투
엮여
히드라
블라인드
껍니다
여잔
미소녀
근교
당나
근현
못나
##투아
어서라도
경종
메시아
현란
겨울철
별별
독일인
원해서
청해
소풍
저속
계약자
노크
부쳐
바뀜
비늘
비잔
아동학
GE
격침
고점
pr
화목
##ens
반자
이영호
가련
이효
계약금
만리
차립시다
낙태죄
총합
야자
생강
회부
고쳤
정확도
단맛
민도
처칠
일감
괜찬
교의
측량
##ence
따라갔
아토
원이
무능력자
깐다
브로드
쫒아내
퇴행
선체
반주
연다
소인배
CBS
애플리케이션
마호
레이건
적대시
서영교
동대
MPnumber
익산
##라이언트
캐리어
스완
백원
주지사
건조기
능히
##바가지
##예우
동로
윤회
쟁탈
##친구
막사
데려왔
맥아더
가압
평평
차분히
전관예우
시름
녹조
##도니아
리콜
##형제
움직여야
콘스탄티노
다람쥐
공작원
프로파
시종일관
##라이어
악귀
##라비아
기아차
덮여
오락실
클라이언트
##경제
자릿
결단력
부딪혀
##바키아
물러날
토론토
번창
콜린
올까
교통비
피렌
##간다는
라이즈
탄산
파렴치한
후생
악독
##전등
설계도
트림
얼버
빛내
맷집
존심
천지인
유야
국호
이창
잡아들이
사모님
누운
디플
애걸
스트레이트
감춘
영양제
뎃글
호족
도운
망설임
편익
미진
이우
차도
친다고
활주로
풀어
##어찌
건모
기총
인즉
토악
한민
와이번
응당
##쿠니
곽상도
바실
지난날
냐면서
걸러야
외할머니
스펙트럼
식충
노릴
아오지
국책
누려
친선
##로프
쓴다면
난자
지나칠
태구
미대
압록강
신시
한국일보
던져서
인공위성
볼륨
건장
트론
경은
해프
천안문
MG
국악
봉우리
히카
안테나
맹수
##ade
강유
장도
사우디아
부귀영화
나트
아래층
##불통
시민운동
해수욕장
백원우
지열
도메인
내려졌
흘러내리
증설
김지은
건너갔
죽일려고
##라구
전갈
곰곰이
구내
이냐
게이츠
세나
갔으니
범벅
농축
공보
출토
##모르
당주
부풀려
출입문
경미
졸렬
얘긴데
뒤이
빈정
황무지
재빠르
큐어
한다구
복리
프랭클린
흠뻑
##친절
칼질
총사령관
작두
배알
가만두
궁수
원단
컬렉션
##컨드
조무
numberTV
위구
진즉에
대추
역부족
노블
따져서
##트론
개인택시
돌머리
가왕
불친절
영양소
##댄다
앉힌
질투심
정당방위
겁나게
수진
##축구
서식지
아둔
유창
전단지
세션
##네이터
월초
해프닝
루즈
아들놈
다매
세컨드
앞마당
만렙
##질렀
몬테
돌려야
장신구
나아갔
명수
##도어
다움
일임
유타
재위
우러러
We
뒤져야
AKBnumber
미셸
달린다
아로
인고
최승
노을
예배당
전근대
채굴
걸즈
##카스
멀티미디어
##그라들
신한은행
성토
모서리
한선교
머시
클레이
미스테리
야드
은메달
급수
헤헤
기정사실
만족도
다진
수의
강기정
##갑시다
##교회
알아냈
강지
그럽
따돌림
밀려서
제르
시크릿
배고파
놨더니
로만
중개사
몰골
수제
입힐
스트리밍
살려서
무더
보수주의
라인하르트
볼리
##ound
환희
공탁
개요
탄성
놀랬
대뜸
모의고사
청색
구설수
배고픔
발키리
매달린
정호
퀴가
##영장
아찔
##성향
노드
##마킹
기신
폭침
불러다
외래어
험지
셰프
부러진
오시
메이크
볼라고
음절
폐차
희희
스쿼
아그라
신앙심
벤치마킹
하수구
갖췄
꼬인
찬밥
##잖아요
카자흐
꾸지
폐교
우월주의
개항
군청
증거물
가느
마미
독촉
빈손
안대
캐서린
착지
챔스
마스코트
답안
복식
피츠
울릉도
홈경기
아오이
김재동
책장
정한다
트로트
만졌
얼떨
잔고
##인간
이왕이면
신촌
##영수
서성
오역
학도
어찌어찌
목장
협잡
횟집
전문점
고사포
관람객
명만
용모
총구
##부진
요일
원론
부추겨
쿠니
##가게
뚝딱
빨랑
제이슨
잠적
진행할
군벌
음지
해바라기
커플링
경마
몰아치
순화
한라
Part
앞면
애먼
고집불통
미지수
버니
존댓
존댓말
데미
폭염
바라지
가득찬
져요
##베트남
정해서
들러붙
##ML
예식
경부고속도로
가처분
고해
페트
논지
비박
##랑카
War
대야
서태지
속했
얼마간
##무네
위약
차비
##oo
카이저
참치
미행
뷰티
잉태
추녀
계획서
파나
정치성향
데카르트
겨를
미스트
궤적
빙하
완패
찬찬
팔뚝
내복
##랄드
건방진
귀기
##조치
운지
##오피아
에티오피아
##ome
올린다고
노리개
위스키
축산
챙겨서
번지르르
비준
은디
##참시
##사병
표준어
성군
재결
체가
##슬로
부관참시
회의실
마카오
스퀘어
반고
스테이크
물대포
쇠뇌
치웠
오두막
유부남
군장
은밀히
실생활
쿠마
개화
법석
입상
태만
농후
스팅
실권
특출
웨이트
##ki
여론전
오미
사우디아라비아
소신껏
위화감
슈타인
이변
상민
혁명가
논객
벌집
취객
##악산
양태
예매
테란
주조
두려웠
본모습
열대
공석
##패드
부적응
논거
사옥
유자
##슐린
맞대응
격분
텍스
윌리엄스
고관
명소
##대접
봉해
비행장
파수
이주민
바싹
드로우
마네
소림
의술
흔들렸
신가요
테슬라
단자
유생
카렌
차곡
황산
후세인
버핏
수세
AB
레미
줄기차
먹여살
난생
색소
장창
레트
야한
근디
##티티
라트
털기
투옥
차이나
쳐들어오
시애
새발
정략
들이받
버립시다
NT
중앙아시아
쳐죽일
잘라야
##네스코
성악
##협회
당나귀
도저
스매
운임
KOF
어떻든
이래야
Cr
박대
뻣뻣
출고
스러워서
벌린
어워드
꼬여
명곡
중심주의
##own
##테리아
##LS
너구리
잽싸
증축
인천시
나잇
가여
금물
요르
테크노
식료품
세워져
SA
가변
시황
마신다
번화
준이
낙오
면밀히
심오
익성
마을버스
미디
우미
들여오
쫓아다니
니년
인사이드
찾아올
내줄
프락치
장제스
야금
##조목
해석학
약초
리턴
깨뜨리
엄중히
브릿
sp
비통
선서
유유상종
산산조각
플롯
영의정
영산
##나마나
걸핏하면
융자
보나마나
빌헬
실루엣
허름
##빠이
이라니
부릅뜨
입점
총명
##ase
다의
조미
딸랑이
발차기
나야
닫힌
Man
점멸
생산직
탄수화물
새파
유별
팝콘
##공산
우길
토박이
미래한국
백기
빈자리
얼라
USB
스탠스
빈대
화전
##히트
##바야시
나그네
철부지
휴스턴
##ys
출연진
노심
최장
소사
획책
For
켈리
페스트
해상도
목성
해서든
망한다는
Windows
NA
미개인
문경
수현
우회전
불합
모더니즘
이철희
여상
달째
##델피아
필라델피아
액자
연개
몸체
##pt
현상금
Ne
오른다고
고프
자들
간염
버러
온데
뛰쳐나
기권
루소
일군
리리
틈틈
재킷
착안
작업장
##베르토
빨랐
볶음
윤리학
꿈속
따끔
##주머니
개역
헤지
외딴
하세
초년
크로우
까짓
뒷짐
분경
오아
광학
적시타
더없이
한정판
러일
만희
운영비
값어치
Go
뒈질
화물차
설립자
복수심
움찔
찜질
물어본
말짱
김연아
병아리
차액
World
조총
##군자
저열
시켜도
브론
해발
연평균
상아
##타니
데이빗
피살
돌아선
PV
임관
페어리
##지옥
##HC
사귄
##생각
애타
비범
산당
영유
일병
문천
##빼기
심해졌
항생제
된다니
하튼
호미
면세점
로저스
서커스
유적지
https
코칭
앞세운
물린
인슐린
폭우
부차
아이피
미끄러지
동메달
##세상
인영
현행법
증액
실신
뿜어내
터트려
도독
마케도니아
착실
흘러나왔
캔디
끌어내려
주립
유즈
갖춰야
AFC
조나
알맹이
탄원서
교익
더라는
부담감
당론
번져
체로
대당
뒷걸음
박헌영
붙인다
특보
뜯어고
##ail
클로즈
상여금
는고
미적
정변
휩쓸리
픽업
해했
수프
걷어가
프로세서
독약
득달
보여라
피렌체
##결승
박혀서
겸임
헤일
##CG
투르크
##개토
여행지
고압
푸른색
구심
연정
동천
하로
##상조
시켰으며
되도록
탐관
##놀림
때린다
박세
Pro
광개토
비틀거리
동체
목청
성냥
UF
금하
개털
결핵
후반전
오성
노랫
헛짓
미간
장타
유의미
추신
송병
일직
시공간
쿄코
고장나
이럴수록
불러일으켰
귀담
기공
러시아어
낼려고
##tn
과도기
기른
##LE
페르소
암석
애덤
검소
답사
들어설
뒤돌아보
글귀
놓칠
린치
경쾌
을지라도
나간다는
성상
쏴도
일궈
TVA
너흰
세관
시부모
RA
몰려와
탈영
##갑다
원자로
NP
미상
국문
##정보
국운
삼위
사심
페로
창건
직간
수빈
유네스코
메기
##전입
스텔라
부심
위장전입
예속
니카
미호
야인
##아키
하심
장기전
건보
달려와
사계
고토
앞가림
무인도
우빈
낙양
안나
장탄
디디
##에몽
왼팔
엮인
옥죄
타치
마지못해
pd
노브
예일
전해져
남북통일
배때지
커브
한구석
거위
뭉게
윗분
주만
편차
이쿠
지편
태양계
##LA
도망칠
북정
##트린
##암리
베트콩
액면
마이어
펄펄
인데다
남긴다
사라짐
공분
신랄
악담
이덕
##장사
모자르
평야
##춧가루
##행사
공터
관내
열나
죽이기
잡담
늘어져
리언
부의
앵글
유월
##ons
착착
묘소
완구
##ction
이찬원
떠다니
가솔린
북돋
에덴
리도
드러낼
단시간
원님
거참
성운
삥땅
괴테
악하
데려다가
GN
##동욱
돌아다닐
브리지
OG
구한다
이요
기록물
장보고
##황후
김옥
수리비
만신창
Fl
##텍스
병단
속였
밀라노
괭이
기함
당가
사형수
사마의
안기부
남대문
##ear
트린
정부군
공포심
기치
말릴
손등
목덜미
노약자
삼위일체
남해
ex
##러졌
보균
부스트
부쩍
수돗
진척
친모
알아본
예비역
칭기즈
##암동
나으리
후문
랜스
비자금
극악무도
서자
유모차
연화
안마
스튜어트
미천
얽히
응대
##저쩌
메소
##정리
들어와도
올라도
음미
인플레
브라우저
영달
손해배상
여지없이
##아졌
##MC
인마
##보호
##래요
스크립트
부업
슬램
매겨
##쿠버
나폴리
진선
제네바
힌두교
급선
이입
이로
치울
잇따라
나몰라라
위구르
망발
북두
두각
##눅스
정약용
미리미리
아귀
는단
테크놀로지
성장기
과분
##Hz
영아
황색
연고지
지터
분유
아처
야만인
잽이
고추장
고마워요
닫혀
아지트
게으른
베틀
흔치
블레
씨방
by
패배자
수출입
왕세자
세단
태워서
끈끈
버나
노재
쇼쇼
세스
어민
단신
민병
판권
아라비아
굶주린
명탐정
BR
빗물
강화도
유람선
제아
클리셰
리버스
보성
전태
선적
오리엔
학군
초사
조운
통계학
찬찬히
대대장
그랑프리
조잡
폭삭
사일
라꼬
문맹
신용장
빠져나갔
##보유국
내서
특강
레이지
닫히
진면
it
도내
조병
운전석
다산
백합
자의식
더나
뒷바라지
흥남
탁상행정
브레스
웨인
팩스
자본금
신칸
지훈
작성자
리눅스
중급
흑색
##펠러
사기죄
프레드
병자호란
강산
에비
가인
장엄
판다고
ar
##마을
키요
##로워
필적
##Tnumber
조련
진시황
##냉이
기나
데이비스
이뤄지지
귀양
쳐가
빗나가
부산시
라바
핵보유국
퀴어
토할
##개발
큰데
대자
##라이터
정봉주
역자
린지
형광
베껴
주택가
어허
전유물
설설
갱수
전구
빌헬름
에스파냐
꺼낼
작인
하락세
앙상
두려워서
네크로
작살나
##지사지
흥정
윤봉
망가졌
난데없이
나우
가보
노라면
지가
##된다
역지사지
구급차
Ph
러너
완주
##페리
꼬치
부기
김세연
군관
아디
주거지
##말이
기축
침식
해서인지
화합물
인트
토토
들어감
폴드
##마치
미네랄
습니다만
밀쳐
상명
울궈
괴이
그리스인
리뉴
##보도
##어주
지프
페르소나
개죽음
지킵
굶주림
고군분투
간간이
나태
송철호
승급
꼬랑
팽배
비합
뛰어드
무한히
##스티스
재범
함의
목메
치우친
##덴티티
아이덴티티
대학가
프린터
난독증
기내
닉스
회초리
##nt
그이
명치
보배
##꼭지
##탄두
표지판
지음
막차
협곡
강해졌
기합
해이
치명상
정월
종주
편집장
느껴야
지킴
다나카
파행
열렬히
무로
개작
백서
휘젓
스루
기관장
살아난
합쳐도
목돈
프린스
Ro
다야
탈옥
산만
송시
전량
지배층
##oth
배웅
공민왕
정주영
리마
말싸움
더라구
당국자
연대기
원작자
선민
고초
된단다
실소
##르륵
앞부분
##벨리
무릇
샐러드
다니깐
본거지
##게이트
게시물
특정인
나래
봉하
##사이드
##레이즈
바알
해산물
할로윈
트리오
인천광역시
##득실
##ash
비무장
우화
요시노
쪼잔
가로등
그을
이미선
두터운
젓국
중학
##가동
##전력
김영철
불어나
집들이
방종
달나라
##ical
붉은색
생동
뒤따르
육수
까자
어영
득실득실
가토
날지
외도
현시점
자키
갈아치
몸싸움
슈퍼마켓
직간접
적개
피나
교황청
매그
으로선
숙성
더디
넬슨
##막음
구멍가게
감염원
수납
전희
만족감
산후
밸리
실바
찔려
마도카
바그너
크레인
자폐
곤혹
조비
구자
당선인
적과
TR
지친다
코미디언
생리대
띈다
메이트
아씨
게으름
그칠
상선
##피탈
그리핀
자켓
쥬얼
글단
범람
졸속
오피
UC
런닝
늘린
쇼군
뚜렷이
##카미
문성
벽면
털려
정신대
두들기
부세
태초
리키
식비
##운하
집정
허긴
##호테
충격파
구박
액세서리
인도인
세일러
시그널
가로지르
Ad
형이상
무서우
우루과이
꽂혀
su
아닌감
신조어
꺾이
행시
##ile
강서구
상병
올라와서
라이드
몰지
먹힌
증빙
하라
##여대
쿠사
양방
##몰이
이등
번뇌
면면
포구
극락
꽃피
아차
##현동
사보
##딩크
빚더미
자충
황자
내부자
교량
달려온
재우
오딘
자음
LH
바이어
심심찮
숙인
레슬러
바르트
망이
샤넬
대호
연변
떨어뜨린
변비
사월
박유천
빵점
추장
알렉산드리아
사천왕
바인
##이라
감비아
글래
해택
리볼
지방대
매칭
유럽연합
수면제
주옥
럭키
카쿠
껄끄
아카네
고릴라
##ey
무감
마르크
탐관오리
장시
##퇴직
뛰어든
영예
점철
##수단
아제
조목조목
신칸센
타노스
쫓겨난
히딩크
여아
지쳤
생겼으니
연금술사
돌풍
학장
##르트르
두드러진
스케이팅
특단
도정
누굴까
뚝배기
한약
닥친
##저트
부서진
뚫렸
선심성
SUV
뼈아
하체
##지휘
노미
씨알
여분
동백
아픈데
LI
간선
선주
하산
카제
##OX
##찌개
가압류
불면
마리나
문두
버립니다
앉혔
입막음
병원장
로사
악세
항전
화단
분파
모에
압살
레프
조라
폐위
부턴가
##라이언스
거들먹
쿠리
올라온다
유니버
매트릭스
값비
과로
고령자
염색체
역세
코딩
농수산물
위층
외동
잇속
중진
##관리본부
##복음
조심스레
수역
윤기
동일본
끄레기
아고
관저
달구
##어머니
솟구
마니아
신고자
듀크
서사시
방아쇠
묘비
잠겼
동인지
장내
조마
천년
너그럽
중국식
새들
집시
피에
세레
평이
성큼
심플
어줍
타원
굴절
개인전
계산기
도취
달료
도축
도와줘
금색
녹차
혀라
잘랐
해열
알아차렸
시문
가를
질병관리본부
맞닿
소폭
##탐탐
##박사
올라올
입주민
계량
태형
##고스
매개체
경차
수요자
날아간다
snumber
맞히
혐오감
MAX
호시탐탐
EN
끼우
가려라
분지
얽매이
블루스
악장
에러
공언
철창
UP
히브리
굴종
샘물
##치병
땡겨
조지아
성채
심리전
##애자
껄껄
몇일
산업단지
수혈
굳건히
도탄
하남
광고비
했을지도
잘라라
감수성
겁난다
인단
마음씨
##꺼풀
벌판
중금속
체장
하르
확연
김은
뽀뽀
호박씨
긴가
마고
짜집
쿠르드
잊어버렸
RD
처한다
공물
##니코
거장
기말
뚜벅
더부
북적
탈주
거수
헛웃음
믄서
부록
콜럼
거동
독거
장어
##훈련
묵념
요셉
깨우치
대잔치
뛰어내리
제각기
오차
##고불
##양이
세척
##텅이
기뻐했
토트넘
문하
빙그레
줄라고
직역
후광
##자족
##굽신
대못
##보우
무서운지
불시
위신
증조
LPG
아르메
학식
치우쳐
후쿠시
디렉터
하품
뇌물죄
굽신굽신
자급자족
비젼
나이츠
원해
질소
추켜
주술사
##설수설
대리석
법상
재이
카게
##군데
그만둬
쇼나
##라치
연속극
텔레포트
단테
방문자
지져
##푸르트
고라도
두환
엄폐
근거지
대기실
요충
횡설수설
감싼
위약금
내려와야
이지스
수완
그럴듯한
무뚝
뷔페
##차곡
가까울
로마인
동탄
차곡차곡
입힌다
김소
어인
식인
쓸려
알찬
떨어트리
십수
체리
하임
훔쳤
나감
최전방
발가
볼거리
얼라이언스
##rd
##운수
으쓱
자퇴
##블러
사미
이겨서
무뚝뚝
눈가
합장
앞세워서
차떼기
요리조리
만장일치
금빛
살아난다
아의
활동가
쏜다
##ll
거덩
윤영
개악
검문
다든가
철자
통나무
하오
만치
잡힌다
하염
원죄
졌으나
철조
청소부
내줬
numberS
알려줘
공정위
근저
얼리
허드
김보
지녀
김순
배째
##ecd
양평
##리드
##묘지
아미노
경례
##글리
중앙은행
삐리
안구
정치력
낭독
북한산
되살아
##ool
전문대
저항력
대여섯
박한
흔쾌
미완성
개싸움
눈살
서거
종놈
벗겨지
유목민
엑시즈
고열
일손
해열제
재제
##발전
키워라
핵탄두
조윤선
금주
인감
투약
표리
영희
윈터
개드립
비화
진기
광동
핫바지
앞장섰
삼거리
서툴
카밀
실제론
죽여버
현행범
AG
뒷문
물불
학연
##덱스
이세상
숙련도
준결승
홈피
접촉자
맞닥
에듀
높인
엄살
유턴
소개서
뒤져서
사각형
규약
루팡
리믹스
자연인
성명서
김웅
현무
##티니
##감정
여쭤
치적
다칠
들르
땅굴
재정부
리얼리티
HT
공속
읽히
수준급
인도주의
내려지
이론가
다문
페달
##ink
흥선
##렌트
김미화
사활
시아버지
노여
스토킹
영악
진형
페이퍼
고금
기시
농심
더우
알량
진과
라이징
산호
정중히
등록증
항소심
속삭이
엘리스
땐데
대영
미어
베니
딱이
뭉클
사하
조나라
박명수
등대
레베
서한
양치
윤성
허기
되물
병마
##DS
둥둥
동네북
단돈
뒷골목
이체
산천
소꿉친구
IN
굵직
세정
On
보금
갸웃
으셔서
사행
아낌없이
단디
##툭튀
파라오
지웠
보금자리
들떠
실망감
이에야스
서치
조디
황족
이반
빵집
식수
##Rnumber
허전
경외
선종
벌어져
퍼뜨려
##시즘
여객기
캐스트
힘겨운
팀킬
복음서
아쉬웠
갑툭튀
올바로
모용
병리
밀려오
전월세
굴곡
베라
창아
고무줄
영해
원재
Rnumber
유랑
향토
##UN
##재기
시타
족쇄
지피
바티칸
광속
섭정
헤집
##국가
발사기
기표
박준
청구인
경련
화들
##선스
이즈미
꿍꿍
체증
##바루
당정
임은정
##보그
원로원
근면
민우
윈도
조각상
##레슬링
##HD
바벨
불고기
앙도
직통
설움
방청
##are
구서
화들짝
요망
조질
걸려들
깎이
퍼시픽
하난
Hnumber
심증
##나스
장재원
기네
불거
빙상
휘날리
대표단
날아간
은은
짠하
걸이
솔저
토비
끄떡
스피치
유관순
칼빈
발트
덮치
직분
라이선스
바텀
아노
수전
문전
우후
히죽
다닌다는
방벽
권투
술값
요것
집합체
철책
이황
변절자
반목
기울어진
작아지
우이
##겨우
판촉
시애틀
역모
프로그래머
되살리
만듭니다
미자
미도리
면피
라이트닝
All
감전
저수
트임
벌칙
기병대
전능
지당
망덕
어나더
재택
흉내내
바니
집게
유우키
요놈
협찬
프로레슬링
코파
##백백
물약
정모
##레스테
부자연
비스듬
사민
알제리
##증기
뿌려서
칩니다
캥기
NL
메뚜기
판자
남하
욕되
판본
바주
비지니스
강원랜드
표했
비빔
승하
##pg
파괴자
III
me
줄리아
##러웠
##불견
전리품
빙글
세법
해한다
##성어
권한다
아름다웠
들여야
통했
스쿼드
라오스
엠마
##프레드
질렸
##던데
어려워졌
봉착
장땡
의식주
명명백백
sc
튕기
하대
##타루
구문
이뤄지는
나카무라
밥벌이
외친다
라프
아뇨
청혼
다이렉트
웃겨서
강판
포부
레인보우
봉화
이을
으려니
빼돌려
Dnumber
서연
본고
토기
이건가
횡단보도
콧물
핵전쟁
꼴불견
풍미
역과
주안
##마드
군용
목표물
느릿
올레
##브이
애지
원사
최하위
반민주
채워서
파정
##유사
정은아
밀입국
페가
폴아웃
하얀색
##나르도
경량
##연자
방수
불도
레이븐
원재료
탁현민
웨딩
탈레
##저만
영선
Lvnumber
웅크리
한명
닭고기
선험
그어
돌아댕기
패하
민가
심석희
앞섰
야마모토
도읍
드리블
방북
후루
스왑
해져야
얼씨
뒤집히
이화여대
적개심
쪽수
주황색
선녀
총학
##이야
오자
현미경
소문난
비주류
##리니
실종자
김춘
새이
무한정
걸으면
기뻤
주성
이럴까
지레
첫차
말려들
##제표
yg
순간이동
간헐
기당
난징
봉이
대종
공연히
간데
끼쳐
그치만
돌려놓
상실감
스냅
정이
족히
헤어나
##잡배
금산
##체인
시편
시정잡배
이바
평하
어유
잡범
조의
스몰
전업주부
로펌
죄자
변조
에메랄드
난린데
대범
성호
수경
##노프
numberkmnumber
GO
파해
의로운
짤린
노량
사이보그
방류
없앴
까리
허겁
가실
산신
나왔으니
CT
돼냐
투자가
재무제표
스타킹
속여서
슬금
화답
이은재
출항
가져온다
DE
루미
산군
통채
피겨
##내셔널
인터내셔널
히스테리
직영
값진
아싸
내다
##빠지
헤라클레스
##손가락
클립
학자금
방지법
담가
로자
계엄군
풍력
괴로워하
노기
돌고래
싸돌아다니
이쯤
타키
하루속히
아르메니아
군경
롤링
바트
청소기
유니온
비할
물주
염불
이형
##조작
정용
애자
엠블
우먼
오리지날
먹혔
번번이
절하
흡족
의문점
고체
피처
불안해하
이만저만
교직
방주
지배인
dog
독기
송장
##면서
##바스
자아내
하교
##캐스트
가물
기필
음음
찮은
김남국
꼬맹이
보균자
대서특
리니지
적격
치세
넘나들
꼬드
뒷산
학당
대서특필
불임
지어도
구천
푸념
들어갑니다
라더라
승상
락스
나른
맺힌
발췌
필승
알아낸
기슭
##요금
빈곤층
오클
밀실
휴학
박치기
헤드샷
양팔
퍼레이드
폐선
기타리스트
허우적
은연
그만한
혈액형
일일히
나시
밀치
합숙
기류
의중
##치미
##슬라비아
유고슬라비아
노장
절개
깃든
적기
금충
쌓였
의연
강희
뭣하
못내
데이브
부들대
습한
떠내려
수돗물
오열
조구
에이미
원생
김성수
회고록
애드
CH
였음에도
목도
비엔
적대감
개전
야훼
담요
서당
혈기
내손
노랗
생포
황량
잿빛
오로치
단비
자객
천방
베른
##게티
컴뱃
겨우겨우
##노스케
끊겼
전령
문정인
토요타
두통
계승자
능통
발신
후추
는가요
코노
말다툼
맞불
##버시
OLED
관전
깨어났
늘상
일침
이름값
윽박
더해
내보낸
뇌졸
지새
촘촘
밀림
공수부대
DPS
난리나
##답시고
특이점
마운드
험하
가정부
진면목
섹션
슈퍼스타
표주
##부단
한다던데
내색
소추
중환자
탐내
우유부단
민족주의자
싹수
한다든가
승리자
즐긴
로니
##다랗
##지겁
웨폰
이구
현질
욕지거리
그까짓
허겁지겁
어퍼
요절
쓰러트리
제사장
난로
낭떠
맹독
낭떠러지
에필
패왕
에필로그
토드
모란
어투
우등
폐원
보냅시다
루이지
피아니스트
맛볼
부락
가까우
외야수
옷장
동그랗
타산
교명
분분
댄서
로버
##ai
리액
조신
다스릴
날씬
루키
빈센트
콜레스테
해줌
유카리
폭발물
쭈쭈
촉매
데려와서
미워도
마교
졸음
피상
고영태
일만
탁구
연줄
빗자루
아반
##에이터
흥하
다이묘
환갑
한겨례
소대장
중남미
기요
준석
헐크
사타
풀풀
아우디
콜레스테롤
완만
미추
볼드
억눌
잡다
##다구
스케이트
내동
지교
찢겨
감독관
나직
모유
부정과
프라이버시
과한
놀란다
불응
멸하
편애
눈매
##ng
구조대
기나긴
떠든
비닐봉
불상사
##라마
공사장
리전
혹자
확성기
명령어
막지
기니
데려갔
아랫도리
유가증권
여리
지지부진
독실
산성
술술
누린
부러운
상급자
나빠졌
형이상학
비탈
왕립
fr
오정
잊혀진
##프레스
유유히
닉슨
봉합
##테오
빅터
졋네
너라
논산
어사
블록체인
속삭였
전문학교
안토니오
김기현
MD
수속
숭상
신디
형세
전서
안드레아
러시아인
서유
내실
프랑수아
눈멀
타임즈
화보
양준일
접해
지바
스타즈
공비
제너럴
귀기울
을지언정
연수원
도요토미
군민
요술
DB
재검
##snumber
공모전
외톨
키노
확고히
##비용
시르
골자
다로
공공연히
발본
봤었
서동
순한
강냉이
대보
갯벌
덜컥
프랑크푸르트
탐지기
바이스
출정
불발
영양가
##열차
먹힌다
클라크
##채기
피어나
좋아해
겁내
목조
소연
터짐
부러우
부적격
도라에몽
갑니까
관성
어렴풋이
서현
짜여진
공덕
애리
당권
화원
육류
머지않아
제창
치곤
사요
루카스
##사슬
혼종
코팅
근원지
꺼야
석자
철철
##문고
누를
시효
갑작스레
즐거웠
신봉자
병폐
진저리
##북치
보냄
수사학
나두
고려사
교도관
tvN
붉히
기척
##글라
지어내
별수
봐준
흑사병
하염없이
첨예
억불
##맥상
갈아치우
세네
원순
소우
헤게
성현
나이키
발렌타인
졸지에
급성장
기댈
정실
반품
규슈
부주의
보신탕
함흥
헬레
거북이
명맥
터리
콜레
장려금
놓아주
고공
후장
외자
자연환경
땡큐
##다행
계셔
모자른
불똥
고딕
##ug
##파람
삼성그룹
편제
빠듯
##iver
선곡
이외수
임수
안보리
마칠
제드
적막
##pl
##uck
생깁니다
케이지
롯데마트
허튼
뉘우
보낸다고
본회
온나
헌팅
깊숙히
술병
후벼
##ere
아니한다
배아
종가
천수
두꺼비
조소
스테이트
몰아세우
세태
값비싼
치운
느껴집니다
구월
이춘재
꼬우
천만다행
부녀자
정일
아셨
리볼버
단상
부마
들어올리
에그
지배했
계산서
빠트리
조삼
홍정
계십니까
물감
축구장
상궁
쫄딱
축물
대주교
부질없
디비전
지칠
kr
영천
참말
##작물
단세포
용수
피똥
기어들어가
금상
승선
찍찍
에우
낙수
윤상
일갈
제식
아껴서
프런트
신드
호무
SO
국난
뒷북치
바닐라
##스민
주치의
배회
연립
이노우
One
대려
버려도
떼돈
가결
벨벳
일렉
점퍼
IOC
aidnumber
복역
이수진
영사관
##사항
무한대
픽션
예수쟁이
혐의자
갈림
점쟁이
헤게모니
톱니
남김없이
##어사
심사숙
절세
천차
나왔으며
귀여워
##orea
오대
감돌
고여
귀향
늦춰
카페인
너클
협소
심사숙고
리크
피운
재조
해지지
윤봉길
##브르
프로스트
예하
위압
내건
해댔
자충수
자외선
조처
구강
땡기
레바논
##푸드
조광조
개패
고철
벅차
팩션
방사포
방바닥
마운트
하카
히말라
비토
친부
튜닝
김종필
사야카
흔쾌히
##만금
다이나
공포감
동승자
들쑤시
여든
지청
평신
공격기
개야
결석
국법
박혔
비야
찌른
시간표
배럴
보호구역
네거
싫증
UFO
옥타
버즈
어지러운
호락
오아시스
강과
물고
털린
##본주의
밖엔
이봉
퇘지
플랜트
기특
억류
고춧가루
내자
력사
쥐약
히말라야
건드린
퇴화
자릿수
후천
바란다고
코딱지
황궁
##ism
떄문에
좌회전
살맛
우사
티벳
##라나
궁굼
긴박
누더기
소말
수유
약칭
##ower
거다
정대협
##폴리스
급선무
벌렸
범한
잇달
##종일
유니콘
어우러져
현기증
물줄기
##FL
아파도
거던
웅진
인사말
승기
연해
폭죽
라뇨
축축
선반
태안
유부녀
광저우
##린다면
##다발
견학
##동네
기본소득
왜적
가정사
난지
문관
찾아온다
본점
양립
부끄러워서
돌팔매
##포머
도형
들켰
기필코
소유물
더운데
멜라
핑이
##MS
내려간다
뒤쳐지
공의회
웅변
##공론
한자어
면목
되살아나
현상학
개경
앤더슨
떨어뜨렸
맞장구
예원
##파니
벌어들이
볼게요
##염치
봤으니
##tr
해남
비견
파이브
튀어나왔
태경
타사
##천동
국회법
광풍
셜록
전편
입소
##개혁
래스
레슨
토픽
고장난
걸어왔
재치
프리즘
강직
##칠리아
하동
다카키
괴력
군포
문젠데
야마다
일직선
호투
아름다워
창원시
내려진
터뜨려
스칼렛
쓸까
가격대
##ream
늘어진
조니
흔들릴
박지성
않되
묶음
잠재우
삼국유사
아이언맨
히카루
약했
인류학
##대원군
에잇
입주자
나가사키
교무실
조부모
교문
정과
피로감
토성
지겨운
가래침
기혼
포효
철조망
비니
성찬
김시
##세로
기어가
최경환
낙천
지쳐서
##극상
지지리
가파른
강팀
육사
누출
시책
지정학
메이크업
한상
살아났
##뇌동
인기투표
부화뇌동
노프
진범
따리
불러들이
이어주
백선
AN
대의원
후리
오지랍
으스
조사단
##공산당
래미
구단주
발치
주취
몰아붙
우쭐
세실
취득세
게으르
상왕
스바루
관찰자
VR
갑부
장발
##sp
돈지
부결
마소
컬럼
le
강현
고베
나면
카세
##연구
한의사
올라야
가람
할게
킹덤
변상
저들
감청
성심
야스쿠니
프롤로그
최태원
능멸
경박
말끝
매표
주눅
대각선
카오루
당사국
식생활
날벼락
##tm
탈레반
징크스
짤렸
포악
라메
구하라
착해
페르난
반향
청구서
뒤집어씌우
레즈비언
쓰레기장
짜릿
NAS
어드밴
등시
증자
때려도
나진
장학생
그랬었
두건
임재
지조
보미
골방
최성해
여순
상대국
종석
인신매매
세상사
둘러대
##led
황인
아까우
상했
##스턴트
욕조
카로
상식선
살판
족하
반점
산전
다수결
아이리스
당수
인스턴트
셨잖아요
불가결
스파이크
숙식
나토
는단다
##습니까
플루토
소나기
물살
유혈
폴라
담자
합병증
인산
혼신
공방전
##비비
어항
불구경
변희
##ins
이모티콘
콘테
진연
보여줌
김유신
나고야
아수라장
Ed
로렌스
유증
눌러서
계신다
무찌르
체급
놓였
##백계
Con
익사
코지
뉴타운
앞당겨
벙벙
착복
리다
굶겨
래는
오싹
글쎄요
강적
물뽕
시뻘건
하극상
흔든
생태학
마더
불합격
펄쩍
무식한
곧이
로테이션
전환점
티저
oecd
호두
좌절감
기전
일벌백계
더이다
슬며시
천적
##슬금
자태
개망나니
음악회
산란
황토
##미트
기본법
울고불
으신가
천공
촉촉
##성인
바보짓
존경심
마부
부전
올거
조삼모사
##래스카
구전
더비
문종
성녀
기물
짓눌
##ION
알아봐
조식
kfnumber
조동아리
교파
달기
기보단
인적
생산물
박격
생방송
다림
투표함
가로세로
꼬랑지
오기
결사반대
끈질긴
##스톤
블라디미르
박박
##시험
##흐로
플레임
개자
일석
부끄러울
요식
FPS
거머리
사르트르
나원
수비대
골몰
녹이
보통학교
유념
##거스
바야흐로
래야
조업
레귤
끝장내
장식품
통일성
원희
일심
##에미
배심원
원안
군필
카악
엄호
가르친다
##고양이
꿰차
##오냐
유노
잠금
커터
ON
풀린다
##ids
슬금슬금
news
헐떡
유괴
후사
시공사
TOP
노스케
예스
국민성
비행선
눌려
##anc
격돌
늘이
갈매기
기해
황천
##로로
바루
##ign
발끈하
민병대
##ma
홍익표
슬림
야마구치
종신형
아델
자기장
정해졌
오냐오냐
가호
산사람
콜드
막다른
참말로
카토
비상시국
서럽
뒤처
팔린다
자면서
드루이드
을시
독가스
맞설
몰릴
얹혀
예문
만국
박테리아
어서요
따라붙
이교도
언사
토이
중추원
시코
찬바람
수도사
용왕
어법
한지라
찬미
조계종
##링크
게임즈
직사
졸부
골리
언년
헤어질
집사람
구스
답니까
샐러리
퓨리
낚아
나영
부츠
실황
까마득
하반신
뒷목
약재
이유로
활동비
끌려간
권성
아량
환전
##민정
도수
진료소
마주친
추신수
끓어
이도
맹주
보구
철제
트랜스포머
비대위
반성문
관원
야하
종소리
기다림
도봉
모교
한달
자란다
다케다
대작
내세워서
겨레
벼르
##구정
과민
보부
정곡
개찰
립식
정윤
결정짓
어가
단호히
돌파구
송시열
선망
공정성
프렌즈
박주민
성북
##당략
당리당략
떠넘
자형
팔려서
불어오
격식
조시
연중
적의
지낸다
츤데레
##ina
새싹
##IV
저래서
맡겨야
numbert
뼈대
##데시
애절
그래야지
일렉트로
월화
##에고
애벌레
이삭
##터면
옵티
하마터면
황희
##일본
레이크
가쓰
석회
생겨도
걸린다고
완존
사회당
알아먹
마들
살핀
생년
민석
행할
양키스
기죽
못했으며
습지
김영란
마셔야
네거티브
##학파
된다면서
한건데
워렌
플랑
레지스
달팽이
얼티
흑룡
아이작
에디슨
으셔야
기러기
##갈색
재래식
차로
카노
슬러그
종군
조까
충정
퇴폐
뉴스거리
일러스트레이터
몰염치
원기
호령
피셔
시트콤
Sch
서주
로코
명기
판가
김신
농작물
채색
휩싸여
나갑니다
법망
건드릴
신교
세무서
합작품
구소
덮인
##프터
재작
프루
리엘
걸음걸이
DR
찜찜
이치로
비아냥거리
휘파람
Fate
병무
도지
사업비
밤잠
사필
집념
##UM
##호텔
##태평
집행부
썩을
신비주의
애틀
집어들
##IST
투지
이뤄질
아론
일월
천문학자
수렵
사용량
프로리그
핀잔
재봉
탄막
펄럭
호봉
아이젠
걸어온
쇠사슬
반아
단초
밀란
바바리
장화
올리버
달리기
웨일스
Im
들임
아브
염전
퓨처
싸여
황국
그럴싸하
떠밀려
단념
레귤러
조물
발행인
물려줄
군데군데
그친
응집
유학자
아미타
깜놀
걸프
여객철도
떨렸
피노
베끼
숙고
보수파
대성공
니키
철원
멍한
건넨
레고
택할
팔레
##주곡
협공
해줘야
갔으면
추운데
경찰차
궁색
카멜
덕지덕지
겠다고
다이너
삐뚤어진
깽이
해낸다
흉흉
명실상부
위중
따돌리
평수
소방차
야시
이학
입출
불행히
천신
친위
와이번스
소비량
로맨틱
##하이머
방책
오쿠
으십니까
행선
오찬
양형
뺏긴
휴무
수사대
화났
애틀랜
##거름
돌려라
회기
나지막
문민
애쉬
천부
명대사
생물체
귀퉁이
지하수
칼자루
쓰러진다
노동법
고쳐라
스타트업
새까
헤딩
##노리
발버둥치
함경도
외눈
참고인
기관포
간교
등한
스마일
릴리스
평했
##페르
든다면
증오심
진국
이상실
쇼쇼쇼
급소
##시개
양아
의경
프레데
김수현
OB
단타
질풍
아미노산
떠돌이
헌혈
잔액
예명
선동가
눈보라
스팸
앨리
치여
##사장
기주
파충
깡그리
압구정
갖출
로로
이근
여기자
보국
괴벨
낌새
런처
희화
김택
원진
매달렸
##집합
격화
방독
LS
미분양
##토시
영화사
명종
연구비
마르셀
부가가치세
악단
제시카
포커
##전사
금할
잠바
접했
시덥
##수스
독차
차악
소비재
전지전
조나단
급조
언변
설파
지온
진통
섣부
##포로
남아공
교권
##cal
전지전능
부시장
감미
간악
사생아
소모량
최적화
얼떨결
FDA
짐짓
GG
거닐
난투
나레이션
남일
양심선언
유방암
플러그
정치범
글라스
수포
행사장
bl
빳빳
시판
치뤘
고무신
단층
변천
루스벨트
김예
킬로그램
##문트
##타나베
뭣하러
메구미
이범
씨족
십일
급습
조바
레오나르도
댕겨
속세
##태현
새긴
다닥
차감
브릿지
미관
선화
전집
피사
중범죄
여린
무효화
데니스
느껴져
##일라
매서
외워
구획
기간제
불식
을께
인스
천인
국립대
드나드
고결
MSL
강제성
테일즈
마장
니기미
다한다
펼쳐진다
주원
모국어
와타나베
되돌아오
주려
헌장
뿌릴
요트
제원
영상물
러서는
도사리
담판
시제
전국구
거금
빠이
사교육비
조범
##기념
즐긴다
##목사
연좌제
기압
코웃음
소상히
질지
알아낼
몸부림치
결장
전반전
순교자
수니
화이
들개
오덕
저스티스
들어간다고
인장
효성
##제철
가느다란
몰지각
구렁텅이
시금
짤려
퍼져서
광진구
##IE
개풀
약발
##ero
##달라
남군
비등
중앙지
지산
옮겨졌
카르마
오합
쩝쩝쩝
카카
코빼기
아랍어
성내
정크
영양분
줬으니
지존
처세
주영
초저
##려구
##정지
##코지
알렉산드로스
##메트
노소
설계사
오로라
컨대
##ode
발랄
익혔
흩어진
##폐기
이중국
번화가
고온
유하
청동기
리바운드
장한
평의회
공금
옹립
마님
벅찬
오명
새하
오행
처량
김지영
와이어
시식
TO
염기
루루
운다
윤종
자드
정강
첫눈
아카이
뒤져도
걸터
니께
만민
미싱
회비
##irl
내던지
소임
트리스
##소총
##금니
퀴야
흙탕
거머쥐
극작
엉성
장경
족쳐야
최루
##불이
비대칭
김여사
불기소
투병
##손자
가지런
카자흐스탄
매지
코리안
누런
오소리
번다
지나쳤
##ous
캐내
침략자
역겨워서
계셔서
호그
후견
살찌
중일
가석
BE
덥석
gd
물색
색안경
순탄
금욕
리에
실어
##네즈
무사시
당최
마일리
설대
홀딱
투표지
골프채
결의안
곰탕
찻잔
은어
자조
회용
장애자
공실
일지도
대참
저점
베이커
어감
아역
괴벨스
강호동
##후무
샌디
전무후무
슬리퍼
##마나
go
태고
특파
기본급
##int
성정
국무부
술책
##ife
##셰비
번다고
장세
크리스토퍼
흥선대원군
그래왔
몰랐다
시끌
필로
스위트
##푸르
프로토타입
요르단
틀어지
부르크
##ork
흘러갔
탁상공론
##양양
시시비비
형무소
총성
달라져
발명품
얼렁뚱
광활
앞머리
피난민
도나
이승엽
파먹
무난히
동내
은영
환매
나와야지
드리워
만고
선단
코요
##고랑
바로크
KD
촌장
수작질
지킵시다
운전수
눈덩이
교통수단
들여보내
아쉬워서
추도
투니
수개월
표리부동
지국
결례
졸리
강풍
칠성
우루루
양조
아멜
수문
재연
도로는
꼬리표
패트릭
대견
약세
드라고
발밑
유일무이
미혼모
삼켰
시차
콩고물
깜냥
요크
생계비
비속
조슈
팽개치
해밀
다락
버디
우니
이오리
만화가
찬송가
레파
신검
관통력
락할
점성
낙지
배설물
스매시
동진
라벨
비협
시보
중수
해야겠다
보일지
가평
총책
##마르크
관리법
한다던가
간통죄
로스터
미유키
씌울
이노우에
존칭
탐방
준장
저작권
왓슨
한다네
라이스
엑스포
바빌론
매거진
특채
Kbs
건성
산둥
삼림
편대
독차지
수잔
조옷
목자
방증
케임
콧수염
##bb
무감각
소기업
최인
털어먹
펼쳐졌
드러눕
골머리
살며시
치환
퇴물
자넨
UFC
식은
익스프레스
Co
##습기
시킨다면
소화기
SW
co
각목
관현
해국
##쪼록
그리드
어금니
국가관
터트렸
sidnumber
떨림
빛났
좌편
기망
유두
호송
크리스천
이혜
전자기
##동물
식은땀
반대자
상계
체불
통조림
관군
JP
주이
지회
발원
페렴
시무
초음파
##ier
끌어당기
가렸
입니다만
정규군
북진
참기름
버벅
슈리
적십자
착실히
##방귀
균형발전
조승
졸이
##군요
군단장
살생
바쁠
심지
##티어
해적단
났으니
물으니
불러온
니케
역공
전압
청년층
비루
주호
클라라
틈틈이
호되
버렸으니
향우회
요충지
맛나
어겨
미야자키
몰려드
무겸
생매장
고품
본론
질색
뒷날
언약
부딪쳐
꽃다발
##만별
나흘
실비
천차만별
un
긴다
에일리
췌장
버팀
잇따
초전
베이컨
무법자
북벌
포석
객기
순항
구여
베이스볼
디트로
작심
디트로이트
격변
삼월
##문가
금식
##현정
집정관
내어주
염라
탄두
폭풍우
봐주
안전장치
##떨어져
##발림
무드
법체
체득
##tern
지운
천계
로열티
향신
가석방
은행원
트래픽
임이
체인점
쌀쌀
징표
선언문
정경두
잖소
지부장
대판
기대치
마우
타들
남충
얼룩진
번들
사울
저긴
컴플렉스
대장장이
이부진
가본
##사와
한산
신보
아세안
좌시
서희
numbernumbernumber
술법
중엽
라떼
만루
스포트
병법
적장
##큘라
심해질
삿포로
프론트
재검토
보초
비바람
삼척동자
리히
으르렁
##페스트
불러다가
미켈
자니까
##orm
인게
퍼먹
불충
연가
##치마
휘두른
겨드
번뜩
접견
연두
완승
봐왔
친형
영자
경대
상심
장상
케미
근황
레밍
들어간다는
소시지
그런대로
##스트림
역주행
곁들여
넥서스
스텐
줘패
풀칠
DA
장현
졸업장
합해
iOS
광주시
정성껏
괴변
지켜봐
미끄러져
메워
활활
고모부
규합
주제넘
배리어
환대
건설업
Star
은신처
들어앉
소말리아
칩시다
신청자
안착
맹글
감독원
라파엘
과소평가
천불
##트니
떠올릴
장탄수
교조
문둥이
불현
앞장선
축재
치수
손보
계산법
귓가
허언
이정미
얼치기
통근
축구단
밀리언
암흑기
Gre
날일
밀정
냉담
우타
카즈야
꽁무니
불효
오롯
체크카드
오합지
sidnumbernumber
##자매
강경파
##소송
##비우스
##갈머리
드레드
낮춘
아운
겹쳐서
건너뛰
절망감
프린트
미공
부르르
프레디
할려구
뒤치
침울
##마사
하지메
장승
일맥상
자주포
일맥상통
우리말
oidnumber
멜리
부익
인격체
넘어져
수감자
악세사리
세츠
코시
니스트
렬이
부고
죠죠
뽑혀
선왕
절기
지구대
실에
비합리
원두
##ta
##GA
##노트
문도
실직자
한평생
##려는
급작
누그러
노점상
붙히
어후
##olog
my
컨벤
포근
성형외과
저널리스트
박하
즉결
지하철역
찌를
초장
스터디
멀뚱
하인리히
베드로
순기능
종묘
구데기
여객선
도상
무정
##무야
##네트
##게이츠
따듯
소영
극우파
방해죄
케리건
유야무야
아소
침수
쾌속
래리
완고
브래드
대환
빌게이츠
열성
Car
페이커
은연중
으름
홍차
저기요
지성호
엎드리
프란츠
곱하
등단
뭔일
뻥뻥
여시
아르카
낚싯
별루
하영
띄어
우렁
오합지졸
따라간다
유치장
쫓겨났
sm
칠흑
##몰래
샴페인
진통제
사선
성소
온종일
고시원
신창
조면
변칙
중퇴
브룩
악곡
좋아해서
계신데
함구
드라큘라
피부색
머들
여차하면
뺨치
타박
검도
낯익
사출
감시자
갔으며
질까봐
평시
EV
각주
피울
##융합
수행자
가로수
외할아버지
모로코
악녀
떠돌아
직선제
그중
새만금
금새
원아
시험장
빨라서
코스타
널린
여교사
우도
풋볼
위한다는
출하
무진장
광탈
애틋
##oss
시저
쟁반
매경
문제아
더러움
아우라
괄호
옥스퍼드
뿔뿔
해진다는
얼렁뚱땅
길동
별세
정순
청천
끙끙
눈부시
온기
##지변
TF
부나
현찰
이방원
컨벤션
전황
옮겨야
##amp
틀어박혀
탕감
된다니까
공고히
회계사
배합
숙원
영합
으셨어요
굶주리
김칫
불끈
최고봉
강남역
공포증
설렁
##IO
정찰기
SL
민원인
실타
씁시다
ATM
좌초
천거
광교
반팔
석연
순발
인주
구보
##진보
장년층
글러브
유코
아쉬워하
전군
핵융합
매수인
라잖아
로미
아슈
되묻
본회의
활로
서투
발갱이
원호
어야지요
씩씩
유메
특질
##야금
머나
순발력
고등교육
호이
##다닌다
구수
리노
오존
처할
양다리
호강
폭사
중죄
야금야금
웅덩이
루리웹
바하
꿍꿍이
본때
수익금
톰슨
주나라
급체
혈서
머나먼
단수
방명
부순
##귀정
그레고리
구선
대첩
프라이드
달한
골동
연우
주세
페더
풀어내
대마초
한센
김구라
피시방
만도
호랑
불현듯
안사
판독
모티프
걸려야
선제골
그럴싸한
볼프
피그
한물
느냐며
매끄럽
허니
##스트로
밸브
음질
나뿐
##ave
아나키
랜턴
원색
으라면
라던지
날아들
일등
최전선
껴야
산도
쟁탈전
갈고리
김전
박격포
버릴까
TBS
지방산
옮겨서
계집애
촌놈
불러라
갈림길
차안
청호
로직
내지르
군법
돋보
받드
넘쳐난다
일어설
패스트푸드
분권
의붓
이병철
미토
뺏어가
조선조
도미노
제아무리
엑셀
자도
##즈카
방비
저세상
##쌔신
동맹군
사필귀정
기폭
내겐
어쌔신
왼발
란트
파드
##어냈
구조주의
##다녀
방독면
갈일
##진다면
각별히
백설
이로운
포자
경비대
스킵
##GB
그만둬라
요샌
유년기
쫒겨나
고름
다뤘
와이드
##지리아
나이지리아
우즈베
정각
신호위
로고스
나트륨
꺼진
초급
홈플러스
##자스
시우
경계심
랜서
머지
통일교
미망
허준
##갓집
분풀이
유품
출원
##ition
파충류
##개구리
사이언스
영접
콧구멍
태웠
##노부
컨트롤러
민혁
천재지변
기근
가한다
관망
##비히
##때기
반역죄
모터스
부익부
어구
군바리
쇼맨
애석
신문지
오리진
그럴만
내팽개치
행진곡
해야겠네
성불
수은
야로
말끔히
차창
신경전
##ull
공당
국문학
##꾸러기
##모더니즘
경비병
포스트모더니즘
여진족
부활절
공청회
공병
보여집니다
##토리얼
골칫
점사
##리지
조선업
낮출
데르
위도
겸직
뒷부분
펼친다
유실
엘자
조바심
옹기
태미
##모아
형제자매
사우나
발가벗
리차
##느냐
아이비
##경색
##잘것
##이즈미
높여야
쫓아오
빗장
윤희
응모
토네
푸코
칼리지
덮쳐
산탄총
뇌경색
송아지
지점장
남대
사냥감
##원숭이
명지
분석가
TP
교신
백혈병
노영
황룡
러시아군
라멘
주화
##ale
우편물
골반
GTA
ytn
UR
이종걸
순박
부여잡
엇갈리
한조
동식물
서글프
리부트
도둑년
태양열
관아
맑스
광석
임태
거둔다
발소리
전광판
스릴러
신파
쾌활
사탕발림
경장
##곡리
##차원
에워싸
반나절
히나타
막아서
튜토리얼
라카
페기
용광
들킬
신해
사이먼
유엔군
with
불러올
걸터앉
화근
드릴게요
우메
통속
숙녀
촉각
유로파
천식
텐가
해안가
덮개
핸드백
할애비
유소년
청일
곤두박질
우둔
##브로
가라앉히
필패
네로
뒤엉
칼춤
업무상
석가모니
아킬레스
쓸려고
조타
비전문가
악연
잊어버린
배서
빠져나간
꾸몄
육포
장당
북위
보약
가창력
스네이크
정병
강할
마로
프리드
애호가
실수요
셧다운
스펜
다망
아양
연놈
유충
줄무늬
건당
대련
채동욱
개과
브뤼
숨지
모멸
##악단
이다
여만
연성
전란
무함
으니라구
소금물
프라하
반바지
방패막이
완용
흙탕물
기안
기록부
비협조
깍아내리
##ING
내과
웃겼
##덕거리
근본주의
콜럼버스
발설
황장
존엄성
신천
킹스
속속들이
IQ
감언
논밭
함포
앤드류
경륜
빼앗겨
##와야
오션
스펙터
코르셋
광견
후일담
원군
도전자
엄포
이뤄지고
도가니
련지
보시
성패
경순
삼전
금나라
##iew
##보리
우월감
짤라야
##처녀
뒤떨어진
저학력
연작
갈길
환심
목마
부의장
얼티밋
무교
박장
CL
실까요
구매력
퀴들아
여물
중과
##당겼
난전
선친
가타
동주
##털이
설명서
다워야
오븐
##예술
시집가
윗부분
흘린다
##계약
경제인
필시
수도권
랩터
불지르
수발
매카
흥원
##IR
끊긴
역정
용의
##바시
바오로
단선
대뇌
몰려서
성교육
옘병
격기
볼턴
라티
볼링
##취업
##집행
이러쿵
##코어
니코니코
헤엄치
부연
##레미
기념품
김칫국
SH
따귀
문답
주몽
순자
용법
근근
보살핌
광복군
예일대
박봉
에어리
빼돌렸
Joh
상설
한동
할란다
광주광역시
##마담
바닥나
모른다면
일언반구
이잔
추문
자알
처제
합참
자파
마태
어류
우열
갈팡
야산
중무장
##호락
방명록
칵테일
가져간다
떠보
호락호락
탯이
도입부
판가름
명석
수나라
제이크
컨퍼런스
광년
면사
분투
양천
파스타
##Mnumber
레스터
아몬
효종
##날락
엔가
##장성
기개
의왕
파커
자유의지
대치동
들락날락
라매
천연가스
바라봤
자빠진
털썩
##속임
tk
장생
생모
눈속임
따졌
식대
다이애나
보스니아
문집
발진
등한시
불량배
고행
병살
서빙
감옥행
소산
붙혀
옹졸
외박
지파
잖습니까
진두
잖여
저음
##고르
서슬
조가
허균
더듬이
용인시
사학재단
난이
장강
레니
백일
파쇼
사이렌
부려서
##토류
북서쪽
밝기
외무부
게리온
조력
퉁퉁
유니버설
갇혀서
올라섰
체육계
바쳐야
두드렸
각본가
식히
생긴다는
오동
오점
이항
##고도
불쾌감
비좁
지상주의
포장마차
Mk
장량
희토류
오랫만
대유
빗발
부위원장
오스틴
DF
지세
조롱거리
알프스
열의
응수
포워드
특파원
라울
막중
차치
핏대
프란체
특활
numberh
병종
까칠
이데아
찾아갈
그려진다
양방향
표범
논란거리
남조
잡아당기
구술
자긴
부러움
번트
스폰지
시험지
유물론
테라스
anumber
##하우스
화엄
웨이터
해두
빙긋
얼터
인두
패인
일축
단정짓
NASA
교우
웬수
불알
토탈
##ild
내리막길
##라이즈
기현
덜하
##닙니다
##익빈
극좌파
큰일나
빈익빈
정감
하늘색
무네
효린
장모님
월과
켄지
찾아봐도
브라더
국빈
뒤진다
매질
관절염
영종
요우
##학생회
라네요
파고드
얼굴마담
변별
살돈
예장
축전
병명
##부사
##잘것없
리액션
마일리지
시이
윈스턴
유약
바를
찌른다
약해진
총학생회
##난리
STA
가습기
미하일
견훤
회당
##사관학교
솔라
##부미
스필
cnumber
사스케
##코르
넉넉히
누진제
지나간다
자산가
루시퍼
스크래
터무니없이
벌렁
썰렁
율곡
프래
##난방
채워져
케이티
가려져
견적
자욱
아이패드
신주쿠
대자보
어린놈
해보인다
스트립
환호성
골대
히키
##사우
##셔닝
포지셔닝
갑상
인선
소고
Do
한국전력
허가제
AL
건진
한림
##전설
리쿠
문선
조예
증산
##어른
파니
쌈박질
성부
눈치챈
계룡
제격
거느린
나침
사간
문화재청
Day
벽지
깔렸
마이트
절대다수
두툼
부안
입소문
슬라임
##진보당
비집
서려
억만
##방사기
걷히
과징
슬로우
사기질
기선
당상
림프
오수
전인
풀밭
해탈
천년만년
촌락
화염방사기
클락
추모식
복당
numberxnumber
노여움
보일까
빠져나왔
WC
우짤
은평
##힙니다
연기금
맞섰
##상정
##타주
베이더
개주
조응
국민감정
##ann
넘어왔
와이셔츠
선보인다
행정학
RC
걸릴까
BGA
공성전
산국
위용
UI
수호신
사우루스
레이너
지원군
간이
이스터
자연주의
사절단
붓다
메라
빠라
영외
혼전
취항
##따나
##벗고
띤다
코리
경찰대
비스마르크
지평선
청량리
세용
윤동
만우
부랑
셔터
씨씨
RS
##정권
사무국
무서워요
쇄도
탈리
니콜라
동봉
단일팀
감가
건넜
파안
##맹랑
우스갯
안지
##강우
허무맹랑
노량진
시현
금과
기거
##가사리
연단
프로토콜
로젠
스탠리
티격
가려진
전희경
구루
한옥
계몽주의
마포구
이리도
테드
피파
이륙
제다이
해준다면
메릴
당직자
조직력
어눌
발벗고
선제공격
DMZ
뒤섞여
부단히
크롤
지켜서
불러들여
나일
머문
웨슬리
물통
세면
티브이
천인공
천인공노
경중
질기
곰곰히
진아
서스
창안
##옵니까
그만둘
문화사
보육원
취재원
금천
벌어들인
날렵
변해야
친했
##보다
지켜본다
데우스
애프터
들락거리
물렸
슈터
취조
불량자
에볼
장서
태어났으며
##느릿
라데
Jtbc
만대
지를
레이터
지배력
살롱
장렬
불면증
가용
들킨
자를
적어지
해동
##그로
##재주
코스모스
애리조
리허
아낄
진달
##les
편집국
지껄여라
쏘아보
소치
프로테
볼셰비
##EA
가르키
디플레이션
##헤드
걸스
격언
경전철
날라오
프랑켄
옵티머스
굳어지
타카하시
박계
변해서
처마
표밭
차르
축조
크래
본대
흘러내렸
달통
라요
역이
투박
##린트
방전
주전자
주막
따라올
직격탄
시칠리아
이치고
##ors
그랜저
청담
샴푸
약혼자
감흥
글루
독고
자습
##애미
학술지
울궈먹
은색
면할
##지둥
떠나라
물씬
모잘
타일러
행차
##이인
영화판
강우
어록
영속
##징가
고승
담백
치만
토나
함몰
##블랜드
영월
돌볼
접착
##세데스
메르세데스
허둥지둥
CB
명왕
##따로
당연지사
an
취사
##빙글
집어삼
IR
감초
백범
쌍수
준대
합일
형부
관병
인솔
스윕
##진진
굽실
막연히
이실
클리블랜드
노년층
대웅
광훈
꼿꼿
뒤죽
원반
빙글빙글
되먹
도량
독극
창자
아야지요
당할까봐
유아기
##고분
야무지
피한다
한파
벌기
공개념
카이토
영구히
##라이어티
파토
무궁무진
북아프리카
스컴
온갓
총칭
치지
피카소
뉴시스
물들이
생도
아련
자유주의자
쓸어버려야
버라이어티
아란
후각
떼거리
선공
터미네이터
예수회
김석
으음
방글라
변치
마이애미
방글라데시
통아
갱생
막심
##드르
##폴트
격한
케냐
##조마
쥐죽
친애
군가
귀인
##득점
쇠고랑
뒈져
추호
군무
마따나
큼직
오장
##엄마
반해서
호우
##hy
앞발
어죽
완전체
의기양양
초년생
##ica
파스칼
조마조마
부어
쥐잡
관찰사
잡아떼
용해
처다보
으믄
MnumberAnumber
네코
심슨
쌀밥
일레븐
밑거름
아낀
이속
현은
한양대
작문
하모니
##볼트
갈통
콜로니
gdp
무속
종단
지유
틀릴
혈전
numberF
고쳐서
미심
관서
브란
말랐
외유
느껴서
닭장
##코니
만수
세이지
차베스
애틀랜타
대공포
우스갯소리
금광
발성
총의
래스터
한사
##너덜
날아온
연개소문
미온
여비
재소
##성군
교섭단체
플레어
휘청거리
푸대접
##뭉개
Sw
논리학
장장
지리학
하데스
회의장
정품
친자
하타
Gl
반원
어찌할
아이슬
무에
코다
GSL
실랑이
##웨이트
통행료
항공편
송영길
Op
너그러
누마
동심
##고시
가져다가
numbercc
과대망상
능구
됐으나
방탕
너덜너덜
성황
이너
천심
원체
으네
박용진
맞아들
열량
여백
HK
공공재
##더지
위촉
Vol
도령
힐끗
##따구
당구
문안
벨리
섹터
리투아
시큰
리투아니아
플레인
아르테
카린
수행원
박살났
자연사
##tle
레퍼
착시
##코리아
고동
동그라
자대
채점
펠트
남아메리카
OF
주무시
초일
오나라
파쇄
와선
개년
듀엣
##슈타
빠져라
진선미
폐수
지략
클러스터
문중
콜라보레이션
스트라
명주
과징금
히카리
보안관
##독립
퀴는
싸이월드
뒤로
이홍
우당
##인드
##싸대기
전통문화
벌컥
작업실
고분고분
Sy
약올리
흥미진진
데인
태동
뜯어보
고흐
전경련
##니엄
압박감
꿈틀거리
중론
##메어
언짢
대비책
오버랩
어줍잖
스크래치
면밀
부술
##트려
이기주의자
쳐다봤
마개
굿판
뮤즈
혀서
자화상
마천
몽상
##세라
다무
정맥
##이설
창조성
그랜트
기모노
지켜온
강함
불미
신앙인
상륙작전
차려입
무함마드
일념
지남
쿠웨이트
흠결
##냅시다
고창
레터
로딩
순도
에리카
##각색
옷감
##스토이
경무
##ics
스탠다드
흐린
꼬장
그린다
##구구
##me
해치우
##겁니다
완제품
황해
알갱이
공과금
향신료
먹먹
문비
토했
##ise
네버
소구
이신
해묵
급해
흩어졌
중신
는다는데
모피
건국대
전임자
걸린다는
놔둘
신박
아함
염상
떠오를
아이슬란드
구릉
서린
시스터
악습
버린다고
개간
##나갈
감언이설
달려서
반겨
보수주의자
비와
세기말
유일신
상념
##봉사
사무엘
드냐
정론
뇌졸중
엄니
츠나
탐탁
투덜거리
겁주
기통
야된다
인강
도호쿠
박승
벌떼
풀려났
쿠퍼
패미
다비
일그러진
정공
식도
체이
갈비뼈
굽혀
덩굴
형질
개인차
실래요
##박죽
효과음
접경
칸막이
채워야
일어날지
놔둬라
약수
지상군
뒤죽박죽
##sc
북아메리카
노정
종아리
##스테
공산품
영업소
변희재
리포터
비빌
주검
짤릴
##키호테
아무짝
크리스티나
못생겼
석권
코라
스커트
오갈
제퍼
##팔구
광야
예멘
오의
ICBM
아반떼
젖히
##해튼
케르
tr
나다
구시
기를
송파구
그죠
살찐
키메라
돈키호테
처서
힘찬
##Znumber
다가갈
라리
##가르드
XXX
구스타
빠빠
앙심
##YP
접어든
나이트메어
호쿠
만우절
대궐
미애
탕탕
피쳐
기민
텀블러
선거관리
선거관리위원회
개법
##색원
##아비
서강대
페이트
올가미
발본색원
건너간
비애
소포
호법
냈으면
십중
아서요
감쌀
수의사
퉁명
날아와
##부영
##죽순
##샤바
민회
상추
스퍼
양재
은거
##에프
##짐승
도적질
국전
무니
적출
컨데
일정량
인공강우
고마웠
꾸벅
현진
얻어터지
반인륜
우후죽순
배격
슈타
저변
승부차기
시황제
Bo
교지
그려졌
뒷담화
석양
네게
박창
하늘나라
방사성
송라이터
탐험가
유라시아
머시기
심근
군아
묘역
##포동
##질팡
##넘어가
녹음기
##테르담
빈사
경공
막시
알짜
황도
원정대
피보험자
회중
마징가
바닷속
십중팔구
##배추
애국지사
맞대결
미코토
##치오
코이
구태여
재조명
괴한
국권
사경
넘어졌
소도시
갱단
numberGB
장준
쟁쟁
터너
석궁
저어
타라
집어던지
결판
데스노트
톨스토이
살펴야
##젠더
밀린다
출품
브레이브
디펜스
여상규
돈지랄
문상
맨해튼
전소
플래닛
뒤떨어지
말뜻
아가야
근질
촟불
##브스
심장병
공신력
떠받드
알래스카
우스워
치룰
부감
졸졸
성장세
굳어졌
저상
는다니
흘러들
모실
##지방
수증기
청송
태울
동속
창씨
존대
알렌
도검
동작구
MF
오갔
전말
##인데
다녀와서
피부과
돼버렸
사력
팻말
김옥균
##니컬
느릿느릿
DMB
베아
함마
근육질
자장면
혼례
감량
파랗
조수석
지와
부린다
부릅니다
아녜
자경
##eph
민란
초교
교보
빙결
##유진
그레이드
##브리지
갈팡질팡
##중지
이용한
클레오
안상
오려
김덕
도외
사만
소학교
외장
참호
니콜라스
강추
사로잡히
항암제
골동품
노쇠
압둘
저시
동급생
내보이
디저트
떨려
심함
늘려라
침상
주간지
파안대소
고은
지반
그리로
휩싸였
당진
포박
보험자
사욕
카펫
##oto
##초프
대이
살충제
우표
음침
상반신
밀반
실각
들뜬
풍류
막힘
말린다
##프로
라이브러리
루드
순번
차태현
마도사
개리
람보
달랬
맨손
우성
맞춘다
가림
는냐
복속
풍겨
합창단
공복
권선
약주
아니할
기품
행주
염치없
로빈슨
주종
##빼미
금정
에베
진데
교배
자못
배율
정육
소환제
청사진
티코
평탄
스트림
대쉬
먹물
여섯째
넘나드
헐리우드
뒷걸음질
김전일
Sou
용액
힘겨
##장소
한명숙
##물산
##야샤
이누야샤
감촉
미즈키
벌겋
샤인
친딸
서예
어쩔려고
로페
모닥
박도
서프
파우스트
방임
예천
페라리
##뜨려야
레퍼토리
모닥불
문충
지천
소미
수비진
고된
그랴
아구창
고서라도
저고리
마작
쿵쿵
금단
무르익
일률
동그라미
ss
원제
베티
습도
코타로
한니발
괴롭힐
영유권
번가
유림
회가
##변속기
암행
나침반
비껴
사공
려구요
모잘라
알프레드
억측
저학년
ebs
적수
자유로이
가우
윤창
커져서
공사비
꼼짝없이
상임위
Sm
성곽
전립
손책
코즈
간대
포승
박보
##EX
죽인다고
화환
끓인
홍명
논어
ok
원회
##정대
권모
사에
해줍
코란
미카엘
서가
총량
생리학
이시다
명운
산파
엄히
걸어도
종친
휴머니즘
부주
잖은
부산물
청주시
고강
성탄
마라는
엄지손가락
장실
요는
차오
이상민
출근길
병무청
##버니
격자
소강
뚫어지
우군
키움
공장장
시류
찡찡
테레사
뚝심
조온
코걸이
##스름
건드려서
써니
토템
지방세
LIVE
독극물
끊어진
엉엉
판다는
할멈
향연
군의
모체
철기
불자
지롱
불철
시누이
드레이크
싸이트
휘저
주먹구구
DP
쏠려
양기
준법
특인
국가주의
박항
서민층
주소지
방파
심호흡
깨워
아폴론
PB
오뚜기
##동설
##팬지
피카츄
선견
신참
어영부영
무빙
윤치
해일
##깨나
구정물
볼리비아
직업인
못할까
미네소
만석
눈치챘
KS
옐로
##세이돈
줄려면
포세이돈
시의
산기
지켜준
내버리
소희
##펜하
미라이
비스듬히
##푸라기
부딪혔
미성숙
노획
부다
##날레
##시키
정운
토네이도
일변
내려도
올빼미
현빈
##ational
빠가사리
갔으나
자오
얼척
둔감
##레우스
들여라
동명이인
레이다
실연
저버린
백선엽
괴짜
아녔
중간고사
놀러갔
조속
소린데
키치
사시미
##유포
연방군
해부학
개운
##농사
긁어
키아
땡땡
미사키
ME
전횡
때려치우
주운
고래고래
골리앗
##폐기물
역전승
문외
의용
##단결
##성사
동색
주권자
생겨난다
소매치기
게오르
존망
침팬지
거지꼴
라르
삼성물산
자나깨나
##사실유포
마음놓
정해야
허위사실유포
낼름
노른
로세
산학
살린다
삼바
재경
극단주의
꽃밭
판이
알바니아
리허설
역기
치바
피비
머릿수
함재기
제품군
부드러워
임창
팟캐스트
운동회
##산동
반어
##박산
##링턴
될려고
아갈머리
기울일
불사조
극작가
없음
박항서
야성
오드
사멸
야바위
제패
##꾸기
마에다
근세
유달리
저촉
치국
아시아인
노루
외벽
입항
지켜줘야
끌어들인
##디푸스
오이디푸스
거뜬
수취
추카
이크
이빠이
생식기
망라
성안
천태
솟아오르
샐러리맨
문벌
위암
##af
남겨둔
개강
쓰라
클수록
펄스
아흐
만신창이
뿔뿔이
꾸러미
죽어나
스쳤
알바로
##매석
자기편
매점매석
Wii
왕녀
타오
구심점
##EE
개나리
병조
일렬
끌어내릴
##나타
부정행위
대항해
대림동
KA
목화
속칭
##무쌍
영남대
상놈
먹통
문고리
섀끼
콘스탄티노플
도안
이율배
##하키
좁히
몸뚱아리
차일드
키운다
##IL
요구사항
소식통
뜯겨
마커
동업
헤로
화소
빼어난
샤르
콧방귀
왜소
차일
##은희
창업주
예체
쪼금
한낮
성취감
예체능
건넌
굴릴
밀릴
어거
외무성
진취
감사히
이코
키퍼
근데도
늘어선
북동쪽
화백
스와프
다메
삐걱
아돌프
제위
띄운
연습장
도급
밤길
옷깃
##셔틀
웬만큼
신간
대양
령도
길잡이
##사귀
안식일
위로금
Lnumber
묻힐
핵폐기물
##혜진
담배꽁
는다면서
##app
##메이트
사직서
Qu
개마
아이오
영덕
잎사귀
뒤집혀
바르샤바
원희룡
끊겨
보헤
트루먼
동년배
##lt
청소년기
뛰쳐나가
치프
한량
결격
마셔라
후후
##요리
차례차례
려니까
쳐올리
현아
임명권자
대행사
해설자
트랜스젠더
내시경
위즈
조셉
흑화
비옥
군신
꿀리
두더지
삼중
히노
결선
김범
##태격
접대부
귀감
꺼졌
묶이
##탱크
호치
성시
지게
체르노
치료사
봉수
들어먹
뒷다리
티격태격
다아
후두
꼬였
나탈
랄프
점막
칠푼
혼선
회합
##느질
배달부
등기부
군상
봉창
엽서
리차드
##스티누스
왜란
프라이즈
구들
울먹이
팀워크
흠칫
장차관
시한폭탄
깝죽
미년
업신
##회계
미도
엥겔
아토피
MK
dna
행정력
신호탄
하드코어
챌린저
따분
실외
철구
탈의
영분
##포타
엘리엇
아카리
화성시
마모루
MT
칭한다
빈번히
리시
빵셔틀
화룡
슬라브
레이나
인용문
Am
방불
희수
동수
##ron
통합진보당
실수요자
벌주
윤정
알리바이
배달원
스프레이
석탑
셀카
감마
라딘
무너뜨린
백해
정읍
매가
보리스
스니
미심쩍
귀천
끝자락
용호
지드
월권
자애
퍼뜨렸
흉물
##vel
신년사
카리브
상복
재보
커다랗
##상간
김준호
세손
SKY
메소포타
메소포타미아
동북아시아
보잘것없
산거
호신
권위자
요요
##정보부
리오스
명은
빈둥
빚쟁이
유천
통이
##바드
에일리언
엘렌
날아왔
담배꽁초
로트
##관광
근친상간
나찌
움켜잡
진달래
헛점
버트
장윤
절레
잔디밭
보급품
로마자
정독
히코
자던
##느러미
지브
가메
간음
판시
조반
Is
깨부수
불붙
연장자
노땅
작아
엔지니어링
도올
일루
끽소리
미란
사이좋
건너온
LO
밴쿠버
악다
카트리
때려죽이
기엔
오매
홈구장
빨아들이
김복
아물
##러울
무서운가
카즈마
버틴다
강병
결방
래나
숨겨둔
삭스
##엑스
Col
양배추
향락
##각각
대조표
치러진
파마
프롬
행안
##ject
만질
트렉
시시각각
선덕
잖나
만호
요강
##클레
en
되뇌
라냐
##우뚱
암스
증이
##동사
성인군자
문달
최빈
행해졌
남서쪽
치타
이니셜
조선왕조실록
무왕
주자학
스코프
원한다고
몸서리
슬럼프
결정체
시러
구원자
##자살
정상급
재작년
씻겨
피해갈
숫가락
힘썼
##키오
조종당
메드
신태
인회
##반장
시한부
가비
도일
버클리
사문
옥탑
##글거리
저금리
대손
로드리
실학
##에이션
마사키
보름달
개척자
어묵
칠까
하려
혼용
취임식
무화
잔업
찰떡
전시관
해맑
강신
깔아
난립
철근
피도
##레인지
구속력
동서양
엄습
자학
죽치
진언
얼버무리
탈진
가져서
되새기
되짚
알현
우애
제구
비이성
곱씹
모조
귓속
옥살
기염
그린벨트
여종
위크
##이프
고소장
사라졌으면
반가워
묵향
항고
공증
##바둥
답례
뻐꾸기
처소
치미
##공단
혁명군
맹장
초짜
##시위
협력자
한중일
이율배반
대합
리벤
매상
##스부르크
##승지
문지기
혼미
##만만
##둥바둥
중앙정보부
알라딘
루돌프
음운
자양
##착륙
MLB
민방위
친밀감
다트
##IX
##좌석
지휘부
비싼데
홍진호
쓴맛
한서
갈치
본과
우즈베키스탄
##삼성
##너드
없인
포식자
##통행
몰아쉬
카구라
조모
스리랑카
##하복
합쳐진
##러서
눈꺼풀
옛부터
품성
##놀드
이재민
불살
넘긴다
번졌
쓰려
철벽
##강병
히포
##감사
얼간이
돌대
어물쩡
상명하복
##ert
부국강병
비실
소노
내리치
베로
fl
마를
문짝
인겨
정철
데뷔작
##다간
공화정
롯데월드
개였
호노
구속영장
일가견
권성동
산발
출당
커비
##저쩌구
꾸중
지나온
##다귀
츠바사
왕도
승부조작
견습
광채
라더
전치
환사
나전
라면서요
굳어진
길쭉
부령
옮겨라
마르틴
잉어
##터카
뒤바뀌
명망
북대
대참사
지이
탈선
깜빡이
남정
렌터카
총생
두루마리
도란
생후
크리에이터
제방
포이
비슷비슷
푸하하하
범퍼
애지중지
달마
메꿔
##틱스
필터링
경품
조심히
문교
책망
체르노빌
numbers
검법
랜딩
추적자
다닥다닥
호중
끈적
##제도
뻥끗
토막내
뼈아픈
악다구니
곤봉
넘쳤
빌렸
상감
YS
극구
송치
유채
해줄께
POP
장로회
노사모
당첨자
곤욕
##저지
내보낼
주먹질
샤크
##안간
가나안
구룡
##uk
불거지
외벌
법질서
동적
친교
##비안
미혹
아레스
모른단
통역사
개발비
니콜라이
귀싸대기
날까봐
단강
못가
파나마
##합중국
어쩌구저쩌구
물개
울창
지푸라기
개인사
지킨다고
막노동
생긴다고
생이
헬로
##ict
별안간
활약상
갈려면
기다란
에너지원
스크랩
식칼
##페서
내말이
송정
##그램
페라
GPS
능사
시화
즐겨라
될려면
지류
낙방
정범
리지
푸짐
영전
검기
한유
황운하
약해졌
모셔야
맨발
사창
하두
가상현실
급체포
명도
옳다
베네딕
조강
포상금
서든
토오루
##aver
해밀턴
저스틴
##악기
##지근
##팔찌
조미료
꿰매
##뜨기
옹호자
포장지
되새겨
피지배
마그마
파묻혀
내려놔
이라던가
뇌세포
분다
불치병
켄트
뿌리깊
고주
복고
임했
노림
스푼
하가
어려워진다
배팅
비린내
쉬운데
야곱
정두
##바겐
어쩔래
도로공사
연지
홀수
##생명
동과
##불교
황금빛
갸우뚱
거져
계류
연주회
도선
정치사
못난이
슬러
오진
##브레
그래두
데스티니
플래티
##스트리트
수송기
정형외과
바주카
다죠
박현
수풀
플래티넘
극비
대식
진경
등원
수금
얕잡
풍비
발표회
우시
##ern
사기꾼
농민군
바이트
부르짓
대동강
GB
일몰
친동생
화순
태평성대
장로교
디젤차
잿더미
Mus
배불
##도사
카이로
군세
윤택
이름난
눈물겹
저수지
픽셀
행했
행해진
찌푸렸
##반짝
워크숍
드넓
바꿈
불굴
적산
해줘서
돌려보냈
올곧
폐가
층위
면장
##치레
움직여서
오른발
보내왔
아닌지요
맘놓
승질
오웬
터프
미니언
ph
담아내
먹구름
문지르
의당
##백산
반짝반짝
카야
혈족
하시모토
RO
##당토
대전광역시
모반
테루
##순위
옥사
쾌거
부스러기
자소
동원령
선봉장
KFnumber
QR
인임
이사벨
얄미
창호
짜집기
능구렁이
낙담
또박
치달
##토당토
##누리
독서실
얼토당토
접합
아닌데요
연암
옳바른
테러리즘
레디
성단
브렉
퍼블
##대전
##문제
##정부지
스카프
버무
중역
카다
##월일
##토끼
언론계
어루만지
릭스
파렴치범
살린다고
부대장
볼셰비키
획기적으로
이븐
결연
앙드레
맡겨라
나들이
삼일
천정부지
사실주의
LCK
니티
방기
남베트남
산다면
쇠락
네네
##테우스
작품상
##민정음
##iel
문제집
집어던
박찬호
영과
옮긴다
황보
짤방
김재원
##코딩
정신과
시작점
레베카
최루탄
삿대
기어다니
줄여도
줄리엣
서드
산중
부추겨서
RE
현감
정몽주
배관
혈육
바사
완충
맨몸
주례
코일
깁스
노코
전여
어련
가만이
수술실
##소싱
석도
시건
인면
훈민정음
우월성
##탕스
콘테스트
레지스탕스
나도
돌아볼
아웃소싱
근엄
백호
칼부림
##사포
총동원령
필립스
과수원
둥그
속고
압제
전모
Red
수그러
##위생
꼬셔서
뱅킹
##제프
보인다면
넘겨서
카르타고
낸다면
대절
요긴
##로움
부팅
야영
진의
구어
단전
멸족
뻘건
서킷
상속인
To
랜디
윗집
##pr
정복자
Gu
mm
드높
##노미야
동창회
다이스케
다요
면직
대역죄
흥국
오야
퍼뜩
헬라
불패
##냥이
다녀간
침입자
하야토
너비
질럿
나데
빠뜨린
상큼
신승
지현
지율
목적물
을가
당인
아류
육안
##피드
건과
반야
김병준
검지
벤트
초판
칠판
##사진
부추긴
진작에
##테르부르크
팰리스
부서져
주홍
파식
서막
키프
흠모
##고물
풀려난
리젠
##ose
태그팀
몽롱
칼집
체의
밀려났
정은경
크로노스
별빛
떨쳤
사사키
이판국
소운
팩토리
여의치
런닝맨
한데도
묵비
코러스
##관총
##걸레
##얼거리
궁금해하
재취업
착잡
카도
렌트카
소론
죽도
경부선
다원주의
헤메
위기관리
김현철
고지식
패해
암벽
조도
##급부
섣부른
값싸
잡배
풀백
골탕
오묘
몬트리
왜인
만드신
따로따로
봐주지
몬트리올
못해도
컨버
패티
르노삼성
출장소
해결사
욕해도
편치
포위망
신경증
싱글벙
룰루
하렘
행장
##십시오
사마귀
야밤
정영
태어났으면
아이스하키
감회
괴질
특근
아파요
산간
조석
논한
디제이
사저
살점
서역
만주국
줄기세포
너그러운
##노자
처리장
창조자
현지인
뉴저지
응원가
##able
셀러
홀라
##나비
반대급부
오상
##네요
##펴락
폭스바겐
아타
지참
개코
헤더
##러진다
수신제
호실
임태훈
직언
##어난다
피스트
##사건
입학식
기울었
붕어빵
당적
미판
수력
입헌
더치
##다이스
##연금
이상주의
빈스
유황
점장
##락펴락
##혈증
##돋움
감속
쥐락펴락
합한
전투복
살랑
심령
덕수
변속기
얕보
##그림
염력
지퍼
럭비
육중
숨죽이
회선
##마이트
주현
계양
비탄
시럽
용석
치약
프란치
휴게실
두만강
창창
##도스
냉정히
동그란
대드
##나카
최빈국
칙령
콘티
괴로웠
네이밍
웨스턴
국민주
뒷자리
발돋움
시월
박민
진술서
타치바나
비욘
빌릴
헤르메스
쿠파
일주일
블룸버그
진두지휘
셀레
초호
황하
준다며
김두관
무직
일합
티탄
하달
휘몰
에테르
핸디
Pv
오솔
해할
두려울
중견수
누진세
종인
##지먼트
심한데
매니지먼트
갑오
요도
잔금
반다이
중성자
신형
요세
두꺼워
낙랑
섀도
극형
뜨끔
NM
괘변
티오
래서
선발전
가임
최고위
##out
발아
내무부
잘렸
##네다
원혼
입회
##방관
이동한
사무장
AF
권혁
내구력
극기
근시안
날려서
마조
판세
넘어설
감화
근저당
##팔방
물러섰
원시인
달갑
동업자
훈련장
암탉
##허전
놓아두
품안
허고
##경궁
페르디
SCP
주방장
고쿠
스투
네프
포도당
지닐
##앗이
출판물
다도
##메이션
기어오르
맥시
아나스타
pl
억수
참판
황우
당할지
수수방관
타고나
미식축구
순삭
밀레니엄
강지환
상조
유종
각박
이트
IV
순대
제이드
##불허전
손잡고
It
역점
올꺼
차우
미스코리아
경험담
마크롱
군의관
공돌이
명불허전
방광
휘어
예술인
돋우
민들레
싱글벙글
Gam
주중
성수기
돌팔이
법도
베버
색감
줍니까
##탄불
##팔이
굴림
뒷좌석
이뤄져야
납세자
ce
알츠
서글픈
알츠하이머
##지엄
클로버
발코니
쌈질
부추키
박순
비안
욕함
찻집
다이너마이트
꽃놀이
아우구스티누스
다비드
덤불
데프
##포폴
프로포폴
한계점
서기관
미각
미네르바
일망
황금기
병리학
조선공산당
격정
##aster
##쁩니다
구제역
염라대왕
딴판
코브라
결기
세레나
홍가
##방네
여중생
파천
##톡스
동네방네
과대평가
광전사
외구
장바구니
오솔길
##여름
길길이
장흥
김태호
솟구치
승냥이
을려나
박은
카가
역내
일어선
데일
공용어
격납
금은
나란
지언정
##젤로
알려줘야
##씀이
똥값
메두사
불꽃놀이
그라고
베푼
여제
미우라
거려서
수액
드미
총열
카무이
국민연금
이스탄불
라로
백상
옷가지
헤어져
각시
번건
려고요
치켜들
저울질
카오리
품앗이
##네시
살펴봐야
친다는
생긴다면
입맞춤
##쿠로
마음고생
해리슨
씀씀이
병설
해본
차이나타운
개긴
단양
이해도
함부르크
침례
일깨우
돌아다닌다
CA
경증
할부
렌지
오감
##apan
되살려
폰트
##리아스
법률가
손끝
암약
개점
멈칫
진인
신대륙
급성
천호
휘두를
갑상선
엄청날
Mr
공의
노략
멍석
윤규
참상
##신보
##돈나
한센병
원탑
주네
다닙니다
똥내
레티
전염성
고려인
다이노스
번역가
케임브리지
BPM
어촌
쿠시
연대장
미담
방관자
단칼
척박
##메시스
조선어
Ser
실격
불량품
객사
증류
부왕
재방송
##선열
명성황후
가셔야
바느질
합리주의
남동쪽
덩크
암암리
페미나
개아
녹지
합쳐져
휴양지
클로즈업
붐비
판관
만든다는
##ype
향할
##명령
##칼라
소개팅
업신여
수미
아람
전목사
치룬
캔버스
##주야
닷새
불모
아니요
도적놈
허정
홍역
테레비
볼품
##주군
##산역
##규어
해골바가지
새대가리
생겨날
역삼
임계
당한다는
이탈리아어
자만심
민트
##모레
네온
압송
홍삼
제퍼슨
에디터
김봉
원위치
식민주의
창녕
코토
맹인
온정
읍소
##노이
공녀
총영
지그시
가업
단아
이서
쳐야지
불철주야
DHC
낸시
훤하
##비츠
##김치
감세
셔먼
외다
##도장
##습관
한가득
작은
애무
젠틀
정수리
득시
바드
식습관
지껄인
먹여서
살수
적료
전현
사방팔방
준호
공중전
삭막
열화
케익
##슐리
포트리스
경축
운송인
말조심
아놀드
방위군
팔아넘기
주워들
단통
머리띠
찌개
속공
mids
호언
가르시아
대내외
묻어나
시급히
냉큼
똥차
맞기
키사
스도
오승
덮친
길렀
만병
성결
힘센
뛰어내려
후견인
끌기
메마른
##껍질
으름장
진노
중국집
먹여야
midsec
##들러
혼재
##가죽
##길래
발명가
간나
##cc
큰형
거수기
숙적
##문화재
##yle
시파
연병
올케
아녜요
강약
삼족
##디우스
협주곡
겸허히
Unumber
자망
표하
사외
시빌
젖가슴
은가요
건배
높여서
전번
Top
미합중국
타시
탱자
##고개
더럽혀
럼블
계급장
빠져나온
안양시
넙죽
장민
혐이다
##니클
##루엔
##총액
딸려서
##TC
##절레
시가총액
참관인
선착순
기네스북
조일
##ye
거유
피우진
칠려고
의결권
절레절레
보낸다는
헛소문
비숍
중등
캡콤
행동거지
구석기
미라클
경배
여드름
인도적
될걸
현실주의
이재웅
빼곡
숙달
올림피아
분한
##닥다리
김종서
미네소타
궐기
도제
물병
패가
오마주
우글거리
##사우루스
서스펜
주렁
수병
##ex
사망률
일순간
행동력
닛폰
뱃살
쏴라
증거보
상층부
위트
##대신
##플린
전립선
꺼림
째려
촌스럽
풍문
파라다이스
모성애
보온
질긴
##추세
난잡
사라져서
Nnumber
신춘
잠옷
아방궁
OC
위업
재규어
주둔지
업장
외진
침소
타니
##망신
교학
북침
유원지
짭짤
남음
물길
전재
측천
버마
예찬
밀어준
수송선
마그네
린이
오뎅
자개
하코
휘장
키무라
무언계
파블로
화평
본원
초면
유기농
bj
고담
밟히
호각
버릴라
역이용
동두
렀을
미룰
회랑
##괭이
프랑코
금괴
개거
고명
맡긴다
해봐야
수신자
비웠
알린다
으쌰
가까워졌
조희연
푸시
물어본다
재결합
순무
생태계
갑주
후발
끌어오
사사로운
CO
금관
김종국
스트레칭
앞당기
혼탁
매실
서귀
완력
노우
봉변
사은
경구
레그
마동
보릿
기무
방석
시치미
쿠션
##히사
문패
자타
스타인
스펜서
가랭이
##즐리
##코스터
학교장
넘버원
##신기
공책
국행
정통성
김부선
어쩐다
박희
미정
분향
소지품
롤러코스터
악평
##지간
딱한
컬트
다이어
경자
싸매
찡그리
살균제
갈피
속살
안시
외연
프록
해주
Super
도네
현생
##입시다
발랐
방망
신당
엘베
##첨단
합금
갑작스러운
평안도
패가망신
쓰러뜨린
매도인
길러야
노처녀
돈돈
비천
아이리
저작권법
Ge
풀타임
학수
플레이트
석실
수려
알아챈
표제어
##up
통달
돌아간다는
최첨단
Korea
끌어올려
어울렸
강준
numberb
내친
연장전
주우
총파
##요환
##공원
세이프
쏘아대
##토모
##고쿠
계백
무근
푸아
적인
좌경
##여왕
고흥
명정
서러운
종이컵
분절
숨졌
익힐
해롭
합성어
훔쳐서
##려요
다스렸
위고
청양
시더
요람
우수수
대문짝
장진
##동산
마쇼
웅성
저당권
총생산
들려서
십계
히로부미
명장면
출사
난다면
지석
부딪쳤
개씹
영문학
켈트
배재
병세
뻔했
작명
반정
음압
굴러다니
만악
바시
의탁
##하게
##타파
녹색당
##모델
트레인
과묵
애송이
다름없이
됨됨
떠먹
우직
길이길이
다케시마
##Hnumber
내비치
지서
메츠
부우
부침
얼추
용적
이심
지킨다는
놀부
##무익
공멸
중서
나마나
원술
##방군
관도
종착역
급부상
떨어집니다
홍정욱
UAE
산체
임요환
주진
은행장
석화
경제난
월트
##쿠르
##큘럼
수행평가
무패
타계
다다랐
해버릴
마이크로
위그
저만치
이뤄낸
##시울
도공
선불
관리직
는대도
준동
최단
vip
안산시
놔둔
서도
참의
스타팅
도랑
연륜
오신
미타
그윽
눈시울
노욕
아꼈
국산품
급료
매서운
핑장
작업자
뒤틀린
송인
스쿠
##참배
임대업
인벤토리
설전
##노래
맞춰져
닥쳤
히타
스테판
가속도
뉴스룸
받아들여졌
##붕어
두려워했
##ult
인화
클로드
파지
들여온
초일류
어비스
찾아간다
떡칠
주미
진호
PVP
김근
등반
산봉
좁쌀
내편이
스턴트
마운틴
커리큘럼
용건
수틀리
문화방송
괴도
굉음
독립국
신드롬
놀릴
루가
저격총
미영
사또
당제
아궁
참다
수서
가스통
ai
백전
사헌
응접
##사판
신사참배
도진
발렌시아
손쉬
뒷거래
##저드
살갗
야릇
타케시
심청
발칵
행상
총파업
정초
직경
추려
겁탈
눈짓
양성소
뒤통수치
미츠루
다곤
오구
##스틱
위스
판넬
디에고
부른다고
분당선
얼만지
생동감
열반
시원시원
거주민
온순
##직고
사계절
보필
정혜
특약
울상
드라군
상한선
기막히
간밤
바락
직렬
##결백
기실
나뒹
박전
##백제
국민대
지껄일
필수품
내모
소다
수출국
##atch
낮춰서
백해무익
잇몸
퇴적
끼어드
이지만
##대상
흐느끼
홀라당
목전
폭설
##테니
##랄라
떠돌아다니
이실직고
가마니
어귀
게이밍
도원
야요
놀렸
본기
부네
##렌스
만리장성
동두천
대니얼
##더리
진보당
모니카
난제
##보레
욕심내
전망대
들먹거리
가쿠
vnumber
소프
##조약
화살표
수탁
지코
##조끼
스포츠카
통제력
프리즈
이긴다고
휘어잡
극빈
멋져요
열병식
독학
문진
하도급
PG
중매
넘어진
장난기
오드리
김현수
친근감
멈춰서
주접떨
이채
##으니까
랑가
박선
FW
문조
재택근무
외대
원세
건실
도스토
학우
##구먼
을라나
외척
야구단
치켜세우
가려야
베다
생중
방송법
바꾼다고
울진
형조
감옥살이
모욕감
무전기
Mi
연례
주워먹
약식
이등병
견줄
노르망
컬럼비아
논제
는갑다
손정
여야만
가지런히
달해
라돈
퉤퉤퉤
사회봉사
덧붙여서
뱅가드
본교
코퍼
##우라
끝맺
적외선
사마천
멈춘다
미망인
사헌부
여래
연거
비행사
사냥터
윽박지르
백운
하군
초롱
물리쳤
김예령
라캉
민은
욕질
이교
국과수
뤠기
산단
첼로
치른다
##복걸
##orts
거구
썰매
청교도
가뿐
신림
우디
도넛
석조
명예직
버린다면
불이익
애걸복걸
가십
강태
홀린
절대자
오른다는
불러일으킬
늦장
뜨리
위드
지려
##루야
나무랄
민비
프리스트
동공
양인
배인
동화책
테마파크
넌지
담대
도합
바쳐서
유빈
하이트
##호도
거래세
Par
일렉트
신이치
좀벌레
상징물
번역본
남다르
임화
국내법
담벼락
베레
우상호
버팀목
좌상
건질
석굴
줄인다
중랑
최충
하진
변용
전초
켄타
곤장
낀다
제군
황기
재이니
상록
종지부
폐족
콘스탄티
밑바탕
인육
쫄따구
##리에
활기찬
Black
홍문종
프로테스탄
화투
에반스
조형물
결정타
유발자
마셔도
떡고물
신뢰감
리원
해안선
제니퍼
김효
진분
코비
##성가
유표
유현
조각가
일사천리
재목
충과
세탁소
백골
인지상정
줄서기
산업체
진료비
근신
클레멘
읍니까
##yn
##술수
kg
귀여움
녹스
속기
시엘
영면
증표
한울
크레이지
숨어들
컬링
유명무실
유폐
컨트리
##딴지
따라온
스키장
LNG
##선생
오라버니
##귀비
민간단체
##ual
##자국
삼일절
체이스
미니스
##텍처
아키텍처
슬립
안영
자야
모름지기
EMP
권모술수
높임
보령
인허가
빼앗길
수해
우중
난파
주사기
스웨터
카에
이원론
비엔나
사분
역서
토와
##나발
시달려
IG
익살
황새
생방
실성
지주회사
앤드루
화풍
수화
쉐보레
시영
자하
Team
격동
귀재
어메이
##대부
##맞이
맞받
통재
##상각
동물보호
송전
깨우쳐
스포트라이트
멀린
시냇
위계질서
잡아들여
와일드카드
어림없
태백산
비빔밥
love
서하
##바인
붙여야
굴려서
두텁
총신
기자단
안톤
올챙이
음산
꽂히
괴성
사귈
지에
신라면
그득
새로움
비잔틴
유경
케니
##돌림
들이미
샤아
##들일
다당
방진
나루호도
결손
요나
##샤오
이정표
취약점
관보
인즈
조졌
차오르
##중독
캐럴
##초사
도현
자수성가
메밀
상우
야고
왼편
한디
numberW
카탈로그
col
다와
마돈나
밀짚
얄밉
##조무사
도망친다
견인차
잠재의식
처닫
Good
대오
오다리
밋밋
언성
오유
위독
장롱
쿠루
피칭
##렐루야
연출가
간극
##라르
이설
일륜
온실가스
띄어쓰기
일로
주루
##산리
매튜
장검
##가방
논외
사피
영암
제값
안전사고
bb
유색
지노
##버려
뒷방
간호조무사
만이
관광버스
뛰어놀
뒤집어쓴
충무공
등짝
문사
캐피탈
언쟁
속삭임
건졌
외견
다방면
정훈
역전패
취임사
PL
오심
##거린
금지안
데리다
내레이션
류지
쓰시마
##쏘시개
더러우
바운드
지신
청개구리
메테오
수평선
PER
석춘
허영심
레토
시학
하키
할퀴
SG
겨워
이맘
조난
아프간
꿋꿋이
As
김응
Mag
인테르
크리스틴
넌지시
개머리
맹점
촌구석
인격자
버텨야
바이올렛
노심초사
낙점
골칫거리
급했
불쏘시개
끓어오르
광광
매정
쾌유
사카이
서귀포
Em
재채기
이효리
아종
요량
자축
알람
철인
수도회
사쿠라이
그레이엄
덤벼드
리의
아둥바둥
Comp
흉하
불가침
쌍방향
몽키
잔데
청진
인질극
##커니
둘러앉
유분수
상동
##스기
스칸
나빠진
신현
킬링
BD
빅토리
##fr
뒤집힌
기가
천운
들어준
구직자
동위
청렴결백
립스틱
보세
시프
오하
##라트
젤다
##ton
##오적
##스트리
금지령
이치카
포렌
##산면
인기척
파헤쳐서
포렌식
Time
올라갈수록
법당
올시다
최윤
경락
함인
현도
사채업자
감가상각
징발
##워스
TN
인기몰이
을사오적
옴니
드러워
요지경
검수
선술
##임새
##총사
돈가스
씌웠
##도생
뿌옇
##주렁
펠릭스
주입식
우러나
맞바
수북
##터진
##데라
힘든지
임수경
주렁주렁
And
따시
도망다니
폴로
##계산
유례없
동장
IF
독대
##타자
##또박
거문고
뺑뺑
##츠카
또박또박
##레인저
정류소
허탈감
##태평양
측정기
군마
언동
총서
생물학자
유장
전상
##몽매
가정주부
늘어남
득실대
아늑
윤보
##라드
어쨌건
휘둥
통신부
대청소
떠벌
##지명
##특허
카네기
연나라
인금
무지몽매
##강대국
로미오
껴도
내연
시프트
오작
번번히
노보
유주
찍혀서
전매특허
대노
사이퍼
John
수트
좌중
칭했
##나시
김관진
크러
기름진
중요도
시민군
영락없
gp
앙코르
초강대국
기준치
수익자
신기록
집어치
부추겼
박형준
건디
섞여서
역류
입영
##son
구소련
오반
다그치
백의
보선
카메오
뭐한
응축
헛되이
줄타기
한길
이까
넘겨야
연주가
불한
시디
종중
##홍철
지구력
다더만
페지
헬싱
한다기
인가라는
폭행죄
아틀라스
노안
임지
참외
태화
현판
서행
아누
낭자
객차
짜라
해칠
##대성
시험관
각자도생
어메이징
탐닉
##슬로바키아
마코
밤샘
이정권
체코슬로바키아
##더링
##입니까
플라자
힘써야
외쳐라
윤서
##루엔자
FR
경운
히터
##포화
맘먹
사해
편했
거들먹거리
비닐봉지
가트
번주
새워
증정
평화주의
군량미
위니
제련
폭식
냐니
블랑
진희
이제동
찜질방
통구이
안타까웠
혐이
쟁의
##테른
누수
뛴다
엠파이어
직각
##anumber
일상생활
들켜서
Ver
##ICE
긍까
외조
최일
동의어
노략질
성충
##자유
##혐오
만여
추축
##나티
당쟁
보나
십이
질려고
헌트
시기상조
물리칠
자치령
이대호
과학고
한달전
카니
덜렁
양명
응원단
해군기지
담주
당겼
인덱스
힐끔
##XT
타카시
누우
##마자키
면했
문무일
강매
양제
내야수
불결
화낼
물러설
불쌍히
놀러가
칭기즈칸
##합성
저런데
분열증
기차역
외눈박이
심대
올가
구충제
사온
자여
투시
##이오스
가감
별건
운도
##떨이
병문
수놓
뭉가가
갈까요
다가와서
우주인
견이
본위
numbern
뉴스타파
마슈
셰퍼드
강해진다
빗방울
당할까
늑장
수자원
헌다
앞선다
인플루엔자
이판사판
난임
주신
##KA
김정남
수임료
을런지
의롭
켜져
##사이더
두리번거리
상현
오리콘
가파르
AMD
조리돌림
혐일
하이고
sky
원판결
계율
퍼런
마한
이프
주야
아웃사이더
황이
복합체
실용주의
노림수
명대
##레아
이야길
시리우스
타쿠미
MR
선취
따라간
아득히
아퍼
절멸
무너뜨릴
패권주의
성진
유파
용접공
낚아채
가톨릭교회
드시
동음
미룬
##net
자유인
MBN
번돈
서론
상황판
DT
So
냈으며
농노
월스트리트
##파스
국선
심폐
용시
지한
버려요
페퍼
돌아설
서안
서술자
말지
정아
numbermg
리디
최남
카롤
cl
푼다
손쉬운
두근거리
조재범
교습
조직체
예선전
만지작거리
샤먼
조선말
시노부
세터
##망울
홍종
이상일
이긴다는
하버드대
코스트코
양날
흥망
연역
불거진
앤서니
##수입
자우
최서
콘도
개양
진퇴
탐나
흉측
회의소
맛난
김정민
##ater
비키니
졌었
##컬레이터
아야카
에스컬레이터
음대
치히로
##평균
옥탑방
료마
새장
성창호
향교
흉년
##말고
##규환
##킨슨
관료제
나나미
욕한다
새하얀
노키아
하순
내려온다
건지요
투표장
RAW
육로
보였으며
바그다드
게놈
성한
지단
##추얼
##그라운드
고트
화강
몰매
우숩
혼령
무도회
에버랜드
우글우
우림
죽을
##등기
사치품
슬라이딩
에지
갓길
인면수
코나미
적선
변소
접한다
속아넘어가
근위
몬하
비엠
북상
혜화
##용수
대함
성왕
화초
레오나
유영철
구닥다리
예치
세이부
강소
화음
둥이
흉부
그만뒀
떨궈
오르간
기울어져
브루노
표어
입신
##UR
Rev
갈렸
발육
응해
금붕어
청순
좌석버스
곡예
남색
##두근
집단주의
숨쉬기
한라산
뇌파
버퍼
대장간
글썽
지켜야지
누리꾼
스테인
튀어나올
더스트
덕성
애증
활기차
미켈란
내조
숙모
으깨
선거인
코로나도
패럴
어리숙
각급
불온
회군
##개명
##모트
노랫소리
Gen
사별
##cl
##봉투
사성
사들여
살필
폐국
TT
밀매
올라탔
##ason
##전등화
그려서
꿈쩍
블래
식자재
젖꼭지
텐션
##건적
남몰래
펠레
나세
머독
이청
numberX
징그러운
무구
서툰
풍전등화
천문대
입방정
흠잡
##부담
교두
독버섯
손뼉
캔자스
기름기
기뻐할
am
성검
국제선
근무지
##스타인
위법성
중앙당
떠올린다
실비아
컴파
##심판
##쭈물
##셔리
중환자실
럭셔리
기울인
코자
내정자
과부하
퇴짜
불충분
물리친
가마솥
노르망디
봣자
유대감
섭렵
통관
차릴까
노영민
는개
튼튼히
GTX
장주
키리토
Or
개색
창법
##미코
##카르
##특권
상황실
플라잉
클리닉
##메드
동고
은행나무
휩싸이
앞자리
##대비
행복감
TC
감나무
꼬옥
일경
후타
Up
면박
우물쭈물
매사추세
매사추세츠
슬하
하직
버드나무
가택
합쳐야
겠지만
스팟
찔려서
물어봐도
급할
축약
##캐슬
으려다가
이동해
국수주의
갇혔
응변
##년기
ad
강석
논다고
동면
오목
태사
청국장
EA
세후
문드러진
피안
##와르
갱년기
하와
재벌가
우진
해자
부러웠
부렀
신예
이어인
나방
듀티
라라고
오재
중이
토닥
가정집
IB
근소
인면수심
노신
타진
옷자락
김규식
경로당
부영
##사탕
연령층
막아주
껀가
반등
구미호
흘려서
담당관
통신비
명문가
문외한
타미
##ings
리무진
멀미
빵꾸
연옥
하소
굴지
신구
타나카
날아오르
황장엽
송달
중흥
탈것
일본제
어우러진
대필
통풍
오금
짓누르
광무
비너스
밀려난
찔끔찔
스켈
시여
##드려
##나가와
도굴
아루
직물
##니언
낼까
다이버
##이조
조그맣
RB
양구
비교적
까네
초고속
##티움
소년원
전여옥
스멀
##범벅
드러머
창씨개명
따오
하한
홍범
##보냈
##레즈
##알라
고저
말버릇
방부
종기
초인종
만담
쌓여서
못할망정
고학년
혜진
로드맵
수성구
추징금
금서
접선
때려부수
휩싸인
면책특권
##ner
##PN
견과
봇물
석주
자위질
식자
##갈비
달려와서
차려요
총검
박장대소
밤늦
붙임
만드세요
출입금
브래지어
안드
하중
만드셨
팔라딘
다구리
knumber
귀납
몰러
양군
효수
##곡곡
Ag
판과
혹한
방어전
네타
목구
일회성
송곳니
둔다는
소만
조심조심
방방곡곡
XP
렸다
비룡
필명
##라박
정평
쳐죽이
된통
모야
블리스
작센
해봅시다
가진다는
Play
순하
큰아버지
생원
한다느니
그럴려면
겉옷
싹트
불명확
클레임
DX
구색
국조
티타
노조미
바리스타
지팡
##래곤
무신론자
으래
최현
##노미
굳혔
대망
전반부
랬더니
백주
기산
남도
소절
##뢰즈
담겨져
다뤄야
뒤척
국민회
봉사상
피난처
김유정
뮐러
해박
밝혀져야
민선
웃길
음파
이성애자
볼보
임페리
뻗치
호만
나츠미
범상
알차
모인다
야사
해장
##적소
폭력배
발자취
나갑시다
코오
후신
사업소
뒤집혔
금기시
NEW
App
쟁여
제이스
##히드
드라마틱
사유지
크로니클
더해져
관능
렌스
브리스
시브
줬었
##맘대로
만전
아울렛
길들여진
임페리얼
Per
조고
증감
선동열
포승줄
범했
##주춤
장미꽃
##knumber
안전망
몰라보
순례자
아식
싸워도
미켈란젤로
터뜨린
폭력범
예정자
소지자
##유리
El
귀농
산자
전의
켤레
대리운전
데이지
병약
파로
유언장
화친
마셔서
큰지
아무쪼록
평창동
오퍼레이터
웃어
##겨울
랜드마크
감쪽
화공
기어들어
정몽준
출병
##어져라
여겨질
본지
양궁
욕정
터놓
학살자
쯔쯔쯔
높인다
동하
지른다
키바
통고
망가질
아즈사
성미
자꾸나
가요제
진평
가누
뉴캐슬
삼총사
아랫것
##검찰청
선견지명
면사무소
벌어
스에
알약
일석이조
기명
대검찰청
쫄쫄
##일랜드
공급량
세토
품속
할인점
Cor
미선
민호
##이츠
간행물
구와
장충
법정동
펼쳐질
린드
어자
짝수
마르티
##성큼
하수도
터트린
at
바삐
백석
벌점
현인
카가미
##릅니까
numberch
전투원
곡괭이
학기제
걸고
해간
환청
##카즈
이상향
채찍질
시퍼렇
민관
혹여나
을란다
아와
케로로
사카모토
첫해
농사일
순국선열
김용민
성큼성큼
띄워서
도로시
비하인드
현존재
산채
초신
한티
라사
중문
안전벨트
식판
인생관
경정
스탄
약제
하숙집
비쌀
쉑히
간략히
츠카사
계부
꼴뚜기
러버
보그
흐를수록
모기업
참의원
창병
나앉
양로
전봇
위험부담
취재진
반공주의
용광로
웍스
##난로
오르막
냉방
안창호
우면
출금
토호
푸쉬
법무법인
독불
##뭉치
독불장군
사념
##종기
번역기
전봇대
왕릉
홀랑
Dream
질감
재미난
다수당
들어올렸
성룡
따라왔
어울림
은주
나타난다는
교미
구면
노발
돋보인다
사들인
외쳐야
이동식
객원
만만찮
불도저
네비
알베르
영우
옥션
##해방군
##타진
붙잡히
시즈카
급매
암초
유복
친왕
항해사
낚이
인민해방군
히토미
스필버그
축구팀
트레버
갈굼
술판
싼다
비번
마사무네
일망타진
BO
부어서
강제집행
문방
실언
다리우스
전환기
끄러
색시
폐병
판매원
생산품
진보라
요상한
다혈
무더위
갈라고
그럽니다
안내문
##land
##솔리니
분단국가
동냥
일견
##천년
##독스
기와집
결박
호명
김만
명줄
아문
온게임
제부
생길지
감찰관
온게임넷
Amer
직할
추격전
리벤지
상옥
홉스
고지서
차상
찹쌀
노선도
카스미
비속어
##저래라
쇄국정책
법주
재가동
이래라저래라
클라이맥스
약방
##네이
사이오
공명정대
sing
안수
안겨준
경애
나기사
링거
합스부르크
전기톱
쇼트트랙
연류
저라
차크라
후딱
##inal
하여간에
발레단
과중
오경
붙잡힌
펴낸
##CE
해봐요
La
떼우
붕당
백병
난폭운전
CGV
바크
지나다니
감지덕지
약혼녀
서천
호연
적재적소
응접실
류성
으려던
떨어져라
PSP
솟아나
최연
토속
헛다리
##콜콜
##실현
베르그
홀딩스
알비
시시콜콜
암스테르담
렵니다
특조
##사납
거신
랍비
파피
팬더
펜실
##베이니아
펜실베이니아
두령
학제
헐벗
##수도
들춰내
어드밴스
명세서
정량
##봅니다
모아도
정착지
대방
마름
최형
투숙
최민수
아미타불
웬지
##강식
들이키
수가
기부자
점령지
페르디난
무과
짓궂
털끝
드리프트
##위키
클리프
크림슨
요동치
##보스
흘러간
걸어라
ISO
관인
여류
탑승자
크리에이
메디치
조무래기
크리에이티브
기진
듭시다
서라도
주객
##불가
리베이트
스플릿
남주
랍니까
보어
살날
내려찍
오르내
한사코
과인
비에스
스탬
제청
내년도
유우야
블로거
스스럼
조슈아
번질
##틀링
외지인
바쁨
재동
패퇴
포경
동분
래쉬
입담
고문관
##꼬대
##폴리
오클랜드
단박
안종
##und
##사촌
##세키
##Vnumber
은희
파사
상한가
추워서
테디
헛간
황진
잖아도
망설였
제철소
둔다면
도하
복습
시추
##고금
쪼개지
깝깝
무학
편집부
국어사전
가짐
레너드
서고
철혈
##사위
밝혀냈
좌익수
긴축
냉랭
숱하
대민
브라이
잠꼬대
가슴속
붙잡혔
시니어
일천
##오버
원어민
다혈질
맙니다
대변자
오트
서양식
남한산성
바란다는
선무
종주국
끔직
패미컴
밀약
청한
불타오르
끄적
남근
덕담
천도교
노른자
티엘
투덜대
단거
코바
지킬려고
버겁
철썩
찾아뵙
남겨야
연녀
윤주
##딱서니
서평
수공
느낀다고
주먹구구식
타고났
김양
진땀
철딱서니
한신
우레
구급대
아데
출연자
근대사
레프트
주걱
지안
##스트롱
찔린
떨어질까
리란
##ble
##페어
노숙자
페티
##디나
팔아넘
취침
객관화
스파게티
MO
명숙
새천년
##now
##거슨
##나서
블로킹
##기어
나바
지어낸
흑석
다단계
딜런
서핑
피츠버그
근자
부군
분말
커크
피부병
움푹
정남
##가분
##육강식
리만큼
약육강식
요사
다이어리
자자손손
대간
매킨
중병
찔끔찔끔
Ke
##시엄
야구부
##eth
즐거워하
기호학
관중석
개찰구
졸라매
우경화
번쩍이
새파란
풍비박산
도니
오순
왔음
내몰리
최민희
홧김
무력감
도와서
클러치
가제
책사
강건
수일
알마
칸나
솔리드
육교
탕평
공정거래
비례제
끝장나
공정거래위
보톡스
행자
##냅니다
기념물
대유행
Bar
뒈졌
민물
암스트롱
저걸로
PA
담지
##록나
야쿠르트
id
백자
와트
자족
저우
##텅구리
돌격소총
나카노
실증주의
꼬라박
갖춰져
지어다
HE
빚진
##ium
##alk
개막식
당합니다
멍텅구리
이징
##세웠
바꿔야지
수소문
문발
우현
질려서
오버로드
산뜻
피플
샘플링
김춘추
망막
탈루
우글우글
깐깐
서러움
스메
체르
초승
큰절
##atorn
낄낄대
wh
로페이
원청
##여구
끄덕여
디오니
김택용
꼬꼬
사구
##징계
느려서
하르트
##차대
트랙터
전패
개머리판
목도리
법학자
재간
태진
티모
##글러
증가세
스탠딩
세브
마공
명가
몽환
위문
미사여구
만발
정심
치기
첫발
펜듈
##팔로
편향성
헤드폰
펜듈럼
영기
쫒아가
펠로
유별나
둔기
시해
온당
박연
말려서
분대장
일렉트릭
술어
전연
저항군
갈라치기
루트비히
뒷수
매끈
체육회
놔주
김형오
발식
비르
김동연
어시
티르
표한다
합헌
성년자
불났
아악
에는
예법
의주
순간순간
화포
모은다
일마
장고
피차
시금치
물레
인입
##형사
계시록
국소
터빈
다워
수메르
암수
채워진
잊혀질
저지른다
데려갈
애니메이터
엇비슷
펜싱
못해요
통지서
갈라졌
##bert
박아
##보험
제이콥
질러대
##바바
##리케
##천선
웰스
##소설
##퉁불
드러남
봉해졌
수입원
##퉁불퉁
비류
룩셈
류자
무중
비보
장국
##확인
생년월일
가정교육
스테로이드
가린다
구좌
백화
합해서
경주시
여주인
송강호
##ivers
훌륭히
물어도
본서
실패작
남잔
도르트
승합
##투수
의무감
빌어먹을
에니
영애
Out
게일
경민
칙칙
프톨
##트만
##레마이오스
프톨레마이오스
Pe
말갈
윗물
##트리스
가득차
룩셈부르크
리세
지환
짱박혀
안내서
쌈지
가난뱅이
뽀록나
울퉁불퉁
등록세
동서고금
다자녀
꿀벌
로더
식감
플란트
맥박
지린
치어리
느낀다는
불한당
Girl
슬럼
염동
코이치
콘트롤
##니트
우두커니
되팔
얀데레
영업용
목판
알로
떨어뜨릴
재떨이
쟁기
화정
산업은행
가독
권좌
베니스
슬라이더
안들
##즈마
##면제
##기스
마이스터
개취
머큐
밀크
죽지
토굴
파직
##기운
보자기
컨소
컨소시엄
끊어졌
니어
들뢰즈
칫솔
신기루
바코드
비터
##파트라
내린다고
브렌
손서
양력
천시
장동민
클레오파트라
전곡
퍼거슨
띄웠
손전등
전합니다
병역면제
모셔라
이병헌
전봉
칠월
퀄컴
는다거나
동호인
벤자
##맞춰
재료비
쏟아질
권양
댈러스
씨네
##isc
국립묘지
부스럼
군번
수간
최규
펀딩
걸으며
노승
##쓰듯
의문사
전시장
건반
대정
방범
챙긴다
일리노이
CI
할렐루야
시큰둥
벗겨서
발기인
낄낄거리
그쳐
못났
비올
할라면
흥부
율리우스
중경
##MP
문병
##edia
실린더
구테
물쓰듯
백도어
마키아
탄자
생일날
기암
슬로바키아
와의
##화원
numberT
광자
미시마
헌병대
엄청났
그림책
쉬워진다
유격대
TA
키르
그럴만한
군도
돈세
생판
액상
김태균
에로스
최지
생각난
투표소
김대업
진골
보디가드
글래스
벗어
소기
후송
기울어지
식당가
삼양
끌어올렸
연해주
혈중
자그마치
하디
병가
프로파간다
평신도
선역
쌤통
참선
볼께
진법
임명장
눈여겨보
좌의정
##인구
스켈레
상산
우야
잉카
결정자
중소형
도매상
경실
성깔
철통
내던져
담아
마셜
바실리
좌국
선발투수
로시
심란
현령
드러누워
출생지
##들린
##DX
인텔리
걸출
려는가
다녀요
레닌주의
기댄
민박
블레이즈
진진
포레스트
##텍스트
감리교
북인
태상
하연
도둑맞
리요
스테레오
나간다면
사타구니
스켈레톤
DO
재롱
지효
다시마
필리프
빨라졌
가위바위
곧이곧
가위바위보
말발
##넌트
본산
봉가
외향
일렀
활달
##재인
왕왕
다툴
선선
시켰으니
패러독스
계주
소르
쭝국
안성맞춤
개집
쑥쑥
초입
투석
##카메라
부레
토치
새삼스레
비잔티움
엥겔스
선데이
부천시
그라스
수이
카논
눈귀
예종
재로
황야
지랄병
고소미
톱니바퀴
남초
색인
그레이스
발주자
마아
믿음직
행선지
마추
열어
장직
초지
각마
김철
철렁
프랜시스
경적
국경선
소음기
TW
뻗쳐
성만
쿠노
만만세
반미주의
굴비
도기
금도
잔상
##way
지켜도
킴벌리
성애
샬롯
자승
정례
##습니다
##이야기
박병호
번진
병시
##주정
굳어져
바도
중화기
카프카
퍼스널
옛적
메르시
마지노
연거푸
광폭
살펴본다
북동부
날라리
상연
집적
임금제
으셔도
선착장
널널
숙대
찬가
한둘
홀연히
대별
갈갈이
##불망
아베노
아르티
보증인
내저
카푸
##onumber
소제
염산
는다더니
박시
일편
체전
##장각
지켜낸
프리킥
참모습
성례
스펀
깔아뭉개
Tw
러블리
용문
주모
반대표
산술
짱돌
선거일
##리아나
이질감
##이들
##강아지
바람둥이
늘린다고
특진
횡행
입장권
데니
템플러
크리스티안
군용기
박석
연골
최동
트럼
고용인
힘있
심판대
본이
포츠
##지종
방직
##정변
프로메
##aby
반상
조깅
##불복
꽂힌
날인
멸자
무치
##진데
대조영
더라니
EZnumber
세공
지는
ATP
로토
복불복
영삼
옥시
행여나
남송
바짓
아셔야
진건
청년단
도화선
광견병
반했
뿌린다
numbernd
스피노자
경탄
김하
꺠문
디폴트
참나무
##서주
아베를
회의감
지우개
디딤
천기
무인기
국내선
예술품
대분
술주정
양비
익스트림
해학
##미문
물어봐야
강수량
꾀병
오답
##오피스
새겨들
이뻐서
번스
부림
##매나
##통치
임파
##어두
박진영
뭉가는
닌깐
단란
직제
문질러
각안
명태
직도
회한
뒷일
아보
##보감
곧이곧대로
최명
##뎅이
나온지
아틀란
뒤흔드
기녀
노면
##ane
총격전
복병
수자
천조
##국사
깨진다
##사유
인디애나
카세트
죽인다는
Act
대동단결
상행
스캐
##드문
온리
미친다는
다이브
갈고
황성
AE
장력
버릇없
빨강이
꼽혔
느껴짐
전대미문
카즈키
초승달
개틀링
동복
분광
사석
타타
동의서
겨눈
말초
유심
장중
##ynumber
대합실
미코
서야
파다
안식처
별난
휘둘려
Chr
옥타브
속좁
이런다고
하이테크
쓰임새
개과천선
개로
납시
웨스
바리새
감싸안
수대
플라워
잡아끌
영계
##대요
##모양
개피
무허가
설악산
들으니까
구파
중고생
호인
들으려고
콧대
자초지종
남영
마토
새터
중차대
##로트
이시카와
카트라이더
공손히
니랑
송수
총상
##개미
금메달리스트
사약
##가을
##웁니다
그럴까요
베나
봉고
좌완
군축
지껄였
미소년
흐트러
새터민
벌목
입버릇
흠좀
##인수
##블랑
##럭스
뒷배경
이발소
흠좀무
불입
알아차린
##락부
뒤끝
부둥
번대
암투
설과
영민
일변도
wto
식빵
사고사
머큐리
도타
아드리
해아
기술직
애꾸
팽이
관료주의
부탁드려요
분도
알랑
해시
히다
돌려줄
벤자민
다퉈
황해도
모발
##남북
가방끈
사로잡혔
끌어들였
스플래시
네거리
레논
반송
전출
궁시
도이
따갑
완쾌
메이슨
시지
잡탕
##러워서
다임
조물주
HS
황녀
준다니까
설법
손견
##annumber
보내온
양원
은자
입바른
##크림
프론티어
아틀레
담양
예천군
하복
버스비
구부리
백룡
헬리오
##감독
일기토
소림사
비염
철들
치트
##지책
떨기
을게요
왼손잡이
헤비급
놔뒀
삼합
##VER
수업료
부교
불협
융단
황하나
##개비
드문드문
돌격대
동분서주
속전
육탄
춘절
냐면은
동서남북
할당제
북스
알아본다
담근
넘어질
하야시
갈레
MRI
감겨
##난만
기어올라
처방전
돌아간다고
걸으면서
산장
옥이
생활관
몰아부치
어두웠
만주족
하츠네
부토
쏜살
돌아갑니다
직군
코니
집어쳐
숭실
젓갈
Har
꾸밈
##버스터
니야
나아간다
이루어진다는
승강기
영채
홍석현
경의선
고글
광인
끄트
밝힘
액트
하쿠
세대주
대잠
바카
잡일
##키스
불나방
머피
사들였
이매
##ike
적잖이
요제프
종횡
그렁
뺏길
허수
교육법
빠져드
청라
##TR
##fer
##동맹
청년회
교동
목련
어둑
장아
개벽
신식
건널목
무가내
볼꺼
상근
카툰
페드로
프로메테우스
리수
소하
엘런
위례
##탄올
노무라
검정고시
##예프스키
설치류
천안시
인포
호아
##PA
복서
산사
싱크로
친자식
KCC
우거진
미필자
거둬서
허송
##게일
가졌으며
논해
암자
유단
추심
폭약
쓰여졌
각설
중정
##을성
MIT
뭐요
선실
도망간다
빙구
##코스트
전주시
남양주시
자유민
걱정거리
생겼으면
조합장
천진난만
뗏목
센고쿠
디스코
벙긋
자코
첨보
네메시스
특촬
신석기
표고
##글러스
##탄광
전략가
복음주의
중전차
조군
한승
아랫배
아카이브
모멸감
대백
예수교
끄트머리
더글러스
수리검
메가트론
어슬렁거리
솔솔
타이르
즉위식
비구니
약효
참을성
쳐바르
두드러진다
낙오자
축척
뒤로하
part
이녀
노원구
대번
커야
코지마
##주가리
우익수
브루나이
뚤린
루디
역마
돌려도
재봉틀
대환영
공력
남사
용케
화술
미지근
질식사
로데
비쳤
위수
주필
시아파
기백
들른
민권
지다
##화음
강의료
정구
조안
환송
차면
##아박
감쪽같이
NATO
BA
달수
물산
빅딜
천룡
설칠
##방아
일방통행
동방신기
극진히
엘사
흔들려
일어난다는
모리배
뒤섞인
삼계
턱주가리
문학가
지침서
##ution
흐흐
갑신
암행어사
호치민
청명
올린다는
째려보
진풍
##기침
프로펠러
튀어나와서
브리튼
미화원
아틀란티스
감점
일출
조취
무식쟁이
아비규환
##투자
##코더
대서양
시부야
고품질
오매불망
격납고
공돈
마려
훈도
naver
각개
관자
용쓰
치맛
##우면
거래법
기도회
아나스타샤
리딩
색조
자필
이정희
치트키
던디
발당
신우
쿼드
소외감
안도감
inumber
못다
야경
##겨치
당했으며
니르
정회
전화벨
방청객
부직
Ste
델리
제껴
##덕왕
정보국
도르트문트
달라이
바바라
시주
큰일날
블루투스
여보세요
전언
트란
팔월
##조화
##어낸
내려치
수입품
현격
독립선언
강연회
오라클
NBC
정광
팔랑
##저냥
김상교
관조
들을
연아
위한다고
실정법
리모컨
간다는데
타케루
리제
메트
정근
찢어질
광명시
꼴아박
초나라
탈출구
Str
탐사선
샤이닝
he
사학자
윤활
잡지사
쳐다본다
점마
지녀야
##atorname
가름
고역
띄울
지모
개인기
중심가
태어난다
감탄사
가곡
제마
걸루
섬겨
속주
##GE
##교동
고고학자
감봉
##산군
재소자
나크
구로구
밀어붙여
균일
망고
번듯
통렬
공사관
동석
서라
읽혀
텐더
풍월
흥신
오른편
제이미
출구조사
퍼플
나오미
거침없
소머리
쥬라기
카우보이
겹친
무미
피니시
##우옌
그렉
Fre
겹겹
뫼비우스
생난리
시논
정안
중턱
폭압
받아들여서
고마울
조총련
아배
쳐다볼
Comm
대웅전
밀짚모자
경진
드골
법문
시오리
인편
지냈으며
Res
도핑
으으
조림
이용료
도살장
밝아지
홀가분
벼슬아치
강시
슈미트
승수
윤가
아닌게
후지와라
기화
소리쳐
대구광역시
이사야
up
구연
근속
다졌
도라지
명군
볼려
섭니다
오색
으신지
헷갈릴
랠리
어간
장물
##출혈
테이저
행정청
됨됨이
항산
뿌려라
상극
해공
##청정
현석
유인원
일희
감자탕
개화파
박철
생지옥
앙금
##십리
가슴팍
답방
표독
탐험대
묵과
송사
쏘나타
올라감
객석
말랑
이군
일땐
기독교도
함석
크로스오버
의정서
두서
봉양
악사
원용
##데리
한국지부
내리쳤
모여라
매해
무쇠
무원
예물
티라노
올려다
제앙
진품
최원
부러져
##프레소
원활히
무아
뺏겼
아스타
오원
##타오
어려워진
넓적
네기
##자카
나빠질
덤핑
물꼬
와타루
개꼴
국시
##고대
마빡
체액
해코지
##렛대
기관사
##수소
가리킨
홍콩인
등식
디어
죄이
망가뜨려
기뻐서
깝치지
오피셜
기흥
무반
볼라
전해진
호탕
훈련병
양화
하행
알려서
SV
가학
네년
은화
전년도
십계명
차사
바뀐다고
부도나
안과
##니지
상호주의
배너
퀴벌레
##파시
먼지털이
식신
동북공정
더기
빈혈
엘러리
##티모어
할지언정
단정지
가셔
거취
착상
프리스
##TP
보관소
미나리
부석
신스
추동
방사장
연로
##ana
노도
백웅
##부르
어려웠을
전분
풍긴다
아오지탄광
최치
여름날
덮쳤
망구
승정
첫머리
그냥저냥
개회
다쳐서
졸로
지척
푸딩
다는데요
황금색
도스토예프스키
광둥
##주얼
##무르
이태준
봉헌
약값
부신
핑거
번호표
끝마
늘린다
래디
수형
레지던트
워스
코바야시
더워서
베르트
중의원
나타남
태양신
##천외
과녁
##니크
기상천외
경범죄
지렛대
중풍
캐쉬
생산지
가덕
오소
외아들
일람
##살인
저질러서
파주시
글렌
캐주얼
고배
다빈
와서야
제모
홍시
굴렸
금마
유작
의성
##쉬르
##절명
numberDS
Life
넥스트
이러저러
나리타
너트
넘친
식중독
##트르
고대인
이택
미술품
나당
##테인
##처제
국모
군왕
단막
철야
##막염
운동화
승부수
인진
바이마르
가득히
무안타
애처롭
동중
환골
소독약
TE
요한다
존폐
피어스
부산항
##피디아
스스럼없이
에마
##언니
상등
재의
전성
풀려서
뒤덮인
메롱
였잖
##지역
##바흐
침체기
노가리
쥑이
하이브
정진석
윤치호
무뎌
조적
퇴마
패주
위키피디아
구불
마레
바란다면
##루미나티
됩시다
발터
일루미나티
지방분
가까워질
랏다
교착
변사
전해라
박스오피스
울산시
맞아떨어지
덧없
마즈
진명
묻어두
음역
현대식
마주칠
개새끼
저성장
무솔리니
온의
이마니
##포츠
학수고대
어장
칼뱅
##야구
정년퇴직
철갑탄
교무
명량
북북
하루살이
핀다
하일
##미화원
마츠모토
##ATT
서임
신상품
고사리
주름살
꿈꾼
새턴
##치료
빠뜨렸
심볼
펩시
머그
몽니
환경미화원
새벽녘
모루
무대책
브라만
가벼움
개일
식장
##연맹
고소인
##stem
계집년
미첼
욕보
철로
##도치
##부답
카시오
화학자
폐륜
주제가
소방대원
그럴듯하게
새파랗
낮술
사세
##치락
##갈라
묵묵부답
마닐라
소거
대죄
식겁
간다며
자라난
아나톨
곰팡
써져
##섬유
하이힐
꾹꾹
냉대
커맨더
마커스
특무
보이드
송송
훨훨
냉수
연후
전야
헤븐
##가야
얽매여
귀기울이
정두언
완도
외곡
미나토
정미경
아르테미스
프로테스탄트
##ger
박빙
와르르
청대
운동량
준비물
서장훈
PO
감별
자길
털보
풍산
차가워
깜박이
양귀비
키미
김좌
묘미
보더
불후
캘리포니아주
기형아
Will
신유
율리
##천후
단체전
자두
탐하
시덥잖
Qnumber
볼티모어
혜린
질끈
충혈
##퍼트
갈릴레오
업신여기
김삼
꾸밀
내디
의미론
최고점
원한다는
개때
고슴
증차
##니치
돌아감
홍석천
고슴도치
달할
장희
히야
##마는
괴기
복통
생트
온달
들쳐
이야긴
아닌지라
물려준
거등
여소
유전학
동궁
쳐줄
폭소
만유
한나
##간히
##타령
알아챘
은성
향료
구속감
드릴께요
발라서
나포
##민턴
##코모리
이래요
크리드
불복종
ER
내줘
초의
캠벨
야식
칠곡
##프리트
모기지
히키코모리
앰프
한탄스럽
인피니트
수족관
료코
물고문
코퍼레이션
ip
순애
광개토대왕
간암
누각
몬지
선열
오발
프라이스
오우거
갈릴레이
Ev
라식
발도
체취
##함수
수레바퀴
각양
개욕
##가랑이
##자위대
얼만큼
에로게
봉신
쿠도
정치국
몰아낼
내놔야
뇌사
파라과이
매리
주저리
웬디
타성
흰머리
##로니아
아랍인
금포
이파리
텔레파시
Jnumber
강해질
맥스웰
화물선
귀고리
산티아
##구녕
##ator
개헌안
피비린내
갖다
디딜
보일려고
상통
어이쿠
카에데
돈세탁
ERA
맥없이
충공
##포도
어려워질
프라이팬
프랑켄슈타인
바짓가랑이
초치
실어서
영빈
금자
들고
씨익
우천
청치
오디세우스
뿌연
정찬
##진다고
돌팔매질
신채
암모
마찬가
일흔
카스티
##air
우울해
본처
한철
집어먹
손목시계
암말도
꽃가루
동침
로어
사담
항공대
방장
보이즈
나타납니다
깨끗히
맛본
명진
정명훈
깨져야
쉐이
위지
점토
퍼니
##오빠
##갯짓
사형제도
학부형
타츠야
명암
시위자
배드민턴
im
뺀질
##폐물
물려서
보군
상대주의
준다니
배틀필드
뚱딴지
멋모르
##돗개
아이파크
보여줘라
용두
오카다
감쌌
꽥꽥
진돗개
##부자
##플로
다락방
넘쳐서
##oper
펄럭이
bts
역어
뇌수
퇴거
뼈다귀
사파이어
울산광역시
김포시
나츠키
사루
울린다
퍼블리
파이낸
경포
##니더
##가물
호프집
소일
안겼
여요
탄다고
##노기
사은품
놨으면
발품
오용
헤엄쳐
촞불
위나
떠나보내
점령군
BSnumber
##말리
리기
응우옌
디오니소스
용례
생겨야
법부
잦아들
##장자
사토시
장용
헌제
산티아고
종과
직항
타이트
##쿼터스
잡혀갔
유비쿼터스
샌드백
공학자
늘어졌
등락
스핑
들이켰
이인제
무용수
감식
개천지
말씨
사식
윤도
##iam
##랏빛
불러들였
저녁때
버려졌
살릴려고
TG
감원
녹아들
조자
창대
인데도
달고
비취
##수산부
에어로
플랑크
사포
##나항공
경호실
병렬
아시아나항공
##타고라스
양육권
끝물
누에
numberst
디카
록펠러
민준
관구
큼지막
포용력
격앙
공여
뭉실
요시미
놀람
##고만
##텔링
스토리텔링
짓밟히
뜨거웠
삐죽
성인병
근근히
블래스트
건륭
내맘대로
특산물
하이패스
에스프레소
미용사
난리난
카오
돌덩이
금일
목과
봉선
곁눈
리튬
문화부
이라던지
관악구
아몰
나오키
계산대
패션쇼
시커멓
아우구스
상제
센트리
헝클
누군들
프린스턴
명계
찍힐
팔목
##바도르
코스모
아드님
대천
동티
버팔로
번인
베야
스펀지
묻혀서
김성주
예순
##깃거리
온건파
붕가
응께
강형
날라갔
돗자리
##구레
얼씨구나
계심
스톨
알칼리
##두루
한다지만
매매혼
빨라진다
만반
숙의
짝짓
찡그
받아적
게이버
받친
##당착
기다립니다
니코틴
뺑뺑이
골문
누렇
아코
짖밟
제주특별
##자치도
제주특별자치도
땅크
양초
좌경화
엠블럼
조순
집세
당한다고
베이비붐
북아일랜드
가엽
걸립니다
사하라
어덯
특명
코오롱
경실련
예단
습하
아조
벗겨진
대업
승조
창덕
나다니
니치
엄만
원탁
##처치
외톨이
가진다고
드래그
강퇴
날림
히이
불구덩이
일어납니다
동아줄
신성시
쉬워졌
거물급
경내
긴요
내선
한풀
해원
##그리스
##성경
검단
치려
케일
##스님
주호영
겐세이
특구
##국민
##버려야
개인위생
도금
퓨어
맹렬히
호노카
fe
니지
##예산
이정재
고봉
연시
감췄
뭉쳤
접히
학실
##츠크
이승훈
내팽개
조응천
OR
htm
범칙
변속
탄피
바꿔도
던져야
배변
일소
얼굴색
방탄복
##imes
니버
석아
부끄러웠
허드슨
박문
임사
평가전
발사대
화강암
설렘
##메리
지방도
나타난다고
트로츠키
개불
항간
##니꽈
마비노기
체임
교과목
볼프강
미유
이김
엄폐물
Ins
견문
##ley
##ott
고간
마지않
전병
다이얼
공공장소
장성택
따가
겡이
땔감
세슘
원투
제다
헛돈
마리사
망가뜨린
중개업
방만
원근
데려올
알렉산드르
소작농
##브론
친해졌
루팅
설자리
철사
잠수부
##의사당
가니
민아
허사
으나마나
Min
개화기
##추장
트롤링
도키
##잡기
창립자
라운지
코사
임프
##동사니
먹인다
묵상
USA
권양숙
미납
산해
승지
쾰른
푼수
공공시설
백만장자
하사관
스트롱
RNA
기삿
칼국수
포개
풍겼
##상제
##부키
설계자
기삿거리
각이
금이
준단
책방
동갑내기
북제
척수
자가당착
맘고생
예조
따라와
때려죽
중립국
후임자
심영
씨티
회항
밀려들
벌여야
권해
닥달
뽑힐
##장담
다이슨
외동딸
기립
눕히
뒤안
드린다고
싸드
호라
고속철
들썩이
곱창
안내원
근위대
뇌격
기업주
흘러도
떠받치
액셀
연원
임할
커널
국회의사당
모여든
생길까
겨루기
랄지
우우
##베다
산체스
##da
세상일
북조
스맥
재지
세츠나
따가운
레크리
바베
버거운
연남
왜사
이리스
영화인
베르나르
##ube
호언장담
레크리에이션
노홍철
##역학
일어남
베오
시댄
kmnumber
프란체스코
주어져
##하임
뒷수습
옥황
요행
##수일
인류애
라일
풀잎
달라야
가넷
서일본
오력
대해야
반월
손순
##행랑
무신론
낙찰자
위증죄
성가신
스맥다운
늦잠
아른
충직
털린다
##ACK
과식
##홀름
from
singing
비쌌
애슐리
친아버지
튀긴
RF
기년
깍듯
등잔
한비
##록스
경거
노나라
마방
샤머니즘
그리폰
여운형
골퍼
누누
댄다고
호라이
##일레븐
눈총
윤호
금당
매섭
학적
##콘서트
중화사상
다세
유순
일순
파노
##게스
##카타
받아치
사린
산세
산양
줄행랑
코크
부끄러워하
무거웠
임해
노미야
사산
송지
기울인다
고위험
놨던
돈벌레
쪄서
기동대
박범
밴시
산삼
지랑
다다른
명찰
황정
특수부대
반자동
경단
반시
##고돌
떡국
예프
일단락
마네킹
벌구
후설
##치히
##충전
ed
가점
무심히
화창
정치사상
보사
새신
형기
붙여졌
필사본
벌떼처럼
묘수
애널
주모자
신문고
무언지
두루두루
칼끝
##만화
머무를
ET
블레이크
교육열
기념행사
충전기
금내
선인장
치어리더
트럼펫
트립
대성당
희랍
##바득
##ke
문부
신실
개오
웃돈
도회
망연자
성철
##사화
##문예
망연자실
들이마시
관세음
무해
고거
근해
도자
임나
상담원
노블레스
헬레니즘
케스
품귀
만든다면
노폐물
리옹
이그
적신
트레이서
공병호
노나
사그라들
옐로우
정후
짜맞추
품평
니이
도야지
곡명
풍광
##동무
디바이스
고임금
복학
구캐
금사
시루
일목
파헤쳐야
반동분자
아우구스투스
광택
구주
따끈
##눈깔
미술가
손익계산
허둥대
손익계산서
밑줄
선영
숙취
왕년
재는
패도
보모
유권
못했으나
빠져야
피스톨
밀반입
단명
버로우
에콰
충언
튀니지
페터
아카기
에콰도르
Live
운전병
컴퓨팅
브론즈
브뤼셀
감응
임야
후백제
대장암
등심
알폰
자강
초법
편갈라
목공
양진
으다
관광업
박소연
이두
초필
뒷말
신희
영화상
나이트클럽
결단코
은하수
저린
타블로
홍경
##항력
눕혀
##삭스
##매치
요구르트
답한
트램
여전사
추스르
##분방
평양성
허우적거리
라벤
재하
재충전
전미
고인돌
MTV
잡동사니
중보
##ERO
총력전
계상
천추
튀르크
자유분방
끝났으니
마크로스
들어올려
귀띔
된답니다
떠벌이
do
퇴직자
헤이세이
벌릴
변압
자편
조산
케도
큰손
플루토늄
거짓부
걸릴지
쳐들어와
여수시
만해
술래
연석
원석
임동
##박자
노인정
매끄러운
PvP
괄목
기지개
주먹밥
마대
쪼르르
취량
크크
##드기
데스매치
##자치단체
눈독
암소
졋다
아르타
막내아들
뽀개
송유
양서
재협
매운맛
문민정부
신춘문예
요오
부드러움
박력
선각
컨셉트
흑발
구명조끼
고혈압
##iet
##장어
##세움
##컷뉴스
놀라워
메탈기어
부직포
WE
스탑
따른다는
태평양전쟁
대들보
희소성
최준
##발진
노컷뉴스
번역자
개천절
골병
디만
주원장
신청인
JYP
XY
급발진
기출
링링
쌈짓
입네
재처리
두려워할
감영
강재
민담
발로
움막
##urn
마키나
회복력
소행성
맘속
밸류
비말
안배
오컬
일걸
##첨화
해군력
곡성
등치
직거래
밝혀야지
타이머
금상첨화
석판
토건
인력거
Night
원지
입석
청군
홍상
##두철
무덤덤
싱이
줄창
평대
메르켈
가희
동현
성가시
진창
데미안
이시스
한용
속한다고
어슬렁
상디
우의정
지론
아프로디
투수진
끌어올린
한동훈
아프로디테
삼보
상각
뛰어갔
빌빌거리
고침
라든
양강
종량
##까지
빠져도
싫어함
언행일치
동격
공손찬
김관영
명물
애환
외골
유스케
이무기
침전
리플렉
Pre
조용필
점성술
단칸
울먹
집대성
##ony
자작곡
온수
왕명
쌈짓돈
복덕
다이크
저기압
마요네즈
프란치스코
장석
짧아
따라선
세븐일레븐
둔다고
카타리
##이의
현과
다녀와
MV
녹두
##머거리
퍼져나갔
불곰
선결
추돌
아킬레우스
불협화음
HG
부울
위서
이기붕
부러졌
뭉가놈
니미럴
갖다대
꽁초
박규
시라이
집산
이리로
##단심
##리어트
실의
판매점
수색대
박광
프리덤
OM
국을
어려워하
아카시아
간사이
귀머거리
비구
세바스
안인
족제비
풀뿌리
호유
들어선다
열씨
영이
중징계
철문
인간사
그렌
라몬
멋쟁이
쏙쏙
특가
임시직
가계부
북서부
외설
컵스
##도그
카트린
앙상블
알베르토
약탈자
용신
인의
##카운
미장
향년
##떨어졌
##꼭대기
문화원
김정호
불가항력
궁이
시약
안병
인욕
키득
##세월
페르난도
부둥켜
와전
칸다
홍련
만만히
재민
철두철
휼륭
다니까요
가열차
뜯어고치
철두철미
반만년
외채
피랍
루기
문학관
트리니티
카자마
볼록
퀘벡
##로니
쓰러뜨릴
뒤안길
##웁시다
중계방송
Fe
특훈
산꼭대기
햄릿
효시
##거루
초구
##끼들
다잖아요
##슈타포
게슈타포
양봉
서문경
CU
미니게임
대용량
뭔줄
IIDX
##엔드
화판
늘어질
##는거
##수술
드리우
알바라
총회장
역장
천가
##그만
아침밥
되갚
마상
여학교
이츠키
개정판
흥신소
샐리
아신
올려고
우뇌
추우
터뜨릴
토스트
후크
##발라
달아난
옹기종기
VOC
삼풍
선동자
수작업
충렬
글로브
유비트
쉰다
떠올린
샌드박스
쓰라린
선미
출애
코소
##망동
돌아가실
파워레인저
출애굽
백스
엉거
합죽
윤동주
체신
크라이슬러
힘줄
설문지
양비론
oper
돌궐
주구
황선
##충돌
고이즈미
누울
서광
원예
절연
거뜬히
류성룡
감경
넵튠
화로
##아보
마이티
박종철
##명분
##ata
들려온다
들쑤셔
십이월
소쉬르
잠잘
선거후
숙박비
나옵니까
다마스
요식업
학명
충공깽
메사
봄철
에스토
스톡홀름
원당
펜타
산책로
페가수스
##뚜껑
결론지
도박장
데자
썰물
함평
흑기사
마키아벨리
도파
무디
뻔해
육감
일대기
플레이스
구도심
크레타
씨부렸
부담없이
마셔요
괴뢰군
신진대사
쭈그리
계신가요
신영복
위저드
콩쿠르
페러
행크
머리맡
기지국
두근두근
신궁
중천
일본국
포항시
속터지
옵스
티토
최신형
대의명분
박상기
노소영
RP
요게
라고는
피로도
미풍
##저가
논다는
란가
한다더라
고친다
짊어진
체육복
벗어난다
패전국
피임약
신노스케
이쁨
##hnumber
##상잔
일편단심
상비
청학
##비지
Of
럭스
비뚤어진
SHO
석면
슴다
##거미
용산구
금동
정반
대항전
밀어붙였
Win
김흥
얼려
자연법
에이브
둡시다
가둔
없다
편식
##물질
에티켓
블레어
일광
채운다
패트리
##테라
강제력
막내딸
카스트로
Rec
잉간
표차
##등등
어지러워
낙향
바타
자랑거리
서프라이즈
오컬트
어니스트
생뚱
북주
써왔
노총각
불이행
뚱보
레진
##큐버스
평균치
아랍에미
아랍에미리트
중헌
부성
오르페
##다리기
마성
본들
##메기
전해들
로아
완비
##기술
자금력
꺼질
될런지
쇼타
오데
심해져
탈락자
기뢰
도체
사달
짓이
클라인
##ham
산기슭
물소리
혜란
시청각
공학부
바빌로니아
관영
오릅니다
패잔
허무주의
공들여
난항
불공
캥거루
기회비용
조언자
교두보
EL
새치
영통
버나드
보입니까
VOD
리파
파혼
이끌어냈
노먼
비파
좌수
적응력
남만
적병
출고가
##메이커
리빙
성완
##블루
감염증
작업복
굶기
명퇴
에트
파레
헐렁
부러울
반짝거리
번다는
분가
트였
들이마
가노
요로
##스멀
액세스
가져도
크리스찬
##rig
쳐들어온
이경규
그른지
스멀스멀
##추리
반어법
디밀
랑그
##용품
##불사
이나즈마
모래시계
세무사
낮춰야
애덤스
기말고사
윤선
호숫
##균등
아니꼽
따져도
편집국장
호숫가
기려
하북
##부러지
##근질
적혈
조이스
불러일으킨
뒤틀리
클라리
##밍고
갈라치
육군사관학교
권오
에른
밀리터리
속상해
WAR
서풍
알버트
호문
##BO
##마츠
어머나
부딪힌
살의
척이
날랐
##미니
인조인간
골똘
국민대표
살펴봤
조준경
물어내
이바라
##슈얼
빈틈없이
강동구
나뒹굴
복위
외웠
미시시피
고학력
단간
보은
육영수
혜영
##당선
다가섰
타이베이
이희호
에스토니아
홍주
##트페
조선일
시달린
없앤다
ap
비인
웅크
총국
##꽂이
호소력
재협상
상트페
석재
해직
##우산
청년기
얼씨구
상트페테르부르크
개각
본방
월로
##백호
맡겨서
네드
야속
야나기
##무역
어리광
금장
마무
빚어진
서먹
섹슈얼
형제간
가냘
오사무
골라야
tbs
열연
나쁜데
엑스레이
놨을
짬짜
필경
##베이션
중심축
백병전
난거
건너오
초대장
남지
칩셋
역겨우
미적분
##기념물
돼야지
준칙
##ky
득표수
도루묵
렉스턴
바투
성민
출진
해물
##za
라이토
흔들린다
Heart
박소
일약
헤럴드
##금지
블라우스
##밴드
달러화
##irst
빼들
지느러미
홍천
화훼
들어차
김나
세웅
용은
코넬
##봉대
유통망
상수도
FN
당락
주워서
포아
형아
##ty
NFL
서성이
코우지
황재
휠씬
모집단
준위
아메리카노
대덕구
해줍니다
마틸
##네이션
##투족
거둬들이
송병구
전태일
##포인트
미술사
##ology
동도
셔틀버스
##버님
배때기
Free
금번
십시다
엘레나
철길
##ogr
내놔도
Pol
신망
월마트
육전
아이린
두루뭉
무더운
신채호
눌리
바친다
인습
투혼
##보트
numberV
명목상
두들겨패
감퇴
수신기
되돌아왔
Rock
모치
포티
자치제
보랏빛
역기능
유틸
인덕
졌어요
카빈
유틸리티
관등
듬직
몰르
비신
진홍
전자책
발자크
잉여금
부루
##천만
솔트
프렌드
##피온
##inc
선보여
내국민
각양각색
구례
존치
해진다고
맞물리
만다
민통
##ms
##숭숭
가우스
소경
호머
화수
##꾸라
천연기념물
콜레라
다이나믹
이재오
고르바
##ARD
권법
당산
석류
에노
에머
퍼부으
검붉
광수
센치
오간
타코
피쉬
들어옴
청산가리
히로미
라트비아
고르바초프
뒤숭숭
저으며
필하
허파
강급
방행
히치
Ele
가분
광적
로메
카슈
##비행
이름표
루즈벨트
담사
상할
종지
##mnumber
안타까워하
공백기
솟구쳐
아킬레스건
유단자
쓸어가
시켜요
봐야겠
나치즘
조리법
노린다
동률
진귀
태음
실려가
선승
알트
우고
쓸어버릴
없앤다고
침소봉대
나창
슬래
줄다리기
결정력
받침대
시퀀
훈방
투자처
자살자
디딤돌
동식
베베
양철
유이치
찢어져
numberN
속절
카키
수상쩍
개론
집배
##딸랑
유감없이
변압기
Mod
fnumber
최유
소형차
미워할
씨발
트랜드
대책위
이터널
만년필
NSC
적분
생활상
딸랑딸랑
문석
영식
일급
그저께
급전
대체재
모여드
반신반
빠꾸
젖혀
수용체
무라카미
유업
생생히
돋보였
경어
야오
줄려
##불란
고만고만
넘칠
##에리
##레온
부창
진왕
코민
김복동
##촌동
찌그러지
성대모사
김순례
수훈
신서
칠지
피토
깜둥이
스캇
부정수
계획안
참고서
엉거주춤
브리티
신바람
은동
##루아
오신환
SAT
러프
##운용
경학
넷마
세발
##세유
제이티
감춰진
커트라인
고폭탄
염분
중저가
픽처
흉한
자민련
크레용
페미나치
가서도
냈으니
아성
유당
제프리
환히
##let
춘천시
날뛴
조악
천일
해뒀
현현
##립스
다테
우문
홀로코스트
적대국
놓여져
낙낙
보니
빨러
카라스
이문열
영등포구
갈린
속사정
원부
츠루
세아
추계
##제일
##케이드
포항제철
아서라도
추천서
일진회
고목
미실
한큐
고달프
눈까리
응석
포메이션
후우
서둘렀
Moon
겠어요
지구인
드로이드
음서
카누
재수생
브록
일설
민주주의자
화장지
이원일
건들이
망합니다
시반
촉한
타켓
양성자
잊혀져
는진
혁파
신동엽
마제
만덕
상부상조
구레
녹슨
멕이
블록버스터
지그래
구스타프
귓구멍
숙일
영안
한성부
고린
낭인
능청
봉안
새겼
응어리
쬐끔
핫도그
##체육
연예대상
포스팅
빠름
에너
이겁니다
집현
동남쪽
시게루
델라
생신
##네사
##러우
장난친
였음이
진서
##론을
노동청
루쉰
베낀
별관
새엄마
##터기
##위복
베르사유
윤종신
기예
##세워
아야노
토벌대
OPS
갈까봐
물렁
줄임
##손녀
리자드
모탈
몽상가
서상
요체
수도승
##구비
반비
퀴들이
소비세
무너뜨려
유산균
속어
저공
점쳐
조스
향리
달아오르
증조부
세바
##간지
전화위복
인수인
고리대
로직스
cj
할런지
황석
올려야지
##lex
가여운
보검
여로
최수
사회부
모여야
나빠요
서지현
BP
뺀다
싱긋
이족
정여
풀가동
여겨야
휘둥그레
강선
혁혁
시티즌
다목
등수
시메
##우로스
일사불란
군졸
동한
쇼코
하자드
##AA
재계약
마석
흘러간다
흐트러지
나성
학규
쏠렸
들먹여
광덕
누른다
김해시
국철
징검
페레
##네프
스피리
경시청
경거망동
거짓부렁
뛰어오
어거스틴
린스
멍들
얌체
학습지
일면식
로밍
무트
종복
춘다
로디
크류
대장정
처참히
겨드랑이
인더스
##초가
그래미
shar
외적
울릴
괘씸죄
Ab
##뿔소
꺼낸다
들보
조원태
펠리페
야요이
메로
보문
퇴로
##몬트
##샤오핑
범칙금
걸래
대좌
덩샤오핑
지명타자
EPL
프렌치
놓쳐서
자요
사츠키
##다짐
##커버리
심장부
끌어낼
콜로세움
구본
램지
카츠키
##할머니
폴리페서
근현대
매그넘
교가
김갑
복날
장덕
행로
##루냐
쓸쓸히
Cy
넌센스
앞당
해졌으며
Sec
노어
설현
철군
합디다
##gr
해양수산부
아유미
패륜아
지보
태연히
횡사
##찬란
전자레인지
엔도
인숙
추풍
종잡
취합
##소매
부러워서
빼돌려서
Char
코요미
근린
내노
참극
후다닥
##인사
사철
입조심
무이자
얼버무
문방구
NLL
단짝
뚫어져라
바질
반딧
적벽
데려간
소아시아
싱크대
팡팡
##사회
끌어들일
어젠
행색
사자성어
사면초가
서투른
cc
도카이
살집
월성
뜬공
우하
초자
켄이치
##디트
아오키
베가스
주다
아리안
참모장
더러워지
스칸디나
스칸디나비아
바부
유배지
못생기
츠바키
귀부인
어엿
용소
으되
플리트
##주교
터질지
환승역
미지급
무자격
경조사
꽁지
##건조
##연구원
창덕궁
넷마블
kim
설아
욕자
##기부
레이카
까다로
선산
시면
원류
종반
포신
##ks
##뭐니
행정소송
힘든가
부양책
FF
깎인
임해야
##주니어
세르게이
적립금
고금리
Sl
맺혀
주물러
마지노선
표트르
환부
법률안
디아스
돋아나
빗줄기
선경
신단
컬쳐
문어대가리
RT
몽테
임성
최교
##리언
따진다면
제럴드
뇌출혈
쉬워서
폐막
형장
예거
키네
환란
김현아
##타마
미나모토
비흡
##EL
##충우
비흡연자
군영
샌더스
시론
##니뭐니
스트링
다크니스
샌디에이
갑신정변
곱슬
멘델
호루스
##베니아
MBA
던대
망처
여행기
개나발
노다
설원
그은
##마마
들여와
샌디에이고
광어
대연
갑론을
껑충
중식
쫒는
##ler
시사점
갑론을박
강금
빈소
짬밥
##불출
동조자
아즈텍
진풍경
골다
강주
쉬이
처내
##aj
위반자
최치원
둔하
젠지
##패닉
밀려왔
소냐
아퀴
종언
해온다
정치부
히스패닉
찌푸려
연천
동정표
가모
룰렛
목차
취기
해파리
성우진
한다던지
착해서
양로원
데릭
루시아
젖국
조봉
물욕
박애
약할
조야
이케다
us
괴팍
꺼도
샤론
장유
쪼그리
덮어씌
방용
아칸
터로
인정사정
짝짝짝
권속
난소
인준
채광
올라탄
남성혐오
뒤집기
당번
뭐니뭐니
정취
##보낸
이세돌
가쁜
헬륨
##EG
##앗간
내려야지
나무란다
타이타
일어난다고
모터쇼
넘볼
오닐
이수근
선민의식
내두
맞잡
아샤
제초
학구
향방
기다려서
공회
단임
딸아
음경
##벌떡
채식주의자
장계
추증
##cy
##가키
슬로베니아
##ubl
신애
위연
쫄려
터져라
기다려도
기국
선기
큰스님
##고로
##르도
매디
순신
##기니
어렵사리
감액
쳐부수
바이퍼
Blue
문밖
한다지
엎드린
사납금
시냇물
구래
드라도
못질
뺏겨
손재주
옥천
창제
조달청
랴오
모계
백동
후카
##itch
보릿고개
대굴
##니르
기준점
노동계
개눈깔
까막
별게
쌩쌩
해약
올랐으니
로보트
은대
터져야
씻기
우공
프라모델
죽을죄
부탄
홀로그램
탈의실
윤보선
Big
왕전
원일
조족
파치
풍차
쓰러뜨렸
예뻐서
HTML
다재
루니
긴급조치
군주제
과욕
논법
열외
##컴컴
바운
알리바바
점심때
혜주
오래간
히포크라테스
콩두
헬레나
레이브
회계감사
고막
인세
##코비치
동리
버텨라
태공
##천국
전쟁시
뒤지기
분쇄기
남서부
래들
성유
약진
에리스
오송
응했
철종
##사발
모자란다
프란시스
겨운
한솔
폭주족
번뜩이
꿈꿔
민의원
수회
염화
햄스터
무뢰
산청
메모지
개근
##de
고려장
신권
지엽
##푸른
대한다
라이엇
잊혀졌
유성룡
헌정사
시무룩
시퀀스
나연
월계
작설
살아간다는
들어온다고
가야금
##속결
불태웠
은평구
븅아
솔깃
야마자키
진안
마호메트
속전속결
벙신
창조물
카멜레온
새까맣
시물
친가
토스카
김혜수
일희일비
어안
흥건
##부조화
배급사
신해철
남창
널찍
좌뇌
칼륨
해봄
프리퀄
빌리지
화주
인지부조화
쳐들어가
매형
손괴
송광
원외
헐떡이
썩이
염주
젖소
##애애
아라시
거두어들
널뛰
파당
수집가
그런가요
집현전
섭씨
가르켜
엘릭
진입로
티아라
간언
몸길이
큰딸
법원장
뛰어올라
말라리아
성탄절
컬처
조희팔
낚싯대
저상버스
입속
제빵
털털
회신
##눈썹
공저
김중
로바
##프레이즈
마침표
##버리지
클로이
김유진
니콘
역린
지의
##만도
##미남
인류학자
어두컴컴
굳혀
규장각
얼쩡
우든
흩날리
한대요
이맘때
기달
동치
허경
##구경
홍보물
들으라고
긴지
누만
알베르트
연무
지스
털려서
가지마
아무렴
사마리아
야단치
초회
보호관
느티
장밋
화천
##pnumber
공범자
Let
바들
제례
허리춤
벌어질지
브람
신료
심벌
톈진
학관
공히
셰이
시레
탁아
티거
으셨으면
직사각
강권
발할
북소리
석수
앙쥬
나이롱
겁대가리
슬플
융성
다녀갔
책상머리
차선책
싱크탱크
분향소
##충우돌
Max
곤궁
웰치
크라스
흙먼지
생각날
좋아한
박주영
스핑크스
KN
교서
리보
좌충우돌
쿠쿠
퇴근길
후진타오
이러다간
윤재
턱수염
여성주의
조지프
심포니
오시리스
베로니카
알토
흉보
##이러
브루클린
MI
북해
했었으나
가해야
플로우
##동맥
유키노
병살타
능수
대임
산초
어웨이
의안
코아
##OID
걸러서
보드카
제후국
이랜드
코페르
테헤
국해
신겐
성낸
앞치마
을라면
찰지
지원서
포토샵
##클리드
sin
봉제
쪼매
책동
테베
##슈비츠
토막글
이세키
pnumber
뷰어
자차
축구공
평택시
번거롭
키프로스
박카스
##왕후
아우슈비츠
아민
어문
특효
피타고라스
넘어와
수도자
방계
식성
쌓일
영연
행이
회사채
희망자
히로유키
단주
문리
선족
밝혀낸
서재필
츠네
##MAX
잔다르크
초코파이
구대
야담
정죄
뉴타입
신판
출렁
케라
내게도
##다이라
황우석
주아
##병기
시리얼
출발선
엉켜
보상비
엎드려서
심포지엄
궁내
바텐
용공
짚신
선덕여왕
느티나무
축배
한다구요
드래건
가시나
역도산
차대
선동죄
사쿠야
서스펜션
깁슨
로베르
번잡
분규
친아들
택견
##니츠
라덴
린트
암송
텅비
대격
병정
북남
서청
들립니다
부이
태어
##WC
까다로워
후학
패잔병
키예프
두려우
기본요금
승합차
서라벌
부야
평방
자신만만
넘어감
집행자
이종명
아자씨
et
식모
열변
추사
뒤엉켜
깬다
로건
무우
상훈
샤우
의형제
연출자
일회용품
시끄러웠
부창부수
맺히
장항
친부모
잡아오
지질학
빅스
삼지
쇼팽
##별초
집행정지
친절히
동떨어져
렵니까
스탠더
총부리
피질
##의연
찾아봐
두레
산등
세전
종간
천산
##줘도
세계수
순찰차
무궁화호
세정제
맹공
블랭크
오므
진드기
다각화
JC
여남
내려보내
수출액
실려고
여몽
인서
재가
지층
##면체
상영관
짬짜미
류우
리바이
핏빛
사랑방
##ats
##ope
귀의
말벌
복각
엄단
조간
가마쿠라
까한
츳코
푹푹
피버
갑지
북베트남
앙숙
튜너
##나우
자동변속기
우터
장광
폭음
프레시안
과메기
난점
돌핀
성계
불룩
피통
징검다리
공파
환공
보헤미아
비드
필체
세분화
미주리
논설위원
곡조
##지스
일거수일
통역관
긁어모
일거수일투족
개심
광화
해조
홍조
##피지
유희열
코페르니
개축
라켓
##구불
##전차
아니면은
진화론
걸레질
##공화당
거냐
문형
수채
악동
영일
##주택
휴가철
과로사
Your
저토록
타타르
유리병
번돈으로
공훈
타이핑
게토
승희
실베
쌍검
이베이
허당
구태의연
승정원
내것
민주공화당
캐치프레이즈
고달픈
몬드
후군
##실조
영양실조
Japan
초가집
Tv
땅덩이
싱겁
##도르프
이목구비
모회사
의열
저돌
경음
고과
세이야
미취
백치
엘소드
인족
토코
뛰어오르
백년
참정권
##fl
##플라이
두들겨맞
덜컹
소속감
드럼통
대찬
응급처치
갖춰진
##ONE
##ange
짝짝꿍
최교일
내진
불덩이
쌍벽
정사각형
송대
인후
귀빈
눈엣
왕수
의역
쿠르트
눈엣가시
진무
주의보
케이프
김부식
고농
뉴올리
떠야
오레
테제
파구
##무트
들여다볼
꾸지람
타이타닉
남문
수탉
엘더
국민생각
거시경제
서체
흔해
카즈미
헷갈려
해버려
뒤처지
카트리지
코페르니쿠스
기의
이러이러
##aum
이승환
다던지
기피자
양념장
뉴딜
액스
##안전
##휴가
기친
버락
온대
풍신
라이덴
소모전
con
문공
바스티
벽난로
이듭
##피에르
떨어뜨린다
프리티
아후
화생
다녀올
김광석
차입금
다빈치
검투사
돋보기
남경필
송현정
남겨서
페널티킥
황위
원리금
아카시
전현무
리만
비노
풀숲
토모코
테헤란
소니아
아쉬우
떨어질까봐
물림
반석
메인보드
오작동
net
발려
##UC
##도둑
아로마
ne
엿장수
김용호
곡사포
송기
와락
치인
##씨름
현대그룹
레인저스
개목
땜질
유임
하정
여겨져
서구인
중개인
나스닥
우에노
김좌진
Lo
##르바이
던져라
##르바이잔
낭송
베일리
사택
##마이
지명도
들어와야
인쇄물
Mc
개면
함안
##키들
개그콘서트
부풀려서
최충헌
군집
버둥
보폭
슬펐
온지
쫄깃
네만
우거
운문
화승
기억난다
##저러쿵
광업
짜식
학내
블리츠
개창
세타
아과
쾌재
##날린
눈물겨운
견자
시달릴
프레데터
혈투
이뤄져
홍문관
빚지
영제
음울
##달성
강민호
실라
위령
소지인
Je
바자
신룡
천제
퇴위
호크스
##지축
XML
낙사
증가량
아제르바이잔
이러쿵저러쿵
OCG
놀린
클럭
포에
핵우산
##nn
통화량
응할
쟁광
카플
##칼리버
번안
앉힐
좌판
뽑아낼
메를
##enn
이승기
천방지축
차암
밀봉
백남
소현
파와
##ius
##반지
아리사
전봉준
산사태
##피오
소매점
jpg
고드
니마
라키
엎어지
호오
##갤럽
브라이트
삼킨
속눈썹
식음
으르렁거리
절름
##연의
라흐
재사
점액
재미나
미공개
끊어질
철분
청백
태호
##장교
##개석
반지하
휴지통
SOC
mnumber
두발
부쳤
조어
한국갤럽
자유도
목표달성
##aker
여잔데
추켜세우
드미트리
시소
접미사
##회복
신신
일고
허송세월
쟈니
##시리
##티즘
##앓이
물음표
글꼴
길버트
카잔
LOVE
고차원
애물
킨다
푸에르
사회면
##ara
다승
에칭
여선생
교통량
꼴사납
세찬
야크
휴우
정처
##ga
특별자치
특별자치시
가온
식후
하셈
##세다
##소사
튀어나온다
회전문
Music
귀도
셰리
정족
PT
대계
감정싸움
투표자
전각
아카데미상
거야
고런
그케
피르
##ount
우치하
우간다
야제
예인
못했었
한반도기
모래알
조강지처
선유
줄라
촉법
포만
촉법소년
군현
꼬여서
미란다
인술
취리히
numberrd
도전장
모나코
절체
허버트
레이서
GA
농토
사무원
##레이브
아들내미
고질병
샤이니
박보검
슈테
폐쇄성
브로드웨이
십일월
스르르
매달릴
Her
땡전
서이
의금
탁탁
쓰여져
리어스
끝났으면
합의서
맨서
터부
해트
허스키
##트로피
GPU
제레미
혹성
##ru
제안서
로켓단
##현실주의
개폐
고풍
대저
돈맛
성직
총대주교
시퍼런
금오
돌담
백련
안당
웬리
교통망
인종주의
어길
체어
기계식
이스타
스트레인지
고법
착란
패킷
봅니까
##얼빈
약학
중의
외로워
능글
명희
법가
폭발력
한가운데
순혈
엔트로피
제삿
존귀
뉴런
들림
##rain
예식장
호라이즌
코스타리카
내음
백승
##bo
일가친
수그러들
검시
장합
##빌라이
약해져
친화력
소공
앞질러
##삼간
고해성사
다문화
양계
진짠
환웅
힘냅시다
애널리스트
개좌
수생
창틀
##RS
보복조치
딴짓
딸딸
재석
##be
##채무
##칠기
남동부
겉멋
금제
임다
탕수
##아프리카
끌어모아
정준하
중개업자
편집증
불소
특감
가정생활
숨겨야
해줄테
소작인
이발사
초가삼간
GU
lte
분부
끝날지
색소폰
코소보
명창
신인왕
해수부
수공업
호메
##청자
망루
신분당선
귀기울여
##이가
올려진
반비례
다디
어언
패싸움
안젤라
서생
잔챙이
장손
##싸개
베이직
신야
처용
식량난
이경우
메디컬
승전국
나전칠기
남아나
디럭스
플립
##소이
감기약
Power
매여
멋쩍
무토
피바람
##IF
들려준
시끌벅
광의
안데르
걸어갈
늘여
맹비
심박
시대상
우승컵
구경거리
##중국해
덤블
아영
영농
우키
자제력
꿈꿨
띄엄
슬래시
쿠페
퍼질러
을걸요
골인
네루
비버
학예
##콜리
관리국
서술어
뭉가야
굵기
산유국
역발
##bps
백혈구
마테
양사
저위
쳐진
##쳐도
사이키
자주독립
이브스
시실
전표
소아과
구불구불
##인명
얼굴빛
##시원히
High
속시원히
옹진
찬동
파전
헉헉
가내
간도
장독
해드
알아차릴
토우마
임이자
꺼벙
밟혀
빚어지
율동
드러워서
유리카
못박
응고
찢어
##하지마
더듬거리
돌아와야
내팽겨치
도림
직공
장밋빛
가고
드는데
버틀러
부계
상보
신법
팽개
홍순
##ECT
허물어지
낑낑
##밸리
결정지
##ene
응시자
견본
되받
불손
옥좌
최병
친일인명
친일인명사전
달치
뚜드려
박모
초상집
쳐들어왔
카다피
노지
망아지
속설
##소침
덮어두
의기소침
art
월화드라마
십일조
드려서
사나다
풍물
##인상
땡볕
화고
미쳐라
들으려
최형우
남진
내관
세진
동구권
동류
알려질
하세가와
남장
무량
반절
왜성
호당
화북
강정호
폼페이우스
깎여
리빌
트렌
건설업자
맞이해
파란만장
묵시록
핸디캡
사황
청풍
휴즈
##애플
문화일보
천하제일
##세이더
크루세이더
맞닥뜨리
고니시
맞겨
에인
VOCAL
데시
섬김
##도취
##플로러
날뛸
경비실
학력고사
익스플로러
움직인다는
과음
설진
추서
괴로울
질러서
해인사
급파
날래
묘기
서나
폐점
하얼빈
##민족
눌러야
특출난
##레프
낚시질
관동군
동음이의
일가친척
박미
씹히
끼여들
날려야
디엔
새뮤
심합니다
공화주의
판타스틱
꼬불
난타
조위
##콜로
공격대
답안지
미니스커트
담날
보노
##종자
##반정
이삿
아까울
최진실
이삿짐
##수전
서경덕
TD
노덕
아닐런지
살라딘
강보
말대
아라이
천생
추웠
몰랐었
접착제
뤼팽
왈츠
저려
##페셔널
대립각
박영효
김수영
주책
칭한
##ephoto
서찰
영인
저인
정언
통설
##다능
금시
지러
천우
패착
수출품
마스터즈
대문자
sharephoto
Mark
깜찍
네라
콩트
이슬람교도
애통
창살
프로페셔널
그레이브
꺼림칙
묘연
##약청
먹혀들
Dark
식약청
옳소
JAP
양친
치토
이명희
생겼으며
김보름
Sum
다소곳
날카로워
낼지
뒷주머니
버렷
엎친
##와트
집행관
케이블카
에델
##과학
어찌할꼬
이상주
자산운용
밀어줄
상담소
농사지
피에로
남중
들쥐
미결
불독
##캐피탈
##궐기
전해질
그런가보다
초심자
익혀야
AAA
로카
청담동
King
더래도
발군
총궐기
##대발
프리츠
부딪힐
헌신짝
단대
예년
##라호
##문자
##군인
##살롱
동해안
영도자
관세음보살
약함
누가누
낮췄
달여
수스
울린
##코타
아스가르드
멈춰야
노발대발
Air
래이
룸메이트
매표소
간척
언락
진혁
##연기
발생지
헤르만
다재다능
가선
김이
부로
호성
출신자
교치
누려야
선군
숨바
우람
하피
이혼녀
몰려온
박지윤
토리노
성형수술
결속력
위닝
조전
향로
Bre
KE
더덕
베크
영작
숭배자
종적
촉박
##토프
샛길
타란
##자박
##입구역
귓속말
들고일
피코
##공명
하이네
박완
번데기
비제
삼립
황송
파우더
아이코
중화학
자승자박
박식
산비
대항력
아톰
완곡
##우먼
##분석
느낀다면
기세등등
오리엔탈
에어리어
밀물
밑장
육손
망신살
와세다
국명
썼으며
촬영장
Ap
따가리
좌고
##vnumber
##져리
강간죄
가담자
당게
조대
코발
히들
##핸드
선수촌
아만다
승우
후라이
이자스민
Christ
##르슈
신성모
접속자
이시이
JS
감고
김자
머쓱
허투
##결혼
피해액
초상권
KC
##폭력배
민재
찰싹
사회인
골드만
벨라루스
장성기
창수
확인서
조직폭력배
초신성
판로
##ward
##선택
##예금
혁명당
견우
묶여서
바랜
줜나
##기들
##통신
갈아탔
데워
특임
플렉스
##이버섯
정토
간단다
가다
초로
##드릭
불가분
시사회
이봐요
벌건
##뮤직
GC
감귤
강만
를르슈
##중간
공창
먼로
음유
항원
해보
##어누르
시흥시
스탠더드
늘씬
반강
색칠
시래기
어깃
찍어누르
##하는
무너뜨렸
대원칙
주안점
법체계
는감
빗속
리그베다
견뎌야
함경북도
Open
내려놔라
어깃장
방목
옥새
토바
카디널
Cont
노구
생장
썼었
자토
##가정
##파르
자아실현
리어카
까말
뜻깊
바젤
##전함
지만서도
책임진다
민족사
불시착
장태
고지대
부다페스트
자린
카타르시스
동여
로케
미겔
선창
##아기
##공신
흐트러진
아닐지라도
덤덤
삐삐
##ORPG
러스트
밥숟
오에
이억
전영
질척
마누엘
코코아
카탈루냐
성완종
에른스트
국학
빈치
##뮬러
정육점
망은
체지방
##강산
Who
가무
외숙
주경
지용
##시온
##티에
한국학
여겨서
신동빈
나즈
유사점
사제단
뛰어내렸
대관식
숙직
옹주
퍼서
##춘다
찾아들
End
법자
##어음
전문지
이집트인
사토루
끝남
내빼
##단절
주재원
삽입곡
심양
혼났
##의금
의자왕
재무장
Ind
귓전
뻘뻘
어명
행정직
주니치
에볼라
내쳐
루아
바레
비급
배울까
av
뿌려야
시린
호동
도시바
인터폴
장애아
냉혈
로이스
집배원
목상
##HT
##칠성
비행단
국교단절
광해
원광
서대
신계
칼데
쿠나
부러워하
구위
단무지
공격진
이세민
Off
대척
암사
켜진
퍼진다
연구가
주름잡
계도
이생
싸움터
끌려갈
거스를
해수면
흔든다
집어삼키
TBC
내몽
미확인
엿듣
##가타
담뱃값
도이치
KF
뉴트
반수
반유
##hn
PE
문간
여쭈
나이까
뿌리내리
은지라
을려구
근질근질
거를
콜트
할증
병원균
레드삭스
병문안
낙심
월광
지디
해마
황건적
일본도
재생성
##프라노
내비두
끌어올릴
멜리사
로드리게스
선재
정학
공격자
줘야해
여름휴가
##ANI
KBL
알레고리
화기애애
담수
동형
와사
터주
SSR
로군요
몸가짐
물밑
복희
산자락
숙연
촌지
##ck
김현종
하버마스
총책임자
수한
카루
프시
연막탄
생뚱맞
민조
엿보이
외울
코타
훌훌
##입술
불순물
겸사
구녁
뻔할
설혹
##얼음
드릴까요
코네
##외법
현대캐피탈
브랜디
장동건
종량제
코민테른
구력
보보
생과
양씨
동의보감
주목적
VOCALOID
디셉
적혈구
억정
현영
경영난
관목
방갈
특산
##수수
서화
##su
스레드
루이즈
오펜
팔로우
혼쭐
스테파니
스러워했
잃어버릴
멀찍
족벌
##WA
따라했
을지로
고픈
치치
태원
수양대군
구관
동법
밀항
외려
우루스
임오
그래그래
이사국
니켈
앨버트
정결
다이노
외쳐도
고독사
동풍
쾌차
글씨체
상습범
함석헌
당지
메피스
폭거
##빈다
인권법
모지라
손놀림
포인
젋은
하기
최고형
틀어박
파인애플
사창가
철봉
조적조
치외법
치외법권
Che
뭇매
방음
마르세유
뒤덮여
한용운
FX
북로
선희
##할린
검색창
미야코
설교자
시미즈
깨어날
요사이
유클리드
##끄덕
##OOO
윤석민
가로저
노부부
호메로스
도고
따낸
어플
전명
제헌
홀짝
귀금속
린네
무령
백부
사목
##겐슈타인
비트겐슈타인
원고지
서둘러서
모셔오
흘러나온
카시트
줄까요
추울
##타니아
대초
무럭
해류
화장터
마가렛
리플리
맹비난
기싸움
일요
줄때
혜정
쿼터백
문익
상중
모자람
찬성표
불거졌
리네
잠드
총소리
카본
##자지
자료실
으라니
꾸물
당비
라야지
에치
##퓨터
수정안
갈아탈
볼지
꼬부
정갈
토인
고대사
스미레
히히덕
제라드
비사
앤트
프티
##계선
죽여버려야
부랑자
논박
랑게
미더
원샷
직능
츠치
팝업
##실신
네모난
게양
느와르
백이
처진
다녀가
스콜피온
아나키스트
단오
속단
아난
얼빵
카모
##zz
##ouse
사토미
굴렀
여울
연제
찔렸
##KK
심리치료
달서
맥심
박서
오와
운가
윤원
BEM
곰보
방세
산들
프러
한갓
껄끄러운
마킹
입교
짜깁
##건대
##함대
어찌해
연합체
테츠야
몽이
미발
민화
크랭크
등받이
래빗
인본주의
주욱
분교장
담소
민갑
뼈져리
호쾌
회도
##수정
##레드
한국노총
하루히
휘말린
삼국지연의
떡실신
배탈
에뮬
자마
야스오
군말
정법
##파르트
나오토
뒤따랐
Hist
룸살롱
매독
베지
옵니까
##하워
##모음
선교회
관급
단번
로베르토
못쓴
새내기
온돌
이본
쿄스케
##샤인
##ames
아이젠하워
YMC
높혀
바삭
성물
실향
도망자
끄덕끄덕
댑니다
쓰촨
여려
임한
정동원
보크
충치
도와줘도
격주
그쯤
데크
버선
세사
태왕
##투구
##볼루션
신세기
이윤열
구찌
댈까
술상
##lo
##을지
이하일
돌아온다는
도미니카
포터블
시끌벅적
돌잔치
분방
삼천리
인중
짱짱
탈로스
##지아
힘드실
답답이
##ald
##ody
GAM
샬럿
톨게이트
##요건
무대응
가물가물
절체절명
규현
매지컬
버려두
경력자
위압감
우등생
내립시다
유어
행한다
##자본주의
##탈태
##ita
남단
쇼우
애고
영매
최익
우선주의
겹겹이
꾼다
이클
죠니
중절
시킬까
환골탈태
어플리케이션
이클립스
고척
광원
##러시
대하드라마
변동성
나귀
리먼
모선
봄버
##YS
##테말라
밀어줬
일차원
설렁탕
과테말라
납골
레노
사고파
시에라
밑그림
방점
보습
에선가
휴교령
카밀라
급자
파자
##버러
##윤리
삼성증권
내게서
계신지
맥도널드
나츠메
이익금
뜯어낼
르블랑
불장난
살얼음
시유
임경
편인
허연
뉴비
옆면
코엑스
수차
중간중간
슈퍼카
양세
푸치
경전차
관위
광합성
막힙니다
와다
주제곡
이동기
자아냈
다란
피콜로
##나케
잠수정
목포시
주최자
외관상
느림
사이언
에드먼드
꼬임
찢기
크랙
지켜져야
법무사
드래곤즈
영세업자
고건
다희
땀방울
설라
익주
초이스
포도청
백의종
목탁
몸종
차디
환술
##쿠치
뒤바뀐
에그맨
라피
목축
손금
시제품
펌웨어
원정군
이따가
첨가물
진대
전두엽
중장비
용족
커티스
판인
피험자
호른
화인
##공증
결투장
녹슬
올바름
플러그인
눈뜬
피날레
##두기
흘러서
김광현
영락없이
오디세이
바뻐
송부
옛다
팔굽
이스마
장인어른
골다공증
빛날
쌍방울
재평가
파타
##동체
친해진
서정시
망인
몸조심
케플러
황망
행정법
에어백
김준교
군들
리만치
훈령
지방관
피노키오
##방석
몰아낸
찔러서
주절주
##ollow
다드
친필
히고
교통편
##ori
연봉제
허우적대
거봐
침구
##드렁
우선주
터트릴
러서야
윙크
장조
타자기
##상태
끌어내렸
고리타
수달
중압
##질나
##파고스
유색인
다년
룰라
몽타주
충칭
트와
몰려든
베르디
차림새
물려야
성덕
야코
엠블렘
대실
제약사
싱하
안긴
무서운데
춘향전
주절주절
재재
종민
##꼭질
위험천만
돌려보낸
숨바꼭질
도플
장료
느껴져서
달아날
말수
무혈
서책
지휘봉
이보세요
천리마
몸놀림
이몽
후금
양심껏
냈었
법회
산실
알카
와아
중앙부
지휘권
온난화
남해안
만수무
부아
연내
일곱째
권사
무등
의젓
쿠우
##고추
안녕히
되돌아갔
당보
더글라스
빠개
하만
##라시
슈퍼볼
호프만
기문
닭똥
복소
아임
칩거
켈러
##dnumber
드러커
넘어뜨리
Dav
집기
올려져
슈퍼주니어
##uss
사립대
진흥왕
빌빌대
군다
소가
##오열
걸음마
새뮤얼
기탁
길고양이
드링크
외손자
풍파
회충
모뎀
노려볼
불러일으킨다
우에스기
재빠른
건사
게바라
워런
전륜
체스터
헛기침
복사본
##other
구씨
병증
셈법
소탈
쿠빌라이
##초롱
코쿠
권은희
물릴
##무드
행정가
동질감
지사장
해줘요
멘토링
걸기
머드
황충
효고
##덴부르크
완성품
##ush
편해졌
##하마드
겸한
노환
등분
어썰
##해졌
##ird
어버이날
어썰트
##TRA
numberH
손절매
카를로
갑자
엮여서
위너
최창
스킨십
안토니우스
JAPAN
가연
맴도
무희
장삼
풍운
험준
##장갑
##활성
기소유예
백의종군
버너
참살
흑흑
##진대
덕양
무연
출도
회의록
바둑판
쥐어박
##일라잇
트와일라잇
외피
히브
매일신보
주법
최용
##집권
##명부
##간장
##비에
버려져
노리코
류큐
레이아웃
마리우스
##ions
메갈이
발아래
새총
심중
위패
편해서
##정사
받아들여질
명문화
아픈가
심해진
칼럼니스트
만수무강
VC
는냥
울적
##투합
떨어트려
카메룬
국경일
버네
우경
음정
##꺽정
올랐으며
조교수
롤리
으십시오
한직
##도끼
클래시
당편
연식
응분
일체감
Er
빡시
필리스
대표부
아시나
내원
이냥
임꺽정
편력
##고비
지구당
의기투합
사분오열
가독성
금곡
범절
케케
르브론
##재앙
사인회
쿠르드족
네빌
쏴야
쓸지
##례문
고난도
병참
혜자
상대식
노덕술
FL
서바
설친다
초현실주의
허지
움츠리
배고파서
서유기
대축
추어
코뿔소
##제한
신용도
단하
말레
봣다
##더듬
정조준
성북구
다문화가정
몰린다
셨었
용하
창사
다카하시
그로테
고와
날려라
넝쿨
디모
래더
백리
세주
울주군
히피
##지혈
##갱어
스러운데
도플갱어
서바이버
연경
뒤집힐
소문나
##ican
프라이빗
하야테
달아올랐
미케
일연
나치스
농구장
의금부
뭥미
샤드
행법
##육신
져야한다
속절없이
조족지혈
man
각축
개문
과밀
샌가
순시
응한
광고판
냐니까
오질
외워서
레볼루션
죄받
의료법
##ters
봄이
센다이
스면
외판
##태자
매달려서
우량주
자카르타
Fire
##Gnumber
광신자
MMORPG
사오정
가녀
번만
코끝
헤밍
생각납니다
어우러지
광안
변심
보채
재희
모자랐
부러뜨리
덤볐
##ven
Not
쓸래
아발
앉혀서
웨이드
터집니다
공사판
아키코
브래들리
다독이
넘실
이충
순천시
농기구
투아
##멀뚱
사의
뒤돌아서
에베레스트
마그네슘
간택
강상
굴린
눈망울
유불리
짱나
황상
아나키즘
기어들어오
dl
다함
무투
혹하
##탈출
만난다는
소스라치
God
개저
몸속
철광
오릭스
제과
혜경궁
도로변
API
꽃구경
늦출
야박
쫓겨날
당혹감
매립지
사할린
후환
희정
무리뉴
경국
봣는데
푼다고
모래밭
동족상잔
그르치
닭발
연혁
판돈
형편없이
생트집
란다고
##어져야
하노버
멀뚱멀뚱
BEMANI
섭이
성골
관권
에펠
연공
저길
절인
툴툴
박정부
에머슨
긴밀히
등진
오져
떠나갔
아사쿠라
안쓰러워
강형욱
도포
손안
이골
주노
##워라
##캐롤
달라져야
건전지
기우제
카펠
##레벌떡
떠난다는
블러디
html
덥썩
레코딩
맺혔
예제
##게더
##공학
아드레
형수님
개괄
로이터
즌라도
하운드
오토봇
계투
듀이
리거
첫인상
포뮬러
사무처
가중치
Intern
두둑히
마곡
입학생
편수
히데키
operatorname
헐레벌떡
헝겊
내비쳤
교향악단
군내
능정
당돌
준말
파보
이즈음
함경남도
밀어붙인
뭉칠
미구
성하
조유
밝혀짐
깨웠
떡값
국민회의
소설책
해줄까
문교부
##캐롤라이나
박병
범수
비슈
연배
국방군
라스베이
어물쩍
라스베이거스
끝마치
레버리지
산요
아더
토카
##결단
소멸시효
Hy
렴구
블레이
악셀
##간당
##낙락
둘러쌓
어스름
배기가스
세네갈
고리타분
레짐
레카
롬멜
보비
북군
영신
켄시로
##xt
마다가스
희희낙락
발렸
사생결단
덴버
옆자리
캐디
후버
##만파
매부
##위안
##ERS
요하네스
취집
##냉면
고분군
원상회복
어퍼컷
FS
들들
벤틀리
생고생
##무로
나타났으며
KG
명산
##땡이
원자핵
유산소
마노
사륜
그랬음
마르쿠스
치러졌
아그니
다툰
매만
##애락
몰려온다
뒤쳐진
메피스토
ab
둘까
뽄새
놀라웠
Bat
Over
까무
역인
키시
투게더
##발이
라이어
타쿠야
시코쿠
설지
운비
컴컴
평전
넘쳐흐
켄터
풍만
이원화
전산망
무미건조
cd
mc
버러지
압사
에큐
##가나
덜미
로티
못써
송화
질르
오죽하면
아드레날린
렌더링
말길
회성
##궐선거
함교
데이즈
나대지
쳐다본
재보궐선거
뉴올리언스
궁상
삐져
##는다
창작자
어땠을까
떠내려가
화낸
아키타
Pet
거상
소저
양녀
자료집
내게로
번지수
번민
시자
자림
쳤으면
해사
##루즈
저런다
김동현
강바닥
길수
택해
##데없
해져라
호위병
##ement
면도기
복덕방
빼빼
설산
소학
송하
유원
파트너십
펼쳐서
##방편
엘리야
##une
고즈
사파리
제트기
수녀원
조잘
쪼그라들
타투
아츠시
북당
중인
침침
화속
요설
침낭
나쁜지
라이프치히
서성거리
박약
방제
부닥
##뚜벅
이끌리
산골짜기
더란
부에
브라보
키사라기
만병통치
Hot
법통
혈류
웃겨요
MOU
돌봐야
운정
멍멍멍
탈리아
지하도
안티오
부을
##소닉
유흥가
Mic
구세대
꽃미남
롱주
어쿠스
환도
이성애
공급원
ATT
뚜벅뚜벅
열어젖
탕수육
어쿠스틱
눈코
약도
시켰으나
임시방편
일파만파
##으리라
Po
건덕지
교세
육조
캐피
탁발
##도감
##요연
##내티
글로리아
신시내티
일목요연
거국
미경
슈마
주어질
가스실
결혼식장
방랑자
간토
리엔
산입
열띤
옥토
일문
축성
##co
##부쳐
사격장
비비안
부속품
Kn
oled
구개
돌돌
사디
옥외
아파치
쌍판대기
추스리
다당제
소호
위병
키츠
##레트
##결연
찾아낸다
자매결연
소성
증하
헤카
##만상
미쳐야
##ital
갓끈
동군
둘렀
마샬
미물
상작
수세기
알력
앞지르
진배
투성인
##다는데
사라집니다
미터기
빈민가
백전백
COM
꼬셔
선샤인
신토
허심
훈구
국민신문
재단법인
늘어난다는
국민신문고
천착
스탠퍼드
고만하
신창원
콘스탄티누스
이고
진득
ELS
군무원
흥덕
띄우기
바텐더
세움
총관
테너
##인가
##olution
아리송
정돈데
Bur
옥살이
편함
학동
뛰쳐나와
콜린스
관변
조촐
세리카
초여름
택한다
한거
##사쿠
유기물
따러
제논
잊어버릴
김용옥
손꼽힌다
의관
아르마
으셨을
궁시렁
애물단지
야루
전기장
도우며
조승우
페널티가
친다면
##면조
차리리
복지부동
중순양함
옥황상제
곶감
제타
쳐져
포제
주문서
역전재판
급행열차
탄저
변화무쌍
문노
셀렉
슬픕니다
아레
킥킥
##니에
##러질
증거보존
급유
예서
요들
나아요
스위프트
광구
가시밭
YMCA
자릴
포춘
씨부렁
프란시스코
성동구
멍에
중도금
김진표
성력
##we
지니어스
소주병
에드가
얘긴가
고깃집
Des
고것
똑부러지
영란
##현희
##탄자
조종석
무찔
운세
사람됨
사회상
볼드모트
암모니아
AU
대홍
빤다고
자모
김사
부머
상해서
##친왕
틀어쥐
비아냥대
립시
야대
##절미
마사토
끌어내린
엑스박스
조봉암
##클라
##병법
해방군
손자병법
언더우드
기왕이면
각층
봉산
서큐버스
오치
침통
키릴
불러내
시끄러워서
도관
##양난
김완
##해머
거추장
##유고
나르시
Can
날갯짓
맷돌
봉천
문화관광
진행형
실험장
Season
노이드
양남
아즈마
크레이그
문화관광부
대롱
베리아
소프라노
천금
고전주의
Ang
진퇴양난
늠름
앙골
언놈
카산
플래카드
볼로
##커피
나카지마
의병장
나신
영력
절구
스노우볼
명화
음탕
##우어
레이팅
타이가
교통카드
사샤
우국
메뉴판
선보일
관개
그만둬야
Li
OEM
잔돈
지함
청운
##호리
##제르
결사대
김윤식
Gold
푹신
나타샤
GATT
상형
자찬
죠셉
판화
올리비아
파티마
빗발치
비데
방배
본시
##못미
##안석
org
밤낮없이
강색
분해서
슬링
심통
##후보
numberE
오클라호
오클라호마
변성
에세
하객
##워키
##걸스
인호
집터
철교
하퍼
쓰레기차
리아스
단막극
민방
수에
으렴
##실색
##oup
천연덕
코카인
군침
꺾여
자메이
지못미
그리고는
김현정
히데오
꿀꿀이
되살아났
자메이카
동란
레거
마군
목초
크래시
부서장
안쓰러운
구마모토
레반
봄바람
빠뜨릴
그리웠
Univers
녹아내리
##분열
갈라파고스
##ift
절도사
산점
섞였
설쳤
의적
입적
휘황
학생증
총살형
섬진
죄진
할미
아랫물
분식집
노로
을는지
절교
해녀
체이서
별동
온유
##로제
엑스칼리버
호시노
부르주아지
##기념일
기면
탁한
중대사
나불거려
노후화
발뒤
본뜬
순영
접사
캡처
의지력
데이비
이루어진다고
창기
처마시
들것
명일
음부
국민정부
경아
도류
변주
바이저
유리코
두드러졌
당무
술기운
좌동
기자재
흘러갈
게인
태엽
튤립
팔로
##무럭
어설트
그로테스크
나한
던져진
sr
벤쳐
보기
운산
자회
천벌
##jnumber
버무려
꺾인
범여
끝나갈
괴롭힌다
해장국
결자
구네
라테
##mw
##르기니
국간
시샘
용궁
운다고
조엘
포청
##호크
##교섭
밀려드
람보르기니
둘려
래지
민희
양탄자
듬성
써내
인사동
윤상현
경쟁심
앞차
연회장
##HA
부라리
사이공
공예품
Met
낯빛
당좌
펜대
혈흔
##득이
##ari
피스톤
##치사
진주시
리포
메울
오십
통기
홈스
흰자
잡혀간
미야모토
사감
신마
마무리지
고린도
Mac
we
객주
데바
물속
주량
##보르
이동은
LM
믹서
신숙
질료
치요
##치면
키운다고
멸할
매트리스
##ield
눈도장
니당
코모
##띄엄
Ass
미츠키
악조건
자년
피복
하즈
##을거리
띄엄띄엄
나뻐
눈곱
비칠
헤프
##팬티
이건데
레이먼드
비스타
치맥
##강하
##츄어
배틀로
타이거스
조르주
레일건
만타
정념
합자
헥토르
##생심
케인즈
moon
각막
매장량
포카
##que
##HS
##죽지
내려준
마사코
부칠
섬머
의사당
라더만
브렛
##멸렬
##좌우
인간관
수술비
동글
루지
문산
쇼라
스사
지리멸렬
뭉뚱
양모
위너스
핵분열
저스트
기술원
무리지
대사전
금융업
중구난방
cm
라플
문준
어윤
에일
외입
진라면
큰돈
##기계
개살
께요
남코
뇌전
사느냐
촌철
파비
핼리
확답
##케이크
주둥이질
이타치
오렌지색
스콜라
피선거
진보주의자
찌그러진
사카가미
해변가
사일런트
매킨토시
경오
관용차
무부
본따
핏물
좋아함
펼쳐야
추락사
속상한
보르도
기브
##훈장
행정동
레시
볼텍스
성고
숭숭
연보
이백
쭵쭵
노랫말
돋구
에린
##이사
##보전
김동리
미워서
연수생
끼워서
초성
저런다고
배웠으면
사운드트랙
움켜쥔
통솔력
누차
동관
떼먹
정향
호지
##죽거리
나눠야
조현민
양동이
그렀
해먹
호야
바이브
주둔군
광대뼈
양희
구미시
코코넛
마라도
##민지
아카드
장마철
사뿐
##천면
바꾼다는
게릴라전
삼합회
됫다
뒈진
기울기
안내자
오래간만
영연방
내줘야
칭할
##br
레리
배은
용성
보드게임
겐조
네그려
들뜨
마룻
반지름
거성
구족
네유
방앗간
종범
##식당
대변지
부리나케
쫓아냈
조연상
냈으나
서커
안평
형민
##연료
Grand
BT
까닥
독종
디나
주웠
코뮌
회답
릴라
손소
수소폭탄
곤두박
곤두세우
냇물
눈발
안즈
암매장
장금
절판
차제
학칙
사시노
김기태
미노루
망동
우나
필지
핸드볼
DJMAX
부원군
ac
김무
루블
범선
운동권
으라구
전파력
복창
혼외
##커드
우선권
PnumberP
나만
만난다고
에밀리아
갈게
눈금
잊어먹
접어드
시계탑
킁킁
버렸으며
내도
망둥이
예뻤
추인
코린
탈해
풍지
##리시
##ART
타월
올려놨
관속
##보유고
파이낸셜
귓등
순백
준혁
##다오
어쩌고
고니
널브
저가
초췌
아우성치
실리콘밸리
밀회
앞줄
채움
책임진
사과나무
노치
첨탑
친권
탱고
호상
##메이드
싸운다는
모후
모카
에탄올
여세
건강히
언어학자
잡아당겼
볶음밥
FT
호떡
새로워
세이렌
내셔널리즘
본판
의천
잡화
채플린
동일인
자라났
산산이
갓난아기
뒹구
미마
삼정
##math
쏟아진다
드려도
기무라
선더
시랑
요마
윤대
캐비
##틸러스
Fi
까나
노틸러스
아틀리
하울
##uv
##틀린
버릴지
구판
삭이
아짐
걱정하지마
끌어당겨
서대문구
실타래
렌탈
혼사
잡아먹히
세바스찬
산개
소왕
헤임
로베스
숭례문
장개석
구성요건
numberMB
사교계
로베스피에르
별점
흥얼거리
##페르노
연극배우
백유진
순욱
현업
##들여서
초과근무
##ival
군락
사커
솔잎
의종
통전
부추긴다
##끈적
기독론
물러난다
가속기
시즈오카
끈적끈적
무럭무럭
레퀴
초목
찾아다녔
##atic
포르투갈어
피선거권
갈랐
고화
사견
##뚝이
원세훈
귀뚜
뒤처리
무석
인페르노
민자당
넋두리
푸근
혼비
##절기
달려간다
리스본
SEED
변상욱
구작
떠남
링고
##택일
##철학
최고조
STX
제삿날
감차
강해야
양고기
##도구
떠나간
어려운지
암살단
독점권
경순양함
나탈리
당구장
점치
##저쩌고
후타바
알기
코호
고리대금
생으로
들으러
라쿠
집니까
##아스
지옥문
몰아갔
김치찌개
파파라치
거트
다현
린데
신군
언리
알타이
현신
##지구
정원사
구로다
사이클론
신의주
구겨진
노천
박건
식한
코만도
어쩌고저쩌고
군화
나혜
몬데
엘더스
일확
조한
할아
##림픽
인공호흡
소곤
하켄
변화구
개최지
영장류
의붓아들
버글
쌓인다
##저께
얄미운
밥솥
수통
아호
캠코더
다양체
아랫부분
브리티시
Mon
벨로
쏠림
떳떳이
##코프스키
높히
주근
키케
하멜
하역
고성군
황천길
골똘히
악쓰
양곡
간다니
은지원
이마이
대동소이
트라웃
ONE
한물간
궁을
남루
납북
무일
밀워키
비품
워페어
케이비
워해머
과신
섬겼
콧노래
##모략
시마즈
급강하
김국
떨군
리호
통시
##야민
아래위
재판정
아슬란
티타늄
수부
도덕심
발레리
배기량
GX
격발
그면
들입
줬으며
채련
##짜꿍
벤야민
관습법
평안북도
중상모략
빗나간
양덕
##청산
후원회
호위함
모더
안고
조갑
##할멈
정신기
소대원
겠어
귀착
리필
바꿉
소청
은혼
죽통
해왔으며
디셉티콘
등가
적셔
청어
물리력
주거비
분신자살
한보
라니까요
끌끌
대봐
로널드
중책
폐경
##납시다
양자택일
미즈노
십상시
미츠루기
골골
대악
임씨
종대
카뮈
테네시
파카
외환보유고
식객
제전
짝짜꿍
파송
치아키
정용기
잭스
##ux
특수강
전해야
사영
들이박
재정난
인증서
몰아냈
군위
물먹
콘스
##델라
나올까요
협상력
에인절
손봐야
초순
최한
환적
그런대
이재수
##elf
서둘러야
안무가
남잘
덩그러
마스트
쓰루
에쿠스
유준
존기
습니다요
울려퍼
들이닥치
시건방
Ever
관가
말엽
명패
배식
필요시
안전성
카나코
WWF
간당간당
상례
성빈
씁니까
아진
패당
##뛰기
채워졌
스탬프
담겼
명세
반다
제적
보험계약
자동차세
이윤택
대산
산송
시언
제언
체대
결정권자
가보세요
국금
딱까리
버킷
인헌
지호
돌아옵니다
베르나
처세술
경황
장의
핵가족
##어링
##동성
이해심
으시오
지워진
망설여
만경
빼닮
총총
타짜
유도탄
NCR
릴리즈
겨드랑
망망
복어
카파
노이로제
방파제
철민
##뀝니다
외교통
모래사장
마그나
의열단
몰타
##정이
치리
화실
넘어져서
AKB
갈려는
잖은가
GK
News
도국
메이스
송창
키타로
탈수
이순자
SNK
뜨거워지
초저녁
말머리
성구
##르겐
팔굽혀
황나
마귀할멈
사카키
껄떡
커미
핵연료
##WS
준결승전
쏘다니
월평균
혈청
##가면
상속자
어긋난다
시끄러운데
다각도
모하메드
소돔
현송
갤리
남두
말이
양안
염탐
아키야마
당서
##전시
##푸레
으라며
급한가
쟎아요
이코노미
쿠즈
기념사업
데일리안
기폭제
Back
졌나
펴지
이길까
부끄러운지
특례법
국서
깻잎
산토스
청록
핀셋
시모노
스사노
뒷머리
보자
시료
버린지
수호천사
아키히토
전철역
겠는데
내몬
발란
빙고
억누
쥬스
##dr
이러나
코디네이터
매카트니
실향민
보주
육두
놀러오
종장
##하치
대구분
##aul
아퀴나스
ver
내맡
사오리
엉겨
##컴퓨터
꽂혔
살금
야학
운율
##꼬치
경작지
단칸방
pro
말똥
큐티
항이
##노바
오래도록
합격률
바뀐다는
미니건
정기예금
무침
의수
투석기
호혜
인간미
세상살이
준다던
프랑스와
아가미
입방아
발뒤꿈치
min
밀고
바뀝니다
집장
목표치
기도문
두문
바겐
반추
백야
쁘락치
속인다
중편
포그
##듬성
교육장
일심동체
듬성듬성
맡아보
서포
체첸
##살금
대로변
들어온다는
귀뚜라미
독침
등부
인덕션
##oot
챙겨야지
대항마
살금살금
고바야시
뭉처
여공
축포
칠드
포비
##불급
똑바른
라일리
이륜
새까만
Hell
굴착
물밀
빡센
에크
##판지
DIO
그친다
발제
입혀서
##yl
사탕수수
간지럽
안종범
세지
작열
해친
나빠져
줄인다고
꾀했
맙소사
뱃길
실릴
쿨러
심해져서
ktx
선거인단
까말까
Ac
모랄
이동국
농경지
평강
일그러졌
고갯
바리케이드
들쭉
원권
촉망
부르고
합쳐져서
광종
봉숭아
청력
월급제
베트남인
ARM
식용유
서청원
민규
부종
진산
행간
헤이안
진구지
타츠미
Znumber
점찍
크론
역겨울
네이비
겹친다
메운
쵝오
##마기
##연수원
감독상
마츠다
받으
키친
##ough
사벨
영결
##행전
토지개혁
연수구
루시안
도재
##르카
##달싹
좌우명
어두움
가쁘
별종
창공
큐라
##콘신
교통안전
스트로크
위스콘신
양부
어종
##툴루
달려갈
들여왔
샛별
염료
잔꾀
사도행전
방중
약조
초임
탱탱
담력
레위
위풍
칭해
##세계
입출금
녹록
딧냐
레일리
변색
시동생
##니돠
들려준다
무화과
ic
덕망
보옥
휘어지
굽신대
하이퍼텍스트
수근
포졸
효모
##들어
##엽수
시킬지
가져다준
볼튼
지태
움츠러
추존
슬퍼할
Type
김강
장날
데비
사동
사셔
엽전
진보주의
미봉
빠뜨려
쑨원
엄친
장호
타전
후비
상대자
게스
땅속
무너져서
가벼이
가오리
기견
마거
아몬드
왜건
차수
후보지
사법연수원
##oney
시끄러우
깨나
내한
##이스트
시어터
이부키
삼계탕
명판
예탁
##탱자
프리젠테이션
덧붙인다
돈다발
선각자
벌라
##테라스
##너티브
말라죽
어루만져
얼터너티브
dr
은나라
사정관
관념론
##AND
TCG
남상
팬데
분수대
최재성
걸랑
삼킬
싸리
타조
##파티
##카가
우연찮
역발상
샘솟
숟갈
쉬움
이샤
죽전
넘어와서
부대끼
치마폭
돌연사
거이
무개
양아버지
제삼
후시
대소변
mathcal
탱자탱자
마동석
뒷이야기
빠트린
세욧
으먼
절도죄
목매달
모다
민진
분진
웃통
켕기
파르르
##전결
나올라
사령탑
서북쪽
Tri
동편
##ITA
##go
마르코스
아오바
카스티야
본청
야가미
일청
도학
로터리
은의
캐도
핀트
하성
모른다며
카나메
갑과
##인력
##캠프
도조
놓여진
KTF
쥐어뜯
쫒겨난
TNT
틈바구니
표피
마리안
똥배
야반도
에두
천궁
축이
한석
야반도주
SOS
강일
났으며
본적
솜털
식솔
천변
축일
직할시
이나바
HR
되레
비녀
소켓
쇼펜하
추력
개혁자
시킬려는
##ations
쇼펜하우어
물수
빈집
빗나갔
엘비스
불러대
아오야마
ALL
MX
덮밥
반투
피떡
먹여라
수년전
Show
도그마
두피
물총
기사회
초봉
해간다
여인숙
밑창
엘다
재투자
##완전
창조력
붙여라
디스토
낮춰라
동교동
무던
소승
심방
징그러
##통첩
##농장
인과관계
PDA
돌이키
개재
긴토
설래
신맛
조회장
행동주의
돼지발
매몰차
데어
성묘
점술
진정서
헤이그
검객
뉴잉
닦달
머플러
순창
칼레
흑수
전극
##가르트
##저찌
어찌저찌
어중이
마티스
산스크
악과
인갑
잘릴
토플
##메데스
공동묘지
최후통첩
제네레이션
산스크리트
명아
센다
아워
##글랜드
##버른
수도꼭지
고라니
관현악
개굴
고미
사량
안국
횡보
시스코
건너다보
양명학
맹이
반혁명
삼신
황은
토착민
아도르노
아사미
공군기지
팔레트
깍두기
역구
주총
##밀리아
갸웃거리
안드레아스
양천구
교할
넓혔
관리사
금형
##해지
도농
로터스
매관
슈우
합중국
달려라
조반니
승조원
IL
철장
일반미
두려운가
홍명보
경서
김철수
모락
펴내
##화산
어이없이
계원
서간
화날
##지상
아마테라스
케이스케
EXO
Nor
OT
로슈
시답
종현
초속
키카
포물
한은
유별난
습네다
레이코
##ars
어벤저스
더우기
전성시대
방용훈
실없
필러
레기네
둘러서
크리스털
##테리나
건망
만월
좌도
대장인
유영하
Soc
답시고
양위
카림
아랫집
Park
이류
##다를
예예예
칠푼이
그믐
들불
자운
핀치
한다냐
기능사
행정명령
사유리
으셨던
멸공
번작
살기
질문지
시달려야
Art
세훈
죽순
최홍
풍랑
##리크
종교계
SI
돼라
셀룰
앙식
타카오
쓰러져서
이자벨
중도파
가르쳐라
스탠포드
야인시대
로버츠
깝떨
브금
짤짤
쿠토
훔볼트
대사헌
끌어가
주물럭
궁의
서편
앰버
왜관
##전기
차디찬
Cre
러면
##전지
기아스
모비스
삐끗
에토
조댕이
따라한
스낵
##누마
##튀김
온다는데
신심
보관함
##erson
사가라
IA
##마비
어울린다고
달음
쉐프
제니스
하양
화영
힐난
부산진
스러워졌
동문회
반신반의
투과
놀아났
성훈
##야르
결과지
달성군
야구팀
결벽
난중
매한
유제품
드라구요
투기자
##oph
자경단
총영사
오승환
물티
수온
쓸어내
클루
##PER
김지하
싸고도
효험
##깽이
허드렛
뉴잉글랜드
삼남
슈뢰
야도
현조
##문덕
##ese
라이프니츠
양주시
남국
동귀
땀시
사금
필력
방향키
이주자
자이로
매한가지
가군
삼엄
주란
지혈
크툴루
##OA
일시불
걷어찼
누라
맹종
윤태
훈족
베누
선급
할례
헤이즈
홉킨스
경찰력
은행가
Project
상진
절명
차였
##gg
##ple
수입업자
을지문덕
아껴야
야만족
강릉시
무거워서
체납자
불살라
Pop
다달
상존
에에
혈마
##대리
##ute
측은지심
양준혁
sy
펀트
유키오
대천사
라브
박과
크메르
허씨
꾸렸
달려야
오현
왔잖아
용구
지은이
간부급
놀아날
cr
삼별초
애너
주왕
흑산
##잣거리
아이카
라이저
불러들인
프레야
불가역
꾸며진
##ours
걸쳤
연분
저잣거리
##쿠사
##겆이
지원병
미운털
바사라
늦가을
서곡
##에타
##대간
suv
교계
달군
달랠
조였
척후
##키치
##제트
안정환
아키하
서기장
백두대간
시끄러울
레게
설겆이
중류
##유희
흘러넘
한과
때려눕
갈이
마흐
만을
흐미
흘려야
마사히로
끌어들여서
바베큐
Boy
국무원
속할
자속
정물
준단다
콩알
포차
##정기
야마시타
스토아
빛난다
후니
##inumber
이미경
위한답시고
풍수지리
PTS
예레
휴머
##아라
기어나왔
독후
보원
원경
창세
추노
퍼마시
현준
지랄같
동북부
꼬매
영롱
월맹
사회민주당
심해진다
똥걸레
회이
##리카와
성악가
UHD
데메
쫒기
한나절
자폐증
추축국
APC
라두
매시
밝아졌
부트
장준하
디스트로
손석
카이지
페트로
발상지
덴트
석호
숨겨서
주무세요
강준만
오원춘
##풍기
싸이클
올라간다는
다자간
퓨처스
고신
독스
막자
중군
박지훈
소이까
가른
드레이
스틸러스
멜라니
선무당
구혼
사향
이착륙
지련
한뜻
##고백
현대전
줄어야
노려서
울렁
##계리
플로어
시뮬레이터
살맛나
우트
신앙고백
잡아냈
브랜든
대경
더구먼
안네
행정자치
마르스
꼿꼿이
행정자치부
거친다
녹봉
벼농사
별말
앙가
족구
차야
츠지
항속
거쳐가
가려움
풍모
사이킥
나갈지
광역버스
귀염
리디아
미뤘
벤다
슈베르트
탈로
퍼내
들러서
비소
우긴
젖먹이
무성의
몽고메리
정근우
BF
LE
제놈
주후
하현
촘촘히
인만
주살
크랩
##뜨려서
올라간다고
pop
거목
대곡
멜버른
열녀
휴고
제작소
다이고
들여가
구석진
가져와라
조인성
조의금
Best
까정
송경
언질
한마음
##도바
##와라노
쓰러뜨린다
이주한
후지와라노
부둥켜안
가태
마황
수초
윤소
의보
잔느
사진기
덴마
메웠
차녀
폐사
##보증
이상자
이겨라
##agon
굴기
잔악
이겨냈
유키코
둡니다
지혁
##zy
자연수
불사신
주원인
칼데아
굿바이
꾸려서
센토
##bl
##천가
아리마
부른다는
줄어든다는
미숙아
FE
FP
기역
매단
의태
쿠지
향긋
Yes
무극
사티
##sy
##상관
가르쳐서
이주하
요시코
따른다면
레퀴엠
다과
야옹
진력
자장가
대졸자
영호남
아흔
자질구레
PPL
디스트로이어
반봉
심금
얼싸
엎질러
자살행위
부작위
에디트
그물망
꽃집
난거지
으아
해댄다
최고령
##iri
지워야
지독히
메꿀
산드라
##게이션
##중앙
따라지
테크니컬
##unn
내비게이션
본떠
분동
요의
고처
라게
음담
홀려
흩뿌
##반찬
베이시스트
아스널
분수령
Eng
간구
유소
##시카
##oly
원주시
부려도
구렁이
불인
이숙
졸랐
##령부
포르테
담원
북녘
아렌
양털
티티
모아놨
Fri
강론
부니
지카
형언
##춧돌
필요악
경기관총
부정의
비상구
친해질
이노베이션
범접
푸들
호객
수입국
하이튼
구세력
깔깔깔
이희진
들인다
불완전
오천
주은
축협
터닝
훤칠
##ape
낙제점
하후돈
감호
그담
매설
무익
쑥스
여성상
영산강
메릴랜드
교유
화덕
##레로
자작나무
건륭제
믿겨
심수
앞니
핏자국
##여래
##절제
우치다
스친
운서
주춧돌
애국주의
보낼려고
보증서
흐리멍
출루율
교구장
피서
당께요
물망
분뇨
크릭
올라선
강제노동
천정배
완강히
Vo
윗동네
커드
팝송
세비야
헷갈린다
군악
거리낌없이
파피루스
미생
서강
캐묻
국민운동
야마가타
평안남도
너야
알록
얀다
태가
##탓이
##울프
아름다울
금남
뜻있
아캄
인왕
행함
올랐으나
모리슨
불사르
충무로
윤활유
높낮
##시우스
여행길
다닐까
##거래소
첫날밤
돌아다녀도
액면가
난교
빚어낸
워리
이응
알려져서
내리쬐
여신상
기장군
의용군
겹쳤
학보
일본원숭이
고놈
백모
일랑
죄면
죄상
토프
톱스타
##ady
에헤
촉감
##범근
제일주의
모닝구
내다볼
잎새
졸도
질텐데
플래너
제갈공명
압구정동
빗소리
코너킥
섬유질
Wi
능지
열배
용변
음표
##갈나무
방화범
바꿉시다
난조
품계
호걸
##사채
저러쿵
공리주의
산시
쌉소리
완행
파즈
희진
전환사채
soc
로되
머구
스패
연과
하이든
애니플러스
견뎌낼
피어싱
촌철살인
Sim
so
위당
팜플
##드래곤
된다구
스타터
다이쇼
망가진다
Imf
op
백낙
산상
순양
시걸
피티
필멸
##엔스
지켜봅시다
두려워한
도우러
배스
신불
카포
미친다고
게이샤
덕수궁
당치
칠정
할래요
스코어링
그을린
인수인계
완투
와이즈
중형차
Inf
절도범
힘겨워
성만찬
다뉴
만삭
치레
오리엔트
감칠
대총
물동
베자
엥간히
예결
재혁
인지요
당했으니
늘어뜨리
급식소
몰아붙였
뒤적
북문
성함
황영
##바들
지켜왔
Class
부푼
쌍두
정본
매디슨
나혜석
Just
마세
양광
어뜨
후쿠자와
서초역
꿈꾼다
아나톨리아
공진
내달리
논자
맞부
조숙
퇴비
스페이드
에볼루션
검둥이
멸실
작대기
촌동
##RC
청원서
등신짓
허드렛일
dh
대과
히지
##짐작
##망덕
대리모
##icle
GL
신이
에타
##맥주
고민거리
바른길
뭐시
요걸
안타까워서
메모리얼
지크프리트
에버튼
헤밍웨이
합사
##상트
따라다녔
확실시
베프
상소문
좀체
올라앉
생산비
문무왕
배은망덕
성준
손승
여불위
찮아
청해진
최익현
라칸
매콤
인분
홍당
판매처
에스텔
저장고
마르크스주의자
마일즈
체온계
노이만
스케치북
ceo
KRnumber
다거
로커
페트라
좌우간
반가웠
수니파
진일보
턱걸이
##UE
눈치껏
이뤄냈
Leg
켄터키
문동
삼매
우겨서
울버린
##ness
고마워하
중파
##당파
발표문
통일전
싫어합니다
된대
로션
쇼지
중미
주의깊
이겨도
끓인다
로엔
반구
상파
성삼
##토니
요시카
beat
관현악단
격해
신안군
장희빈
매인
##위태
평등주의
패스트볼
김희선
탄자니아
굽이
##루크
##나래
다면은
플로라
위태위태
말발굽
갱심
교국
재도
패혈증
아녀자
크라켄
양학
##증명
막하
빨빨
서얼
파프
##리아누스
겹쳐지
크롬웰
갈게요
두상
품사
##과세
##북면
틀려먹
마두로
떠먹여
거무
골밑
긁적
따진다
문왕
종치
캐넌
##에서
방역망
간호원
도요다
최서원
고순
화딱지
##변수
살판났
금천구
카디널스
덜한
맛깔
살신
평단
비수기
칠드런
마거릿
살신성인
와드
외근
의령
퍽퍽
페페
재배치
미끄럼
내동댕이
길리
드리스
불연
악은
양편
옮겨져
곁들인
내질렀
박신
질곡
##벌나
아틀리에
뛰놀
세작
허벌나
호반
대행업
새우깡
산전수전
남포
도천
로터
미파
사란
요염
하윤
이리야
가져와야
DL
결번
들꽃
롭스
맨션
흔했
##팔자
##메탈
키케로
리토
삼단
시터
##두부
저녁밥
신사업
쿠사나기
견실
뽑아들
순장
우금
으리란
양산시
보컬로이드
디바인
서남쪽
근동
셋쇼
출렁이
콩팥
쿠보
타바
객관성
mathbb
셋쇼마루
Kim
RAM
서전
##결사
데상트
어천
칼바람
##스타일
열람실
내상
밀랍
우박
라서요
노사정
구아
급해서
소보
양만
핏기
##누엘
##port
비닐봉투
개상
불호
원양
팩터
##기간
관련지
집단군
비밀결사
일어난다면
카메라맨
일그러지
누누히
못쓴다
Jo
수설
순풍
왕십리
조해
혹해서
##셔스
배틀로얄
동민
씨종자
왁스
철칙
##토막
성모병원
갑각
##학습
제발로
따져야지
류탄
만개
요통
파월
화진
참수형
펜타곤
경문
내향
더하
일라이
총풍
특대
##비틀
##반사
공부방
맡겨진
훔쳐간
루시우
검문소
승하차
꾸린
우석
피바다
지하자원
MAC
아산시
not
가칭
껌뻑
목발
삼라
알자
아라고
잡혀갈
아드리아
디노
상업주의
원만히
기집애
구워서
기러
쳐봐라
박성준
단발머리
대관령
내무반
자칼
코펜하
한집
허난
갈라져서
반발심
코펜하겐
노시
인시
자투리
차라
후쿠다
옥타비아
BW
고갱
본도
스구
넘쳐났
인쇄소
픽처스
hy
교촌
석대
요서
망쳐놨
솔러
알론
윤아
채연
한별
##my
김기식
조련사
맏형
바케
뱅뱅
지야
numberml
크루저
김상수
SHOW
고엽
떼지
생시
히잡
힐데
이제사
공산군
Dog
너울
스란
신후
중범
그럴려고
비스킷
사나에
파나소닉
새미
은발
박범계
서다
토달
하회
확실이
문회
##line
##통감
욕심쟁이
살핀다
수국
엉겁
우원
파킨슨
##모직
마츠리
중압감
기프트
뇌진
##락스
제일모직
리교
머잖아
복기
운집
포포
불렀으며
곁들이
유닉스
인현
쿠타
##런치
##비어천가
걸렀
성제
취학
고도성장
##그래피
그려야
다래
샀으면
주엘
##타스
##넨탈
밥숟가락
계륵
둔한
맞고
주대
튼실
##어티
##양명
닥쳐올
기풍
양시
일리스
조직법
투덜거렸
초고층
내가
망쳐서
요나라
이음
##전대
쏟아진
자구책
본고장
NXT
고덕
교본
번외
손맛
쌍것
운기
주청
##만식
##민관
올림포스
포이즌
rnumber
명한다
빼주
키스트
못했으니
깔끔히
미야기
가이드북
블리치
##III
수안
이주해
부녀회
오선
오창
##허리
보험업
아닐세
복사기
을사조약
뉘우침
끓여서
밧데리
살모사
이단자
커질수록
각호
굳힌
떨칠
온과
조쉬
##대실
##삭빠
맞혀
뻐기
솔방울
주박
##erm
Lit
기쁠
앞다리
종수
중주
키도
##row
높여라
무용담
변한다는
월간지
거병
다항
소향
운동사
파트타임
민병두
그로스
김환
소탐
픽스
험상
환시
흐루
뒤척이
소탐대실
견딘
구양
동파
벽장
빚잔치
실학자
해럴드
잡아당겨
##사이어티
해독제
플루트
부카
이티
피멍
에스퍼
즐거울
스크림
노르만
마룻바닥
맞부딪
웃도
##짱이
뿌리내
덮어쓰
고물상
건망증
담궈
레크
코랄
천지일보
후려쳤
마틸다
JK
말러
민형사
서수
##oun
토리코
물티슈
아두
연적
풋풋
홍인
바들바들
Bu
병인
소귀
유조선
종구
진원
몰아갈
고연
동나
투족
현악
##둬야
그레고
에르난
스쳐도
엉겁결
la
군웅
님비
셔라
여한
올게
특설
마천루
태일
파서
주의력
신동아
##iki
산송장
로랑
욱일
##con
##탄회
아이샤
퍼블릭
패럴림픽
라믄
명관
소사이어티
야르
약삭빠
오모
은비
##렉터
##행성
한복판
컨버전
허심탄회
부등
짜임새
어서다
모셔다
금권
꿈꿀
복근
성육신
슈바
아령
야포
원찬
형식주의
자치주
##선거구
신무
영내
판매고
레기나
달려간
소수점
걸러라
등산객
미카도
누추
벗긴
성싶
쥐똥
책가방
호밍
두려워한다
뒤집어씌
실링
잠가
태을
비즈니스맨
이지영
곡간
땅땅
##중이
어떠세요
가림막
놈의
다미
무순
정소
이리나
##ision
##스토크
보들레
외질
편취
##살랑
한계선
아기자기
살랑살랑
사피엔스
신성모독
넘쳐흐르
보들레르
꽃병
누누이
땅거미
목젖
수희
장명
아시카가
아플까
파노라마
높낮이
기급
빌라도
수륙
충선
우르스
아말
제설
차징
##웨인
헤일로
수몰
용비어천가
칠면조
체험학습
불신임
살포시
숯불
포틀랜드
##부정
계기판
인내력
초록빛
아드리안
성간
죄고
팝픈
팬다
편서
합천
주인장
목적의식
팝픈뮤직
뒷마당
유홍
하미
##갚음
정여립
걸쭉
비활성
설친
##ative
중산층
별미
최애
돌려준
반가움
저금통
특출나
뒤짚
##상어
경마장
는다든지
홀더
트레이딩
극빈층
고보
넥스
소담
의한다
일판
참봉
평촌
현악기
##깍지
달아오른
각질
메즈
칸국
##머드
##맥진
사마소
임진강
인즉슨
이구동성
##스테론
기진맥진
나견
리소스
비망
택해야
흥겨운
##더스트
##피린
아서스
혼란기
우스개
냉이
준전시
지섭
##사이클
딸애
병변
비울
산고
조국인
아웃도어
폴란드인
세세히
스냅드래곤
냠냠
돼버린
모내
##데자
회견장
오를까
요율
조국기
어드밴티지
결행
레츠
박달
왈칵
어깨동무
어두워서
기뻐한다
조리사
수제자
관방
내탓이
레브
잘근
콤팩트
유리문
강희제
화생방
만보
모도
사열
아젠
정함
죽어난다
촉탁
테무
할레
버텨서
클라우스
영세자
맑스주의
시라이시
놓인다
디안
오촌
##iness
루이지애나
납골당
원임
충심
해난
##지붕
##MI
니까는
인사이동
저항권
디온
원빈
이파
직이
수상기
자극제
개략
검신
대납
맹견
메노
반창
방새
얘깁니다
##지스터
잡아갔
브로치
짤라서
PTSD
##데자네이
라보
방일
밴댕이
상좌
신들린
청법
취역
퀴리
방조죄
겸용
산인
심형
템페스트
안전교육
그런지는
대빵
치자
홍기
##산맥
는다니까
이주노
트랜지스터
추도식
만병통치약
##무나
##망측
쫓아낸
데우
배다른
용무
일렁이
청조
충년
데프콘
옭아
##ros
##달록
개혁파
어린데
에이프
룩스
뮤추얼
앵그리
황민
##국밥
##날쭉
의무병
콘스탄틴
엿보인다
알록달록
Mbc
민서
수혁
엇박자
족적
플릿
##유수
##능란
응집력
다뉴브
간추
도카이도
##민스터
##att
정해진다
마취제
컴파일
들쭉날쭉
Rem
비릿
기승전결
입안자
능수능란
로하
목마른
승현
외운
##ao
그랬으니
총기류
소스케
양현종
대쪽
루치아
에이트
자왈
져버렸
해초
더그
신립
아덴
이능
자웅
##츠미
붙들려
산림청
고꾸라
중층
##ience
##룻배
갈아주
길림
반파
백금
비계
승호
신묘
제츠
##쏘기
직속상관
신태용
제삼자
본죄
오손
몰래카메라
나원참
새천년민주당
개동
보탰
심법
대우건설
맥시멈
물심
미웠
오하이
장해
할듯
##암사
브람스
오하이오
남태평양
바톤
헥터
이블
활쏘기
내려질
볼품없
교각
뇌관
데타
타루
##베이어
해적선
Song
아어
자색
그리울
선발대
안드레이
First
가버리
라빈
레테
선순위
황조
##완다
통행금지
파스텔
숲길
이각
획정
흑심
##케스
스테미
시골집
임신부
휘둘려서
경악스럽
내거
담갔
부으
온두
온두라스
마젤
배배
삼자
촌스러운
Game
키엘
##드리아
하남시
개스
군더
니더
조져서
키위
##토마
##토닌
케이타
히로히토
터키인
염상섭
단안
라엘
루브르
십사
올라갑니다
음악인
아리엘
제노바
Ber
거드
진숙
챠오
##백서
지켜낼
트리고
수줍음
신숙주
비긴
음영
##달프
당해낼
에스테
부딪칠
토해냈
토모야
단시
이즘
##wnumber
##른베르크
룰루랄라
비올라
##로메
사이타마
헤쳐나갈
연두색
눌린
던컨
모트
세만
완파
찢어졌
희원
고발장
아니한가
테오도
Bus
te
열림
폭투
핫라인
##하네
교역자
브라운관
Sky
부총장
붙박이
역무원
허기사
연결망
##ited
스캐너
듭니까
설로
쏠린다
월가
읊조리
항법
시뻘겋
군역
폐질
##LD
형태소
MAD
장민호
매회
성좌
쓸려면
온양
일평생
##모호
규정짓
바뀐지
조문객
코우타
뉘른베르크
도립
비당
손봐
안현
줬으나
총점
##미온
날아올랐
관세청
창간호
르완다
졸린
차범근
커닝
인간학
레이튼
격전지
루벤
잠궈
실존주의
컨버터
마다가스카르
답지
아크로
크리스트
들여와서
아키토
볼멘
적그리스
흐음
##리어스
전용도로
숙박업소
맞바꾸
적그리스도
여흥
포세
한혜진
##피언
제국주의자
게시리
플랑드르
심박수
개살구
Aut
lpg
교칙
단성
빅리그
야미
원미
##종이
현대건설
특별상
인류사
손사
유석
##이오
##노르
ICT
남우
웰컴
##생이
부보
신일
진박
##피일
카이바
어두워졌
스쿠터
부페
스털
카봇
호타루
선봉대
페트병
Master
계림
금박
띄운다
피운다
흉폭
##임당
##창조
아우렐
군수품
HOT
무튼
짱박
##보스토크
사라진다는
만기일
느닷없
블라디보스토크
머릴
미조
아바이
진양
##KE
##사직
##유업
아야코
마구간
애매모호
맹독충
뒤치닥거리
차일피일
난치병
리저
필리아
##천금
사업단
문학예술
일정액
걸려온
스테파
부양가족
딸자식
묘호
보양
##순이
##특급
분화구
정족수
누기
릅니다
묘목
##설주
들어찬
지켜냈
제리코
안상수
알폰소
Mer
WBC
소복
##정역
##평천하
장악력
몰아간
빨간불
시즈쿠
개런
멸문
페일
신사임당
벼슬길
급식비
베짱이
주급
큐리
틸리히
##평리
실패자
에릭슨
치국평천하
YOU
댄디
동거리
십이지
재경기
잇따르
백양
이뇨
진저
##립니까
프로스
일반직
피부염
아랑곳없이
대는
번이
성아
승준
포리
홍지
##티우스
사부로
기별
뿌요
애드립
양장
윤건
입산
자말
##어처
##월동
먹여살릴
잔학
탄다는
##슬레
미치코
키워야지
사라진지
앉혀놨
밥상머리
끽해야
윤간
토구
토레스
피네
데려간다
##itt
뛰어올랐
도심지
체인지업
뼈아프
빈둥거리
송진우
싱그
후끈
재력가
리우데자네이
System
리우데자네이루
겉치레
시냅
##결핵
된다거나
전자팔찌
이소룡
짤짤이
UD
래니
짐바
차내
파하
팔달
##포이
배운다는
심술궂
식혀
북어
음습
분리주의
무력시위
필로폰
길다란
나운
##기도
차관보
팜플렛
가나가와
광서
뱃사람
사쓰
지여
초특급
클로스
흘끗
##주제
가르드
가해진
##its
심심풀이
SSD
데꿀
테세우스
##레앙
고속철도
에이전시
party
윤도현
데꿀멍
달겨
도부
음독
절여
통일로
인천항
내보낸다
numberKm
세면대
Ep
답했
습작
허도
황동
##어물
김기덕
외골수
KOR
권기
발이
후들
물리쳐
차렸으면
빈민층
가냘픈
포물선
멀정
수민
씨제이
예복
월래
채영
첩첩
##은경
##eng
브레멘
안시성
노포
옆쪽
월아
전화선
들어서야
무효표
지표면
맥이
언감
장난삼
마스터스
페르시
쓸모있
된장찌개
곤도
노새
머슬
미요
부곡
유몽
항렬
##랬다
특징지
구리시
##els
휘몰아치
colsp
시냅스
Ord
QA
암캐
쿡쿡
##ature
다독여
갈음
낙이
누린다
설욕
나갈려고
남양유업
너른
도경
마안
매맞
머글
뻔질나
슐라이
억센
##까말
아라곤
USS
분비물
신명기
Soul
언감생심
##창민
헌법재판
파이크
용대
정권욕
이사건
살펴서
전원책
GNP
부인과
공식전
무너져야
등록제
대장부
일어날까
웨스트민스터
렉터
샌즈
역법
정창
총포
페론
바라봐
김정우
환상향
거듭날
전광석
경유지
경매장
임차권
도미니크
일확천금
버진
아옹
##com
##라과
##여성
김재환
저승길
최규하
불법성
사물함
웃긴데
제사상
애꾸눈
경춘
고득점
굳세
받쳤
족쳐
틀어진
항주
##투성이
##론데
##티드
##팔계
##enter
가드너
중장거리
What
삐걱거리
CON
good
렬아
아스트라
저온
총지휘
##대주의
##짓기
다운타운
혼합물
##irect
장영실
물권
으슥
팍스
피망
허블
회복세
어울려서
이영학
가와사키
포인터
데쓰
몽유
박노
장건
투기지역
고했
도윤
잡곡
황지
##서기
##KO
##레지
들이댔
간호학
대주자
부재중
강둑
신보라
토아
티온
##닷컴
##평동
세계선
들이쉬
도서실
나아간
나을지도
슈즈
##베로스
강화군
뒤집혀서
상점가
우렁찬
gg
광도
가르마
동력원
사치코
나자빠지
끼끼
빈국
앙갚음
와시
##UD
##안일
##워커
일부다
되돌아갈
시가전
인어공주
불모지
루빈
릅꿇
무무
오토메
전지훈련
프로파일러
부적격자
가시밭길
강장
기파
허옇
레이더스
수용성
저술가
관자놀이
닫혔
여영
재청
쿠루미
모모코
마태복음
결자해지
백구
베어내
조울
대기업
허가증
요금소
신도림
##구치소
처박혀서
기사회생
gl
궤양
밤나무
자책감
치였
colspannumber
심원
엘튼
##핑크
내린다는
군자금
에인절스
업혀
##루트
다녀야지
자양분
카타리나
물컵
벽보
보들
포사
##달콩
동북쪽
부덕
알콩
절대주의
이이첨
SDI
알콩달콩
고육
타이슨
애니멀
김상곤
Spec
쪽방
혜미
꾸며서
와사비
도종
채근
##루이스
이동과
간첩죄
쥐구멍
양치질
pk
날름
받칠
위전
저팔계
포문
카미조
기속
염세
으마
일후
자주색
영업장
완벽주의
사귐
##생전
인민복
다소간
수문장
사이퍼즈
강영
겐가
그로기
더울
술부
양부모
##콘드리아
차단기
오스트리
군산시
박태원
니카라과
김오
앵앵
일한
타트
화마
##꾸벅
연구생
CRM
기현상
굽실거리
경운기
구중
##법석
사무치
원통형
미토콘드리아
옴니버스
동제
박나래
연선
##락내리
빈틈없
짜여져
꾸벅꾸벅
김훈
뻑뻑
채이
##함지
오르락내리
암시장
오르락내리락
보카
철망
미니어처
꿈틀대
전속력
개세
퍼팅
품행
##건데
거슬렸
쉬우며
고깃국
EE
기심
로베르트
밥집
용천
잔칫
치진
트랭크
프로야구
위임장
##메이슨
LCS
마유미
DOS
데코
동병
드세
발한
윤형
##직입
이주열
로워야
고한
중히
피래미
향내
호색
단도직입
뜨개
멜로
멸칭
현성
현암
힐다
들려온
언로
컷인
투창
나눠져
이승현
먹여살려
페르디난트
뱃머리
솔까말
치상
불로불사
계측
다뇨
죄과
지나쳐서
서로마
코드네임
봉건제
RX
br
결근
난초
배시
벌려서
##닫이
철학사
자아도취
아지랑이
상벌
심려
정욕
쭈글
척탄
키루스
머스탱
Bad
LV
감감
걸으
금값
난시
냇가
리피
면한
명약
지관
헬름
여성향
Stud
비닐하우스
산등성이
UCC
고른다
디야
맥크리
문로
아약
양놈
편집인
에미야
동차
쇼킹
보건부
깝죽대
포시
##벌판
##패설
기내식
천교
할끼
이기자
윤리관
빨개지
에리히
사림파
산비탈
르망
봐준다
##요한
이해충돌
나가토
정중앙
히타치
놈팽이
코나
##PR
독립신문
풀어헤
디멘
빼낸
조랑
킬라
패튼
##노당
관찰력
잡아낼
all
혼비백산
가교
당숙
래냐
습속
죠타
춰라
무사안일
##나이더
나잇값
가고시마
디멘션
만과
세삼
이용규
##연구소
다친다
둔탁
목례
민노당
배석
예대
떨어트린
자금난
블로우
쌍꺼풀
영단
이좌
쓰레기봉투
진료실
스카이워커
##체육회
반봉건
불스
치대
##카라
자산관리
규리
는답니다
물신
빗이
앙천
원우
##분리
대한체육회
특수전
경보기
모우
우신
##타페
사람대접
속도전
인쇄술
구포
쪽파
대장경
사라져도
은수미
씩씩거리
소천
##무구
동물학
협박죄
발병률
일인자
권문
썼으니
부정확
고장났
매너리즘
들소
선문
호건
히로키
김성일
쳐들어와서
노카
약대
##호부
##pe
법조문
보컬리스트
로워질
오카모토
흘러내린
MiG
간증
대흥
신난다
파계
해로
##궤도
ag
덧셈
메다
포프
알렉세이
성수대교
부르고뉴
맞고소
돋아
쇼고
포방
피소
##혜련
정통파
장지연
하후연
난수
제과점
인간상
공동생활
최저치
지성사
스티븐스
발신자
동오
메들리
법익
##멜로
져야할
김성재
거버
더딘
동혁
용마
트레이더
가부키
BBK
공위
새치기
종년
짜른
라이오
At
사네
안자
현경
올림푸스
걸려든
레거시
교생
구설
화양
밝혔으며
챙긴다고
건우
학산
##면적
돌아봐
돌아선다
밀리미터
미스틱
약어
인동
파상
활황
##매직
자부담
선제후
요한복음
솟아올랐
Cal
Way
대광
롤스로
##군주제
마이니치
남북조
##iro
야단법석
중성화
했다잖아
적십자사
롤스로이스
cnn
노병
부린다고
술회
참변
##손님
사대주의자
홍상수
삼송
상석
상암
신일본
은덕
파프리카
페르세우스
카나타
케케묵
AW
별똥
조인트
이종범
용산역
잇단
잦아지
불만족
촉진자
중합
##bm
##클로스
건너왔
키운다는
하야미
억수로
농법
리신
봉분
신타로
찌끄
후행
시기심
오염원
XB
도프
방상
수종
열역학
##겸사
승차감
수목드라마
되살아난
왕수인
까까
발했
일호
호자
법무관
이승우
물어요
아이비리그
동역
에센
혈색
##신경
##플릿
그리피스
투표수
샤워실
팔아넘긴
겸사겸사
국대
산조
약용
조크
##통곡
##넬라
구한다는
말대꾸
나르시시즘
Mnet
매끼
보담
축의금
해왕
##ND
꾸며낸
궁하
마적
목함지
비도
예니
트여
##에다
어떤지는
실효성
황석영
스털링
목함지뢰
꺼렸
원각
당했었
##oul
흑석동
양의지
정릉
##권총
두루마기
고타
관부
말구
모디
보지
수압
원분
위직
##갈리
자취방
고화질
Rad
쌍권총
정단
터틀
매관매직
Sound
강공
남명
놨나
미형
버클
션트
시든
패지
중심인물
내리꽂
부풀린
자책골
TSM
짓이겨
불릿
영차
지무
쿼크
##을때
과학부
그린란드
임창용
걸인
노하라
수열
후아
전달자
맨들
억새
나무숲
도박판
비슈누
됏다
보현
숨죽
팸플릿
허참
호빵
##PI
##QL
트레일
후지타
쿵쾅거리
pe
가판
김조
오태
음소
##예스
슬퍼했
자포자기
의왕시
남중국해
표몰
##살바도르
디스커버리
대척점
감칠맛
꼬일
난색
매집
정에
컨베이어
하릴
후세대
오지환
끌어당
리버티
희소식
뽑아낸
명덕
환어음
##버드
비해선
파이퍼
부딪친
별동대
수척
에페
태희
태교
운동부
글로리
케인스
낙관주의
가일
리임
자무
들어옵니다
도착증
수목원
매이
방카
정절
찹니다
합칠
훔칠
##고원
시켰어야
트레이스
임상시험
찌푸린
교위
바득
어만
영가
##투아네트
벚나무
살립시다
성은
썩히
텃세
##극장
계획표
식물원
작사가
카카시
은호
절경
통함
하란
##xx
##에너지
과학사
의견서
유머러스
기즈
넓힐
다릅니까
멤피스
용장
천혜
Great
반유대주의
전광석화
방긋
종노릇
항행
아닙니다만
##ret
요네
##백가
##덤핑
능이
사중
우장
증손자
지비
황구
##브웨
지라시
무생물
자간
##상인
산업재
제주시
강도질
영양학
회전율
냉동실
가뿐히
급류
바움
퓰리즘
개구쟁이
온데간
정공법
블링
셜리
연충
##자적
대전차포
숙면
장형
##LR
카스텔
비뇨
암반
육이오
웅성거리
개택
브리트
치근
후식
육탄전
섬진강
바득바득
반덤핑
범할
치일
칸타
혼백
##oom
##방스
오바이트
마찬가진데
목말라
밀턴
역작
쳐요
형형
레슬리
여비서
고준
야트
언정
업과
햄튼
##올로
##마쓰
안내견
이바라키
조울증
##관위
##상도
마리코
간여
따라온다
부서졌
강사료
스며드
농림부
내근
알긴
차역
채리
천군
토레
협심
##시칸
머리끄
사진관
독립영화
좌우지간
김건희
장렬히
극본
담화문
진담
멤버십
이탈리아인
텔레비
구종
로큰
배란
위산
이일
쳐냈
##민가
라이히
남녀공학
더블린
갈아탄
는기
요스케
쿠릴
플린
##ien
요리법
빗겨
약산
에브리
우인
헨더슨
화류
드리운
휴식기
나발불
휘말렸
주성분
뻘쭘
여쭙
호부
강해져서
힘드신
마카롱
깍지
무하마드
복부인
우영
정전기
##obal
대든
발붙이
찬드라
풀발
##르담
세계무역
예방법
김태형
진열대
Cap
가린다고
난금
명신
와봐
위클리
유인물
##부심
교통정리
공공요금
아름다움의
땡땡이
DI
bmw
벌크
소윤
신출
은경
인드라
재키
희로
##SS
##팅기
야구팬
볼로냐
Del
끓일
놓일
붉어지
알랭
탄지
numberU
엎드렸
독후감
개겨
궤짝
멀찌감치
반색
빌레
예편
코그
##백화점
스타더스트
영양사
지아비
극화
소야
##그렁
##페터
##쿠리
옮겨진
벗겨져
내의
내참
노트르담
테크놀러지
충렬왕
영결식
묵혀
재잘
전나무
휴재
##공세
영웅시
개그우먼
원구
죠지
촌극
카발
파훼
##무대
부용
##동작
바라봐야
패배주의
브룩스
새것
선함
탄복
호퍼
가려운
연료전지
무정부주의
장윤정
강병규
가레
기철
라일라
왕기
##룽지
라이카
가로챈
오키타
강고
유세이
천직
총공세
화차
##소서
아이치
천태산
탁아소
주근깨
로도스
록히드
매머드
무릉
사통
탑승객
아버진
매그너스
릴케
윤여
킬리
##매니아
##any
여겨집니다
이즈모
을려다
개장수
DDR
전명규
무오
수율
가해졌
자위행위
김지태
American
Med
선혈
저대로
카미야
##현주
이정훈
잔치국수
대성통곡
아웅산
검체
기탄
꽃무늬
달동네
맹약
미덥
##org
에이치
아스피린
복제품
무비판
부평구
구우
꼬챙이
월나라
이운
점입
쯔쯧
칭칭
내편은
놀려먹
무스메
세실리아
최희
칸자키
김태희
다급히
유유자적
돌때
호분
반대론
김대엽
몰려올
##oud
모멘트
방재
슈츠
오거리
전율
지펴
힘쓴
##무덤
예술단
보낼까
풀려날
리암
여광
여탕
외경
칼잡이
넘어올
철도청
원자탄
해양경찰
바티스타
멋들
유속
이세이
김경록
Net
내눈
변의
분임
아여
조퇴
지누
지압
##BT
##던스
부러질
로망스
모입시다
짬짬
편든
##orld
스코트
버거킹
가등기
나단
납기
자비심
네이처
Sports
인혁
입니다요
에이핑크
가까워진
파랑새
로큰롤
대루
똥폼
쬐금
홍일
##시네
##모닉
화장대
컷오프
호정
##바오
면서도
통한다는
미니맵
클레멘스
Hard
근시
비제이
파밀리아
##부전
고성능
삼창
스산
집전
##데스크
신성불가
노년기
틈새시장
핸들링
짐바브웨
신성불가침
남김
범퇴
연모
호차
불기둥
변별력
박석민
덴데
려무나
생부
슈바이
청할
칭얼
파종
혀야
##섭니다
자격정지
소매업
정찰병
##Onumber
헤드라이트
공업화
레전더리
아약스
김민석
내망
디미
마윈
무브
얄짤
우비
인망
중건
대승불교
얄짤없
네브
슈나이더
탐문
파오
##여도
돌아봤
가졌었
노스캐롤라이나
거너
빈자
잔말
##토리코
끌려온
췌장암
견도
마츄어
민구
삼한
섬길
풍화
로마법
아궁이
윤원형
뜨려
명륜
장님
콜리
##화나
##카쿠
군더더기
nom
긴자
석정
진용
찬탄
티슈
##mm
##일생
##시아키
조경태
러커
물집
야나
##이시
##케고르
문자열
크로마
제로인
횡령죄
김태원
에르메스
티라노사우루스
가저
상항
애끼
역수
이브라
정난
콜택시
콩깍지
##ino
멘스
앙주
영관
콘트라
달려든
더럽힌
아연실색
TWICE
급정
온조
유조
직녀
카운트다운
씌여
##정제
이중과세
IPTV
데려와야
Af
With
두지
밀라
커머스
이상한
조성주
유형문화재
국어과
지워졌
구사일생
안주인
보디빌
마라도나
달가
달밤
러진
비술
영준
주산
대형차
천연자원
공로자
VV
바스크
브린
중국차
이르케
유니언
터졌으면
나인데
##페리온
보부상
She
일찌
희영
리버럴
가후
뽀로로
스고
자스
탯은
털어
##화수소
##무식
##비크
자본력
하이엔드
로마서
칼리프
남잔데
갈겼
강다리
뚜기
이동성
체포영장
플라밍고
니케아
푸에르토리코
간녀
드릅
로와
세유
엄령
연준
자미
튀하
므니다
안두
지희
패니
요시키
개와
눈썰
면식
비티
세원
장송
조남
지진다
##Knumber
##세프
해준다고
밀교
성문화
소체
유타카
참깨
##설렁
작품집
케이코
빈정대
iP
비랑
슈투
알음
으까
혼절
##구조
##프스키
사이고
나올까봐
언어유희
해야겠지
신간회
아칸소
격조
##nder
블라드
대피소
최면술
god
라잉
래드
초야
토산
후지사
##eral
공대공
타케우치
건넨다
Tour
간들
브롤
사그리
슴니다
엎어져
페청산
##광선
##러가
꼽사리
떡대
보해
돌아다보
정의용
무기질
아르고
강해져
반짝였
평행선
STAR
Apple
디엔에이
des
꽁치
요아
포톤
아라타
풍경화
신주인수
신주인수권
눕혔
베랑
설도
이휘
저층
채만식
횡재
돌리네
JB
류승
본상
시누
찬장
화관
##ze
##수룩
건국훈장
Colle
망중
억세
호루
효정
##앵글
박영수
버젓히
이오니아
라모스
빈티지
제산
관해선
쫓아갔
벌거숭이
머스킷
설렁설렁
고룡
끼인
부어도
구해라
해리포터
배수량
조병옥
보국대
멀찍이
캐피털
삼라만상
수매
온거
윤두
콜렉션
##이네
##무적
##틸라
아야메
저질르
ESPN
불거져
야영지
데자뷰
편서풍
렇게
서무
여년
웨버
피클
사이사이
으신데
이영자
나부끼
KL
메탄
속사
레닌그라드
난데없
김화
마티아
불보
수협
신미
업원
장공
준이치
코쟁이
##케이트
어지럼
일으켜야
##방송공사
기혼자
하모니카
아젠다
FD
광운
궁둥이
너스레
리갈
벼루
성국
아르토
마쓰다이라
아멜리아
필하모닉
Oh
os
##분모
결정판
중서부
슈바이처
노팬티
단들
담기
바레인
살린다는
잡졸
촛대
##amb
왔어요
통운
히바
정치계
호스팅
Tech
단조로운
들이닥쳤
ROM
미샤
병호
석패
야가
##만사
##ump
서울구치소
기원후
공통분모
앙골라
장쩌
##광대
홀리데이
야고보
장쩌민
Miss
강승
덤프
병환
오슬로
입질
천유
티파니
##브리아
이동인
소유욕
미라쥬
사조직
카산드라
껌벅
치한
크세
따라나
갠데
대질
아모
주르륵
홍군
##채권
프리메이슨
준다면서
헬레네
말래
보경
사화
잠근
짤랐
##랑스
경제자유
소리나
이야깃거리
##aph
다른가요
담뱃불
장타율
경제자유구역
리플레이
승룡
정보망
류중
발장
앙투아네트
완두
주판
치즈루
소양인
모직
비레
아타리
##ama
바래다
원종건
모난
부촌
불어난
선혜
포우
홍도
힘쓸
나가노
미사토
저지대
삐뚤어져
조로아
디플레
Val
과히
발연기
순익
탁하
완전무
아케치
미식가
##동설한
경공업
바네사
복이
삿갓
식목
이괄
##은사
버크셔
다식
송준
원씨
인애
휘트
##효진
트라이앵글
권신
근평
풋내기
##하트
한자음
스크루
정대동
빈정거리
경동
궁사
니노
다모
안서
무지렁이
off
Ext
완전무결
부쉬
퀘이크
해면
뿌리박
자위권
영세민
으스스
들녘
브리오
브란트
윤진
음험
진남
천관
시달린다
으셨고
오가타
빼돌릴
동해선
깝치는
크래쉬
상화
우희
허탕
유흥주
외조부
XS
야타
엄동설한
##토크
##바치
##히데
망가져서
White
이로울
셀레스
야리
오래전
##ayer
##스카이
WCS
광이
스틴
퇴소
주도면
북극곰
각처
갈테
로킹
마튼
수없
식전
##티엄
스테린
잠재울
수필가
계사
방생
삼베
완연
종회
[...]
