{"version":"1.0","truncation":null,"padding":null,"added_tokens":[{"id":0,"special":true,"content":"<s>","single_word":false,"lstrip":false,"rstrip":false,"normalized":false},{"id":1,"special":true,"content":"<pad>","single_word":false,"lstrip":false,"rstrip":false,"normalized":false},{"id":2,"special":true,"content":"</s>","single_word":false,"lstrip":false,"rstrip":false,"normalized":false},{"id":3,"special":true,"content":"<unk>","single_word":false,"lstrip":false,"rstrip":false,"normalized":false},{"id":4,"special":true,"content":"<mask>","single_word":false,"lstrip":false,"rstrip":false,"normalized":false},{"id":5,"special":true,"content":"[UNK0]","single_word":false,"lstrip":false,"rstrip":false,"normalized":false},{"id":6,"special":true,"content":"[UNK1]","single_word":false,"lstrip":false,"rstrip":false,"normalized":false},{"id":7,"special":true,"content":"[UNK2]","single_word":false,"lstrip":false,"rstrip":false,"normalized":false},{"id":8,"special":true,"content":"[UNK3]","single_word":false,"lstrip":false,"rstrip":false,"normalized":false},{"id":9,"special":true,"content":"[UNK4]","single_word":false,"lstrip":false,"rstrip":false,"normalized":false},{"id":10,"special":true,"content":"[UNK5]","single_word":false,"lstrip":false,"rstrip":false,"normalized":false},{"id":11,"special":true,"content":"[UNK6]","single_word":false,"lstrip":false,"rstrip":false,"normalized":false},{"id":12,"special":true,"content":"[UNK7]","single_word":false,"lstrip":false,"rstrip":false,"normalized":false},{"id":13,"special":true,"content":"[UNK8]","single_word":false,"lstrip":false,"rstrip":false,"normalized":false},{"id":14,"special":true,"content":"[UNK9]","single_word":false,"lstrip":false,"rstrip":false,"normalized":false},{"id":15,"special":true,"content":"[unused0]","single_word":false,"lstrip":false,"rstrip":false,"normalized":false},{"id":16,"special":true,"content":"[unused1]","single_word":false,"lstrip":false,"rstrip":false,"normalized":false},{"id":17,"special":true,"content":"[unused2]","single_word":false,"lstrip":false,"rstrip":false,"normalized":false},{"id":18,"special":true,"content":"[unused3]","single_word":false,"lstrip":false,"rstrip":false,"normalized":false},{"id":19,"special":true,"content":"[unused4]","single_word":false,"lstrip":false,"rstrip":false,"normalized":false},{"id":20,"special":true,"content":"[unused5]","single_word":false,"lstrip":false,"rstrip":false,"normalized":false},{"id":21,"special":true,"content":"[unused6]","single_word":false,"lstrip":false,"rstrip":false,"normalized":false},{"id":22,"special":true,"content":"[unused7]","single_word":false,"lstrip":false,"rstrip":false,"normalized":false},{"id":23,"special":true,"content":"[unused8]","single_word":false,"lstrip":false,"rstrip":false,"normalized":false},{"id":24,"special":true,"content":"[unused9]","single_word":false,"lstrip":false,"rstrip":false,"normalized":false},{"id":25,"special":true,"content":"[unused10]","single_word":false,"lstrip":false,"rstrip":false,"normalized":false},{"id":26,"special":true,"content":"[unused11]","single_word":false,"lstrip":false,"rstrip":false,"normalized":false},{"id":27,"special":true,"content":"[unused12]","single_word":false,"lstrip":false,"rstrip":false,"normalized":false},{"id":28,"special":true,"content":"[unused13]","single_word":false,"lstrip":false,"rstrip":false,"normalized":false},{"id":29,"special":true,"content":"[unused14]","single_word":false,"lstrip":false,"rstrip":false,"normalized":false},{"id":30,"special":true,"content":"[unused15]","single_word":false,"lstrip":false,"rstrip":false,"normalized":false},{"id":31,"special":true,"content":"[unused16]","single_word":false,"lstrip":false,"rstrip":false,"normalized":false},{"id":32,"special":true,"content":"[unused17]","single_word":false,"lstrip":false,"rstrip":false,"normalized":false},{"id":33,"special":true,"content":"[unused18]","single_word":false,"lstrip":false,"rstrip":false,"normalized":false},{"id":34,"special":true,"content":"[unused19]","single_word":false,"lstrip":false,"rstrip":false,"normalized":false},{"id":35,"special":true,"content":"[unused20]","single_word":false,"lstrip":false,"rstrip":false,"normalized":false},{"id":36,"special":true,"content":"[unused21]","single_word":false,"lstrip":false,"rstrip":false,"normalized":false},{"id":37,"special":true,"content":"[unused22]","single_word":false,"lstrip":false,"rstrip":false,"normalized":false},{"id":38,"special":true,"content":"[unused23]","single_word":false,"lstrip":false,"rstrip":false,"normalized":false},{"id":39,"special":true,"content":"[unused24]","single_word":false,"lstrip":false,"rstrip":false,"normalized":false},{"id":40,"special":true,"content":"[unused25]","single_word":false,"lstrip":false,"rstrip":false,"normalized":false},{"id":41,"special":true,"content":"[unused26]","single_word":false,"lstrip":false,"rstrip":false,"normalized":false},{"id":42,"special":true,"content":"[unused27]","single_word":false,"lstrip":false,"rstrip":false,"normalized":false},{"id":43,"special":true,"content":"[unused28]","single_word":false,"lstrip":false,"rstrip":false,"normalized":false},{"id":44,"special":true,"content":"[unused29]","single_word":false,"lstrip":false,"rstrip":false,"normalized":false},{"id":45,"special":true,"content":"[unused30]","single_word":false,"lstrip":false,"rstrip":false,"normalized":false},{"id":46,"special":true,"content":"[unused31]","single_word":false,"lstrip":false,"rstrip":false,"normalized":false},{"id":47,"special":true,"content":"[unused32]","single_word":false,"lstrip":false,"rstrip":false,"normalized":false},{"id":48,"special":true,"content":"[unused33]","single_word":false,"lstrip":false,"rstrip":false,"normalized":false},{"id":49,"special":true,"content":"[unused34]","single_word":false,"lstrip":false,"rstrip":false,"normalized":false},{"id":50,"special":true,"content":"[unused35]","single_word":false,"lstrip":false,"rstrip":false,"normalized":false},{"id":51,"special":true,"content":"[unused36]","single_word":false,"lstrip":false,"rstrip":false,"normalized":false},{"id":52,"special":true,"content":"[unused37]","single_word":false,"lstrip":false,"rstrip":false,"normalized":false},{"id":53,"special":true,"content":"[unused38]","single_word":false,"lstrip":false,"rstrip":false,"normalized":false},{"id":54,"special":true,"content":"[unused39]","single_word":false,"lstrip":false,"rstrip":false,"normalized":false},{"id":55,"special":true,"content":"[unused40]","single_word":false,"lstrip":false,"rstrip":false,"normalized":false},{"id":56,"special":true,"content":"[unused41]","single_word":false,"lstrip":false,"rstrip":false,"normalized":false},{"id":57,"special":true,"content":"[unused42]","single_word":false,"lstrip":false,"rstrip":false,"normalized":false},{"id":58,"special":true,"content":"[unused43]","single_word":false,"lstrip":false,"rstrip":false,"normalized":false},{"id":59,"special":true,"content":"[unused44]","single_word":false,"lstrip":false,"rstrip":false,"normalized":false},{"id":60,"special":true,"content":"[unused45]","single_word":false,"lstrip":false,"rstrip":false,"normalized":false},{"id":61,"special":true,"content":"[unused46]","single_word":false,"lstrip":false,"rstrip":false,"normalized":false},{"id":62,"special":true,"content":"[unused47]","single_word":false,"lstrip":false,"rstrip":false,"normalized":false},{"id":63,"special":true,"content":"[unused48]","single_word":false,"lstrip":false,"rstrip":false,"normalized":false},{"id":64,"special":true,"content":"[unused49]","single_word":false,"lstrip":false,"rstrip":false,"normalized":false},{"id":65,"special":true,"content":"[unused50]","single_word":false,"lstrip":false,"rstrip":false,"normalized":false},{"id":66,"special":true,"content":"[unused51]","single_word":false,"lstrip":false,"rstrip":false,"normalized":false},{"id":67,"special":true,"content":"[unused52]","single_word":false,"lstrip":false,"rstrip":false,"normalized":false},{"id":68,"special":true,"content":"[unused53]","single_word":false,"lstrip":false,"rstrip":false,"normalized":false},{"id":69,"special":true,"content":"[unused54]","single_word":false,"lstrip":false,"rstrip":false,"normalized":false},{"id":70,"special":true,"content":"[unused55]","single_word":false,"lstrip":false,"rstrip":false,"normalized":false},{"id":71,"special":true,"content":"[unused56]","single_word":false,"lstrip":false,"rstrip":false,"normalized":false},{"id":72,"special":true,"content":"[unused57]","single_word":false,"lstrip":false,"rstrip":false,"normalized":false},{"id":73,"special":true,"content":"[unused58]","single_word":false,"lstrip":false,"rstrip":false,"normalized":false},{"id":74,"special":true,"content":"[unused59]","single_word":false,"lstrip":false,"rstrip":false,"normalized":false},{"id":75,"special":true,"content":"[unused60]","single_word":false,"lstrip":false,"rstrip":false,"normalized":false},{"id":76,"special":true,"content":"[unused61]","single_word":false,"lstrip":false,"rstrip":false,"normalized":false},{"id":77,"special":true,"content":"[unused62]","single_word":false,"lstrip":false,"rstrip":false,"normalized":false},{"id":78,"special":true,"content":"[unused63]","single_word":false,"lstrip":false,"rstrip":false,"normalized":false},{"id":79,"special":true,"content":"[unused64]","single_word":false,"lstrip":false,"rstrip":false,"normalized":false},{"id":80,"special":true,"content":"[unused65]","single_word":false,"lstrip":false,"rstrip":false,"normalized":false},{"id":81,"special":true,"content":"[unused66]","single_word":false,"lstrip":false,"rstrip":false,"normalized":false},{"id":82,"special":true,"content":"[unused67]","single_word":false,"lstrip":false,"rstrip":false,"normalized":false},{"id":83,"special":true,"content":"[unused68]","single_word":false,"lstrip":false,"rstrip":false,"normalized":false},{"id":84,"special":true,"content":"[unused69]","single_word":false,"lstrip":false,"rstrip":false,"normalized":false},{"id":85,"special":true,"content":"[unused70]","single_word":false,"lstrip":false,"rstrip":false,"normalized":false},{"id":86,"special":true,"content":"[unused71]","single_word":false,"lstrip":false,"rstrip":false,"normalized":false},{"id":87,"special":true,"content":"[unused72]","single_word":false,"lstrip":false,"rstrip":false,"normalized":false},{"id":88,"special":true,"content":"[unused73]","single_word":false,"lstrip":false,"rstrip":false,"normalized":false},{"id":89,"special":true,"content":"[unused74]","single_word":false,"lstrip":false,"rstrip":false,"normalized":false},{"id":90,"special":true,"content":"[unused75]","single_word":false,"lstrip":false,"rstrip":false,"normalized":false},{"id":91,"special":true,"content":"[unused76]","single_word":false,"lstrip":false,"rstrip":false,"normalized":false},{"id":92,"special":true,"content":"[unused77]","single_word":false,"lstrip":false,"rstrip":false,"normalized":false},{"id":93,"special":true,"content":"[unused78]","single_word":false,"lstrip":false,"rstrip":false,"normalized":false},{"id":94,"special":true,"content":"[unused79]","single_word":false,"lstrip":false,"rstrip":false,"normalized":false},{"id":95,"special":true,"content":"[unused80]","single_word":false,"lstrip":false,"rstrip":false,"normalized":false},{"id":96,"special":true,"content":"[unused81]","single_word":false,"lstrip":false,"rstrip":false,"normalized":false},{"id":97,"special":true,"content":"[unused82]","single_word":false,"lstrip":false,"rstrip":false,"normalized":false},{"id":98,"special":true,"content":"[unused83]","single_word":false,"lstrip":false,"rstrip":false,"normalized":false},{"id":99,"special":true,"content":"[unused84]","single_word":false,"lstrip":false,"rstrip":false,"normalized":false},{"id":100,"special":true,"content":"[unused85]","single_word":false,"lstrip":false,"rstrip":false,"normalized":false},{"id":101,"special":true,"content":"[unused86]","single_word":false,"lstrip":false,"rstrip":false,"normalized":false},{"id":102,"special":true,"content":"[unused87]","single_word":false,"lstrip":false,"rstrip":false,"normalized":false},{"id":103,"special":true,"content":"[unused88]","single_word":false,"lstrip":false,"rstrip":false,"normalized":false},{"id":104,"special":true,"content":"[unused89]","single_word":false,"lstrip":false,"rstrip":false,"normalized":false},{"id":105,"special":true,"content":"[unused90]","single_word":false,"lstrip":false,"rstrip":false,"normalized":false},{"id":106,"special":true,"content":"[unused91]","single_word":false,"lstrip":false,"rstrip":false,"normalized":false},{"id":107,"special":true,"content":"[unused92]","single_word":false,"lstrip":false,"rstrip":false,"normalized":false},{"id":108,"special":true,"content":"[unused93]","single_word":false,"lstrip":false,"rstrip":false,"normalized":false},{"id":109,"special":true,"content":"[unused94]","single_word":false,"lstrip":false,"rstrip":false,"normalized":false},{"id":110,"special":true,"content":"[unused95]","single_word":false,"lstrip":false,"rstrip":false,"normalized":false},{"id":111,"special":true,"content":"[unused96]","single_word":false,"lstrip":false,"rstrip":false,"normalized":false},{"id":112,"special":true,"content":"[unused97]","single_word":false,"lstrip":false,"rstrip":false,"normalized":false},{"id":113,"special":true,"content":"[unused98]","single_word":false,"lstrip":false,"rstrip":false,"normalized":false},{"id":114,"special":true,"content":"[unused99]","single_word":false,"lstrip":false,"rstrip":false,"normalized":false},{"id":115,"special":true,"content":"[unused100]","single_word":false,"lstrip":false,"rstrip":false,"normalized":false},{"id":116,"special":true,"content":"[unused101]","single_word":false,"lstrip":false,"rstrip":false,"normalized":false},{"id":117,"special":true,"content":"[unused102]","single_word":false,"lstrip":false,"rstrip":false,"normalized":false},{"id":118,"special":true,"content":"[unused103]","single_word":false,"lstrip":false,"rstrip":false,"normalized":false},{"id":119,"special":true,"content":"[unused104]","single_word":false,"lstrip":false,"rstrip":false,"normalized":false},{"id":120,"special":true,"content":"[unused105]","single_word":false,"lstrip":false,"rstrip":false,"normalized":false},{"id":121,"special":true,"content":"[unused106]","single_word":false,"lstrip":false,"rstrip":false,"normalized":false},{"id":122,"special":true,"content":"[unused107]","single_word":false,"lstrip":false,"rstrip":false,"normalized":false},{"id":123,"special":true,"content":"[unused108]","single_word":false,"lstrip":false,"rstrip":false,"normalized":false},{"id":124,"special":true,"content":"[unused109]","single_word":false,"lstrip":false,"rstrip":false,"normalized":false},{"id":125,"special":true,"content":"[unused110]","single_word":false,"lstrip":false,"rstrip":false,"normalized":false},{"id":126,"special":true,"content":"[unused111]","single_word":false,"lstrip":false,"rstrip":false,"normalized":false},{"id":127,"special":true,"content":"[unused112]","single_word":false,"lstrip":false,"rstrip":false,"normalized":false},{"id":128,"special":true,"content":"[unused113]","single_word":false,"lstrip":false,"rstrip":false,"normalized":false},{"id":129,"special":true,"content":"[unused114]","single_word":false,"lstrip":false,"rstrip":false,"normalized":false},{"id":130,"special":true,"content":"[unused115]","single_word":false,"lstrip":false,"rstrip":false,"normalized":false},{"id":131,"special":true,"content":"[unused116]","single_word":false,"lstrip":false,"rstrip":false,"normalized":false},{"id":132,"special":true,"content":"[unused117]","single_word":false,"lstrip":false,"rstrip":false,"normalized":false},{"id":133,"special":true,"content":"[unused118]","single_word":false,"lstrip":false,"rstrip":false,"normalized":false},{"id":134,"special":true,"content":"[unused119]","single_word":false,"lstrip":false,"rstrip":false,"normalized":false},{"id":135,"special":true,"content":"[unused120]","single_word":false,"lstrip":false,"rstrip":false,"normalized":false},{"id":136,"special":true,"content":"[unused121]","single_word":false,"lstrip":false,"rstrip":false,"normalized":false},{"id":137,"special":true,"content":"[unused122]","single_word":false,"lstrip":false,"rstrip":false,"normalized":false},{"id":138,"special":true,"content":"[unused123]","single_word":false,"lstrip":false,"rstrip":false,"normalized":false},{"id":139,"special":true,"content":"[unused124]","single_word":false,"lstrip":false,"rstrip":false,"normalized":false},{"id":140,"special":true,"content":"[unused125]","single_word":false,"lstrip":false,"rstrip":false,"normalized":false},{"id":141,"special":true,"content":"[unused126]","single_word":false,"lstrip":false,"rstrip":false,"normalized":false},{"id":142,"special":true,"content":"[unused127]","single_word":false,"lstrip":false,"rstrip":false,"normalized":false},{"id":143,"special":true,"content":"[unused128]","single_word":false,"lstrip":false,"rstrip":false,"normalized":false},{"id":144,"special":true,"content":"[unused129]","single_word":false,"lstrip":false,"rstrip":false,"normalized":false},{"id":145,"special":true,"content":"[unused130]","single_word":false,"lstrip":false,"rstrip":false,"normalized":false},{"id":146,"special":true,"content":"[unused131]","single_word":false,"lstrip":false,"rstrip":false,"normalized":false},{"id":147,"special":true,"content":"[unused132]","single_word":false,"lstrip":false,"rstrip":false,"normalized":false},{"id":148,"special":true,"content":"[unused133]","single_word":false,"lstrip":false,"rstrip":false,"normalized":false},{"id":149,"special":true,"content":"[unused134]","single_word":false,"lstrip":false,"rstrip":false,"normalized":false},{"id":150,"special":true,"content":"[unused135]","single_word":false,"lstrip":false,"rstrip":false,"normalized":false},{"id":151,"special":true,"content":"[unused136]","single_word":false,"lstrip":false,"rstrip":false,"normalized":false},{"id":152,"special":true,"content":"[unused137]","single_word":false,"lstrip":false,"rstrip":false,"normalized":false},{"id":153,"special":true,"content":"[unused138]","single_word":false,"lstrip":false,"rstrip":false,"normalized":false},{"id":154,"special":true,"content":"[unused139]","single_word":false,"lstrip":false,"rstrip":false,"normalized":false},{"id":155,"special":true,"content":"[unused140]","single_word":false,"lstrip":false,"rstrip":false,"normalized":false},{"id":156,"special":true,"content":"[unused141]","single_word":false,"lstrip":false,"rstrip":false,"normalized":false},{"id":157,"special":true,"content":"[unused142]","single_word":false,"lstrip":false,"rstrip":false,"normalized":false},{"id":158,"special":true,"content":"[unused143]","single_word":false,"lstrip":false,"rstrip":false,"normalized":false},{"id":159,"special":true,"content":"[unused144]","single_word":false,"lstrip":false,"rstrip":false,"normalized":false},{"id":160,"special":true,"content":"[unused145]","single_word":false,"lstrip":false,"rstrip":false,"normalized":false},{"id":161,"special":true,"content":"[unused146]","single_word":false,"lstrip":false,"rstrip":false,"normalized":false},{"id":162,"special":true,"content":"[unused147]","single_word":false,"lstrip":false,"rstrip":false,"normalized":false},{"id":163,"special":true,"content":"[unused148]","single_word":false,"lstrip":false,"rstrip":false,"normalized":false},{"id":164,"special":true,"content":"[unused149]","single_word":false,"lstrip":false,"rstrip":false,"normalized":false},{"id":165,"special":true,"content":"[unused150]","single_word":false,"lstrip":false,"rstrip":false,"normalized":false},{"id":166,"special":true,"content":"[unused151]","single_word":false,"lstrip":false,"rstrip":false,"normalized":false},{"id":167,"special":true,"content":"[unused152]","single_word":false,"lstrip":false,"rstrip":false,"normalized":false},{"id":168,"special":true,"content":"[unused153]","single_word":false,"lstrip":false,"rstrip":false,"normalized":false},{"id":169,"special":true,"content":"[unused154]","single_word":false,"lstrip":false,"rstrip":false,"normalized":false},{"id":170,"special":true,"content":"[unused155]","single_word":false,"lstrip":false,"rstrip":false,"normalized":false},{"id":171,"special":true,"content":"[unused156]","single_word":false,"lstrip":false,"rstrip":false,"normalized":false},{"id":172,"special":true,"content":"[unused157]","single_word":false,"lstrip":false,"rstrip":false,"normalized":false},{"id":173,"special":true,"content":"[unused158]","single_word":false,"lstrip":false,"rstrip":false,"normalized":false},{"id":174,"special":true,"content":"[unused159]","single_word":false,"lstrip":false,"rstrip":false,"normalized":false},{"id":175,"special":true,"content":"[unused160]","single_word":false,"lstrip":false,"rstrip":false,"normalized":false},{"id":176,"special":true,"content":"[unused161]","single_word":false,"lstrip":false,"rstrip":false,"normalized":false},{"id":177,"special":true,"content":"[unused162]","single_word":false,"lstrip":false,"rstrip":false,"normalized":false},{"id":178,"special":true,"content":"[unused163]","single_word":false,"lstrip":false,"rstrip":false,"normalized":false},{"id":179,"special":true,"content":"[unused164]","single_word":false,"lstrip":false,"rstrip":false,"normalized":false},{"id":180,"special":true,"content":"[unused165]","single_word":false,"lstrip":false,"rstrip":false,"normalized":false},{"id":181,"special":true,"content":"[unused166]","single_word":false,"lstrip":false,"rstrip":false,"normalized":false},{"id":182,"special":true,"content":"[unused167]","single_word":false,"lstrip":false,"rstrip":false,"normalized":false},{"id":183,"special":true,"content":"[unused168]","single_word":false,"lstrip":false,"rstrip":false,"normalized":false},{"id":184,"special":true,"content":"[unused169]","single_word":false,"lstrip":false,"rstrip":false,"normalized":false},{"id":185,"special":true,"content":"[unused170]","single_word":false,"lstrip":false,"rstrip":false,"normalized":false},{"id":186,"special":true,"content":"[unused171]","single_word":false,"lstrip":false,"rstrip":false,"normalized":false},{"id":187,"special":true,"content":"[unused172]","single_word":false,"lstrip":false,"rstrip":false,"normalized":false},{"id":188,"special":true,"content":"[unused173]","single_word":false,"lstrip":false,"rstrip":false,"normalized":false},{"id":189,"special":true,"content":"[unused174]","single_word":false,"lstrip":false,"rstrip":false,"normalized":false},{"id":190,"special":true,"content":"[unused175]","single_word":false,"lstrip":false,"rstrip":false,"normalized":false},{"id":191,"special":true,"content":"[unused176]","single_word":false,"lstrip":false,"rstrip":false,"normalized":false},{"id":192,"special":true,"content":"[unused177]","single_word":false,"lstrip":false,"rstrip":false,"normalized":false},{"id":193,"special":true,"content":"[unused178]","single_word":false,"lstrip":false,"rstrip":false,"normalized":false},{"id":194,"special":true,"content":"[unused179]","single_word":false,"lstrip":false,"rstrip":false,"normalized":false},{"id":195,"special":true,"content":"[unused180]","single_word":false,"lstrip":false,"rstrip":false,"normalized":false},{"id":196,"special":true,"content":"[unused181]","single_word":false,"lstrip":false,"rstrip":false,"normalized":false},{"id":197,"special":true,"content":"[unused182]","single_word":false,"lstrip":false,"rstrip":false,"normalized":false},{"id":198,"special":true,"content":"[unused183]","single_word":false,"lstrip":false,"rstrip":false,"normalized":false},{"id":199,"special":true,"content":"[unused184]","single_word":false,"lstrip":false,"rstrip":false,"normalized":false},{"id":200,"special":true,"content":"[unused185]","single_word":false,"lstrip":false,"rstrip":false,"normalized":false},{"id":201,"special":true,"content":"[unused186]","single_word":false,"lstrip":false,"rstrip":false,"normalized":false},{"id":202,"special":true,"content":"[unused187]","single_word":false,"lstrip":false,"rstrip":false,"normalized":false},{"id":203,"special":true,"content":"[unused188]","single_word":false,"lstrip":false,"rstrip":false,"normalized":false},{"id":204,"special":true,"content":"[unused189]","single_word":false,"lstrip":false,"rstrip":false,"normalized":false},{"id":205,"special":true,"content":"[unused190]","single_word":false,"lstrip":false,"rstrip":false,"normalized":false},{"id":206,"special":true,"content":"[unused191]","single_word":false,"lstrip":false,"rstrip":false,"normalized":false},{"id":207,"special":true,"content":"[unused192]","single_word":false,"lstrip":false,"rstrip":false,"normalized":false},{"id":208,"special":true,"content":"[unused193]","single_word":false,"lstrip":false,"rstrip":false,"normalized":false},{"id":209,"special":true,"content":"[unused194]","single_word":false,"lstrip":false,"rstrip":false,"normalized":false},{"id":210,"special":true,"content":"[unused195]","single_word":false,"lstrip":false,"rstrip":false,"normalized":false},{"id":211,"special":true,"content":"[unused196]","single_word":false,"lstrip":false,"rstrip":false,"normalized":false},{"id":212,"special":true,"content":"[unused197]","single_word":false,"lstrip":false,"rstrip":false,"normalized":false},{"id":213,"special":true,"content":"[unused198]","single_word":false,"lstrip":false,"rstrip":false,"normalized":false},{"id":214,"special":true,"content":"[unused199]","single_word":false,"lstrip":false,"rstrip":false,"normalized":false}],"normalizer":{"type":"BertNormalizer","clean_text":true,"handle_chinese_chars":true,"strip_accents":false,"lowercase":false},"pre_tokenizer":{"type":"BertPreTokenizer"},"post_processor":null,"decoder":{"type":"WordPiece","prefix":"##","cleanup":true},"model":{"unk_token":"[UNK]","continuing_subword_prefix":"##","max_input_chars_per_word":100,"vocab":{"<s>":0,"<pad>":1,"</s>":2,"<unk>":3,"<mask>":4,"[UNK0]":5,"[UNK1]":6,"[UNK2]":7,"[UNK3]":8,"[UNK4]":9,"[UNK5]":10,"[UNK6]":11,"[UNK7]":12,"[UNK8]":13,"[UNK9]":14,"[unused0]":15,"[unused1]":16,"[unused2]":17,"[unused3]":18,"[unused4]":19,"[unused5]":20,"[unused6]":21,"[unused7]":22,"[unused8]":23,"[unused9]":24,"[unused10]":25,"[unused11]":26,"[unused12]":27,"[unused13]":28,"[unused14]":29,"[unused15]":30,"[unused16]":31,"[unused17]":32,"[unused18]":33,"[unused19]":34,"[unused20]":35,"[unused21]":36,"[unused22]":37,"[unused23]":38,"[unused24]":39,"[unused25]":40,"[unused26]":41,"[unused27]":42,"[unused28]":43,"[unused29]":44,"[unused30]":45,"[unused31]":46,"[unused32]":47,"[unused33]":48,"[unused34]":49,"[unused35]":50,"[unused36]":51,"[unused37]":52,"[unused38]":53,"[unused39]":54,"[unused40]":55,"[unused41]":56,"[unused42]":57,"[unused43]":58,"[unused44]":59,"[unused45]":60,"[unused46]":61,"[unused47]":62,"[unused48]":63,"[unused49]":64,"[unused50]":65,"[unused51]":66,"[unused52]":67,"[unused53]":68,"[unused54]":69,"[unused55]":70,"[unused56]":71,"[unused57]":72,"[unused58]":73,"[unused59]":74,"[unused60]":75,"[unused61]":76,"[unused62]":77,"[unused63]":78,"[unused64]":79,"[unused65]":80,"[unused66]":81,"[unused67]":82,"[unused68]":83,"[unused69]":84,"[unused70]":85,"[unused71]":86,"[unused72]":87,"[unused73]":88,"[unused74]":89,"[unused75]":90,"[unused76]":91,"[unused77]":92,"[unused78]":93,"[unused79]":94,"[unused80]":95,"[unused81]":96,"[unused82]":97,"[unused83]":98,"[unused84]":99,"[unused85]":100,"[unused86]":101,"[unused87]":102,"[unused88]":103,"[unused89]":104,"[unused90]":105,"[unused91]":106,"[unused92]":107,"[unused93]":108,"[unused94]":109,"[unused95]":110,"[unused96]":111,"[unused97]":112,"[unused98]":113,"[unused99]":114,"[unused100]":115,"[unused101]":116,"[unused102]":117,"[unused103]":118,"[unused104]":119,"[unused105]":120,"[unused106]":121,"[unused107]":122,"[unused108]":123,"[unused109]":124,"[unused110]":125,"[unused111]":126,"[unused112]":127,"[unused113]":128,"[unused114]":129,"[unused115]":130,"[unused116]":131,"[unused117]":132,"[unused118]":133,"[unused119]":134,"[unused120]":135,"[unused121]":136,"[unused122]":137,"[unused123]":138,"[unused124]":139,"[unused125]":140,"[unused126]":141,"[unused127]":142,"[unused128]":143,"[unused129]":144,"[unused130]":145,"[unused131]":146,"[unused132]":147,"[unused133]":148,"[unused134]":149,"[unused135]":150,"[unused136]":151,"[unused137]":152,"[unused138]":153,"[unused139]":154,"[unused140]":155,"[unused141]":156,"[unused142]":157,"[unused143]":158,"[unused144]":159,"[unused145]":160,"[unused146]":161,"[unused147]":162,"[unused148]":163,"[unused149]":164,"[unused150]":165,"[unused151]":166,"[unused152]":167,"[unused153]":168,"[unused154]":169,"[unused155]":170,"[unused156]":171,"[unused157]":172,"[unused158]":173,"[unused159]":174,"[unused160]":175,"[unused161]":176,"[unused162]":177,"[unused163]":178,"[unused164]":179,"[unused165]":180,"[unused166]":181,"[unused167]":182,"[unused168]":183,"[unused169]":184,"[unused170]":185,"[unused171]":186,"[unused172]":187,"[unused173]":188,"[unused174]":189,"[unused175]":190,"[unused176]":191,"[unused177]":192,"[unused178]":193,"[unused179]":194,"[unused180]":195,"[unused181]":196,"[unused182]":197,"[unused183]":198,"[unused184]":199,"[unused185]":200,"[unused186]":201,"[unused187]":202,"[unused188]":203,"[unused189]":204,"[unused190]":205,"[unused191]":206,"[unused192]":207,"[unused193]":208,"[unused194]":209,"[unused195]":210,"[unused196]":211,"[unused197]":212,"[unused198]":213,"[unused199]":214,"!":215,"$":216,"%":217,",":218,"-":219,".":220,"/":221,":":222,"?":223,"@":224,"A":225,"B":226,"C":227,"D":228,"E":229,"F":230,"G":231,"H":232,"I":233,"J":234,"K":235,"L":236,"M":237,"N":238,"O":239,"P":240,"Q":241,"R":242,"S":243,"T":244,"U":245,"V":246,"W":247,"X":248,"Y":249,"Z":250,"a":251,"b":252,"c":253,"d":254,"e":255,"f":256,"g":257,"h":258,"i":259,"j":260,"k":261,"l":262,"m":263,"n":264,"o":265,"p":266,"q":267,"r":268,"s":269,"t":270,"u":271,"v":272,"w":273,"x":274,"y":275,"z":276,"~":277,"·":278,"가":279,"각":280,"갂":281,"갃":282,"간":283,"갅":284,"갆":285,"갇":286,"갈":287,"갉":288,"갊":289,"갋":290,"갌":291,"갍":292,"갎":293,"갏":294,"감":295,"갑":296,"값":297,"갓":298,"갔":299,"강":300,"갖":301,"갗":302,"갘":303,"같":304,"갚":305,"갛":306,"개":307,"객":308,"갞":309,"갟":310,"갠":311,"갢":312,"갣":313,"갤":314,"갥":315,"갧":316,"갩":317,"갫":318,"갬":319,"갭":320,"갮":321,"갯":322,"갰":323,"갱":324,"갲":325,"갳":326,"갴":327,"갵":328,"갶":329,"갷":330,"갸":331,"갹":332,"갺":333,"갼":334,"갿":335,"걀":336,"걇":337,"걈":338,"걉":339,"걊":340,"걋":341,"걌":342,"걍":343,"걎":344,"걐":345,"걑":346,"걒":347,"걔":348,"걕":349,"걖":350,"걘":351,"걜":352,"걤":353,"걥":354,"걧":355,"걨":356,"걩":357,"거":358,"걱":359,"걲":360,"걳":361,"건":362,"걵":363,"걶":364,"걷":365,"걸":366,"걹":367,"걺":368,"걻":369,"걼":370,"걽":371,"걾":372,"걿":373,"검":374,"겁":375,"겂":376,"것":377,"겄":378,"겅":379,"겆":380,"겇":381,"겈":382,"겉":383,"겊":384,"겋":385,"게":386,"겍":387,"겎":388,"겏":389,"겐":390,"겒":391,"겓":392,"겔":393,"겖":394,"겙":395,"겚":396,"겛":397,"겜":398,"겝":399,"겞":400,"겟":401,"겠":402,"겡":403,"겢":404,"겣":405,"겤":406,"겥":407,"겦":408,"겧":409,"겨":410,"격":411,"겪":412,"겫":413,"견":414,"겭":415,"겮":416,"겯":417,"결":418,"겱":419,"겲":420,"겳":421,"겴":422,"겵":423,"겷":424,"겸":425,"겹":426,"겺":427,"겻":428,"겼":429,"경":430,"겾":431,"겿":432,"곀":433,"곁":434,"곂":435,"곃":436,"계":437,"곅":438,"곆":439,"곈":440,"곋":441,"곌":442,"곔":443,"곕":444,"곗":445,"곘":446,"곙":447,"곚":448,"곛":449,"곜":450,"곝":451,"곟":452,"고":453,"곡":454,"곢":455,"곣":456,"곤":457,"곧":458,"골":459,"곩":460,"곪":461,"곫":462,"곬":463,"곭":464,"곮":465,"곯":466,"곰":467,"곱":468,"곲":469,"곳":470,"곴":471,"공":472,"곶":473,"곷":474,"곸":475,"곹":476,"곺":477,"곻":478,"과":479,"곽":480,"곾":481,"관":482,"괁":483,"괂":484,"괃":485,"괄":486,"괆":487,"괋":488,"괌":489,"괍":490,"괏":491,"괐":492,"광":493,"괒":494,"괓":495,"괔":496,"괕":497,"괖":498,"괗":499,"괘":500,"괙":501,"괜":502,"괝":503,"괞":504,"괠":505,"괨":506,"괫":507,"괬":508,"괭":509,"괴":510,"괵":511,"괸":512,"괺":513,"괼":514,"굄":515,"굅":516,"굇":517,"굈":518,"굉":519,"굌":520,"교":521,"굑":522,"굔":523,"굗":524,"굘":525,"굚":526,"굠":527,"굡":528,"굣":529,"굤":530,"굥":531,"굦":532,"굧":533,"굨":534,"굩":535,"굪":536,"굫":537,"구":538,"국":539,"굮":540,"굯":541,"군":542,"굱":543,"굲":544,"굳":545,"굴":546,"굵":547,"굶":548,"굷":549,"굹":550,"굺":551,"굻":552,"굼":553,"굽":554,"굾":555,"굿":556,"궀":557,"궁":558,"궂":559,"궃":560,"궄":561,"궅":562,"궆":563,"궇":564,"궈":565,"궉":566,"권":567,"궍":568,"궎":569,"궏":570,"궐":571,"궘":572,"궙":573,"궛":574,"궜":575,"궝":576,"궞":577,"궠":578,"궤":579,"궥":580,"궨":581,"궬":582,"궮":583,"궯":584,"궵":585,"궷":586,"궸":587,"궹":588,"귀":589,"귁":590,"귄":591,"귈":592,"귐":593,"귑":594,"귓":595,"귔":596,"귕":597,"귖":598,"귘":599,"규":600,"귝":601,"균":602,"귣":603,"귤":604,"귦":605,"귬":606,"귭":607,"귯":608,"귱":609,"귲":610,"귴":611,"그":612,"극":613,"귺":614,"귻":615,"근":616,"귽":617,"귾":618,"귿":619,"글":620,"긁":621,"긂":622,"긃":623,"긄":624,"긆":625,"긇":626,"금":627,"급":628,"긊":629,"긋":630,"긌":631,"긍":632,"긎":633,"긏":634,"긐":635,"긑":636,"긒":637,"긓":638,"긔":639,"긕":640,"긘":641,"긛":642,"긜":643,"긤":644,"긥":645,"긧":646,"긨":647,"긩":648,"긬":649,"기":650,"긱":651,"긲":652,"긴":653,"긵":654,"긶":655,"긷":656,"길":657,"긹":658,"긺":659,"긻":660,"긼":661,"긽":662,"긾":663,"긿":664,"김":665,"깁":666,"깂":667,"깃":668,"깄":669,"깅":670,"깆":671,"깇":672,"깈":673,"깉":674,"깊":675,"깋":676,"까":677,"깍":678,"깎":679,"깐":680,"깒":681,"깓":682,"깔":683,"깕":684,"깖":685,"깛":686,"깜":687,"깝":688,"깞":689,"깟":690,"깠":691,"깡":692,"깢":693,"깣":694,"깤":695,"깥":696,"깦":697,"깧":698,"깨":699,"깩":700,"깪":701,"깬":702,"깯":703,"깰":704,"깳":705,"깸":706,"깹":707,"깺":708,"깻":709,"깼":710,"깽":711,"깾":712,"꺀":713,"꺄":714,"꺅":715,"꺆":716,"꺈":717,"꺉":718,"꺊":719,"꺌":720,"꺍":721,"꺎":722,"꺏":723,"꺑":724,"꺓":725,"꺔":726,"꺕":727,"꺖":728,"꺗":729,"꺘":730,"꺙":731,"꺚":732,"꺛":733,"꺜":734,"꺝":735,"꺟":736,"꺠":737,"꺡":738,"꺢":739,"꺤":740,"꺨":741,"꺳":742,"꺴":743,"꺵":744,"꺼":745,"꺽":746,"꺾":747,"껀":748,"껃":749,"껄":750,"껅":751,"껌":752,"껍":753,"껏":754,"껐":755,"껑":756,"껒":757,"껓":758,"껔":759,"껕":760,"껗":761,"께":762,"껙":763,"껚":764,"껜":765,"껠":766,"껨":767,"껩":768,"껫":769,"껬":770,"껭":771,"껮":772,"껰":773,"껴":774,"껵":775,"껶":776,"껸":777,"껼":778,"꼄":779,"꼅":780,"꼇":781,"꼈":782,"꼉":783,"꼊":784,"꼌":785,"꼍":786,"꼏":787,"꼐":788,"꼔":789,"꼣":790,"꼤":791,"꼥":792,"꼨":793,"꼬":794,"꼭":795,"꼮":796,"꼰":797,"꼲":798,"꼳":799,"꼴":800,"꼵":801,"꼶":802,"꼷":803,"꼹":804,"꼻":805,"꼼":806,"꼽":807,"꼿":808,"꽁":809,"꽂":810,"꽃":811,"꽄":812,"꽅":813,"꽆":814,"꽇":815,"꽈":816,"꽉":817,"꽊":818,"꽌":819,"꽐":820,"꽘":821,"꽙":822,"꽛":823,"꽜":824,"꽝":825,"꽠":826,"꽤":827,"꽥":828,"꽦":829,"꽨":830,"꽬":831,"꽴":832,"꽷":833,"꽹":834,"꽼":835,"꾀":836,"꾁":837,"꾄":838,"꾈":839,"꾐":840,"꾕":841,"꾜":842,"꾝":843,"꾠":844,"꾤":845,"꾬":846,"꾭":847,"꾱":848,"꾳":849,"꾸":850,"꾹":851,"꾺":852,"꾼":853,"꾽":854,"꾾":855,"꾿":856,"꿀":857,"꿁":858,"꿂":859,"꿃":860,"꿄":861,"꿆":862,"꿇":863,"꿈":864,"꿉":865,"꿋":866,"꿌":867,"꿍":868,"꿎":869,"꿏":870,"꿐":871,"꿑":872,"꿓":873,"꿔":874,"꿕":875,"꿘":876,"꿜":877,"꿤":878,"꿥":879,"꿧":880,"꿨":881,"꿩":882,"꿬":883,"꿯":884,"꿰":885,"꿱":886,"꿲":887,"꿴":888,"꿸":889,"뀀":890,"뀁":891,"뀃":892,"뀄":893,"뀅":894,"뀈":895,"뀌":896,"뀍":897,"뀐":898,"뀔":899,"뀜":900,"뀝":901,"뀟":902,"뀠":903,"뀡":904,"뀨":905,"뀩":906,"뀪":907,"뀬":908,"뀰":909,"뀷":910,"뀸":911,"뀹":912,"뀻":913,"뀽":914,"끄":915,"끅":916,"끆":917,"끈":918,"끉":919,"끊":920,"끋":921,"끌":922,"끍":923,"끎":924,"끏":925,"끐":926,"끓":927,"끔":928,"끕":929,"끗":930,"끘":931,"끙":932,"끚":933,"끛":934,"끜":935,"끝":936,"끞":937,"끟":938,"끠":939,"끡":940,"끤":941,"끨":942,"끰":943,"끱":944,"끵":945,"끼":946,"끽":947,"끾":948,"끿":949,"낀":950,"낂":951,"낃":952,"낄":953,"낅":954,"낇":955,"낋":956,"낌":957,"낍":958,"낎":959,"낏":960,"낐":961,"낑":962,"낒":963,"낓":964,"낔":965,"낕":966,"낖":967,"낗":968,"나":969,"낙":970,"낚":971,"낛":972,"난":973,"낝":974,"낞":975,"낟":976,"날":977,"낡":978,"낢":979,"낣":980,"낤":981,"낥":982,"낧":983,"남":984,"납":985,"낪":986,"낫":987,"났":988,"낭":989,"낮":990,"낯":991,"낰":992,"낱":993,"낲":994,"낳":995,"내":996,"낵":997,"낶":998,"낸":999,"낹":1000,"낺":1001,"낻":1002,"낼":1003,"낽":1004,"냀":1005,"냃":1006,"냄":1007,"냅":1008,"냇":1009,"냈":1010,"냉":1011,"냊":1012,"냋":1013,"냌":1014,"냍":1015,"냎":1016,"냏":1017,"냐":1018,"냑":1019,"냒":1020,"냔":1021,"냗":1022,"냘":1023,"냠":1024,"냡":1025,"냣":1026,"냤":1027,"냥":1028,"냦":1029,"냧":1030,"냨":1031,"냩":1032,"냪":1033,"냫":1034,"냬":1035,"냰":1036,"냴":1037,"냼":1038,"냽":1039,"냿":1040,"넀":1041,"넁":1042,"넄":1043,"너":1044,"넉":1045,"넊":1046,"넋":1047,"넌":1048,"넍":1049,"넎":1050,"넏":1051,"널":1052,"넑":1053,"넒":1054,"넓":1055,"넔":1056,"넖":1057,"넗":1058,"넘":1059,"넙":1060,"넚":1061,"넛":1062,"넜":1063,"넝":1064,"넞":1065,"넟":1066,"넠":1067,"넡":1068,"넢":1069,"넣":1070,"네":1071,"넥":1072,"넦":1073,"넨":1074,"넫":1075,"넬":1076,"넴":1077,"넵":1078,"넷":1079,"넸":1080,"넹":1081,"넺":1082,"넻":1083,"넼":1084,"넽":1085,"넾":1086,"넿":1087,"녀":1088,"녁":1089,"녂":1090,"녃":1091,"년":1092,"녅":1093,"녆":1094,"녇":1095,"녈":1096,"녉":1097,"녊":1098,"녋":1099,"녏":1100,"념":1101,"녑":1102,"녓":1103,"녔":1104,"녕":1105,"녖":1106,"녗":1107,"녘":1108,"녙":1109,"녚":1110,"녛":1111,"녜":1112,"녝":1113,"녠":1114,"녤":1115,"녬":1116,"녭":1117,"녯":1118,"녰":1119,"녱":1120,"녴":1121,"노":1122,"녹":1123,"녺":1124,"녻":1125,"논":1126,"녽":1127,"녾":1128,"녿":1129,"놀":1130,"놁":1131,"놂":1132,"놃":1133,"놄":1134,"놇":1135,"놈":1136,"놉":1137,"놊":1138,"놋":1139,"놌":1140,"농":1141,"놎":1142,"놏":1143,"놐":1144,"놑":1145,"높":1146,"놓":1147,"놔":1148,"놕":1149,"놖":1150,"놘":1151,"놛":1152,"놜":1153,"놤":1154,"놥":1155,"놧":1156,"놨":1157,"놩":1158,"놪":1159,"놬":1160,"놯":1161,"놰":1162,"놱":1163,"놴":1164,"뇀":1165,"뇁":1166,"뇄":1167,"뇅":1168,"뇌":1169,"뇍":1170,"뇐":1171,"뇓":1172,"뇔":1173,"뇜":1174,"뇝":1175,"뇟":1176,"뇠":1177,"뇡":1178,"뇤":1179,"뇨":1180,"뇩":1181,"뇬":1182,"뇮":1183,"뇯":1184,"뇰":1185,"뇸":1186,"뇹":1187,"뇻":1188,"뇽":1189,"뇾":1190,"눀":1191,"눂":1192,"눃":1193,"누":1194,"눅":1195,"눈":1196,"눉":1197,"눋":1198,"눌":1199,"눍":1200,"눔":1201,"눕":1202,"눗":1203,"눙":1204,"눚":1205,"눜":1206,"눝":1207,"눞":1208,"눟":1209,"눠":1210,"눤":1211,"눨":1212,"눰":1213,"눱":1214,"눳":1215,"눴":1216,"눵":1217,"눻":1218,"눼":1219,"눽":1220,"뉀":1221,"뉄":1222,"뉌":1223,"뉍":1224,"뉑":1225,"뉘":1226,"뉙":1227,"뉜":1228,"뉠":1229,"뉨":1230,"뉩":1231,"뉫":1232,"뉬":1233,"뉭":1234,"뉴":1235,"뉵":1236,"뉸":1237,"뉼":1238,"늄":1239,"늅":1240,"늇":1241,"늉":1242,"늌":1243,"늏":1244,"느":1245,"늑":1246,"늒":1247,"늓":1248,"는":1249,"늕":1250,"늖":1251,"늗":1252,"늘":1253,"늙":1254,"늚":1255,"늛":1256,"늜":1257,"늟":1258,"늠":1259,"늡":1260,"늣":1261,"늤":1262,"능":1263,"늦":1264,"늧":1265,"늨":1266,"늩":1267,"늪":1268,"늫":1269,"늬":1270,"늭":1271,"늰":1272,"늴":1273,"늼":1274,"늽":1275,"늿":1276,"닁":1277,"닄":1278,"닇":1279,"니":1280,"닉":1281,"닊":1282,"닌":1283,"닍":1284,"닏":1285,"닐":1286,"닑":1287,"닒":1288,"닗":1289,"님":1290,"닙":1291,"닚":1292,"닛":1293,"닜":1294,"닝":1295,"닞":1296,"닟":1297,"닠":1298,"닡":1299,"닢":1300,"닣":1301,"다":1302,"닥":1303,"닦":1304,"닧":1305,"단":1306,"닩":1307,"닪":1308,"닫":1309,"달":1310,"닭":1311,"닮":1312,"닯":1313,"닰":1314,"닱":1315,"닲":1316,"닳":1317,"담":1318,"답":1319,"닶":1320,"닷":1321,"닸":1322,"당":1323,"닺":1324,"닻":1325,"닼":1326,"닽":1327,"닾":1328,"닿":1329,"대":1330,"댁":1331,"댂":1332,"댃":1333,"댄":1334,"댇":1335,"댈":1336,"댉":1337,"댏":1338,"댐":1339,"댑":1340,"댒":1341,"댓":1342,"댔":1343,"댕":1344,"댖":1345,"댗":1346,"댘":1347,"댙":1348,"댚":1349,"댛":1350,"댜":1351,"댝":1352,"댠":1353,"댣":1354,"댤":1355,"댥":1356,"댬":1357,"댭":1358,"댯":1359,"댱":1360,"댴":1361,"댸":1362,"댹":1363,"댼":1364,"덀":1365,"덋":1366,"덌":1367,"덍":1368,"더":1369,"덕":1370,"덖":1371,"덗":1372,"던":1373,"덙":1374,"덚":1375,"덛":1376,"덜":1377,"덝":1378,"덞":1379,"덟":1380,"덢":1381,"덣":1382,"덤":1383,"덥":1384,"덦":1385,"덧":1386,"덨":1387,"덩":1388,"덪":1389,"덫":1390,"덬":1391,"덭":1392,"덮":1393,"덯":1394,"데":1395,"덱":1396,"덲":1397,"덴":1398,"덷":1399,"델":1400,"뎀":1401,"뎁":1402,"뎃":1403,"뎄":1404,"뎅":1405,"뎆":1406,"뎇":1407,"뎈":1408,"뎉":1409,"뎊":1410,"뎋":1411,"뎌":1412,"뎍":1413,"뎐":1414,"뎓":1415,"뎔":1416,"뎜":1417,"뎝":1418,"뎟":1419,"뎠":1420,"뎡":1421,"뎦":1422,"뎧":1423,"뎨":1424,"뎬":1425,"뎰":1426,"뎽":1427,"도":1428,"독":1429,"돆":1430,"돇":1431,"돈":1432,"돉":1433,"돋":1434,"돌":1435,"돍":1436,"돎":1437,"돏":1438,"돐":1439,"돑":1440,"돒":1441,"돓":1442,"돔":1443,"돕":1444,"돗":1445,"돘":1446,"동":1447,"돚":1448,"돛":1449,"돜":1450,"돝":1451,"돞":1452,"돟":1453,"돠":1454,"돡":1455,"돤":1456,"돨":1457,"돩":1458,"돰":1459,"돱":1460,"돳":1461,"돴":1462,"돵":1463,"돶":1464,"돸":1465,"돼":1466,"돽":1467,"돾":1468,"됀":1469,"됃":1470,"됄":1471,"됋":1472,"됌":1473,"됍":1474,"됏":1475,"됐":1476,"됑":1477,"됒":1478,"됔":1479,"됗":1480,"되":1481,"됙":1482,"된":1483,"됝":1484,"됟":1485,"될":1486,"됡":1487,"됢":1488,"됣":1489,"됤":1490,"됥":1491,"됦":1492,"됨":1493,"됩":1494,"됫":1495,"됬":1496,"됭":1497,"됮":1498,"됯":1499,"됰":1500,"됱":1501,"됲":1502,"됳":1503,"됴":1504,"됵":1505,"됸":1506,"됻":1507,"됼":1508,"둄":1509,"둅":1510,"둇":1511,"둉":1512,"둊":1513,"둋":1514,"둍":1515,"둏":1516,"두":1517,"둑":1518,"둔":1519,"둗":1520,"둘":1521,"둙":1522,"둚":1523,"둞":1524,"둟":1525,"둠":1526,"둡":1527,"둣":1528,"둤":1529,"둥":1530,"둦":1531,"둧":1532,"둨":1533,"둩":1534,"둪":1535,"둫":1536,"둬":1537,"둭":1538,"둯":1539,"둰":1540,"둴":1541,"둼":1542,"둽":1543,"둿":1544,"뒀":1545,"뒁":1546,"뒄":1547,"뒇":1548,"뒈":1549,"뒉":1550,"뒌":1551,"뒐":1552,"뒘":1553,"뒙":1554,"뒛":1555,"뒜":1556,"뒝":1557,"뒞":1558,"뒤":1559,"뒥":1560,"뒨":1561,"뒫":1562,"뒬":1563,"뒴":1564,"뒵":1565,"뒷":1566,"뒸":1567,"뒹":1568,"뒺":1569,"뒽":1570,"뒿":1571,"듀":1572,"듁":1573,"듄":1574,"듈":1575,"듐":1576,"듑":1577,"듓":1578,"듕":1579,"드":1580,"득":1581,"듞":1582,"듟":1583,"든":1584,"듡":1585,"듢":1586,"듣":1587,"들":1588,"듥":1589,"듦":1590,"듧":1591,"듨":1592,"듩":1593,"듪":1594,"듫":1595,"듬":1596,"듭":1597,"듯":1598,"듰":1599,"등":1600,"듲":1601,"듳":1602,"듴":1603,"듵":1604,"듶":1605,"듷":1606,"듸":1607,"듹":1608,"듼":1609,"딀":1610,"딈":1611,"딉":1612,"딋":1613,"딍":1614,"딒":1615,"디":1616,"딕":1617,"딖":1618,"딘":1619,"딙":1620,"딛":1621,"딜":1622,"딝":1623,"딞":1624,"딤":1625,"딥":1626,"딦":1627,"딧":1628,"딨":1629,"딩":1630,"딪":1631,"딫":1632,"딬":1633,"딭":1634,"딮":1635,"딯":1636,"따":1637,"딱":1638,"딲":1639,"딳":1640,"딴":1641,"딵":1642,"딷":1643,"딸":1644,"딹":1645,"딺":1646,"딻":1647,"딽":1648,"딿":1649,"땀":1650,"땁":1651,"땃":1652,"땄":1653,"땅":1654,"땆":1655,"땈":1656,"땉":1657,"땋":1658,"때":1659,"땍":1660,"땎":1661,"땐":1662,"땓":1663,"땔":1664,"땜":1665,"땝":1666,"땟":1667,"땠":1668,"땡":1669,"땢":1670,"땣":1671,"땤":1672,"땦":1673,"땧":1674,"땨":1675,"땩":1676,"땬":1677,"땰":1678,"땸":1679,"땽":1680,"떄":1681,"떅":1682,"떈":1683,"떌":1684,"떔":1685,"떗":1686,"떘":1687,"떙":1688,"떠":1689,"떡":1690,"떢":1691,"떣":1692,"떤":1693,"떥":1694,"떦":1695,"떧":1696,"떨":1697,"떩":1698,"떪":1699,"떫":1700,"떮":1701,"떯":1702,"떰":1703,"떱":1704,"떳":1705,"떴":1706,"떵":1707,"떶":1708,"떷":1709,"떸":1710,"떹":1711,"떺":1712,"떻":1713,"떼":1714,"떽":1715,"떾":1716,"뗀":1717,"뗄":1718,"뗌":1719,"뗍":1720,"뗏":1721,"뗐":1722,"뗑":1723,"뗔":1724,"뗗":1725,"뗘":1726,"뗙":1727,"뗜":1728,"뗠":1729,"뗨":1730,"뗩":1731,"뗫":1732,"뗬":1733,"뗭":1734,"뗳":1735,"뗴":1736,"뗵":1737,"뗸":1738,"뗼":1739,"똇":1740,"똉":1741,"똏":1742,"또":1743,"똑":1744,"똒":1745,"똔":1746,"똗":1747,"똘":1748,"똙":1749,"똚":1750,"똝":1751,"똟":1752,"똠":1753,"똡":1754,"똣":1755,"똥":1756,"똦":1757,"똧":1758,"똨":1759,"똩":1760,"똫":1761,"똬":1762,"똭":1763,"똰":1764,"똴":1765,"똵":1766,"똿":1767,"뙁":1768,"뙇":1769,"뙈":1770,"뙌":1771,"뙛":1772,"뙜":1773,"뙝":1774,"뙡":1775,"뙤":1776,"뙥":1777,"뙨":1778,"뙬":1779,"뙴":1780,"뙷":1781,"뙸":1782,"뙹":1783,"뙿":1784,"뚀":1785,"뚁":1786,"뚈":1787,"뚕":1788,"뚜":1789,"뚝":1790,"뚞":1791,"뚠":1792,"뚢":1793,"뚣":1794,"뚤":1795,"뚥":1796,"뚦":1797,"뚧":1798,"뚨":1799,"뚫":1800,"뚬":1801,"뚭":1802,"뚯":1803,"뚱":1804,"뚴":1805,"뚵":1806,"뚷":1807,"뚸":1808,"뚹":1809,"뚼":1810,"뛀":1811,"뛋":1812,"뛌":1813,"뛍":1814,"뛔":1815,"뛕":1816,"뛥":1817,"뛧":1818,"뛨":1819,"뛬":1820,"뛰":1821,"뛱":1822,"뛴":1823,"뛸":1824,"뜀":1825,"뜁":1826,"뜃":1827,"뜄":1828,"뜅":1829,"뜌":1830,"뜍":1831,"뜐":1832,"뜔":1833,"뜛":1834,"뜝":1835,"뜡":1836,"뜨":1837,"뜩":1838,"뜪":1839,"뜬":1840,"뜮":1841,"뜯":1842,"뜰":1843,"뜱":1844,"뜳":1845,"뜷":1846,"뜸":1847,"뜹":1848,"뜻":1849,"뜼":1850,"뜽":1851,"뜾":1852,"뜿":1853,"띀":1854,"띁":1855,"띃":1856,"띄":1857,"띅":1858,"띈":1859,"띌":1860,"띔":1861,"띕":1862,"띗":1863,"띙":1864,"띟":1865,"띠":1866,"띡":1867,"띤":1868,"띧":1869,"띨":1870,"띰":1871,"띱":1872,"띳":1873,"띴":1874,"띵":1875,"띶":1876,"띸":1877,"띻":1878,"라":1879,"락":1880,"띾":1881,"띿":1882,"란":1883,"랁":1884,"랂":1885,"랃":1886,"랄":1887,"랅":1888,"랆":1889,"랇":1890,"랈":1891,"랉":1892,"랊":1893,"랋":1894,"람":1895,"랍":1896,"랎":1897,"랏":1898,"랐":1899,"랑":1900,"랒":1901,"랓":1902,"랔":1903,"랕":1904,"랖":1905,"랗":1906,"래":1907,"랙":1908,"랚":1909,"랜":1910,"랟":1911,"랠":1912,"램":1913,"랩":1914,"랫":1915,"랬":1916,"랭":1917,"랮":1918,"랯":1919,"랰":1920,"랱":1921,"랲":1922,"랳":1923,"랴":1924,"략":1925,"랸":1926,"랺":1927,"랻":1928,"랼":1929,"럄":1930,"럅":1931,"럆":1932,"럇":1933,"럈":1934,"량":1935,"럊":1936,"럌":1937,"럎":1938,"럏":1939,"럐":1940,"럑":1941,"럔":1942,"럕":1943,"럖":1944,"럗":1945,"럘":1946,"럠":1947,"럣":1948,"럤":1949,"럥":1950,"러":1951,"럭":1952,"럮":1953,"럯":1954,"런":1955,"럱":1956,"럲":1957,"럳":1958,"럴":1959,"럵":1960,"럶":1961,"럷":1962,"럸":1963,"럹":1964,"럻":1965,"럼":1966,"럽":1967,"럾":1968,"럿":1969,"렀":1970,"렁":1971,"렂":1972,"렃":1973,"렄":1974,"렅":1975,"렆":1976,"렇":1977,"레":1978,"렉":1979,"렊":1980,"렋":1981,"렌":1982,"렏":1983,"렐":1984,"렑":1985,"렘":1986,"렙":1987,"렛":1988,"렜":1989,"렝":1990,"렞":1991,"렠":1992,"렡":1993,"렢":1994,"렣":1995,"려":1996,"력":1997,"렦":1998,"렧":1999,"련":2000,"렩":2001,"렪":2002,"렫":2003,"렬":2004,"렭":2005,"렳":2006,"렴":2007,"렵":2008,"렶":2009,"렷":2010,"렸":2011,"령":2012,"렺":2013,"렻":2014,"렼":2015,"렽":2016,"렾":2017,"렿":2018,"례":2019,"롁":2020,"롄":2021,"롇":2022,"롈":2023,"롐":2024,"롑":2025,"롓":2026,"롔":2027,"롕":2028,"롘":2029,"로":2030,"록":2031,"롞":2032,"롟":2033,"론":2034,"롡":2035,"롢":2036,"롣":2037,"롤":2038,"롥":2039,"롦":2040,"롫":2041,"롬":2042,"롭":2043,"롮":2044,"롯":2045,"롰":2046,"롱":2047,"롲":2048,"롳":2049,"롴":2050,"롵":2051,"롶":2052,"롷":2053,"롸":2054,"롹":2055,"롼":2056,"뢀":2057,"뢈":2058,"뢉":2059,"뢋":2060,"뢌":2061,"뢍":2062,"뢐":2063,"뢓":2064,"뢔":2065,"뢕":2066,"뢘":2067,"뢜":2068,"뢧":2069,"뢨":2070,"뢩":2071,"뢰":2072,"뢱":2073,"뢴":2074,"뢸":2075,"룀":2076,"룁":2077,"룃":2078,"룄":2079,"룅":2080,"료":2081,"룍":2082,"룐":2083,"룓":2084,"룔":2085,"룜":2086,"룝":2087,"룟":2088,"룠":2089,"룡":2090,"룢":2091,"룤":2092,"루":2093,"룩":2094,"룬":2095,"룯":2096,"룰":2097,"룸":2098,"룹":2099,"룻":2100,"룽":2101,"룾":2102,"룿":2103,"뤀":2104,"뤁":2105,"뤂":2106,"뤃":2107,"뤄":2108,"뤅":2109,"뤈":2110,"뤌":2111,"뤔":2112,"뤕":2113,"뤗":2114,"뤘":2115,"뤙":2116,"뤟":2117,"뤠":2118,"뤡":2119,"뤤":2120,"뤨":2121,"뤰":2122,"뤱":2123,"뤳":2124,"뤴":2125,"뤵":2126,"뤸":2127,"뤼":2128,"뤽":2129,"륀":2130,"륄":2131,"륌":2132,"륍":2133,"륏":2134,"륐":2135,"륑":2136,"류":2137,"륙":2138,"륜":2139,"륝":2140,"륟":2141,"률":2142,"륧":2143,"륨":2144,"륩":2145,"륫":2146,"륭":2147,"륮":2148,"륰":2149,"륲":2150,"륳":2151,"르":2152,"륵":2153,"륶":2154,"른":2155,"륹":2156,"륻":2157,"를":2158,"륽":2159,"륾":2160,"륿":2161,"릀":2162,"릁":2163,"릂":2164,"릃":2165,"름":2166,"릅":2167,"릆":2168,"릇":2169,"릈":2170,"릉":2171,"릊":2172,"릋":2173,"릌":2174,"릍":2175,"릎":2176,"릏":2177,"릐":2178,"릑":2179,"릔":2180,"릘":2181,"릠":2182,"릡":2183,"릣":2184,"릥":2185,"릫":2186,"리":2187,"릭":2188,"릮":2189,"린":2190,"릱":2191,"릳":2192,"릴":2193,"릵":2194,"릶":2195,"릷":2196,"릸":2197,"릹":2198,"릺":2199,"릻":2200,"림":2201,"립":2202,"릾":2203,"릿":2204,"맀":2205,"링":2206,"맂":2207,"맃":2208,"맄":2209,"맅":2210,"맆":2211,"맇":2212,"마":2213,"막":2214,"맊":2215,"맋":2216,"만":2217,"맍":2218,"많":2219,"맏":2220,"말":2221,"맑":2222,"맒":2223,"맓":2224,"맔":2225,"맕":2226,"맖":2227,"맗":2228,"맘":2229,"맙":2230,"맚":2231,"맛":2232,"맜":2233,"망":2234,"맞":2235,"맟":2236,"맠":2237,"맡":2238,"맢":2239,"맣":2240,"매":2241,"맥":2242,"맨":2243,"맩":2244,"맪":2245,"맫":2246,"맬":2247,"맴":2248,"맵":2249,"맷":2250,"맸":2251,"맹":2252,"맺":2253,"맻":2254,"맼":2255,"맽":2256,"맾":2257,"맿":2258,"먀":2259,"먁":2260,"먄":2261,"먆":2262,"먇":2263,"먈":2264,"먐":2265,"먑":2266,"먓":2267,"먕":2268,"먖":2269,"먗":2270,"먙":2271,"먛":2272,"먜":2273,"먝":2274,"먠":2275,"먤":2276,"먱":2277,"머":2278,"먹":2279,"먺":2280,"먻":2281,"먼":2282,"먽":2283,"먾":2284,"먿":2285,"멀":2286,"멁":2287,"멂":2288,"멄":2289,"멈":2290,"멉":2291,"멊":2292,"멋":2293,"멌":2294,"멍":2295,"멎":2296,"멏":2297,"멐":2298,"멑":2299,"멒":2300,"멓":2301,"메":2302,"멕":2303,"멘":2304,"멛":2305,"멜":2306,"멤":2307,"멥":2308,"멧":2309,"멨":2310,"멩":2311,"멪":2312,"멫":2313,"멬":2314,"멭":2315,"멮":2316,"며":2317,"멱":2318,"멲":2319,"면":2320,"멵":2321,"멶":2322,"멷":2323,"멸":2324,"멺":2325,"멼":2326,"멿":2327,"몀":2328,"몁":2329,"몃":2330,"몄":2331,"명":2332,"몆":2333,"몇":2334,"몈":2335,"몉":2336,"몊":2337,"몋":2338,"몌":2339,"몍":2340,"몐":2341,"몔":2342,"몜":2343,"몟":2344,"몡":2345,"몢":2346,"몣":2347,"모":2348,"목":2349,"몪":2350,"몫":2351,"몬":2352,"몭":2353,"몮":2354,"몯":2355,"몰":2356,"몱":2357,"몲":2358,"몳":2359,"몴":2360,"몶":2361,"몷":2362,"몸":2363,"몹":2364,"몺":2365,"못":2366,"몼":2367,"몽":2368,"몾":2369,"몿":2370,"뫀":2371,"뫁":2372,"뫂":2373,"뫃":2374,"뫄":2375,"뫅":2376,"뫈":2377,"뫌":2378,"뫔":2379,"뫕":2380,"뫗":2381,"뫘":2382,"뫙":2383,"뫚":2384,"뫟":2385,"뫠":2386,"뫡":2387,"뫤":2388,"뫴":2389,"뫵":2390,"뫼":2391,"뫽":2392,"묀":2393,"묄":2394,"묌":2395,"묍":2396,"묏":2397,"묑":2398,"묘":2399,"묙":2400,"묜":2401,"묠":2402,"묨":2403,"묫":2404,"묭":2405,"묯":2406,"무":2407,"묵":2408,"묶":2409,"묷":2410,"문":2411,"묹":2412,"묺":2413,"묻":2414,"물":2415,"묽":2416,"묾":2417,"묿":2418,"뭀":2419,"뭁":2420,"뭂":2421,"뭃":2422,"뭄":2423,"뭅":2424,"뭇":2425,"뭈":2426,"뭉":2427,"뭊":2428,"뭋":2429,"뭌":2430,"뭍":2431,"뭎":2432,"뭏":2433,"뭐":2434,"뭑":2435,"뭔":2436,"뭕":2437,"뭗":2438,"뭘":2439,"뭙":2440,"뭚":2441,"뭛":2442,"뭟":2443,"뭠":2444,"뭡":2445,"뭣":2446,"뭤":2447,"뭥":2448,"뭦":2449,"뭧":2450,"뭨":2451,"뭩":2452,"뭪":2453,"뭫":2454,"뭬":2455,"뭭":2456,"뭰":2457,"뭴":2458,"뭽":2459,"뭿":2460,"뮁":2461,"뮈":2462,"뮉":2463,"뮌":2464,"뮏":2465,"뮐":2466,"뮘":2467,"뮙":2468,"뮛":2469,"뮜":2470,"뮝":2471,"뮤":2472,"뮥":2473,"뮦":2474,"뮨":2475,"뮫":2476,"뮬":2477,"뮭":2478,"뮴":2479,"뮷":2480,"뮹":2481,"뮻":2482,"뮼":2483,"므":2484,"믁":2485,"믂":2486,"믄":2487,"믅":2488,"믆":2489,"믇":2490,"믈":2491,"믉":2492,"믌":2493,"믏":2494,"믐":2495,"믑":2496,"믓":2497,"믕":2498,"믖":2499,"믘":2500,"믙":2501,"믛":2502,"믜":2503,"믝":2504,"믠":2505,"믣":2506,"믤":2507,"믬":2508,"믯":2509,"믱":2510,"미":2511,"믹":2512,"믺":2513,"민":2514,"믽":2515,"믾":2516,"믿":2517,"밀":2518,"밁":2519,"밂":2520,"밄":2521,"밇":2522,"밈":2523,"밉":2524,"밊":2525,"밋":2526,"밌":2527,"밍":2528,"밎":2529,"및":2530,"밐":2531,"밑":2532,"밒":2533,"밓":2534,"바":2535,"박":2536,"밖":2537,"밗":2538,"반":2539,"밙":2540,"밚":2541,"받":2542,"발":2543,"밝":2544,"밞":2545,"밟":2546,"밠":2547,"밡":2548,"밢":2549,"밣":2550,"밤":2551,"밥":2552,"밦":2553,"밧":2554,"밨":2555,"방":2556,"밪":2557,"밫":2558,"밬":2559,"밭":2560,"밮":2561,"밯":2562,"배":2563,"백":2564,"밲":2565,"밳":2566,"밴":2567,"밷":2568,"밸":2569,"밹":2570,"뱀":2571,"뱁":2572,"뱃":2573,"뱄":2574,"뱅":2575,"뱆":2576,"뱇":2577,"뱈":2578,"뱉":2579,"뱊":2580,"뱋":2581,"뱌":2582,"뱍":2583,"뱎":2584,"뱐":2585,"뱓":2586,"뱔":2587,"뱕":2588,"뱗":2589,"뱛":2590,"뱜":2591,"뱝":2592,"뱟":2593,"뱡":2594,"뱤":2595,"뱥":2596,"뱨":2597,"뱩":2598,"뱬":2599,"뱰":2600,"뱸":2601,"뱻":2602,"뱽":2603,"벁":2604,"버":2605,"벅":2606,"벆":2607,"번":2608,"벉":2609,"벊":2610,"벋":2611,"벌":2612,"벍":2613,"벎":2614,"벏":2615,"벐":2616,"벑":2617,"벒":2618,"벓":2619,"범":2620,"법":2621,"벖":2622,"벗":2623,"벘":2624,"벙":2625,"벚":2626,"벛":2627,"벜":2628,"벝":2629,"벞":2630,"벟":2631,"베":2632,"벡":2633,"벤":2634,"벥":2635,"벧":2636,"벨":2637,"벩":2638,"벫":2639,"벰":2640,"벱":2641,"벲":2642,"벳":2643,"벴":2644,"벵":2645,"벶":2646,"벷":2647,"벸":2648,"벹":2649,"벻":2650,"벼":2651,"벽":2652,"벾":2653,"변":2654,"볁":2655,"볂":2656,"볃":2657,"별":2658,"볅":2659,"볆":2660,"볇":2661,"볈":2662,"볋":2663,"볌":2664,"볍":2665,"볎":2666,"볏":2667,"볐":2668,"병":2669,"볒":2670,"볓":2671,"볔":2672,"볕":2673,"볖":2674,"볗":2675,"볘":2676,"볙":2677,"볜":2678,"볠":2679,"볫":2680,"볭":2681,"볱":2682,"보":2683,"복":2684,"볶":2685,"볷":2686,"본":2687,"볹":2688,"볺":2689,"볻":2690,"볼":2691,"볽":2692,"볾":2693,"볿":2694,"봀":2695,"봁":2696,"봂":2697,"봃":2698,"봄":2699,"봅":2700,"봆":2701,"봇":2702,"봈":2703,"봉":2704,"봊":2705,"봋":2706,"봌":2707,"봍":2708,"봎":2709,"봏":2710,"봐":2711,"봑":2712,"봒":2713,"봔":2714,"봗":2715,"봘":2716,"봙":2717,"봟":2718,"봠":2719,"봡":2720,"봣":2721,"봤":2722,"봥":2723,"봦":2724,"봨":2725,"봩":2726,"봫":2727,"봬":2728,"봭":2729,"봰":2730,"봴":2731,"봵":2732,"봽":2733,"뵀":2734,"뵁":2735,"뵈":2736,"뵉":2737,"뵌":2738,"뵏":2739,"뵐":2740,"뵑":2741,"뵘":2742,"뵙":2743,"뵛":2744,"뵜":2745,"뵝":2746,"뵞":2747,"뵤":2748,"뵥":2749,"뵨":2750,"뵬":2751,"뵴":2752,"뵵":2753,"뵷":2754,"뵹":2755,"뵺":2756,"뵽":2757,"부":2758,"북":2759,"붂":2760,"붃":2761,"분":2762,"붅":2763,"붆":2764,"붇":2765,"불":2766,"붉":2767,"붊":2768,"붋":2769,"붌":2770,"붍":2771,"붎":2772,"붏":2773,"붐":2774,"붑":2775,"붒":2776,"붓":2777,"붔":2778,"붕":2779,"붖":2780,"붗":2781,"붘":2782,"붙":2783,"붚":2784,"붛":2785,"붜":2786,"붝":2787,"붠":2788,"붤":2789,"붥":2790,"붭":2791,"붯":2792,"붰":2793,"붱":2794,"붴":2795,"붸":2796,"붹":2797,"붼":2798,"뷀":2799,"뷁":2800,"뷃":2801,"뷉":2802,"뷋":2803,"뷍":2804,"뷔":2805,"뷕":2806,"뷘":2807,"뷜":2808,"뷤":2809,"뷥":2810,"뷧":2811,"뷩":2812,"뷰":2813,"뷱":2814,"뷴":2815,"뷶":2816,"뷷":2817,"뷸":2818,"뷹":2819,"븀":2820,"븁":2821,"븂":2822,"븃":2823,"븅":2824,"븇":2825,"븈":2826,"븉":2827,"븋":2828,"브":2829,"븍":2830,"븎":2831,"븐":2832,"븓":2833,"블":2834,"븕":2835,"븘":2836,"븜":2837,"븝":2838,"븞":2839,"븟":2840,"븡":2841,"븢":2842,"븣":2843,"븤":2844,"븥":2845,"븧":2846,"븨":2847,"븩":2848,"븬":2849,"븰":2850,"븸":2851,"븹":2852,"븻":2853,"븽":2854,"비":2855,"빅":2856,"빆":2857,"빈":2858,"빋":2859,"빌":2860,"빍":2861,"빎":2862,"빏":2863,"빓":2864,"빔":2865,"빕":2866,"빗":2867,"빘":2868,"빙":2869,"빚":2870,"빛":2871,"빜":2872,"빝":2873,"빞":2874,"빟":2875,"빠":2876,"빡":2877,"빢":2878,"빣":2879,"빤":2880,"빧":2881,"빨":2882,"빩":2883,"빪":2884,"빫":2885,"빬":2886,"빭":2887,"빮":2888,"빯":2889,"빰":2890,"빱":2891,"빳":2892,"빴":2893,"빵":2894,"빶":2895,"빷":2896,"빸":2897,"빹":2898,"빺":2899,"빻":2900,"빼":2901,"빽":2902,"빾":2903,"뺀":2904,"뺃":2905,"뺄":2906,"뺅":2907,"뺌":2908,"뺍":2909,"뺏":2910,"뺐":2911,"뺑":2912,"뺒":2913,"뺓":2914,"뺔":2915,"뺕":2916,"뺗":2917,"뺘":2918,"뺙":2919,"뺜":2920,"뺠":2921,"뺨":2922,"뺩":2923,"뺫":2924,"뺭":2925,"뺴":2926,"뺵":2927,"뺶":2928,"뺸":2929,"뺼":2930,"뻄":2931,"뻅":2932,"뻇":2933,"뻈":2934,"뻉":2935,"뻐":2936,"뻑":2937,"뻒":2938,"뻔":2939,"뻕":2940,"뻖":2941,"뻗":2942,"뻘":2943,"뻙":2944,"뻟":2945,"뻠":2946,"뻡":2947,"뻣":2948,"뻤":2949,"뻥":2950,"뻦":2951,"뻨":2952,"뻩":2953,"뻫":2954,"뻬":2955,"뻭":2956,"뻰":2957,"뻴":2958,"뻼":2959,"뻿":2960,"뼀":2961,"뼁":2962,"뼈":2963,"뼉":2964,"뼊":2965,"뼌":2966,"뼏":2967,"뼐":2968,"뼘":2969,"뼙":2970,"뼛":2971,"뼜":2972,"뼝":2973,"뼡":2974,"뼤":2975,"뼥":2976,"뼷":2977,"뽀":2978,"뽁":2979,"뽂":2980,"뽄":2981,"뽇":2982,"뽈":2983,"뽉":2984,"뽐":2985,"뽑":2986,"뽒":2987,"뽓":2988,"뽕":2989,"뽖":2990,"뽘":2991,"뽚":2992,"뽜":2993,"뽝":2994,"뽠":2995,"뽤":2996,"뽥":2997,"뽭":2998,"뽯":2999,"뽰":3000,"뽱":3001,"뽷":3002,"뽸":3003,"뽹":3004,"뾀":3005,"뾍":3006,"뾔":3007,"뾕":3008,"뾜":3009,"뾥":3010,"뾰":3011,"뾱":3012,"뾴":3013,"뾸":3014,"뿀":3015,"뿁":3016,"뿃":3017,"뿅":3018,"뿌":3019,"뿍":3020,"뿎":3021,"뿐":3022,"뿑":3023,"뿓":3024,"뿔":3025,"뿕":3026,"뿛":3027,"뿜":3028,"뿝":3029,"뿟":3030,"뿠":3031,"뿡":3032,"뿤":3033,"뿥":3034,"뿧":3035,"뿨":3036,"뿩":3037,"뿰":3038,"뿽":3039,"쀄":3040,"쀅":3041,"쀌":3042,"쀍":3043,"쀏":3044,"쀠":3045,"쀨":3046,"쀵":3047,"쀼":3048,"쀽":3049,"쀾":3050,"쁀":3051,"쁄":3052,"쁌":3053,"쁍":3054,"쁑":3055,"쁘":3056,"쁙":3057,"쁜":3058,"쁝":3059,"쁟":3060,"쁠":3061,"쁨":3062,"쁩":3063,"쁫":3064,"쁭":3065,"쁮":3066,"쁴":3067,"쁸":3068,"쁼":3069,"삉":3070,"삐":3071,"삑":3072,"삔":3073,"삗":3074,"삘":3075,"삠":3076,"삡":3077,"삣":3078,"삤":3079,"삥":3080,"삦":3081,"삧":3082,"삩":3083,"사":3084,"삭":3085,"삮":3086,"삯":3087,"산":3088,"삱":3089,"삲":3090,"삳":3091,"살":3092,"삵":3093,"삶":3094,"삷":3095,"삸":3096,"삹":3097,"삺":3098,"삻":3099,"삼":3100,"삽":3101,"삾":3102,"삿":3103,"샀":3104,"상":3105,"샂":3106,"샃":3107,"샄":3108,"샅":3109,"샆":3110,"샇":3111,"새":3112,"색":3113,"샊":3114,"샋":3115,"샌":3116,"샎":3117,"샏":3118,"샐":3119,"샑":3120,"샒":3121,"샓":3122,"샔":3123,"샕":3124,"샗":3125,"샘":3126,"샙":3127,"샚":3128,"샛":3129,"샜":3130,"생":3131,"샞":3132,"샟":3133,"샠":3134,"샡":3135,"샢":3136,"샣":3137,"샤":3138,"샥":3139,"샦":3140,"샨":3141,"샫":3142,"샬":3143,"샮":3144,"샴":3145,"샵":3146,"샷":3147,"샸":3148,"샹":3149,"샼":3150,"샽":3151,"샾":3152,"샿":3153,"섀":3154,"섁":3155,"섂":3156,"섃":3157,"섄":3158,"섈":3159,"섉":3160,"섊":3161,"섐":3162,"섑":3163,"섓":3164,"섔":3165,"섕":3166,"섘":3167,"서":3168,"석":3169,"섞":3170,"섟":3171,"선":3172,"섡":3173,"섢":3174,"섣":3175,"설":3176,"섥":3177,"섦":3178,"섧":3179,"섨":3180,"섩":3181,"섪":3182,"섫":3183,"섬":3184,"섭":3185,"섮":3186,"섯":3187,"섰":3188,"성":3189,"섲":3190,"섳":3191,"섴":3192,"섵":3193,"섶":3194,"섷":3195,"세":3196,"섹":3197,"섺":3198,"섻":3199,"센":3200,"섽":3201,"섿":3202,"셀":3203,"셁":3204,"셅":3205,"셇":3206,"셈":3207,"셉":3208,"셊":3209,"셋":3210,"셌":3211,"셍":3212,"셎":3213,"셏":3214,"셐":3215,"셑":3216,"셒":3217,"셓":3218,"셔":3219,"셕":3220,"셖":3221,"션":3222,"셛":3223,"셜":3224,"셟":3225,"셤":3226,"셥":3227,"셧":3228,"셨":3229,"셩":3230,"셫":3231,"셬":3232,"셭":3233,"셮":3234,"셯":3235,"셰":3236,"셱":3237,"셲":3238,"셴":3239,"셸":3240,"솀":3241,"솁":3242,"솃":3243,"솄":3244,"솅":3245,"솈":3246,"솉":3247,"솊":3248,"소":3249,"속":3250,"솎":3251,"솏":3252,"손":3253,"솑":3254,"솒":3255,"솓":3256,"솔":3257,"솕":3258,"솖":3259,"솘":3260,"솛":3261,"솜":3262,"솝":3263,"솟":3264,"솠":3265,"송":3266,"솢":3267,"솣":3268,"솤":3269,"솥":3270,"솦":3271,"솧":3272,"솨":3273,"솩":3274,"솬":3275,"솰":3276,"솸":3277,"솹":3278,"솻":3279,"솼":3280,"솽":3281,"쇄":3282,"쇅":3283,"쇆":3284,"쇇":3285,"쇈":3286,"쇌":3287,"쇔":3288,"쇕":3289,"쇗":3290,"쇘":3291,"쇙":3292,"쇜":3293,"쇝":3294,"쇟":3295,"쇠":3296,"쇡":3297,"쇢":3298,"쇣":3299,"쇤":3300,"쇨":3301,"쇰":3302,"쇱":3303,"쇳":3304,"쇴":3305,"쇵":3306,"쇸":3307,"쇼":3308,"쇽":3309,"숀":3310,"숄":3311,"숌":3312,"숍":3313,"숏":3314,"숐":3315,"숑":3316,"숒":3317,"숔":3318,"숕":3319,"숖":3320,"숗":3321,"수":3322,"숙":3323,"숚":3324,"숛":3325,"순":3326,"숝":3327,"숞":3328,"숟":3329,"술":3330,"숡":3331,"숢":3332,"숣":3333,"숤":3334,"숧":3335,"숨":3336,"숩":3337,"숫":3338,"숬":3339,"숭":3340,"숮":3341,"숯":3342,"숰":3343,"숱":3344,"숲":3345,"숳":3346,"숴":3347,"숵":3348,"숶":3349,"숸":3350,"숼":3351,"쉄":3352,"쉅":3353,"쉆":3354,"쉇":3355,"쉈":3356,"쉉":3357,"쉌":3358,"쉏":3359,"쉐":3360,"쉑":3361,"쉒":3362,"쉓":3363,"쉔":3364,"쉗":3365,"쉘":3366,"쉙":3367,"쉛":3368,"쉜":3369,"쉠":3370,"쉡":3371,"쉣":3372,"쉤":3373,"쉥":3374,"쉦":3375,"쉧":3376,"쉨":3377,"쉩":3378,"쉪":3379,"쉫":3380,"쉬":3381,"쉭":3382,"쉮":3383,"쉰":3384,"쉲":3385,"쉳":3386,"쉴":3387,"쉻":3388,"쉼":3389,"쉽":3390,"쉾":3391,"쉿":3392,"슀":3393,"슁":3394,"슂":3395,"슄":3396,"슅":3397,"슆":3398,"슇":3399,"슈":3400,"슉":3401,"슊":3402,"슌":3403,"슏":3404,"슐":3405,"슘":3406,"슙":3407,"슛":3408,"슝":3409,"슠":3410,"슢":3411,"스":3412,"슥":3413,"슦":3414,"슧":3415,"슨":3416,"슩":3417,"슫":3418,"슬":3419,"슭":3420,"슮":3421,"슯":3422,"슰":3423,"슲":3424,"슳":3425,"슴":3426,"습":3427,"슶":3428,"슷":3429,"슸":3430,"승":3431,"슺":3432,"슻":3433,"슼":3434,"슽":3435,"슾":3436,"슿":3437,"싀":3438,"싁":3439,"싂":3440,"싄":3441,"싅":3442,"싆":3443,"싇":3444,"싈":3445,"싐":3446,"싑":3447,"싓":3448,"싕":3449,"싘":3450,"싚":3451,"시":3452,"식":3453,"싞":3454,"싟":3455,"신":3456,"싡":3457,"싢":3458,"싣":3459,"실":3460,"싥":3461,"싦":3462,"싧":3463,"싨":3464,"싩":3465,"싪":3466,"싫":3467,"심":3468,"십":3469,"싮":3470,"싯":3471,"싰":3472,"싱":3473,"싲":3474,"싳":3475,"싴":3476,"싵":3477,"싶":3478,"싷":3479,"싸":3480,"싹":3481,"싺":3482,"싻":3483,"싼":3484,"싾":3485,"싿":3486,"쌀":3487,"쌂":3488,"쌃":3489,"쌇":3490,"쌈":3491,"쌉":3492,"쌋":3493,"쌌":3494,"쌍":3495,"쌎":3496,"쌐":3497,"쌑":3498,"쌒":3499,"쌓":3500,"쌔":3501,"쌕":3502,"쌖":3503,"쌗":3504,"쌘":3505,"쌛":3506,"쌜":3507,"쌝":3508,"쌤":3509,"쌥":3510,"쌧":3511,"쌨":3512,"쌩":3513,"쌬":3514,"쌭":3515,"쌯":3516,"쌰":3517,"쌱":3518,"쌲":3519,"쌴":3520,"쌸":3521,"썀":3522,"썁":3523,"썃":3524,"썄":3525,"썅":3526,"썋":3527,"썌":3528,"썍":3529,"썎":3530,"썐":3531,"썖":3532,"썜":3533,"썝":3534,"썟":3535,"썠":3536,"썡":3537,"썤":3538,"써":3539,"썩":3540,"썪":3541,"썫":3542,"썬":3543,"썯":3544,"썰":3545,"썱":3546,"썸":3547,"썹":3548,"썻":3549,"썼":3550,"썽":3551,"썾":3552,"쎀":3553,"쎁":3554,"쎃":3555,"쎄":3556,"쎅":3557,"쎆":3558,"쎇":3559,"쎈":3560,"쎌":3561,"쎍":3562,"쎐":3563,"쎓":3564,"쎔":3565,"쎕":3566,"쎗":3567,"쎘":3568,"쎙":3569,"쎜":3570,"쎝":3571,"쎟":3572,"쎠":3573,"쎡":3574,"쎢":3575,"쎤":3576,"쎨":3577,"쎰":3578,"쎱":3579,"쎳":3580,"쎴":3581,"쎵":3582,"쎼":3583,"쎽":3584,"쎾":3585,"쏀":3586,"쏃":3587,"쏍":3588,"쏏":3589,"쏐":3590,"쏔":3591,"쏕":3592,"쏖":3593,"쏗":3594,"쏘":3595,"쏙":3596,"쏚":3597,"쏜":3598,"쏟":3599,"쏠":3600,"쏨":3601,"쏩":3602,"쏫":3603,"쏬":3604,"쏭":3605,"쏮":3606,"쏰":3607,"쏱":3608,"쏳":3609,"쏴":3610,"쏵":3611,"쏸":3612,"쏻":3613,"쏼":3614,"쐄":3615,"쐅":3616,"쐇":3617,"쐈":3618,"쐉":3619,"쐏":3620,"쐐":3621,"쐑":3622,"쐒":3623,"쐔":3624,"쐡":3625,"쐣":3626,"쐤":3627,"쐥":3628,"쐨":3629,"쐬":3630,"쐭":3631,"쐰":3632,"쐴":3633,"쐼":3634,"쐽":3635,"쐿":3636,"쑀":3637,"쑈":3638,"쑉":3639,"쑌":3640,"쑏":3641,"쑐":3642,"쑙":3643,"쑛":3644,"쑜":3645,"쑝":3646,"쑤":3647,"쑥":3648,"쑦":3649,"쑨":3650,"쑫":3651,"쑬":3652,"쑴":3653,"쑵":3654,"쑷":3655,"쑹":3656,"쑻":3657,"쑽":3658,"쑿":3659,"쒀":3660,"쒁":3661,"쒂":3662,"쒄":3663,"쒈":3664,"쒐":3665,"쒑":3666,"쒓":3667,"쒔":3668,"쒕":3669,"쒘":3670,"쒜":3671,"쒝":3672,"쒞":3673,"쒠":3674,"쒤":3675,"쒭":3676,"쒯":3677,"쒰":3678,"쒱":3679,"쒴":3680,"쒸":3681,"쒹":3682,"쒼":3683,"쓀":3684,"쓃":3685,"쓈":3686,"쓉":3687,"쓊":3688,"쓋":3689,"쓌":3690,"쓍":3691,"쓏":3692,"쓐":3693,"쓑":3694,"쓒":3695,"쓔":3696,"쓕":3697,"쓘":3698,"쓜":3699,"쓤":3700,"쓥":3701,"쓩":3702,"쓰":3703,"쓱":3704,"쓲":3705,"쓴":3706,"쓶":3707,"쓷":3708,"쓸":3709,"쓹":3710,"쓺":3711,"쓿":3712,"씀":3713,"씁":3714,"씂":3715,"씃":3716,"씄":3717,"씅":3718,"씆":3719,"씇":3720,"씈":3721,"씉":3722,"씊":3723,"씋":3724,"씌":3725,"씍":3726,"씐":3727,"씔":3728,"씗":3729,"씜":3730,"씝":3731,"씞":3732,"씟":3733,"씡":3734,"씢":3735,"씥":3736,"씦":3737,"씧":3738,"씨":3739,"씩":3740,"씪":3741,"씬":3742,"씮":3743,"씯":3744,"씰":3745,"씱":3746,"씳":3747,"씶":3748,"씷":3749,"씸":3750,"씹":3751,"씺":3752,"씻":3753,"씼":3754,"씽":3755,"씾":3756,"씿":3757,"앀":3758,"앁":3759,"앂":3760,"앃":3761,"아":3762,"악":3763,"앆":3764,"앇":3765,"안":3766,"앉":3767,"않":3768,"앋":3769,"알":3770,"앍":3771,"앎":3772,"앏":3773,"앐":3774,"앑":3775,"앒":3776,"앓":3777,"암":3778,"압":3779,"앖":3780,"앗":3781,"았":3782,"앙":3783,"앚":3784,"앛":3785,"앜":3786,"앝":3787,"앞":3788,"앟":3789,"애":3790,"액":3791,"앢":3792,"앤":3793,"앦":3794,"앧":3795,"앨":3796,"앩":3797,"앰":3798,"앱":3799,"앲":3800,"앳":3801,"앴":3802,"앵":3803,"앶":3804,"앷":3805,"앸":3806,"앹":3807,"앺":3808,"앻":3809,"야":3810,"약":3811,"앾":3812,"앿":3813,"얀":3814,"얁":3815,"얂":3816,"얃":3817,"얄":3818,"얅":3819,"얆":3820,"얇":3821,"얉":3822,"얊":3823,"얋":3824,"얌":3825,"얍":3826,"얎":3827,"얏":3828,"얐":3829,"양":3830,"얒":3831,"얓":3832,"얔":3833,"얕":3834,"얖":3835,"얗":3836,"얘":3837,"얙":3838,"얚":3839,"얜":3840,"얠":3841,"얨":3842,"얩":3843,"얪":3844,"얫":3845,"얬":3846,"얭":3847,"얮":3848,"얰":3849,"얳":3850,"어":3851,"억":3852,"얶":3853,"얷":3854,"언":3855,"얹":3856,"얺":3857,"얻":3858,"얼":3859,"얽":3860,"얾":3861,"얿":3862,"엀":3863,"엁":3864,"엂":3865,"엃":3866,"엄":3867,"업":3868,"없":3869,"엇":3870,"었":3871,"엉":3872,"엊":3873,"엋":3874,"엌":3875,"엍":3876,"엎":3877,"엏":3878,"에":3879,"엑":3880,"엒":3881,"엓":3882,"엔":3883,"엕":3884,"엗":3885,"엘":3886,"엙":3887,"엠":3888,"엡":3889,"엢":3890,"엣":3891,"엤":3892,"엥":3893,"엦":3894,"엧":3895,"엨":3896,"엩":3897,"엪":3898,"엫":3899,"여":3900,"역":3901,"엮":3902,"엯":3903,"연":3904,"엱":3905,"엲":3906,"엳":3907,"열":3908,"엵":3909,"엶":3910,"엷":3911,"엸":3912,"엹":3913,"엺":3914,"엻":3915,"염":3916,"엽":3917,"엾":3918,"엿":3919,"였":3920,"영":3921,"옂":3922,"옃":3923,"옄":3924,"옅":3925,"옆":3926,"옇":3927,"예":3928,"옉":3929,"옊":3930,"옌":3931,"옐":3932,"옒":3933,"옘":3934,"옙":3935,"옛":3936,"옜":3937,"옝":3938,"옞":3939,"옟":3940,"옠":3941,"옢":3942,"옣":3943,"오":3944,"옥":3945,"옦":3946,"옧":3947,"온":3948,"옩":3949,"옪":3950,"옫":3951,"올":3952,"옭":3953,"옮":3954,"옯":3955,"옰":3956,"옱":3957,"옲":3958,"옳":3959,"옴":3960,"옵":3961,"옶":3962,"옷":3963,"옸":3964,"옹":3965,"옺":3966,"옻":3967,"옼":3968,"옽":3969,"옾":3970,"옿":3971,"와":3972,"왁":3973,"왂":3974,"완":3975,"왅":3976,"왆":3977,"왇":3978,"왈":3979,"왉":3980,"왐":3981,"왑":3982,"왓":3983,"왔":3984,"왕":3985,"왖":3986,"왗":3987,"왘":3988,"왙":3989,"왚":3990,"왛":3991,"왜":3992,"왝":3993,"왠":3994,"왢":3995,"왤":3996,"왬":3997,"왭":3998,"왯":3999,"왰":4000,"왱":4001,"왲":4002,"왳":4003,"왴":4004,"외":4005,"왹":4006,"왼":4007,"욀":4008,"욈":4009,"욉":4010,"욋":4011,"욌":4012,"욍":4013,"욎":4014,"욏":4015,"욐":4016,"욓":4017,"요":4018,"욕":4019,"욖":4020,"욗":4021,"욘":4022,"욛":4023,"욜":4024,"욤":4025,"욥":4026,"욧":4027,"욨":4028,"용":4029,"욪":4030,"욫":4031,"욬":4032,"욭":4033,"욮":4034,"욯":4035,"우":4036,"욱":4037,"욲":4038,"운":4039,"욵":4040,"욶":4041,"욷":4042,"울":4043,"욹":4044,"욺":4045,"욻":4046,"욼":4047,"욽":4048,"욾":4049,"욿":4050,"움":4051,"웁":4052,"웂":4053,"웃":4054,"웄":4055,"웅":4056,"웆":4057,"웇":4058,"웈":4059,"웉":4060,"웊":4061,"웋":4062,"워":4063,"웍":4064,"웎":4065,"원":4066,"웑":4067,"웒":4068,"웓":4069,"월":4070,"웕":4071,"웖":4072,"웗":4073,"웘":4074,"웙":4075,"웚":4076,"웛":4077,"웜":4078,"웝":4079,"웞":4080,"웟":4081,"웠":4082,"웡":4083,"웢":4084,"웤":4085,"웥":4086,"웦":4087,"웧":4088,"웨":4089,"웩":4090,"웪":4091,"웬":4092,"웰":4093,"웱":4094,"웸":4095,"웹":4096,"웻":4097,"웼":4098,"웽":4099,"윀":4100,"윁":4101,"윂":4102,"위":4103,"윅":4104,"윈":4105,"윋":4106,"윌":4107,"윔":4108,"윕":4109,"윖":4110,"윗":4111,"윘":4112,"윙":4113,"윚":4114,"윛":4115,"윜":4116,"윝":4117,"윟":4118,"유":4119,"육":4120,"윢":4121,"윣":4122,"윤":4123,"윥":4124,"윦":4125,"윧":4126,"율":4127,"윪":4128,"윯":4129,"윰":4130,"윱":4131,"윲":4132,"윳":4133,"윴":4134,"융":4135,"윶":4136,"윷":4137,"윸":4138,"윹":4139,"윺":4140,"윻":4141,"으":4142,"윽":4143,"윾":4144,"윿":4145,"은":4146,"읁":4147,"읂":4148,"읃":4149,"을":4150,"읅":4151,"읆":4152,"읇":4153,"읈":4154,"읉":4155,"읊":4156,"읋":4157,"음":4158,"읍":4159,"읎":4160,"읏":4161,"읐":4162,"응":4163,"읒":4164,"읓":4165,"읔":4166,"읕":4167,"읖":4168,"읗":4169,"의":4170,"읙":4171,"읜":4172,"읟":4173,"읠":4174,"읨":4175,"읩":4176,"읪":4177,"읫":4178,"읬":4179,"읭":4180,"읮":4181,"읯":4182,"읰":4183,"읱":4184,"읲":4185,"읳":4186,"이":4187,"익":4188,"읶":4189,"읷":4190,"인":4191,"읹":4192,"읺":4193,"읻":4194,"일":4195,"읽":4196,"읾":4197,"읿":4198,"잀":4199,"잁":4200,"잂":4201,"잃":4202,"임":4203,"입":4204,"잆":4205,"잇":4206,"있":4207,"잉":4208,"잊":4209,"잋":4210,"잌":4211,"잍":4212,"잎":4213,"잏":4214,"자":4215,"작":4216,"잒":4217,"잓":4218,"잔":4219,"잕":4220,"잖":4221,"잗":4222,"잘":4223,"잙":4224,"잚":4225,"잛":4226,"잜":4227,"잝":4228,"잞":4229,"잟":4230,"잠":4231,"잡":4232,"잢":4233,"잣":4234,"잤":4235,"장":4236,"잦":4237,"잧":4238,"잨":4239,"잩":4240,"잪":4241,"잫":4242,"재":4243,"잭":4244,"잮":4245,"잰":4246,"잲":4247,"잳":4248,"잴":4249,"잼":4250,"잽":4251,"잾":4252,"잿":4253,"쟀":4254,"쟁":4255,"쟂":4256,"쟃":4257,"쟄":4258,"쟅":4259,"쟆":4260,"쟇":4261,"쟈":4262,"쟉":4263,"쟊":4264,"쟌":4265,"쟎":4266,"쟏":4267,"쟐":4268,"쟗":4269,"쟘":4270,"쟙":4271,"쟛":4272,"쟜":4273,"쟝":4274,"쟞":4275,"쟟":4276,"쟠":4277,"쟡":4278,"쟢":4279,"쟣":4280,"쟤":4281,"쟥":4282,"쟨":4283,"쟬":4284,"쟴":4285,"쟵":4286,"쟸":4287,"쟹":4288,"쟼":4289,"저":4290,"적":4291,"젂":4292,"젃":4293,"전":4294,"젅":4295,"젆":4296,"젇":4297,"절":4298,"젉":4299,"젊":4300,"젋":4301,"젌":4302,"젍":4303,"젎":4304,"젏":4305,"점":4306,"접":4307,"젒":4308,"젓":4309,"젔":4310,"정":4311,"젖":4312,"젗":4313,"젘":4314,"젙":4315,"젚":4316,"젛":4317,"제":4318,"젝":4319,"젞":4320,"젠":4321,"젡":4322,"젣":4323,"젤":4324,"젫":4325,"젬":4326,"젭":4327,"젯":4328,"젰":4329,"젱":4330,"젲":4331,"젳":4332,"젴":4333,"젵":4334,"젶":4335,"젷":4336,"져":4337,"젹":4338,"젺":4339,"젼":4340,"젾":4341,"젿":4342,"졀":4343,"졁":4344,"졂":4345,"졈":4346,"졉":4347,"졋":4348,"졌":4349,"졍":4350,"졎":4351,"졏":4352,"졐":4353,"졑":4354,"졓":4355,"졔":4356,"졘":4357,"졜":4358,"졧":4359,"졨":4360,"졩":4361,"조":4362,"족":4363,"졲":4364,"졳":4365,"존":4366,"졵":4367,"졶":4368,"졷":4369,"졸":4370,"졹":4371,"졺":4372,"졻":4373,"졼":4374,"졽":4375,"졾":4376,"졿":4377,"좀":4378,"좁":4379,"좂":4380,"좃":4381,"좄":4382,"종":4383,"좆":4384,"좇":4385,"좈":4386,"좉":4387,"좊":4388,"좋":4389,"좌":4390,"좍":4391,"좎":4392,"좐":4393,"좒":4394,"좓":4395,"좔":4396,"좜":4397,"좝":4398,"좟":4399,"좠":4400,"좡":4401,"좢":4402,"좣":4403,"좤":4404,"좥":4405,"좦":4406,"좧":4407,"좨":4408,"좩":4409,"좪":4410,"좫":4411,"좬":4412,"좭":4413,"좮":4414,"좯":4415,"좰":4416,"좱":4417,"좸":4418,"좻":4419,"좼":4420,"좽":4421,"죂":4422,"죃":4423,"죄":4424,"죅":4425,"죈":4426,"죋":4427,"죌":4428,"죍":4429,"죔":4430,"죕":4431,"죗":4432,"죘":4433,"죙":4434,"죚":4435,"죜":4436,"죝":4437,"죟":4438,"죠":4439,"죡":4440,"죢":4441,"죣":4442,"죤":4443,"죧":4444,"죨":4445,"죰":4446,"죱":4447,"죳":4448,"죴":4449,"죵":4450,"죶":4451,"죷":4452,"죸":4453,"죹":4454,"죺":4455,"죻":4456,"주":4457,"죽":4458,"죾":4459,"죿":4460,"준":4461,"줁":4462,"줂":4463,"줃":4464,"줄":4465,"줅":4466,"줆":4467,"줇":4468,"줈":4469,"줉":4470,"줊":4471,"줋":4472,"줌":4473,"줍":4474,"줎":4475,"줏":4476,"줐":4477,"중":4478,"줒":4479,"줓":4480,"줔":4481,"줕":4482,"줖":4483,"줗":4484,"줘":4485,"줙":4486,"줚":4487,"줜":4488,"줝":4489,"줟":4490,"줠":4491,"줨":4492,"줩":4493,"줫":4494,"줬":4495,"줭":4496,"줮":4497,"줯":4498,"줰":4499,"줱":4500,"줳":4501,"줴":4502,"줵":4503,"줸":4504,"줼":4505,"쥄":4506,"쥅":4507,"쥇":4508,"쥈":4509,"쥉":4510,"쥐":4511,"쥑":4512,"쥔":4513,"쥗":4514,"쥘":4515,"쥠":4516,"쥡":4517,"쥣":4518,"쥤":4519,"쥥":4520,"쥦":4521,"쥨":4522,"쥫":4523,"쥬":4524,"쥭":4525,"쥯":4526,"쥰":4527,"쥳":4528,"쥴":4529,"쥼":4530,"쥽":4531,"쥿":4532,"즀":4533,"즁":4534,"즂":4535,"즄":4536,"즇":4537,"즈":4538,"즉":4539,"즋":4540,"즌":4541,"즏":4542,"즐":4543,"즑":4544,"즘":4545,"즙":4546,"즛":4547,"즜":4548,"증":4549,"즞":4550,"즟":4551,"즠":4552,"즡":4553,"즣":4554,"즤":4555,"즥":4556,"즨":4557,"즬":4558,"즮":4559,"즴":4560,"즵":4561,"즶":4562,"즷":4563,"즹":4564,"즺":4565,"즼":4566,"지":4567,"직":4568,"짂":4569,"짃":4570,"진":4571,"짅":4572,"짆":4573,"짇":4574,"질":4575,"짉":4576,"짊":4577,"짋":4578,"짌":4579,"짍":4580,"짎":4581,"짏":4582,"짐":4583,"집":4584,"짒":4585,"짓":4586,"짔":4587,"징":4588,"짖":4589,"짗":4590,"짘":4591,"짙":4592,"짚":4593,"짛":4594,"짜":4595,"짝":4596,"짞":4597,"짟":4598,"짠":4599,"짢":4600,"짣":4601,"짤":4602,"짥":4603,"짦":4604,"짧":4605,"짪":4606,"짫":4607,"짬":4608,"짭":4609,"짮":4610,"짯":4611,"짰":4612,"짱":4613,"짲":4614,"짳":4615,"짴":4616,"짵":4617,"짶":4618,"짷":4619,"째":4620,"짹":4621,"짺":4622,"짼":4623,"짾":4624,"짿":4625,"쨀":4626,"쨈":4627,"쨉":4628,"쨋":4629,"쨌":4630,"쨍":4631,"쨎":4632,"쨐":4633,"쨒":4634,"쨓":4635,"쨔":4636,"쨕":4637,"쨘":4638,"쨚":4639,"쨜":4640,"쨟":4641,"쨤":4642,"쨥":4643,"쨧":4644,"쨨":4645,"쨩":4646,"쨰":4647,"쨱":4648,"쨴":4649,"쩁":4650,"쩃":4651,"쩄":4652,"쩅":4653,"쩌":4654,"쩍":4655,"쩎":4656,"쩐":4657,"쩓":4658,"쩔":4659,"쩖":4660,"쩗":4661,"쩘":4662,"쩜":4663,"쩝":4664,"쩞":4665,"쩟":4666,"쩠":4667,"쩡":4668,"쩢":4669,"쩣":4670,"쩤":4671,"쩥":4672,"쩦":4673,"쩧":4674,"쩨":4675,"쩩":4676,"쩬":4677,"쩰":4678,"쩸":4679,"쩹":4680,"쩻":4681,"쩼":4682,"쩽":4683,"쪄":4684,"쪅":4685,"쪈":4686,"쪌":4687,"쪔":4688,"쪕":4689,"쪗":4690,"쪘":4691,"쪙":4692,"쪚":4693,"쪠":4694,"쪰":4695,"쪱":4696,"쪵":4697,"쪹":4698,"쪻":4699,"쪼":4700,"쪽":4701,"쪾":4702,"쪿":4703,"쫀":4704,"쫃":4705,"쫄":4706,"쫅":4707,"쫇":4708,"쫌":4709,"쫍":4710,"쫏":4711,"쫐":4712,"쫑":4713,"쫒":4714,"쫓":4715,"쫔":4716,"쫕":4717,"쫖":4718,"쫗":4719,"쫘":4720,"쫙":4721,"쫚":4722,"쫛":4723,"쫜":4724,"쫟":4725,"쫠":4726,"쫤":4727,"쫨":4728,"쫩":4729,"쫫":4730,"쫬":4731,"쫭":4732,"쫮":4733,"쫴":4734,"쫵":4735,"쬈":4736,"쬎":4737,"쬐":4738,"쬑":4739,"쬔":4740,"쬘":4741,"쬠":4742,"쬡":4743,"쬤":4744,"쬥":4745,"쬧":4746,"쬬":4747,"쬭":4748,"쬮":4749,"쬰":4750,"쬳":4751,"쬴":4752,"쬼":4753,"쬽":4754,"쬿":4755,"쭀":4756,"쭁":4757,"쭂":4758,"쭃":4759,"쭅":4760,"쭈":4761,"쭉":4762,"쭊":4763,"쭌":4764,"쭏":4765,"쭐":4766,"쭕":4767,"쭘":4768,"쭙":4769,"쭛":4770,"쭜":4771,"쭝":4772,"쭞":4773,"쭟":4774,"쭠":4775,"쭤":4776,"쭥":4777,"쭨":4778,"쭫":4779,"쭬":4780,"쭭":4781,"쭵":4782,"쭷":4783,"쭸":4784,"쭹":4785,"쭻":4786,"쭿":4787,"쮀":4788,"쮁":4789,"쮑":4790,"쮓":4791,"쮜":4792,"쮝":4793,"쮠":4794,"쮡":4795,"쮤":4796,"쮭":4797,"쮱":4798,"쮸":4799,"쮹":4800,"쮼":4801,"쯀":4802,"쯈":4803,"쯉":4804,"쯋":4805,"쯍":4806,"쯔":4807,"쯕":4808,"쯘":4809,"쯛":4810,"쯜":4811,"쯤":4812,"쯥":4813,"쯧":4814,"쯨":4815,"쯩":4816,"쯪":4817,"쯫":4818,"쯭":4819,"쯮":4820,"쯯":4821,"쯰":4822,"쯱":4823,"쯴":4824,"찁":4825,"찅":4826,"찌":4827,"찍":4828,"찎":4829,"찏":4830,"찐":4831,"찓":4832,"찔":4833,"찗":4834,"찜":4835,"찝":4836,"찟":4837,"찠":4838,"찡":4839,"찢":4840,"찣":4841,"찤":4842,"찥":4843,"찦":4844,"찧":4845,"차":4846,"착":4847,"찪":4848,"찫":4849,"찬":4850,"찭":4851,"찮":4852,"찯":4853,"찰":4854,"찱":4855,"찲":4856,"찳":4857,"찴":4858,"찵":4859,"찶":4860,"찷":4861,"참":4862,"찹":4863,"찻":4864,"찼":4865,"창":4866,"찾":4867,"찿":4868,"챀":4869,"챁":4870,"챂":4871,"챃":4872,"채":4873,"책":4874,"챇":4875,"챈":4876,"챊":4877,"챋":4878,"챌":4879,"챔":4880,"챕":4881,"챗":4882,"챘":4883,"챙":4884,"챚":4885,"챜":4886,"챠":4887,"챡":4888,"챤":4889,"챦":4890,"챨":4891,"챯":4892,"챰":4893,"챱":4894,"챳":4895,"챴":4896,"챵":4897,"챶":4898,"챸":4899,"챻":4900,"챼":4901,"챽":4902,"첐":4903,"첑":4904,"처":4905,"척":4906,"첛":4907,"천":4908,"첝":4909,"첞":4910,"첟":4911,"철":4912,"첡":4913,"첢":4914,"첣":4915,"첤":4916,"첥":4917,"첦":4918,"첧":4919,"첨":4920,"첩":4921,"첪":4922,"첫":4923,"첬":4924,"청":4925,"첮":4926,"첯":4927,"첰":4928,"첱":4929,"첲":4930,"첳":4931,"체":4932,"첵":4933,"첸":4934,"첻":4935,"첼":4936,"쳄":4937,"쳅":4938,"쳇":4939,"쳈":4940,"쳉":4941,"쳊":4942,"쳋":4943,"쳌":4944,"쳏":4945,"쳐":4946,"쳑":4947,"쳒":4948,"쳔":4949,"쳖":4950,"쳗":4951,"쳘":4952,"쳠":4953,"쳡":4954,"쳣":4955,"쳤":4956,"쳥":4957,"쳦":4958,"쳧":4959,"쳨":4960,"쳩":4961,"쳫":4962,"쳬":4963,"쳰":4964,"쳴":4965,"쳿":4966,"촀":4967,"촁":4968,"초":4969,"촉":4970,"촌":4971,"촏":4972,"촐":4973,"촘":4974,"촙":4975,"촛":4976,"촜":4977,"총":4978,"촞":4979,"촟":4980,"촠":4981,"촡":4982,"촣":4983,"촤":4984,"촥":4985,"촨":4986,"촪":4987,"촬":4988,"촮":4989,"촰":4990,"촴":4991,"촵":4992,"촷":4993,"촹":4994,"쵀":4995,"쵁":4996,"쵄":4997,"쵕":4998,"최":4999,"쵝":5000,"쵠":5001,"쵤":5002,"쵭":5003,"쵮":5004,"쵯":5005,"쵰":5006,"쵱":5007,"쵲":5008,"쵴":5009,"쵸":5010,"쵹":5011,"쵼":5012,"춀":5013,"춈":5014,"춉":5015,"춋":5016,"춌":5017,"춍":5018,"춎":5019,"춏":5020,"춑":5021,"추":5022,"축":5023,"춗":5024,"춘":5025,"춚":5026,"춛":5027,"출":5028,"춝":5029,"춞":5030,"춟":5031,"춠":5032,"춡":5033,"춢":5034,"춣":5035,"춤":5036,"춥":5037,"춧":5038,"춨":5039,"충":5040,"춪":5041,"춫":5042,"춬":5043,"춭":5044,"춮":5045,"춯":5046,"춰":5047,"춱":5048,"춴":5049,"춸":5050,"췁":5051,"췃":5052,"췄":5053,"췅":5054,"췆":5055,"췌":5056,"췍":5057,"췐":5058,"췝":5059,"췟":5060,"췠":5061,"췡":5062,"췤":5063,"취":5064,"췩":5065,"췬":5066,"췰":5067,"췸":5068,"췹":5069,"췻":5070,"췼":5071,"췽":5072,"췾":5073,"츀":5074,"츃":5075,"츄":5076,"츅":5077,"츈":5078,"츌":5079,"츔":5080,"츕":5081,"츗":5082,"츙":5083,"츠":5084,"측":5085,"츤":5086,"츧":5087,"츨":5088,"츩":5089,"츰":5090,"츱":5091,"츳":5092,"층":5093,"츶":5094,"츷":5095,"츸":5096,"츼":5097,"츽":5098,"칀":5099,"칄":5100,"칌":5101,"칍":5102,"칏":5103,"칑":5104,"치":5105,"칙":5106,"칚":5107,"친":5108,"칝":5109,"칞":5110,"칟":5111,"칠":5112,"칡":5113,"칢":5114,"칤":5115,"칥":5116,"칧":5117,"침":5118,"칩":5119,"칫":5120,"칬":5121,"칭":5122,"칮":5123,"칯":5124,"칰":5125,"칱":5126,"칲":5127,"칳":5128,"카":5129,"칵":5130,"칶":5131,"칸":5132,"칻":5133,"칼":5134,"칽":5135,"캄":5136,"캅":5137,"캆":5138,"캇":5139,"캈":5140,"캉":5141,"캊":5142,"캋":5143,"캌":5144,"캍":5145,"캎":5146,"캏":5147,"캐":5148,"캑":5149,"캔":5150,"캘":5151,"캠":5152,"캡":5153,"캢":5154,"캣":5155,"캤":5156,"캥":5157,"캨":5158,"캩":5159,"캪":5160,"캬":5161,"캭":5162,"캮":5163,"캰":5164,"캴":5165,"캼":5166,"캽":5167,"캿":5168,"컀":5169,"컁":5170,"컄":5171,"컈":5172,"컜":5173,"커":5174,"컥":5175,"컨":5176,"컫":5177,"컬":5178,"컴":5179,"컵":5180,"컶":5181,"컷":5182,"컸":5183,"컹":5184,"컺":5185,"컼":5186,"컽":5187,"컾":5188,"컿":5189,"케":5190,"켁":5191,"켄":5192,"켇":5193,"켈":5194,"켐":5195,"켑":5196,"켓":5197,"켔":5198,"켕":5199,"켖":5200,"켘":5201,"켙":5202,"켚":5203,"켛":5204,"켜":5205,"켝":5206,"켞":5207,"켠":5208,"켣":5209,"켤":5210,"켥":5211,"켬":5212,"켭":5213,"켯":5214,"켰":5215,"켱":5216,"켲":5217,"켴":5218,"켵":5219,"켷":5220,"켸":5221,"콀":5222,"콉":5223,"콋":5224,"콌":5225,"콍":5226,"코":5227,"콕":5228,"콖":5229,"콘":5230,"콛":5231,"콜":5232,"콢":5233,"콣":5234,"콤":5235,"콥":5236,"콦":5237,"콧":5238,"콩":5239,"콪":5240,"콫":5241,"콬":5242,"콭":5243,"콮":5244,"콯":5245,"콰":5246,"콱":5247,"콲":5248,"콴":5249,"콸":5250,"쾀":5251,"쾃":5252,"쾅":5253,"쾈":5254,"쾌":5255,"쾍":5256,"쾐":5257,"쾒":5258,"쾔":5259,"쾡":5260,"쾤":5261,"쾨":5262,"쾩":5263,"쾬":5264,"쾰":5265,"쾽":5266,"쿄":5267,"쿈":5268,"쿌":5269,"쿔":5270,"쿗":5271,"쿙":5272,"쿜":5273,"쿠":5274,"쿡":5275,"쿤":5276,"쿧":5277,"쿨":5278,"쿯":5279,"쿰":5280,"쿱":5281,"쿳":5282,"쿵":5283,"쿸":5284,"쿹":5285,"쿺":5286,"쿼":5287,"쿽":5288,"퀀":5289,"퀄":5290,"퀌":5291,"퀏":5292,"퀐":5293,"퀑":5294,"퀘":5295,"퀙":5296,"퀜":5297,"퀠":5298,"퀧":5299,"퀫":5300,"퀭":5301,"퀰":5302,"퀴":5303,"퀵":5304,"퀸":5305,"퀻":5306,"퀼":5307,"큄":5308,"큅":5309,"큇":5310,"큉":5311,"큌":5312,"큍":5313,"큐":5314,"큑":5315,"큔":5316,"큘":5317,"큠":5318,"큡":5319,"큣":5320,"큥":5321,"큨":5322,"크":5323,"큭":5324,"큮":5325,"큰":5326,"큱":5327,"큲":5328,"큳":5329,"클":5330,"큵":5331,"큹":5332,"큻":5333,"큼":5334,"큽":5335,"큿":5336,"킀":5337,"킁":5338,"킂":5339,"킄":5340,"킅":5341,"킇":5342,"킈":5343,"킉":5344,"킌":5345,"킐":5346,"킘":5347,"킝":5348,"키":5349,"킥":5350,"킧":5351,"킨":5352,"킫":5353,"킬":5354,"킴":5355,"킵":5356,"킷":5357,"킸":5358,"킹":5359,"킺":5360,"킼":5361,"킽":5362,"킾":5363,"킿":5364,"타":5365,"탁":5366,"탂":5367,"탃":5368,"탄":5369,"탅":5370,"탆":5371,"탇":5372,"탈":5373,"탉":5374,"탊":5375,"탋":5376,"탌":5377,"탍":5378,"탏":5379,"탐":5380,"탑":5381,"탒":5382,"탓":5383,"탔":5384,"탕":5385,"탖":5386,"탗":5387,"탘":5388,"탙":5389,"탚":5390,"탛":5391,"태":5392,"택":5393,"탟":5394,"탠":5395,"탣":5396,"탤":5397,"탬":5398,"탭":5399,"탯":5400,"탰":5401,"탱":5402,"탲":5403,"탴":5404,"탵":5405,"탶":5406,"탷":5407,"탸":5408,"탹":5409,"탼":5410,"턀":5411,"턈":5412,"턉":5413,"턋":5414,"턍":5415,"턔":5416,"턕":5417,"턘":5418,"턩":5419,"터":5420,"턱":5421,"턴":5422,"턷":5423,"털":5424,"턹":5425,"턺":5426,"텀":5427,"텁":5428,"텂":5429,"텃":5430,"텄":5431,"텅":5432,"텆":5433,"텇":5434,"텈":5435,"텉":5436,"텊":5437,"텋":5438,"테":5439,"텍":5440,"텐":5441,"텑":5442,"텓":5443,"텔":5444,"템":5445,"텝":5446,"텟":5447,"텠":5448,"텡":5449,"텢":5450,"텣":5451,"텤":5452,"텥":5453,"텦":5454,"텧":5455,"텨":5456,"텩":5457,"텬":5458,"텰":5459,"텸":5460,"텹":5461,"텻":5462,"텼":5463,"텽":5464,"톃":5465,"톄":5466,"톅":5467,"톈":5468,"톌":5469,"톔":5470,"토":5471,"톡":5472,"톤":5473,"톧":5474,"톨":5475,"톩":5476,"톰":5477,"톱":5478,"톲":5479,"톳":5480,"통":5481,"톶":5482,"톷":5483,"톸":5484,"톹":5485,"톺":5486,"톻":5487,"톼":5488,"톽":5489,"퇀":5490,"퇄":5491,"퇍":5492,"퇏":5493,"퇑":5494,"퇔":5495,"퇘":5496,"퇙":5497,"퇜":5498,"퇩":5499,"퇫":5500,"퇬":5501,"퇭":5502,"퇮":5503,"퇱":5504,"퇳":5505,"퇴":5506,"퇵":5507,"퇶":5508,"퇸":5509,"퇼":5510,"툄":5511,"툅":5512,"툇":5513,"툈":5514,"툉":5515,"툊":5516,"툌":5517,"툏":5518,"툐":5519,"툑":5520,"툠":5521,"툡":5522,"툥":5523,"투":5524,"툭":5525,"툰":5526,"툳":5527,"툴":5528,"툻":5529,"툼":5530,"툽":5531,"툿":5532,"퉁":5533,"퉂":5534,"퉄":5535,"퉅":5536,"퉆":5537,"퉈":5538,"퉉":5539,"퉌":5540,"퉐":5541,"퉛":5542,"퉜":5543,"퉝":5544,"퉤":5545,"퉥":5546,"퉨":5547,"퉬":5548,"퉯":5549,"퉴":5550,"퉵":5551,"퉷":5552,"퉸":5553,"퉹":5554,"퉺":5555,"퉼":5556,"퉽":5557,"퉾":5558,"퉿":5559,"튀":5560,"튁":5561,"튄":5562,"튈":5563,"튐":5564,"튑":5565,"튓":5566,"튔":5567,"튕":5568,"튘":5569,"튛":5570,"튜":5571,"튝":5572,"튠":5573,"튤":5574,"튬":5575,"튭":5576,"튱":5577,"튶":5578,"트":5579,"특":5580,"튺":5581,"튻":5582,"튼":5583,"튽":5584,"튿":5585,"틀":5586,"틁":5587,"틂":5588,"틃":5589,"틅":5590,"틇":5591,"틈":5592,"틉":5593,"틊":5594,"틋":5595,"틍":5596,"틎":5597,"틏":5598,"틐":5599,"틑":5600,"틒":5601,"틓":5602,"틔":5603,"틕":5604,"틘":5605,"틜":5606,"틧":5607,"틩":5608,"티":5609,"틱":5610,"틴":5611,"틷":5612,"틸":5613,"팀":5614,"팁":5615,"팃":5616,"팄":5617,"팅":5618,"팆":5619,"팈":5620,"팉":5621,"팊":5622,"파":5623,"팍":5624,"팎":5625,"팏":5626,"판":5627,"팑":5628,"팒":5629,"팓":5630,"팔":5631,"팕":5632,"팖":5633,"팗":5634,"팘":5635,"팙":5636,"팚":5637,"팛":5638,"팜":5639,"팝":5640,"팟":5641,"팠":5642,"팡":5643,"팢":5644,"팣":5645,"팤":5646,"팥":5647,"팦":5648,"팧":5649,"패":5650,"팩":5651,"팬":5652,"팯":5653,"팰":5654,"팸":5655,"팹":5656,"팻":5657,"팼":5658,"팽":5659,"퍀":5660,"퍁":5661,"퍃":5662,"퍄":5663,"퍅":5664,"퍈":5665,"퍌":5666,"퍔":5667,"퍗":5668,"퍘":5669,"퍙":5670,"퍛":5671,"퍝":5672,"퍠":5673,"퍡":5674,"퍤":5675,"퍵":5676,"퍼":5677,"퍽":5678,"펀":5679,"펃":5680,"펄":5681,"펅":5682,"펌":5683,"펍":5684,"펏":5685,"펐":5686,"펑":5687,"펒":5688,"펔":5689,"펕":5690,"펖":5691,"펗":5692,"페":5693,"펙":5694,"펜":5695,"펟":5696,"펠":5697,"펨":5698,"펩":5699,"펫":5700,"펬":5701,"펭":5702,"펰":5703,"펲":5704,"펴":5705,"펵":5706,"편":5707,"펹":5708,"펺":5709,"펻":5710,"펼":5711,"폄":5712,"폅":5713,"폇":5714,"폈":5715,"평":5716,"폊":5717,"폌":5718,"폍":5719,"폏":5720,"폐":5721,"폑":5722,"폔":5723,"폗":5724,"폘":5725,"폠":5726,"폡":5727,"폣":5728,"폥":5729,"폦":5730,"폨":5731,"포":5732,"폭":5733,"폮":5734,"폯":5735,"폰":5736,"폳":5737,"폴":5738,"폼":5739,"폽":5740,"폿":5741,"퐁":5742,"퐂":5743,"퐄":5744,"퐅":5745,"퐆":5746,"퐇":5747,"퐈":5748,"퐉":5749,"퐌":5750,"퐐":5751,"퐘":5752,"퐙":5753,"퐛":5754,"퐜":5755,"퐝":5756,"퐞":5757,"퐠":5758,"퐤":5759,"퐥":5760,"푀":5761,"푁":5762,"푄":5763,"푈":5764,"푕":5765,"표":5766,"푝":5767,"푠":5768,"푣":5769,"푤":5770,"푬":5771,"푭":5772,"푯":5773,"푱":5774,"푲":5775,"푴":5776,"푶":5777,"푷":5778,"푸":5779,"푹":5780,"푼":5781,"푿":5782,"풀":5783,"풁":5784,"풂":5785,"풅":5786,"풇":5787,"품":5788,"풉":5789,"풋":5790,"풍":5791,"풎":5792,"풐":5793,"풑":5794,"풒":5795,"풓":5796,"풔":5797,"풕":5798,"풘":5799,"풜":5800,"풩":5801,"풰":5802,"풱":5803,"풴":5804,"풸":5805,"퓅":5806,"퓌":5807,"퓍":5808,"퓐":5809,"퓔":5810,"퓜":5811,"퓟":5812,"퓡":5813,"퓨":5814,"퓩":5815,"퓬":5816,"퓰":5817,"퓸":5818,"퓹":5819,"퓻":5820,"퓽":5821,"픂":5822,"프":5823,"픅":5824,"픈":5825,"픋":5826,"플":5827,"픎":5828,"픔":5829,"픕":5830,"픗":5831,"픙":5832,"픚":5833,"픜":5834,"픝":5835,"픞":5836,"픟":5837,"픠":5838,"픤":5839,"픨":5840,"픵":5841,"피":5842,"픽":5843,"핀":5844,"핃":5845,"필":5846,"핅":5847,"핆":5848,"핈":5849,"핋":5850,"핌":5851,"핍":5852,"핏":5853,"핐":5854,"핑":5855,"핒":5856,"핓":5857,"핔":5858,"핕":5859,"핖":5860,"핗":5861,"하":5862,"학":5863,"핚":5864,"핛":5865,"한":5866,"핝":5867,"핞":5868,"핟":5869,"할":5870,"핡":5871,"핢":5872,"핣":5873,"핤":5874,"핥":5875,"핦":5876,"핧":5877,"함":5878,"합":5879,"핪":5880,"핫":5881,"핬":5882,"항":5883,"핮":5884,"핯":5885,"핰":5886,"핱":5887,"핲":5888,"핳":5889,"해":5890,"핵":5891,"핶":5892,"핷":5893,"핸":5894,"핺":5895,"핻":5896,"핼":5897,"핽":5898,"햄":5899,"햅":5900,"햇":5901,"했":5902,"행":5903,"햊":5904,"햋":5905,"햌":5906,"햍":5907,"햎":5908,"햏":5909,"햐":5910,"햑":5911,"햔":5912,"햗":5913,"햘":5914,"햙":5915,"햚":5916,"햛":5917,"햝":5918,"햞":5919,"햟":5920,"햠":5921,"햡":5922,"햣":5923,"햤":5924,"향":5925,"햨":5926,"햩":5927,"햫":5928,"햬":5929,"햭":5930,"햰":5931,"햽":5932,"햿":5933,"헀":5934,"헁":5935,"허":5936,"헉":5937,"헊":5938,"헌":5939,"헍":5940,"헏":5941,"헐":5942,"헑":5943,"헒":5944,"헓":5945,"헔":5946,"헕":5947,"헗":5948,"험":5949,"헙":5950,"헚":5951,"헛":5952,"헜":5953,"헝":5954,"헞":5955,"헠":5956,"헡":5957,"헢":5958,"헣":5959,"헤":5960,"헥":5961,"헦":5962,"헨":5963,"헬":5964,"헭":5965,"헴":5966,"헵":5967,"헷":5968,"헸":5969,"헹":5970,"헼":5971,"헽":5972,"헾":5973,"헿":5974,"혀":5975,"혁":5976,"혂":5977,"혃":5978,"현":5979,"혅":5980,"혆":5981,"혇":5982,"혈":5983,"혉":5984,"혊":5985,"혌":5986,"혍":5987,"혐":5988,"협":5989,"혒":5990,"혓":5991,"혔":5992,"형":5993,"혖":5994,"혗":5995,"혘":5996,"혙":5997,"혚":5998,"혛":5999,"혜":6000,"혝":6001,"혠":6002,"혣":6003,"혤":6004,"혬":6005,"혭":6006,"혯":6007,"혰":6008,"혱":6009,"혲":6010,"혳":6011,"혴":6012,"혵":6013,"호":6014,"혹":6015,"혺":6016,"혻":6017,"혼":6018,"혽":6019,"혾":6020,"혿":6021,"홀":6022,"홁":6023,"홅":6024,"홇":6025,"홈":6026,"홉":6027,"홋":6028,"홍":6029,"홎":6030,"홏":6031,"홐":6032,"홑":6033,"홒":6034,"홓":6035,"화":6036,"확":6037,"홖":6038,"홗":6039,"환":6040,"홙":6041,"홛":6042,"활":6043,"홝":6044,"홞":6045,"홟":6046,"홠":6047,"홡":6048,"홣":6049,"홤":6050,"홥":6051,"홧":6052,"홨":6053,"황":6054,"홪":6055,"홬":6056,"홭":6057,"홮":6058,"홯":6059,"홰":6060,"홱":6061,"홴":6062,"홸":6063,"횃":6064,"횄":6065,"횅":6066,"회":6067,"획":6068,"횐":6069,"횓":6070,"횔":6071,"횜":6072,"횝":6073,"횞":6074,"횟":6075,"횠":6076,"횡":6077,"횢":6078,"횤":6079,"횦":6080,"횧":6081,"효":6082,"횩":6083,"횬":6084,"횰":6085,"횸":6086,"횹":6087,"횻":6088,"횽":6089,"훀":6090,"훃":6091,"후":6092,"훅":6093,"훈":6094,"훉":6095,"훊":6096,"훋":6097,"훌":6098,"훍":6099,"훎":6100,"훏":6101,"훑":6102,"훒":6103,"훓":6104,"훔":6105,"훕":6106,"훗":6107,"훙":6108,"훚":6109,"훛":6110,"훜":6111,"훝":6112,"훞":6113,"훟":6114,"훠":6115,"훡":6116,"훤":6117,"훨":6118,"훪":6119,"훬":6120,"훯":6121,"훰":6122,"훱":6123,"훳":6124,"훵":6125,"훸":6126,"훻":6127,"훼":6128,"훽":6129,"휀":6130,"휄":6131,"휌":6132,"휏":6133,"휐":6134,"휑":6135,"휔":6136,"휘":6137,"휙":6138,"휜":6139,"휟":6140,"휠":6141,"휧":6142,"휨":6143,"휩":6144,"휫":6145,"휭":6146,"휰":6147,"휲":6148,"휳":6149,"휴":6150,"휵":6151,"휸":6152,"휼":6153,"흄":6154,"흅":6155,"흇":6156,"흉":6157,"흊":6158,"흌":6159,"흏":6160,"흐":6161,"흑":6162,"흒":6163,"흓":6164,"흔":6165,"흖":6166,"흗":6167,"흘":6168,"흙":6169,"흜":6170,"흝":6171,"흟":6172,"흠":6173,"흡":6174,"흣":6175,"흥":6176,"흦":6177,"흨":6178,"흩":6179,"흪":6180,"흫":6181,"희":6182,"흭":6183,"흰":6184,"흳":6185,"흴":6186,"흼":6187,"흽":6188,"흿":6189,"힁":6190,"힂":6191,"힄":6192,"히":6193,"힉":6194,"힌":6195,"힍":6196,"힏":6197,"힐":6198,"힑":6199,"힒":6200,"힕":6201,"힗":6202,"힘":6203,"힙":6204,"힛":6205,"힜":6206,"힝":6207,"힞":6208,"힟":6209,"힠":6210,"힡":6211,"힢":6212,"힣":6213,"％":6214,"##협":6215,"##된":6216,"##u":6217,"##d":6218,"##e":6219,"##x":6220,"##훔":6221,"##치":6222,"##려":6223,"##다":6224,"##s":6225,"##h":6226,"##o":6227,"##r":6228,"##n":6229,"##화":6230,"##못":6231,"##하":6232,"##네":6233,"##이":6234,"##들":6235,"##니":6236,"##깟":6237,"##즈":6238,"##는":6239,"##조":6240,"##각":6241,"##떨":6242,"##어":6243,"##봐":6244,"##야":6245,"##A":6246,"##R":6247,"##T":6248,"##E":6249,"##C":6250,"##l":6251,"##a":6252,"##i":6253,"##c":6254,"##을":6255,"##그":6256,"##렀":6257,"##게":6258,"##만":6259,"##지":6260,"##면":6261,"##P":6262,"##Z":6263,"##토":6264,"##착":6265,"##떼":6266,"##놈":6267,"##아":6268,"##y":6269,"##j":6270,"##관":6271,"##구":6272,"##풀":6273,"##장":6274,"##단":6275,"##I":6276,"##X":6277,"##w":6278,"##말":6279,"##층":6280,"##민":6281,"##t":6282,"##b":6283,"##v":6284,"##렉":6285,"##답":6286,"##서":6287,"##m":6288,"##U":6289,"##S":6290,"##K":6291,"##상":6292,"##바":6293,"##가":6294,"##g":6295,"##z":6296,"##먹":6297,"##곳":6298,"##재":6299,"##리":6300,"##스":6301,"##주":6302,"##사":6303,"##터":6304,"##고":6305,"##도":6306,"##쪕":6307,"##에":6308,"##q":6309,"##찰":6310,"##판":6311,"##실":6312,"##굴":6313,"##텡":6314,"##O":6315,"##로":6316,"##보":6317,"##투":6318,"##표":6319,"##선":6320,"##족":6321,"##냐":6322,"##글":6323,"##자":6324,"##출":6325,"##설":6326,"##수":6327,"##할":6328,"##껄":6329,"##클":6330,"##킨":6331,"##용":6332,"##성":6333,"##득":6334,"##디":6335,"##대":6336,"##접":6337,"##벙":6338,"##거":6339,"##퀴":6340,"##과":6341,"##레":6342,"##라":6343,"##엔":6344,"##같":6345,"##시":6346,"##많":6347,"##국":6348,"##몽":6349,"##꾼":6350,"##깐":6351,"##프":6352,"##임":6353,"##요":6354,"##즐":6355,"##기":6356,"##세":6357,"##력":6358,"##소":6359,"##랑":6360,"##싱":6361,"##쉐":6362,"##데":6363,"##누":6364,"##여":6365,"##까":6366,"##Y":6367,"##L":6368,"##N":6369,"##우":6370,"##인":6371,"##호":6372,"##경":6373,"##해":6374,"##은":6375,"##늠":6376,"##줄":6377,"##짐":6378,"##회":6379,"##오":6380,"##정":6381,"##신":6382,"##p":6383,"##f":6384,"##k":6385,"##슈":6386,"##크":6387,"##일":6388,"##W":6389,"##B":6390,"##롢":6391,"##잖":6392,"##렪":6393,"##룩":6394,"##준":6395,"##광":6396,"##질":6397,"##열":6398,"##셰":6399,"##킷":6400,"##덜":6401,"##론":6402,"##적":6403,"##벨":6404,"##전":6405,"##명":6406,"##품":6407,"##배":6408,"##삭":6409,"##엽":6410,"##란":6411,"##짓":6412,"##강":6413,"##왕":6414,"##속":6415,"##의":6416,"##텟":6417,"##트":6418,"##굔":6419,"##르":6420,"##안":6421,"##되":6422,"##생":6423,"##합":6424,"##워":6425,"##무":6426,"##쇄":6427,"##M":6428,"##먼":6429,"##중":6430,"##창":6431,"##록":6432,"##원":6433,"##공":6434,"##종":6435,"##령":6436,"##롭":6437,"##더":6438,"##위":6439,"##래":6440,"##H":6441,"##당":6442,"##내":6443,"##혁":6444,"##산":6445,"##탈":6446,"##켜":6447,"##본":6448,"##행":6449,"##동":6450,"##진":6451,"##쉬":6452,"##형":6453,"##땍":6454,"##있":6455,"##뭐":6456,"##영":6457,"##으":6458,"##년":6459,"##올":6460,"##찬":6461,"##간":6462,"##길":6463,"##송":6464,"##끼":6465,"##현":6466,"##드":6467,"##를":6468,"##벌":6469,"##테":6470,"##러":6471,"##체":6472,"##순":6473,"##티":6474,"##폼":6475,"##환":6476,"##달":6477,"##않":6478,"##쥔":6479,"##봉":6480,"##불":6481,"##비":6482,"##마":6483,"##한":6484,"##틀":6485,"##린":6486,"##쟁":6487,"##추":6488,"##D":6489,"##빠":6490,"##쇼":6491,"##혔":6492,"##미":6493,"##개":6494,"##남":6495,"##셐":6496,"##V":6497,"##부":6498,"##덕":6499,"##희":6500,"##캐":6501,"##묵":6502,"##발":6503,"##핵":6504,"##녁":6505,"##언":6506,"##채":6507,"##F":6508,"##놨":6509,"##유":6510,"##움":6511,"##극":6512,"##량":6513,"##옘":6514,"##병":6515,"##깅":6516,"##꺄":6517,"##물":6518,"##찾":6519,"##균":6520,"##덴":6521,"##타":6522,"##태":6523,"##커":6524,"##플":6525,"##황":6526,"##루":6527,"##룡":6528,"##걍":6529,"##버":6530,"##섯":6531,"##딱":6532,"##검":6533,"##새":6534,"##파":6535,"##노":6536,"##악":6537,"##취":6538,"##직":6539,"##윤":6540,"##겨":6541,"##난":6542,"##별":6543,"##쓰":6544,"##쯤":6545,"##왔":6546,"##때":6547,"##작":6548,"##헌":6549,"##문":6550,"##목":6551,"##학":6552,"##나":6553,"##긴":6554,"##멜":6555,"##와":6556,"##릇":6557,"##런":6558,"##엇":6559,"##초":6560,"##므":6561,"##운":6562,"##뎅":6563,"##처":6564,"##럼":6565,"##닐":6566,"##코":6567,"##후":6568,"##죽":6569,"##댔":6570,"##퍼":6571,"##연":6572,"##감":6573,"##쉽":6574,"##헤":6575,"##렣":6576,"##흥":6577,"##숩":6578,"##권":6579,"##웅":6580,"##양":6581,"##롱":6582,"##났":6583,"##음":6584,"##석":6585,"##넼":6586,"##얔":6587,"##엌":6588,"##두":6589,"##식":6590,"##방":6591,"##집":6592,"##금":6593,"##싫":6594,"##듫":6595,"##앓":6596,"##격":6597,"##능":6598,"##견":6599,"##매":6600,"##익":6601,"##씩":6602,"##꾸":6603,"##쇠":6604,"##느":6605,"##G":6606,"##좋":6607,"##켔":6608,"##습":6609,"##베":6610,"##업":6611,"##탑":6612,"##겻":6613,"##져":6614,"##천":6615,"##둥":6616,"##락":6617,"##애":6618,"##꼴":6619,"##통":6620,"##곧":6621,"##암":6622,"##닌":6623,"##했":6624,"##것":6625,"##귄":6626,"##패":6627,"##든":6628,"##힌":6629,"##던":6630,"##쾅":6631,"##뽕":6632,"##끄":6633,"##갭":6634,"##승":6635,"##염":6636,"##키":6637,"##뎌":6638,"##넣":6639,"##퇴":6640,"##골":6641,"##교":6642,"##춤":6643,"##블":6644,"##뤼":6645,"##엑":6646,"##참":6647,"##며":6648,"##필":6649,"##옥":6650,"##쏘":6651,"##냈":6652,"##씨":6653,"##번":6654,"##붜":6655,"##결":6656,"##심":6657,"##됴":6658,"##료":6659,"##손":6660,"##찼":6661,"##꽈":6662,"##갈":6663,"##짜":6664,"##른":6665,"##멘":6666,"##딘":6667,"##봅":6668,"##듯":6669,"##톨":6670,"##꼬":6671,"##몇":6672,"##곤":6673,"##저":6674,"##었":6675,"##푸":6676,"##폰":6677,"##카":6678,"##숙":6679,"##범":6680,"##삼":6681,"##술":6682,"##욕":6683,"##릴":6684,"##탄":6685,"##놓":6686,"##럽":6687,"##녀":6688,"##제":6689,"##뀌":6690,"##춰":6691,"##굽":6692,"##혀":6693,"##팔":6694,"##펴":6695,"##딴":6696,"##윌":6697,"##복":6698,"##입":6699,"##놘":6700,"##객":6701,"##포":6702,"##첩":6703,"##케":6704,"##근":6705,"##알":6706,"##랄":6707,"##페":6708,"##혜":6709,"##렴":6710,"##총":6711,"##없":6712,"##슬":6713,"##색":6714,"##듣":6715,"##녔":6716,"##받":6717,"##침":6718,"##쌥":6719,"##죠":6720,"##멋":6721,"##군":6722,"##렌":6723,"##갓":6724,"##흑":6725,"##넨":6726,"##겠":6727,"##궁":6728,"##걱":6729,"##뼈":6730,"##뇌":6731,"##쁘":6732,"##갸":6733,"##땅":6734,"##붕":6735,"##폭":6736,"##윗":6737,"##날":6738,"##건":6739,"##모":6740,"##썩":6741,"##앗":6742,"##규":6743,"##냥":6744,"##섀":6745,"##충":6746,"##욱":6747,"##택":6748,"##뭘":6749,"##역":6750,"##백":6751,"##억":6752,"##곡":6753,"##몌":6754,"##츠":6755,"##곸":6756,"##닥":6757,"##줘":6758,"##갱":6759,"##릭":6760,"##넘":6761,"##변":6762,"##외":6763,"##퀸":6764,"##읍":6765,"##머":6766,"##빨":6767,"##찌":6768,"##릉":6769,"##계":6770,"##았":6771,"##님":6772,"##밥":6773,"##앙":6774,"##J":6775,"##킹":6776,"##쳐":6777,"##삶":6778,"##살":6779,"##잡":6780,"##망":6781,"##쉰":6782,"##돌":6783,"##빌":6784,"##섬":6785,"##책":6786,"##렇":6787,"##햤":6788,"##쿠":6789,"##젠":6790,"##훈":6791,"##홍":6792,"##띠":6793,"##뜨":6794,"##둔":6795,"##징":6796,"##졌":6797,"##뛰":6798,"##분":6799,"##맞":6800,"##쥬":6801,"##따":6802,"##히":6803,"##쒹":6804,"##멸":6805,"##편":6806,"##법":6807,"##등":6808,"##갰":6809,"##쭉":6810,"##괴":6811,"##갑":6812,"##갇":6813,"##또":6814,"##싶":6815,"##특":6816,"##겟":6817,"##섹":6818,"##꿇":6819,"##틴":6820,"##턴":6821,"##췃":6822,"##촤":6823,"##촥":6824,"##너":6825,"##반":6826,"##엠":6827,"##뜰":6828,"##앉":6829,"##겁":6830,"##섭":6831,"##털":6832,"##죄":6833,"##쯜":6834,"##좌":6835,"##솔":6836,"##큰":6837,"##웃":6838,"##쳤":6839,"##최":6840,"##읏":6841,"##박":6842,"##쓸":6843,"##뜩":6844,"##꺼":6845,"##예":6846,"##윽":6847,"##옐":6848,"##딸":6849,"##섺":6850,"##탓":6851,"##닷":6852,"##컴":6853,"##뇨":6854,"##좀":6855,"##윾":6856,"##급":6857,"##빅":6858,"##뒤":6859,"##뱅":6860,"##궤":6861,"##뚱":6862,"##친":6863,"##츤":6864,"##숭":6865,"##례":6866,"##챕":6867,"##밀":6868,"##튼":6869,"##름":6870,"##람":6871,"##차":6872,"##볼":6873,"##넹":6874,"##푼":6875,"##험":6876,"##찮":6877,"##겧":6878,"##봄":6879,"##뱽":6880,"##북":6881,"##링":6882,"##맥":6883,"##눼":6884,"##돼":6885,"##응":6886,"##눙":6887,"##뀽":6888,"##힘":6889,"##맹":6890,"##킈":6891,"##왈":6892,"##겼":6893,"##폴":6894,"##걸":6895,"##련":6896,"##쳣":6897,"##척":6898,"##핳":6899,"##깜":6900,"##퀙":6901,"##얼":6902,"##온":6903,"##Q":6904,"##싼":6905,"##십":6906,"##청":6907,"##및":6908,"##브":6909,"##숴":6910,"##칠":6911,"##웰":6912,"##롸":6913,"##롹":6914,"##항":6915,"##촹":6916,"##몰":6917,"##랏":6918,"##섞":6919,"##눌":6920,"##넬":6921,"##싸":6922,"##굿":6923,"##짝":6924,"##녑":6925,"##똥":6926,"##멍":6927,"##핧":6928,"##펠":6929,"##닄":6930,"##햇":6931,"##줭":6932,"##즥":6933,"##뎨":6934,"##끍":6935,"##늘":6936,"##웨":6937,"##쌈":6938,"##놀":6939,"##갼":6940,"##돠":6941,"##셀":6942,"##벼":6943,"##빛":6944,"##틍":6945,"##샤":6946,"##셋":6947,"##평":6948,"##댓":6949,"##룹":6950,"##림":6951,"##팩":6952,"##랫":6953,"##잔":6954,"##줏":6955,"##점":6956,"##봤":6957,"##톰":6958,"##렸":6959,"##철":6960,"##컵":6961,"##윈":6962,"##켄":6963,"##월":6964,"##값":6965,"##째":6966,"##빈":6967,"##완":6968,"##볘":6969,"##늄":6970,"##셨":6971,"##륵":6972,"##콘":6973,"##륑":6974,"##닉":6975,"##돈":6976,"##렁":6977,"##쩔":6978,"##왜":6979,"##썽":6980,"##싹":6981,"##빙":6982,"##맨":6983,"##볏":6984,"##첨":6985,"##혈":6986,"##휘":6987,"##봣":6988,"##럴":6989,"##텐":6990,"##께":6991,"##쨔":6992,"##밟":6993,"##쭈":6994,"##딜":6995,"##퀼":6996,"##릿":6997,"##메":6998,"##옴":6999,"##씬":7000,"##뢀":7001,"##얒":7002,"##즘":7003,"##쨍":7004,"##틱":7005,"##효":7006,"##뿐":7007,"##귀":7008,"##뭔":7009,"##허":7010,"##뒈":7011,"##뚜":7012,"##논":7013,"##쎄":7014,"##액":7015,"##껙":7016,"##랬":7017,"##얘":7018,"##냰":7019,"##댸":7020,"##였":7021,"##활":7022,"##션":7023,"##흐":7024,"##막":7025,"##함":7026,"##풍":7027,"##낙":7028,"##셩":7029,"##퍝":7030,"##쩝":7031,"##쥐":7032,"##씹":7033,"##낟":7034,"##쇅":7035,"##됩":7036,"##념":7037,"##울":7038,"##짱":7039,"##깨":7040,"##피":7041,"##탱":7042,"##떄":7043,"##딮":7044,"##써":7045,"##덝":7046,"##삐":7047,"##힐":7048,"##압":7049,"##잽":7050,"##궐":7051,"##냔":7052,"##셔":7053,"##귈":7054,"##센":7055,"##꽃":7056,"##즙":7057,"##밴":7058,"##찔":7059,"##쉥":7060,"##놔":7061,"##팍":7062,"##촨":7063,"##절":7064,"##엘":7065,"##닢":7066,"##낼":7067,"##콴":7068,"##끽":7069,"##빵":7070,"##컨":7071,"##좦":7072,"##씐":7073,"##옹":7074,"##흙":7075,"##퉤":7076,"##뎡":7077,"##뿟":7078,"##넷":7079,"##핀":7080,"##뻥":7081,"##졔":7082,"##앤":7083,"##뽑":7084,"##걷":7085,"##뭌":7086,"##낝":7087,"##랋":7088,"##쓔":7089,"##닭":7090,"##뒹":7091,"##김":7092,"##괭":7093,"##둬":7094,"##괌":7095,"##쉉":7096,"##놥":7097,"##숄":7098,"##묘":7099,"##룐":7100,"##립":7101,"##잉":7102,"##댄":7103,"##쫙":7104,"##덮":7105,"##뢰":7106,"##훼":7107,"##샘":7108,"##빽":7109,"##궈":7110,"##츙":7111,"##줌":7112,"##쓉":7113,"##칼":7114,"##륨":7115,"##솨":7116,"##증":7117,"##핚":7118,"##꺵":7119,"##긔":7120,"##졸":7121,"##융":7122,"##벽":7123,"##뮌":7124,"##획":7125,"##닝":7126,"##똘":7127,"##뿔":7128,"##뎬":7129,"##팜":7130,"##옷":7131,"##독":7132,"##끔":7133,"##높":7134,"##젼":7135,"##댕":7136,"##냉":7137,"##뷰":7138,"##촵":7139,"##촙":7140,"##쏠":7141,"##쌌":7142,"##렛":7143,"##쒝":7144,"##몬":7145,"##좡":7146,"##뢔":7147,"##땐":7148,"##큼":7149,"##큐":7150,"##춘":7151,"##촌":7152,"##겋":7153,"##축":7154,"##덱":7155,"##뤄":7156,"##담":7157,"##휴":7158,"##닞":7159,"##뚝":7160,"##뭇":7161,"##땡":7162,"##율":7163,"##긋":7164,"##롤":7165,"##쑤":7166,"##빱":7167,"##뀠":7168,"##칭":7169,"##녕":7170,"##꿈":7171,"##널":7172,"##램":7173,"##훤":7174,"##똑":7175,"##셈":7176,"##턱":7177,"##엿":7178,"##쪽":7179,"##먄":7180,"##갤":7181,"##밖":7182,"##렬":7183,"##륭":7184,"##닦":7185,"##챵":7186,"##꼰":7187,"##혓":7188,"##뽀":7189,"##닮":7190,"##묻":7191,"##햐":7192,"##쭵":7193,"##뽜":7194,"##끝":7195,"##짚":7196,"##챊":7197,"##볶":7198,"##류":7199,"##샠":7200,"##랜":7201,"##톱":7202,"##눈":7203,"##곗":7204,"##랙":7205,"##핑":7206,"##빼":7207,"##콜":7208,"##캔":7209,"##엨":7210,"##갔":7211,"##홉":7212,"##뉴":7213,"##떠":7214,"##헬":7215,"##꼐":7216,"##얀":7217,"##펀":7218,"##렠":7219,"##킼":7220,"##퉷":7221,"##쓴":7222,"##꾜":7223,"##옮":7224,"##밤":7225,"##넴":7226,"##깡":7227,"##큅":7228,"##쿨":7229,"##향":7230,"##갖":7231,"##돔":7232,"##꿔":7233,"##젤":7234,"##톄":7235,"##팅":7236,"##뻰":7237,"##앜":7238,"##눰":7239,"##뉘":7240,"##끠":7241,"##쒀":7242,"##뽄":7243,"##쭙":7244,"##쪙":7245,"##땩":7246,"##촛":7247,"##렝":7248,"##꿘":7249,"##쟌":7250,"##팡":7251,"##쭘":7252,"##봘":7253,"##잇":7254,"##듀":7255,"##졋":7256,"##풉":7257,"##잘":7258,"##쌔":7259,"##쉌":7260,"##폇":7261,"##뜻":7262,"##륜":7263,"##룻":7264,"##텝":7265,"##붓":7266,"##폐":7267,"##촬":7268,"##펌":7269,"##칩":7270,"##찐":7271,"##굻":7272,"##귝":7273,"##랴":7274,"##덀":7275,"##냨":7276,"##밝":7277,"##깍":7278,"##될":7279,"##뚬":7280,"##룬":7281,"##낀":7282,"##쪌":7283,"##탁":7284,"##뚠":7285,"##퐁":7286,"##샊":7287,"##쩨":7288,"##확":7289,"##쐑":7290,"##퍄":7291,"##깃":7292,"##잠":7293,"##냄":7294,"##봡":7295,"##넌":7296,"##뱉":7297,"##닻":7298,"##뷱":7299,"##늬":7300,"##갯":7301,"##튜":7302,"##샛":7303,"##꼭":7304,"##찍":7305,"##뭄":7306,"##흔":7307,"##듬":7308,"##슴":7309,"##겡":7310,"##뇬":7311,"##팎":7312,"##쒜":7313,"##꿀":7314,"##쟈":7315,"##삽":7316,"##벤":7317,"##벅":7318,"##뇸":7319,"##셥":7320,"##챦":7321,"##믈":7322,"##짖":7323,"##빗":7324,"##긁":7325,"##땀":7326,"##똴":7327,"##쎅":7328,"##밭":7329,"##젊":7330,"##쥘":7331,"##릅":7332,"##쩍":7333,"##줬":7334,"##밈":7335,"##몃":7336,"##랭":7337,"##넺":7338,"##햄":7339,"##핸":7340,"##낰":7341,"##펑":7342,"##댑":7343,"##뮈":7344,"##렷":7345,"##략":7346,"##롼":7347,"##컷":7348,"##혹":7349,"##렵":7350,"##읭":7351,"##존":7352,"##숳":7353,"##뚤":7354,"##뜬":7355,"##쪄":7356,"##됏":7357,"##싲":7358,"##쑈":7359,"##킄":7360,"##윰":7361,"##퉁":7362,"##쮸":7363,"##쁜":7364,"##슥":7365,"##톡":7366,"##룰":7367,"##흦":7368,"##깥":7369,"##혐":7370,"##측":7371,"##뛸":7372,"##썌":7373,"##픈":7374,"##룸":7375,"##첼":7376,"##즬":7377,"##끌":7378,"##톤":7379,"##딩":7380,"##펬":7381,"##꼼":7382,"##흉":7383,"##듐":7384,"##곽":7385,"##칙":7386,"##댐":7387,"##뻔":7388,"##켓":7389,"##믆":7390,"##뫃":7391,"##률":7392,"##빧":7393,"##찿":7394,"##탐":7395,"##옌":7396,"##걔":7397,"##틸":7398,"##꿩":7399,"##슨":7400,"##낭":7401,"##돵":7402,"##땜":7403,"##폘":7404,"##뎈":7405,"##밍":7406,"##앵":7407,"##갘":7408,"##빰":7409,"##읂":7410,"##샎":7411,"##꺊":7412,"##쉑":7413,"##셱":7414,"##쒸":7415,"##텅":7416,"##믿":7417,"##랔":7418,"##썬":7419,"##삿":7420,"##슁":7421,"##맺":7422,"##약":7423,"##델":7424,"##녜":7425,"##덩":7426,"##믄":7427,"##곱":7428,"##쫩":7429,"##룽":7430,"##쌀":7431,"##촉":7432,"##쯔":7433,"##짭":7434,"##곬":7435,"##흡":7436,"##껐":7437,"##좃":7438,"##눠":7439,"##춥":7440,"##빳":7441,"##슝":7442,"##탕":7443,"##옵":7444,"##얄":7445,"##샬":7446,"##롬":7447,"##끗":7448,"##녠":7449,"##섴":7450,"##캬":7451,"##딳":7452,"##뜸":7453,"##켘":7454,"##뵙":7455,"##욧":7456,"##뻤":7457,"##낮":7458,"##댜":7459,"##잀":7460,"##쑥":7461,"##쟴":7462,"##욘":7463,"##틋":7464,"##렐":7465,"##흌":7466,"##짘":7467,"##웈":7468,"##둘":7469,"##낳":7470,"##횡":7471,"##쌖":7472,"##팬":7473,"##육":7474,"##껀":7475,"##솟":7476,"##웩":7477,"##냬":7478,"##텍":7479,"##농":7480,"##녹":7481,"##낫":7482,"##췄":7483,"##혼":7484,"##탆":7485,"##쾌":7486,"##셍":7487,"##흰":7488,"##첸":7489,"##콕":7490,"##놧":7491,"##븀":7492,"##겐":7493,"##렘":7494,"##헝":7495,"##앸":7496,"##돕":7497,"##풜":7498,"##덍":7499,"##뎁":7500,"##콧":7501,"##앞":7502,"##햬":7503,"##냅":7504,"##뻬":7505,"##땨":7506,"##팘":7507,"##쌘":7508,"##찡":7509,"##엉":7510,"##깝":7511,"##슙":7512,"##깔":7513,"##꾿":7514,"##샹":7515,"##깎":7516,"##옆":7517,"##갚":7518,"##캇":7519,"##엮":7520,"##켈":7521,"##밪":7522,"##닙":7523,"##챱":7524,"##볭":7525,"##숨":7526,"##웬":7527,"##샨":7528,"##붙":7529,"##뒀":7530,"##꺆":7531,"##섕":7532,"##킥":7533,"##눔":7534,"##숑":7535,"##웹":7536,"##붸":7537,"##첫":7538,"##뭉":7539,"##흘":7540,"##땁":7541,"##꺠":7542,"##귁":7543,"##텼":7544,"##쓍":7545,"##컹":7546,"##왓":7547,"##닫":7548,"##곲":7549,"##샣":7550,"##낄":7551,"##끊":7552,"##챨":7553,"##몆":7554,"##븐":7555,"##팽":7556,"##뿌":7557,"##죵":7558,"##툥":7559,"##뉨":7560,"##깈":7561,"##럭":7562,"##씀":7563,"##퇏":7564,"##궉":7565,"##둑":7566,"##낸":7567,"##겔":7568,"##됬":7569,"##륙":7570,"##챃":7571,"##콩":7572,"##쌍":7573,"##뺐":7574,"##꿍":7575,"##뵈":7576,"##쏴":7577,"##즌":7578,"##훙":7579,"##떤":7580,"##쁀":7581,"##쁨":7582,"##젴":7583,"##핰":7584,"##츄":7585,"##렑":7586,"##젎":7587,"##껴":7588,"##믁":7589,"##짤":7590,"##얽":7591,"##쩌":7592,"##욷":7593,"##꿰":7594,"##꽹":7595,"##롄":7596,"##넉":7597,"##펜":7598,"##갠":7599,"##츈":7600,"##랩":7601,"##꾹":7602,"##빔":7603,"##랐":7604,"##븨":7605,"##뵌":7606,"##겉":7607,"##츰":7608,"##줍":7609,"##뭙":7610,"##킴":7611,"##낃":7612,"##씅":7613,"##퐐":7614,"##쌰":7615,"##웠":7616,"##챠":7617,"##텔":7618,"##뾰":7619,"##킬":7620,"##컽":7621,"##띤":7622,"##띨":7623,"##뼁":7624,"##줜":7625,"##왚":7626,"##샡":7627,"##뱃":7628,"##콥":7629,"##귱":7630,"##뎃":7631,"##빝":7632,"##녤":7633,"##잎":7634,"##엄":7635,"##꿎":7636,"##늑":7637,"##껏":7638,"##멓":7639,"##밣":7640,"##됨":7641,"##듭":7642,"##똔":7643,"##겅":7644,"##쪠":7645,"##챙":7646,"##뻉":7647,"##먜":7648,"##텈":7649,"##좁":7650,"##섰":7651,"##짢":7652,"##빡":7653,"##궹":7654,"##쌩":7655,"##뷸":7656,"##홋":7657,"##훟":7658,"##밧":7659,"##슆":7660,"##맛":7661,"##떡":7662,"##쉭":7663,"##슘":7664,"##폈":7665,"##듲":7666,"##똒":7667,"##죤":7668,"##뻘":7669,"##흭":7670,"##챌":7671,"##칸":7672,"##줩":7673,"##놰":7674,"##몫":7675,"##쌱":7676,"##틈":7677,"##댁":7678,"##쒼":7679,"##잍":7680,"##퍌":7681,"##쏃":7682,"##댱":7683,"##얍":7684,"##튭":7685,"##뀨":7686,"##륄":7687,"##궠":7688,"##챤":7689,"##괸":7690,"##쟎":7691,"##튀":7692,"##뱀":7693,"##닼":7694,"##괘":7695,"##뺠":7696,"##좔":7697,"##큄":7698,"##픔":7699,"##띰":7700,"##홀":7701,"##뵤":7702,"##쌓":7703,"##캥":7704,"##껌":7705,"##믓":7706,"##줫":7707,"##빤":7708,"##꺙":7709,"##싄":7710,"##뇽":7711,"##긕":7712,"##얏":7713,"##졈":7714,"##싁":7715,"##랰":7716,"##괙":7717,"##냘":7718,"##숯":7719,"##즁":7720,"##뱈":7721,"##끾":7722,"##튬":7723,"##뷔":7724,"##쩜":7725,"##젖":7726,"##챔":7727,"##쿤":7728,"##뻑":7729,"##쳔":7730,"##썡":7731,"##킸":7732,"##펐":7733,"##낌":7734,"##싴":7735,"##콰":7736,"##띡":7737,"##캄":7738,"##퀘":7739,"##팠":7740,"##켰":7741,"##컥":7742,"##쬭":7743,"##쨩":7744,"##뜯":7745,"##겍":7746,"##곰":7747,"##쉠":7748,"##덧":7749,"##즜":7750,"##쯨":7751,"##찜":7752,"##쿵":7753,"##퍽":7754,"##읽":7755,"##섶":7756,"##뱝":7757,"##붇":7758,"##힉":7759,"##쿄":7760,"##끓":7761,"##쫌":7762,"##썁":7763,"##쿸":7764,"##꼈":7765,"##껍":7766,"##퇬":7767,"##눞":7768,"##찷":7769,"##샵":7770,"##헣":7771,"##훻":7772,"##콤":7773,"##겸":7774,"##햅":7775,"##쥽":7776,"##챳":7777,"##핱":7778,"##쉔":7779,"##햑":7780,"##엎":7781,"##툰":7782,"##딕":7783,"##뽱":7784,"##듵":7785,"##튱":7786,"##묹":7787,"##닛":7788,"##컬":7789,"##볌":7790,"##쨌":7791,"##줴":7792,"##쿡":7793,"##긶":7794,"##챗":7795,"##딧":7796,"##햘":7797,"##듼":7798,"##쨉":7799,"##돳":7800,"##붠":7801,"##즉":7802,"##핌":7803,"##웁":7804,"##뮤":7805,"##뱌":7806,"##껭":7807,"##쫀":7808,"##퇘":7809,"##궅":7810,"##녇":7811,"##캘":7812,"##킁":7813,"##뀩":7814,"##쯫":7815,"##쯪":7816,"##땈":7817,"##롯":7818,"##펫":7819,"##랍":7820,"##쇆":7821,"##놜":7822,"##겄":7823,"##뻡":7824,"##삔":7825,"##셸":7826,"##춍":7827,"##썪":7828,"##끈":7829,"##댒":7830,"##팀":7831,"##녓":7832,"##넝":7833,"##텤":7834,"##퉄":7835,"##쭟":7836,"##뙈":7837,"##됐":7838,"##쌕":7839,"##헷":7840,"##릎":7841,"##캣":7842,"##떵":7843,"##붐":7844,"##잦":7845,"##닯":7846,"##꽂":7847,"##횐":7848,"##맘":7849,"##훌":7850,"##쀼":7851,"##큿":7852,"##퉜":7853,"##뭅":7854,"##쭌":7855,"##긱":7856,"##땃":7857,"##퀜":7858,"##냠":7859,"##웸":7860,"##닿":7861,"##뒷":7862,"##납":7863,"##텽":7864,"##듸":7865,"##쭝":7866,"##졍":7867,"##넙":7868,"##씻":7869,"##옛":7870,"##팥":7871,"##싀":7872,"##긍":7873,"##덤":7874,"##깊":7875,"##횬":7876,"##뀔":7877,"##쪘":7878,"##릐":7879,"##헐":7880,"##쑵":7881,"##닜":7882,"##덟":7883,"##췼":7884,"##벡":7885,"##팝":7886,"##쉼":7887,"##펨":7888,"##템":7889,"##됄":7890,"##캆":7891,"##잼":7892,"##꽁":7893,"##뺏":7894,"##쫛":7895,"##봆":7896,"##똬":7897,"##쭛":7898,"##셜":7899,"##걩":7900,"##펗":7901,"##큉":7902,"##꺌":7903,"##뀻":7904,"##휸":7905,"##꺘":7906,"##랼":7907,"##퐉":7908,"##궷":7909,"##짣":7910,"##룀":7911,"##돋":7912,"##떰":7913,"##얌":7914,"##뎄":7915,"##뽠":7916,"##넥":7917,"##캉":7918,"##뎀":7919,"##볜":7920,"##읺":7921,"##넛":7922,"##퓨":7923,"##씌":7924,"##붤":7925,"##썋":7926,"##녆":7927,"##샕":7928,"##궸":7929,"##늕":7930,"##먀":7931,"##큘":7932,"##븅":7933,"##꿉":7934,"##챈":7935,"##콸":7936,"##짞":7937,"##뱔":7938,"##늙":7939,"##덥":7940,"##젱":7941,"##갹":7942,"##덯":7943,"##톈":7944,"##댏":7945,"##펍":7946,"##좝":7947,"##옄":7948,"##띵":7949,"##쎈":7950,"##꿄":7951,"##껚":7952,"##됱":7953,"##젹":7954,"##쑝":7955,"##괵":7956,"##낵":7957,"##뻐":7958,"##쩢":7959,"##벞":7960,"##럱":7961,"##짧":7962,"##꺽":7963,"##곴":7964,"##곘":7965,"##컄":7966,"##뢱":7967,"##꼽":7968,"##띄":7969,"##섘":7970,"##먁":7971,"##쫓":7972,"##핞":7973,"##뺑":7974,"##맬":7975,"##뱍":7976,"##켤":7977,"##쭤":7978,"##좭":7979,"##볠":7980,"##깋":7981,"##탭":7982,"##밋":7983,"##뿡":7984,"##빴":7985,"##짠":7986,"##앱":7987,"##쮭":7988,"##딲":7989,"##졷":7990,"##괄":7991,"##넽":7992,"##겤":7993,"##툌":7994,"##퉈":7995,"##댈":7996,"##씁":7997,"##딥":7998,"##딹":7999,"##싢":8000,"##깁":8001,"##떻":8002,"##칵":8003,"##췬":8004,"##쟙":8005,"##잰":8006,"##쌋":8007,"##낚":8008,"##큔":8009,"##돛":8010,"##깽":8011,"##짰":8012,"##쐐":8013,"##죸":8014,"##둣":8015,"##퓍":8016,"##젯":8017,"##봍":8018,"##쭐":8019,"##쪼":8020,"##햏":8021,"##섻":8022,"##뮬":8023,"##샐":8024,"##꺢":8025,"##윅":8026,"##앳":8027,"##헹":8028,"##멩":8029,"##쉴":8030,"##멕":8031,"##쿼":8032,"##슉":8033,"##츕":8034,"##늅":8035,"##윔":8036,"##닺":8037,"##섁":8038,"##빻":8039,"##췌":8040,"##푴":8041,"##젓":8042,"##긑":8043,"##쩐":8044,"##썼":8045,"##멬":8046,"##겣":8047,"##쥭":8048,"##랃":8049,"##뺄":8050,"##걀":8051,"##싯":8052,"##늼":8053,"##궨":8054,"##쥰":8055,"##잌":8056,"##섣":8057,"##뵁":8058,"##늣":8059,"##겆":8060,"##맙":8061,"##좩":8062,"##넓":8063,"##앂":8064,"##곌":8065,"##쐬":8066,"##픗":8067,"##쉨":8068,"##훍":8069,"##뚥":8070,"##졀":8071,"##퐈":8072,"##짯":8073,"##첞":8074,"##벗":8075,"##쓥":8076,"##삑":8077,"##툐":8078,"##썎":8079,"##쥼":8080,"##쇤":8081,"##뚫":8082,"##맵":8083,"##뫈":8084,"##셓":8085,"##펄":8086,"##쌴":8087,"##몸":8088,"##띱":8089,"##씽":8090,"##뼝":8091,"##흠":8092,"##셴":8093,"##즤":8094,"##젬":8095,"##몀":8096,"##쨱":8097,"##됵":8098,"##힙":8099,"##텨":8100,"##앚":8101,"##멈":8102,"##밑":8103,"##붰":8104,"##쁫":8105,"##핡":8106,"##됫":8107,"##읃":8108,"##샅":8109,"##뿅":8110,"##괼":8111,"##밉":8112,"##훯":8113,"##쒞":8114,"##샋":8115,"##낏":8116,"##쬬":8117,"##듈":8118,"##꽝":8119,"##뀪":8120,"##럿":8121,"##휼":8122,"##웽":8123,"##눕":8124,"##뫙":8125,"##걋":8126,"##쓿":8127,"##꽥":8128,"##짬":8129,"##잭":8130,"##씿":8131,"##딪":8132,"##뷴":8133,"##뭰":8134,"##찹":8135,"##엥":8136,"##좆":8137,"##쟢":8138,"##쨘":8139,"##믐":8140,"##숸":8141,"##슫":8142,"##퓩":8143,"##읔":8144,"##뻨":8145,"##숍":8146,"##멀":8147,"##렊":8148,"##긲":8149,"##헼":8150,"##샟":8151,"##돝":8152,"##핏":8153,"##뀝":8154,"##쯧":8155,"##웊":8156,"##붚":8157,"##듳":8158,"##앨":8159,"##벐":8160,"##됌":8161,"##벱":8162,"##숚":8163,"##봇":8164,"##젝":8165,"##솩":8166,"##캍":8167,"##앍":8168,"##칽":8169,"##캌":8170,"##닪":8171,"##빚":8172,"##튠":8173,"##헴":8174,"##붹":8175,"##냫":8176,"##겹":8177,"##쏕":8178,"##뽁":8179,"##갛":8180,"##욤":8181,"##쟤":8182,"##홈":8183,"##껫":8184,"##뮹":8185,"##핫":8186,"##꿃":8187,"##랸":8188,"##낯":8189,"##롷":8190,"##낂":8191,"##떽":8192,"##쳫":8193,"##몹":8194,"##쑴":8195,"##풰":8196,"##췅":8197,"##솬":8198,"##텀":8199,"##삥":8200,"##꽐":8201,"##찴":8202,"##볕":8203,"##믹":8204,"##굼":8205,"##챰":8206,"##샷":8207,"##읜":8208,"##꺅":8209,"##뤠":8210,"##퇫":8211,"##켸":8212,"##넖":8213,"##봥":8214,"##맄":8215,"##됻":8216,"##굑":8217,"##엣":8218,"##뫼":8219,"##픵":8220,"##솤":8221,"##썅":8222,"##솉":8223,"##퉯":8224,"##얹":8225,"##꼥":8226,"##큑":8227,"##꾺":8228,"##묠":8229,"##늡":8230,"##뵹":8231,"##쏨":8232,"##싮":8233,"##샜":8234,"##퇄":8235,"##웟":8236,"##떈":8237,"##뛧":8238,"##낋":8239,"##쒄":8240,"##둡":8241,"##켕":8242,"##뾱":8243,"##닠":8244,"##꼿":8245,"##텁":8246,"##쾡":8247,"##튔":8248,"##겈":8249,"##먙":8250,"##졶":8251,"##갆":8252,"##떪":8253,"##쨧":8254,"##겥":8255,"##젒":8256,"##릾":8257,"##윷":8258,"##쑹":8259,"##찻":8260,"##뫄":8261,"##댯":8262,"##탸":8263,"##쫭":8264,"##쐨":8265,"##맣":8266,"##괜":8267,"##밌":8268,"##솥":8269,"##꼇":8270,"##뮨":8271,"##읋":8272,"##탯":8273,"##셧":8274,"##햩":8275,"##뾸":8276,"##헙":8277,"##먕":8278,"##겊":8279,"##롐":8280,"##욯":8281,"##푹":8282,"##쎆":8283,"##왠":8284,"##눴":8285,"##궥":8286,"##듁":8287,"##쳖":8288,"##얗":8289,"##쓱":8290,"##갗":8291,"##꾤":8292,"##훡":8293,"##넵":8294,"##땟":8295,"##읫":8296,"##릥":8297,"##헸":8298,"##쟝":8299,"##졉":8300,"##읗":8301,"##쎙":8302,"##겂":8303,"##먠":8304,"##셭":8305,"##듦":8306,"##홧":8307,"##꿑":8308,"##칫":8309,"##럐":8310,"##볇":8311,"##랗":8312,"##깄":8313,"##뺙":8314,"##냇":8315,"##쎍":8316,"##뱡":8317,"##뽝":8318,"##켯":8319,"##펭":8320,"##뺵":8321,"##듢":8322,"##슼":8323,"##맇":8324,"##릏":8325,"##묜":8326,"##쏵":8327,"##곁":8328,"##낹":8329,"##훜":8330,"##굶":8331,"##좱":8332,"##얖":8333,"##칬":8334,"##맑":8335,"##쒰":8336,"##얭":8337,"##얚":8338,"##쯩":8339,"##붑":8340,"##꿨":8341,"##팁":8342,"##쩡":8343,"##늿":8344,"##솝":8345,"##됳":8346,"##헿":8347,"##펙":8348,"##웜":8349,"##찟":8350,"##쎼":8351,"##뻭":8352,"##짇":8353,"##뜡":8354,"##꿕":8355,"##쯈":8356,"##툴":8357,"##쏜":8358,"##욬":8359,"##놋":8360,"##졐":8361,"##렄":8362,"##맠":8363,"##힣":8364,"##짒":8365,"##냼":8366,"##숫":8367,"##뽈":8368,"##뷘":8369,"##뛕":8370,"##딛":8371,"##벳":8372,"##휄":8373,"##얠":8374,"##칟":8375,"##뷁":8376,"##쫘":8377,"##옳":8378,"##쌑":8379,"##튕":8380,"##씸":8381,"##뺘":8382,"##쑉":8383,"##툼":8384,"##찢":8385,"##뗑":8386,"##셉":8387,"##핬":8388,"##댝":8389,"##굳":8390,"##밚":8391,"##깒":8392,"##츨":8393,"##굾":8394,"##긐":8395,"##뎠":8396,"##됙":8397,"##윜":8398,"##쫑":8399,"##맏":8400,"##썹":8401,"##힛":8402,"##탔":8403,"##씝":8404,"##쎽":8405,"##끕":8406,"##춛":8407,"##켁":8408,"##윕":8409,"##힄":8410,"##낑":8411,"##눝":8412,"##탠":8413,"##밸":8414,"##멱":8415,"##삠":8416,"##쏫":8417,"##곀":8418,"##읅":8419,"##늉":8420,"##룔":8421,"##햔":8422,"##멧":8423,"##꼳":8424,"##젔":8425,"##싣":8426,"##뷉":8427,"##퍠":8428,"##쒭":8429,"##홰":8430,"##쉿":8431,"##훠":8432,"##쯛":8433,"##녘":8434,"##웍":8435,"##돸":8436,"##뉸":8437,"##뽤":8438,"##곶":8439,"##죈":8440,"##셌":8441,"##됗":8442,"##뺨":8443,"##늪":8444,"##헉":8445,"##좨":8446,"##꾱":8447,"##쉘":8448,"##윙":8449,"##욜":8450,"##앰":8451,"##썻":8452,"##샀":8453,"##풴":8454,"##짙":8455,"##샴":8456,"##볐":8457,"##뺃":8458,"##쥴":8459,"##뢴":8460,"##뽸":8461,"##헠":8462,"##겜":8463,"##낱":8464,"##쏟":8465,"##슌":8466,"##떳":8467,"##딍":8468,"##먾":8469,"##맴":8470,"##뉜":8471,"##쩰":8472,"##꽊":8473,"##쵸":8474,"##횟":8475,"##뫤":8476,"##녱":8477,"##떴":8478,"##죃":8479,"##쪹":8480,"##륀":8481,"##뫌":8482,"##삲":8483,"##뒬":8484,"##왐":8485,"##뛴":8486,"##됀":8487,"##솜":8488,"##슷":8489,"##랠":8490,"##섄":8491,"##몼":8492,"##잏":8493,"##얇":8494,"##풒":8495,"##겢":8496,"##궍":8497,"##읎":8498,"##쫄":8499,"##샢":8500,"##엊":8501,"##쪅":8502,"##콬":8503,"##쌉":8504,"##쭭":8505,"##챻":8506,"##둠":8507,"##쑨":8508,"##샌":8509,"##둿":8510,"##짆":8511,"##꿋":8512,"##옇":8513,"##홥":8514,"##쉩":8515,"##쀅":8516,"##촐":8517,"##첵":8518,"##깤":8519,"##픽":8520,"##캡":8521,"##쩠":8522,"##샏":8523,"##믜":8524,"##샙":8525,"##잃":8526,"##쏖":8527,"##섓":8528,"##푶":8529,"##봑":8530,"##쮹":8531,"##쮜":8532,"##븃":8533,"##긂":8534,"##횽":8535,"##덫":8536,"##옙":8537,"##닚":8538,"##걐":8539,"##빋":8540,"##굉":8541,"##쳰":8542,"##긤":8543,"##캤":8544,"##닏":8545,"##퉛":8546,"##뇀":8547,"##겝":8548,"##닽":8549,"##싳":8550,"##밯":8551,"##긇":8552,"##짏":8553,"##슐":8554,"##쳄":8555,"##즨":8556,"##첬":8557,"##펩":8558,"##뛔":8559,"##킝":8560,"##쏭":8561,"##뚣":8562,"##좇":8563,"##먤":8564,"##벸":8565,"##뵷":8566,"##틷":8567,"##벍":8568,"##큇":8569,"##닳":8570,"##걕":8571,"##셅":8572,"##듕":8573,"##숀":8574,"##컿":8575,"##힡":8576,"##먈":8577,"##삡":8578,"##뙤":8579,"##죙":8580,"##쪈":8581,"##둉":8582,"##칡":8583,"##럾":8584,"##샚":8585,"##낎":8586,"##딤":8587,"##꿜":8588,"##틉":8589,"##웡":8590,"##윘":8591,"##툇":8592,"##앟":8593,"##쿯":8594,"##쯰":8595,"##숲":8596,"##쳈":8597,"##찝":8598,"##쫨":8599,"##폄":8600,"##쳠":8601,"##떱":8602,"##읻":8603,"##훗":8604,"##뀈":8605,"##찎":8606,"##쩓":8607,"##붘":8608,"##뼐":8609,"##껑":8610,"##쌜":8611,"##놉":8612,"##숵":8613,"##툭":8614,"##깉":8615,"##쟉":8616,"##춧":8617,"##싥":8618,"##흣":8619,"##겓":8620,"##솦":8621,"##왁":8622,"##쉒":8623,"##땔":8624,"##헛":8625,"##섦":8626,"##쁠":8627,"##샫":8628,"##맡":8629,"##뿛":8630,"##틜":8631,"##잊":8632,"##훵":8633,"##쇟":8634,"##쳥":8635,"##왘":8636,"##벰":8637,"##믕":8638,"##훨":8639,"##릌":8640,"##옜":8641,"##쇙":8642,"##엡":8643,"##죳":8644,"##녛":8645,"##삳":8646,"##핥":8647,"##빢":8648,"##좫":8649,"##웻":8650,"##쉣":8651,"##럻":8652,"##쒱":8653,"##낻":8654,"##늴":8655,"##벩":8656,"##밷":8657,"##뻟":8658,"##팟":8659,"##퀵":8660,"##몿":8661,"##꽉":8662,"##촞":8663,"##헨":8664,"##욥":8665,"##퍀":8666,"##찤":8667,"##팰":8668,"##꽦":8669,"##낒":8670,"##쿽":8671,"##괗":8672,"##잨":8673,"##쇣":8674,"##씮":8675,"##벓":8676,"##녏":8677,"##틧":8678,"##튓":8679,"##솽":8680,"##꾀":8681,"##낗":8682,"##놐":8683,"##롶":8684,"##퓽":8685,"##쓃":8686,"##밞":8687,"##놂":8688,"##뻣":8689,"##쟨":8690,"##럥":8691,"##굲":8692,"##갅":8693,"##쒴":8694,"##뉩":8695,"##뇰":8696,"##뭨":8697,"##홇":8698,"##빕":8699,"##팃":8700,"##찦":8701,"##뎐":8702,"##셑":8703,"##벵":8704,"##펼":8705,"##쪾":8706,"##좐":8707,"##휩":8708,"##퇵":8709,"##녈":8710,"##텬":8711,"##쨋":8712,"##쥑":8713,"##퀀":8714,"##꼤":8715,"##씊":8716,"##붝":8717,"##뺭":8718,"##퓡":8719,"##톳":8720,"##꽤":8721,"##똠":8722,"##좽":8723,"##롦":8724,"##댙":8725,"##갢":8726,"##쫏":8727,"##쳬":8728,"##즛":8729,"##햛":8730,"##욋":8731,"##웞":8732,"##쯥":8733,"##읖":8734,"##뎔":8735,"##잤":8736,"##샑":8737,"##깂":8738,"##룅":8739,"##캭":8740,"##퉝":8741,"##늗":8742,"##쬎":8743,"##킵":8744,"##벖":8745,"##궂":8746,"##빹":8747,"##둴":8748,"##썰":8749,"##촟":8750,"##띔":8751,"##뗌":8752,"##곯":8753,"##뇍":8754,"##큌":8755,"##싩":8756,"##댘":8757,"##늩":8758,"##칞":8759,"##딫":8760,"##궃":8761,"##뺌":8762,"##꼌":8763,"##쬽":8764,"##끆":8765,"##쫜":8766,"##돗":8767,"##캠":8768,"##폽":8769,"##뀐":8770,"##꿐":8771,"##봽":8772,"##곟":8773,"##줓":8774,"##잒":8775,"##냏":8776,"##뼜":8777,"##슭":8778,"##훑":8779,"##냣":8780,"##픅":8781,"##솰":8782,"##혠":8783,"##휫":8784,"##훳":8785,"##얻":8786,"##솹":8787,"##퍙":8788,"##줮":8789,"##쌸":8790,"##죡":8791,"##슶":8792,"##틊":8793,"##쾨":8794,"##흟":8795,"##엙":8796,"##쀄":8797,"##싕":8798,"##쎤":8799,"##쉈":8800,"##큽":8801,"##셕":8802,"##넄":8803,"##쎴":8804,"##샥":8805,"##뷩":8806,"##앀":8807,"##샇":8808,"##볓":8809,"##푠":8810,"##쳡":8811,"##뗴":8812,"##늦":8813,"##깰":8814,"##뻠":8815,"##힏":8816,"##삯":8817,"##꽜":8818,"##떩":8819,"##쒓":8820,"##씰":8821,"##셤":8822,"##룍":8823,"##넠":8824,"##꼣":8825,"##묽":8826,"##꿌":8827,"##멵":8828,"##귬":8829,"##렂":8830,"##쎠":8831,"##봨":8832,"##츌":8833,"##썸":8834,"##켠":8835,"##뿝":8836,"##탇":8837,"##췁":8838,"##웝":8839,"##챡":8840,"##샒":8841,"##짼":8842,"##믑":8843,"##쳇":8844,"##힝":8845,"##밬":8846,"##엗":8847,"##깼":8848,"##슄":8849,"##쎔":8850,"##똣":8851,"##컼":8852,"##뗀":8853,"##쿜":8854,"##빩":8855,"##뜛":8856,"##륧":8857,"##얋":8858,"##깺":8859,"##햙":8860,"##뮛":8861,"##얶":8862,"##풋":8863,"##늫":8864,"##뎋":8865,"##궛":8866,"##뼘":8867,"##쌬":8868,"##빯":8869,"##햊":8870,"##핍":8871,"##즹":8872,"##줃":8873,"##걶":8874,"##묭":8875,"##삤":8876,"##춱":8877,"##껠":8878,"##끰":8879,"##쟥":8880,"##헀":8881,"##삣":8882,"##좸":8883,"##똏":8884,"##휭":8885,"##줼":8886,"##뒝":8887,"##릡":8888,"##읬":8889,"##쥤":8890,"##쥥":8891,"##땠":8892,"##껨":8893,"##붛":8894,"##삘":8895,"##쬡":8896,"##띈":8897,"##둍":8898,"##쉲":8899,"##걲":8900,"##흨":8901,"##폿":8902,"##쫴":8903,"##쉅":8904,"##훅":8905,"##캑":8906,"##뿎":8907,"##붂":8908,"##봈":8909,"##뇻":8910,"##죧":8911,"##뺀":8912,"##쁩":8913,"##샗":8914,"##쩦":8915,"##쳑":8916,"##밎":8917,"##띧":8918,"##뿜":8919,"##뢍":8920,"##헥":8921,"##슛":8922,"##왤":8923,"##밐":8924,"##쨕":8925,"##픠":8926,"##뤔":8927,"##눜":8928,"##볂":8929,"##쳌":8930,"##슢":8931,"##퍅":8932,"##읈":8933,"##퓸":8934,"##낕":8935,"##샾":8936,"##낓":8937,"##끅":8938,"##큨":8939,"##튽":8940,"##잣":8941,"##쥳":8942,"##몐":8943,"##듷":8944,"##졎":8945,"##쮝":8946,"##꿲":8947,"##췡":8948,"##뗸":8949,"##됭":8950,"##켐":8951,"##쇽":8952,"##찭":8953,"##왝":8954,"##뗭":8955,"##돱":8956,"##쐒":8957,"##뜽":8958,"##뀅":8959,"##옸":8960,"##뷍":8961,"##쓈":8962,"##됔":8963,"##툽":8964,"##꿧":8965,"##탤":8966,"##껰":8967,"##딨":8968,"##봔":8969,"##햌":8970,"##튁":8971,"##맟":8972,"##큥":8973,"##맀":8974,"##삵":8975,"##꿂":8976,"##츼":8977,"##읶":8978,"##꺡":8979,"##걘":8980,"##볗":8981,"##쾍":8982,"##첲":8983,"##샸":8984,"##텃":8985,"##켑":8986,"##캅":8987,"##뺍":8988,"##킫":8989,"##큭":8990,"##핟":8991,"##윳":8992,"##빸":8993,"##봊":8994,"##왱":8995,"##휔":8996,"##뜳":8997,"##덬":8998,"##촘":8999,"##잟":9000,"##걑":9001,"##쯮":9002,"##쉜":9003,"##퓰":9004,"##묶":9005,"##팧":9006,"##틓":9007,"##첮":9008,"##슾":9009,"##곈":9010,"##짴":9011,"##쎡":9012,"##닊":9013,"##윹":9014,"##밨":9015,"##쿰":9016,"##퓌":9017,"##깸":9018,"##긎":9019,"##냑":9020,"##뾥":9021,"##돡":9022,"##룜":9023,"##칀":9024,"##돟":9025,"##렿":9026,"##냌":9027,"##낔":9028,"##쉙":9029,"##풔":9030,"##뭥":9031,"##줠":9032,"##볅":9033,"##궘":9034,"##끨":9035,"##뗏":9036,"##릮":9037,"##퓔":9038,"##꺓":9039,"##뿍":9040,"##핋":9041,"##숱":9042,"##줗":9043,"##븡":9044,"##싰":9045,"##횰":9046,"##뿰":9047,"##젭":9048,"##눅":9049,"##좢":9050,"##틔":9051,"##뱰":9052,"##팻":9053,"##굚":9054,"##겛":9055,"##롴":9056,"##샞":9057,"##핝":9058,"##뒺":9059,"##맷":9060,"##굡":9061,"##썀":9062,"##콱":9063,"##찓":9064,"##윱":9065,"##끙":9066,"##갿":9067,"##쐰":9068,"##뉵":9069,"##긧":9070,"##휀":9071,"##웄":9072,"##퀰":9073,"##췤":9074,"##멨":9075,"##휜":9076,"##챼":9077,"##쿧":9078,"##됃":9079,"##뀬":9080,"##뮴":9081,"##깳":9082,"##둇":9083,"##봌":9084,"##돜":9085,"##꿏":9086,"##똭":9087,"##숏":9088,"##툿":9089,"##얬":9090,"##꾾":9091,"##릳":9092,"##칯":9093,"##붒":9094,"##돐":9095,"##땄":9096,"##뺴":9097,"##죴":9098,"##렙":9099,"##멎":9100,"##쵹":9101,"##튻":9102,"##륍":9103,"##뇝":9104,"##쟣":9105,"##밢":9106,"##밦":9107,"##풎":9108,"##걉":9109,"##횄":9110,"##괬":9111,"##짷":9112,"##뀍":9113,"##귯":9114,"##믾":9115,"##쨚":9116,"##뼥":9117,"##맢":9118,"##읒":9119,"##쨈":9120,"##좟":9121,"##댭":9122,"##눟":9123,"##잩":9124,"##갏":9125,"##뾀":9126,"##컈":9127,"##쒕":9128,"##햟":9129,"##귾":9130,"##캨":9131,"##놎":9132,"##븍":9133,"##쭻":9134,"##숰":9135,"##헭":9136,"##귿":9137,"##췻":9138,"##팢":9139,"##혯":9140,"##좒":9141,"##쨥":9142,"##칰":9143,"##깞":9144,"##낲":9145,"##탙":9146,"##혛":9147,"##됡":9148,"##밊":9149,"##쿌":9150,"##쭹":9151,"##쌧":9152,"##톽":9153,"##엏":9154,"##튘":9155,"##괍":9156,"##둰":9157,"##꿱":9158,"##돤":9159,"##쏸":9160,"##럄":9161,"##챴":9162,"##쯕":9163,"##밓":9164,"##솓":9165,"##앋":9166,"##떶":9167,"##눤":9168,"##띁":9169,"##붉":9170,"##얜":9171,"##쭥":9172,"##냤":9173,"##혭":9174,"##뇜":9175,"##읊":9176,"##귤":9177,"##쥇":9178,"##눗":9179,"##쓒":9180,"##땰":9181,"##짹":9182,"##힜":9183,"##햭":9184,"##츀":9185,"##넒":9186,"##뺔":9187,"##낍":9188,"##핪":9189,"##굥":9190,"##긵":9191,"##쇜":9192,"##쏼":9193,"##쌤":9194,"##쭁":9195,"##믘":9196,"##쯍":9197,"##헕":9198,"##넻":9199,"##놤":9200,"##옫":9201,"##얙":9202,"##럠":9203,"##쁮":9204,"##뼌":9205,"##쾈":9206,"##뜿":9207,"##켱":9208,"##묺":9209,"##찧":9210,"##깠":9211,"##뜌":9212,"##싺":9213,"##껸":9214,"##갬":9215,"##뗘":9216,"##졨":9217,"##팣":9218,"##좣":9219,"##읐":9220,"##쒯":9221,"##넜":9222,"##촪":9223,"##벚":9224,"##쀍":9225,"##쯀":9226,"##꼮":9227,"##톼":9228,"##춉":9229,"##먗":9230,"##퀫":9231,"##쩟":9232,"##줨":9233,"##딬":9234,"##쉓":9235,"##칮":9236,"##갲":9237,"##촷":9238,"##쁑":9239,"##젛":9240,"##뼉":9241,"##풐":9242,"##갉":9243,"##뙇":9244,"##섿":9245,"##잆":9246,"##훕":9247,"##낣":9248,"##궜":9249,"##몢":9250,"##푀":9251,"##빆":9252,"##붱":9253,"##딻":9254,"##얨":9255,"##렜":9256,"##흫":9257,"##퇀":9258,"##쪗":9259,"##츅":9260,"##껵":9261,"##쭫":9262,"##듧":9263,"##쟄":9264,"##럘":9265,"##칧":9266,"##띾":9267,"##뜅":9268,"##댼":9269,"##꿥":9270,"##뫅":9271,"##쵼":9272,"##걈":9273,"##횃":9274,"##콪":9275,"##헜":9276,"##훱":9277,"##팸":9278,"##뼛":9279,"##깢":9280,"##옧":9281,"##럇":9282,"##켬":9283,"##볍":9284,"##쓘":9285,"##읰":9286,"##싑":9287,"##탹":9288,"##쇳":9289,"##핔":9290,"##괒":9291,"##잫":9292,"##멤":9293,"##닾":9294,"##걜":9295,"##럔":9296,"##햰":9297,"##턔":9298,"##깩":9299,"##쥅":9300,"##뜍":9301,"##벊":9302,"##뜀":9303,"##쎕":9304,"##탶":9305,"##퓟":9306,"##돚":9307,"##긩":9308,"##뵘":9309,"##멐":9310,"##꾭":9311,"##롕":9312,"##븝":9313,"##쓩":9314,"##봬":9315,"##앾":9316,"##숟":9317,"##걤":9318,"##쏙":9319,"##앖":9320,"##뀟":9321,"##빓":9322,"##핖":9323,"##뉼":9324,"##켴":9325,"##좉":9326,"##읁":9327,"##힠":9328,"##꿁":9329,"##럵":9330,"##뀡":9331,"##젚":9332,"##똵":9333,"##잗":9334,"##뱥":9335,"##췽":9336,"##뤀":9337,"##휏":9338,"##멊":9339,"##핶":9340,"##홓":9341,"##뷀":9342,"##괞":9343,"##섮":9344,"##욌":9345,"##쿙":9346,"##쥿":9347,"##앲":9348,"##듨":9349,"##쎜":9350,"##롰":9351,"##낐":9352,"##잕":9353,"##녙":9354,"##뽭":9355,"##썃":9356,"##벧":9357,"##퉹":9358,"##볻":9359,"##쏀":9360,"##홐":9361,"##혻":9362,"##쌯":9363,"##괆":9364,"##젙":9365,"##뎉":9366,"##퓐":9367,"##넫":9368,"##옻":9369,"##엃":9370,"##헗":9371,"##랖":9372,"##뷧":9373,"##뤈":9374,"##믽":9375,"##췸":9376,"##댤":9377,"##겪":9378,"##긿":9379,"##욲":9380,"##멏":9381,"##턍":9382,"##탉":9383,"##둼":9384,"##뤙":9385,"##뗄":9386,"##뱨":9387,"##햡":9388,"##듥":9389,"##잧":9390,"##좯":9391,"##읠":9392,"##뱬":9393,"##떔":9394,"##뗳":9395,"##몈":9396,"##늰":9397,"##긬":9398,"##좍":9399,"##팈":9400,"##딀":9401,"##뽉":9402,"##솅":9403,"##팛":9404,"##쳅":9405,"##궝":9406,"##뤘":9407,"##맂":9408,"##넎":9409,"##늟":9410,"##낪":9411,"##푈":9412,"##쇗":9413,"##냗":9414,"##곺":9415,"##옼":9416,"##뱐":9417,"##쒈":9418,"##롮":9419,"##햽":9420,"##븻":9421,"##챁":9422,"##샆":9423,"##뉍":9424,"##돰":9425,"##쳦":9426,"##귕":9427,"##뀄":9428,"##뭏":9429,"##렩":9430,"##뭽":9431,"##넁":9432,"##넡":9433,"##퓜":9434,"##녉":9435,"##떅":9436,"##팤":9437,"##혳":9438,"##꽙":9439,"##팕":9440,"##녅":9441,"##쫒":9442,"##뿁":9443,"##뺜":9444,"##슏":9445,"##흗":9446,"##굮":9447,"##쾃":9448,"##굵":9449,"##좂":9450,"##랎":9451,"##얎":9452,"##끟":9453,"##핣":9454,"##쉤":9455,"##쏗":9456,"##춯":9457,"##릠":9458,"##읙":9459,"##쥡":9460,"##섈":9461,"##똗":9462,"##춌":9463,"##댣":9464,"##슽":9465,"##쉧":9466,"##갷":9467,"##쯱":9468,"##퍗":9469,"##픕":9470,"##퀌":9471,"##얂":9472,"##웤":9473,"##얐":9474,"##횦":9475,"##팒":9476,"##눵":9477,"##뤌":9478,"##괠":9479,"##꾬":9480,"##뀷":9481,"##뱄":9482,"##옃":9483,"##퉸":9484,"##퍵":9485,"##홱":9486,"##짋":9487,"##펵":9488,"##뤽":9489,"##싡":9490,"##믠":9491,"##셁":9492,"##뎟":9493,"##췐":9494,"##퉼":9495,"##덋":9496,"##왑":9497,"##섊":9498,"##껬":9499,"##냎":9500,"##듹":9501,"##쟬":9502,"##멥":9503,"##쩽":9504,"##쉫":9505,"##귑":9506,"##셯":9507,"##벟":9508,"##홯":9509,"##슿":9510,"##췍":9511,"##얃":9512,"##낇":9513,"##툈":9514,"##끵":9515,"##킘":9516,"##뭣":9517,"##쎗":9518,"##죷":9519,"##뮝":9520,"##튿":9521,"##턘":9522,"##쳨":9523,"##앴":9524,"##됼":9525,"##찣":9526,"##펔":9527,"##췰":9528,"##뇄":9529,"##씍":9530,"##텂":9531,"##뀰":9532,"##댠":9533,"##쎾":9534,"##젺":9535,"##쥨":9536,"##뗙":9537,"##욪":9538,"##똨":9539,"##먺":9540,"##슅":9541,"##힢":9542,"##팼":9543,"##샦":9544,"##뒐":9545,"##옽":9546,"##쨰":9547,"##췩":9548,"##윿":9549,"##엓":9550,"##쑬":9551,"##뚕":9552,"##풕":9553,"##핮":9554,"##낅":9555,"##놬":9556,"##퐝":9557,"##팏":9558,"##랒":9559,"##쫖":9560,"##궬":9561,"##쮤":9562,"##밗":9563,"##껜":9564,"##뺩":9565,"##뒥":9566,"##냪":9567,"##덷":9568,"##슊":9569,"##꽷":9570,"##늭":9571,"##슧":9572,"##밮":9573,"##괔":9574,"##쫍":9575,"##깻":9576,"##핼":9577,"##쎘":9578,"##퀄":9579,"##빫":9580,"##밒":9581,"##솧":9582,"##짛":9583,"##샔":9584,"##룝":9585,"##쨜":9586,"##휐":9587,"##뒨":9588,"##먖":9589,"##뢈":9590,"##쇡":9591,"##츃":9592,"##옺":9593,"##엧":9594,"##햿":9595,"##췝":9596,"##웒":9597,"##횞":9598,"##삾":9599,"##굘":9600,"##뉌":9601,"##흩":9602,"##궄":9603,"##뚁":9604,"##킽":9605,"##쐉":9606,"##샄":9607,"##흪":9608,"##떙":9609,"##뛥":9610,"##뎰":9611,"##줟":9612,"##얪":9613,"##쳘":9614,"##옶":9615,"##뽓":9616,"##꾠":9617,"##쌝":9618,"##힟":9619,"##쭕":9620,"##낡":9621,"##줈":9622,"##뿨":9623,"##쫃":9624,"##깬":9625,"##댥":9626,"##갥":9627,"##벜":9628,"##촣":9629,"##볱":9630,"##붔":9631,"##휠":9632,"##횔":9633,"##켝":9634,"##랳":9635,"##헡":9636,"##쬐":9637,"##넚":9638,"##퓻":9639,"##즞":9640,"##챜":9641,"##씱":9642,"##뵬":9643,"##젇":9644,"##밁":9645,"##쮀":9646,"##얕":9647,"##씼":9648,"##뽚":9649,"##뵨":9650,"##햠":9651,"##뿀":9652,"##뭑":9653,"##멉":9654,"##슺":9655,"##셲":9656,"##닶":9657,"##겦":9658,"##긒":9659,"##빟":9660,"##픙":9661,"##뚞":9662,"##퇙":9663,"##귖":9664,"##깛":9665,"##긛":9666,"##짉":9667,"##넿":9668,"##꽘":9669,"##땽":9670,"##햫":9671,"##롑":9672,"##덞":9673,"##쵮":9674,"##쒤":9675,"##왼":9676,"##뒿":9677,"##볺":9678,"##햣":9679,"##좊":9680,"##맗":9681,"##혰":9682,"##얺":9683,"##겮":9684,"##섟":9685,"##뺫":9686,"##뭍":9687,"##튺":9688,"##팦":9689,"##홑":9690,"##캎":9691,"##꽆":9692,"##릂":9693,"##늨":9694,"##욨":9695,"##쵝":9696,"##쯉":9697,"##싿":9698,"##탬":9699,"##꼍":9700,"##쁄":9701,"##귐":9702,"##텻":9703,"##푱":9704,"##횻":9705,"##줙":9706,"##뻦":9707,"##뙁":9708,"##읹":9709,"##컫":9710,"##씋":9711,"##꽌":9712,"##뙷":9713,"##죿":9714,"##캮":9715,"##뿽":9716,"##펏":9717,"##읉":9718,"##줋":9719,"##좈":9720,"##뼙":9721,"##렼":9722,"##끜":9723,"##탘":9724,"##킅":9725,"##뻗":9726,"##땝":9727,"##괋":9728,"##곷":9729,"##쩬":9730,"##녿":9731,"##륶":9732,"##틒":9733,"##랂":9734,"##퉾":9735,"##읲":9736,"##놌":9737,"##햨":9738,"##풩":9739,"##싷":9740,"##툻":9741,"##덣":9742,"##죌":9743,"##댛":9744,"##젘":9745,"##쟹":9746,"##뱜":9747,"##눃":9748,"##읪":9749,"##씂":9750,"##칍":9751,"##쁍":9752,"##뚸":9753,"##줒":9754,"##돍":9755,"##춭":9756,"##긓":9757,"##퀑":9758,"##냡":9759,"##쨓":9760,"##궙":9761,"##흄":9762,"##뭡":9763,"##뇹":9764,"##뱗":9765,"##켷":9766,"##믅":9767,"##믂":9768,"##춴":9769,"##휙":9770,"##쬘":9771,"##쇵":9772,"##꿯":9773,"##냋":9774,"##뇩":9775,"##렧":9776,"##쀠":9777,"##턀":9778,"##꺾":9779,"##렡":9780,"##띙":9781,"##곂":9782,"##섷":9783,"##줅":9784,"##봏":9785,"##릆":9786,"##앎":9787,"##뙛":9788,"##돽":9789,"##옅":9790,"##샂":9791,"##싧":9792,"##쯭":9793,"##퀭":9794,"##맆":9795,"##뗔":9796,"##혴":9797,"##뻩":9798,"##헽":9799,"##뜐":9800,"##짅":9801,"##넸":9802,"##챘":9803,"##훽":9804,"##힞":9805,"##뱕":9806,"##풂":9807,"##끚":9808,"##갍":9809,"##꺜":9810,"##끿":9811,"##핻":9812,"##싅":9813,"##걳":9814,"##엒":9815,"##읮":9816,"##솈":9817,"##듩":9818,"##앏":9819,"##맸":9820,"##뺅":9821,"##짺":9822,"##쑐":9823,"##붖":9824,"##꺍":9825,"##쎀":9826,"##싞":9827,"##꺝":9828,"##쐥":9829,"##뗐":9830,"##갧":9831,"##랕":9832,"##됍":9833,"##혖":9834,"##켚":9835,"##껅":9836,"##졁":9837,"##엤":9838,"##쯋":9839,"##뜃":9840,"##쟘":9841,"##탂":9842,"##렺":9843,"##앝":9844,"##솼":9845,"##닸":9846,"##뚨":9847,"##쉛":9848,"##짫":9849,"##뮜":9850,"##흇":9851,"##똿":9852,"##쫠":9853,"##떧":9854,"##뫁":9855,"##뱩":9856,"##혣":9857,"##둞":9858,"##젆":9859,"##칢":9860,"##퓬":9861,"##춚":9862,"##퇮":9863,"##툉":9864,"##욺":9865,"##첑":9866,"##쮠":9867,"##듄":9868,"##퉐":9869,"##쉗":9870,"##봠":9871,"##걵":9872,"##꽼":9873,"##밠":9874,"##퍈":9875,"##쭊":9876,"##몔":9877,"##꺉":9878,"##튄":9879,"##쐇":9880,"##뤁":9881,"##졽":9882,"##씾":9883,"##꺖":9884,"##쟠":9885,"##쬑":9886,"##맫":9887,"##껕":9888,"##듴":9889,"##헚":9890,"##땎":9891,"##릊":9892,"##몉":9893,"##녴":9894,"##겎":9895,"##뗫":9896,"##욐":9897,"##굗":9898,"##쳒":9899,"##벛":9900,"##엩":9901,"##땸":9902,"##츔":9903,"##좄":9904,"##쎝":9905,"##큍":9906,"##릔":9907,"##숌":9908,"##죻":9909,"##릸":9910,"##슇":9911,"##앛":9912,"##쩃":9913,"##뎊":9914,"##짂":9915,"##죗":9916,"##촀":9917,"##썍":9918,"##퉵":9919,"##괕":9920,"##홝":9921,"##쬰":9922,"##덪":9923,"##뎝":9924,"##쫚":9925,"##햍":9926,"##걖":9927,"##칳":9928,"##곻":9929,"##뺶":9930,"##혙":9931,"##뇁":9932,"##괏":9933,"##롣":9934,"##꿓":9935,"##엍":9936,"##긃":9937,"##쇇":9938,"##즷":9939,"##몊":9940,"##륌":9941,"##댇":9942,"##잙":9943,"##텹":9944,"##즣":9945,"##퐌":9946,"##덛":9947,"##푝":9948,"##벋":9949,"##뻴":9950,"##쁴":9951,"##셇":9952,"##깇":9953,"##낛":9954,"##읷":9955,"##덗":9956,"##갮":9957,"##벴":9958,"##쟜":9959,"##찁":9960,"##뫠":9961,"##읨":9962,"##뽂":9963,"##웆":9964,"##옂":9965,"##죾":9966,"##끐":9967,"##앁":9968,"##먿":9969,"##얷":9970,"##옾":9971,"##넑":9972,"##쓋":9973,"##촴":9974,"##쒂":9975,"##벻":9976,"##갴":9977,"##쬥":9978,"##붏":9979,"##뜱":9980,"##냩":9981,"##몪":9982,"##읓":9983,"##죕":9984,"##핤":9985,"##롁":9986,"##짲":9987,"##몄":9988,"##볫":9989,"##뤱":9990,"##멌":9991,"##묄":9992,"##푷":9993,"##싵":9994,"##럕":9995,"##꺕":9996,"##셎":9997,"##릋":9998,"##뷥":9999,"##콲":10000,"##볈":10001,"##뽐":10002,"##밡":10003,"##즟":10004,"##죰":10005,"##졓":10006,"##쵁":10007,"##뵀":10008,"##씪":10009,"##갫":10010,"##퐄":10011,"##쫤":10012,"##댗":10013,"##븽":10014,"##퓹":10015,"##뷜":10016,"##릷":10017,"##갋":10018,"##쵱":10019,"##틁":10020,"##읕":10021,"##듰":10022,"##릃":10023,"##웪":10024,"##줆":10025,"##팆":10026,"##떢":10027,"##줳":10028,"##끛":10029,"##쥣":10030,"##긘":10031,"##읩":10032,"##맓":10033,"##삷":10034,"##줊":10035,"##셟":10036,"##섧":10037,"##갊":10038,"##닧":10039,"##뀸":10040,"##렅":10041,"##볔":10042,"##힁":10043,"##넦":10044,"##껼":10045,"##쑛":10046,"##샃":10047,"##젅":10048,"##삉":10049,"##씃":10050,"##슂":10051,"##컸":10052,"##씆":10053,"##녭":10054,"##뚯":10055,"##롡":10056,"##즼":10057,"##봟":10058,"##쑙":10059,"##낖":10060,"##솁":10061,"##귴":10062,"##햎":10063,"##쩧":10064,"##깆":10065,"##굇":10066,"##뱁":10067,"##챽":10068,"##볹":10069,"##긹":10070,"##쪵":10071,"##쟞":10072,"##뚹":10073,"##끡":10074,"##쁸":10075,"##먝":10076,"##뵐":10077,"##귓":10078,"##쳧":10079,"##뿠":10080,"##곢":10081,"##젾":10082,"##섢":10083,"##듡":10084,"##틘":10085,"##놴":10086,"##듞":10087,"##췠":10088,"##엷":10089,"##챯":10090,"##탴":10091,"##췟":10092,"##얓":10093,"##댖":10094,"##췹":10095,"##븹":10096,"##홪":10097,"##봗":10098,"##븥":10099,"##쳉":10100,"##먐":10101,"##띅":10102,"##뜾":10103,"##럳":10104,"##죅":10105,"##횤":10106,"##큠":10107,"##벝":10108,"##긷":10109,"##왂":10110,"##뙥":10111,"##쟀":10112,"##뒁":10113,"##즄":10114,"##뽘":10115,"##앆":10116,"##잋":10117,"##탒":10118,"##틑":10119,"##맿":10120,"##씡":10121,"##뇾":10122,"##헓":10123,"##헢":10124,"##뢋":10125,"##빮":10126,"##뿃":10127,"##쥉":10128,"##쎃":10129,"##꾈":10130,"##홗":10131,"##돨":10132,"##졹":10133,"##콋":10134,"##짔":10135,"##옝":10136,"##퉥":10137,"##읿":10138,"##쁌":10139,"##끋":10140,"##랅":10141,"##쉏":10142,"##륩":10143,"##붗":10144,"##쾰":10145,"##뭬":10146,"##돶":10147,"##얅":10148,"##뙨":10149,"##쀏":10150,"##믤":10151,"##맍":10152,"##뗍":10153,"##엳":10154,"##꾁":10155,"##긌":10156,"##몴":10157,"##윶":10158,"##쮱":10159,"##쿳":10160,"##룁":10161,"##꼉":10162,"##뗠":10163,"##잢":10164,"##윀":10165,"##쳗":10166,"##줂":10167,"##껓":10168,"##졏":10169,"##챂":10170,"##샽":10171,"##횅":10172,"##뤅":10173,"##썄":10174,"##쎇":10175,"##흏":10176,"##빬":10177,"##왙":10178,"##냦":10179,"##럏":10180,"##혱":10181,"##츳":10182,"##쎁":10183,"##싓":10184,"##쑜":10185,"##혬":10186,"##똰":10187,"##륏":10188,"##핲":10189,"##읳":10190,"##짗":10191,"##뤸":10192,"##싂":10193,"##뱸":10194,"##캴":10195,"##넗":10196,"##쓲":10197,"##돞":10198,"##녂":10199,"##빾":10200,"##뗨":10201,"##뇮":10202,"##왉":10203,"##앩":10204,"##죹":10205,"##잪":10206,"##텇":10207,"##럈":10208,"##롓":10209,"##샓":10210,"##봫":10211,"##즴":10212,"##쵀":10213,"##킉":10214,"##븜":10215,"##댬":10216,"##줐":10217,"##휵":10218,"##끘":10219,"##뮥":10220,"##픜":10221,"##퉽":10222,"##챸":10223,"##싐":10224,"##롲":10225,"##놊":10226,"##룄":10227,"##놁":10228,"##줔":10229,"##묀":10230,"##붭":10231,"##굈":10232,"##셊":10233,"##륽":10234,"##뷋":10235,"##봒":10236,"##킺":10237,"##춋":10238,"##옠":10239,"##윖":10240,"##툠":10241,"##콦":10242,"##닰":10243,"##쨤":10244,"##뮐":10245,"##톸":10246,"##켭":10247,"##뚀":10248,"##렦":10249,"##돴":10250,"##킾":10251,"##괨":10252,"##퇼":10253,"##띗":10254,"##곃":10255,"##솄":10256,"##맚":10257,"##땬":10258,"##흅":10259,"##뎜":10260,"##엪":10261,"##혝":10262,"##뢜":10263,"##쟐":10264,"##싈":10265,"##쎌":10266,"##뉠":10267,"##쭞":10268,"##뭭":10269,"##뫟":10270,"##홬":10271,"##펲":10272,"##랺":10273,"##헵":10274,"##쵭":10275,"##맻":10276,"##뮻":10277,"##뭋":10278,"##뎍":10279,"##뒌":10280,"##왴":10281,"##씯":10282,"##찠":10283,"##큳":10284,"##굣":10285,"##흒":10286,"##낧":10287,"##돓":10288,"##캈":10289,"##밫":10290,"##귻":10291,"##쩘":10292,"##븰":10293,"##풱":10294,"##캢":10295,"##븩":10296,"##깓":10297,"##갵":10298,"##뤳":10299,"##빘":10300,"##묑":10301,"##꺗":10302,"##띃":10303,"##뮙":10304,"##폔":10305,"##웧":10306,"##꼅":10307,"##궏":10308,"##륻":10309,"##훋":10310,"##뼏":10311,"##쮑":10312,"##곹":10313,"##걥":10314,"##죔":10315,"##둗":10316,"##쐈":10317,"##꾕":10318,"##쐴":10319,"##씟":10320,"##젋":10321,"##엢":10322,"##씜":10323,"##빏":10324,"##꽛":10325,"##쫟":10326,"##씥":10327,"##쩩":10328,"##훓":10329,"##셒":10330,"##츷":10331,"##죚":10332,"##곾":10333,"##듶":10334,"##탣":10335,"##낞":10336,"##뙹":10337,"##섑":10338,"##븬":10339,"##뗬":10340,"##굷":10341,"##퉅":10342,"##숖":10343,"##럤":10344,"##뵜":10345,"##쁭":10346,"##깖":10347,"##헁":10348,"##갞":10349,"##컁":10350,"##둊":10351,"##펟":10352,"##숬":10353,"##춣":10354,"##뒫":10355,"##쿱":10356,"##즑":10357,"##뢸":10358,"##깪":10359,"##굤":10360,"##됟":10361,"##됸":10362,"##빺":10363,"##촡":10364,"##쿹":10365,"##혉":10366,"##켥":10367,"##빶":10368,"##튝":10369,"##됋":10370,"##뤰":10371,"##긊":10372,"##봙":10373,"##덌":10374,"##븟":10375,"##껔":10376,"##힗":10377,"##엲":10378,"##젞":10379,"##엫":10380,"##릘":10381,"##뢨":10382,"##굩":10383,"##뛌":10384,"##엦":10385,"##븞":10386,"##옞":10387,"##퉨":10388,"##뇓":10389,"##궞":10390,"##뎆":10391,"##쩅":10392,"##뗩":10393,"##돩":10394,"##폯":10395,"##죋":10396,"##몾":10397,"##흳":10398,"##쬔":10399,"##웑":10400,"##꺳":10401,"##솒":10402,"##탼":10403,"##븕":10404,"##떗":10405,"##앿":10406,"##흴":10407,"##횹":10408,"##똫":10409,"##봴":10410,"##쯘":10411,"##큮":10412,"##맜":10413,"##뛀":10414,"##홤":10415,"##맊":10416,"##믛":10417,"##굱":10418,"##곙":10419,"##횩":10420,"##댉":10421,"##썟":10422,"##돇":10423,"##퇭":10424,"##갂":10425,"##뿓":10426,"##쌂":10427,"##럑":10428,"##끤":10429,"##끞":10430,"##솑":10431,"##똩":10432,"##춫":10433,"##졿":10434,"##쭜":10435,"##뗵":10436,"##텓":10437,"##꽠":10438,"##쇈":10439,"##땤":10440,"##퇱":10441,"##닡":10442,"##춠":10443,"##뤡":10444,"##뵥":10445,"##븂":10446,"##웋":10447,"##첰":10448,"##뱎":10449,"##씦":10450,"##힍":10451,"##텠":10452,"##핢":10453,"##펕":10454,"##쨨":10455,"##쑌":10456,"##쒑":10457,"##뽹":10458,"##삻":10459,"##뻒":10460,"##핐":10461,"##쟡":10462,"##섡":10463,"##푤":10464,"##씇":10465,"##옿":10466,"##겙":10467,"##엾":10468,"##퍡":10469,"##왖":10470,"##앧":10471,"##딷":10472,"##얰":10473,"##앑":10474,"##찲":10475,"##겴":10476,"##퇑":10477,"##뮉":10478,"##놕":10479,"##뙝":10480,"##켛":10481,"##젗":10482,"##턩":10483,"##굅":10484,"##뒛":10485,"##녽":10486,"##넾":10487,"##뀃":10488,"##쇱":10489,"##죜":10490,"##왰":10491,"##틩":10492,"##쟆":10493,"##쫐":10494,"##뢐":10495,"##쌨":10496,"##몡":10497,"##큻":10498,"##휑":10499,"##죱":10500,"##탰":10501,"##횸":10502,"##핺":10503,"##쥠":10504,"##뤤":10505,"##늚":10506,"##뇐":10507,"##싘":10508,"##퉿":10509,"##녃":10510,"##뤗":10511,"##읯":10512,"##튑":10513,"##걊":10514,"##걨":10515,"##렏":10516,"##땋":10517,"##쒘":10518,"##닩":10519,"##놛":10520,"##폮":10521,"##헑":10522,"##헔":10523,"##녗":10524,"##퍁":10525,"##쭬":10526,"##뚼":10527,"##뀜":10528,"##롳":10529,"##됒":10530,"##얿":10531,"##윸":10532,"##텢":10533,"##겿":10534,"##뜹":10535,"##겾":10536,"##쉡":10537,"##첯":10538,"##긜":10539,"##쩞":10540,"##흿":10541,"##끏":10542,"##숔":10543,"##섐":10544,"##엋":10545,"##싦":10546,"##놯":10547,"##쭀":10548,"##맼":10549,"##춈":10550,"##룿":10551,"##쟛":10552,"##걧":10553,"##넏":10554,"##놑":10555,"##쨀":10556,"##뒸":10557,"##켖":10558,"##앻":10559,"##춸":10560,"##꺚":10561,"##좥":10562,"##셏":10563,"##뱋":10564,"##볋":10565,"##홴":10566,"##뾴":10567,"##뇔":10568,"##뭈":10569,"##넔":10570,"##팑":10571,"##뗜":10572,"##휰":10573,"##넀":10574,"##룟":10575,"##녯":10576,"##꺟":10577,"##잾":10578,"##킐":10579,"##쉦":10580,"##킌":10581,"##뤵":10582,"##뉑":10583,"##풑":10584,"##딈":10585,"##냊":10586,"##뱓":10587,"##죨":10588,"##뤨":10589,"##듪":10590,"##쐅":10591,"##삱":10592,"##삮":10593,"##뛨":10594,"##톩":10595,"##볖":10596,"##곩":10597,"##쓊":10598,"##뿥":10599,"##졑":10600,"##퐛":10601,"##잿":10602,"##웉":10603,"##삹":10604,"##닒":10605,"##뉄":10606,"##넞":10607,"##쿺":10608,"##꿬":10609,"##닑":10610,"##쬴":10611,"##줎":10612,"##풸":10613,"##츶":10614,"##묙":10615,"##긏":10616,"##펅":10617,"##쭠":10618,"##챀":10619,"##눀":10620,"##킧":10621,"##튤":10622,"##뻄":10623,"##좎":10624,"##삸":10625,"##텋":10626,"##덦":10627,"##궇":10628,"##둩":10629,"##똚":10630,"##묫":10631,"##엵":10632,"##됑":10633,"##딝":10634,"##볽":10635,"##캰":10636,"##껗":10637,"##뭫":10638,"##쵤":10639,"##텄":10640,"##섵":10641,"##줕":10642,"##죣":10643,"##맔":10644,"##댂":10645,"##붃":10646,"##렫":10647,"##뉀":10648,"##햋":10649,"##퐙":10650,"##싚":10651,"##첳":10652,"##벆":10653,"##깦":10654,"##쎰":10655,"##걎":10656,"##윚":10657,"##푯":10658,"##쾤":10659,"##홟":10660,"##뙜":10661,"##겒":10662,"##혾":10663,"##흓":10664,"##솎":10665,"##퉌":10666,"##돆":10667,"##퉴":10668,"##벏":10669,"##샼":10670,"##폳":10671,"##뛋":10672,"##쭏":10673,"##왛":10674,"##쏱":10675,"##쫗":10676,"##뤕":10677,"##봭":10678,"##쫔":10679,"##셫":10680,"##댹":10681,"##렆":10682,"##줸":10683,"##벫":10684,"##캩":10685,"##젏":10686,"##턹":10687,"##싆":10688,"##잂":10689,"##꼹":10690,"##폅":10691,"##몋":10692,"##쓀":10693,"##젷":10694,"##귣":10695,"##묾":10696,"##즵":10697,"##탍":10698,"##썜":10699,"##볒":10700,"##웇":10701,"##떫":10702,"##춮":10703,"##잴":10704,"##뽇":10705,"##팗":10706,"##붌":10707,"##쒁":10708,"##솸":10709,"##쩖":10710,"##썠":10711,"##굨":10712,"##씳":10713,"##혘":10714,"##뺼":10715,"##갃":10716,"##쯴":10717,"##섲":10718,"##씺":10719,"##렞":10720,"##럅":10721,"##냒":10722,"##퐆":10723,"##춑":10724,"##쪔":10725,"##랈":10726,"##곆":10727,"##톶":10728,"##쟂":10729,"##눉":10730,"##썝":10731,"##뵉":10732,"##쀵":10733,"##뾜":10734,"##꽅":10735,"##탵":10736,"##섂":10737,"##흼":10738,"##듑":10739,"##쁙":10740,"##덖":10741,"##쎱":10742,"##짥":10743,"##븓":10744,"##벲":10745,"##훛":10746,"##웂":10747,"##굄":10748,"##붋":10749,"##굧":10750,"##뵏":10751,"##걾":10752,"##졳":10753,"##릈":10754,"##팯":10755,"##쁟":10756,"##횝":10757,"##쀌":10758,"##첟":10759,"##졻":10760,"##횢":10761,"##꾝":10762,"##왲":10763,"##뻕":10764,"##턋":10765,"##딋":10766,"##릍":10767,"##롫":10768,"##븎":10769,"##헾":10770,"##뫀":10771,"##씉":10772,"##큱":10773,"##꺀":10774,"##퐤":10775,"##뎇":10776,"##홛":10777,"##벹":10778,"##졲":10779,"##붆":10780,"##즂":10781,"##렋":10782,"##퀐":10783,"##칲":10784,"##렳":10785,"##싨":10786,"##궯":10787,"##댚":10788,"##앢":10789,"##탛":10790,"##셬":10791,"##꿴":10792,"##덲":10793,"##뢘":10794,"##춟":10795,"##빍":10796,"##뼤":10797,"##햝":10798,"##뾕":10799,"##걌":10800,"##툑":10801,"##둅":10802,"##궮":10803,"##냧":10804,"##폑":10805,"##톧":10806,"##뺒":10807,"##윢":10808,"##뷃":10809,"##뤂":10810,"##쌗":10811,"##떾":10812,"##얫":10813,"##둄":10814,"##틇":10815,"##갣":10816,"##찱":10817,"##돎":10818,"##낤":10819,"##깧":10820,"##흽":10821,"##썤":10822,"##훰":10823,"##쩗":10824,"##싟":10825,"##쩹":10826,"##끎":10827,"##씔":10828,"##쓜":10829,"##긥":10830,"##캏":10831,"##욍":10832,"##랚":10833,"##꺨":10834,"##짊":10835,"##믖":10836,"##뷷":10837,"##몣":10838,"##땣":10839,"##퀠":10840,"##쉄":10841,"##띿":10842,"##겞":10843,"##쐤":10844,"##롔":10845,"##랇":10846,"##괐":10847,"##뚭":10848,"##쫮":10849,"##튐":10850,"##꺔":10851,"##퇜":10852,"##씄":10853,"##렭":10854,"##킇":10855,"##굫":10856,"##뽯":10857,"##걹":10858,"##빷":10859,"##낢":10860,"##겯":10861,"##눻":10862,"##떯":10863,"##팄":10864,"##춪":10865,"##괫":10866,"##큲":10867,"##푲":10868,"##퀻":10869,"##핈":10870,"##껒":10871,"##붯":10872,"##쪻":10873,"##팓":10874,"##녋":10875,"##욫":10876,"##섳":10877,"##틐":10878,"##픞":10879,"##믱":10880,"##돘":10881,"##딦":10882,"##혇":10883,"##촮":10884,"##롥":10885,"##혤":10886,"##뜼":10887,"##윝":10888,"##쫅":10889,"##탷":10890,"##쏍":10891,"##톻":10892,"##뮏":10893,"##뺸":10894,"##쫵":10895,"##괃":10896,"##퍤":10897,"##겚":10898,"##쌭":10899,"##륲":10900,"##덙":10901,"##늖":10902,"##퇳":10903,"##텆":10904,"##뙬":10905,"##숮":10906,"##꼻":10907,"##몯":10908,"##쎳":10909,"##쥈":10910,"##욼":10911,"##퉺":10912,"##풓":10913,"##줱":10914,"##웛":10915,"##츱":10916,"##턕":10917,"##웼":10918,"##쐭":10919,"##곪":10920,"##븤":10921,"##뛬":10922,"##깯":10923,"##엯":10924,"##닣":10925,"##됰":10926,"##룢":10927,"##er":10928,"##um":10929,"##ber":10930,"##umber":10931,"number":10932,"으로":10933,"에서":10934,"##니다":10935,"한다":10936,"사람":10937,"아니":10938,"는데":10939,"라고":10940,"에게":10941,"나라":10942,"지만":10943,"국민":10944,"우리":10945,"다고":10946,"까지":10947,"생각":10948,"라는":10949,"면서":10950,"다는":10951,"대한":10952,"습니다":10953,"때문":10954,"그러":10955,"일본":10956,"해서":10957,"이나":10958,"이런":10959,"으면":10960,"그리":10961,"된다":10962,"해야":10963,"지금":10964,"한국":10965,"보다":10966,"##렇게":10967,"문제":10968,"하나":10969,"그런":10970,"중국":10971,"부터":10972,"대통":10973,"그리고":10974,"정부":10975,"자신":10976,"대통령":10977,"다른":10978,"그래":10979,"인간":10980,"처럼":10981,"위해":10982,"만들":10983,"문재":10984,"정치":10985,"진짜":10986,"정도":10987,"어서":10988,"인데":10989,"가지":10990,"는지":10991,"이제":10992,"아이":10993,"합니다":10994,"아닌":10995,"입니다":10996,"미국":10997,"이상":10998,"그냥":10999,"경우":11000,"는다":11001,"사실":11002,"경제":11003,"민주":11004,"##대로":11005,"북한":11006,"사회":11007,"국가":11008,"들어":11009,"다가":11010,"모르":11011,"한테":11012,"시간":11013,"자기":11014,"조국":11015,"정권":11016,"문재인":11017,"##니까":11018,"아무":11019,"다시":11020,"##주의":11021,"해라":11022,"너무":11023,"나오":11024,"소리":11025,"정신":11026,"시키":11027,"세요":11028,"모든":11029,"##민국":11030,"기사":11031,"많이":11032,"대한민국":11033,"따라":11034,"필요":11035,"가능":11036,"정말":11037,"세계":11038,"라도":11039,"사용":11040,"어떻":11041,"시작":11042,"이렇게":11043,"네요":11044,"어야":11045,"모두":11046,"해도":11047,"무슨":11048,"인지":11049,"여자":11050,"같이":11051,"얼마":11052,"재앙":11053,"못하":11054,"그러나":11055,"그것":11056,"니까":11057,"상황":11058,"보이":11059,"대해":11060,"그렇게":11061,"사이":11062,"가장":11063,"여기":11064,"당신":11065,"으며":11066,"거나":11067,"다음":11068,"기업":11069,"다면":11070,"검찰":11071,"아서":11072,"어떤":11073,"돌아":11074,"이미":11075,"그렇":11076,"인가":11077,"이후":11078,"지지":11079,"없이":11080,"아직":11081,"어떻게":11082,"자유":11083,"##지만":11084,"이유":11085,"댓글":11086,"마음":11087,"바로":11088,"려고":11089,"민주당":11090,"이야":11091,"지역":11092,"세금":11093,"##라도":11094,"함께":11095,"어디":11096,"이러":11097,"조선":11098,"수준":11099,"어요":11100,"그래서":11101,"잘못":11102,"으니":11103,"계속":11104,"조사":11105,"모습":11106,"도록":11107,"저런":11108,"하지만":11109,"다니":11110,"결국":11111,"##거리":11112,"세상":11113,"##스트":11114,"관계":11115,"이해":11116,"프로":11117,"이번":11118,"피해":11119,"사건":11120,"언론":11121,"아야":11122,"시켜":11123,"여러":11124,"라면":11125,"이야기":11126,"##다고":11127,"보여":11128,"이게":11129,"한다고":11130,"이용":11131,"좌파":11132,"남자":11133,"이름":11134,"어느":11135,"교육":11136,"이것":11137,"중요":11138,"##어나":11139,"쓰레":11140,"##소리":11141,"선거":11142,"서울":11143,"얼마나":11144,"국회":11145,"쓰레기":11146,"상대":11147,"또한":11148,"그럼":11149,"역시":11150,"대표":11151,"대로":11152,"능력":11153,"제대로":11154,"새끼":11155,"운동":11156,"대학":11157,"수사":11158,"자리":11159,"위한":11160,"나가":11161,"떨어":11162,"##레이":11163,"그만":11164,"공격":11165,"통해":11166,"##number":11167,"동안":11168,"존재":11169,"한다는":11170,"역사":11171,"시대":11172,"가족":11173,"##갱이":11174,"누구":11175,"시장":11176,"더니":11177,"##머니":11178,"얘기":11179,"머리":11180,"학교":11181,"방송":11182,"자체":11183,"버리":11184,"아주":11185,"을까":11186,"빨갱이":11187,"그런데":11188,"당시":11189,"처음":11190,"누가":11191,"결과":11192,"##다는":11193,"제발":11194,"그녀":11195,"##스크":11196,"현재":11197,"관련":11198,"지원":11199,"보수":11200,"의미":11201,"방법":11202,"정책":11203,"##OO":11204,"장관":11205,"얼굴":11206,"구나":11207,"경기":11208,"책임":11209,"내용":11210,"OOO":11211,"경찰":11212,"본인":11213,"나온":11214,"일반":11215,"보내":11216,"상태":11217,"공산":11218,"은데":11219,"기술":11220,"회사":11221,"부모":11222,"조작":11223,"여성":11224,"전쟁":11225,"정의":11226,"뉴스":11227,"행동":11228,"는가":11229,"반대":11230,"먼저":11231,"지나":11232,"박근":11233,"게임":11234,"사랑":11235,"어도":11236,"물론":11237,"개인":11238,"아닌가":11239,"현실":11240,"완전":11241,"오늘":11242,"박근혜":11243,"만큼":11244,"언제":11245,"연구":11246,"인정":11247,"내려":11248,"##버지":11249,"##가리":11250,"거짓":11251,"당연":11252,"특히":11253,"새로":11254,"잖아":11255,"활동":11256,"##부터":11257,"자식":11258,"기자":11259,"의원":11260,"나타":11261,"아들":11262,"##러운":11263,"부분":11264,"못한":11265,"생활":11266,"거의":11267,"마스크":11268,"문화":11269,"개혁":11270,"영화":11271,"위해서":11272,"친구":11273,"마다":11274,"정보":11275,"##부분":11276,"힘들":11277,"##천지":11278,"들어가":11279,"시민":11280,"학생":11281,"똑같":11282,"등장":11283,"주장":11284,"사고":11285,"선동":11286,"무엇":11287,"려는":11288,"올라":11289,"밖에":11290,"서로":11291,"신천지":11292,"조금":11293,"범죄":11294,"거기":11295,"당하":11296,"사업":11297,"집단":11298,"거리":11299,"봐라":11300,"대부분":11301,"나이":11302,"실제":11303,"청와":11304,"절대":11305,"청와대":11306,"이건":11307,"관리":11308,"로서":11309,"과정":11310,"관심":11311,"근데":11312,"결정":11313,"##구나":11314,"나요":11315,"이랑":11316,"하루":11317,"어려":11318,"그게":11319,"그래도":11320,"만든":11321,"권력":11322,"직접":11323,"일부":11324,"해결":11325,"바라":11326,"기본":11327,"##시아":11328,"##인다":11329,"투자":11330,"김정":11331,"이루":11332,"##스로":11333,"정상":11334,"대상":11335,"##로나":11336,"최고":11337,"전부":11338,"엄청":11339,"아버지":11340,"개발":11341,"나와":11342,"##가지":11343,"매우":11344,"검사":11345,"스스로":11346,"과거":11347,"코로나":11348,"빨리":11349,"지요":11350,"공개":11351,"##라이":11352,"##시다":11353,"##으며":11354,"##없이":11355,"으나":11356,"걱정":11357,"스럽":11358,"탄핵":11359,"단체":11360,"더라":11361,"이거":11362,"새로운":11363,"그때":11364,"외국":11365,"##린다":11366,"요즘":11367,"효과":11368,"##의원":11369,"기록":11370,"##진다":11371,"미친":11372,"발전":11373,"교수":11374,"만나":11375,"주인":11376,"##in":11377,"대구":11378,"##아가":11379,"미래":11380,"##돼지":11381,"입장":11382,"의해":11383,"선수":11384,"선택":11385,"텐데":11386,"그대로":11387,"친일":11388,"성공":11389,"어린":11390,"다만":11391,"사라":11392,"다르":11393,"진행":11394,"##려고":11395,"차이":11396,"개돼지":11397,"는구나":11398,"지난":11399,"아라":11400,"건데":11401,"전체":11402,"국회의원":11403,"오히":11404,"부정":11405,"대해서":11406,"오히려":11407,"표현":11408,"총선":11409,"전문":11410,"아베":11411,"확인":11412,"아요":11413,"설명":11414,"독재":11415,"도시":11416,"교회":11417,"세력":11418,"평가":11419,"또는":11420,"##어지":11421,"##무원":11422,"##리아":11423,"발생":11424,"공부":11425,"아무리":11426,"민족":11427,"여론":11428,"준비":11429,"인터":11430,"상당":11431,"나왔":11432,"유지":11433,"자한":11434,"인물":11435,"금지":11436,"세월":11437,"삼성":11438,"처벌":11439,"해야지":11440,"##지막":11441,"드러":11442,"국내":11443,"작품":11444,"영향":11445,"종교":11446,"비교":11447,"해당":11448,"대신":11449,"만드":11450,"더라도":11451,"듯이":11452,"노력":11453,"기억":11454,"조직":11455,"기준":11456,"가치":11457,"시절":11458,"감정":11459,"따라서":11460,"결혼":11461,"확실":11462,"##이트":11463,"알려":11464,"노동":11465,"기관":11466,"판단":11467,"전혀":11468,"건지":11469,"사진":11470,"생산":11471,"위원":11472,"어라":11473,"분명":11474,"원래":11475,"의사":11476,"공무원":11477,"기회":11478,"##다가":11479,"엄마":11480,"그걸":11481,"건가":11482,"마지막":11483,"혼자":11484,"비판":11485,"어찌":11486,"자연":11487,"가진":11488,"순간":11489,"국제":11490,"너희":11491,"으로서":11492,"도움":11493,"올리":11494,"요구":11495,"정당":11496,"가짜":11497,"경험":11498,"구조":11499,"행위":11500,"더욱":11501,"구속":11502,"##으나":11503,"이전":11504,"인생":11505,"부르":11506,"으면서":11507,"겁니다":11508,"한심":11509,"외교":11510,"에선":11511,"운영":11512,"무기":11513,"도대":11514,"가격":11515,"더불":11516,"바람":11517,"도대체":11518,"모양":11519,"대가리":11520,"의식":11521,"진정":11522,"돌아가":11523,"여행":11524,"어쩌":11525,"논리":11526,"보호":11527,"무시":11528,"봐야":11529,"무능":11530,"사기":11531,"달리":11532,"일단":11533,"지켜":11534,"됩니다":11535,"보인다":11536,"지도":11537,"방식":11538,"##스터":11539,"병원":11540,"주변":11541,"환경":11542,"넘어":11543,"계획":11544,"지방":11545,"출신":11546,"위험":11547,"변화":11548,"아마":11549,"인해":11550,"포함":11551,"사과":11552,"##나라":11553,"가져":11554,"와서":11555,"추가":11556,"선생":11557,"김정은":11558,"증거":11559,"거짓말":11560,"목적":11561,"비슷":11562,"스타":11563,"평화":11564,"중심":11565,"처리":11566,"죽이":11567,"대체":11568,"기대":11569,"적폐":11570,"제도":11571,"인사":11572,"##어난":11573,"역할":11574,"토착":11575,"기다":11576,"입국":11577,"떠나":11578,"못했":11579,"바이":11580,"찾아":11581,"##드시":11582,"군대":11583,"반드시":11584,"한당":11585,"아님":11586,"시기":11587,"후보":11588,"제일":11589,"치료":11590,"대단":11591,"구성":11592,"부족":11593,"##자리":11594,"돼지":11595,"아파":11596,"지키":11597,"배우":11598,"거든":11599,"밝혀":11600,"시킨":11601,"##조건":11602,"으로써":11603,"위치":11604,"##른다":11605,"하고":11606,"투표":11607,"전화":11608,"##한다":11609,"무조건":11610,"##심히":11611,"말씀":11612,"항상":11613,"플레이":11614,"성장":11615,"왜구":11616,"이젠":11617,"바뀌":11618,"##려서":11619,"어머니":11620,"구만":11621,"전투":11622,"비리":11623,"던데":11624,"해외":11625,"한데":11626,"개념":11627,"이래":11628,"승리":11629,"카드":11630,"신경":11631,"하늘":11632,"캐릭":11633,"라이":11634,"##아먹":11635,"##동안":11636,"살인":11637,"나쁜":11638,"사태":11639,"독립":11640,"사망":11641,"열심히":11642,"시즌":11643,"가까":11644,"움직":11645,"오래":11646,"한다면":11647,"다양":11648,"진실":11649,"##세요":11650,"설치":11651,"아래":11652,"산업":11653,"정확":11654,"생명":11655,"캐릭터":11656,"려면":11657,"발표":11658,"진보":11659,"건강":11660,"경쟁":11661,"우선":11662,"실제로":11663,"난리":11664,"일어나":11665,"로부터":11666,"끼리":11667,"나중":11668,"습니까":11669,"남편":11670,"##운데":11671,"##ing":11672,"부대":11673,"제품":11674,"가리":11675,"충분":11676,"봐도":11677,"동시":11678,"소설":11679,"##리스":11680,"므로":11681,"최대":11682,"발견":11683,"피해자":11684,"냐고":11685,"당연히":11686,"이익":11687,"직원":11688,"버렸":11689,"본다":11690,"불법":11691,"어렵":11692,"##이스":11693,"인권":11694,"마찬":11695,"마시":11696,"자동":11697,"도와":11698,"아도":11699,"참여":11700,"##자기":11701,"##므로":11702,"현대":11703,"재산":11704,"황교":11705,"당장":11706,"마찬가지":11707,"따르":11708,"조차":11709,"강력":11710,"정치인":11711,"가정":11712,"##으니":11713,"사상":11714,"부동":11715,"인식":11716,"과학":11717,"##아들":11718,"떨어지":11719,"감사":11720,"마치":11721,"노래":11722,"신문":11723,"공산당":11724,"달창":11725,"서민":11726,"의견":11727,"의료":11728,"훨씬":11729,"자주":11730,"중앙":11731,"전라도":11732,"민주주의":11733,"고려":11734,"시스":11735,"##수록":11736,"나온다":11737,"조용":11738,"기간":11739,"느끼":11740,"형태":11741,"부동산":11742,"만약":11743,"이기":11744,"##비스":11745,"고통":11746,"##랜드":11747,"감독":11748,"통일":11749,"살아":11750,"##러스":11751,"던지":11752,"그림":11753,"프랑":11754,"상관":11755,"목소리":11756,"특별":11757,"준다":11758,"기능":11759,"보도":11760,"중국인":11761,"증가":11762,"##럼프":11763,"가만":11764,"독일":11765,"가르":11766,"소비":11767,"나올":11768,"단순":11769,"일으":11770,"통합":11771,"아파트":11772,"망하":11773,"영국":11774,"나경":11775,"##라고":11776,"으니까":11777,"법무":11778,"트럼프":11779,"그럴":11780,"지지율":11781,"줘야":11782,"생기":11783,"제공":11784,"갑자기":11785,"하나님":11786,"언급":11787,"야당":11788,"느낌":11789,"총장":11790,"느냐":11791,"##일보":11792,"지구":11793,"실패":11794,"행복":11795,"위기":11796,"임명":11797,"유명":11798,"가슴":11799,"제작":11800,"대응":11801,"촛불":11802,"자고":11803,"최소":11804,"보통":11805,"고자":11806,"대화":11807,"군사":11808,"가운데":11809,"세기":11810,"지식":11811,"##라지":11812,"적용":11813,"안타":11814,"나경원":11815,"##해서":11816,"보험":11817,"유럽":11818,"세대":11819,"아예":11820,"제외":11821,"심각":11822,"한국인":11823,"시스템":11824,"양심":11825,"완전히":11826,"시리":11827,"##으면":11828,"혹은":11829,"무서":11830,"된다는":11831,"바꾸":11832,"된다고":11833,"올려":11834,"죽음":11835,"변호":11836,"자격":11837,"미사":11838,"포기":11839,"매국":11840,"솔직":11841,"께서":11842,"빠져":11843,"환자":11844,"##워서":11845,"오르":11846,"광고":11847,"부끄":11848,"공정":11849,"노인":11850,"주제":11851,"성격":11852,"라니":11853,"프로그":11854,"서비스":11855,"누군":11856,"할까":11857,"행정":11858,"조건":11859,"동물":11860,"할머니":11861,"노무":11862,"불러":11863,"레이":11864,"자는":11865,"아닐":11866,"영상":11867,"자세":11868,"##너지":11869,"##학교":11870,"##디어":11871,"자꾸":11872,"그거":11873,"집회":11874,"전국":11875,"내리":11876,"판매":11877,"던가":11878,"의심":11879,"그랬":11880,"목표":11881,"평생":11882,"인터넷":11883,"이어":11884,"이때":11885,"전략":11886,"관한":11887,"미세":11888,"임금":11889,"해요":11890,"##이버":11891,"눈치":11892,"그나":11893,"라서":11894,"작가":11895,"강화":11896,"최근":11897,"아프":11898,"건물":11899,"경영":11900,"싸움":11901,"없애":11902,"비용":11903,"어차":11904,"레기":11905,"강제":11906,"어차피":11907,"계약":11908,"윤석":11909,"사회주의":11910,"##라리":11911,"주식":11912,"공동":11913,"원인":11914,"그저":11915,"기존":11916,"소득":11917,"##레스":11918,"음식":11919,"프랑스":11920,"감염":11921,"청원":11922,"친일파":11923,"시켰":11924,"분석":11925,"음악":11926,"##이지":11927,"노조":11928,"목숨":11929,"상당히":11930,"##어들":11931,"라며":11932,"##전히":11933,"차리":11934,"##간다":11935,"월급":11936,"재판":11937,"이명":11938,"이미지":11939,"질문":11940,"싸우":11941,"방향":11942,"주민":11943,"간다":11944,"자국":11945,"##gh":11946,"아닙":11947,"판사":11948,"알아":11949,"황교안":11950,"자본":11951,"행사":11952,"마리":11953,"든지":11954,"프로그램":11955,"단계":11956,"##au":11957,"자료":11958,"다며":11959,"그건":11960,"궁금":11961,"현상":11962,"나타나":11963,"마을":11964,"예전":11965,"으려":11966,"드라":11967,"무식":11968,"동네":11969,"응원":11970,"나무":11971,"이리":11972,"러시아":11973,"예요":11974,"뭔가":11975,"바보":11976,"인구":11977,"취급":11978,"시험":11979,"에요":11980,"기분":11981,"이동":11982,"아침":11983,"문학":11984,"참고":11985,"부산":11986,"불쌍":11987,"주로":11988,"미사일":11989,"발언":11990,"시리즈":11991,"속도":11992,"불리":11993,"자살":11994,"안전":11995,"반성":11996,"운전":11997,"마이":11998,"아내":11999,"파악":12000,"분위":12001,"작업":12002,"차라리":12003,"부탁":12004,"철저":12005,"##어진":12006,"규모":12007,"아냐":12008,"자랑":12009,"보고":12010,"일자리":12011,"괜찮":12012,"대책":12013,"보였":12014,"지랄":12015,"주인공":12016,"##려야":12017,"개월":12018,"비난":12019,"이르":12020,"안정":12021,"규정":12022,"타이":12023,"받아들":12024,"사장":12025,"바리":12026,"수처":12027,"그나마":12028,"대변":12029,"거래":12030,"남성":12031,"우한":12032,"마법":12033,"생긴":12034,"이걸":12035,"힘든":12036,"쳐먹":12037,"광주":12038,"활용":12039,"한편":12040,"걸로":12041,"분위기":12042,"달려":12043,"##지어":12044,"마련":12045,"그러니까":12046,"공장":12047,"반응":12048,"거부":12049,"공간":12050,"네이버":12051,"유일":12052,"여당":12053,"##마디":12054,"부인":12055,"##먼지":12056,"불안":12057,"간첩":12058,"지적":12059,"노무현":12060,"눈물":12061,"무리":12062,"인기":12063,"불구":12064,"소속":12065,"분노":12066,"시설":12067,"청년":12068,"공식":12069,"더러운":12070,"멍청":12071,"업체":12072,"반일":12073,"내부":12074,"점점":12075,"어려운":12076,"미세먼지":12077,"연기":12078,"의혹":12079,"바이러스":12080,"일제":12081,"걸리":12082,"심지어":12083,"여러분":12084,"문서":12085,"보상":12086,"차지":12087,"집안":12088,"최저":12089,"생겼":12090,"공산주의":12091,"파괴":12092,"동일":12093,"모자":12094,"언어":12095,"초기":12096,"사법":12097,"스트":12098,"인도":12099,"##augh":12100,"주의":12101,"한마디":12102,"고등":12103,"고생":12104,"리그":12105,"laugh":12106,"개소리":12107,"laughing":12108,"지속":12109,"비해":12110,"수출":12111,"근거":12112,"##려라":12113,"장난":12114,"유리":12115,"국정":12116,"저지":12117,"유시":12118,"심판":12119,"인상":12120,"상식":12121,"매일":12122,"물건":12123,"정리":12124,"##on":12125,"체제":12126,"솔직히":12127,"당한":12128,"온갖":12129,"특징":12130,"희망":12131,"##랍니다":12132,"사형":12133,"방어":12134,"비롯":12135,"업무":12136,"시위":12137,"대중":12138,"했었":12139,"장면":12140,"고객":12141,"##다니":12142,"문정":12143,"연금":12144,"버린":12145,"불매":12146,"설정":12147,"수입":12148,"사퇴":12149,"일어":12150,"으로부터":12151,"상품":12152,"건설":12153,"게다가":12154,"분야":12155,"그동안":12156,"연결":12157,"관광":12158,"판결":12159,"단어":12160,"이란":12161,"바랍니다":12162,"이론":12163,"최초":12164,"대하":12165,"유시민":12166,"박정":12167,"권리":12168,"차원":12169,"적극":12170,"굉장":12171,"나머":12172,"여전히":12173,"지배":12174,"스러운":12175,"제시":12176,"어쩔":12177,"애초":12178,"문죄":12179,"직업":12180,"차별":12181,"범죄자":12182,"회의":12183,"해석":12184,"담당":12185,"시도":12186,"몰라":12187,"제한":12188,"시킬":12189,"조치":12190,"일까":12191,"들어오":12192,"희생":12193,"대사":12194,"##이션":12195,"구분":12196,"신고":12197,"난다":12198,"위하":12199,"하여":12200,"아무것":12201,"버스":12202,"진심":12203,"은행":12204,"주택":12205,"바라보":12206,"그러면":12207,"특정":12208,"대회":12209,"확진":12210,"스킬":12211,"##가락":12212,"아름":12213,"예상":12214,"현장":12215,"의도":12216,"제목":12217,"##이터":12218,"나서":12219,"기독":12220,"나머지":12221,"따로":12222,"저렇게":12223,"훈련":12224,"뿌리":12225,"인민":12226,"상승":12227,"프레":12228,"내년":12229,"누리":12230,"뻔뻔":12231,"미군":12232,"대답":12233,"정은":12234,"장애":12235,"집중":12236,"감옥":12237,"교사":12238,"청소":12239,"과연":12240,"덕분":12241,"변호사":12242,"태도":12243,"##an":12244,"유치":12245,"도망":12246,"자동차":12247,"도로":12248,"특성":12249,"종북":12250,"엄청난":12251,"신뢰":12252,"별로":12253,"사무":12254,"돌려":12255,"연예":12256,"깨문":12257,"이재":12258,"일정":12259,"전통":12260,"규제":12261,"최악":12262,"영어":12263,"합시다":12264,"요소":12265,"수행":12266,"바꿔":12267,"시점":12268,"외국인":12269,"##어도":12270,"역대":12271,"##난다":12272,"당했":12273,"우주":12274,"어야지":12275,"기독교":12276,"요청":12277,"짱깨":12278,"잠시":12279,"다리":12280,"고민":12281,"제국":12282,"장기":12283,"지하":12284,"드리":12285,"택시":12286,"모델":12287,"복지":12288,"주도":12289,"법무부":12290,"시청":12291,"흔들":12292,"을지":12293,"애국":12294,"집권":12295,"는다는":12296,"기부":12297,"##ar":12298,"헌법":12299,"굉장히":12300,"전기":12301,"부담":12302,"회복":12303,"수도":12304,"중간":12305,"강남":12306,"짓거리":12307,"표정":12308,"유공":12309,"회장":12310,"차량":12311,"는다고":12312,"부자":12313,"주사":12314,"느라":12315,"직장":12316,"드라마":12317,"위원회":12318,"실력":12319,"통제":12320,"윤석열":12321,"고개":12322,"영원":12323,"키우":12324,"충분히":12325,"박정희":12326,"처먹":12327,"예수":12328,"전문가":12329,"조정":12330,"여야":12331,"가만히":12332,"맨날":12333,"##바로":12334,"악마":12335,"자금":12336,"할지":12337,"형성":12338,"남불":12339,"오른":12340,"모아":12341,"##학생":12342,"##토리":12343,"아닌데":12344,"기다리":12345,"고요":12346,"장사":12347,"군인":12348,"로운":12349,"대전":12350,"집값":12351,"단지":12352,"이사":12353,"원칙":12354,"약간":12355,"출연":12356,"분열":12357,"혁명":12358,"달라":12359,"개선":12360,"느껴":12361,"상상":12362,"나누":12363,"돌리":12364,"유공자":12365,"등등":12366,"TV":12367,"대선":12368,"벌써":12369,"우파":12370,"수많":12371,"##란다":12372,"예술":12373,"외치":12374,"각종":12375,"##말로":12376,"이성":12377,"변경":12378,"태극":12379,"##우스":12380,"공감":12381,"마저":12382,"의지":12383,"방문":12384,"미리":12385,"위안":12386,"합의":12387,"아빠":12388,"강조":12389,"사례":12390,"자녀":12391,"갈등":12392,"연합":12393,"그룹":12394,"주요":12395,"조심":12396,"영웅":12397,"똑같이":12398,"다행":12399,"강한":12400,"금융":12401,"냄새":12402,"몰랐":12403,"웃기":12404,"이끌":12405,"재미":12406,"##디오":12407,"투기":12408,"했으나":12409,"기생":12410,"소유":12411,"부부":12412,"특수":12413,"페미":12414,"불과":12415,"올라가":12416,"의무":12417,"옛날":12418,"깨끗":12419,"조선일보":12420,"##아치":12421,"근무":12422,"조선족":12423,"시켜야":12424,"원전":12425,"전자":12426,"도덕":12427,"매국노":12428,"평등":12429,"폭력":12430,"넘어가":12431,"이곳":12432,"물러":12433,"비행":12434,"저러":12435,"실수":12436,"올림":12437,"안보":12438,"교통":12439,"추진":12440,"꼬라지":12441,"##라인":12442,"자면":12443,"체계":12444,"약속":12445,"바닥":12446,"정체":12447,"미치":12448,"의한":12449,"대비":12450,"목사":12451,"##BS":12452,"의하":12453,"달러":12454,"그리스":12455,"성적":12456,"##다보":12457,"기에":12458,"가득":12459,"국방":12460,"조용히":12461,"##여서":12462,"무섭":12463,"초등":12464,"고서":12465,"지급":12466,"정작":12467,"바다":12468,"통과":12469,"반면":12470,"명령":12471,"지지자":12472,"##이드":12473,"드립":12474,"억울":12475,"최순":12476,"누군가":12477,"동맹":12478,"실시":12479,"폐지":12480,"내놓":12481,"부리":12482,"공기":12483,"혹시":12484,"프리":12485,"##져서":12486,"대학교":12487,"예산":12488,"사항":12489,"보장":12490,"핵심":12491,"수익":12492,"잖아요":12493,"남북":12494,"살펴":12495,"혜택":12496,"했으며":12497,"당해":12498,"보유":12499,"굳이":12500,"밝히":12501,"모른다":12502,"최종":12503,"이명박":12504,"철학":12505,"나간":12506,"##리카":12507,"센터":12508,"아닙니다":12509,"이놈":12510,"공급":12511,"위협":12512,"수십":12513,"소개":12514,"두려":12515,"축구":12516,"노예":12517,"거든요":12518,"구체":12519,"폐렴":12520,"실험":12521,"당선":12522,"##다면":12523,"다녀":12524,"주둥":12525,"##진국":12526,"이럴":12527,"구하":12528,"으므로":12529,"으려고":12530,"봅니다":12531,"##미지":12532,"다이":12533,"인제":12534,"박사":12535,"대출":12536,"법원":12537,"타령":12538,"레벨":12539,"빠지":12540,"짜리":12541,"국당":12542,"베트":12543,"고소":12544,"동원":12545,"수단":12546,"이탈":12547,"빠르":12548,"거지":12549,"동생":12550,"태극기":12551,"격리":12552,"뒤집":12553,"초반":12554,"토론":12555,"합리":12556,"나와서":12557,"##or":12558,"장소":12559,"제기":12560,"개판":12561,"동의":12562,"청문":12563,"죄인":12564,"마세요":12565,"접근":12566,"라인":12567,"지도자":12568,"민국":12569,"놀라":12570,"문통":12571,"작용":12572,"후반":12573,"보스":12574,"기도":12575,"확실히":12576,"주위":12577,"강하":12578,"구요":12579,"노동자":12580,"움직이":12581,"자빠":12582,"에너지":12583,"답답":12584,"천만":12585,"지내":12586,"올림픽":12587,"##화문":12588,"개정":12589,"반복":12590,"옹호":12591,"예정":12592,"평소":12593,"멤버":12594,"통하":12595,"니깐":12596,"논란":12597,"챙기":12598,"하이":12599,"심리":12600,"각각":12601,"헛소리":12602,"떠들":12603,"디자":12604,"끝나":12605,"항공":12606,"데리":12607,"##어내":12608,"일상":12609,"죽여":12610,"성과":12611,"고용":12612,"양아치":12613,"계산":12614,"신청":12615,"자원":12616,"사정":12617,"물리":12618,"##반도":12619,"어른":12620,"참가":12621,"손해":12622,"어떠":12623,"광화문":12624,"높이":12625,"통신":12626,"거대":12627,"차례":12628,"향해":12629,"도입":12630,"대처":12631,"더럽":12632,"확보":12633,"증명":12634,"대놓":12635,"저기":12636,"방해":12637,"정신병":12638,"세우":12639,"이하":12640,"너무나":12641,"사라지":12642,"지시":12643,"##뜨리":12644,"연예인":12645,"프레임":12646,"##머리":12647,"따지":12648,"스포":12649,"그곳":12650,"위선":12651,"가해":12652,"터지":12653,"제정":12654,"기초":12655,"비하":12656,"꼴통":12657,"어제":12658,"통해서":12659,"스러":12660,"협력":12661,"자영":12662,"아니면":12663,"상처":12664,"구매":12665,"감소":12666,"컴퓨":12667,"아름다":12668,"유저":12669,"졸업":12670,"청산":12671,"적당":12672,"베트남":12673,"청문회":12674,"대변인":12675,"유니":12676,"십시":12677,"시행":12678,"이념":12679,"공사":12680,"전환":12681,"확대":12682,"장비":12683,"사전":12684,"아무런":12685,"앞서":12686,"##아내":12687,"##으로":12688,"애니":12689,"전두":12690,"##프트":12691,"형식":12692,"충격":12693,"선언":12694,"컴퓨터":12695,"더만":12696,"안타깝":12697,"위안부":12698,"한번":12699,"숫자":12700,"##어리":12701,"때려":12702,"겨우":12703,"최소한":12704,"평균":12705,"코스":12706,"철수":12707,"봉사":12708,"취업":12709,"천지":12710,"뭔지":12711,"개입":12712,"총리":12713,"만족":12714,"공공":12715,"기계":12716,"심하":12717,"##운드":12718,"자영업":12719,"비밀":12720,"좋아":12721,"우승":12722,"서울대":12723,"살리":12724,"화장":12725,"도둑":12726,"지경":12727,"불편":12728,"군요":12729,"결론":12730,"제주":12731,"##at":12732,"영역":12733,"벗어나":12734,"한반도":12735,"##하면":12736,"황제":12737,"결코":12738,"논문":12739,"협상":12740,"기반":12741,"학원":12742,"시국":12743,"훌륭":12744,"전두환":12745,"영업":12746,"동료":12747,"##져야":12748,"지나가":12749,"밝혔":12750,"체력":12751,"야지":12752,"바란다":12753,"비례":12754,"사이트":12755,"##en":12756,"소식":12757,"차단":12758,"데려":12759,"작전":12760,"학년":12761,"따른":12762,"생겨":12763,"청구":12764,"인터뷰":12765,"다운":12766,"##은이":12767,"보복":12768,"리더":12769,"저녁":12770,"미안":12771,"때리":12772,"무너":12773,"에게서":12774,"간단":12775,"한계":12776,"들여":12777,"을까요":12778,"경상":12779,"독자":12780,"무역":12781,"어린이":12782,"막말":12783,"왜냐":12784,"확률":12785,"스토리":12786,"부여":12787,"수용":12788,"그만큼":12789,"월드":12790,"물질":12791,"상대방":12792,"전형":12793,"가까운":12794,"다수":12795,"협박":12796,"저희":12797,"어리":12798,"따위":12799,"슈퍼":12800,"소비자":12801,"수치":12802,"줘라":12803,"가끔":12804,"가입":12805,"노선":12806,"인류":12807,"##와서":12808,"본질":12809,"고발":12810,"걸려":12811,"수상":12812,"적어도":12813,"전달":12814,"들이":12815,"유학":12816,"찬성":12817,"우려":12818,"그래야":12819,"장군":12820,"민간":12821,"아닐까":12822,"근본":12823,"##아리":12824,"제거":12825,"공화":12826,"통계":12827,"방사":12828,"나름":12829,"맞추":12830,"에겐":12831,"투쟁":12832,"담배":12833,"태양":12834,"한지":12835,"감성":12836,"등록":12837,"주체":12838,"그네":12839,"디자인":12840,"클럽":12841,"이중":12842,"도착":12843,"##al":12844,"창조":12845,"numbernumber":12846,"지정":12847,"느그":12848,"보낸":12849,"종류":12850,"무장":12851,"다루":12852,"식민":12853,"언제나":12854,"자국민":12855,"측면":12856,"진출":12857,"##BC":12858,"##라스":12859,"유사":12860,"다를":12861,"##숭이":12862,"아야지":12863,"##니아":12864,"작성":12865,"둘러":12866,"고등학교":12867,"불가":12868,"죄다":12869,"아까":12870,"녀석":12871,"공포":12872,"와중":12873,"수정":12874,"교체":12875,"배치":12876,"인한":12877,"대놓고":12878,"웃음":12879,"임대":12880,"극우":12881,"어울":12882,"묘사":12883,"망치":12884,"살아가":12885,"양반":12886,"소환":12887,"상징":12888,"오랜":12889,"수업":12890,"추천":12891,"용서":12892,"나쁘":12893,"완성":12894,"비율":12895,"진다":12896,"세워":12897,"고대":12898,"쓰러":12899,"칭찬":12900,"##로지":12901,"교활":12902,"폭발":12903,"##다수":12904,"적절":12905,"##아지":12906,"당당":12907,"공연":12908,"영혼":12909,"모른":12910,"소재":12911,"말아먹":12912,"##리어":12913,"##마자":12914,"시각":12915,"브랜드":12916,"numberm":12917,"범위":12918,"취소":12919,"짜증":12920,"시켜라":12921,"선물":12922,"##벤트":12923,"혼란":12924,"##요일":12925,"##바닥":12926,"##쳐서":12927,"##이팅":12928,"논의":12929,"멀리":12930,"##준다":12931,"설립":12932,"기타":12933,"저질":12934,"플레이어":12935,"집행":12936,"무서운":12937,"이벤트":12938,"에다":12939,"장악":12940,"들어갔":12941,"인천":12942,"경향":12943,"기생충":12944,"명단":12945,"표시":12946,"근처":12947,"명예":12948,"어이":12949,"시원":12950,"한가":12951,"성인":12952,"착각":12953,"추구":12954,"분리":12955,"사냥":12956,"구역":12957,"##아버지":12958,"나갔":12959,"흘러":12960,"무대":12961,"오직":12962,"지옥":12963,"자라":12964,"오지":12965,"여름":12966,"##튜브":12967,"제안":12968,"순위":12969,"스포츠":12970,"##인트":12971,"바른":12972,"원숭이":12973,"수석":12974,"대다수":12975,"요리":12976,"철저히":12977,"줄이":12978,"참석":12979,"유튜브":12980,"##es":12981,"져야":12982,"시선":12983,"분명히":12984,"전하":12985,"근로":12986,"내일":12987,"마침":12988,"걸린":12989,"존경":12990,"사유":12991,"문자":12992,"저것":12993,"기획":12994,"보단":12995,"대형":12996,"패배":12997,"정의당":12998,"아닌가요":12999,"성능":13000,"##철수":13001,"배경":13002,"건너":13003,"검색":13004,"가난":13005,"빠른":13006,"돌아오":13007,"입학":13008,"는데요":13009,"버전":13010,"소수":13011,"효율":13012,"##사자":13013,"발사":13014,"고향":13015,"저거":13016,"연속":13017,"자마자":13018,"수술":13019,"망해":13020,"의문":13021,"외부":13022,"성향":13023,"활약":13024,"입니까":13025,"홍보":13026,"백성":13027,"비싸":13028,"민심":13029,"이외":13030,"저리":13031,"주일":13032,"시진":13033,"으시":13034,"지휘":13035,"에이":13036,"인가요":13037,"여부":13038,"연장":13039,"니다":13040,"메이":13041,"로마":13042,"정확히":13043,"생존":13044,"소년":13045,"순수":13046,"이혼":13047,"스페":13048,"못할":13049,"유닛":13050,"편지":13051,"위반":13052,"사실상":13053,"##노총":13054,"못해":13055,"끝내":13056,"김대":13057,"몰려":13058,"가까이":13059,"저항":13060,"떨어진":13061,"똑바로":13062,"번역":13063,"전해":13064,"##조리":13065,"상호":13066,"해방":13067,"소녀":13068,"스테":13069,"버티":13070,"기념":13071,"형제":13072,"드러나":13073,"제조":13074,"구라":13075,"아시아":13076,"모여":13077,"종합":13078,"손가락":13079,"조합":13080,"아이템":13081,"홍콩":13082,"아르":13083,"근대":13084,"로써":13085,"배신":13086,"만화":13087,"분류":13088,"올랐":13089,"안철수":13090,"나눠":13091,"선정":13092,"다름":13093,"될까":13094,"테러":13095,"오리":13096,"겨울":13097,"참으로":13098,"일본인":13099,"민노총":13100,"저렇":13101,"아기":13102,"추정":13103,"이자":13104,"모를":13105,"호구":13106,"법률":13107,"##리오":13108,"수록":13109,"마르":13110,"유치원":13111,"계시":13112,"용기":13113,"전개":13114,"##드리":13115,"꺼내":13116,"주문":13117,"보냈":13118,"마약":13119,"도전":13120,"성폭":13121,"##거운":13122,"등급":13123,"달성":13124,"##어났":13125,"케이":13126,"였으며":13127,"부활":13128,"실천":13129,"가수":13130,"맞춰":13131,"소송":13132,"아줌":13133,"단다":13134,"이래서":13135,"강간":13136,"왜곡":13137,"임기":13138,"인성":13139,"공항":13140,"카페":13141,"모드":13142,"챙겨":13143,"오로지":13144,"편집":13145,"시급":13146,"완벽":13147,"블랙":13148,"아줌마":13149,"##나무":13150,"아가리":13151,"일어난":13152,"중단":13153,"시진핑":13154,"남녀":13155,"스타일":13156,"감싸":13157,"그날":13158,"괴롭":13159,"선진국":13160,"우린":13161,"중소":13162,"일부러":13163,"방역":13164,"욕심":13165,"실망":13166,"계기":13167,"이딴":13168,"편하":13169,"비록":13170,"운운":13171,"조중":13172,"압수":13173,"엘리":13174,"해체":13175,"출발":13176,"부끄럽":13177,"빼앗":13178,"늘어나":13179,"마냥":13180,"절차":13181,"알리":13182,"자존":13183,"먼지":13184,"이탈리아":13185,"연락":13186,"디지":13187,"반영":13188,"중대":13189,"나갈":13190,"펀드":13191,"브라":13192,"더러":13193,"폭행":13194,"번호":13195,"피하":13196,"무지":13197,"일으키":13198,"기득":13199,"혐의":13200,"자극":13201,"징역":13202,"불만":13203,"에휴":13204,"이민":13205,"위대":13206,"실업":13207,"기울":13208,"변하":13209,"야구":13210,"회담":13211,"나베":13212,"후손":13213,"진영":13214,"나아가":13215,"타격":13216,"언젠":13217,"금액":13218,"걸어":13219,"구입":13220,"그려":13221,"오늘날":13222,"우리나라":13223,"공작":13224,"학습":13225,"전원":13226,"허용":13227,"관점":13228,"어쨌":13229,"극복":13230,"##저리":13231,"절대로":13232,"직전":13233,"청소년":13234,"수백":13235,"삭제":13236,"사이비":13237,"출시":13238,"신분":13239,"스트레스":13240,"병사":13241,"경계":13242,"고정":13243,"드루":13244,"확정":13245,"떨어져":13246,"주목":13247,"바탕":13248,"성우":13249,"식사":13250,"아웃":13251,"정해":13252,"질서":13253,"자산":13254,"위원장":13255,"이만":13256,"살펴보":13257,"자본주의":13258,"드래":13259,"무죄":13260,"특검":13261,"##고기":13262,"##무리":13263,"##더니":13264,"기소":13265,"발매":13266,"단식":13267,"마디":13268,"고양":13269,"가해자":13270,"그러므로":13271,"데미지":13272,"재정":13273,"전반":13274,"진중":13275,"온라인":13276,"건가요":13277,"태어나":13278,"거라":13279,"신체":13280,"자빠졌":13281,"##le":13282,"산다":13283,"대우":13284,"설득":13285,"이득":13286,"학자":13287,"탈출":13288,"억지":13289,"식당":13290,"치매":13291,"는군":13292,"조중동":13293,"원하":13294,"지상":13295,"더군":13296,"든다":13297,"란다":13298,"공중":13299,"귀족":13300,"이승":13301,"파이":13302,"고마":13303,"해졌":13304,"함부":13305,"##구요":13306,"혐오":13307,"##전자":13308,"지니":13309,"벌레":13310,"김일":13311,"충성":13312,"##he":13313,"빠진":13314,"몬스터":13315,"크기":13316,"대장":13317,"리얼":13318,"둘째":13319,"##센트":13320,"문가":13321,"인원":13322,"운명":13323,"보조":13324,"전염":13325,"이웃":13326,"##민주":13327,"변명":13328,"윤미":13329,"대기":13330,"실현":13331,"쩝쩝":13332,"똑똑":13333,"스런":13334,"영원히":13335,"정신병자":13336,"##트리":13337,"권한":13338,"식민지":13339,"내세":13340,"새기":13341,"##긴다":13342,"##마트":13343,"버린다":13344,"소중":13345,"##로스":13346,"다섯":13347,"일당":13348,"노릇":13349,"부상":13350,"긍정":13351,"흐름":13352,"부패":13353,"단순히":13354,"저게":13355,"가로":13356,"이슈":13357,"##연히":13358,"예배":13359,"붙이":13360,"해봐":13361,"평범":13362,"혈세":13363,"소문":13364,"팔아먹":13365,"계열":13366,"애비":13367,"대가":13368,"화이팅":13369,"numberk":13370,"핑계":13371,"투입":13372,"한참":13373,"어째":13374,"크리스":13375,"종이":13376,"먹이":13377,"놀이":13378,"왜냐하면":13379,"선전":13380,"김대중":13381,"확산":13382,"##니스":13383,"몇몇":13384,"드러내":13385,"강의":13386,"폭탄":13387,"절반":13388,"가게":13389,"새벽":13390,"편의":13391,"힘내":13392,"미개":13393,"지켜보":13394,"아저":13395,"고맙":13396,"함부로":13397,"박원":13398,"기원":13399,"꺼져":13400,"떠올":13401,"혁신":13402,"존나":13403,"폐기":13404,"검토":13405,"감시":13406,"였으나":13407,"했으니":13408,"복잡":13409,"속성":13410,"실질":13411,"연대":13412,"당할":13413,"제재":13414,"아저씨":13415,"윤미향":13416,"##잡이":13417,"욕먹":13418,"##구석":13419,"수요":13420,"일반인":13421,"어깨":13422,"시체":13423,"선발":13424,"물어":13425,"문정부":13426,"남한":13427,"자네":13428,"지껄":13429,"한정":13430,"아름다운":13431,"통한":13432,"소련":13433,"재난":13434,"살려":13435,"올해":13436,"한두":13437,"대안":13438,"김일성":13439,"##기업":13440,"배상":13441,"이루어지":13442,"장치":13443,"고위":13444,"대리":13445,"미소":13446,"할아버지":13447,"비행기":13448,"##타기":13449,"마누":13450,"취하":13451,"고기":13452,"철도":13453,"공유":13454,"계급":13455,"단위":13456,"몰라도":13457,"인재":13458,"표창":13459,"##버스":13460,"어휴":13461,"앨범":13462,"연관":13463,"갖추":13464,"확장":13465,"##레이드":13466,"방사능":13467,"일종":13468,"##이도":13469,"데이터":13470,"된다면":13471,"위키":13472,"##ic":13473,"오후":13474,"미쳤":13475,"즐기":13476,"인증":13477,"젊은이":13478,"압박":13479,"이스":13480,"수학":13481,"잠깐":13482,"경기도":13483,"받아들이":13484,"각자":13485,"대만":13486,"##어버":13487,"##오르":13488,"기여":13489,"구축":13490,"아닌지":13491,"작년":13492,"지능":13493,"바르":13494,"줘서":13495,"요인":13496,"못한다":13497,"배운":13498,"으라고":13499,"좌우":13500,"일찍":13501,"공동체":13502,"관계자":13503,"아깝":13504,"##정부":13505,"##란드":13506,"그대":13507,"본격":13508,"텔레":13509,"비상":13510,"북괴":13511,"##친다":13512,"##래도":13513,"괜히":13514,"물가":13515,"종자":13516,"아마도":13517,"통화":13518,"##혜원":13519,"채널":13520,"##워하":13521,"짐승":13522,"반도":13523,"일행":13524,"실행":13525,"키워":13526,"카메":13527,"강요":13528,"이렇":13529,"패턴":13530,"##젝트":13531,"며칠":13532,"적당히":13533,"미쳐":13534,"쓰이":13535,"부하":13536,"KBS":13537,"무한":13538,"공통":13539,"##너스":13540,"흘리":13541,"십시오":13542,"지닌":13543,"애니메":13544,"용어":13545,"커피":13546,"정경":13547,"원리":13548,"들어간":13549,"올바":13550,"채용":13551,"심한":13552,"설계":13553,"신앙":13554,"버려":13555,"##it":13556,"들려":13557,"객관":13558,"미디어":13559,"##직자":13560,"매달":13561,"마땅":13562,"진중권":13563,"마무리":13564,"연습":13565,"명칭":13566,"조성":13567,"구리":13568,"무릎":13569,"정규":13570,"길래":13571,"데뷔":13572,"찬양":13573,"추종":13574,"손혜원":13575,"죽인":13576,"이겨":13577,"셔서":13578,"은가":13579,"건축":13580,"포장":13581,"수호":13582,"들리":13583,"표기":13584,"옮겨":13585,"뇌물":13586,"버릴":13587,"점수":13588,"현금":13589,"후회":13590,"뛰어":13591,"자존심":13592,"아동":13593,"나타났":13594,"제출":13595,"윤리":13596,"촬영":13597,"##저기":13598,"드립니다":13599,"호텔":13600,"역겹":13601,"내내":13602,"여기저기":13603,"최선":13604,"낭비":13605,"살아남":13606,"여유":13607,"퍼센트":13608,"적자":13609,"의료진":13610,"물타기":13611,"이라":13612,"내게":13613,"구간":13614,"검증":13615,"인력":13616,"거주":13617,"발달":13618,"##is":13619,"인하":13620,"진단":13621,"투명":13622,"본래":13623,"매출":13624,"어려움":13625,"보일":13626,"재벌":13627,"모조리":13628,"다면서":13629,"포인트":13630,"시인":13631,"쉬운":13632,"전용":13633,"탄생":13634,"오빠":13635,"열린":13636,"준다고":13637,"제정신":13638,"이분":13639,"거쳐":13640,"획득":13641,"파티":13642,"배달":13643,"원작":13644,"##준표":13645,"공주":13646,"끌려":13647,"세트":13648,"거두":13649,"균형":13650,"되돌":13651,"깊이":13652,"뛰어난":13653,"운행":13654,"패스":13655,"협회":13656,"김경":13657,"꼬리":13658,"감방":13659,"홍준표":13660,"비중":13661,"올린":13662,"할려고":13663,"의존":13664,"한쪽":13665,"경고":13666,"##어져":13667,"비싼":13668,"애니메이션":13669,"저자":13670,"##시지":13671,"우습":13672,"이른":13673,"도중":13674,"돌아다니":13675,"유도":13676,"워낙":13677,"노리":13678,"는다면":13679,"항목":13680,"성폭행":13681,"신기":13682,"주가":13683,"명분":13684,"하락":13685,"실체":13686,"필수":13687,"최대한":13688,"작중":13689,"무사":13690,"존중":13691,"해명":13692,"동양":13693,"전력":13694,"조각":13695,"##시마":13696,"그니까":13697,"##파이":13698,"벌이":13699,"휴대":13700,"흔히":13701,"발악":13702,"상위":13703,"자유민주":13704,"명확":13705,"화면":13706,"비서":13707,"고집":13708,"마누라":13709,"남기":13710,"다소":13711,"우수":13712,"날아":13713,"연봉":13714,"개최":13715,"##야지":13716,"주차":13717,"임무":13718,"##다란":13719,"발휘":13720,"마케":13721,"휴가":13722,"공약":13723,"허가":13724,"내보":13725,"허리":13726,"동기":13727,"생물":13728,"당사자":13729,"맘대로":13730,"시켜서":13731,"공화국":13732,"깨달":13733,"만일":13734,"합니까":13735,"##저히":13736,"긴장":13737,"체험":13738,"회원":13739,"마주":13740,"몰아":13741,"박살":13742,"정식":13743,"아가":13744,"부러":13745,"유통":13746,"숨기":13747,"좋아하":13748,"형사":13749,"고속":13750,"냐는":13751,"늘리":13752,"중소기업":13753,"걸까":13754,"타인":13755,"복수":13756,"미터":13757,"모임":13758,"수구":13759,"프로젝트":13760,"전세":13761,"농단":13762,"통치":13763,"어지":13764,"중도":13765,"도구":13766,"일어났":13767,"멀쩡":13768,"지하철":13769,"카메라":13770,"오염":13771,"이라도":13772,"알아보":13773,"종료":13774,"줄어들":13775,"메인":13776,"점령":13777,"벌금":13778,"고유":13779,"출산":13780,"문장":13781,"공격력":13782,"어이없":13783,"전사":13784,"법안":13785,"아우":13786,"독재자":13787,"만난":13788,"자유민주주의":13789,"날리":13790,"죽일":13791,"그분":13792,"커뮤":13793,"언젠가":13794,"커뮤니":13795,"이재명":13796,"자유당":13797,"재료":13798,"학부":13799,"피부":13800,"느낀":13801,"물러나":13802,"서양":13803,"시계":13804,"지나치":13805,"그야":13806,"흐르":13807,"누굴":13808,"그놈":13809,"여서":13810,"여인":13811,"토지":13812,"예측":13813,"감각":13814,"허위":13815,"위조":13816,"정말로":13817,"아프리카":13818,"전시":13819,"수수":13820,"엄청나":13821,"##거지":13822,"즉시":13823,"인격":13824,"구멍":13825,"가르치":13826,"배려":13827,"메르":13828,"베이":13829,"고문":13830,"##구리":13831,"압도":13832,"지위":13833,"대립":13834,"큰일":13835,"어쨌든":13836,"##아나":13837,"리라":13838,"감히":13839,"첫째":13840,"공짜":13841,"붕괴":13842,"불교":13843,"매체":13844,"찾아가":13845,"으라":13846,"심장":13847,"거품":13848,"출판":13849,"다스":13850,"사법부":13851,"장점":13852,"음주":13853,"깨닫":13854,"유형":13855,"올렸":13856,"어둠":13857,"##티브":13858,"교과":13859,"롯데":13860,"해진":13861,"알바":13862,"시킨다":13863,"덩어리":13864,"드디어":13865,"수비":13866,"빨간":13867,"문명":13868,"은지":13869,"##로운":13870,"백만":13871,"고작":13872,"##조선":13873,"공천":13874,"##어졌":13875,"가졌":13876,"에피":13877,"거절":13878,"파일":13879,"신라":13880,"채우":13881,"전파":13882,"느꼈":13883,"처분":13884,"상관없":13885,"치우":13886,"해봐라":13887,"폐쇄":13888,"규칙":13889,"##소드":13890,"연출":13891,"마인":13892,"갈수록":13893,"견제":13894,"발동":13895,"##구려":13896,"공원":13897,"연방":13898,"파워":13899,"요금":13900,"의회":13901,"병력":13902,"에스":13903,"조장":13904,"자치":13905,"그린":13906,"특이":13907,"파리":13908,"조상":13909,"홍어":13910,"이뤄":13911,"아쉬":13912,"만났":13913,"매년":13914,"국적":13915,"##am":13916,"일치":13917,"LG":13918,"사내":13919,"대충":13920,"##에도":13921,"내렸":13922,"대국":13923,"이어지":13924,"써서":13925,"아무래도":13926,"그리스도":13927,"언니":13928,"질병":13929,"몰래":13930,"일관":13931,"사단":13932,"트리":13933,"##온다":13934,"출마":13935,"마당":13936,"봐요":13937,"진리":13938,"##다리":13939,"신화":13940,"가시":13941,"확신":13942,"차려라":13943,"중공":13944,"마케팅":13945,"아픈":13946,"##둥이":13947,"왕국":13948,"멈추":13949,"학문":13950,"고급":13951,"부문":13952,"##비아":13953,"정서":13954,"울산":13955,"선배":13956,"가문":13957,"지대":13958,"이쪽":13959,"걸렸":13960,"도쿄":13961,"##수색":13962,"##르트":13963,"기구":13964,"기름":13965,"무너지":13966,"복귀":13967,"과제":13968,"구경":13969,"이슬":13970,"초대":13971,"답변":13972,"법인":13973,"불렀":13974,"종종":13975,"소통":13976,"진화":13977,"추측":13978,"무력":13979,"축제":13980,"괴물":13981,"엔진":13982,"##ou":13983,"압수수색":13984,"아군":13985,"조지":13986,"따뜻":13987,"마구":13988,"##미터":13989,"경비":13990,"매장":13991,"봐서":13992,"배워":13993,"가스":13994,"으론":13995,"방안":13996,"저지르":13997,"면은":13998,"고양이":13999,"침략":14000,"오브":14001,"추미":14002,"꾸준":14003,"협의":14004,"그야말로":14005,"##이크":14006,"지원금":14007,"으신":14008,"원자":14009,"교도":14010,"개그":14011,"여지":14012,"에라이":14013,"요새":14014,"안타까":14015,"출전":14016,"드래곤":14017,"##덩이":14018,"커다란":14019,"박수":14020,"끝난":14021,"넘기":14022,"어쩌면":14023,"개성":14024,"상실":14025,"쳐다보":14026,"부서":14027,"재인":14028,"무료":14029,"망신":14030,"지향":14031,"체포":14032,"기지":14033,"되게":14034,"붙여":14035,"서류":14036,"전설":14037,"방지":14038,"셔야":14039,"그지":14040,"신호":14041,"구해":14042,"자위":14043,"다는데":14044,"스피":14045,"마침내":14046,"해산":14047,"전라":14048,"체육":14049,"시나":14050,"반박":14051,"##학자":14052,"에피소드":14053,"수장":14054,"글로":14055,"중학교":14056,"데모":14057,"애기":14058,"##잖아":14059,"운용":14060,"살해":14061,"##생활":14062,"금방":14063,"경상도":14064,"오랫":14065,"신용":14066,"반도체":14067,"발행":14068,"아닙니까":14069,"민생":14070,"해군":14071,"스카":14072,"행태":14073,"점차":14074,"책임지":14075,"고인":14076,"종족":14077,"명백":14078,"의해서":14079,"불행":14080,"##om":14081,"항의":14082,"유대":14083,"바퀴":14084,"하긴":14085,"##웨이":14086,"도저히":14087,"전제":14088,"어울리":14089,"모이":14090,"동아":14091,"떨어졌":14092,"세뇌":14093,"부품":14094,"끊임":14095,"노출":14096,"연주":14097,"될지":14098,"재수":14099,"내려가":14100,"협조":14101,"전면":14102,"티비":14103,"오해":14104,"밀어":14105,"난이도":14106,"구원":14107,"극단":14108,"잠재":14109,"내려오":14110,"여겨":14111,"문제점":14112,"과장":14113,"특혜":14114,"천안":14115,"히로":14116,"##re":14117,"이낙":14118,"사령":14119,"주말":14120,"유가":14121,"기어":14122,"사망자":14123,"수천":14124,"사리":14125,"모으":14126,"의학":14127,"증상":14128,"씨부":14129,"죽창":14130,"결합":14131,"쓴다":14132,"동질":14133,"일가":14134,"지네":14135,"던져":14136,"도서":14137,"신상":14138,"늘어":14139,"본부":14140,"은퇴":14141,"동성":14142,"겁나":14143,"한글":14144,"외모":14145,"노트":14146,"넘겨":14147,"구별":14148,"중반":14149,"타임":14150,"누르":14151,"순서":14152,"벌어지":14153,"파탄":14154,"믿음":14155,"무려":14156,"스마트":14157,"수당":14158,"직후":14159,"위장":14160,"김영":14161,"양성":14162,"추방":14163,"하여간":14164,"예의":14165,"일방":14166,"##따위":14167,"틀린":14168,"패거리":14169,"감동":14170,"들어왔":14171,"감당":14172,"지점":14173,"개방":14174,"후원":14175,"붙잡":14176,"학살":14177,"극장":14178,"위주":14179,"든가":14180,"전교":14181,"신도":14182,"침묵":14183,"유승":14184,"조종":14185,"##스타":14186,"마스터":14187,"강원":14188,"제자":14189,"습관":14190,"탄압":14191,"판정":14192,"설마":14193,"##영상":14194,"걸레":14195,"##클로":14196,"그렇지만":14197,"맛있":14198,"접촉":14199,"동남":14200,"그럼에도":14201,"써라":14202,"소름":14203,"그릇":14204,"무언":14205,"창출":14206,"진지":14207,"시끄":14208,"만만":14209,"바위":14210,"교환":14211,"부처":14212,"상자":14213,"뒤지":14214,"오만":14215,"어리석":14216,"걸음":14217,"합격":14218,"공인":14219,"관찰":14220,"나타내":14221,"움직임":14222,"소용":14223,"라면서":14224,"서술":14225,"데이":14226,"보건":14227,"베네":14228,"MBC":14229,"조롱":14230,"최후":14231,"열리":14232,"일보":14233,"소위":14234,"조만":14235,"허락":14236,"경력":14237,"대법":14238,"유기":14239,"꼼수":14240,"##터리":14241,"파트":14242,"지사":14243,"장학":14244,"훼손":14245,"색히":14246,"잘라":14247,"가요":14248,"입시":14249,"로봇":14250,"이낙연":14251,"##임금":14252,"##as":14253,"##ol":14254,"으러":14255,"동영상":14256,"연애":14257,"닥치":14258,"착한":14259,"보여준다":14260,"유니클로":14261,"가깝":14262,"활성":14263,"마사":14264,"안다":14265,"추미애":14266,"오랫동안":14267,"음성":14268,"끌어":14269,"간신":14270,"권위":14271,"이길":14272,"정하":14273,"경북":14274,"아나":14275,"##힌다":14276,"남겨":14277,"민중":14278,"뉴욕":14279,"등신":14280,"심사":14281,"골라":14282,"라디오":14283,"집어":14284,"박원순":14285,"대결":14286,"##범죄":14287,"겁니까":14288,"끔찍":14289,"부추":14290,"알려져":14291,"예방":14292,"공평":14293,"역겨":14294,"영향력":14295,"체크":14296,"핸드":14297,"향상":14298,"##el":14299,"경쟁력":14300,"유행":14301,"나불":14302,"모자라":14303,"인수":14304,"바뀐":14305,"조절":14306,"망할":14307,"는구":14308,"태어난":14309,"##운동":14310,"상담":14311,"욕망":14312,"소모":14313,"날려":14314,"##벌이":14315,"진입":14316,"보안":14317,"려나":14318,"수령":14319,"##인지":14320,"대접":14321,"계층":14322,"쓸데":14323,"이날":14324,"개학":14325,"의외":14326,"화력":14327,"흥미":14328,"단속":14329,"써야":14330,"모시":14331,"##빨리":14332,"보편":14333,"머물":14334,"한때":14335,"후쿠":14336,"게이":14337,"틀림":14338,"감추":14339,"축하":14340,"부장":14341,"올바른":14342,"numberkm":14343,"갈라":14344,"천하":14345,"가려":14346,"느낄":14347,"SK":14348,"펼쳐":14349,"육체":14350,"간부":14351,"중독":14352,"##텐츠":14353,"이치":14354,"심정":14355,"지혜":14356,"안내":14357,"미술":14358,"원장":14359,"일지":14360,"이만희":14361,"흡수":14362,"메시지":14363,"재미있":14364,"무렵":14365,"이내":14366,"방위":14367,"걸쳐":14368,"국산":14369,"견해":14370,"약한":14371,"가사":14372,"범인":14373,"이승만":14374,"부끄러":14375,"재단":14376,"수시":14377,"부채":14378,"손실":14379,"매력":14380,"진술":14381,"해제":14382,"와이":14383,"화장실":14384,"지껄이":14385,"스페인":14386,"내지":14387,"바치":14388,"글로벌":14389,"양식":14390,"사죄":14391,"연구소":14392,"여담":14393,"한방":14394,"들어서":14395,"하수":14396,"##쟁이":14397,"임시":14398,"정지":14399,"이해찬":14400,"이순":14401,"어두":14402,"감수":14403,"게시":14404,"조만간":14405,"협정":14406,"이스라":14407,"멸망":14408,"창피":14409,"간호":14410,"독도":14411,"바쁘":14412,"출입":14413,"무덤":14414,"합법":14415,"부끄러운":14416,"잡혀":14417,"지진":14418,"언론사":14419,"성립":14420,"인종":14421,"사격":14422,"소방":14423,"전망":14424,"우기":14425,"방영":14426,"저지른":14427,"정수":14428,"물려":14429,"당황":14430,"표준":14431,"중립":14432,"단점":14433,"숨겨":14434,"참조":14435,"김경수":14436,"주먹":14437,"약점":14438,"그쪽":14439,"##비전":14440,"진상":14441,"다닌":14442,"대학생":14443,"밀리":14444,"마트":14445,"쪽팔":14446,"신세":14447,"##어먹":14448,"폭동":14449,"사무실":14450,"왼쪽":14451,"새롭":14452,"근로자":14453,"최강":14454,"시청자":14455,"##느님":14456,"자제":14457,"북쪽":14458,"대대":14459,"급여":14460,"최저임금":14461,"보인":14462,"장식":14463,"모순":14464,"변신":14465,"환영":14466,"마녀":14467,"침해":14468,"남쪽":14469,"끌어내":14470,"시나리오":14471,"졸라":14472,"##거나":14473,"저주":14474,"사라졌":14475,"뭔데":14476,"고쳐":14477,"하느님":14478,"으려는":14479,"회피":14480,"넘치":14481,"지명":14482,"엉망":14483,"##려면":14484,"교류":14485,"주둥이":14486,"하여튼":14487,"코드":14488,"가라":14489,"이스라엘":14490,"부지":14491,"아이돌":14492,"들어갈":14493,"게이트":14494,"천천":14495,"다녔":14496,"봉쇄":14497,"로스":14498,"널리":14499,"김성":14500,"옮기":14501,"가구":14502,"지겹":14503,"현지":14504,"천천히":14505,"대박":14506,"영토":14507,"밀려":14508,"미아":14509,"장수":14510,"챔피":14511,"자발":14512,"아이디어":14513,"테이":14514,"돼서":14515,"대륙":14516,"사안":14517,"외면":14518,"가르쳐":14519,"천국":14520,"##권자":14521,"에서부터":14522,"앞장":14523,"소프트":14524,"시내":14525,"추적":14526,"월드컵":14527,"패치":14528,"나타난":14529,"사드":14530,"어릴":14531,"자아":14532,"도발":14533,"싸워":14534,"살짝":14535,"충돌":14536,"전술":14537,"##프레":14538,"세이":14539,"##리스트":14540,"매번":14541,"수리":14542,"이슬람":14543,"환상":14544,"쇼핑":14545,"신학":14546,"취재":14547,"장학금":14548,"열차":14549,"마인드":14550,"엔딩":14551,"온다":14552,"운전자":14553,"감안":14554,"연설":14555,"농민":14556,"반발":14557,"으리":14558,"음모":14559,"라운드":14560,"가볍":14561,"법정":14562,"어마":14563,"속이":14564,"인용":14565,"채워":14566,"반미":14567,"죽였":14568,"김치":14569,"보급":14570,"강도":14571,"서구":14572,"파견":14573,"예비":14574,"전공":14575,"##의자":14576,"업적":14577,"들어온":14578,"##시고":14579,"익숙":14580,"쟁이":14581,"색깔":14582,"작정":14583,"디지털":14584,"##ion":14585,"기운":14586,"진작":14587,"##나다":14588,"링크":14589,"알려진":14590,"분양":14591,"##핵화":14592,"다물":14593,"하위":14594,"비핵화":14595,"자율":14596,"대북":14597,"시골":14598,"찌질":14599,"##그리":14600,"글자":14601,"또라이":14602,"때로":14603,"자세히":14604,"사자":14605,"임신":14606,"회수":14607,"하드":14608,"##그릇":14609,"반란":14610,"오버":14611,"입맛":14612,"예외":14613,"오른쪽":14614,"##르크":14615,"파업":14616,"줄여":14617,"애플":14618,"##리즘":14619,"구석":14620,"광장":14621,"##나가":14622,"정유":14623,"논쟁":14624,"초딩":14625,"표창장":14626,"화학":14627,"사원":14628,"국익":14629,"식품":14630,"증권":14631,"신념":14632,"영입":14633,"측정":14634,"가져가":14635,"배웠":14636,"추락":14637,"비디오":14638,"가질":14639,"김종":14640,"##벌레":14641,"편성":14642,"호주":14643,"인공":14644,"아카":14645,"한자":14646,"스펙":14647,"약하":14648,"따라가":14649,"지인":14650,"주머니":14651,"메르스":14652,"대개":14653,"어떨":14654,"전염병":14655,"성경":14656,"상인":14657,"계신":14658,"열받":14659,"꾸준히":14660,"클래":14661,"원수":14662,"##낸다":14663,"식물":14664,"차기":14665,"증언":14666,"호소":14667,"맡기":14668,"영장":14669,"만세":14670,"##et":14671,"##치기":14672,"나대":14673,"미션":14674,"##아이":14675,"발광":14676,"선호":14677,"황금":14678,"이적":14679,"오류":14680,"카이":14681,"##구니":14682,"##id":14683,"서서":14684,"선고":14685,"떳떳":14686,"사라져":14687,"누나":14688,"소장":14689,"암살":14690,"##석희":14691,"약자":14692,"투수":14693,"동남아":14694,"위로":14695,"거듭":14696,"법칙":14697,"화려":14698,"재능":14699,"으세요":14700,"네트":14701,"성범죄":14702,"단독":14703,"##해야":14704,"공단":14705,"##지르":14706,"##그러":14707,"세운":14708,"압력":14709,"##들이":14710,"출근":14711,"타자":14712,"마라":14713,"##대가리":14714,"욕구":14715,"다닐":14716,"끊임없이":14717,"편안":14718,"스님":14719,"각성":14720,"회계":14721,"충실":14722,"지리":14723,"가을":14724,"맞이":14725,"양쪽":14726,"아스":14727,"망가":14728,"버려야":14729,"단기":14730,"##로그":14731,"잔인":14732,"현명":14733,"매수":14734,"곳곳":14735,"사물":14736,"전차":14737,"지령":14738,"무언가":14739,"만날":14740,"을려고":14741,"##토록":14742,"꼰대":14743,"이순신":14744,"##다른":14745,"평양":14746,"보소":14747,"소멸":14748,"대량":14749,"##매매":14750,"지소":14751,"내린":14752,"왕따":14753,"먹여":14754,"허구":14755,"속하":14756,"멋진":14757,"전작":14758,"고구려":14759,"작곡":14760,"동참":14761,"텔레비전":14762,"다던":14763,"진정한":14764,"부드":14765,"내면":14766,"세포":14767,"개별":14768,"마음대로":14769,"지불":14770,"제압":14771,"더라고":14772,"개국":14773,"##랑이":14774,"실장":14775,"에다가":14776,"배제":14777,"##워크":14778,"보관":14779,"한숨":14780,"##지사":14781,"무척":14782,"부당":14783,"리스트":14784,"그라":14785,"오프":14786,"자전":14787,"귀신":14788,"보존":14789,"국립":14790,"차려":14791,"우울":14792,"호남":14793,"오죽":14794,"저딴":14795,"##리트":14796,"관념":14797,"들어와":14798,"##러리":14799,"면허":14800,"져서":14801,"악화":14802,"터진":14803,"주관":14804,"필리":14805,"맥주":14806,"투자자":14807,"타입":14808,"통수":14809,"회견":14810,"성실":14811,"초월":14812,"양보":14813,"형편":14814,"엄격":14815,"유출":14816,"어려워":14817,"특권":14818,"##동생":14819,"상하":14820,"천재":14821,"빌려":14822,"방치":14823,"너거":14824,"고치":14825,"버프":14826,"모욕":14827,"유발":14828,"앞뒤":14829,"성추":14830,"가방":14831,"##ac":14832,"눈앞":14833,"##il":14834,"시비":14835,"소신":14836,"화폐":14837,"기쁨":14838,"악질":14839,"트랙":14840,"승인":14841,"밥그릇":14842,"절망":14843,"특유":14844,"이야말로":14845,"커녕":14846,"고전":14847,"일시":14848,"입법":14849,"이틀":14850,"디스":14851,"치명":14852,"왕조":14853,"수집":14854,"맞서":14855,"오전":14856,"한국어":14857,"##운전":14858,"장착":14859,"별도":14860,"얼른":14861,"연계":14862,"부딪":14863,"관료":14864,"오픈":14865,"심해":14866,"육군":14867,"싱글":14868,"수립":14869,"발목":14870,"그만두":14871,"적응":14872,"준다는":14873,"골프":14874,"열정":14875,"고백":14876,"은근":14877,"지수":14878,"선거법":14879,"일어날":14880,"식구":14881,"당원":14882,"생성":14883,"업계":14884,"저작":14885,"흑인":14886,"포르":14887,"흔적":14888,"우스":14889,"니들":14890,"여태":14891,"해소":14892,"도달":14893,"타이틀":14894,"찾아보":14895,"강경":14896,"국무":14897,"##립니다":14898,"##걸이":14899,"매도":14900,"성추행":14901,"##나이":14902,"다가오":14903,"망한":14904,"자르":14905,"대항":14906,"올라오":14907,"전교조":14908,"침대":14909,"교주":14910,"##시스":14911,"단일":14912,"구먼":14913,"취임":14914,"저놈":14915,"의자":14916,"서버":14917,"조약":14918,"답니다":14919,"조카":14920,"방탄":14921,"분쟁":14922,"국토":14923,"근접":14924,"승부":14925,"날뛰":14926,"죄송":14927,"간섭":14928,"인형":14929,"단단":14930,"교과서":14931,"구청":14932,"넘쳐":14933,"아쉽":14934,"추경":14935,"망했":14936,"욕하":14937,"억지로":14938,"하도":14939,"깜짝":14940,"영감":14941,"이재용":14942,"면상":14943,"인정받":14944,"이루어":14945,"##bs":14946,"신부":14947,"퀘스트":14948,"결승":14949,"각오":14950,"정답":14951,"태어났":14952,"민정":14953,"전후":14954,"구성원":14955,"박탈":14956,"의장":14957,"나아":14958,"소원":14959,"나섰":14960,"스위":14961,"오토":14962,"궁극":14963,"PC":14964,"신중":14965,"지르":14966,"##다지":14967,"줄어":14968,"성질":14969,"페이":14970,"나빠":14971,"흥분":14972,"##란히":14973,"끼치":14974,"동성애":14975,"김학":14976,"학부모":14977,"대원":14978,"부른다":14979,"전광":14980,"깡패":14981,"IM":14982,"매매":14983,"씨부리":14984,"공지":14985,"마이크":14986,"유전자":14987,"더블":14988,"생각나":14989,"##주의자":14990,"공직자":14991,"개편":14992,"독립운동":14993,"적합":14994,"##같이":14995,"이루어진":14996,"왕자":14997,"생길":14998,"교도소":14999,"##바이":15000,"무게":15001,"날씨":15002,"하여금":15003,"위력":15004,"퇴출":15005,"축소":15006,"세끼":15007,"아부":15008,"짐작":15009,"그치":15010,"캐나다":15011,"더군요":15012,"잡지":15013,"고시":15014,"내밀":15015,"당국":15016,"시전":15017,"계정":15018,"전역":15019,"심상":15020,"원내":15021,"식이":15022,"케이스":15023,"상업":15024,"가상":15025,"관광객":15026,"가벼":15027,"향하":15028,"여경":15029,"일으킨":15030,"저건":15031,"지자":15032,"원정":15033,"##식간":15034,"서서히":15035,"더냐":15036,"거울":15037,"비유":15038,"##거렸":15039,"손석희":15040,"##어준":15041,"긴급":15042,"코미":15043,"처지":15044,"좌익":15045,"종일":15046,"날개":15047,"김어준":15048,"##지션":15049,"##업자":15050,"제주도":15051,"십니다":15052,"성매매":15053,"그런지":15054,"사악":15055,"갑니다":15056,"수고":15057,"경호":15058,"밴드":15059,"윤석렬":15060,"시달":15061,"챔피언":15062,"유용":15063,"치르":15064,"##피아":15065,"지난해":15066,"정착":15067,"대체로":15068,"김제":15069,"합류":15070,"기체":15071,"점심":15072,"##합니다":15073,"해진다":15074,"신성":15075,"종목":15076,"정비":15077,"돌아왔":15078,"보고서":15079,"져라":15080,"양산":15081,"휴대폰":15082,"##크스":15083,"주한":15084,"작자":15085,"비로":15086,"학대":15087,"##페이지":15088,"입원":15089,"별명":15090,"강아지":15091,"취득":15092,"발음":15093,"레드":15094,"순식간":15095,"수원":15096,"##대표":15097,"민폐":15098,"국군":15099,"쯧쯧":15100,"길거리":15101,"잣대":15102,"대학원":15103,"독점":15104,"다시피":15105,"엉뚱":15106,"##케이션":15107,"대갈":15108,"##교육":15109,"스테이지":15110,"금리":15111,"웃긴":15112,"법대":15113,"이른바":15114,"홈페이지":15115,"막대":15116,"패러":15117,"피아":15118,"입증":15119,"크로":15120,"는구만":15121,"##하여":15122,"고스":15123,"개조":15124,"옵션":15125,"직무":15126,"즐거":15127,"어르":15128,"카운":15129,"근육":15130,"모지":15131,"농업":15132,"간주":15133,"과도":15134,"##웨어":15135,"보낼":15136,"꿈꾸":15137,"느니":15138,"사업자":15139,"품질":15140,"체결":15141,"강행":15142,"어려울":15143,"집착":15144,"고도":15145,"주기":15146,"한남":15147,"부들":15148,"더구나":15149,"##구멍":15150,"장갑":15151,"마크":15152,"동작":15153,"##트롤":15154,"달린":15155,"##풀이":15156,"대지":15157,"내보내":15158,"구현":15159,"박지":15160,"상속":15161,"더듬":15162,"##든지":15163,"그림자":15164,"도리":15165,"에어":15166,"도서관":15167,"##든가":15168,"고는":15169,"처형":15170,"부디":15171,"요원":15172,"푸른":15173,"##혀서":15174,"창작":15175,"선교":15176,"삼국":15177,"일기":15178,"족속":15179,"스크":15180,"##루스":15181,"일러":15182,"중재":15183,"십니까":15184,"부도":15185,"니까요":15186,"막히":15187,"영양":15188,"어딘":15189,"식량":15190,"이단":15191,"서초":15192,"결심":15193,"아픔":15194,"비트":15195,"아메":15196,"놀랍":15197,"##데이트":15198,"비극":15199,"상사":15200,"으셨":15201,"줘도":15202,"이대로":15203,"호기":15204,"터져":15205,"포스":15206,"신속":15207,"업데이트":15208,"미국인":15209,"연극":15210,"기차":15211,"배틀":15212,"착용":15213,"히트":15214,"포켓":15215,"기적":15216,"내주":15217,"해질":15218,"네트워크":15219,"탈락":15220,"수능":15221,"루트":15222,"앙이":15223,"독특":15224,"두려움":15225,"그다지":15226,"주력":15227,"버려라":15228,"바깥":15229,"억압":15230,"##보이":15231,"홈런":15232,"페르":15233,"세종":15234,"남부":15235,"나이트":15236,"장자":15237,"화재":15238,"약국":15239,"감염자":15240,"군주":15241,"대강":15242,"관여":15243,"주자":15244,"앞두":15245,"손님":15246,"간접":15247,"였을":15248,"작동":15249,"떠났":15250,"만남":15251,"놔두":15252,"남용":15253,"미스":15254,"모인":15255,"난민":15256,"코미디":15257,"소화":15258,"몰락":15259,"스마트폰":15260,"박스":15261,"미니":15262,"연령":15263,"노란":15264,"추세":15265,"광역":15266,"부작":15267,"안중":15268,"앞잡이":15269,"받아들여":15270,"아끼":15271,"안심":15272,"##마스":15273,"스러워":15274,"형상":15275,"##는데":15276,"유승민":15277,"전선":15278,"정기":15279,"돼요":15280,"정원":15281,"##레이션":15282,"괴롭히":15283,"##ot":15284,"무상":15285,"돌아온":15286,"야마":15287,"비웃":15288,"태풍":15289,"##us":15290,"재밌":15291,"머릿":15292,"시티":15293,"채택":15294,"사로":15295,"돌아보":15296,"온통":15297,"곧바로":15298,"유엔":15299,"응답":15300,"잡히":15301,"실적":15302,"교인":15303,"##느리":15304,"호흡":15305,"비로소":15306,"일자":15307,"휘둘":15308,"군데":15309,"인근":15310,"징징":15311,"과목":15312,"바람직":15313,"떠오르":15314,"척하":15315,"발상":15316,"일으켜":15317,"비전":15318,"쳐서":15319,"바지":15320,"선출":15321,"자전거":15322,"연상":15323,"돌파":15324,"소나":15325,"코스프레":15326,"강사":15327,"일세":15328,"딱히":15329,"즉각":15330,"어르신":15331,"조폭":15332,"애매":15333,"홀로":15334,"신비":15335,"##두르":15336,"##리티":15337,"떠드":15338,"서울시":15339,"사모":15340,"도박":15341,"할인":15342,"곤란":15343,"적대":15344,"낸다":15345,"완료":15346,"핸드폰":15347,"올릴":15348,"로드":15349,"잔뜩":15350,"##ow":15351,"퍼지":15352,"신규":15353,"피우":15354,"김제동":15355,"안달":15356,"스승":15357,"두드":15358,"마법사":15359,"몰아내":15360,"튀어나":15361,"충이":15362,"태평":15363,"빠졌":15364,"대미지":15365,"대법원":15366,"씌우":15367,"중계":15368,"여섯":15369,"삭발":15370,"저렴":15371,"후배":15372,"펼치":15373,"충청":15374,"화살":15375,"지역구":15376,"##일러":15377,"환장":15378,"구도":15379,"장교":15380,"인디":15381,"정직":15382,"꺼져라":15383,"라이트":15384,"손잡":15385,"내려와":15386,"보증":15387,"더더":15388,"피곤":15389,"병역":15390,"##까요":15391,"간절":15392,"##어마":15393,"들으면":15394,"관리자":15395,"명성":15396,"비평":15397,"전적":15398,"다크":15399,"국경":15400,"합쳐":15401,"부적":15402,"막상":15403,"이주":15404,"가져다":15405,"vs":15406,"음주운전":15407,"덧붙":15408,"명의":15409,"아리":15410,"실정":15411,"국어":15412,"셋째":15413,"기동":15414,"지우":15415,"정황":15416,"국방부":15417,"아키":15418,"선조":15419,"마나":15420,"나타난다":15421,"추악":15422,"고사":15423,"수소":15424,"아무튼":15425,"스케":15426,"제약":15427,"사로잡":15428,"김진":15429,"수영":15430,"세웠":15431,"모여서":15432,"컨트롤":15433,"라던":15434,"회전":15435,"조화":15436,"이행":15437,"##하나":15438,"다행히":15439,"##마니":15440,"IMF":15441,"북미":15442,"소릴":15443,"십시요":15444,"역적":15445,"입구":15446,"살림":15447,"목록":15448,"별개":15449,"취지":15450,"싸이":15451,"경남":15452,"되찾":15453,"근원":15454,"##백과":15455,"활발":15456,"꺼리":15457,"페이지":15458,"격차":15459,"방송국":15460,"슬픔":15461,"전직":15462,"유래":15463,"흔들리":15464,"염병":15465,"무관":15466,"납치":15467,"##태우":15468,"모험":15469,"창문":15470,"계단":15471,"와라":15472,"조언":15473,"무효":15474,"가량":15475,"면제":15476,"강점":15477,"어마어마":15478,"원조":15479,"테크":15480,"놀리":15481,"눌러":15482,"급격":15483,"기기":15484,"##렴치":15485,"##릅니다":15486,"##ct":15487,"동조":15488,"##통일":15489,"파렴치":15490,"소지":15491,"행성":15492,"라이브":15493,"신발":15494,"뛰어나":15495,"쓸모":15496,"라구":15497,"알렉":15498,"##엘라":15499,"예언":15500,"##ed":15501,"인과":15502,"대폭":15503,"가면":15504,"데스":15505,"틀리":15506,"보여준":15507,"중화":15508,"증오":15509,"장르":15510,"제로":15511,"지식인":15512,"특별히":15513,"인건":15514,"하얀":15515,"한나라":15516,"계승":15517,"고의":15518,"페미니":15519,"한나라당":15520,"출장":15521,"기재":15522,"팔리":15523,"지성":15524,"##남도":15525,"계좌":15526,"달라지":15527,"유죄":15528,"내려놓":15529,"바꿀":15530,"석방":15531,"지표":15532,"##bc":15533,"책상":15534,"어벙":15535,"용도":15536,"색기":15537,"습격":15538,"친절":15539,"경유":15540,"위키백과":15541,"말투":15542,"줄줄":15543,"카르":15544,"떨어질":15545,"브리":15546,"비자":15547,"화이트":15548,"찍소리":15549,"잘난":15550,"함정":15551,"공략":15552,"길이":15553,"앞세":15554,"##os":15555,"구상":15556,"진료":15557,"막장":15558,"눈빛":15559,"파란":15560,"스파이":15561,"대단히":15562,"제사":15563,"코치":15564,"더더욱":15565,"##화점":15566,"잠수":15567,"필드":15568,"향후":15569,"동쪽":15570,"베르":15571,"나선":15572,"##통수":15573,"자칭":15574,"그런가":15575,"신나":15576,"주주":15577,"구단":15578,"왠지":15579,"복무":15580,"귀찮":15581,"간다고":15582,"한겨":15583,"불량":15584,"교황":15585,"퇴직":15586,"스코":15587,"전수":15588,"풍부":15589,"수습":15590,"초점":15591,"트위":15592,"##타인":15593,"주둔":15594,"노후":15595,"게시판":15596,"입술":15597,"거치":15598,"백인":15599,"##무기":15600,"관심없":15601,"자질":15602,"수수료":15603,"강원도":15604,"사도":15605,"갖춘":15606,"소주":15607,"부위":15608,"of":15609,"관객":15610,"타당":15611,"타이밍":15612,"레오":15613,"초래":15614,"전광훈":15615,"역량":15616,"역전":15617,"군부":15618,"조센":15619,"질환":15620,"저능":15621,"보완":15622,"빠리":15623,"##총리":15624,"인척":15625,"컨셉":15626,"미루":15627,"간호사":15628,"호선":15629,"도망가":15630,"고수":15631,"한동안":15632,"통상":15633,"토대":15634,"##본다":15635,"강해":15636,"보임":15637,"그리하여":15638,"여왕":15639,"찾아내":15640,"중앙일보":15641,"포지션":15642,"드릴":15643,"필자":15644,"주소":15645,"미성":15646,"생일":15647,"누군지":15648,"##야마":15649,"멋지":15650,"공익":15651,"분기":15652,"농사":15653,"개무":15654,"한단":15655,"##여행":15656,"다름없":15657,"득점":15658,"강연":15659,"노벨":15660,"##ad":15661,"서쪽":15662,"생계":15663,"마비":15664,"자화":15665,"두려워":15666,"모래":15667,"##ch":15668,"치킨":15669,"참모":15670,"갈아":15671,"공산주의자":15672,"천사":15673,"까진":15674,"지켜야":15675,"본사":15676,"진압":15677,"할래":15678,"하필":15679,"냐면":15680,"손자":15681,"훗날":15682,"녹음":15683,"태국":15684,"반역":15685,"손바닥":15686,"기각":15687,"아사":15688,"박영":15689,"육성":15690,"채권":15691,"밝혀졌":15692,"##수엘라":15693,"봅시다":15694,"싸울":15695,"아오":15696,"베네수엘라":15697,"실상":15698,"걸려서":15699,"머저리":15700,"원망":15701,"인연":15702,"맥락":15703,"걸릴":15704,"점프":15705,"쏟아":15706,"지출":15707,"포켓몬":15708,"박물":15709,"장제":15710,"후진국":15711,"떠난":15712,"농담":15713,"##카오":15714,"잡아먹":15715,"조기":15716,"영구":15717,"리얼미터":15718,"라기":15719,"스티":15720,"이언":15721,"##고생":15722,"머릿속":15723,"왜놈":15724,"사지":15725,"도우":15726,"가즈":15727,"출생":15728,"연재":15729,"출현":15730,"이룬":15731,"지킬":15732,"##장난":15733,"으려면":15734,"쓸데없":15735,"거론":15736,"##회사":15737,"##로드":15738,"배출":15739,"위선자":15740,"이정":15741,"정복":15742,"방패":15743,"가관":15744,"메모":15745,"##nd":15746,"철거":15747,"저장":15748,"하수인":15749,"동정":15750,"피의자":15751,"부를":15752,"황당":15753,"국정원":15754,"해고":15755,"아름답":15756,"테스트":15757,"##집니다":15758,"기다려":15759,"뒤통수":15760,"향한":15761,"##은행":15762,"버릇":15763,"의뢰":15764,"십자":15765,"집구석":15766,"풀리":15767,"생태":15768,"종식":15769,"##끼리":15770,"드러났":15771,"시사":15772,"침몰":15773,"##무지":15774,"##톨릭":15775,"징용":15776,"냉정":15777,"코너":15778,"광신":15779,"써먹":15780,"수지":15781,"김현":15782,"사령관":15783,"라곤":15784,"The":15785,"##컨대":15786,"학과":15787,"완화":15788,"쉴드":15789,"할까요":15790,"나치":15791,"동화":15792,"집합":15793,"누워":15794,"측근":15795,"유전":15796,"대왕":15797,"서명":15798,"드물":15799,"드라이":15800,"무서워":15801,"청장":15802,"중시":15803,"말리":15804,"담보":15805,"위성":15806,"최상":15807,"콜라":15808,"뜨거운":15809,"사거리":15810,"지냈":15811,"일삼":15812,"소대":15813,"건국":15814,"고르":15815,"엑스":15816,"모범":15817,"그딴":15818,"부실":15819,"규명":15820,"후기":15821,"수작":15822,"접속":15823,"철회":15824,"군단":15825,"는겨":15826,"우익":15827,"타워":15828,"트위터":15829,"보석":15830,"조그":15831,"유가족":15832,"오스":15833,"얼음":15834,"##어야":15835,"페이스":15836,"교실":15837,"배급":15838,"부수":15839,"추억":15840,"교육부":15841,"목격":15842,"동지":15843,"싫어":15844,"어딜":15845,"순환":15846,"까닭":15847,"조원":15848,"##라우":15849,"전락":15850,"##러지":15851,"목포":15852,"진동":15853,"바쁜":15854,"동반":15855,"유입":15856,"##부인":15857,"바꾼":15858,"구제":15859,"할꺼":15860,"요시":15861,"법치":15862,"SBS":15863,"망한다":15864,"부과":15865,"본능":15866,"인데요":15867,"돌아간다":15868,"시집":15869,"충족":15870,"백제":15871,"년놈":15872,"커지":15873,"살인마":15874,"변형":15875,"잃어버":15876,"커뮤니케이션":15877,"##권력":15878,"건드리":15879,"한다며":15880,"끄덕":15881,"##더라":15882,"어떡":15883,"장례":15884,"솔로":15885,"##ns":15886,"##이치":15887,"놓여":15888,"성별":15889,"영광":15890,"나간다":15891,"##그레이드":15892,"업그레이드":15893,"필리핀":15894,"##번에":15895,"문구":15896,"저래":15897,"##지않":15898,"패스트":15899,"기뻐":15900,"양자":15901,"합병":15902,"유투":15903,"하나하나":15904,"부류":15905,"저걸":15906,"인건비":15907,"이마":15908,"월세":15909,"유독":15910,"세계관":15911,"당한다":15912,"##NA":15913,"플라":15914,"개뿔":15915,"은혜":15916,"지극":15917,"한미":15918,"정면":15919,"강대":15920,"사이버":15921,"사면":15922,"##오스":15923,"박물관":15924,"버그":15925,"처단":15926,"아녀":15927,"변동":15928,"##모토":15929,"아울":15930,"리스":15931,"교장":15932,"함대":15933,"적화":15934,"찌르":15935,"백화점":15936,"백수":15937,"조조":15938,"급하":15939,"쪽발":15940,"아이고":15941,"기세":15942,"기만":15943,"##트라":15944,"##가르":15945,"비즈":15946,"점검":15947,"구름":15948,"텍스트":15949,"된장":15950,"뚜렷":15951,"후쿠시마":15952,"위상":15953,"놓치":15954,"공군":15955,"건담":15956,"비정":15957,"몰라서":15958,"##어날":15959,"열등":15960,"납득":15961,"플래":15962,"고리":15963,"사라진":15964,"구린":15965,"레인":15966,"질질":15967,"참전":15968,"##피스":15969,"날아가":15970,"주년":15971,"##북도":15972,"오스트":15973,"##빠진":15974,"저격":15975,"앞장서":15976,"편향":15977,"##입니다":15978,"보병":15979,"려다":15980,"사립":15981,"부각":15982,"치열":15983,"FC":15984,"물량":15985,"##성이":15986,"놀아나":15987,"명복":15988,"##인물":15989,"쳐도":15990,"몰아가":15991,"쳐들":15992,"신사":15993,"망언":15994,"런던":15995,"시끄럽":15996,"따져":15997,"증인":15998,"틀림없":15999,"지났":16000,"공학":16001,"##문학":16002,"귀국":16003,"스탠":16004,"편의점":16005,"줘야지":16006,"특기":16007,"경로":16008,"모리":16009,"버튼":16010,"좌표":16011,"깔끔":16012,"시야":16013,"정통":16014,"중동":16015,"무고":16016,"##소년":16017,"매입":16018,"아랫":16019,"우위":16020,"대략":16021,"석탄":16022,"분배":16023,"폭격":16024,"그간":16025,"##산물":16026,"음반":16027,"정유라":16028,"##스탄":16029,"창업":16030,"부작용":16031,"주둥아리":16032,"정성":16033,"복합":16034,"브레이":16035,"석유":16036,"슬프":16037,"가져오":16038,"가동":16039,"탈탈":16040,"유족":16041,"수급":16042,"빌리":16043,"경찰서":16044,"거꾸":16045,"으리라":16046,"학위":16047,"골목":16048,"##니어":16049,"어지간":16050,"해골":16051,"참사":16052,"물품":16053,"주범":16054,"이래도":16055,"애국자":16056,"##ay":16057,"베스트":16058,"모집":16059,"발전소":16060,"우연히":16061,"##어로":16062,"양상":16063,"들어와서":16064,"일곱":16065,"망국":16066,"선포":16067,"##드로":16068,"면역":16069,"부른":16070,"주저":16071,"온몸":16072,"연수":16073,"자진":16074,"가리키":16075,"웬만":16076,"원주":16077,"비추":16078,"견디":16079,"메뉴":16080,"히어로":16081,"봉인":16082,"비열":16083,"##투리":16084,"골드":16085,"피할":16086,"태양광":16087,"던전":16088,"표면":16089,"유아":16090,"반사":16091,"성취":16092,"스키":16093,"나마":16094,"무서워서":16095,"요약":16096,"빛나":16097,"벌어진":16098,"사명":16099,"행하":16100,"뻔하":16101,"키스":16102,"조민":16103,"끌어들":16104,"신자":16105,"면접":16106,"새끼야":16107,"애정":16108,"클리어":16109,"numberc":16110,"소금":16111,"호감":16112,"떨어진다":16113,"엘지":16114,"학기":16115,"마이너스":16116,"여신":16117,"##텐데":16118,"보좌":16119,"소음":16120,"기호":16121,"중고":16122,"지자체":16123,"몽골":16124,"일원":16125,"본성":16126,"내수":16127,"주간":16128,"##까봐":16129,"이데":16130,"##스레":16131,"술집":16132,"경주":16133,"총기":16134,"전남":16135,"신설":16136,"명심":16137,"##자찬":16138,"자화자찬":16139,"해안":16140,"호의":16141,"성숙":16142,"선진":16143,"클라스":16144,"이끄":16145,"##NS":16146,"안타까운":16147,"새겨":16148,"집사":16149,"대국민":16150,"개봉":16151,"북부":16152,"국장":16153,"고지":16154,"##ir":16155,"독서":16156,"모독":16157,"집어넣":16158,"모아서":16159,"유산":16160,"인턴":16161,"가하":16162,"오마":16163,"커뮤니티":16164,"만주":16165,"이언주":16166,"소서":16167,"화나":16168,"##보드":16169,"차전":16170,"원가":16171,"##ve":16172,"치밀":16173,"제법":16174,"내버":16175,"##도로":16176,"일본어":16177,"통장":16178,"미만":16179,"기다렸":16180,"출처":16181,"시신":16182,"모지리":16183,"헤드":16184,"공안":16185,"사방":16186,"##스럽":16187,"개미":16188,"개신":16189,"##봐야":16190,"거꾸로":16191,"미성년":16192,"우유":16193,"힘드":16194,"후속":16195,"부진":16196,"창의":16197,"아이폰":16198,"고교":16199,"저축":16200,"비즈니스":16201,"##메달":16202,"이정부":16203,"화제":16204,"접수":16205,"수법":16206,"망쳐":16207,"핵무기":16208,"여도":16209,"##im":16210,"스웨":16211,"아가씨":16212,"편법":16213,"편입":16214,"배울":16215,"들어올":16216,"주권":16217,"낙태":16218,"차릴":16219,"유비":16220,"날카":16221,"이여":16222,"내릴":16223,"아무렇":16224,"범법":16225,"풍경":16226,"##새끼":16227,"가드":16228,"이집":16229,"이완":16230,"추잡":16231,"어쩌다":16232,"민원":16233,"최우":16234,"이집트":16235,"유혹":16236,"유포":16237,"용병":16238,"당은":16239,"역겨운":16240,"산불":16241,"##하루":16242,"##옵니다":16243,"입주":16244,"나뉘":16245,"전신":16246,"지분":16247,"##바지":16248,"트럭":16249,"헌신":16250,"잔치":16251,"친척":16252,"전방":16253,"국왕":16254,"항복":16255,"납니다":16256,"여사":16257,"날라":16258,"과학자":16259,"일체":16260,"추모":16261,"내세우":16262,"감기":16263,"게끔":16264,"중세":16265,"저번":16266,"퇴근":16267,"##시코":16268,"전범":16269,"테마":16270,"문화재":16271,"벌리":16272,"맡겨":16273,"몹시":16274,"언덕":16275,"낮추":16276,"터미":16277,"멀티":16278,"치워":16279,"슬슬":16280,"부추기":16281,"구걸":16282,"연구원":16283,"지침":16284,"써도":16285,"노총":16286,"행보":16287,"그래요":16288,"아나운":16289,"학력":16290,"아나운서":16291,"동부":16292,"##od":16293,"채무":16294,"편들":16295,"오랜만":16296,"돌아갈":16297,"성서":16298,"나옴":16299,"입력":16300,"재생":16301,"어두운":16302,"정세":16303,"##틀러":16304,"KT":16305,"내뱉":16306,"상관없이":16307,"상가":16308,"헬기":16309,"우연":16310,"그토록":16311,"초등학생":16312,"비참":16313,"##스티":16314,"일간":16315,"기법":16316,"침입":16317,"들먹":16318,"돌렸":16319,"조항":16320,"민감":16321,"우월":16322,"몰리":16323,"어머":16324,"섹스":16325,"물고기":16326,"오바":16327,"스토":16328,"애쓰":16329,"브라질":16330,"한결":16331,"##서트":16332,"부럽":16333,"망상":16334,"암튼":16335,"결단":16336,"승진":16337,"재수없":16338,"커버":16339,"점유":16340,"코리아":16341,"억제":16342,"화염":16343,"밝혀라":16344,"보험료":16345,"구글":16346,"임종":16347,"격려":16348,"수신":16349,"은폐":16350,"쳐라":16351,"주의자":16352,"공소":16353,"때려잡":16354,"액션":16355,"##어질":16356,"우물":16357,"어린아이":16358,"돌보":16359,"어딨":16360,"려니":16361,"김재":16362,"즐겁":16363,"고장":16364,"연인":16365,"구할":16366,"남아":16367,"상당수":16368,"줄기":16369,"##un":16370,"신선":16371,"살피":16372,"아울러":16373,"실업자":16374,"국격":16375,"##방식":16376,"개시":16377,"입사":16378,"말기":16379,"오가":16380,"매니":16381,"금강":16382,"한겨레":16383,"파라":16384,"예고":16385,"주연":16386,"##세대":16387,"달하":16388,"성분":16389,"##사고":16390,"파헤":16391,"탱크":16392,"사후":16393,"여권":16394,"자비":16395,"어처":16396,"가라앉":16397,"이제야":16398,"수련":16399,"개수":16400,"##로우":16401,"오를":16402,"##스키":16403,"뻔한":16404,"두렵":16405,"##고리":16406,"위법":16407,"분단":16408,"질투":16409,"어렸":16410,"##이즈":16411,"달려들":16412,"##ter":16413,"예약":16414,"재건":16415,"선관":16416,"치유":16417,"어쩜":16418,"엘리트":16419,"xx":16420,"정규직":16421,"창고":16422,"공업":16423,"버림":16424,"책임자":16425,"서기":16426,"이닝":16427,"사마":16428,"늑대":16429,"원천":16430,"파트너":16431,"취약":16432,"동사":16433,"##세이":16434,"수명":16435,"결제":16436,"사고방식":16437,"알려졌":16438,"서부":16439,"굴리":16440,"안녕":16441,"영주":16442,"먹히":16443,"명목":16444,"후퇴":16445,"화물":16446,"패션":16447,"갔다":16448,"##대기":16449,"오리지":16450,"개신교":16451,"취미":16452,"패널":16453,"장자연":16454,"순진":16455,"소스":16456,"모바":16457,"약해":16458,"##질러":16459,"사신":16460,"소유자":16461,"##무라":16462,"##런스":16463,"아시":16464,"방송사":16465,"돌아와":16466,"무인":16467,"동포":16468,"화해":16469,"방면":16470,"대주":16471,"상장":16472,"심심":16473,"업자":16474,"은데요":16475,"좌절":16476,"동급":16477,"보물":16478,"호수":16479,"휴식":16480,"들어간다":16481,"취향":16482,"날짜":16483,"만지":16484,"실은":16485,"행정부":16486,"새삼":16487,"면적":16488,"##덜란드":16489,"네덜란드":16490,"지연":16491,"등장인물":16492,"이따위":16493,"어떨까":16494,"우방":16495,"충전":16496,"엉덩이":16497,"명품":16498,"모였":16499,"마감":16500,"대구경":16501,"사시":16502,"쿠데":16503,"종전":16504,"불꽃":16505,"보너스":16506,"임영":16507,"##로기":16508,"여동생":16509,"배당":16510,"놀라운":16511,"삼성전자":16512,"광우":16513,"정치판":16514,"징계":16515,"시발":16516,"정교":16517,"가치관":16518,"모른다는":16519,"국수":16520,"박지원":16521,"##눈물":16522,"촉진":16523,"정화":16524,"비정규":16525,"살아온":16526,"클래스":16527,"가속":16528,"저능아":16529,"장제원":16530,"더라면":16531,"피눈물":16532,"연맹":16533,"기상":16534,"가벼운":16535,"신인":16536,"사생활":16537,"꺼지":16538,"운송":16539,"절실":16540,"유권자":16541,"토막":16542,"잡아":16543,"더라구요":16544,"##의식":16545,"우롱":16546,"미드":16547,"##op":16548,"St":16549,"남긴":16550,"택배":16551,"비틀":16552,"호랑이":16553,"동북":16554,"굴러":16555,"공기업":16556,"늘어난":16557,"취직":16558,"호기심":16559,"광신도":16560,"건조":16561,"원내대표":16562,"수면":16563,"세탁":16564,"똘마니":16565,"용인":16566,"##TV":16567,"빼돌":16568,"하루빨리":16569,"구호":16570,"중지":16571,"숭배":16572,"타락":16573,"##가운":16574,"휘두르":16575,"가톨릭":16576,"모바일":16577,"했어도":16578,"두둔":16579,"해결책":16580,"##오리":16581,"안경":16582,"발급":16583,"개개":16584,"명시":16585,"종로":16586,"##크로":16587,"인듯":16588,"타카":16589,"트레이":16590,"간다는":16591,"이태":16592,"고립":16593,"돌아다":16594,"똥개":16595,"명문":16596,"##동자":16597,"조리":16598,"변수":16599,"놀랐":16600,"합성":16601,"비정규직":16602,"파도":16603,"쓰여":16604,"결성":16605,"합당":16606,"복구":16607,"구청장":16608,"편가르":16609,"건드":16610,"건전":16611,"는군요":16612,"민경":16613,"사대":16614,"어처구니":16615,"입대":16616,"박멸":16617,"분산":16618,"일으켰":16619,"공통점":16620,"전대":16621,"변해":16622,"북조선":16623,
[...]
