<s>
<pad>
</s>
<unk>
<mask>
[UNK0]
[UNK1]
[UNK2]
[UNK3]
[UNK4]
[UNK5]
[UNK6]
[UNK7]
[UNK8]
[UNK9]
[unused0]
[unused1]
[unused2]
[unused3]
[unused4]
[unused5]
[unused6]
[unused7]
[unused8]
[unused9]
[unused10]
[unused11]
[unused12]
[unused13]
[unused14]
[unused15]
[unused16]
[unused17]
[unused18]
[unused19]
[unused20]
[unused21]
[unused22]
[unused23]
[unused24]
[unused25]
[unused26]
[unused27]
[unused28]
[unused29]
[unused30]
[unused31]
[unused32]
[unused33]
[unused34]
[unused35]
[unused36]
[unused37]
[unused38]
[unused39]
[unused40]
[unused41]
[unused42]
[unused43]
[unused44]
[unused45]
[unused46]
[unused47]
[unused48]
[unused49]
[unused50]
[unused51]
[unused52]
[unused53]
[unused54]
[unused55]
[unused56]
[unused57]
[unused58]
[unused59]
[unused60]
[unused61]
[unused62]
[unused63]
[unused64]
[unused65]
[unused66]
[unused67]
[unused68]
[unused69]
[unused70]
[unused71]
[unused72]
[unused73]
[unused74]
[unused75]
[unused76]
[unused77]
[unused78]
[unused79]
[unused80]
[unused81]
[unused82]
[unused83]
[unused84]
[unused85]
[unused86]
[unused87]
[unused88]
[unused89]
[unused90]
[unused91]
[unused92]
[unused93]
[unused94]
[unused95]
[unused96]
[unused97]
[unused98]
[unused99]
[unused100]
[unused101]
[unused102]
[unused103]
[unused104]
[unused105]
[unused106]
[unused107]
[unused108]
[unused109]
[unused110]
[unused111]
[unused112]
[unused113]
[unused114]
[unused115]
[unused116]
[unused117]
[unused118]
[unused119]
[unused120]
[unused121]
[unused122]
[unused123]
[unused124]
[unused125]
[unused126]
[unused127]
[unused128]
[unused129]
[unused130]
[unused131]
[unused132]
[unused133]
[unused134]
[unused135]
[unused136]
[unused137]
[unused138]
[unused139]
[unused140]
[unused141]
[unused142]
[unused143]
[unused144]
[unused145]
[unused146]
[unused147]
[unused148]
[unused149]
[unused150]
[unused151]
[unused152]
[unused153]
[unused154]
[unused155]
[unused156]
[unused157]
[unused158]
[unused159]
[unused160]
[unused161]
[unused162]
[unused163]
[unused164]
[unused165]
[unused166]
[unused167]
[unused168]
[unused169]
[unused170]
[unused171]
[unused172]
[unused173]
[unused174]
[unused175]
[unused176]
[unused177]
[unused178]
[unused179]
[unused180]
[unused181]
[unused182]
[unused183]
[unused184]
[unused185]
[unused186]
[unused187]
[unused188]
[unused189]
[unused190]
[unused191]
[unused192]
[unused193]
[unused194]
[unused195]
[unused196]
[unused197]
[unused198]
[unused199]
!
"
%
'
,
-
.
/
0
1
2
3
4
5
6
7
8
9
:
?
@
A
B
C
D
E
F
G
H
I
J
K
L
M
N
O
P
Q
R
S
T
U
V
W
X
Y
Z
a
b
c
d
e
f
g
h
i
j
k
l
m
n
o
p
q
r
s
t
u
v
w
x
y
z
~
·
가
각
갂
갃
간
갅
갆
갇
갈
갉
갊
갋
갌
갍
갎
갏
감
갑
값
갓
갔
강
갖
갗
갘
같
갚
갛
개
객
갞
갟
갠
갢
갣
갤
갥
갧
갩
갫
갬
갭
갮
갯
갰
갱
갲
갳
갴
갵
갶
갷
갸
갹
갺
갼
갿
걀
걁
걃
걆
걇
걈
걉
걊
걋
걌
걍
걎
걐
걑
걒
걓
걔
걕
걖
걘
걜
걤
걥
걧
걨
걩
걬
걭
거
걱
걲
걳
건
걵
걶
걷
걸
걹
걺
걻
걼
걽
걾
걿
검
겁
겂
것
겄
겅
겆
겇
겈
겉
겊
겋
게
겍
겎
겏
겐
겒
겓
겔
겕
겗
겙
겚
겛
겜
겝
겞
겟
겠
겡
겢
겣
겤
겥
겦
겧
겨
격
겪
겫
견
겭
겮
겯
결
겱
겲
겳
겴
겵
겷
겸
겹
겺
겻
겼
경
겾
겿
곀
곁
곂
곃
계
곅
곆
곈
곋
곌
곔
곕
곖
곗
곘
곙
곚
곛
곜
곝
곟
고
곡
곢
곣
곤
곥
곧
골
곩
곪
곫
곬
곭
곮
곯
곰
곱
곲
곳
곴
공
곶
곷
곸
곹
곺
곻
과
곽
관
괁
괂
괃
괄
괅
괌
괍
괏
괐
광
괒
괓
괔
괕
괖
괗
괘
괙
괜
괝
괞
괠
괨
괫
괬
괭
괴
괵
괸
괺
괼
굄
굅
굇
굈
굉
굌
굎
교
굑
굔
굗
굘
굚
굠
굡
굣
굤
굥
굦
굧
굨
굩
굪
굫
구
국
굮
굯
군
굱
굲
굳
굴
굵
굶
굷
굺
굻
굼
굽
굾
굿
궀
궁
궂
궃
궄
궅
궆
궇
궈
궉
권
궍
궏
궐
궑
궓
궘
궙
궛
궜
궝
궠
궤
궥
궨
궬
궭
궮
궯
궲
궳
궵
궷
궸
궹
귀
귁
귄
귇
귈
귐
귑
귓
귔
귕
귖
귘
귛
규
귝
균
귣
귤
귥
귦
귬
귭
귯
귱
귴
귷
그
극
귺
귻
근
귽
귾
귿
글
긁
긂
긃
긄
긆
긇
금
급
긊
긋
긌
긍
긎
긏
긐
긑
긒
긓
긔
긕
긘
긛
긜
긞
긤
긥
긧
긩
긪
긬
긯
기
긱
긲
긴
긵
긶
긷
길
긹
긺
긻
긼
긿
김
깁
깂
깃
깄
깅
깆
깇
깈
깉
깊
깋
까
깍
깎
깐
깑
깒
깓
깔
깕
깖
깗
깛
깜
깝
깞
깟
깠
깡
깢
깣
깤
깥
깦
깧
깨
깩
깪
깬
깯
깰
깱
깵
깸
깹
깺
깻
깼
깽
깾
꺀
꺄
꺅
꺆
꺈
꺊
꺌
꺍
꺏
꺓
꺔
꺕
꺗
꺘
꺙
꺚
꺜
꺟
꺠
꺢
꺤
꺨
꺰
꺳
꺴
꺵
꺼
꺽
꺾
껀
껃
껄
껅
껇
껌
껍
껏
껐
껑
껒
껓
껔
껕
껗
께
껙
껚
껜
껠
껨
껩
껫
껬
껭
껰
껳
껴
껵
껶
껸
껼
꼄
꼅
꼇
꼈
꼉
꼊
꼌
꼍
꼏
꼐
꼣
꼤
꼥
꼨
꼬
꼭
꼮
꼰
꼲
꼳
꼴
꼵
꼶
꼷
꼹
꼻
꼼
꼽
꼿
꽀
꽁
꽂
꽃
꽄
꽅
꽆
꽇
꽈
꽉
꽊
꽌
꽐
꽑
꽘
꽙
꽛
꽜
꽝
꽠
꽤
꽥
꽦
꽨
꽳
꽴
꽹
꽼
꾀
꾁
꾄
꾈
꾐
꾕
꾜
꾝
꾠
꾤
꾬
꾭
꾱
꾳
꾸
꾹
꾺
꾼
꾾
꾿
꿀
꿁
꿂
꿃
꿄
꿇
꿈
꿉
꿋
꿌
꿍
꿎
꿏
꿐
꿑
꿓
꿔
꿕
꿘
꿜
꿝
꿤
꿥
꿧
꿨
꿩
꿬
꿯
꿰
꿱
꿲
꿴
꿸
꿹
꿻
꿿
뀀
뀃
뀄
뀅
뀈
뀌
뀍
뀐
뀔
뀜
뀝
뀟
뀠
뀡
뀤
뀨
뀩
뀪
뀬
뀰
뀱
뀳
뀷
뀸
뀹
뀻
뀽
끀
끄
끅
끆
끈
끉
끊
끋
끌
끍
끎
끏
끐
끓
끔
끕
끗
끘
끙
끚
끛
끜
끝
끞
끟
끠
끡
끤
끨
끯
끰
끵
끸
끼
끽
끾
낀
낂
낃
낄
낅
낋
낌
낍
낎
낏
낐
낑
낒
낓
낔
낕
낗
나
낙
낚
낛
난
낝
낞
낟
날
낡
낢
낣
낤
낥
낧
남
납
낪
낫
났
낭
낮
낯
낰
낱
낲
낳
내
낵
낶
낸
낻
낼
냄
냅
냇
냈
냉
냊
냋
냌
냍
냎
냏
냐
냑
냒
냔
냗
냘
냙
냠
냡
냣
냤
냥
냦
냧
냨
냩
냪
냫
냬
냰
냴
냼
냿
넀
넁
넄
너
넉
넊
넋
넌
넎
넏
널
넑
넒
넓
넔
넖
넗
넘
넙
넚
넛
넜
넝
넞
넟
넠
넡
넢
넣
네
넥
넦
넧
넨
넫
넬
넭
넴
넵
넶
넷
넸
넹
넺
넻
넼
넽
넾
넿
녀
녁
녂
년
녅
녆
녇
녈
념
녑
녓
녔
녕
녖
녗
녘
녙
녚
녛
녜
녝
녠
녤
녬
녭
녯
녰
녱
녴
노
녹
녺
녻
논
녽
녾
녿
놀
놁
놂
놃
놇
놈
놉
놊
놋
놌
농
놎
놏
놐
놑
높
놓
놔
놕
놖
놘
놛
놜
놝
놤
놥
놧
놨
놩
놪
놬
놯
놰
놴
놸
뇀
뇁
뇄
뇅
뇌
뇍
뇐
뇔
뇜
뇝
뇟
뇠
뇡
뇤
뇨
뇩
뇬
뇰
뇸
뇹
뇻
뇽
눀
눂
눃
누
눅
눈
눉
눋
눌
눍
눓
눔
눕
눗
눙
눚
눛
눜
눝
눞
눟
눠
눤
눨
눰
눳
눴
눵
눸
눹
눼
눽
뉀
뉄
뉅
뉌
뉍
뉑
뉔
뉘
뉙
뉜
뉠
뉨
뉩
뉫
뉬
뉭
뉰
뉴
뉵
뉸
뉼
늄
늅
늇
늉
늌
늎
늏
느
늑
늒
늓
는
늕
늖
늗
늘
늙
늚
늛
늜
늟
늠
늡
늣
늤
능
늦
늧
늨
늩
늪
늫
늬
늭
늰
늴
늼
늽
늿
닁
닄
니
닉
닊
닋
닌
닍
닏
닐
닑
닒
닗
님
닙
닚
닛
닜
닝
닞
닟
닠
닡
닢
닣
다
닥
닦
닧
단
닩
닪
닫
달
닭
닮
닯
닰
닱
닲
닳
담
답
닶
닷
닸
당
닺
닻
닼
닽
닾
닿
대
댁
댂
댄
댇
댈
댉
댏
댐
댑
댓
댔
댕
댖
댗
댘
댙
댚
댛
댜
댝
댠
댣
댤
댥
댦
댬
댭
댯
댰
댱
댲
댴
댷
댸
댼
덀
덈
덋
덌
덍
더
덕
덖
덗
던
덙
덛
덜
덝
덞
덟
덢
덣
덤
덥
덦
덧
덨
덩
덪
덫
덬
덭
덮
덯
데
덱
덲
덴
덷
델
덹
덻
뎀
뎁
뎂
뎃
뎄
뎅
뎆
뎇
뎈
뎉
뎊
뎋
뎌
뎍
뎐
뎓
뎔
뎜
뎝
뎟
뎠
뎡
뎤
뎦
뎧
뎨
뎬
뎻
뎽
도
독
돆
돇
돈
돉
돋
돌
돍
돎
돏
돐
돒
돓
돔
돕
돖
돗
돘
동
돚
돛
돜
돝
돞
돟
돠
돡
돤
돨
돩
돰
돱
돳
돴
돵
돸
돻
돼
돽
돾
됀
됃
됄
됌
됍
됏
됐
됑
됒
됔
됗
되
됙
됚
된
됝
됟
될
됡
됢
됤
됥
됧
됨
됩
됫
됬
됭
됮
됰
됱
됳
됴
됵
됸
됻
됼
둄
둅
둇
둉
둊
둋
둌
둏
두
둑
둒
둔
둗
둘
둙
둚
둛
둞
둟
둠
둡
둣
둥
둦
둧
둨
둩
둪
둫
둬
둭
둰
둴
둼
둽
둿
뒀
뒁
뒄
뒇
뒈
뒌
뒐
뒑
뒓
뒘
뒙
뒛
뒜
뒝
뒞
뒠
뒤
뒥
뒨
뒫
뒬
뒴
뒵
뒷
뒸
뒹
뒺
뒼
듀
듁
듄
듇
듈
듐
듑
듓
듕
듘
드
득
듞
듟
든
듡
듢
듣
들
듥
듦
듧
듨
듩
듪
듫
듬
듭
듯
듰
등
듲
듳
듴
듵
듶
듷
듸
듹
듼
딀
딈
딉
딋
딍
디
딕
딖
딘
딛
딜
딝
딞
딤
딥
딧
딨
딩
딪
딫
딬
딭
딮
딯
따
딱
딲
딳
딴
딷
딸
딹
딺
딻
딿
땀
땁
땃
땄
땅
땆
땈
땉
땋
때
땍
땎
땐
땓
땔
땜
땝
땟
땠
땡
땢
땣
땤
땦
땧
땨
땩
땬
땰
땸
땽
떃
떄
떅
떈
떌
떔
떗
떘
떙
떠
떡
떢
떣
떤
떥
떦
떧
떨
떩
떪
떫
떮
떯
떰
떱
떳
떴
떵
떶
떷
떸
떹
떺
떻
떼
떽
떾
뗀
뗄
뗌
뗍
뗏
뗐
뗑
뗔
뗗
뗘
뗙
뗜
뗠
뗨
뗫
뗬
뗭
뗳
뗴
뗵
뗸
뗼
똇
똈
또
똑
똒
똔
똗
똘
똙
똚
똝
똟
똠
똡
똣
똥
똦
똧
똨
똩
똫
똬
똭
똮
똰
똴
똵
똷
똻
똼
똽
똿
뙀
뙁
뙄
뙇
뙈
뙌
뙓
뙛
뙜
뙝
뙤
뙥
뙨
뙬
뙴
뙷
뙸
뙹
뙿
뚀
뚁
뚄
뚈
뚊
뚕
뚜
뚝
뚞
뚠
뚢
뚣
뚤
뚥
뚦
뚧
뚨
뚫
뚬
뚭
뚯
뚱
뚴
뚵
뚷
뚸
뚹
뚼
뛀
뛃
뛋
뛌
뛍
뛓
뛔
뛕
뛝
뛟
뛣
뛥
뛧
뛨
뛰
뛱
뛴
뛸
뜀
뜁
뜃
뜄
뜅
뜌
뜍
뜐
뜔
뜛
뜜
뜝
뜡
뜨
뜩
뜪
뜬
뜮
뜯
뜰
뜱
뜳
뜷
뜸
뜹
뜻
뜼
뜽
뜾
뜿
띀
띁
띃
띄
띅
띈
띌
띔
띕
띙
띟
띠
띡
띤
띧
띨
띰
띱
띳
띴
띵
띶
띸
띻
라
락
띾
띿
란
랁
랂
랃
랄
랅
랆
랇
랈
랉
랊
랋
람
랍
랎
랏
랐
랑
랒
랓
랔
랕
랖
랗
래
랙
랚
랜
랟
랠
랡
램
랩
랫
랬
랭
랮
랯
랰
랱
랲
랳
랴
략
랸
랺
랻
랼
럄
럅
럇
럈
량
럊
럌
럎
럏
럐
럑
럔
럗
럘
럠
럣
럤
럥
러
럭
럮
럯
런
럱
럲
럳
럴
럵
럶
럷
럸
럻
럼
럽
럾
럿
렀
렁
렂
렃
렄
렅
렆
렇
레
렉
렊
렋
렌
렏
렐
렑
렓
렗
렘
렙
렚
렛
렜
렝
렞
렠
렡
렢
렣
려
력
렦
렧
련
렩
렪
렫
렬
렭
렴
렵
렷
렸
령
렺
렻
렼
렽
렾
렿
례
롁
롄
롈
롐
롑
롓
롔
롕
롘
로
록
롞
론
롡
롣
롤
롥
롫
롬
롭
롮
롯
롰
롱
롲
롳
롴
롵
롶
롷
롸
롹
롻
롼
뢀
뢁
뢈
뢉
뢋
뢌
뢍
뢐
뢓
뢔
뢕
뢘
뢜
뢥
뢨
뢩
뢰
뢱
뢴
뢸
룀
룁
룃
룄
룅
룈
료
룍
룐
룔
룜
룝
룟
룠
룡
룢
룤
룧
루
룩
룪
룬
룯
룰
룱
룷
룸
룹
룻
룽
룾
룿
뤀
뤁
뤂
뤃
뤄
뤅
뤈
뤌
뤔
뤕
뤗
뤘
뤙
뤜
뤟
뤠
뤡
뤤
뤨
뤩
뤫
뤰
뤱
뤳
뤵
뤸
뤼
뤽
륀
륄
륌
륍
륏
륐
륑
륔
류
륙
륜
륟
률
륨
륩
륫
륭
륮
륰
륲
륳
르
륵
륶
른
륹
륻
를
륽
륾
륿
릀
릁
릂
릃
름
릅
릇
릈
릉
릊
릋
릌
릍
릎
릏
릐
릑
릔
릘
릠
릡
릣
릥
릫
리
릭
릮
린
릱
릲
릳
릴
릵
릶
릷
릸
릹
릻
림
립
릾
릿
맀
링
맂
맃
맄
맅
맆
맇
마
막
맊
맋
만
맍
많
맏
말
맑
맒
맓
맔
맕
맖
맗
맘
맙
맚
맛
맜
망
맞
맟
맠
맡
맢
맣
매
맥
맨
맩
맪
맫
맬
맴
맵
맷
맸
맹
맺
맻
맼
맽
맿
먀
먁
먄
먆
먇
먈
먐
먑
먓
먕
먖
먗
먘
먛
먜
먠
먤
먱
머
먹
먺
먻
먼
먽
먾
먿
멀
멁
멂
멈
멉
멊
멋
멌
멍
멎
멏
멐
멑
멒
멓
메
멕
멘
멛
멜
멤
멥
멧
멨
멩
멪
멫
멬
멭
멮
멯
며
멱
멲
면
멵
멶
멷
멸
멿
몀
몁
몃
몄
명
몆
몇
몈
몉
몊
몋
몌
몐
몔
몟
몡
몢
몣
모
목
몪
몫
몬
몮
몯
몰
몱
몲
몴
몷
몸
몹
몺
못
몼
몽
몾
몿
뫀
뫁
뫂
뫃
뫄
뫅
뫈
뫌
뫔
뫕
뫗
뫘
뫙
뫚
뫜
뫠
뫤
뫼
뫽
묀
묄
묏
묑
묘
묙
묜
묠
묨
묫
묭
묯
무
묵
묶
묷
문
묹
묺
묻
물
묽
묾
묿
뭀
뭁
뭃
뭄
뭅
뭇
뭈
뭉
뭊
뭋
뭌
뭍
뭎
뭏
뭐
뭑
뭔
뭕
뭗
뭘
뭙
뭚
뭟
뭠
뭡
뭣
뭤
뭥
뭦
뭧
뭨
뭩
뭫
뭬
뭭
뭰
뭴
뭵
뭷
뭽
뭿
뮁
뮈
뮉
뮌
뮏
뮐
뮘
뮙
뮛
뮜
뮝
뮤
뮥
뮦
뮨
뮫
뮬
뮴
뮷
뮹
뮻
뮼
므
믁
믂
믄
믆
믇
믈
믉
믌
믐
믑
믓
믕
믖
믘
믙
믛
믜
믝
믠
믣
믤
믬
믯
믰
믱
미
믹
믺
믻
민
믽
믾
믿
밀
밁
밂
밇
밈
밉
밊
밋
밌
밍
밎
및
밐
밑
밒
밓
바
박
밖
밗
반
밙
밚
받
발
밝
밞
밟
밠
밡
밢
밣
밤
밥
밦
밧
밨
방
밪
밫
밬
밭
밮
밯
배
백
밲
밳
밴
밷
밸
밹
밿
뱀
뱁
뱃
뱄
뱅
뱆
뱇
뱈
뱉
뱊
뱋
뱌
뱍
뱎
뱐
뱓
뱔
뱕
뱗
뱛
뱜
뱝
뱟
뱡
뱤
뱥
뱨
뱩
뱬
뱰
뱸
뱽
벁
버
벅
벆
번
벉
벊
벋
벌
벍
벎
벏
벐
벑
벓
범
법
벖
벗
벘
벙
벚
벛
벜
벝
벞
벟
베
벡
벤
벧
벨
벩
벫
벭
벯
벰
벱
벲
벳
벴
벵
벶
벷
벸
벹
벺
벻
벼
벽
벾
변
볁
볂
볃
별
볅
볆
볇
볈
볋
볌
볍
볎
볏
볐
병
볒
볓
볔
볕
볖
볗
볘
볙
볜
볠
볫
볭
보
복
볶
볷
본
볹
볻
볼
볽
볾
봀
봁
봃
봄
봅
봆
봇
봈
봉
봊
봋
봌
봍
봎
봏
봐
봑
봒
봔
봗
봘
봙
봟
봠
봡
봣
봤
봥
봦
봨
봩
봫
봬
봭
봰
봴
봵
봽
봿
뵀
뵁
뵈
뵉
뵌
뵏
뵐
뵑
뵘
뵙
뵛
뵜
뵝
뵞
뵠
뵤
뵥
뵨
뵬
뵴
뵵
뵷
뵹
뵺
부
북
붂
붃
분
붅
붆
붇
불
붉
붊
붋
붌
붍
붎
붏
붐
붑
붓
붔
붕
붖
붗
붘
붙
붚
붛
붜
붝
붠
붤
붥
붬
붭
붯
붰
붱
붴
붸
붹
붼
뷀
뷁
뷃
뷇
뷉
뷋
뷍
뷐
뷔
뷕
뷘
뷜
뷤
뷥
뷧
뷩
뷮
뷰
뷱
뷴
뷷
뷸
뷹
븀
븁
븂
븃
븅
븈
븉
븋
브
븍
븎
븏
븐
븓
블
븕
븛
븜
븝
븞
븟
븡
븢
븤
븥
븦
븧
븨
븩
븬
븰
븸
븹
븻
븽
빂
비
빅
빆
빇
빈
빋
빌
빍
빎
빏
빓
빔
빕
빖
빗
빘
빙
빚
빛
빜
빝
빞
빟
빠
빡
빢
빣
빤
빧
빨
빩
빪
빫
빬
빭
빯
빰
빱
빳
빴
빵
빶
빷
빸
빹
빺
빻
빼
빽
빾
뺀
뺃
뺄
뺅
뺌
뺍
뺏
뺐
뺑
뺒
뺓
뺔
뺕
뺗
뺘
뺙
뺚
뺜
뺠
뺡
뺨
뺩
뺫
뺭
뺴
뺵
뺶
뺸
뺼
뻁
뻄
뻇
뻈
뻉
뻐
뻑
뻒
뻔
뻕
뻖
뻗
뻘
뻙
뻠
뻡
뻣
뻤
뻥
뻦
뻨
뻩
뻪
뻫
뻬
뻭
뻰
뻴
뻼
뻿
뼀
뼁
뼈
뼉
뼊
뼌
뼏
뼐
뼑
뼘
뼙
뼛
뼜
뼝
뼠
뼡
뼤
뼬
뽀
뽁
뽂
뽄
뽇
뽈
뽐
뽑
뽓
뽕
뽖
뽘
뽚
뽛
뽜
뽝
뽞
뽠
뽤
뽥
뽫
뽬
뽭
뽯
뽰
뽱
뽴
뽷
뽸
뽹
뾀
뾃
뾔
뾥
뾰
뾱
뾲
뾴
뾸
뿁
뿃
뿅
뿌
뿍
뿎
뿐
뿑
뿓
뿔
뿕
뿛
뿜
뿝
뿟
뿠
뿡
뿤
뿥
뿧
뿨
뿩
뿬
뿰
뿱
뿳
뿹
뿽
쀀
쀄
쀅
쀈
쀌
쀍
쀏
쀒
쀓
쀠
쀡
쀨
쀳
쀵
쀼
쀽
쀾
쁀
쁄
쁌
쁍
쁏
쁐
쁑
쁘
쁙
쁜
쁝
쁟
쁠
쁨
쁩
쁫
쁭
쁮
쁰
쁴
쁸
쁼
삉
삐
삑
삒
삔
삗
삘
삠
삡
삣
삤
삥
삦
삧
삨
삫
사
삭
삮
삯
산
삱
삲
삳
살
삵
삶
삷
삸
삹
삺
삻
삼
삽
삾
삿
샀
상
샂
샃
샄
샅
샆
샇
새
색
샊
샋
샌
샎
샏
샐
샑
샒
샓
샔
샕
샗
샘
샙
샚
샛
샜
생
샞
샟
샠
샡
샢
샣
샤
샥
샦
샨
샫
샬
샮
샴
샵
샷
샸
샹
샼
샽
샾
샿
섀
섁
섂
섄
섈
섉
섊
섐
섑
섓
섔
섕
섘
서
석
섞
섟
선
섡
섢
섣
설
섥
섦
섧
섨
섩
섪
섫
섬
섭
섮
섯
섰
성
섲
섳
섴
섵
섶
섷
세
섹
섺
섻
센
섽
섿
셀
셁
셂
셃
셆
셇
셈
셉
셋
셌
셍
셎
셏
셐
셑
셒
셓
셔
셕
셖
션
셛
셜
셟
셤
셥
셧
셨
셩
셪
셫
셬
셭
셮
셯
셰
셱
셲
셴
셸
솀
솁
솃
솄
솅
솈
솉
솊
소
속
솎
솏
손
솑
솒
솓
솔
솕
솖
솛
솜
솝
솟
솠
송
솢
솣
솤
솥
솦
솧
솨
솩
솬
솰
솸
솹
솻
솼
솽
쇀
쇄
쇅
쇆
쇈
쇌
쇔
쇗
쇘
쇙
쇜
쇟
쇠
쇡
쇣
쇤
쇨
쇱
쇳
쇵
쇸
쇼
쇽
숀
숄
숌
숍
숏
숐
숑
숔
숖
숗
수
숙
숚
순
숝
숟
술
숡
숢
숤
숧
숨
숩
숪
숫
숬
숭
숮
숯
숰
숱
숲
숳
숴
숵
숶
숸
숼
쉄
쉅
쉇
쉈
쉉
쉌
쉐
쉑
쉒
쉓
쉔
쉗
쉘
쉙
쉚
쉛
쉜
쉞
쉟
쉠
쉡
쉣
쉤
쉥
쉧
쉨
쉩
쉪
쉫
쉬
쉭
쉮
쉰
쉲
쉳
쉴
쉻
쉼
쉽
쉾
쉿
슀
슁
슂
슄
슅
슆
슇
슈
슉
슌
슏
슐
슘
슙
슛
슝
슞
슟
슠
슢
스
슥
슦
슧
슨
슩
슫
슬
슭
슮
슯
슰
슲
슳
슴
습
슶
슷
슸
승
슺
슻
슼
슽
슾
슿
싀
싁
싄
싅
싆
싇
싈
싐
싑
싓
싕
싖
싘
싙
싚
시
식
싞
싟
신
싡
싢
싣
실
싥
싦
싧
싨
싩
싪
싫
심
십
싮
싯
싰
싱
싲
싳
싴
싵
싶
싷
싸
싹
싺
싻
싼
싾
싿
쌀
쌂
쌇
쌈
쌉
쌋
쌌
쌍
쌎
쌐
쌑
쌒
쌓
쌔
쌕
쌖
쌗
쌘
쌛
쌜
쌞
쌟
쌤
쌥
쌧
쌨
쌩
쌬
쌯
쌰
쌱
쌴
쌸
쌻
썀
썁
썃
썄
썅
썋
썌
썍
썎
썐
썔
썖
썜
썝
썟
썠
썡
써
썩
썪
썫
썬
썯
썰
썱
썳
썸
썹
썻
썼
썽
썾
쎀
쎁
쎂
쎃
쎄
쎅
쎆
쎇
쎈
쎌
쎍
쎓
쎔
쎕
쎗
쎘
쎙
쎜
쎝
쎟
쎠
쎡
쎤
쎨
쎰
쎱
쎳
쎴
쎵
쎼
쎽
쎾
쏀
쏃
쏄
쏌
쏏
쏐
쏔
쏖
쏘
쏙
쏚
쏜
쏟
쏠
쏨
쏩
쏫
쏬
쏭
쏮
쏰
쏱
쏳
쏴
쏵
쏸
쏼
쐄
쐅
쐇
쐈
쐉
쐌
쐏
쐐
쐑
쐒
쐣
쐤
쐥
쐨
쐬
쐭
쐰
쐴
쐼
쐽
쐿
쑀
쑈
쑉
쑌
쑐
쑙
쑛
쑝
쑤
쑥
쑦
쑨
쑫
쑬
쑴
쑵
쑷
쑹
쑻
쑼
쒀
쒁
쒂
쒄
쒈
쒐
쒑
쒓
쒔
쒕
쒘
쒜
쒝
쒞
쒠
쒤
쒥
쒧
쒫
쒭
쒯
쒰
쒱
쒴
쒵
쒸
쒹
쒼
쓀
쓃
쓈
쓉
쓊
쓋
쓌
쓍
쓐
쓑
쓒
쓔
쓕
쓘
쓜
쓤
쓥
쓩
쓰
쓱
쓲
쓴
쓷
쓸
쓹
쓺
쓿
씀
씁
씂
씃
씄
씅
씆
씇
씈
씉
씊
씋
씌
씍
씐
씔
씗
씜
씝
씞
씟
씡
씢
씤
씥
씦
씧
씨
씩
씪
씬
씮
씯
씰
씱
씳
씶
씷
씸
씹
씺
씻
씼
씽
씾
씿
앀
앁
앂
앃
아
악
앆
앇
안
앉
않
앋
알
앍
앎
앏
앐
앑
앒
앓
암
압
앖
앗
았
앙
앚
앛
앜
앝
앞
앟
애
액
앢
앣
앤
앦
앧
앨
앩
앰
앱
앲
앳
앴
앵
앶
앷
앸
앹
앺
앻
야
약
앾
앿
얀
얁
얂
얃
얄
얅
얆
얇
얉
얊
얋
얌
얍
얎
얏
얐
양
얒
얓
얔
얕
얖
얗
얘
얙
얜
얠
얨
얩
얪
얫
얬
얭
얮
얰
얳
어
억
얶
얷
언
얹
얺
얻
얼
얽
얾
얿
엀
엁
엂
엃
엄
업
없
엇
었
엉
엊
엋
엌
엍
엎
엏
에
엑
엒
엓
엔
엕
엗
엘
엙
엜
엞
엠
엡
엢
엣
엤
엥
엦
엧
엨
엩
엪
엫
여
역
엮
엯
연
엱
엲
엳
열
엵
엶
엷
엸
엹
엻
염
엽
엾
엿
였
영
옂
옃
옄
옅
옆
옇
예
옉
옌
옐
옘
옙
옛
옜
옝
옞
옟
옠
옢
옣
오
옥
옦
옧
온
옩
옪
옫
올
옭
옮
옯
옰
옱
옲
옳
옴
옵
옶
옷
옸
옹
옺
옻
옼
옽
옾
옿
와
왁
왂
완
왅
왆
왇
왈
왉
왐
왑
왓
왔
왕
왖
왗
왘
왙
왚
왛
왜
왝
왠
왡
왢
왤
왥
왬
왭
왯
왰
왱
왲
왳
왴
왶
왷
외
왹
왼
욀
욈
욉
욋
욌
욍
욎
욐
욓
요
욕
욖
욗
욘
욛
욜
욝
욣
욤
욥
욧
욨
용
욪
욫
욬
욭
욮
욯
우
욱
욲
욳
운
욵
욷
울
욹
욺
욻
욼
욽
욾
욿
움
웁
웂
웃
웄
웅
웆
웇
웈
웉
웊
웋
워
웍
웎
원
웑
웒
웓
월
웕
웖
웗
웘
웙
웚
웛
웜
웝
웞
웟
웠
웡
웢
웣
웤
웥
웦
웧
웨
웩
웪
웬
웯
웰
웱
웳
웸
웹
웺
웻
웼
웽
웾
윀
윁
윂
위
윅
윈
윋
윌
윔
윕
윖
윗
윘
윙
윚
윜
윝
윟
유
육
윢
윣
윤
윥
윧
율
윩
윯
윰
윱
윳
융
윶
윷
윸
윹
윺
윻
으
윽
윾
윿
은
읁
읂
읃
을
읅
읆
읇
읈
읉
읊
읋
음
읍
읎
읏
읐
응
읒
읓
읔
읕
읖
읗
의
읙
읜
읟
읠
읨
읩
읪
읫
읬
읭
읮
읯
읰
읱
읲
읳
이
익
읶
읷
인
읹
읺
읻
일
읽
읾
읿
잀
잁
잂
잃
임
입
잆
잇
있
잉
잊
잋
잌
잍
잎
잏
자
작
잒
잓
잔
잕
잖
잗
잘
잙
잚
잛
잜
잝
잞
잟
잠
잡
잢
잣
잤
장
잦
잧
잨
잩
잪
잫
재
잭
잮
잰
잲
잳
잴
잼
잽
잿
쟀
쟁
쟂
쟃
쟄
쟅
쟆
쟇
쟈
쟉
쟌
쟎
쟏
쟐
쟘
쟙
쟛
쟜
쟝
쟞
쟟
쟠
쟡
쟣
쟤
쟥
쟨
쟬
쟴
쟸
쟹
쟼
저
적
젂
젃
전
젅
젆
젇
절
젉
젊
젋
젌
젍
젎
젏
점
접
젒
젓
젔
정
젖
젗
젘
젙
젚
젛
제
젝
젞
젠
젡
젣
젤
젬
젭
젯
젰
젱
젲
젳
젴
젵
젶
젷
져
젹
젺
젼
젾
젿
졀
졂
졈
졉
졋
졌
졍
졎
졏
졐
졑
졒
졓
졔
졘
졜
졨
졩
조
족
졲
졳
존
졵
졶
졷
졸
졹
졺
졻
졽
졿
좀
좁
좂
좃
좄
종
좆
좇
좈
좉
좊
좋
좌
좍
좎
좐
좒
좓
좔
좜
좝
좟
좠
좡
좢
좣
좤
좥
좦
좧
좨
좩
좬
좭
좮
좯
좰
좱
좸
좼
좽
죄
죅
죈
죌
죔
죕
죗
죘
죙
죚
죜
죝
죠
죡
죢
죣
죤
죥
죧
죨
죰
죱
죳
죴
죵
죶
죷
죸
죹
죺
죻
주
죽
죾
죿
준
줁
줂
줃
줄
줅
줆
줈
줉
줊
줋
줌
줍
줎
줏
줐
중
줒
줓
줔
줕
줖
줗
줘
줙
줚
줜
줝
줟
줠
줨
줩
줫
줬
줭
줮
줯
줰
줱
줳
줴
줵
줸
줼
쥄
쥅
쥇
쥈
쥉
쥐
쥑
쥔
쥘
쥠
쥡
쥣
쥤
쥥
쥦
쥨
쥫
쥬
쥭
쥰
쥳
쥴
쥼
쥽
쥿
즁
즂
즄
즇
즈
즉
즋
즌
즎
즏
즐
즑
즘
즙
즛
즜
증
즞
즟
즠
즡
즣
즤
즥
즨
즬
즴
즵
즷
즹
즺
즼
지
직
짂
짃
진
짅
짆
짇
질
짉
짊
짋
짌
짍
짎
짏
짐
집
짒
짓
짔
징
짖
짗
짘
짙
짚
짛
짜
짝
짞
짠
짢
짣
짤
짥
짦
짧
짪
짫
짬
짭
짮
짯
짰
짱
짲
짳
짴
짵
짶
짷
째
짹
짺
짼
짿
쨀
쨈
쨉
쨋
쨌
쨍
쨎
쨐
쨓
쨔
쨕
쨖
쨘
쨚
쨜
쨟
쨤
쨥
쨧
쨨
쨩
쨬
쨰
쨱
쨲
쨴
쩀
쩁
쩃
쩄
쩅
쩌
쩍
쩎
쩐
쩑
쩓
쩔
쩕
쩖
쩗
쩘
쩛
쩜
쩝
쩟
쩠
쩡
쩢
쩣
쩤
쩦
쩧
쩨
쩩
쩬
쩰
쩸
쩹
쩻
쩼
쩽
쪄
쪅
쪈
쪌
쪔
쪕
쪗
쪘
쪙
쪚
쪜
쪟
쪠
쪵
쪹
쪻
쪼
쪽
쪾
쪿
쫀
쫂
쫃
쫄
쫅
쫌
쫍
쫏
쫐
쫑
쫒
쫓
쫔
쫕
쫖
쫗
쫘
쫙
쫚
쫛
쫜
쫟
쫠
쫨
쫩
쫫
쫭
쫰
쫴
쫵
쬈
쬎
쬐
쬑
쬔
쬘
쬠
쬡
쬥
쬬
쬭
쬮
쬰
쬲
쬴
쬼
쬽
쬿
쭀
쭁
쭂
쭃
쭄
쭅
쭈
쭉
쭊
쭌
쭏
쭐
쭕
쭘
쭙
쭛
쭝
쭞
쭟
쭠
쭤
쭥
쭨
쭬
쭭
쭵
쭷
쭸
쭹
쭻
쮀
쮁
쮇
쮉
쮑
쮓
쮔
쮕
쮜
쮝
쮠
쮤
쮭
쮱
쮸
쮹
쮼
쯀
쯈
쯉
쯋
쯍
쯎
쯔
쯕
쯘
쯛
쯜
쯤
쯥
쯧
쯨
쯩
쯪
쯫
쯰
쯱
쯴
찁
찅
찌
찍
찎
찏
찐
찓
찔
찗
찜
찝
찟
찠
찡
찢
찣
찤
찥
찦
찧
차
착
찪
찫
찬
찭
찮
찯
찰
찱
찲
찳
찴
찷
참
찹
찻
찼
창
찾
찿
챀
챁
챂
챃
채
책
챈
챊
챋
챌
챔
챕
챗
챘
챙
챚
챜
챝
챠
챡
챤
챦
챨
챫
챰
챱
챳
챴
챵
챶
챷
챸
챺
챻
챼
챽
첑
처
척
천
첝
첞
첟
철
첡
첢
첣
첤
첦
첧
첨
첩
첪
첫
첬
청
첮
첯
첰
첱
첲
첳
체
첵
첸
첻
첼
쳄
쳅
쳇
쳈
쳉
쳊
쳋
쳌
쳍
쳏
쳐
쳑
쳒
쳔
쳗
쳘
쳠
쳡
쳢
쳣
쳤
쳥
쳦
쳧
쳨
쳫
쳬
쳭
쳰
쳴
촀
초
촉
촌
촏
촐
촔
촘
촙
촛
촜
총
촞
촟
촠
촡
촣
촤
촥
촨
촪
촬
촴
촵
촷
촹
촺
촼
쵀
쵁
쵕
최
쵝
쵠
쵤
쵭
쵮
쵯
쵱
쵲
쵴
쵸
쵹
쵼
쵿
춀
춈
춉
춋
춌
춍
춎
춏
춐
추
축
춘
춚
춛
출
춝
춞
춟
춠
춡
춣
춤
춥
춧
충
춪
춫
춬
춭
춮
춯
춰
춱
춴
춸
췁
췃
췄
췅
췆
췈
췌
췍
췐
췔
췕
췜
췝
췟
췡
췤
취
췩
췬
췰
췸
췹
췻
췼
췽
츀
츄
츅
츈
츌
츔
츕
츗
츙
츛
츜
츞
츠
측
츤
츧
츨
츰
츱
츳
층
츶
츷
츸
츹
츼
츽
칀
칄
칌
칍
칑
칔
치
칙
친
칝
칞
칟
칠
칡
칢
칤
칧
침
칩
칫
칬
칭
칮
칯
칰
칱
칲
칳
카
칵
칶
칸
칻
칼
칽
캄
캅
캆
캇
캈
캉
캊
캋
캌
캍
캎
캏
캐
캑
캔
캘
캙
캠
캡
캢
캣
캤
캥
캨
캩
캪
캬
캭
캮
캰
캴
캵
캼
캽
캿
컀
컁
컄
컅
컇
컈
커
컥
컦
컨
컫
컬
컭
컯
컴
컵
컷
컸
컹
컺
컼
컽
컾
컿
케
켁
켄
켇
켈
켉
켐
켑
켓
켔
켕
켘
켙
켚
켛
켜
켝
켞
켠
켤
켬
켭
켯
켰
켱
켲
켴
켵
켷
켸
켼
콋
콌
코
콕
콘
콛
콜
콤
콥
콧
콩
콪
콫
콬
콭
콮
콯
콰
콱
콲
콴
콸
쾀
쾃
쾅
쾈
쾌
쾍
쾐
쾡
쾤
쾨
쾩
쾬
쾰
쾽
쿄
쿅
쿈
쿌
쿔
쿗
쿙
쿜
쿠
쿡
쿢
쿤
쿧
쿨
쿩
쿫
쿯
쿰
쿱
쿳
쿵
쿸
쿹
쿺
쿻
쿼
쿽
퀀
퀄
퀌
퀏
퀐
퀑
퀔
퀘
퀙
퀜
퀠
퀡
퀫
퀭
퀰
퀴
퀵
퀸
퀻
퀼
큄
큅
큇
큉
큌
큐
큑
큔
큘
큠
큡
큣
큥
큨
큩
큪
크
큭
큮
큰
큲
큳
클
큵
큷
큻
큼
큽
큿
킀
킁
킂
킄
킅
킆
킇
킈
킉
킌
킐
킘
킝
킠
키
킥
킦
킨
킫
킬
킴
킵
킶
킷
킸
킹
킺
킼
킽
킾
킿
타
탁
탂
탄
탅
탆
탇
탈
탉
탊
탍
탏
탐
탑
탓
탔
탕
탖
탗
탘
탙
탚
탛
태
택
탞
탟
탠
탣
탤
탬
탭
탯
탰
탱
탲
탴
탵
탶
탷
탸
탹
탼
턀
턈
턉
턋
턍
턐
턑
턔
턕
턘
턩
터
턱
턴
턷
털
턹
턺
텀
텁
텂
텃
텄
텅
텆
텇
텈
텉
텊
텋
테
텍
텐
텓
텔
템
텝
텟
텠
텡
텢
텣
텤
텥
텦
텧
텨
텩
텬
텰
텸
텹
텻
텼
텽
톀
톃
톄
톅
톈
톌
톔
토
톡
톢
톤
톧
톨
톩
톪
톰
톱
톳
통
톶
톷
톸
톹
톺
톻
톼
톽
퇀
퇄
퇌
퇍
퇏
퇑
퇔
퇘
퇙
퇜
퇧
퇫
퇬
퇭
퇮
퇴
퇵
퇶
퇸
퇼
툄
툅
툇
툈
툉
툊
툌
툐
툑
툠
툥
툨
툩
투
툭
툰
툱
툲
툳
툴
툻
툼
툽
툿
퉁
퉂
퉄
퉅
퉆
퉈
퉉
퉌
퉐
퉛
퉜
퉝
퉤
퉥
퉨
퉬
퉵
퉷
퉸
퉹
퉼
퉽
튀
튁
튄
튈
튐
튑
튓
튔
튕
튘
튜
튝
튠
튤
튬
튭
튱
튴
튵
튶
트
특
튺
튻
튼
튽
튿
틀
틁
틂
틅
틇
틈
틉
틊
틋
틍
틎
틏
틐
틑
틒
틓
틔
틕
틘
틜
틤
틧
틩
티
틱
틳
틴
틷
틸
팀
팁
팃
팄
팅
팆
팈
팉
팊
파
팍
팎
팏
판
팑
팒
팓
팔
팕
팖
팗
팘
팙
팚
팛
팜
팝
팟
팠
팡
팢
팣
팤
팥
팦
팧
패
팩
팬
팯
팰
팸
팹
팻
팼
팽
퍀
퍁
퍄
퍅
퍈
퍌
퍔
퍙
퍝
퍞
퍠
퍡
퍤
퍵
퍼
퍽
퍾
펀
펃
펄
펅
펌
펍
펏
펐
펑
펒
펔
펕
펖
펗
페
펙
펜
펟
펠
펨
펩
펫
펭
펰
펲
펴
펵
편
펹
펺
펻
펼
폄
폅
폇
폈
평
폌
폐
폑
폔
폘
폠
폡
폣
폥
폨
포
폭
폮
폯
폰
폳
폴
폼
폽
폿
퐁
퐂
퐄
퐅
퐆
퐇
퐈
퐉
퐌
퐐
퐑
퐘
퐙
퐛
퐜
퐝
퐠
퐣
퐤
퐥
퐨
푀
푁
푄
푈
푕
표
푝
푠
푤
푬
푭
푯
푱
푲
푴
푶
푷
푸
푹
푼
푿
풀
풁
풂
풃
풇
품
풉
풋
풍
풎
풏
풐
풑
풒
풓
풔
풕
풘
풜
풩
풬
풰
풱
풴
풸
풹
퓅
퓌
퓍
퓐
퓔
퓟
퓡
퓨
퓩
퓬
퓰
퓸
퓹
퓻
퓽
퓿
픀
픂
픃
프
픅
픈
픋
플
픍
픎
픓
픔
픕
픗
픙
픚
픜
픝
픞
픟
픠
픤
픨
픵
픹
피
픽
핀
핃
필
핆
핋
핌
핍
핏
핐
핑
핒
핓
핔
핕
핖
핗
하
학
핚
핛
한
핝
핞
핟
할
핡
핢
핣
핤
핥
핦
핧
함
합
핪
핫
핬
항
핮
핯
핰
핱
핲
핳
해
핵
핶
핷
핸
핺
핻
핼
핽
햄
햅
햇
했
행
햊
햋
햌
햍
햎
햏
햐
햑
햔
햘
햙
햚
햛
햝
햟
햠
햡
햣
햤
향
햨
햩
햫
햬
햭
햰
햿
헀
헁
허
헉
헊
헋
헌
헍
헏
헐
헑
헒
헓
헔
헕
헗
험
헙
헚
헛
헜
헝
헞
헟
헠
헡
헢
헣
헤
헥
헦
헧
헨
헫
헬
헭
헯
헰
헱
헲
헳
헴
헵
헶
헷
헸
헹
헼
헽
헾
헿
혀
혁
혂
혃
현
혅
혆
혇
혈
혉
혐
협
혒
혓
혔
형
혖
혘
혙
혚
혛
혜
혝
혠
혤
혬
혭
혯
혰
혱
혲
혴
혷
호
혹
혺
혻
혼
혽
혾
혿
홀
홁
홅
홇
홈
홉
홋
홍
홎
홐
홑
홒
홓
화
확
홖
홗
환
홙
홛
활
홝
홟
홡
홣
홤
홥
홧
홨
황
홪
홫
홬
홭
홮
홯
홰
홱
홴
횃
횄
횅
회
획
횐
횓
횔
횜
횝
횟
횠
횡
횢
횤
횧
효
횩
횬
횰
횸
횹
횻
횽
훀
훃
후
훅
훈
훉
훊
훋
훌
훍
훏
훑
훓
훔
훕
훗
훙
훚
훛
훜
훝
훞
훟
훠
훡
훤
훨
훯
훰
훱
훳
훵
훸
훻
훼
훽
휀
휄
휅
휇
휍
휏
휐
휑
휔
휗
휘
휙
휜
휟
휠
휨
휩
휫
휭
휰
휲
휳
휴
휵
휸
휼
흄
흅
흇
흉
흊
흌
흎
흏
흐
흑
흒
흓
흔
흗
흘
흙
흚
흛
흜
흝
흟
흠
흡
흣
흤
흥
흦
흨
흩
흪
흫
희
흭
흰
흳
흴
흵
흼
흽
흿
힁
힂
힄
힇
히
힉
힊
힌
힏
힐
힑
힒
힕
힗
힘
힙
힛
힜
힝
힞
힟
힠
힡
힢
힣
％
##져
##요
##그
##림
##이
##님
##사
##정
##은
##렸
##던
##거
##임
##선
##예
##쁘
##고
##신
##맘
##속
##에
##아
##오
##세
##라
##을
##전
##하
##는
##가
##개
##돼
##지
##니
##까
##엄
##청
##더
##모
##든
##스
##골
##프
##장
##어
##봐
##줌
##적
##인
##으
##로
##자
##들
##시
##켜
##h
##m
##o
##n
##l
##i
##e
##등
##학
##교
##안
##나
##온
##분
##듯
##폭
##부
##문
##도
##잡
##먹
##기
##친
##구
##과
##게
##머
##리
##면
##작
##욕
##죠
##솔
##직
##히
##a
##t
##당
##산
##업
##쉥
##키
##점
##달
##건
##레
##소
##각
##만
##없
##애
##려
##와
##야
##할
##때
##수
##준
##반
##운
##식
##권
##질
##커
##녕
##카
##를
##너
##동
##생
##숙
##영
##쪽
##짐
##서
##콜
##주
##댓
##글
##결
##해
##줄
##있
##것
##승
##룹
##득
##네
##여
##약
##석
##명
##러
##움
##성
##보
##다
##쳐
##었
##음
##쉬
##바
##았
##데
##책
##되
##화
##의
##번
##듣
##억
##칸
##겐
##대
##토
##엉
##찰
##입
##된
##앉
##녀
##찍
##본
##였
##디
##한
##테
##절
##차
##귀
##재
##르
##겠
##파
##악
##회
##왕
##금
##공
##홈
##쇼
##핑
##5
##간
##연
##희
##쟁
##중
##심
##복
##즘
##윈
##진
##짜
##휴
##참
##며
##0
##톤
##봤
##롱
##4
##2
##호
##습
##족
##역
##종
##북
##빨
##갱
##일
##매
##국
##노
##쇄
##살
##강
##마
##원
##뿡
##8
##3
##7
##숏
##합
##혔
##단
##처
##송
##함
##못
##양
##브
##잉
##독
##팀
##춘
##채
##맛
##납
##엇
##눈
##밀
##둘
##받
##짓
##좀
##델
##링
##뻘
##김
##행
##캔
##죽
##설
##관
##위
##잇
##육
##비
##9
##벨
##편
##돈
##벌
##손
##짠
##체
##형
##외
##출
##같
##루
##씨
##조
##혼
##론
##허
##실
##잖
##뻐
##1
##킨
##내
##천
##혁
##센
##터
##염
##능
##헌
##란
##계
##환
##경
##저
##뱉
##말
##발
##물
##핸
##섬
##워
##래
##극
##새
##끼
##태
##냐
##열
##럭
##변
##료
##씩
##펀
##드
##피
##똑
##또
##립
##긋
##민
##놀
##불
##풍
##떨
##탁
##투
##럼
##년
##순
##름
##맞
##쥬
##6
##제
##웡
##닷
##력
##급
##픈
##감
##방
##령
##벅
##플
##길
##읏
##용
##익
##평
##법
##했
##쁜
##탄
##덕
##싸
##후
##죄
##치
##증
##훈
##남
##꾸
##셧
##류
##큰
##잔
##버
##넘
##맴
##찢
##느
##축
##포
##릿
##배
##우
##람
##필
##륭
##곤
##텔
##백
##착
##싶
##꿈
##밝
##무
##X
##막
##놈
##망
##걸
##크
##뿔
##맙
##갈
##타
##탈
##왔
##협
##랍
##딸
##상
##통
##른
##담
##침
##랑
##C
##T
##V
##좋
##앤
##뇨
##혐
##린
##울
##트
##격
##끝
##항
##궐
##빠
##갤
##귄
##런
##갔
##I
##P
##놓
##난
##탕
##램
##획
##판
##셨
##팡
##쓰
##군
##별
##큼
##미
##측
##럽
##탓
##술
##엿
##줬
##딩
##턱
##누
##코
##티
##뿐
##돌
##덩
##색
##날
##쳤
##께
##룡
##혈
##먼
##표
##특
##징
##쌀
##곳
##몰
##릴
##젠
##폐
##u
##g
##w
##댕
##긴
##렇
##뻔
##박
##창
##웅
##올
##험
##냥
##앙
##똥
##높
##탱
##슴
##두
##근
##충
##옹
##현
##밖
##촌
##뜨
##웠
##퇴
##범
##엘
##흥
##됫
##십
##층
##답
##좃
##켰
##핵
##뉴
##초
##않
##객
##옷
##겁
##견
##휘
##탐
##겨
##붙
##볼
##접
##활
##얼
##빈
##록
##유
##철
##베
##알
##넷
##r
##냅
##뎟
##셔
##택
##봉
##싫
##값
##닛
##겅
##척
##추
##졌
##낸
##푸
##농
##페
##병
##락
##풀
##춤
##춰
##흘
##팬
##많
##됀
##율
##칭
##났
##첩
##덴
##왜
##엌
##좌
##켓
##x
##샐
##따
##슷
##므
##향
##옵
##존
##낭
##확
##집
##팍
##O
##찌
##탑
##클
##삼
##딱
##논
##즈
##썼
##흐
##메
##빵
##잼
##뭐
##힘
##댔
##밍
##싱
##낌
##뿌
##겻
##y
##널
##컵
##쥐
##즌
##엨
##써
##웃
##겪
##슬
##E
##쉽
##폰
##힐
##샌
##꺼
##냈
##깐
##칙
##넹
##흑
##언
##좁
##월
##굴
##빼
##A
##례
##팅
##뽑
##헠
##깨
##슈
##줘
##윌
##혜
##엎
##묻
##뙤
##괴
##넼
##줫
##팩
##굶
##픽
##규
##껴
##꺍
##꺌
##뚱
##칠
##R
##엔
##젤
##효
##갇
##깤
##캐
##첬
##혀
##잘
##끄
##턴
##줍
##밧
##닮
##씀
##광
##쉐
##뀌
##튜
##렴
##땜
##뒤
##틀
##튼
##K
##N
##D
##쌈
##닭
##뀜
##째
##떻
##웹
##툰
##련
##쌤
##딲
##욤
##눕
##랐
##붠
##k
##s
##띵
##젝
##총
##G
##B
##념
##렛
##검
##찾
##팔
##S
##낀
##뀔
##둣
##품
##읽
##쵸
##힌
##f
##씁
##쓸
##황
##덧
##목
##랄
##덱
##뱔
##졍
##찮
##궁
##둔
##j
##쿤
##냨
##뎁
##쑈
##릅
##릭
##봄
##렁
##떡
##볶
##떼
##찬
##쪼
##슨
##겟
##갘
##샊
##냉
##쁠
##쿼
##빤
##섭
##깔
##케
##삐
##깕
##푼
##셓
##촉
##빙
##씬
##H
##닐
##낙
##몽
##뱅
##블
##뚝
##퀴
##뎃
##뮤
##컬
##짤
##쨌
##될
##넣
##션
##딴
##첨
##쿠
##땅
##쳇
##꼬
##곶
##퍼
##짝
##믿
##d
##쏘
##닌
##늘
##곡
##패
##빡
##쎄
##뭔
##엒
##텐
##쓴
##뺐
##떤
##롴
##밥
##웟
##껄
##톨
##핀
##쏴
##뷰
##씌
##쯤
##됏
##맨
##압
##v
##템
##뜸
##웨
##벽
##암
##F
##샤
##쇠
##L
##빌
##삶
##갑
##됐
##숭
##웁
##겆
##뜼
##덜
##M
##Z
##p
##넫
##갰
##닠
##꽃
##굿
##률
##촬
##즉
##U
##롤
##렵
##둑
##깊
##뺏
##럴
##량
##콘
##땐
##액
##꾼
##걍
##엥
##흉
##컷
##숩
##꽤
##툭
##늕
##둥
##챙
##냔
##꼽
##융
##완
##뿜
##쌍
##봔
##뜰
##젖
##햇
##짘
##뻗
##몃
##뜻
##돔
##됩
##밌
##혓
##닥
##b
##앍
##뇌
##텼
##튀
##톱
##넓
##섯
##균
##최
##웍
##듸
##냄
##찡
##앨
##갓
##쌓
##랙
##듭
##넌
##닼
##싹
##꼼
##짱
##숨
##겼
##깝
##c
##늙
##꼴
##몸
##묘
##잣
##됬
##털
##훨
##킹
##랬
##윗
##꼭
##닙
##싼
##셈
##놔
##쏟
##댈
##룸
##앵
##낰
##샵
##옄
##빗
##읗
##빛
##옴
##응
##쌜
##낫
##몇
##킬
##꽈
##뚜
##앗
##싯
##욋
##솨
##랫
##씹
##맹
##놨
##캄
##렐
##뫃
##즐
##쏜
##떠
##맥
##갖
##훼
##펴
##샘
##팽
##딘
##졸
##셋
##듬
##녔
##갠
##봇
##샹
##윤
##첼
##멈
##꿀
##헬
##쟈
##켄
##멜
##뗀
##욱
##앞
##푹
##츠
##돠
##뤠
##섴
##쩍
##넨
##늑
##뤼
##뎈
##옛
##껀
##얔
##츤
##앴
##뽄
##꺾
##왓
##잠
##팒
##멍
##z
##랜
##얻
##숍
##쨉
##뀐
##홍
##됨
##옥
##얄
##훗
##숴
##맬
##봣
##끌
##쇽
##잌
##쁨
##깃
##쟌
##낼
##렷
##슛
##팥
##큐
##곸
##믈
##엣
##얘
##셰
##늦
##얌
##몬
##삿
##핳
##헤
##찐
##졔
##겸
##혹
##쨔
##쩔
##욬
##퀸
##릎
##쳣
##빅
##낳
##눔
##첵
##짖
##퐁
##죵
##섹
##톄
##퐈
##읹
##깽
##틸
##취
##벤
##쾌
##챱
##뜽
##탠
##짧
##궤
##꽥
##펙
##틴
##콕
##괜
##밤
##뜯
##댁
##밎
##략
##컨
##랏
##롭
##릉
##쪄
##칼
##뚫
##흔
##렀
##펫
##찔
##맟
##끊
##뮐
##띄
##뎅
##넸
##앜
##뤱
##젼
##홀
##랩
##삭
##밭
##욜
##녜
##휜
##멋
##퓰
##큘
##릇
##꿔
##꼐
##벙
##곱
##녓
##젱
##빴
##빰
##깻
##붕
##J
##엽
##W
##웬
##훠
##랴
##얍
##샷
##먄
##퍽
##졋
##묵
##퇘
##곗
##왠
##쟝
##밴
##겄
##켭
##뻤
##툴
##늄
##톡
##꾀
##섞
##땔
##헝
##럿
##듈
##늗
##퓨
##섰
##쎈
##짬
##뽕
##횡
##닝
##랭
##썰
##즙
##딧
##넬
##랔
##뺴
##갂
##쩜
##뇽
##쫌
##픔
##잗
##뀡
##얀
##셉
##밑
##좆
##밨
##낄
##맵
##컴
##녹
##칫
##봅
##톰
##셤
##멸
##겹
##챔
##늠
##렜
##눠
##넛
##맺
##옆
##덤
##뉘
##곰
##쭈
##콤
##땡
##왼
##쿨
##끈
##뢍
##묶
##꺽
##곀
##곽
##벳
##컥
##젊
##닫
##렌
##닦
##믹
##냣
##긱
##텍
##펼
##엏
##죳
##떄
##껍
##쎗
##땃
##렉
##툽
##썩
##곧
##냒
##갸
##봥
##흨
##칵
##렬
##뭘
##싷
##빽
##튭
##똘
##춥
##쌌
##뱃
##챈
##틱
##꼈
##녘
##셀
##뺑
##밉
##흣
##흡
##겈
##렙
##룰
##Q
##깡
##꼇
##졨
##롯
##팰
##끗
##횽
##댘
##튿
##뮬
##옙
##겜
##굳
##낵
##읐
##꿨
##찿
##찹
##뢰
##렠
##쩝
##벆
##렘
##섺
##끠
##텨
##챠
##몿
##헛
##볍
##옇
##롸
##괸
##쐈
##륜
##걱
##팁
##뻑
##흠
##쒀
##윱
##콩
##밋
##붓
##쩌
##뵬
##걩
##뒬
##Y
##꺙
##캠
##캇
##및
##썬
##왚
##눅
##륙
##귤
##껏
##눌
##끔
##벼
##냇
##땋
##킈
##믄
##밟
##첫
##맀
##딬
##돋
##댜
##룩
##칰
##꽂
##찜
##틈
##슥
##솠
##껭
##됴
##쟎
##쉰
##쨈
##눞
##롬
##챗
##헷
##떰
##낱
##쫑
##왈
##늣
##낮
##쩐
##옼
##댄
##뒀
##헀
##봨
##텝
##잊
##뤄
##뱤
##뫄
##깍
##땨
##긎
##잏
##퀀
##뛰
##뎀
##펌
##쌋
##잭
##켕
##딤
##엑
##깜
##쑴
##멘
##옳
##륻
##렝
##띤
##삘
##팝
##줏
##녁
##짚
##딨
##칩
##멀
##쫒
##싴
##몐
##듀
##웰
##껑
##셜
##멤
##앎
##놧
##줩
##둡
##썻
##굽
##젔
##캬
##냠
##뻥
##븐
##셐
##훕
##쾅
##읺
##뱀
##맡
##뵈
##덛
##앱
##깬
##벗
##긍
##얏
##딕
##핌
##숲
##탣
##깥
##솟
##랠
##쳄
##텀
##샸
##긔
##팜
##뒈
##듴
##쬬
##뽀
##깁
##찝
##씻
##켬
##믐
##펑
##웜
##캡
##쟤
##떳
##뭉
##켸
##흗
##흫
##듷
##쥔
##끓
##휠
##q
##묭
##폼
##겉
##읍
##귘
##깉
##횃
##붜
##돛
##홬
##츌
##햿
##봌
##죴
##됌
##륵
##듵
##뜬
##쉴
##럳
##쎴
##궂
##욮
##뿍
##꺄
##폴
##닿
##쒸
##쨩
##닉
##넝
##뱍
##샀
##귺
##끡
##홉
##뭍
##쯔
##됭
##쉼
##뎌
##씽
##쩡
##펜
##댐
##릵
##팸
##힉
##힏
##췄
##깅
##쪙
##햌
##쏠
##킷
##둬
##떵
##퉁
##눴
##핼
##횟
##랰
##굼
##샛
##늬
##뫼
##홋
##흄
##튺
##킥
##닳
##밓
##댠
##숟
##욍
##눜
##깎
##퀘
##왘
##돜
##짹
##촤
##핫
##윽
##폄
##겤
##삽
##쿄
##젓
##닜
##엠
##싀
##픨
##욭
##땠
##괖
##쨋
##갚
##콰
##꿍
##낑
##햄
##퓸
##욯
##뇬
##돕
##챵
##딜
##섘
##얶
##텅
##앟
##껰
##뚤
##팻
##킴
##숫
##멧
##솥
##먕
##갬
##걷
##캉
##헙
##쯱
##뼈
##볕
##탤
##꿉
##궈
##왤
##펠
##읎
##앓
##즤
##빚
##뤂
##꿇
##몫
##뷔
##헐
##몈
##썽
##퀄
##넥
##짇
##빻
##콧
##쫄
##롕
##킵
##잎
##룻
##맣
##쌰
##헿
##츄
##몀
##촘
##펭
##욧
##햏
##띠
##댝
##뙇
##핱
##굔
##웈
##넉
##롄
##탯
##쿵
##짴
##뻬
##넴
##헉
##죱
##갛
##몆
##휏
##튄
##헭
##섀
##겝
##듥
##슐
##탭
##뼛
##쉑
##땤
##붐
##쑤
##짭
##겧
##녾
##샄
##첸
##괘
##욥
##깂
##먀
##헑
##겡
##덬
##훑
##룽
##씸
##굉
##쌩
##닊
##뺌
##햐
##덮
##슝
##싿
##갯
##컸
##팟
##컄
##꿰
##컼
##쿡
##옮
##윕
##뺨
##퐉
##긁
##춧
##찼
##텬
##윘
##죔
##왑
##돨
##핍
##죤
##쥴
##찻
##컽
##엮
##깟
##셩
##밬
##놋
##샬
##밪
##둦
##컀
##촛
##좉
##묜
##흰
##탴
##쨰
##킼
##쎅
##놯
##튬
##쫓
##걔
##잽
##킁
##룐
##뵙
##됄
##밸
##낚
##휑
##웽
##뭇
##얗
##썜
##챃
##쌔
##곁
##랗
##쫙
##쑥
##샨
##꼰
##칍
##헨
##탬
##몹
##읅
##숑
##잰
##벷
##읿
##쳌
##핰
##굥
##덥
##똬
##뒷
##꽁
##옌
##풉
##텟
##쏙
##웤
##맸
##쳔
##튠
##샠
##뤘
##딥
##훌
##헣
##쪗
##쪘
##짦
##둉
##꽇
##컹
##앀
##꾹
##핥
##뺀
##귈
##쉣
##옂
##쫘
##셍
##펐
##칞
##쩨
##낯
##떴
##꽝
##쎔
##샴
##큅
##쉘
##잃
##쭘
##괄
##깆
##엓
##밣
##쮸
##룬
##딪
##슙
##꾜
##귣
##펩
##풔
##둠
##둟
##꺅
##핧
##믜
##럈
##벵
##툼
##똙
##긐
##벡
##뽐
##랃
##햬
##뽂
##탔
##펍
##덟
##쉅
##쥑
##앸
##훵
##죸
##캥
##맂
##뾰
##뉸
##빕
##넜
##덨
##텻
##쩬
##쿱
##쎠
##섕
##젆
##걀
##훟
##냑
##놘
##떱
##읻
##맠
##줰
##밷
##읔
##갴
##윙
##듩
##옘
##쯩
##깈
##욘
##뿅
##셥
##얕
##흩
##챌
##윔
##탉
##썪
##츨
##얇
##챀
##맄
##딛
##꿃
##뮈
##짊
##륍
##끍
##돰
##겋
##듦
##랳
##셴
##젒
##슘
##긤
##퍠
##펨
##썸
##룔
##귝
##뽈
##뢱
##쭉
##댑
##뭣
##툌
##걐
##꽉
##쐏
##맏
##폇
##귐
##앝
##픠
##돵
##쮝
##랖
##넖
##듁
##쌘
##쓤
##슌
##몉
##핏
##짼
##캅
##룀
##옠
##쳥
##짗
##넠
##녈
##봘
##힙
##쨓
##쎱
##쉿
##쌖
##귑
##뉼
##톹
##얒
##붛
##럄
##갭
##궄
##벴
##졓
##뗄
##놌
##곕
##쩰
##삥
##껌
##힝
##봡
##밮
##륿
##잀
##늨
##띁
##밯
##숸
##헽
##팤
##썀
##릀
##맔
##겔
##띰
##엡
##췰
##랼
##릐
##쇳
##쨜
##뉵
##켔
##뜩
##몯
##쓔
##킄
##좦
##쳡
##븅
##깄
##륨
##붸
##줴
##쌨
##켈
##쐰
##낟
##겎
##닾
##븃
##켠
##듳
##뇸
##뗏
##윅
##폔
##긩
##힛
##멉
##삲
##퍄
##틐
##퇮
##냬
##뭠
##봬
##헹
##샅
##쨍
##믓
##닽
##꿧
##즵
##춈
##썹
##죗
##빱
##캣
##츕
##쇅
##쿸
##힣
##죈
##쓱
##냌
##띡
##멕
##껸
##곘
##밞
##앶
##믕
##짲
##눼
##밈
##튕
##뢀
##솜
##켯
##삔
##촐
##뵘
##굣
##긜
##쉭
##솝
##맆
##핟
##샥
##뽷
##갗
##겴
##쿰
##퉥
##앰
##뒴
##훔
##룟
##솓
##꿁
##싄
##쯧
##녑
##뎄
##읫
##쨕
##핬
##콥
##잫
##빔
##좡
##똨
##걜
##롼
##챴
##풋
##츈
##맼
##궷
##홧
##닢
##뮨
##펄
##햤
##캘
##놉
##솰
##쑵
##뫌
##욪
##띱
##헥
##욌
##쉔
##썌
##렺
##뀰
##왁
##땀
##옶
##뭄
##멌
##렃
##츼
##톈
##쟘
##쭵
##띈
##딫
##쩃
##웾
##뿟
##팠
##뀟
##쿺
##풐
##떈
##휙
##끽
##춭
##몌
##쥭
##뇰
##폿
##곬
##밢
##똭
##덯
##엦
##쳅
##뱌
##댱
##칯
##왭
##뫈
##텡
##섶
##쭝
##엊
##빳
##핪
##뽜
##솎
##븟
##췃
##숀
##쏭
##숼
##팎
##츰
##랸
##낍
##쨥
##곷
##눟
##렣
##큭
##둿
##궜
##뎋
##젯
##땈
##뗴
##틍
##짰
##햑
##긌
##꿕
##놬
##짔
##삣
##솤
##쭐
##쒜
##곃
##칌
##껬
##탰
##늪
##툥
##븢
##뢔
##뷍
##잆
##앛
##헸
##훤
##쇜
##쥥
##짢
##헼
##듼
##쩄
##핡
##맜
##놐
##뽝
##뜹
##뱝
##젹
##둰
##껵
##눀
##쁸
##뱨
##퀼
##빋
##껐
##뎽
##잦
##촹
##촏
##쇆
##쟄
##즁
##젬
##챡
##뚷
##껅
##꼿
##섮
##얹
##잤
##돘
##좇
##뜐
##쌕
##틋
##옐
##녴
##잨
##뜅
##줭
##뾱
##싡
##럾
##갞
##캌
##몄
##췌
##튈
##섲
##퉤
##쌉
##깞
##뽁
##빪
##윳
##훙
##큨
##홝
##륾
##랲
##팧
##셯
##뻣
##봫
##씅
##츙
##숱
##멱
##홤
##멓
##쟀
##풰
##볘
##삧
##왇
##솽
##뎨
##뙁
##벸
##뻠
##믺
##삑
##뮌
##먓
##뭴
##뇩
##럱
##깰
##갹
##돍
##볻
##뮴
##쫩
##갣
##첮
##껼
##꿩
##넋
##걈
##쾨
##찤
##깇
##챦
##웝
##곺
##듐
##걾
##흭
##뜷
##짏
##륄
##쭌
##벋
##쟹
##횩
##욲
##졐
##좩
##떸
##쨀
##뎆
##돗
##뱥
##쉇
##땽
##먿
##썡
##슿
##퀑
##쟠
##뚠
##끤
##쥠
##췬
##폈
##휩
##쳉
##싢
##싣
##겓
##뗌
##웂
##홪
##죕
##땝
##햠
##슾
##뛴
##뵀
##쯪
##싳
##얽
##싞
##쓉
##엙
##잋
##훅
##쑨
##뵜
##볏
##햨
##핚
##홥
##먠
##햣
##뭥
##볐
##씤
##햅
##눙
##퓿
##풒
##쥰
##듓
##먜
##팼
##낒
##닺
##꽄
##먱
##잜
##삱
##췅
##끙
##궛
##앚
##킇
##흙
##윰
##눵
##뼜
##룝
##렄
##됗
##뒁
##앐
##쉨
##돝
##닯
##쉈
##븍
##춌
##릮
##앖
##챂
##멩
##셕
##낡
##귿
##퐌
##쭤
##좔
##칽
##읠
##섦
##닚
##븝
##닪
##숯
##탘
##홓
##흝
##돤
##뽤
##뷴
##젴
##쟂
##홰
##씰
##뉩
##쉉
##뤡
##팯
##롐
##꼹
##짆
##샾
##촞
##낏
##잲
##뼐
##꺠
##콴
##맑
##뼉
##늡
##짙
##뙈
##괌
##섊
##콬
##봑
##슉
##챘
##캍
##읊
##뺄
##뵤
##맷
##쀼
##헁
##씯
##붉
##둅
##붇
##쥣
##늉
##헴
##텰
##늅
##긷
##럑
##뎠
##굈
##딹
##뷁
##넙
##뎊
##뭌
##졷
##웄
##섣
##쳑
##휼
##썅
##넿
##몾
##엤
##슽
##엾
##벚
##켤
##묠
##멎
##뀨
##멊
##넡
##릈
##퐐
##줈
##볠
##캤
##넟
##뉨
##섵
##쪅
##쾡
##굵
##쐇
##땟
##셸
##욨
##렿
##꿂
##닏
##싰
##씝
##욀
##껜
##놜
##좍
##샋
##뎔
##힜
##땸
##졀
##읃
##펔
##뎡
##얷
##뽱
##닟
##킅
##젛
##뻄
##뜌
##듄
##젵
##펏
##벞
##슼
##줔
##틔
##낔
##춛
##픕
##팓
##쩠
##끕
##엪
##갼
##옺
##홴
##맃
##떔
##렼
##쇘
##쁩
##슺
##빫
##밐
##켐
##돞
##벝
##콸
##삯
##뭎
##줙
##쥤
##촟
##뇤
##잴
##샣
##넵
##꾺
##쩧
##깋
##껨
##샆
##괍
##쿜
##슂
##뵛
##븀
##샙
##댬
##굇
##쉒
##겾
##땍
##큠
##됍
##땬
##폳
##껔
##푯
##뤈
##떢
##귁
##윷
##냘
##좨
##붑
##핝
##찧
##넦
##꽛
##얖
##숬
##췻
##꿝
##됰
##읭
##뒙
##큽
##괐
##큵
##즄
##죙
##딿
##쟜
##읨
##롻
##뉜
##듑
##컈
##쐐
##틉
##훃
##쭻
##룿
##팈
##걳
##싕
##궘
##똿
##왰
##띀
##뤳
##깠
##믽
##뛸
##읮
##쟐
##퐙
##잪
##낢
##냡
##묽
##띨
##쐑
##웩
##뚯
##빢
##벉
##뇻
##욖
##춝
##뤀
##줗
##힠
##쒝
##낃
##뎐
##좟
##탙
##텉
##쯕
##흴
##탸
##땄
##붃
##옸
##읕
##렑
##퀙
##즥
##뽠
##좈
##갢
##딀
##끵
##겊
##쩛
##딳
##짞
##픞
##댙
##륰
##듶
##팹
##옅
##섁
##롲
##읶
##븥
##굄
##먺
##푠
##튤
##싪
##끋
##쳬
##뿬
##땧
##앳
##뇡
##솧
##젋
##쥼
##쌞
##셖
##텩
##홛
##챕
##꿘
##웣
##쮜
##닡
##뎉
##옜
##죷
##쉫
##뼏
##뱡
##껓
##걋
##댛
##굨
##쎼
##릍
##굚
##젲
##곻
##럐
##셌
##횐
##텆
##닞
##꿋
##덫
##괞
##됒
##뒹
##뼝
##톳
##귕
##짛
##걑
##얐
##냦
##휍
##섥
##줳
##걹
##퍙
##핮
##젭
##짪
##뒸
##죨
##샏
##뗬
##삡
##쳨
##뗑
##놩
##쎃
##믘
##텁
##찟
##훍
##껫
##쌧
##쩖
##쁄
##잍
##셬
##컾
##겂
##갃
##틑
##롣
##꾁
##붤
##햔
##븜
##궙
##츅
##혘
##뱽
##먐
##븓
##뻇
##쭁
##꼉
##혛
##눗
##늛
##텤
##맇
##왛
##깩
##셱
##닄
##씼
##빜
##훀
##벧
##읉
##뚧
##쎓
##렚
##랕
##솈
##랱
##켱
##믁
##젘
##탹
##쒯
##깣
##챤
##톽
##룜
##꿥
##꼄
##챚
##퐄
##랒
##횰
##듹
##켝
##걌
##쁌
##뜾
##뷱
##윜
##륀
##괭
##쟛
##짥
##겵
##릳
##졉
##싥
##뺩
##핛
##츸
##휸
##얙
##곜
##쫃
##꿎
##뤌
##퇀
##읜
##쎀
##늰
##냫
##똣
##긬
##멐
##헜
##멥
##젏
##쏫
##랟
##뛝
##쭭
##빩
##퀵
##끅
##짃
##돱
##맍
##뒨
##옭
##뱐
##븤
##갋
##먇
##쉪
##짂
##겍
##쯎
##굑
##땦
##샼
##짯
##잧
##햋
##잿
##묫
##놰
##돳
##췍
##푱
##쎵
##몊
##줸
##듪
##얜
##얅
##햊
##춍
##슭
##쒔
##엍
##푴
##싐
##볓
##쫖
##렂
##쎆
##닁
##휗
##떙
##둨
##봈
##릱
##젡
##맅
##젂
##땁
##읒
##됱
##멷
##쎌
##쨘
##촙
##냿
##춠
##깼
##찭
##깓
##뀝
##삮
##닰
##엀
##뗘
##뷸
##샚
##쳦
##봠
##곙
##옫
##젇
##뼘
##즜
##뚁
##옿
##댤
##뤔
##쯍
##멬
##젿
##칡
##뫽
##힄
##맢
##됚
##쎡
##왐
##짒
##쯉
##켁
##괒
##읁
##줒
##풎
##쵝
##텈
##댴
##뻒
##혴
##땢
##젰
##톼
##덲
##툿
##슁
##풇
##룷
##벟
##댸
##뒑
##긘
##윾
##좄
##볔
##퐝
##얂
##췁
##핔
##씐
##갲
##쪹
##왯
##퀜
##긧
##죻
##뱁
##웉
##홯
##껳
##웢
##켑
##켴
##벱
##엧
##쪈
##댯
##딍
##꼌
##븨
##곯
##앆
##쇗
##똗
##컫
##뼌
##윸
##롁
##뜪
##떽
##닣
##됑
##칀
##넎
##솀
##뢌
##괬
##싁
##봊
##훜
##묨
##퍈
##엋
##샇
##씃
##뚥
##볌
##읖
##삻
##픂
##듫
##샜
##캎
##뚀
##뱄
##먾
##빓
##덷
##퓌
##릘
##솊
##돡
##엲
##얺
##턩
##볒
##혂
##죌
##헵
##큔
##횬
##똷
##낐
##쥽
##벛
##샿
##촨
##줱
##떯
##쟙
##꽅
##줮
##홇
##럌
##캑
##읆
##쌥
##췈
##앋
##즛
##끆
##걘
##뢨
##뉍
##엫
##뿨
##쵤
##쿳
##뗭
##윋
##뵌
##쫍
##잂
##앲
##숰
##졎
##쪕
##뭵
##칲
##곈
##솏
##뺠
##쏚
##퇫
##섈
##빆
##웇
##씟
##쏵
##끨
##벜
##벘
##촠
##줜
##꺔
##즠
##뭨
##뉠
##쐬
##즨
##눚
##퍀
##솼
##쒼
##죧
##갉
##릏
##빸
##롷
##흓
##웋
##씪
##쎙
##괔
##윹
##덞
##슞
##굻
##쯥
##붘
##얮
##쇤
##씾
##꿏
##뢸
##둗
##콌
##휨
##쒹
##롈
##쬭
##챳
##쫀
##썁
##욻
##깢
##밫
##몼
##댇
##늫
##뒓
##쉛
##탍
##쬘
##엻
##돴
##뤸
##쥘
##숔
##둙
##픵
##픙
##닻
##퉐
##퉈
##짣
##쫏
##잟
##켘
##섫
##싮
##뱈
##췸
##긕
##휵
##쾈
##큥
##쉓
##옽
##줓
##튴
##짫
##쳗
##뛔
##쳍
##댏
##싑
##띸
##윯
##먘
##콱
##뿤
##겇
##쌱
##쇡
##읇
##먁
##얃
##쒞
##끸
##녭
##벎
##믱
##괵
##쑻
##꽐
##겯
##퓡
##럲
##읓
##줕
##꼣
##뵝
##랓
##뭡
##죾
##멏
##넊
##릃
##뭁
##퉷
##푤
##꼷
##헶
##썐
##뺜
##돟
##뜝
##뚬
##눍
##깸
##긓
##죡
##낧
##똔
##뤅
##멑
##쟉
##핲
##셒
##섂
##녠
##솅
##빘
##붖
##땩
##삠
##넄
##씍
##렢
##큿
##폠
##긑
##팘
##쇵
##씈
##뚣
##뻩
##맻
##뚼
##괼
##랋
##늩
##궝
##쾰
##굲
##럵
##죜
##묹
##웧
##텽
##썎
##럇
##귬
##뉔
##뺃
##륹
##똫
##릌
##뗫
##곹
##헗
##뫀
##랇
##왝
##뤕
##멨
##햡
##븽
##쁀
##롶
##햘
##폯
##릫
##녱
##뇜
##듇
##뵨
##밹
##됧
##멵
##눳
##썠
##놑
##떘
##뀠
##쏨
##꿴
##늼
##뙨
##돎
##놤
##늖
##탖
##찠
##찓
##쯈
##좂
##갷
##숧
##뺅
##붂
##쓥
##쪾
##샂
##뿝
##퇏
##찷
##겢
##왴
##욛
##쒴
##슦
##걶
##춯
##귱
##섳
##끯
##흪
##줐
##읙
##뭩
##욷
##칮
##엷
##흏
##롘
##릂
##뱟
##넽
##믖
##뵹
##잒
##쟣
##슠
##킌
##뤗
##앂
##댖
##뻡
##찎
##벹
##텃
##궇
##훋
##넏
##퇑
##잛
##횻
##숌
##쬐
##햛
##뭏
##삳
##띃
##듲
##샡
##횔
##돖
##뮥
##꽹
##놖
##쒁
##턀
##폥
##줠
##홐
##엳
##끾
##홱
##쉡
##팆
##횸
##꿱
##꽙
##돐
##혝
##돚
##녤
##쑹
##챁
##빭
##넺
##흼
##덝
##뵐
##쉄
##쳧
##굡
##칱
##힊
##풕
##꽦
##뻭
##밲
##텋
##뺘
##욝
##듕
##궸
##꿑
##흦
##섷
##뢴
##쿗
##싨
##쁭
##띻
##흌
##껠
##퇄
##맖
##륽
##큳
##녛
##숖
##뱩
##솄
##튁
##괗
##뉭
##룤
##촵
##숵
##뗐
##럗
##뢩
##녿
##푄
##쩼
##슄
##캨
##쒠
##펻
##똠
##쑬
##똻
##쀳
##쎜
##좭
##읋
##푿
##뿕
##컅
##룱
##탇
##걖
##햙
##벖
##딖
##뷩
##흿
##굤
##섟
##핗
##앧
##펃
##밙
##뫙
##뚞
##뛱
##꼳
##뜀
##즣
##왂
##귻
##렧
##엩
##낗
##툐
##텄
##랆
##덍
##썍
##봍
##꼥
##힁
##뺙
##뺕
##즬
##긿
##쐨
##닲
##넾
##됙
##홎
##쫴
##숄
##컿
##읩
##섻
##쌬
##팃
##퓬
##읯
##펵
##뚸
##줆
##뿠
##쫛
##쎕
##낲
##찯
##졈
##팉
##콮
##촥
##됸
##쥡
##쳈
##냏
##뵴
##쒑
##쯜
##졲
##킫
##뷘
##갶
##뙸
##듰
##깧
##놕
##쯘
##앏
##귴
##촣
##뎇
##벫
##쐤
##긲
##맊
##랅
##룁
##얰
##궉
##몪
##뜁
##톸
##늧
##롳
##첢
##왱
##슀
##쀄
##힟
##넒
##횢
##뎬
##샑
##췐
##휀
##삸
##깖
##됼
##큩
##몷
##혾
##몋
##짅
##헡
##됔
##닶
##렭
##껒
##귓
##츗
##꺵
##탼
##궃
##딈
##웘
##싲
##젌
##홣
##쩻
##킝
##끜
##깹
##쁑
##씥
##곌
##궅
##줝
##춉
##걺
##뚵
##벰
##늽
##흇
##큪
##퇜
##쫐
##얳
##몱
##녅
##뺵
##홁
##튐
##븹
##꼨
##쑼
##좐
##럶
##켙
##쎁
##챨
##넚
##핻
##잩
##헳
##쵼
##뷉
##줃
##몟
##뜮
##뼁
##뚭
##괁
##궨
##좼
##뮛
##츧
##슏
##쓕
##햫
##즹
##뗔
##닸
##뇹
##롹
##휭
##됝
##갊
##낝
##춋
##뀬
##컁
##쭙
##웞
##쯰
##툻
##쩦
##췽
##욫
##캊
##몁
##귾
##뀸
##훸
##턔
##쎾
##툉
##휫
##쾃
##뀩
##긇
##햝
##갆
##쏀
##줵
##썾
##턐
##뢈
##엢
##룠
##둼
##밠
##쏼
##쀨
##쁼
##앇
##묙
##앩
##큌
##꾐
##켷
##줁
##릔
##띔
##쳘
##옝
##츳
##뭅
##럣
##볋
##큇
##켼
##굘
##둭
##귭
##뛟
##뷃
##뮹
##횅
##춴
##쳫
##떫
##븛
##륩
##앁
##솉
##끟
##릠
##뗠
##먈
##볗
##긒
##듧
##뱰
##뎂
##죺
##굯
##댭
##첰
##겞
##잙
##쮠
##썃
##윂
##훻
##뫘
##펟
##뼤
##핶
##얨
##꿬
##둴
##둩
##럻
##듡
##붼
##씋
##렊
##붋
##믇
##첤
##룈
##됤
##릋
##륶
##젗
##븰
##곪
##랯
##땰
##긛
##좝
##랮
##쑝
##픗
##껕
##쟨
##랁
##뱆
##칔
##쨧
##빝
##띙
##덣
##쎘
##엃
##눤
##븡
##믾
##읳
##햰
##턘
##씺
##쀅
##꿜
##퍌
##뷜
##뻈
##놁
##댼
##곢
##쇙
##붔
##쉌
##컯
##깛
##뚢
##꿿
##봏
##쒱
##뺸
##슮
##븬
##궹
##딯
##챝
##쾀
##긂
##캆
##쭛
##뀽
##잢
##퓔
##욹
##컭
##씉
##볜
##칑
##빹
##곆
##뀄
##됟
##팊
##쪔
##덀
##쬼
##똒
##꺘
##놎
##핣
##릥
##쟴
##좓
##맋
##뎝
##둛
##셇
##햟
##쥦
##튓
##졿
##럷
##웻
##쯀
##퓅
##껙
##긹
##웥
##큉
##줚
##엵
##웦
##갏
##옾
##뉑
##킽
##늿
##턑
##곟
##퉜
##씮
##홑
##혿
##깒
##톻
##쩕
##웸
##쓲
##샟
##츱
##횤
##귖
##럮
##뫗
##푶
##쭸
##찦
##릡
##췕
##쵀
##좢
##숝
##틳
##렫
##쳊
##팣
##슶
##쩟
##녆
##듢
##퇼
##훱
##즂
##뇄
##룪
##혱
##훛
##짋
##읬
##퐜
##캏
##붅
##뫔
##줨
##읈
##볽
##쏩
##핤
##뻫
##껗
##켵
##꺈
##뤽
##쥨
##웊
##칻
##솸
##뻴
##늟
##렏
##뒵
##쥄
##뭑
##덹
##랚
##훝
##뻼
##뮷
##쬠
##쥿
##뢥
##좸
##냩
##츔
##셑
##핢
##떅
##퀠
##뱓
##쪵
##띾
##횄
##캙
##띌
##덖
##햩
##햎
##눽
##췩
##젺
##삵
##깦
##웗
##큡
##믝
##뉌
##넞
##뻿
##꽌
##쁙
##눨
##췹
##뎧
##욺
##앢
##옦
##쳠
##뇔
##풂
##궍
##걉
##킸
##곴
##쏌
##셃
##춫
##렡
##윀
##퉄
##칬
##냤
##돓
##찲
##얬
##뭊
##곅
##퍁
##읰
##걲
##팦
##죰
##렆
##켇
##좜
##틊
##쏐
##좊
##옻
##릹
##럅
##쪌
##팕
##솁
##싟
##낛
##윻
##뇝
##혖
##톃
##쳒
##덙
##혠
##졵
##맒
##혒
##볭
##렅
##눹
##뺭
##샃
##밚
##뽓
##봃
##푀
##숐
##퉛
##쬽
##쐥
##붗
##첧
##끉
##꼲
##똴
##풩
##냊
##짉
##챼
##괏
##챽
##밊
##뵏
##꾤
##듞
##썄
##앻
##얭
##꼏
##낕
##쪠
##꿹
##쯨
##퐆
##싓
##칳
##됳
##꾿
##뽭
##룍
##찅
##츶
##흒
##꺏
##빯
##벩
##턕
##묀
##왲
##빬
##뤤
##찳
##쟏
##솬
##퍅
##캭
##굌
##줂
##혇
##빺
##왹
##솩
##밦
##낎
##뢋
##뷕
##솻
##젞
##챜
##뱜
##궮
##뚦
##셂
##둞
##톶
##휐
##뜄
##젉
##뫁
##쿻
##픟
##봋
##맚
##봰
##뒠
##쵁
##뇠
##엱
##낻
##꼊
##믑
##혷
##퉸
##칟
##늭
##밒
##뭋
##몡
##딞
##쒘
##냗
##힡
##횹
##뀻
##꺜
##쎂
##먖
##푕
##젚
##졘
##뭦
##됡
##쁫
##겦
##떗
##꿤
##븁
##뷮
##횝
##앹
##춱
##좽
##툇
##빧
##픜
##욐
##븩
##줉
##틜
##힇
##틁
##냰
##쉙
##솦
##뚕
##텢
##칝
##쎟
##렦
##뒝
##딉
##벏
##헱
##띿
##쫗
##픀
##퉂
##첟
##쟸
##콫
##튱
##풜
##폮
##싈
##뻉
##윟
##땎
##잕
##왖
##퉌
##맗
##쥇
##껩
##쒓
##쏱
##갅
##뼠
##븧
##옟
##쮼
##찣
##욿
##뒇
##먽
##뽛
##픋
##쨐
##랈
##녖
##륌
##퀡
##뗵
##폘
##앺
##첑
##쨟
##뱕
##젷
##눃
##겱
##넻
##꿸
##뫠
##욉
##듨
##쐌
##탚
##녚
##콯
##쓐
##룧
##볹
##떮
##틧
##쎤
##뗳
##쁴
##섉
##묾
##꼅
##흟
##틩
##뒜
##핯
##쎰
##댚
##놏
##햍
##탛
##솕
##깱
##뺡
##뀱
##꽑
##쨤
##챺
##봗
##짳
##옉
##싦
##뷥
##첱
##닧
##훞
##걵
##읂
##뭬
##튘
##캈
##뇅
##쩤
##딭
##쏳
##홨
##뼬
##웱
##뱋
##셎
##웖
##봭
##귯
##슫
##뉫
##귔
##촀
##쓈
##튝
##뎍
##엗
##웆
##퉹
##탶
##릊
##쀍
##셆
##끐
##렓
##뢕
##벺
##퉽
##웎
##샔
##킺
##텥
##휰
##킾
##겣
##뗼
##퓽
##꺀
##휄
##쪜
##봙
##욵
##뎦
##넗
##꾱
##챶
##벍
##큑
##됥
##쐅
##텂
##펕
##돻
##꿄
##눝
##얆
##얎
##숤
##멁
##쒕
##꼶
##뇐
##쩅
##붱
##픎
##풘
##젙
##뭀
##쯫
##훰
##묏
##띅
##맪
##쒄
##짷
##턺
##뇟
##굩
##쥈
##슆
##샢
##쮓
##뒛
##힢
##쑷
##섿
##퀔
##럔
##펖
##쵹
##홒
##궯
##쉞
##붚
##춮
##읷
##힗
##뉅
##퇍
##뿰
##틓
##됵
##꿻
##뤫
##뭃
##뵥
##혅
##퓩
##켛
##둧
##곂
##뎻
##뷐
##쟅
##싵
##펰
##얿
##볫
##뮫
##뤩
##쿈
##폽
##뻨
##찫
##냋
##뻕
##뤙
##윧
##샗
##낂
##됻
##쬔
##젃
##퐅
##먻
##뚹
##뚨
##훓
##붊
##샒
##잚
##톔
##밡
##넭
##긏
##틏
##쨎
##쟆
##풸
##뼊
##씡
##뭰
##캴
##똵
##쫜
##믬
##룯
##팏
##갍
##웛
##봒
##퉨
##굱
##떦
##텇
##쳴
##뢁
##꽊
##붰
##륑
##힞
##뻰
##죹
##붝
##뷀
##돸
##싺
##쭊
##멶
##욈
##븉
##뜡
##쭬
##뿥
##쿽
##흜
##똟
##뻦
##솢
##탆
##늌
##갵
##쇌
##죣
##즎
##얠
##뀍
##녬
##쑌
##뒄
##뵁
##엯
##줅
##쉟
##늇
##뭽
##혤
##뢐
##딋
##낓
##낞
##춪
##슅
##뽇
##숮
##핕
##빖
##곲
##륏
##럤
##웑
##훏
##뢉
##쫭
##픝
##봽
##솃
##끰
##춬
##혃
##벊
##꼤
##왙
##켉
##돇
##삾
##뮙
##줋
##랎
##냼
##푬
##븈
##풑
##땓
##옰
##웓
##빾
##딷
##픅
##믤
##쨴
##뙹
##쮀
##쉩
##탂
##놂
##킠
##뛕
##첯
##삷
##셛
##틘
##벭
##섨
##떩
##둌
##팖
##꿲
##앾
##졑
##밁
##퀭
##맓
##폑
##홮
##헓
##툅
##볖
##굫
##틷
##헾
##펲
##쉲
##젶
##겕
##좠
##쀠
##붏
##뎓
##봎
##펅
##굷
##읱
##쨖
##랂
##췤
##쭥
##죅
##첝
##춟
##푝
##륲
##괙
##봀
##넁
##꺆
##톧
##옯
##푭
##쨚
##뿩
##쵯
##캰
##긵
##젳
##톩
##꾾
##끛
##솑
##쭅
##븕
##멭
##츀
##쐭
##챸
##녇
##콪
##뾸
##렽
##틂
##즏
##슰
##딺
##쭹
##궏
##뎤
##싩
##뜍
##륫
##왉
##됮
##롞
##숡
##뾀
##뮻
##뉄
##웯
##빶
##턍
##괕
##첞
##쌸
##씆
##왢
##냧
##닩
##럊
##롑
##뒫
##쎳
##꺗
##븦
##춸
##횜
##떧
##뫅
##쐴
##읾
##꾕
##뗸
##킦
##뀪
##쉤
##쌯
##킆
##룾
##늤
##텸
##쫠
##꿓
##맫
##굗
##녂
##튵
##뉙
##뢘
##힑
##늚
##붥
##쩎
##큄
##옢
##겥
##괅
##곚
##풓
##꾈
##넧
##촡
##슳
##핞
##늴
##퇵
##릻
##똮
##냪
##꼍
##뤵
##콭
##탗
##믠
##툲
##왗
##쩹
##곖
##쵮
##뀷
##껶
##쮹
##쒥
##쌐
##츜
##뀹
##띳
##쾐
##섓
##뗙
##잮
##귽
##첪
##벯
##뷋
##퍾
##쭄
##퀻
##믰
##몴
##겷
##풬
##숳
##졏
##넀
##홭
##샞
##탏
##샎
##탟
##푈
##맿
##톺
##쓩
##쉳
##굠
##퇸
##핷
##옃
##쪟
##벶
##믙
##먑
##샮
##쓍
##눉
##뎜
##톌
##쌴
##뭭
##콛
##뭙
##뺍
##휟
##촷
##뱊
##즴
##롫
##릷
##쮤
##댣
##즞
##턉
##섄
##튽
##첲
##릁
##삉
##쩣
##푷
##쐄
##훉
##앦
##긶
##뮜
##똡
##갟
##윢
##쵠
##퉼
##붬
##롡
##끀
##셮
##뙌
##캿
##럏
##웼
##쉜
##퉉
##썖
##쩀
##냴
##쭕
##쬴
##싆
##핽
##퉆
##밗
##쀡
##딻
##놇
##쩗
##젣
##짶
##솹
##냎
##씜
##쫰
##쉠
##뒘
##칢
##끚
##곫
##쀽
##쇀
##풴
##똈
##춚
##뿛
##릾
##좒
##혯
##헚
##놴
##슢
##윁
##웳
##긊
##붴
##핦
##륔
##윺
##뤃
##욎
##뽬
##묷
##뻖
##럎
##댥
##짍
##맽
##븏
##뭤
##킀
##쏸
##괓
##뽥
##톷
##꺟
##쭠
##춣
##칄
##홅
##꽠
##웒
##쇸
##큣
##젅
##쟇
##퀌
##촪
##뽞
##놥
##걻
##긯
##옞
##겒
##놸
##쒭
##쉚
##꺊
##촴
##녙
##훽
##륐
##잓
##굾
##섔
##쾍
##씔
##쨬
##롵
##뼀
##첳
##흛
##뉰
##셏
##볎
##쥫
##밇
##핐
##췟
##췼
##헧
##꿐
##옧
##쐉
##슯
##쨱
##얾
##샕
##싧
##죚
##눰
##텦
##큮
##롓
##볅
##썳
##쒰
##뺒
##뮼
##섧
##벁
##썋
##흤
##얫
##혚
##슲
##럯
##뗜
##땆
##낣
##쌂
##삺
##눋
##훡
##맕
##헕
##탷
##앿
##몣
##볈
##갺
##졽
##렾
##낅
##빍
##낋
##둚
##걿
##춎
##샦
##릸
##멒
##텣
##낤
##쵿
##걁
##윚
##볂
##깪
##퇶
##쾽
##냍
##녗
##쑐
##싇
##헏
##흽
##쟼
##쓋
##붆
##욳
##츛
##헊
##츷
##첻
##롰
##둫
##쬎
##떪
##꼮
##킘
##뇀
##릑
##펒
##폨
##뤨
##붹
##팑
##덻
##꺨
##앃
##뿹
##듟
##룅
##뱇
##섐
##괂
##줼
##뫚
##밳
##멛
##굅
##뮝
##걭
##묺
##썟
##륟
##꺕
##쿅
##둽
##풹
##궆
##궵
##곩
##팄
##쉧
##롥
##꺤
##빟
##굮
##쯋
##쒵
##뜜
##옪
##녺
##팙
##쳰
##됢
##툱
##덪
##턷
##쌇
##챊
##섪
##벓
##롔
##틕
##븎
##뉀
##뷹
##퉬
##쎽
##잝
##굦
##떺
##썔
##낪
##텊
##섡
##갿
##괃
##뙜
##펹
##탵
##혭
##뷤
##걕
##볙
##빞
##쌑
##봦
##츽
##뾔
##줟
##샓
##딮
##껃
##욓
##녯
##쐒
##볾
##헔
##홙
##빂
##삤
##좯
##룄
##껚
##턹
##즇
##퉅
##킉
##즑
##퇭
##볆
##잁
##쭀
##핖
##겳
##홖
##벑
##뜿
##뽘
##뗗
##썱
##톪
##놪
##펺
##쐣
##솛
##댷
##읲
##촜
##쌛
##쉗
##빏
##윶
##믻
##꼻
##쇈
##쁏
##툳
##눸
##짮
##긼
##럘
##갮
##솣
##넢
##팚
##렻
##굪
##쿯
##딝
##툄
##겚
##틒
##뛋
##퉵
##떶
##뭷
##칧
##캮
##뾴
##쓷
##즼
##밿
##걽
##뱛
##볃
##랡
##퐛
##섽
##뭫
##쟡
##땉
##묯
##띶
##챷
##텧
##쳏
##걨
##떣
##뙴
##곔
##훚
##쵕
##벲
##횠
##쒐
##뒐
##봵
##칶
##쁮
##툠
##죘
##벻
##봴
##뱎
##뛧
##얊
##렪
##헫
##늎
##춐
##흎
##뇍
##쇨
##킐
##웙
##쿙
##짎
##롮
##틅
##풱
##뒺
##꽨
##싾
##쓒
##씄
##먤
##샫
##욾
##뿓
##쿧
##멂
##캋
##캩
##뺗
##꼵
##뷇
##텓
##픃
##폡
##얓
##졩
##찱
##닑
##쌒
##컺
##쓘
##뙿
##씊
##갎
##엶
##녽
##읟
##빣
##켲
##랻
##쟥
##썫
##쳋
##둋
##뫂
##옣
##뺫
##뤁
##퉝
##꽆
##괠
##셁
##퍵
##헍
##윿
##쥳
##챰
##륳
##떌
##띴
##덌
##븋
##췡
##첡
##뽚
##멪
##숚
##먆
##핃
##렗
##퐤
##퓹
##듘
##셲
##쌟
##뭈
##쥉
##곮
##졶
##쑉
##켞
##쀵
##옩
##뵉
##렩
##쏏
##줎
##깵
##혰
##왆
##돆
##퀏
##봟
##돒
##짿
##홟
##캵
##셭
##룃
##쑛
##쇱
##폅
##뜃
##쬡
##뜳
##쌎
##웕
##뫤
##늒
##뭕
##갥
##쫕
##큲
##핓
##뺶
##횧
##쩘
##흵
##얋
##퓐
##얩
##쓀
##녰
##뀳
##깯
##꾭
##퐥
##쿌
##쩩
##꽜
##뿽
##뷧
##훳
##퓻
##흅
##봩
##쎝
##쓹
##뒼
##뒌
##뙬
##팢
##쭷
##왷
##돉
##뫕
##띕
##쬑
##뽯
##굎
##씱
##앑
##둄
##푲
##짵
##턋
##벐
##넑
##죢
##툩
##덭
##퍔
##긪
##킿
##캪
##렞
##쟞
##겫
##붍
##몔
##긻
##깑
##잳
##뀅
##꺴
##씶
##쫔
##묑
##쟬
##냙
##댂
##싙
##뵷
##꿌
##궥
##쓺
##쇟
##슸
##춀
##뵠
##륮
##꿯
##궠
##웪
##꽘
##쌗
##뺼
##쭟
##괨
##쵭
##뙛
##죥
##뺔
##뤜
##덋
##햭
##깗
##걥
##걧
##즺
##뫜
##췝
##퇌
##혲
##븻
##씞
##퍞
##츹
##퇔
##헞
##늜
##쉾
##걼
##떥
##뤟
##뽴
##둊
##쒧
##뢓
##늏
##볁
##놝
##줖
##컇
##픤
##솖
##졳
##댗
##줊
##똰
##쾤
##쿹
##볷
##깾
##졒
##쁝
##쨨
##쏰
##윖
##쵱
##눂
##즟
##걎
##믆
##괺
##틎
##욣
##뛍
##귛
##긄
##뽰
##쉮
##붌
##혙
##몢
##첦
##퀫
##꽼
##캽
##셫
##튔
##눓
##덗
##짌
##쪚
##쭞
##뺚
##쏔
##쁍
##쩓
##끞
##앣
##갳
##넶
##둒
##휲
##헯
##캼
##긆
##돽
##틤
##끘
##쨲
##쒂
##숪
##둪
##횓
##슩
##쫂
##씷
##궳
##엕
##즡
##퇬
##덢
##럸
##싘
##왬
##귇
##뗍
##쾬
##먗
##벾
##봁
##봿
##혬
##쀏
##큻
##좎
##릲
##렋
##슻
##줯
##뻪
##휳
##쫚
##퐑
##뮉
##엸
##졻
##졜
##홫
##짺
##겲
##챫
##쿔
##붯
##붎
##폌
##덦
##쑀
##썯
##쏖
##엂
##쿩
##뛣
##뿁
##뭗
##뚈
##쇣
##똽
##핒
##숢
##돩
##댰
##챋
##릶
##낶
##뉬
##긃
##삗
##쒫
##튑
##뽹
##삒
##닍
##긥
##헋
##닒
##쯴
##좱
##푁
##삨
##펗
##콋
##뀈
##뇁
##쁰
##쬰
##걤
##뿱
##쫟
##뿑
##믛
##읪
##닗
##띧
##쩢
##쵴
##믯
##쉻
##묿
##옲
##끏
##힕
##랺
##흳
##뒥
##둇
##힂
##쀓
##덈
##쏄
##춏
##윝
##팛
##얪
##븸
##뙄
##갌
##씧
##싖
##괫
##궭
##툨
##쮭
##웚
##홗
##밂
##휅
##곭
##졹
##톀
##핆
##헟
##쑙
##랊
##웺
##찗
##뜛
##퍤
##퀰
##쀌
##됃
##놃
##셪
##귷
##걊
##먛
##쿫
##뛌
##컦
##꾬
##괝
##퍝
##좰
##뜱
##앒
##탅
##쫨
##럠
##쿢
##훊
##뵑
##뿧
##슟
##좬
##쀈
##멮
##쒈
##혽
##곝
##찴
##쭏
##쯛
##췆
##혻
##홡
##죶
##궑
##몲
##삦
##옱
##댲
##풁
##퓟
##믉
##꾝
##뮁
##쑫
##뮦
##겏
##핺
##뵞
##엁
##뿎
##윩
##좥
##씇
##윣
##햚
##뚴
##깺
##얉
##춞
##쁟
##퇙
##쌻
##쮕
##룢
##늓
##싅
##뤰
##댉
##풏
##퐨
##빷
##촼
##턈
##꺢
##텹
##틇
##궬
##럥
##뼡
##겙
##헢
##뼙
##똧
##뗨
##좤
##릣
##봆
##탲
##쎇
##돾
##숶
##츞
##쀀
##욼
##쑦
##몮
##죿
##챻
##멿
##꾳
##띟
##뭟
##쏬
##녝
##슧
##뷷
##쓌
##닱
##즷
##퀐
##땣
##븞
##톅
##칤
##쏮
##씦
##싚
##쫅
##툑
##퍡
##왅
##퐇
##끎
##힒
##뻙
##퐠
##쐿
##뵺
##뢜
##낥
##궓
##긺
##젾
##툈
##섩
##놛
##뮏
##쀒
##쏃
##욽
##쓿
##겿
##뜔
##겗
##엜
##쮉
##뽫
##퐂
##볇
##멯
##즋
##튶
##킂
##휇
##뙷
##쎨
##헰
##묄
##픚
##돏
##믣
##굺
##붭
##쬈
##똩
##숗
##찁
##궀
##꽳
##꺳
##뛀
##둏
##믂
##췔
##떹
##랉
##톢
##굧
##겺
##욗
##혉
##휔
##큷
##엞
##씳
##귥
##쩽
##퓍
##혆
##섢
##뵵
##꺰
##첣
##쩸
##닋
##꾄
##몺
##껇
##뙓
##꺓
##뺓
##섑
##놊
##찏
##쓊
##뙝
##눛
##씿
##꽀
##맩
##댦
##곥
##갧
##삹
##쮱
##쓑
##캢
##뽸
##똦
##뚄
##쟃
##헒
##곋
##튻
##쐽
##삫
##갫
##픍
##뱗
##쪿
##겮
##퐘
##뙀
##뾥
##뛥
##젎
##켚
##춡
##앷
##잞
##쬥
##쎍
##떷
##왥
##곣
##텠
##씢
##쭨
##흊
##걬
##뮘
##뚊
##뽖
##쮁
##쥅
##찪
##쭃
##떃
##곛
##슇
##핋
##쬮
##뱬
##콲
##뀃
##넔
##쵲
##뛨
##쟟
##뱸
##엹
##폣
##탊
##똼
##녻
##뙥
##좧
##쩁
##걓
##뒞
##픓
##왶
##긞
##뀀
##쬲
##귦
##싻
##쬿
##꺚
##겭
##킶
##젍
##훯
##멫
##샽
##쮑
##뻁
##궲
##쭂
##뛓
##헦
##썝
##뛃
##걒
##풃
##뀤
##쓜
##꽴
##뿳
##뿃
##혺
##쪻
##촺
##똚
##헲
##씂
##얁
##뭧
##쫵
##졺
##왳
##퐣
##쒤
##씗
##픹
##팗
##솒
##찥
##겛
##쐼
##쁐
##빎
##뾲
##똇
##쫫
##뭿
##셟
##좣
##떾
##똝
##졂
##걆
##탞
##툊
##쩑
##쀾
##뼑
##걇
##췜
##믌
##죝
##흚
##쮔
##쳭
##퇧
##븂
##윥
##걃
##꾠
##쳢
##쓃
##갩
##빇
##쾩
##뾃
##멲
##쇔
##왡
##뭚
##으로
##에서
##하는
##니다
##하고
##이다
##들이
##는데
##다고
##지만
##다는
사람
아니
으로
##00
있다
##했다
에서
##이라
있는
##면서
##었다
##에게
생각
우리
##들은
##하게
##까지
##해서
대한
##리고
##한다
##라고
20
하는
한다
한국
국민
##습니다
##적인
##부터
때문
##렇게
##으면
##적으로
그러
영화
이런
진짜
##니까
지금
##하지
##에는
##대로
##이나
일본
지난
##하면
그런
문제
##들의
##라는
##하다
같은
너무
10
자신
다른
중국
하나
들어
##리는
위해
##보다
##통령
나라
그리고
만들
미국
그래
경우
##하기
정부
##들을
하고
##네요
##는거
아이
201
##인데
것이
이상
대통령
이제
##어서
##지는
19
이번
그냥
##세요
문재
작가
사실
##이고
##처럼
##기를
다고
된다
##어요
라고
아닌
##해야
##지고
다시
보고
것이다
##았다
##입니다
시작
함께
사회
따라
##한테
없는
정도
정치
경제
서울
##에도
때문에
통해
많이
##이라고
##라도
가능
하지만
모르
인간
가장
시간
아무
나오
필요
기업
##자가
##나라
##하여
##되는
##에서는
아니라
정말
##리를
##다가
자기
북한
모두
##주의
상황
세계
##였다
##으며
지역
민주
##리가
##이는
##이지
200
이후
##이가
##기에
어떻
##같은
모든
대표
##려고
##기도
모습
좋아
시장
사업
관계
국가
이렇게
것은
까지
어떻게
문재인
내가
사용
여자
관련
없다
마음
다음
있었
##스트
대해
##가는
##된다
이유
해야
##합니다
이미
##기가
##기는
많은
이야
위한
##겠다
##구나
댓글
##이라는
##사람
##자는
정신
지원
##는다
##거나
아직
현재
돌아
그렇게
처음
했다
계속
사랑
그러나
##하며
어떤
##지도
것으로
작가님
##어야
것을
얼마
##사를
사이
라는
##인이
무슨
프로
12
투자
내용
역시
##민국
보여
이해
##어나
##으니
30
근데
있을
##아서
특히
좋은
##하면서
##들에게
##인가
##보고
여성
11
밝혔
다는
보면
##지를
이어
조국
바로
진행
##있는
하지
여러
##레이
국내
100
대한민국
이용
교육
##들도
여기
그래서
##성이
사람이
오늘
기대
남자
결과
수준
결국
보다
##주는
##것도
검찰
##로운
방송
##력을
에게
중요
##도록
##인지
##잖아
피해
지만
기사
기술
어디
면서
이름
그렇
##지막
최고
부터
최근
연구
조사
15
##시키
자유
같이
국회
##없이
있었다
또한
이러
##지가
잘못
마지막
설명
나는
살아
되는
계획
떨어
민주당
저런
경찰
##장이
의원
대학
이거
##성을
##되고
개발
웹툰
##장을
어느
사건
##사가
당시
지난해
베댓
친구
##어도
##소리
없이
가족
학교
경기
##이었
물론
나타
지지
세상
당신
##이랑
##는지
작품
정권
##해라
기록
감독
이날
##머니
전문
올해
삼성
##이야
##레기
자신의
대상
이게
##비스
##으나
현실
##정을
알고
그럼
받아
관심
##에서도
정책
##가지
얼굴
##들과
만들어
##력이
후보
제대로
##시아
얼마나
##로나
##동안
##들아
개인
사진
주인
학생
의미
##졌다
정보
##시간
##했던
18
그는
회사
나온
##화를
않고
##부분
##장은
##하는데
조선
##인다
배우
하면
##수가
그것
##되어
다양
##거리
한번
않는
##겠지
자체
##기업
찾아
##더니
말했다
따르
평가
있는데
수도
우리나라
부분
실제
일반
상대
##중에
그만
##해도
어려
직접
활동
알려
동안
예정
##없는
운영
##이트
공개
##이었다
금융
해서
그리
완전
그림
선거
언제
##운데
가지
위원
##는게
##0년
문화
새로운
상태
언론
##놓고
일부
올라
이야기
존재
##주고
그런데
코로나
##정도
조금
대구
##원이
결정
누가
##진다
##하나
있고
##스크
게임
않은
제발
스토
##전에
있다는
##스로
책임
세금
##치는
공격
않았
발생
한다고
말이
재미
먼저
현대
##드는
아주
미래
##시는
제공
기준
##정부
##보면
인터
방법
소리
확인
누구
부모
기자
가지고
##사는
##하네
보이
합니다
전체
하루
것도
인정
##마다
##다면
지나
서비스
그녀
참여
성공
한편
준비
발표
50
##을까
관리
아니고
있어
##들어
해도
엄마
##상을
사고
##하는거
##한거
사람들이
만나
##학교
등장
##리에
주장
##리아
##말고
외국
##렸다
##라이
##자를
13
##밖에
과정
주인공
선수
수사
가격
서로
국제
산업
가운데
##기로
##대가
##하자
##자의
생활
대부분
25
보는
성장
##러운
무엇
과거
이건
16
##000
위해서
제품
만화
행동
거의
전국
정상
경쟁
더욱
기억
최대
시민
있습니다
##이면
판매
증가
생산
재밌
해외
노동
기다
역사
요즘
##다니
효과
어린
##려는
만든
보내
##가서
이것
내려
##문에
그래도
말을
만큼
##OO
##리지
해결
##이네
당연
##랜드
얘기
못한
14
선택
아닌가
엄청
표현
나왔
##근혜
추가
예상
규모
스타
##의원
운동
##시고
그의
있다고
##치고
장관
영향
##린다
환경
없어
##그램
아니다
추진
##식을
교수
##시다
느낌
##정은
##정이
##이라도
아버
대해서
요구
빨리
앞으로
##나요
##같이
쓰레기
드러
한다는
##만원
포함
반대
힘들
머리
##아요
같다
##이스
##이냐
다며
##었는데
나와
중심
기본
17
결혼
##아야
청와
문재앙
사람들
##주세요
등을
노력
##됐다
역할
##릭터
##한다고
감사
##했는데
자리
때문이다
나도
유지
마련
도시
전쟁
좌파
##시켜
장면
지방
입장
발전
##하던
말고
##한당
되어
##스럽
##하겠
##스터
##인의
부산
건강
정의
박근혜
##이란
소비
##라마
##아니
보인다
지적
분석
##히려
시대
자동
##위원
판단
##명이
우리가
넘어
##르는
상당
구성
해당
##하지만
절대
##었던
##이를
고객
오히려
업체
##리스
자연
그게
##음을
공부
40
오후
경험
##수를
##도가
안전
매우
##하냐
확대
경영
캐릭터
##도를
범죄
나가
##서는
이를
기존
##나는
##이며
##했고
비교
청와대
자한당
사라
##더라
도움
비판
강화
전망
솔직
비슷
없고
스스로
##이버
거짓
시즌
##스를
기회
다르
일이
강조
보수
바이
사람은
##건가
##스템
##치를
그대로
기관
##파트
##어난
상승
##인은
제작
##보는
인물
##원을
##지않
안되
이루
아직도
특별
주변
##디어
밝혔다
하는데
거래
원래
공동
대비
##한다는
##영화
이나
##자들
활용
미친
구조
대신
연기
##야지
##거지
##므로
##스가
##식이
빨갱
다만
##시에
프로그램
은행
되고
행복
위험
분명
능력
순간
제일
##인을
시키
##자기
OOO
그때
치료
##점을
라며
##위를
인생
21
조직
기간
이에
지속
##텐데
제가
부족
아무리
##가고
알아
24
##으면서
##에요
##정권
##보니
변화
바람
##자로
전혀
전부
##했다고
다니
##적이
모습을
상품
적용
병원
##었고
저렇게
도록
항상
##건데
##에선
인사
가진
집중
##오는
비롯
##하니
##번째
의견
혼자
밖에
##라인
않는다
##되었다
마스크
##마트
나서
##명을
##일이
##정한
##르고
주민
##있다
##무원
일단
출연
##자리
분야
전략
내년
아니면
네이버
충분
않았다
지켜
회장
확실
##은행
##겠지만
개선
는데
##동산
나오는
##로는
##한데
##스타
뭔가
같은데
처럼
##수록
대체
공산
또는
높은
중앙
분위
##BS
스토리
##기고
더불
건설
##되면
적극
##을때
##자들이
##스는
보호
솔직히
아마
##상이
199
받고
문제가
##님이
이러한
##라면
주요
되었다
있지만
목표
달러
크게
검사
고려
열린
##만큼
우선
아님
어렵
그걸
##려면
##제를
방식
생각이
직원
##겠네
노래
니가
달리
##때문에
행사
##우는
신천
있던
궁금
22
일을
느끼
가져
23
시스템
##감을
##이터
걱정
##더라도
그동안
인해
있어서
수출
##되지
가까
여행
다가
중요한
의료
아파트
매출
부동산
드라마
계약
##심히
음악
자신이
##수도
다양한
##려서
신경
수익
##먹고
##도로
보니
인터넷
##지지
##하다고
단체
##시장
기분
출신
등의
못하고
대회
##사의
정도로
##이니
현장
업무
##하시
그룹
갑자기
##하는게
조작
사과
##지로
친일
##구만
##운동
각각
여론
이전
움직
전에
##학생
##해주
가치
##지마
바라
##자인
오래
유럽
관계자
선동
##내는
##스의
하면서
영업
차지
##리면
우리는
세월
방문
나라가
이라고
부담
기능
앞서
##해요
모르는
##이지만
여기서
##대를
어쩌
##사업
습니다
가슴
저는
글로
발견
설치
##대한
##조건
##사회
##났다
##물을
나이
사망
대단
##간다
##와서
##아가
아닐
부정
안보
##드시
##으니까
##거다
자동차
들어가
##새끼
지도
##교육
가는
시절
##요일
회의
확보
어머니
##내고
외교
총선
주택
##만에
빨갱이
언급
##봐라
열심히
먹고
최소
광고
##구요
사람들은
새끼
주식
공감
없었다
##대는
통합
공급
않을
##하였다
##까요
##른다
불법
대응
보험
정확
사는
LG
##군요
##던데
못하는
따라서
집단
선생
##냐고
비해
인천
우려
실제로
##화가
되었
남편
##거야
이동
##거든
##체가
##대표
영국
하다
##억원
지구
있지
전문가
##8년
싶은
시험
안정
유명
##하라
국민들
밝혀
아버지
알았
자식
구속
처리
작업
##보다는
가서
##명의
입니다
##전자
여러분
공무원
거기
자금
나올
바뀌
오전
보도
##이션
##리즈
##수는
의사
국회의원
뭐가
단순
##당이
##러스
무시
니들
안타
반응
영화를
대책
갖고
26
참석
이익
개혁
과학
27
탄핵
주는
여전
본인
##간에
글로벌
##국민
아베
##전을
##이어
했는데
나쁜
광주
시청
##의를
평균
고민
이는
지키
##이상
괜찮
##라서
##생각
시설
##어진
##5년
##난다
불가
사기
무서
영상
이뤄
##대체
##7년
처벌
카드
SK
##9년
아는
##지에
##제가
희망
라이
반면
아래
강력
##트를
아들
##없다
##했지만
28
##돼지
제외
보기
##지면
실시
따른
관광
신고
전화
##세계
반드시
선정
##문을
있으며
##왔다
훨씬
정당
떠나
##선을
의해
받은
##가가
위치
스포
장기
##점이
소설
어찌
60
진심
제도
도입
있으면
##권을
공식
제시
##로서
최초
수가
프랑
##이라면
##만이
##갔다
뉴스
소재
무조건
도대체
투표
브랜드
되면
젊은
아빠
##되었
##과의
다들
소속
말씀
##생활
##워서
하여
좋아요
하늘
##BC
##관계
성격
##듯이
따르면
핵심
##겠다고
TV
끝나
권력
##물이
공간
달라
김정은
##너지
생각을
##6년
##럼프
중소
유치
등이
##건지
남성
시행
청소
##준다
##하다는
롯데
사람을
##이기
해라
##지게
많다
그가
사태
##어가
감염
생각해
아프
##대에
만약
각종
아름
오른
맞는
스마트
독일
종교
마치
##받고
불안
도와
##했을
나중에
##가를
자세
보유
일어나
소개
##원은
너희
##지역
잡아
심각
##이크
통신
느껴
자주
비용
##이자
##개월
논란
이젠
예산
모델
아니냐
##겠습니다
##인들
##위에
##했다는
있게
내부
인상
##인트
진실
증거
가정
수입
협력
어려운
보통
되지
가짜
##겠다는
빠져
독립
센터
싶다
트럼프
방향
연결
##으로써
##어버
장애
돈을
평화
점점
국민의
최종
선보
##림픽
변호
그거
##리의
자료
작은
불구
##수있
회복
##프로
##시민
사장
신천지
쉽게
사무
증권
거짓말
공연
감소
당연히
##우고
그려
두고
전투
##금을
없을
실패
고통
형태
##잖아요
나라를
올려
누군
주제
없었
담당
202
29
여전히
제목
신청
이래
대선
니들이
##하거나
미리
전자
한심
##일을
이사
청년
방안
##임을
##으로서
출시
##할때
개념
주고
단계
국민이
지금까지
오는
대출
안나
마을
행정
감동
무능
끌어
##냈다
의혹
들고
추천
시켜
때는
##수의
위원회
##4년
공공
##2년
스트
사례
##만한
##여서
##들에
##레스
대가
더불어
업계
있도록
##운드
거리
##것이
본격
자본
불러
러시아
##대의
마찬
진출
관한
정부가
애들
1년
주목
않아
말하는
노조
##와의
제기
포기
국정
모양
##단체
##으로는
소득
##조사
자꾸
힘을
배댓
나온다
재판
음식
그럴
좋다
이끌
##디오
타이
이기
좌빨
일으
##기의
싫어
촬영
수요
전개
못하
##위원회
국민들이
강남
당장
합의
지급
##서를
차량
인식
그나
발언
교회
70
##도는
개최
지금은
자체가
##들고
성과
관계자는
시간이
##이드
아침
##기관
조정
대깨
전환
##경제
##성은
##끼리
만드는
사실을
##그룹
##자들은
인권
별로
대형
있기
혐의
승리
참가
조용
플레이
##부는
마찬가지
국민을
바꾸
응원
하기
고용
살인
의심
교통
불쌍
좋아하는
##3년
##부가
##부를
##두고
대화
전기
대통령이
조성
필요한
하락
인도
자산
31
받는
저거
외국인
##센터
##하였
상관
파악
##시면
제주
시리즈
오랜
유일
이야기를
힘든
##마디
##머리
쓰는
##움을
부탁
매일
감정
##등학교
##세를
조건
자격
아시아
##원의
아내
코스
전달
##과는
거나
##져서
평생
기획
예술
기반
할머니
이유가
제한
연출
프리
공정
온라인
초반
혹은
민족
지하
##조차
##장에서
확진
##장에
##로부터
가입
논의
##식으로
독재
##스코
##라리
대중
참고
##하세요
자랑
재앙
우승
이때
충분히
것이라고
동생
##어라
불과
아예
##산업
그러면
##다운
법무
이라
그저
##리기
동시에
##함을
종합
##르게
##민주
대깨문
하며
보이는
##든지
연합
벌어
##반기
이걸
환자
경우가
없다는
구축
##아버
##하기도
세월호
받을
##지어
저도
유리
으며
분량
##감이
했던
##소를
##주가
전통
##당은
어디서
위기
##란다
인수
동물
##분에
말도
받았
##1년
훈련
##시킨
##많은
관객
지들
재산
인기
완전히
해석
좋겠다
지난달
나머
##나가
이유는
500
행위
##봐야
진보
비난
##던가
##느냐
##작가
없다고
안되는
##습니까
반영
이명
그랬
생각하는
보여주
취업
##스러운
##치가
##일보
베뎃
##장의
##시키는
됐다
건물
배경
요청
구매
가르
됩니다
##뉴스
198
주로
최저
##드를
서민
##나게
##고있
##개를
2년
영어
약간
신문
##구가
입국
단지
금지
자살
##해보
개돼지
생긴
자신을
철저
##것같
##상의
화장
##비를
##였던
검토
##적이고
설립
특징
과연
##심을
##영이
뛰어
있었던
굉장
황교
적이
##씨는
해주
구체
대변
목적
차례
적폐
복지
##장관
##회사
강제
약속
않다
##지말고
봐도
대로
##만을
규제
##인거
프랑스
연속
상당히
차별
남아
줄어
##가락
##분이
수상
##무리
신뢰
##일에
80
선발
##겠냐
집에
어린이
남북
강한
혁신
##는거지
그건
애초
혹시
돌아가
장난
시도
부문
##계를
생명
불편
하이
나무
토착
달려
##웹툰
가만
##한게
##롭게
상처
홍보
생겼
##들만
##시키고
하자
정리
전라도
속에서
민간
쓰고
##스럽게
##것이다
귀여
경기도
모르고
갈등
##차피
하게
##먹는
끝까지
마음을
##말로
하는거
##이의
##려야
차라리
있으니
##한다면
멤버
실적
##나서
조치
근무
##인들이
##지요
군대
이루어
평소
##신이
##예요
덧붙
오빠
##구를
일정
피해자
##겁니다
펀드
통일
노무
##체를
##랐다
죽은
부르
역할을
올림픽
일자리
##리오
번째
싸움
##님의
##이로
##성과
미사
작년
위에
내놓
눈에
알바
어차피
없애
목숨
저희
소비자
수행
직업
아무도
벌써
##원에
인터뷰
모습이
연예
##이도
분위기
위원장
이해가
는다
대사
통과
##페이지
지지율
연재
이재
군사
것처럼
애니
가능성이
공장
재미있
##같은데
아닙
목소리
듣고
##위가
있음
역대
영화는
이와
이명박
있어야
늘어
최고의
분노
자기가
물어
사람의
##에서의
한마디
희생
살고
항공
올리
그린
3년
##프트
##싶다
##0년대
##대통령
##하려고
이르
##er
미세
##인줄
놓고
설정
타고
##개발
도로
거부
확산
비중
국방
제안
##회의
굉장히
##쳤다
##아라
중소기업
문제는
본다
사상
성적
##비가
##진이
300
상상
도전
죽음
충격
##놈들
니네
어쩔
##바로
이곳
심지어
알게
개정
많아
##에만
##지원
##도의
고양
이라는
무기
##투자
나만
##하려
##드립
전해
근거
##에게는
이제는
공사
##것을
지배
##어를
중에
그러니까
##50
##성에
##할수
##국의
여름
##심이
비슷한
##문화
못할
다행
엄청난
확정
똑같
##사고
민주주의
##정책
기념
어서
##리게
10년
##랍니다
##당한
거지
질문
##국가
아쉬
규정
고생
영향을
중간
말은
촛불
게다가
4월
부끄
공포
마이
##수로
만족
포인트
제조
##셔서
예전
##봐도
마음이
보면서
근로
그나마
인간이
분양
향후
이하
우리의
시점
자녀
사실상
앞에
후반
혜택
것입니다
있다면
신규
맨날
졸업
눈치
스포츠
임명
통한
청소년
없어서
##리카
##위로
비율
완벽
가면
바꿔
특수
당선
싸우
##지의
새로
동일
##개혁
##법을
오르
##기술
나누
수밖에
못했
##져야
옛날
된다고
에너지
방침
액션
물건
등록
##리로
안에
야당
정부는
이벤
등에
지식
##기만
속에
생기
전시
눈물
##가요
##씨가
노무현
바탕
가득
##자고
주도
신용
판결
없는데
돌려
우수
중단
##자들의
했지만
있나
##원에서
##아닌
##말이
##받는
의무
1000
##은거
임금
전반
##드가
진정
직장
##어로
난리
연애
겁니다
데이터
유통
슈퍼
일상
특정
##관리
보장
레이
##가지고
무섭
##만으로
아닌데
겨울
##석이
##텐츠
축구
저러
##하신
기초
##문제
완성
맞춰
몰아
접근
불구하고
나타나
문제를
바보
예정이다
시기
잠시
##하다가
##주를
존나
있어요
따로
같아요
인지
분기
##활동
##주행
마무리
##거운
##사로
나머지
##다른
거쳐
##보기
##히는
##라가
리그
월드
선물
저지
##우스
윤석
##았는데
##나오
##선거
##국이
하시
##님은
시간을
앞에서
이상한
수술
조합
##퓨터
##았던
##업체
90
##해야지
3월
##하라고
소유
굳이
매력
봐야
##이에
##시설
기부
영화가
돼지
인구
##것은
##화에
멍청
모자
내일
##사에
##해진
위안
##시대
##환경
위로
##세대
##겠죠
##신을
나경
##것들
나의
##회를
제출
인한
##시가
현지
활성
일본이
##인간
##트가
재정
##성의
##됩니다
##연구
변경
반복
##스러
것에
##걸로
대전
뒤에
비밀
개봉
디지
달창
시각
##화는
##10
만들고
에이
##상에
있네
만드
똑같은
일베
6월
##자와
##려라
위협
체험
KBS
원칙
결론
노인
답답
일제
협의
살펴
미안
도망
개월
지가
##거같
으면
지정
않으면
##케팅
그것도
5월
나를
##행을
사전
그러니
월급
동네
된다는
형성
악플
가구
##온다
지분
사법
둘러
대박
##방송
임대
믿고
##증권
가능한
집안
경북
호텔
베트
##마라
꾸준
일어
어른
저기
##전이
그들의
돈이
##부의
바다
프로젝
##거든요
손을
##개의
##하려는
황교안
디자인
##래도
선언
수는
의식
##보자
##들한테
안하고
토론
그를
##했습니다
애초에
대기업
선진
##께서
##니스
##부로
##었다고
와서
계열
##없고
투입
관심을
컴퓨터
차이
무너
세대
초기
##리그
삼성전자
폭력
미세먼
창업
독자
인간의
이름을
표정
##일까
시작했다
##왜구
골프
##단을
##질을
협상
우주
##느라
사회적
##줘야
##약을
지랄
##자나
중국인
태양
보였
##도에
일은
파괴
눈을
못했다
##국에
마라
진정한
9월
##20
박정
나름
짜증
##장으로
비행
금리
측면
어울
원인
상황이
MBC
마법
##사건
10월
등으로
35
원하는
##선이
달성
말해
##지기
채용
아무것도
잘생
최악
예방
공유
총리
##문이
##관이
12월
구분
절차
##만의
##이익
불가능
늘어나
블랙
무대
사퇴
요소
주가
만에
되는데
7월
공주
벗어나
드디어
##세가
세력
논리
공수
발행
상황에서
무역
##트는
##와는
현상
하네
내용이
보상
받았다
베트남
울산
##거라
싫어요
버스
미치
운전
수업
운용
##in
동원
하나의
어제
외모
##학년
이미지
밝히
취급
##시켰
##마자
심리
못해
다소
##드로
조심
보였다
##사람이
여기에
바이러스
##분들
크리스
그만큼
##명은
동료
##웠다
긴장
뭐냐
##아지
빠른
##있는데
바닥
##부에
너무나
맞아
온갖
하나도
##우가
스마트폰
심판
한반
아나
##리어
흔들
##민이
같습니다
여자가
없습니다
##사와
없음
그렇지
##있고
##하도록
서울대
귀엽
##는가
경남
##트로
리더
그것은
있는지
##위는
소녀
무리
마케팅
나섰
8월
너네
##으로부터
이탈
쿠키
향해
신의
##질이
소통
##받은
이번에
아니라고
하니
긍정
문죄
놀라
##30
그들은
1월
것과
거야
죽을
왔다
##되면서
정작
##수준
##이팅
##이든
##바일
##하니까
는지
필요가
KT
##조선
영웅
카메
효율
흐름
##도시
말로
회원
인제
확실히
그녀의
않을까
미사일
펼쳐
담배
똑같이
##자에
페미
스타일
휴대
아닐까
반도
##하셨
##가면
##단이
##는거야
이란
먹는
##군이
전년
대우
실험
출발
저녁
000
메이
과정에서
##시오
대답
그림체
이유로
금액
##안을
##친구
브라
##그러
한국인
극복
고소
##겠네요
##주면
데뷔
남의
손해
친일파
무식
생각하고
자원
서울시
체계
변호사
준다
사회주의
스페
무료
##까지는
가고
영역
##하네요
본부
라면
풀어
봤는데
절반
당신이
##부모
같아
##보네
아까
불리
보니까
반성
있었는데
소름
전했
본인이
그것을
##간의
수많은
수십
적절
##on
##경기
##달라고
물러
프레
장소
##아이
남녀
덕분에
내용을
헌법
방어
대상으로
모바일
동의
택시
디지털
사형
아냐
지금도
위반
토착왜구
둘이
더러운
폭발
나선
##한국
##시길
몰랐
가까운
부인
위해서는
##규모
매년
##가족
한국의
문학
몸을
##인듯
않게
사람도
안된다
집행
두려
##력은
영원
법무부
그녀는
정주행
이리
허용
##겼다
##량이
자극
##시지
악마
##었을
197
가수
들이
따뜻
##면서도
##호가
높이
깨끗
싶어
테러
##나고
원작
##라스
조용히
유튜
##마저
전형
미국의
집회
매각
실망
##독교
드립
문재인이
양심
도움이
가만히
##때는
너는
작용
잘못된
노동자
##음이
말아
보건
편의
검색
대해서는
2월
2차
높아
영화의
전용
##사랑
말에
인증
##니아
아름다운
2000
언니
강원
인근
##스토
그것이
예고
일주
가해
처음으로
아닙니다
눈이
소송
##잡고
연금
11월
별점
##률이
누리
설명했다
교사
##먹을
것들이
부여
하던
방역
##하러
기여
모아
유니
아가
인데
명예
홍콩
커피
##했으면
일본의
여당
하는게
종목
들여
통해서
주의
##거래
건축
연장
정부의
사항
나눠
바랍니다
의한
일본은
이럴
남은
##들이다
사이에
콘텐츠
체제
수용
도착
이중
##돌아
아동
##정보
구입
있을까
다이
체결
##었지만
공수처
이상의
##시킬
##겠어요
뭐야
##관을
우한
예를
정규
중심으로
애들이
계산
내리
시위
훌륭
폐지
순수
##하는건
앉아
인력
##조작
외부
추정
주말
##an
상징
##보험
떠올
진단
##쳐서
##었습니다
상담
통화
들어오
낮은
##드의
힘이
흥미
##이었던
정치인
제2
총장
이만
식품
성폭
뒤집
##건설
##것들이
애플
##받아
삶을
소중
마다
점을
국민들은
잡고
가끔
설계
흘러
보지
축하
냄새
##하기로
##량을
##이기도
##나무
##라니
##리티
케이
통제
##으려고
##있어
기계
해야지
##였는데
5년
다면서
감옥
수정
남자가
좋았
받아들
##기사
이정도
##쓰고
36
##영업
##주택
##림이
집에서
##진짜
왠지
뉴욕
생존
간다
##했으며
감안
##실을
##함이
작성
느낌이
상황을
마음에
##놈이
만난
##전에서
##위해
정치적
##한건
배치
##속에
합리
후에
채권
이벤트
기레기
내내
맞추
어떠
언제나
있냐
베이
평범
##리며
연락
45
시원
봐라
회담
한나라
나타났
##은이
##거냐
없네
스킬
51
다면
##리스트
이들은
나갈
나와서
예측
글을
억울
실천
##들로
전했다
##누리
이성
전세계
새벽
##버린
##세기
백신
심사
법인
봉사
어이
##길을
지시
다녀
부부
상대로
##길래
가게
비리
##놓은
보이지
교체
정체
안타깝
##티브
스크
매국
반일
작가님이
세상에
쏟아
비상
##바리
개그
##말을
화려
##점은
수호
길을
대처
##경이
##료를
자리를
모른다
밀어
##가의
한국당
##로그
##워크
우연
당국
인재
##플레이
떨어진
##안에
##려나
그렇다고
왜이
있으
##군의
투쟁
에피
한다면
가야
제1
이승
##원으로
나쁘
비정
##달러
거기에
알아서
속도
##고를
뭐라
전날
학습
집값
##거리는
관심이
먹을
프로젝트
김정
데려
없지
##하시는
여부
야구
##이라니
할인
기울
정신차
최소한
피부
특성
명의
##하겠다
내세
지들이
사람들의
마지막에
유시민
예비
쓰러
라인
화면
고위
공산주의
꾸준히
공모
장비
법률
##본다
##라지
한계
패션
##화된
말할
##대학
창조
##보단
제거
아니야
##금융
의도
생겨
출전
##는건
박정희
아쉽
적어도
실질
좋을
소리를
검은
간단
주문
탄생
명령
말한다
정신병
##댓글
1위
최순
연습
웃기
##제품
목소
말한
##쪽으로
##일부터
##아치
##금지
윤석열
생각한다
##되기
##상으로
원내
공산당
도덕
기독교
태극
홈페이지
##기와
아무런
설마
반도체
이슈
##인가요
보자
##번에
기소
공항
신기
##격을
나경원
겨우
이나라
이른
##하는지
##거면
의지
창출
생각합니다
나오고
##해지
##미가
제정
결코
##방에
상장
##소득
카페
##임금
챙겨
이혼
자아
무서운
##기간
나왔다
보게
옆에
안좋
32
입고
##바이
전남
혼란
없으면
##지마라
쇼핑
등등
대통령은
뻔뻔
사랑을
가까이
##제로
강력한
실현
이름이
채널
이들
체육
다루
이론
통계
소년
안돼
올랐
들어서
언어
헤어
나오면
##인과
할아버
활약
##자도
##주시
##상은
개소리
알려졌
##유의
클럽
수석
모여
##모리
김영
만한
분명히
유사
보낸
적은
상식
##진을
##비는
##인으로
##자체
상위
청문
그들이
##서관
틀딱
계획이다
떠오
아저
SBS
근본
더이상
##항공
조국이
철학
##어야지
취소
주사
유튜브
##범죄
##로남
기타
물리
##점으로
불매
죽여
##메이션
2015년
느낄
판사
오픈
##적이다
못하게
##차를
간첩
안내
압박
걸어
카메라
때마다
집권
선생님
앨범
##리자
현금
##진은
모두가
않나
##아는
사이트
##이라며
##서가
미군
##용이
몰라
##바닥
가능하다
여주
수학
##까봐
말이다
##겠어
칭찬
##구조
이용해
##거고
##대회
우리나
##로남불
##친다
이외
개입
방해
너도
##경을
애국
##19
미술
인류
초딩
잠깐
##따라
##고는
##게임
##거임
그곳
때려
지수
##분을
실력
최대한
밑에
동시
식으로
선배
피해를
등급
소식
가라
이달
갖추
소환
##단의
모른
##화점
초등
추구
##받을
손가락
광화
##일까지
끝내
##없어
##먹은
미국이
2016년
##아도
##대가리
관련된
##평가
##개가
리얼
처음부터
##상태
##장과
##보다도
수수
##라우
괴롭
전면
일부러
##니깐
##이들
보여주는
##던지
단순히
##호를
##었다는
##라며
고백
오해
수능
아니지만
미세먼지
경우에는
출마
##스와
해소
경우는
##TV
다를
웃음
복귀
당신은
##자에게
##안이
##럽게
##화의
아이템
분리
없지만
미디어
##짜리
사람들을
정도의
수준이
법원
재밌게
어깨
이것은
국토
동아
무한
부모님
##게요
살려
에피소
33
##성애
한반도
##종의
##만은
자가
##향이
화가
플랫
국무
##단다
##된다고
##당히
안철
연계
아르
증명
대부분의
듯한
인간들
놈들
196
돌아오
##치게
##싶은
여유
34
38
키워
##ar
많은데
다리
차이가
고발
기생
감사합니다
확장
하냐
경쟁력
청구
##적을
##였고
니들은
##리네
네트
##기지
정보를
북한이
한데
상호
진지
것이었다
관람
##정치
자전
오늘도
느낀
평등
전력
종북
##성도
설득
수원
거듭
##카드
필요하다
##치지
저게
키우
이웃
한국은
오지
왜냐
어려움
##든가
이지
끝난
##방을
점에서
했고
차단
##주지
##아니라
##정에
점검
모집
착각
빠르
지옥
그리스
아니지
##수수
깊은
대놓고
##로지
##복을
##일은
뿐이다
부품
있었고
세상을
인공
99
갈수록
영혼
##한번
갔다
요리
한테
뽑아
2017년
바란다
대학생
자영업
참고로
박사
##되는데
##율이
커플
##해주는
진입
단어
##or
힘내
복잡
재난
##리나
사실은
팩트
##져라
걸쳐
##피스
문빠
라헬
경우도
지상
내고
작가의
발사
##동생
교과
##리트
청원
반발
했으나
종류
##상황
##년이
때도
##뮤니
부활
얼굴을
##주로
바른
장르
뛰어난
뿐만
##권이
겁나
대가리
여야
협박
##애들
이내
국민은
##여자
공천
##있네
노출
##별로
이다
빨간
성능
매수
유도
아이가
괜히
입을
물고
##노총
보조
최강
5000
자는
떨어지
검증
그에
고등학교
지루
사귀
이민
했다고
인가
발휘
##회장
##긴다
대기
부분이
##여행
2014년
직후
착한
할수
##석은
이탈리아
##배우
##프라
팔아
성인
배달
##터리
##었으면
짱깨
로봇
2018년
00
원전
##제는
배뎃
가량
생각하면
1인
필수
연구원
소방
화학
뒤로
##소가
것이라는
기회를
##히고
##보내
김대
##카오
지휘
고급
한미
후회
표시
한화
재무
투기
##당에
몰려
입학
대변인
패배
유료
##둥이
##당을
##명으로
##슬람
방사
고향
둘다
어야
투명
경상
수치
했으며
##겠는데
##화에서
KB
철저히
애니메이션
대다
##때마다
##실이
인민
둘째
손에
##되서
올린
##더만
##로를
답변
##마가
##미터
응답
##공사
아닌가요
가을
##그래
##임이
동기
못한다
국립
중간에
누구나
제재
##직원
##동이
그렇고
비례
어요
멋진
엄마가
##쟁이
월드컵
연간
투자자
멀리
##시절
지하철
모르겠다
배신
돌파
고정
##차가
법을
##야말로
협회
##부대
다름
##전의
사실이
자율
보인
부상
결제
스테
##계의
좋지
##구로
##피언
들었다
##정의
로부터
##장면
중국에
##나면
어릴
##그리
##드리
남한
고마
상황에
생각은
형사
이것이
순위
책임을
날아
자존
탈출
아이디어
##주에
실업
얘기를
부대
맞고
때까지
옹호
조선족
일본에
균형
감성
위안부
2018
##이라서
무려
세워
세종
노예
주지
씨는
완화
감독은
##연이
단독
##함으로써
이야기가
방지
언젠
검찰개혁
학원
시나
아울
내로남불
##NS
찬성
거기서
##사람들
분들
보안
경고
일찍
##호는
그다
자전거
상반기
##키는
책을
모를
##비아
##다시
분류
##점에서
것이고
떨어져
대법
이런거
올라가
동양
IT
베댓이
신체
##렀다
느꼈
능력을
개판
마주
마침
##성장
##았고
넘는
##다는게
봅니다
##데이
수단
보이고
대결
매장
받지
받아들이
##자산
텔레
동맹
##회에
당사
##버스
##동을
아웃
존경
##가에
##셔야
안에서
삶의
한명
커뮤니
공약
##적으로는
치고
기준으로
내는
파트
현대차
중인
##하지말고
입주
##뿐만
##을텐데
얻어
고등
400
##스티
##영상
유명한
들어간
주인공이
##시를
반대로
##리라
두산
도움을
능력이
데리고
마약
죽이
비롯한
털어
##연금
2012년
임시
새누리
사용하는
##오고
##되며
파워
김성
페이스
한정
말하고
하세요
##현이
##제의
활동을
##로가
나아
긴급
이자
가난
##수사
대표는
##는거다
끝에
거주
다섯
##구는
트위
검찰이
방법을
##당의
도쿄
##보지
##하겠다고
그날
하는지
##드립니다
한다며
매달
지내
##리와
끌고
##치기
##으려
3일
하반기
완료
로서
##의식
살짝
물질
출산
육성
##조가
##하긴
결과를
태어나
마찬가지로
정기
2013년
배려
시작한
비록
##힌다
되게
뭔지
스파
##트의
부처
시킨
근처
##품을
얼굴이
##력으로
편집
북한에
2015
고속
걸려
안타까
청문회
스피
로맨
무릎
##할까
옮겨
대한민국의
나라의
##계획
머물
##된다는
보고서
##비에
수백
서서
중국의
예능
##분기
1만
바탕으로
##om
전두
감독의
##아아
거다
광화문
예쁘
##래곤
##했으나
실수
취임
##인들은
##있게
주세요
차원
버섯
화이팅
네트워크
##낸다
##너무
##역을
정확히
이딴
##학과
놈이
##아님
향상
그러고
소화
하셨
작가가
맞지
한국에
합격
소프트
##위의
부채
압도
빼고
##버렸
경계
사업을
분열
빠진
것인가
이념
##해주세요
촉구
주관
많고
뮤지
##럽다
##총장
우린
대리
권한
과제
소리가
##민지
죄송
곳에
##공업
사랑하는
##발전
라도
빼앗
지금의
몇몇
2010년
신선
후원
명확
공통
살해
것들
꺼내
중에서
할지
##여야
업종
공직
문을
다니는
중이다
의미를
집을
전설
그와
##조합
추억
마세요
이겨
##나와
##치면
최저임금
강해
사람들에게
보일
##러워
접촉
열어
##있음
##었어요
##단은
1차
우파
악화
문재인은
##보이
좋고
질병
##력과
##스럽다
##작가님
아시
##전쟁
##어지
살아남
눌러
도둑
없으니
##나다
조선일보
걸린
아줌
나타났다
높다
아울러
여의
37
당황
선진국
한심한
하였다
##증을
##하겠다는
##목을
시선
##음에
##악한
짧은
##메달
분들이
호흡
프리미
관계를
##연합
자유한국
##모습
2019년
기다리
중국이
어쨌
요금
##이죠
양성
일어난
미쳤
이길
가로
워낙
55
상대방
대북
나오지
1억
장사
저항
선고
주차
해요
챔피언
종료
있는거
##쪽에
PC
당한
왕자
유저
죄다
곳곳
대만
양아치
버티
##감독
아이를
선호
##드려
취재
이라며
마시
##스런
한참
특검
머리를
죽어
아야
##경찰
같네요
지닌
##미디
어리
빠르게
##준이
아우
좀비
다르게
초대
##무를
##시의
알았는데
모임
##단계
앞두고
행동을
##en
변신
기사를
##법이
기가
분이
주력
머리가
전두환
##군은
아이돌
##미는
들은
건너
익숙
치열
기사는
맞춤
2016
자리에
축소
사유
네가
몰입
주체
점이
일이다
아깝
법안
##레이드
대학교
과장
##버리고
찾는
맘에
개편
##하지않
권리
##판에
원내대표
하다가
데이
카카오
의미가
일도
유일한
의문
때가
##르면
바뀐
징역
효과를
##웨이
이래서
대단한
반박
##공자
##대고
획득
##는데도
##스에
##과학
##복지
스케
그런거
원장
하나로
##었나
##쓰는
##al
##을듯
그래야
내용은
##회는
저질
이모
##국을
##분의
##실에서
강요
스트레스
놈들이
##사람은
2014
고구
한두
결승
##11
한달
특별한
원숭
2017
매국노
수비
줄어들
하나가
귀신
연대
단기
오직
덧붙였
대폭
만남
휴재
강조했다
발매
이쁘
싫다
문통
감시
52
솔로
않습니다
바이오
1일
150
한국이
##연을
폭행
치매
고개를
마감
신한
왜곡
자치
여자는
태극기
개방
접수
##영은
##40
최순실
세금으로
마리
재벌
##하면서도
똑똑
매입
아이들이
깜짝
##어져
전세
잠재
##라의
SNS
점차
감독이
갖춘
비싸
정신이
##에게도
아저씨
뭐지
##님을
의견을
고맙
오늘은
되기
몰라도
##하고자
시켰
아들이
사이다
넣어
자빠
##놈들이
##짓을
꿈을
##조를
아프리카
타격
##만명
과정을
##형이
배출
##개로
늘어난
의원은
김종
레벨
가리
정식
동성애
완결
단일
##라운드
그러한
##드라마
##업을
이스
##회가
조언
노선
대충
##으신
앞으로도
치킨
만날
존중
48
코리아
##미를
##지사
바라보
몸이
세상이
##보를
버리고
쉬운
예전에
심각한
원자
##겠나
식당
건데
##문학
##프레
가짜뉴스
##선수
##되어야
활발
##at
알려진
죽는
클래
안철수
결합
해체
나아가
##산물
##란히
사로
##건가요
한나라당
실행
##했네
뭐라고
우리도
##답니다
발굴
아마도
오랜만에
거예요
##답게
삭제
호소
핸드
##구의
시급
##세력
기록했다
해양
모으
지능
천재
2011년
에어
다운
##점에
조기
##이와
친구가
##까지도
오랫
##서에
서류
임기
41
혁명
들려
유엔
연예인
##다리
20대
무지
의존
39
댓글이
시나리오
좋다고
그럼에도
믿을
벤처
사정
##st
호주
##할듯
뿌리
출범
이경
##너스
안경
연봉
비즈
무능한
해주세요
##이프
물가
##도와
에선
극장
묘사
개별
##전은
남겨
##봐요
##금이
##버리
밝힌
##구리
알려졌다
##고가
않지만
##자들을
##병원
##가능
트위터
아기
거죠
했을
사기꾼
##년간
부진
얻을
이처럼
대통령의
교류
##르크
##부터는
관광객
근대
강의
이들이
집어
하나는
축제
연말
좋은데
헛소리
메르
##봤다
쉴드
지자체
격리
곳이
천안
##내용
학부모
##표를
##줄알
신설
##주기
이유를
누군가
당연한
있었지만
좀더
찍어
김태
토지
끊임
오로지
해명
크로
한번도
객관
질환
##었어
접종
##니어
##총리
##우면
알지
에휴
##애가
이틀
##조리
재능
방식으로
##스포
##시로
같음
하더라도
인하
##그네
선임
빨아
##오면
중반
베댓님
라디오
타임
##세로
폐기
동반
유행
##석을
##랑이
##산을
베스트
파티
##등급
추측
심장
평범한
가볍
만들었다
매매
어째
##하는것
폐쇄
장면이
복합
3000
##같다
##이즈
생태
며칠
효과가
##실에
부장
일주일
김경
한쪽
2008년
당신의
##진핑
형식
하니까
많아서
전공
올바
맞다
만났
깨달
공원
기도
받아야
##업계
유치원
알려져
감싸
이어지
든다
##합시다
사이비
부자
없어요
위선
되는거
번역
##모를
사진을
65
임신
쪽바리
흔히
작품을
##단에
기분이
올렸
42
개성
주거
나라는
##줘서
공기
몸에
백화점
아픈
무게
가상
##당하고
보며
있어도
##소년
물량
느그
개의
독특
뜻을
성향
감각
한국에서
합류
돈으로
포장
개막
은퇴
그녀가
혐오
없었던
일자
들어갔
수도권
무엇보다
이들의
편안
##말은
이놈
그렇다면
화재
면접
했습니다
##있으면
##사태
예수
경제가
취득
위하여
패턴
무관
##했기
수립
가시
##판을
북한의
내린
보고싶
무엇을
##술을
디자
코미디
연구소
##이에요
##치로
품질
##자마자
그니까
합병
깨닫
등은
우울
무죄
당초
아무래도
아니라는
AI
하긴
미국은
##러가
철수
김대중
영입
시간에
진영
##좋아
연관
아이들
근육
용서
다수
##구에
75
홈런
##니가
공화
동남
##달라
제약
지사
최악의
영원히
집계
복수
구역
김치
차기
농업
정비
2012
맞이
믿는
조절
가스
적당히
##만화
이로
##타를
저리
비싼
넘어가
일방
##he
난다
주주
오바
진심으로
##이네요
입장을
매주
박원
##으므로
알아야
2009년
하지말고
##하더니
스카
디스
읽어
조만
거론
일하는
석유
##였습니다
비롯해
##형을
구간
정해
달아
##한것
어려워
부실
부패
힘들어
어쩌면
인간들이
저번
회계
군인
##왔는데
이것도
2019
신속
최선
측은
고유
게이
고양이
다음에
사건을
텐데
##은데
재단
표출
충북
의장
##기까지
걸로
##때도
몰래
##마을
때부터
즐거
CJ
##저히
##군을
오염
거절
개가
추세
법정
##물로
뜨거운
내게
보스
길이
좌우
짓을
말하면
통상
우리나라는
깊이
적극적으로
패러
##가며
##졌네
파업
##팔이
##하지도
##시기
매체
붙어
쉽지
이렇
이정
친환경
연주
기아
배제
##야한다
첫번째
국가가
즐길
##어리
증시
블루
잔인
개인의
오프
은근
언제까지
##에게서
해보
공중
상업
##마는
##나이
논문
크다
##시즌
##했어
철도
재료
려는
##신의
죽이고
자국민
##자금
##정도로
##필요
사용할
역사를
떨어지는
느끼는
자본주의
##케이션
##본부
두번째
대한민국을
##서의
욕을
대표적인
타이틀
고자
알리
##란드
##했어요
발달
할까
##웨어
명이
불만
심한
몬스터
##차례
##전문
함부로
문죄인
##었음
##하고는
입은
##이유
적응
즐기
##률을
보여준다
##해야한다
시진핑
직전
방송된
##했지
어휴
##다보
##민주주의
##단지
게시
##이었는데
드래곤
지니
##지말
한글
절대로
##했는지
풍부
허위
유기
기업의
##졌고
##먼트
바람에
숨겨
대규모
참으로
요인
전파
단속
드는
중국은
있으나
막아
반전
출입
스토리가
안될
범위
휴대폰
운행
##시켰다
무언
##진의
오늘날
저건
사건이
파견
중학교
##았다고
이시
##앞에
제3
매번
그러다
셈이다
성폭행
고대
김현
##시간에
허가
##입니까
에피소드
##하라는
44
바라는
아니었다
##서야
##한테는
형제
5일
사내
과도
미쳐
##주인
최초로
이끌어
##물에
##능력
부과
훌륭한
##관은
사로잡
이른바
전원
특허
흥행
기름
오리
뭔데
메인
인간은
초청
##사에서
자고
##님들
표준
대안
줄이
저렴
##용으로
##에겐
받게
##줘라
##회에서
등장하는
살기
일관
것인지
기다려
미래를
갖다
##르기
##국은
장악
##통신
넘겨
3개
공시
일에
승인
##시험
##겹다
보증
장학
보여준
왼쪽
똑바로
유출
##십니다
남자는
미니
4년
음주
유학
즉시
반응을
가동
전염
##하시고
늦게
43
##TA
##봤는데
##하죠
갤럭
마시고
욕하는
아버지가
체포
멈추
상태에서
##제도
##하려면
포항
물타
기생충
##크로
지지하는
##으론
대립
슬프
그렇다
벌레
수록
오랫동안
##거라고
##규직
##분은
어떠한
더라도
##만들
점유
첫째
생각도
방법이
구글
기업이
주연
너의
##빨리
영화에
부족한
웃음을
##일로
조달
##때부터
##12
나라에서
세트
조금씩
조만간
##집니다
출판
연령
##해지는
##집단
포스코
없게
##색이
##으라고
매출액
그러면서
주사파
##해주고
붉은
195
##마를
어렵다
으나
개인적으로
##사이
##노동
##살이
역량
극단
모습으로
부드
##운용
안가
영양
##었네
가려
##으러
의외
##벌레
##지면서
##저리
모르겠
페이스북
##매매
현실을
뮤지컬
시내
CE
이득
##치의
사람에게
소수
휴가
오타
환영
스위
##책을
같아서
없나
퇴직
문자
##다란
##서비스
김일
2010
아카
원을
무사
선전
##효과
했으면
보냈
조차
##했음
##소에
연극
##60
유발
죽고
##이너
선두
##드라
##다는거
거두
처음에
##스팅
진실을
##학의
마이크
연합뉴스
##없음
적자
##으셨
##겠습니까
##공항
##함에
하려고
##로도
콘서
외환
##마스
떡밥
최우
충돌
출근
자연스럽게
덧붙였다
47
##처리
##관광
저축
판타
직무
재밋
선사
곳에서
무장
내면
그렇지만
죽일
##하자면
벌금
알았다
다음화
어쨌든
레드
기득
##주민
전북
쪽으로
식사
194
폭탄
##시마
가졌
북미
국가의
화이트
##해줄
정책을
신종
데미
눈길을
안다
기억이
입증
대하여
##나간
취약
##싸움
##할지
비정규직
2020
4대
전교
뒤에서
##법은
신분
목사
49
##없네
사냥
임원
##인물
20년
강간
귀여워
극우
고작
향한
붕괴
##라고요
가깝
##산이
##비로
##리다
##하에
끌려
결과가
천만
##구역
##선동
##지와
##보니까
##권의
의회
부서
적합
정말로
왜냐하면
흡수
##검사
다음과
10일
##테니
배운
##들이나
2013
##편이
상영
만들어서
엔딩
기술을
##망을
두번
남을
##성으로
##땜에
멍청한
##해를
소련
보러
##언론
메시
멀쩡
오브
간호
##펀드
##경영
2007년
계열사
##어는
##수에
보급
동참
##전으로
##티즌
홍준
눈빛
한가
급격
자리에서
죄를
리즈
62
비서
목숨을
입에
##아니고
##억원을
이행
##권에
##80
600
##루션
한거
같고
들어가는
점은
##공개
어떨
신이
##더군요
정확한
황금
드러내
본질
정도는
투수
읽고
##망이
##스테
##인들의
옷을
가질
진화
##마리
있음을
끝나고
##라를
하나하나
막을
##토록
관측
소장
블록
부사
수영
정수
민주당이
어느정도
태도
색깔
##해서는
##율을
부모가
듯이
일으키
보완
미통
진술
##함과
초등학교
협조
##았습니다
문서
기존의
##문의
정상적인
##식은
입장에서
갈아
##체의
교수는
드리
##상에서
##관에서
나간
쓰지
씨가
나라에
교환
대한민국이
위에서
받는다
2일
국산
사람들도
중도
민생
죽인
갤럭시
잘하고
##작용
버리
애들은
명단
채택
담긴
다르다
버린
##하길
확률
한남
외치
날이
파트너
움직임
##있지
자라
##안하고
물을
브라질
서비스를
후배
##호의
전작
승부
부지
생각할
건지
들어갈
공략
대장
##화로
##때까지
서초
나가는
타이밍
정권이
공짜
이번엔
넘어서
##저기
시달
마지막으로
댓글을
##해지고
평가를
##트리
연방
해방
비즈니스
각자
열리
고집
외면
마땅
거대한
진중
1도
##발이
##명한
쓸데
##통합
주기
##이었고
좋게
했다는
검찰은
##해질
얼굴에
##하지마
##하의
국민들의
##승을
종종
세우
##많이
앞장
유승
##비용
아줌마
15일
##로의
광역
##훈이
##지에서
##차별
그러므로
가슴이
##때문
애가
인원
조각
자제
프레임
##금은
올리는
예쁜
항목
실시간
##집에
캠페
오른쪽
##는데요
호남
후속
당당
특유의
여친
누적
정치를
##직한
실무
수천
##민족
##씨의
거라고
##발을
##우리
유입
번호
46
근로자
노트
##신은
가치를
##었지
넘게
##결과
인프라
빌려
힘들게
범죄자
##조는
##람이
동영상
##다니는
##조의
수수료
##가야
모르게
##아닌가
##금으로
##는거냐
프리미엄
한일
계기
수준의
보세요
그런지
구현
##어지는
조금만
명품
##속에서
##르지
##디션
운운
홍준표
주변에
##느니
인성
유동
노란
##시스템
건가
태어난
구청
생각나
이태
모습은
어지
상대적으로
공격을
##구석
새롭게
제외한
##동네
민노총
4일
점수
20일
자신들의
그야말로
그녀를
##아리
##이니까
##았을
보아
##폐렴
아끼
귀족
사업자
##고기
한때
침해
##론을
처분
##의가
캐나다
##고도
착용
##무시
괴물
표창
고교
학생들이
##있냐
##년을
##하지는
다이어
지점
밖으로
남주
신중
경찰이
던져
서양
마인
##권은
나면
##타임
작전
감히
##해준
어떡
##을까요
##제한
문제인
지속적으로
54
##에다
7일
유형
진료
재수
##상품
##교통
담아
예약
보관
협약
첨단
로마
달고
돌아온
정신을
할때
##라엘
마스터
한국을
할아버지
찬양
느낌을
##로드
코스피
후손
체력
감정을
것만
어려울
방탄
기다리고
##ou
드러나
산다
##만으로도
나중
급증
노력을
드루
문재앙이
##책임
말만
창원
맞게
고문
가벼
꿈꾸
지각
모르겠지만
##제에
##았지만
개소
양반
챙기
구멍
아오
않도록
손으로
사회의
일대
시킬
유닛
제주도
실장
강하게
충실
당하고
맡은
##버려
된다면
##센트
이순
2개
손실
##작을
##회담
신의탑
##십시오
일시
금방
인기를
속으로
붙여
아이폰
##대학교
추락
들어온
경선
단순한
다시는
자국
##이름
끊임없이
창의
관계가
급여
양산
추석
##였지만
차가
곧바로
돈벌
##모가
##내기
스페인
정유
정지
관찰
어두
전부터
압수수
##과정
거대
##리즘
계획을
누나
##서도
변동
##버리는
부각
조중
기원
기기
##차는
간부
##이던
고기
만들어진
요새
답이
기대를
무서워
##분간
캠프
IM
특이
정착
조종
아픔
##격이
러브
##후보
부분을
##운이
환율
끝날
일본을
방사능
##희는
음성
즐겁
재앙이
열고
충남
잘하는
##되게
1등
증상
각오
재생
채워
##들에게는
민주당은
종이
이영
무식한
##기준
자세히
여겨
커다란
##희가
##이브
연설
##후에
그에게
##되었고
##명에
장점
##직을
논란이
너가
포함한
집으로
하나님
2011
나타난
##가라
유일하게
매니
##듯한
##올라
##보세요
##사람들이
어케
상당한
생길
졸라
##렸는데
법이
시사
규모의
그간
하는짓
손님
이번에는
##는다고
이스라엘
본인의
연기를
부하
##으로도
힘들다
여건
##버렸다
하하
아닌지
##대상
끝났
캡처
기어
정경
##테크
쓰레
지원을
##우를
처음에는
부르는
감상
김기
네티즌
감추
눈물이
##에서만
어떻게든
배당
보복
##et
말았다
전망이다
##민은
14일
##그런
소위
메뉴
메이저
##IA
비핵
막말
##타는
##시켜야
회견
국개
매도
지껄
##줬다
##피아
보여주고
##잡아
생활을
항의
에스
##화와
이름으로
##있습니다
테크
바퀴
##사항
무상
##보면서
설레
##일뿐
앞두
신입
밀려
라면서
동부
스럽
키로
사이에서
국내외
투어
압수수색
더블
입법
##es
현행
이해할
##협회
않아도
진짜로
삶은
모니
런던
들을
##회견
##국으로
##가리
필리
이수
도저히
김진
으로부터
뇌물
여기저기
개설
##보호
기구
경기를
왕따
파란
##증이
봤다
##주도
##it
##갑니다
정의당
만일
맞은
속이
화려한
달라고
내지
올바른
##경은
비하
전역
문제로
으로써
생물
##력에
있는게
대량
이익을
쓰면
##더라구요
파리
##해가
##았으면
##하이
##지나
규칙
훼손
중요하다
말라
재건
##선은
담겨
청약
##드러
변화를
트리
경제적
추적
미개
고령
남친
##으로만
하얀
으로서
불가피
1조
##움이
이전에
하네요
하겠다
머리에
##했나
분위기를
나이가
당부
지출
윤미
만만
있다며
맞서
스릴
초과
지어
주먹
안심
민주화
허락
본래
당해
59
틀린
##옵니다
기회가
GS
선박
##소는
자기들
국민들을
시대에
고쳐
컬러
장치
##신문
불행
세금을
##재를
만들기
부회장
청산
찾아가
##봤자
시계
##세의
##좋은
지향
브리
불매운동
##관련
##15
##봅니다
교도
회장은
부분은
##만도
정은이
요즘은
트렌
웹툰이
짐승
현재의
##중인
##럽고
##식의
##감은
##생이
진상
##수있는
경비
구단
한강
수집
1천
재개
을까
사드
명칭
지혜
##공산
##소한
계층
오토
따뜻한
##자동
노사
지표
주제에
중고
120
쪽팔
어르
행복한
북한은
##으시
주최
##돌이
##학을
##분들이
상속
##되는거
이름은
하라고
세포
##적은
선출
지도자
명백
안쓰
피의
유전
상실
뒤집어
중국에서
자림이
##심한
탈락
평양
오버
유가
깔끔
같았다
##인도
듣는
많네
25일
메시지
와중에
8일
허리
주장했다
중립
성실
판정
구라
부딪
##투표
##겠는가
편이다
배워
지진
욕심
아파
보편
자신에게
국회의
이주
노후
계속해서
##장애
즉각
자발
58
##이게
##관에
권력을
끔찍
##크가
180
측정
짱개
얻은
##계약
동남아
점이다
느냐
귀여운
급식
가족이
기능을
시골
돼야
태어
박수
약한
##세는
##혀서
화장실
상무
리뷰
어둠
##ic
##우의
넣고
##행위
경향
##인에게
생일
인용
징계
싶어서
##재가
성추
블로그
못생
저장
##왔던
공작
공인
나베
차를
완벽한
85
##공을
없기
침묵
신호
##것처럼
나설
계좌
간담
끝이
6일
썩은
##법에
핸드폰
##물고
강원도
비디오
##체육
담보
##르트
장착
찾을
있죠
국방부
대화를
이러니
##겨서
중독
2009
##잡이
##00만
대거
경력
기자회견
##혁명
시청자
교육을
올랐다
##해진다
위대한
마녀
물타기
날려
의뢰
##인에
95
홀로
11일
스크린
가격이
눈물을
실내
뒤를
##리면서
있다가
##세에
그들을
##사들이
김재
강경
한심하다
성남
고수
##렸을
강아지
좌좀
싸우는
앞세
찍은
12일
무시하고
결국은
몇년
놓은
##구먼
감당
13일
6개월
실종
이번화
지주
아름다
뮤직
황제
뚜렷
간의
기쁨
##남자
부러
##면을
16일
스펙
나섰다
줘야
9일
많았다
정은
가자
위험한
고스
물류
##선에
최후
##그리고
##림을
주위
##훈련
인생을
문제다
##으세요
방영
비행기
자체를
나오는데
행태
지는
2008
##정부가
걸고
탄탄
소문
체크
56
##였어
금메달
입원
##내서
곳은
##든다
비대
취향
무척
보다는
핑계
재미있게
지연
살아라
##통이
##민의
자유한국당
코믹
구상
잃어버
CEO
입시
시끄
불리는
가치가
봐서
##기다
방치
##욕을
화장품
기상
학교에서
화제
지역의
커뮤니티
천천
그런가
23일
단식
드라이
##율은
##현은
들어와
엔진
싱글
치는
간접
돈은
자림
##아의
딱히
##레이션
웃긴
떨어졌
슬픔
못하면
마친
창작
##바라
정도가
우리나라가
엘리
집착
이어질
싸워
##기들
욕먹
제국
주간
##했냐
전화를
어머
가계
지나가
27일
의료진
신인
상태로
보내고
##연히
##았네
평점
계급
##좌파
이용한
코너
생각보다
##국제
대통령을
특혜
그지
도서관
확신
17일
##타가
수고
이후로
##들여
18일
우연히
22일
올리고
내수
26일
한마디로
거울
##할거
사무실
엄격
게임을
사안
24일
##성한
##스키
콘서트
##러리
중대
차원에서
대법원
호기
뽑은
##즈를
##양이
28일
##부지
숫자
어우
##ST
오류
이종
새누리당
천천히
##소에서
부당
21일
노래를
19일
점령
##어의
##일러
건립
너같은
려고
##세포
10점
소중한
왜구
태풍
살아가는
최선을
여론조사
##스레
배상
##사무
PD
테스트
하드
만든다
뇌가
견제
형태로
죽음을
##통을
없냐
##하기는
소형
해주는
##물의
구미
##대에서
청주
2주
수준으로
않기
##사인
있는가
새끼들
##로서의
설비
열리는
먹은
해피
침체
마누
내렸
한대
제로
종사
##감정
이상이
전후
##놈은
##하실
해군
영화에서
대대
날씨
수급
누굴
구경
양국
억지
##집을
하야
귀찮
##살을
##수와
##있나
사이버
문제에
관련해
어이가
518
방법은
##동의
풀이
##거는
##아웃
MC
수리
박지
주면
제품을
모니터
씨부
열정
먹어
##네가
유력
증언
##선의
정부에서
우리를
##거리가
##가스
선동질
장애인
베도
##km
도발
##편을
하도
##선생
걸리
되찾
그들
여의도
##타고
윤리
불교
키스
응원합니다
해고
여태
보라
##사진
일어날
##정신
자존심
리스크
부추
모조리
##절한
##미애
##있어요
무력
마음으로
박원순
2006년
수주
기본적으로
##자식
코스닥
이쯤
53
마음의
##내려
##풀이
의학
##시코
##기면
이낙
##프를
막상
자유민주주의
신경쓰
녹색
편리
억지로
##방에서
##장한
호구
##무기
방향으로
경험을
세운
사모
발동
##했다면
시상
나에게
공주영
전형적인
##겟다
이슬람
플래
인형
##까지만
김동
##크를
안녕
버려
##새끼들
##비의
농협
회수
크고
득점
납치
##법으로
##70
##사실
##베댓
불쌍한
유권
##브리
정권을
##쓰레기
##se
말라고
웹툰을
충족
##애들이
치명
##민주당
터뜨
조국을
미국에서
별도
마구
노릇
여기는
세계를
내에서
대상이
##트롤
##하기에
보았다
신세계
테이
있었습니다
##리우
##레인
작곡
5천
##있을
하지마
시범
##있던
우와
사이의
합시다
원정
사회에
탑재
예외
##아나
꼬라지
미소
##ED
질투
보는데
##중이
되면서
##령이
웃고
##봐서
비교적
우리에게
주영
민감
##하지마라
잘라
에서는
입국금지
나갔
##데이트
##리는거
백성
물려
조국은
예배
##가로
비극
30분
확진자
성범죄
##있는거
도중
도심
솔루션
##소설
유로
이따
##프로그램
우습
일행
##방이
활성화
미만
않았던
##지다
임상
웹툰은
##해져
망가
신도
##보수
##가게
##정부는
히어로
사령
안들
최신
감수
프로그램을
##갱이
과감
죄가
tv
감정이
되어야
##자치
말아야
젊은이
64
서구
줄여
##박한
장식
푸른
되었고
어색
제조업
유공자
##원과
것이라
##어들
##거리를
싸이
인종
성추행
2020년
잡은
미션
##해졌
적을
##린다고
배가
파이
이제와서
##했다가
추종
##장도
외에도
##한거지
##작이
세무
방법으로
공부를
##한지
뛰어나
나은
등에서
구체적인
안하는
테마
등과
일러
질질
##그만
일본에서
차관
드루킹
월요일
미칠
인기가
않는다는
##편에
위치한
편성
포스터
일종의
미국에
이후에
##줄이
것이며
라이브
어르신
구제
외에
작품이
주한
##아니냐
30일
고통을
장례
용인
##음에도
##재판
싸울
2번
널리
##였으면
북괴
지경
스티
스튜
충성
한층
영광
길게
손혜
##순간
비트
연상
위의
##시킨다
대다수
대한민국은
##운전
##해졌다
##예술
신발
컨설
핑크
##기나
담은
##씨를
폭망
대해서도
에라이
##lo
피아
단단
제압
두려워
잃은
조지
갑니다
투자를
잡을
계시
공단
말이야
##병을
##작품
##전략
벗어
##였다고
라운드
##들인
단행
##률은
여자를
얼른
조회
마침내
##하겠지
800
농촌
##놈의
##안전
##혔다
있으니까
목소리가
목격
개돼
시기에
녀석
도박
##사도
##하는거지
##스러워
바쁘
박살
##위한
둘러싼
국세
다룬
역전
##력의
종로
베네
##스카
입만
선도
써야
학년
성과를
분쟁
5개
괜찮은
저지른
##것만
가르쳐
모색
않아서
국장
##re
##버그
최초의
그릇
말투
하시는
돌아가는
민심
##신도
##것같다
밤이
CC
주영이
##조직
시선을
해운
##치에
법적
대외
지불
떠난
발악
주둥
잡는
##왕이
타령
30대
당일
이대로
정권의
대통령님
하나를
##얼굴
##부와
정규직
아빠가
84
화폐
##패를
순식
플러스
충청
확실한
##스탄
벌이
다크
##로만
다큐
낮추
##병이
66
엔터
##페이지에
통보
무렵
4개
비유
국정원
끌어올
##시티
##관의
고전
##le
지적했다
의하면
이천
일요일
아쉬운
##잘못
뜯어
고등학생
후쿠
문정권
보다가
입사
##테인
방안을
갈라
적어
##보이는
##미나
점포
##한이
없던
아닙니까
것보다
면역
##인데도
싱가
살아야
몇번
미국과
승진
더벨
개국
조사를
성매매
대표가
##있다고
일치
편하게
건드
아메
원숭이
시가
인간을
시장에
심의
초등학생
멀티
성별
기사입니다
공익
우유
##이었지만
##립니다
이재명
모순
##지능
57
##거같은데
잘못을
입찰
##섰다
질문에
결의
총괄
신념
돌입
전무
나빠
아아
해제
구별
중동
싶지
유아
개학
크루
##가면서
버렸
도달
하라
않았지만
예의
##락을
##그림
추가로
공동체
하위
##올림픽
내에
딸이
##감에
##있어서
존재하는
1번
##맞고
1위를
어마
입맛
로드
인정받
뜬금
마크
##돈으로
신앙
단위
맘대로
다스
하지마라
앞둔
슬픈
머릿
생각했다
수면
##am
본격적으로
스탠
서서히
193
1회
##십니까
새해
가속
전사
유대
태국
##CD
일반적인
##것들은
늘려
목적으로
본사
##조정
임직원
##하였고
민중
과거의
태양광
써서
댓글에
진모리
불어
스트레
1화
적절한
##해놓고
합법
법무부장관
살리
경찰서
3대
갖게
정도면
안팎
##꾸로
숨어
IP
히로
##았다는
현재는
분들은
합쳐
지명
##인데요
개정안
아이고
오면
계신
뭐하는
내다
전직
역겨
2005년
인물이
안고
이야기는
##공간
##시스
탓에
가능성을
품목
##연은
애기
가볍게
88
신상
영업이익
##걸까
에너
시작한다
##리도
대부분이
##색을
바르
##생을
거는
##웠던
##그릇
눈길
태평
생각하지
초래
##지네
독도
소식을
모은
##보가
##열이
##하다니
죽이는
좋아서
##고한
조중동
이분
보존
소모
##모델
대체로
마트
떨어뜨
의원이
느끼고
업데이트
부를
생각에
한숨
63
싫어하는
는가
탈북
만화를
com
상임
교활
캐스팅
##타령
자위
이상하게
팀장
않았고
사라진
##만원을
경매
되나
##18
뛰어넘
##자유
건전
오바마
작동
국민연금
올릴
##지자
만화가
##미의
마저
경찰은
평창
포르
표출된
언젠가
주자
대륙
증권사
##모르
남탓
필리핀
##나온
마냥
목소리를
아버지의
아서
인턴
##엄마
##물은
##소리를
말자
소외
저딴
시체
##했으니
맥주
이상을
##OOO
어디에
##마냥
김민
주어
남부
이것을
사랑의
초월
##타로
##바람
건조
점심
주행
운명
##었는지
남편이
당분간
영화로
격려
일반적으로
의외로
어디까지
극혐
##통수
명절
접속
##니즘
오오
##탄을
뻔한
29일
##벌이
##물관
떠나서
마르
늘리
리더십
메르스
곳으로
##생명
##감과
다녔
전주
크기
기사가
문대통령
72
발생한
넘치는
떠들
##건을
안해
조롱
부적
##등을
술을
##독재
##포르
방위
하는건
##내야
트레이
MA
이끄
##모로
플랫폼
케이블
배터리
장면을
생기는
충전
위장
큰일
회피
##면에
이사회
하더니
분위기가
##보게
용기
유연
어딘
잡혀
바꿀
##하겠습니다
비전
순환
지나치게
아가리
사실이다
주인공은
##싱턴
안됨
##속으로
승리를
업그
윤미향
강렬
얘기가
자문
잊지
전제
##해온
시대의
있나요
융합
상황이다
##시네
미래에
초반에
전쟁을
혈액
이적
비하면
##계가
11시
많지
될까
상처를
30년
##으려는
전일
가해자
##들이랑
독점
##가루
2천
섭취
동일한
##로소
펼치
과거에
관여
사람과
유료페이지에
청춘
##즈의
일진
작중
수사를
예상된다
재활
##담을
넓은
안나오
또라이
꼴통
어쩔수
엄청나게
##식에
교통사고
뒤늦
##클럽
민지
극대
##공단
아무튼
클라우
엉덩
##래요
##일듯
또다시
700
때의
편견
먹으면
다행히
정확하게
##하진
기본적인
바람직
김상
대단하다
파는
것들은
그림을
##사람들은
아니에요
##시켜라
일각
낫다
자까
##이사
서버
누구도
일으킨
유용
추모
##검찰
정답
강행
##렸던
여성의
우한폐렴
##대책
데이트
##까진
있긴
화성
덕분
진작
안되고
지역에
어디로
사죄
양보
##판이
더더
이정도면
##로로
포스트
##동에
대목
##형은
도와주
컨셉
농민
##기능
려면
##나도
편의점
세계에서
쫓아
##곳에
수소
##즈가
역사적
세뇌
와이
해상
##일으
##없다고
스타트
##아냐
받아서
들면
자신은
베이징
안달
상환
쓰레기들
갖춰
같다고
##연의
하루에
사서
당첨
##로워
시장의
이미지를
##량은
회사가
##개념
자회사
독특한
절감
##당과
세부
토요일
##나보네
중구
사회가
합동
하지말
현황
##활동을
촉진
높여
화를
판타지
있겠지만
계기로
NH
방금
2만
무덤
대해선
4000
전수
마음대로
경우에
##하자는
##릅니다
##다는건
##PG
케이스
믿음
피고
마디
나이트
멸망
의해서
##얘기
##구멍
떨어질
될지
소상
IMF
혜택을
##박이
FTA
분량이
##그냥
지은
무엇이
주장하는
교육청
##스에서
자유를
낭비
수구
타입
공을
##아들
이사장
아닐까요
운영하는
##스럽고
한방
육아
국민에게
위조
애를
##리는게
영장
일본인
음식을
##재산
정황
시인
넘쳐
발급
혼자서
연평
##령을
철거
확인할
무섭다
않음
유독
한창
맛이
##하고도
##지구
기재
##고속
##공원
잃고
개나
제이
이룬
나대
변명
각성
2000년
하나씩
수습
머리카
지원금
간신
억제
옳은
목표로
##소의
##임에도
싫은
힐링
남기
##위기
경주
##으로서의
결과는
하늘을
1주
일본과
##시키기
##트라
상대가
시키는
##는거임
##스케
##건이
해놓고
설문
하나같이
그딴
최적
##국에서
장군
##없어서
##영의
모르지만
절망
##당하는
##TBC
##내가
##셨다
재밌는
공무
정통
튀어나
궁금하다
##네들
소프트웨어
박영
보낼
식민지
##공이
돈도
상관없이
골목
왤케
느끼게
##날이
##인건
열린다
강도
하신
추미애
소요
시장에서
새롭
공개된
한동안
아이들을
되냐
##대출
##할것
찾기
##되나
지리
오를
##이긴
##프가
3개월
이용자
쩝쩝
메갈
모험
##빠진
##관계를
이용하는
침략
치러
생겼다
낮아
민원
논쟁
그림체가
##놈들은
경제를
섹시
거냐
사망자
나가서
시장을
일어났
이라크
2004년
양도
유족
##꺼야
누르
임무
##에서부터
모범
멕시코
오피스
정서
버전
악의
캠페인
준우
##니는
시작된
##현실
식물
미성
타자
들어가서
##스트라
듯하다
##피탈
##학적
궁극
앞뒤
돌아와
갑질
##하든
##없는데
비중이
올렸다
##하루
일반인
사고를
좋겠습니다
성격이
놀이
티켓
넘기
민정
##함은
개웃
##대문
##나가는
언론이
주었다
NC
이어지는
시티
세계의
부분에
왜이리
기후
##노조
따져
지켜보
3번
강연
옆에서
이들을
피곤
많을
입장에서는
##만큼은
김지
외계
애매
의견이
냉장
인공지능
서브
치유
##중앙
조명
반려
종족
회사의
##근데
살아있는
조합원
##차로
창피
##재는
바꾼
교육부
##기전에
님들
##종이
받아들여
암살
##생활을
연휴
이쁜
작품은
병사
하여간
후진
동화
보내는
##ing
##일본
##겠지요
여신
인사를
##앞에서
신라
77
거고
갖는
혐의로
미래가
때에는
놀랍
움직이는
쳐다
되어서
##그라
##놀이
대구시
조장
##아주
로맨스
성숙
##어주
친중
##마음
대한항공
편입
끌어내
이병
정부와
메리
##데미
페이
보소
귀국
눈으로
사랑해
##자본
즐겨
##시간이
이웹툰
결심
힘내세요
전하
세상에서
성공한
해준
소멸
몸매
놀고
내용도
운동을
##클로
바깥
절실
나한테
##생산
히트
##계에
대주
기억을
##정으로
싶은데
##사기
가요
대접
권고
다음날
##TE
토끼
경험이
당하는
응급
##길이
가공
정원
스승
##력도
주류
요약
독립운동
아는데
##달라는
힘입
바스코
생생
동해
##환이
하수
남자의
적발
워싱턴
반대하는
근접
택배
사람으로
작가는
거친
이해를
##어준
시장이
후보는
욕망
취지
얻고
##셨으면
싶습니다
##겠니
##다는걸
아샤
강제로
자한당은
뭐니
이쪽
아침에
##참에
파일
틀림
저정도
추경
도배
김수
67
명분
수령
아직까지
상향
하느
디스플레이
##공격
남긴
못해서
##터를
##자체가
모인
퀄리티
서해
인건
##느낌
살다
##드와
출석
결말
벌어진
갑작
국가를
그러자
교훈
불을
용산
철회
포켓
커버
##편의
##이었습니다
변화가
##권도
##나의
살면서
##지방
저자
급등
꼬리
##평을
##기야
준비를
98
바란
서술
선제
40대
걸렸
박스
##교수
사고가
작업을
2021
##약품
신임
##네시아
총선에서
계약을
##언이
싶으면
이해찬
마사
자한당이
컨트롤
##법인
짓거리
곤란
##토리
엉뚱
음료
부끄러운
부작용
내야
빌딩
시작으로
게재
서준
##공화
않냐
패러디
오만
##협의
##나오는
목표를
코로나19
깨끗한
알렉
하여튼
##여도
##선에서
꺼져
위축
성명
##하기가
있네요
##시작
짐작
주리
금속
비핵화
하려
##16
찾고
##크는
##편은
본인은
CG
##더라고요
연수
돌아다니
죽창
붙잡
교과서
##드에
##없으면
경제는
질문을
vs
##대사
포트
카운
##역시
성형
기득권
중국과
끝나면
생각한
패널
##저나
세탁
늙은
운전자
그다지
IB
##경북
조폭
##세상
심화
##CC
제공하는
구석
가벼운
몰고
##13
천연
금강
놈들은
##야구
등장한다
##사이트
있을지
2배
상가
하나님의
##지상
사랑이
아이들은
##우지
심상
학살
경호
길거리
##컷에
##정당
심하게
전지
시키고
##바다
다음주
##감도
##청은
##즈는
김용
보좌
만나는
##인게
##였음
68
2위
조금이라도
의결
플라
##게도
크리스마스
위기에
##14
그로
나랑
자격이
방송을
전라
사회에서
여러가지
정신나간
재현
거꾸로
##론이
살펴보
##순위
##줘도
영토
납부
1개
프린
재미있는
스코
조항
관세
여자들
하여금
##종일
##구니
##빈이
사우
정권은
골드
경상도
2002년
##el
김연
등장한
인격
##런스
학교에
적지
##만하면
간에
192
지침
74
사장은
##되냐
##고생
클리
##와도
공기업
나름대로
저작
밤에
과시
막고
실정
##시죠
##NA
과세
욕하고
##고에
경기가
달린
중계
하거나
국민들에게
##치료
##운영
것들을
바쁜
하나만
콜라
사면
즐거운
어머니가
잔뜩
발목
##중에도
노하
##왕의
##둘러
추격
##받침
철강
거기다
시대가
동북
로스
컨설팅
법칙
인도네시아
환상
##호텔
특별히
##오가
일어나는
셋째
앞선
##추어
##포를
##알고
##거죠
##일도
공지
같네
퇴출
삼국
간담회
신화
말인가
걸릴
않았을
서명
아니었
싱가포르
나눔
전담
별다른
안그
##안되는
그치
##못해
육군
맡고
##버릴
착수
주머니
69
매니저
정면
방학
##집에서
##층이
지나가는
아이의
세기
##지며
봉쇄
##하듯
##가다
물이
해줄
실화
##위원장
##시피
##리는데
##화하는
##바지
##로우
##걸이
##받지
기지
양쪽
재건축
##과도
현역
채무
##께요
희망을
김일성
##시나
아버지는
##년에
고딩
##대기
나서서
확실하게
정치적으로
##인것
##패스
##꺼다
##봉사
쓴다
탑승
선별
들어왔
스웨
시중
승객
미루
미스터
작가님은
확충
##니까요
##적이지
다닌
자료를
동작
##자들에게
##동원
개척
##터가
정부에
납득
있었을
비타
와인
##축구
우리나라의
##떨어
##아파트
순식간에
내주
학과
##줘요
##지션
회장이
아름답
##하더라도
강남구
##익을
물었다
여동생
##네는
저소득
유혹
손이
친구들
유전자
남는
놀라운
대개
해산
경찰청
1시간
마루
##안은
거품
표기
누워
개연
목을
2007
탄압
레전
키우는
로그
가방
끼리
민폐
행정부
원천
클래식
어딜
대항
AP
발을
피가
상생
시스템을
징징
그중
피를
포털
##해봐라
##미로
곳을
이글
골라
행동이
##대와
그러는
앉아서
받으면
조카
옵션
이참에
정성
FC
가슴에
있구나
만화는
힘으로
죽으면
지인
흥분
##대도
##어마
발표한
못했던
먼지
지키는
##출신
번도
##월드
250
최상
##린이
산하
##하기를
되돌
##100
아나운
자체는
본격적인
##밀한
때문입니다
JTBC
지역구
##설을
가맹
클라우드
##액을
사건의
이낙연
것인데
73
거짓말을
습관
과목
쌍용
##가도
##졌다고
화물
한게
백만
##연한
인스타
##분야
브리핑
##연맹
국어
삼성전
편이
무엇인가
올라오
충분한
유가족
##인지는
시비
암튼
있었다고
유재
상태가
가전
가져다
읽는
서부
늘어날
##져도
사회를
요구하는
잠수
이용해서
캐릭터가
개헌
##is
개인적인
전체를
장면은
순수한
잡지
생명을
메가
추방
다짐
안됩니다
모래
##졌는데
보육
##마니
미리보기
측근
표절
맞을
열었다
##대전
안으로
##실로
##보드
3D
더한
##녀가
협정
##내지
##교를
아트
금요일
바라보는
##죄로
급속
##드려요
##파가
##파는
만나서
##양반
##인걸
후보가
2003년
조상
자세한
언제부터
편지
왔는데
워크
파고
##들과의
##차에
시민단체
역대급
예뻐
##시요
##이면서
만기
방송에서
##트에
기다리는
고스란히
##미널
##오빠
드림
##때가
구름
하필
광장
고개
잘살
지키고
성립
찌질
##마의
일로
##id
##FC
##버린다
빛을
##경쟁
##와라
안맞
조세
##키가
기다렸
주제로
결혼을
##파크
원인이
퇴근
모욕
말대로
여긴
##자료
불평
겨냥
##달아
##부에서
제임
##선으로
##키지
거슬
걸음
적극적인
이집
임총
없네요
##키로
살게
##겠군
100만
살아가
##25
아스
##디언
부끄럽
##재단
김정은이
중시
라이프
전광
##골을
##소로
##우기
가이드
기술이
해봐라
맥락
연인
##테고
##으면서도
금호
이준
초록
시장은
##카페
##세여
나불
나타나는
##등이
89
안산
으면서
다닐
세계적인
##담으로
##스턴
그쪽
거치
수준을
이마트
문씨
예금
온다
##자리에
##운을
##금리
문정부
슬퍼
분산
##리포
병역
없는거
현직
프라이
##재로
저걸
탁월
클린
스러운
연료
틀어
무작
등판
##통일
처음엔
구성원
망할
76
##체는
적도
##손으로
##기자
##하자고
##각을
내릴
1점
자칫
난민
트로
엄마는
물건을
밴드
최다
나뿐
KIA
##한테도
성폭력
여자의
매력을
##못하는
커녕
어렵게
않아요
자부
배웠
중에서도
##테일
속의
입지
##되자
울고
##겟지
위기를
##식품
IC
##서로
##곳이
##베이
포럼
##자원
없다면
시대를
했지
플레이어
지났
면적
브레이
잘생긴
##반대
슬슬
78
관료
물에
장수
##걸고
##학자
##장난
기온
##거리고
했는지
현장에서
봤을
국적
더구나
아베가
감탄
##가격
생성
아이는
빠지
영화제
방침이다
구원
유쾌
재발
문의
##분들은
##종을
대통
면제
##인척
##쇼핑
스토리를
주년
대깨문들
내외
대학원
레알
폭로
야권
어려움을
맙시다
##가와
단축
##르르
경기에서
##실험
호응
고의
##ol
사립
명시
인정하고
꼼꼼
##재앙
쌓아
부디
여행을
기쁘
소용
다해
이제야
어두운
원자력
대표팀
연기가
일본으로
##역이
전략을
##일리
영구
덕에
10대
##주얼
엑스
##아를
막장
피해가
발표했다
나란히
##거니
##히지
군대가
##17
공평
차세대
왜이렇게
##천지
뒷받침
행보
미성년
뜻이
안하면
##기구
전기차
류현
떳떳
코난
OOO들
수준이다
지니고
##사리
어쩌고
기뻐
막기
전술
위성
##기네
대미
여섯
하는것
크레
##집이
부른
내밀
무선
아리
##지않고
몰랐다
김제
귀엽다
피로
##이닝
오고
시간은
##하가
자진
자신도
##님도
본능
##들보다
##문은
공개했다
이대
같지
대구경북
앞장서
납품
##워요
##고의
계절
땅을
훈훈
대행
싫으면
영남
##데요
중견
신비
비례대표
변태
마이클
이용할
간절
정치에
##인사
심심
주장을
이루어진
##정과
##못하고
더욱이
무소
냄새가
사랑에
되었습니다
얼음
남이
이상으로
##억원으로
##보여
##그로
##보소
##였네
농구
전락
10억
너를
명작
전체적으로
장학금
등신
지목
문제점
헤드
##24
아이디
가입자
##시켜서
영상을
아닌듯
##하나요
두드러
##산의
##양을
##하느라
##듣고
비로소
보험료
##냄새
업그레이드
출생
일하고
성우
억압
##내며
계기가
##컨대
박탈
보유하고
이런식으로
##화학
침몰
발생하는
보네
주일
진중권
많습니다
##부장
##닉스
원활
그러지
아깝다
온몸
나선다
##il
없었고
지금이
불량
명을
않다는
만약에
개통
맡아
하는구나
대한민국에
담고
아니라면
고무
뭐든
지킬
##아프
당할
엉망
##형의
##머스
##전부터
수시
##었냐
전교조
개를
스파이
아티
##라는게
잘생겼
개돼지들
수익을
머리카락
생각했는데
안타까운
땅에
##ac
##지수
통치
휴식
독서
##입고
어마어마
##거에요
이번에도
자식이
소름돋
가지가
없어도
##넘들
무엇인지
목포
놀러
깡패
한꺼
불쌍하다
자신과
그레이
여기까지
거뒀
내정
현안
결정을
오죽
공제
버튼
보이는데
관종
놀아
05
녹음
3천
소주
치우
거리가
참조
##체로
1500
티비
그나저나
기자가
허구
자하
김해
순이익
##기기
만들어야
도약
드물
그대
범행
스튜디오
세계에
오락
왕자림
##중한
해당하는
전에는
증여
좌절
둘러싸
모르나
바이러
이어진
이윤
자빠졌네
복원
##세한
##재밌
##두는
##쳐먹
6000
이런게
코드
준수
##수석
이니
했더니
기대하고
표정을
유해
배정
가족을
##군에
##소리가
사라지
##번호
이은
들어올
사용한
무서워서
문슬람
##뒤에
##ion
일환
시전
최근에
##대응
우리나라에
##려도
국가에서
배울
출동
##부족
나고
발전을
마이너스
웃겨
##질러
적대
97
강해효
위탁
고구마
고도
##시와
##유럽
볼때마다
강세
한사람
주저
이재용
죽어도
손혜원
규모가
##나마
포착
나옴
기금
수련
존재한다
##일지
줄어든
##로써
##전히
부천
용의
##화한
MB
한꺼번에
##기록
사격
이십
평소에
사랑해요
##안타
##형으로
##소시
전해졌
지난주
터키
점도
좋겠어요
골든
휘두
##았어
네덜
통하여
사라져
자기의
##였다는
인간들은
##오프
들어갔다
##겠음
진학
터져
어린이집
##거리며
되돌아
되도록
배급
지지자
##아빠
##지않은
팀의
##애들은
의지를
##한가
##운다
페르
드러났
폭풍
96
있었다는
더더욱
중의
자사
유산
배틀
##하게도
##지상주의
날카
간주
##같음
없으며
이런데
만나게
여권
웃는
건강한
데모
82
##투자증권
##상과
서로를
섬유
볼수
베르
알파
나리
##보인다
조리
피할
모습에
지소
구성된
배우들의
커지
피아노
권위
자매
당시의
##교회
경향이
아니죠
문화재
미드
사후
학생들
##싶어
수험
##중심
##쓴다
부들
##조로
한결
놀란
##셔도
되며
맞춘
재미가
여자들이
##준비
저래
차고
그리는
##례를
업무를
비웃
자유롭게
언론에
정부를
##액은
##하하
중순
까닭
에이스
페이지
##트와
계란
미치는
##뿐이다
느껴지는
조치를
87
부도
냈다
이러면
무산
3차
지극
싸우고
허무
새삼
무거운
법조
북한을
##됐고
##들었다
불공
있으므로
총회
02
얻는
##말도
외교부
##지노
만다
감축
등도
만나고
올해는
여성이
##못한
닮은
##짓거리
즐기는
입으로
묻고
시정
중국을
##타운
##집회
##자연
경유
관행
브로
고시
어딨
가기
놓여
풍경
명문
관점
종전
##아야지
##할려고
학대
형편
##되기도
싶네요
몰라서
현실이
##라기
좋지만
무효
제2의
긍정적인
쇼핑몰
대략
스키
##파이어
##ot
버리는
##주의자
가능성도
##폭력
답이다
오늘의
프라
삼성이
이르는
##었기
##공감
모드
병행
말하지
정밀
##스트를
아이들의
##빼고
가사
##꺼면
##상도
텔레콤
나라냐
마음은
한진
있었기
철저하게
또다른
실태
지고
좋았다
친절
94
과일
##같아
3만
데다
##내내
불렀
건의
유효
행복하게
트럭
##자로서
방식을
경찰에
들어오는
지역에서
오지게
미래의
주재
출장
지우
재미를
문재인과
스릴러
발로
스페셜
패스
캐릭터를
더러
미통당
구체적으로
가중
##마이
##매도
사원
국무총리
거래소
응시
##무가
아들을
감동을
주시
전까지
문가
##cm
짜증나
내비
넥센
기반으로
칼을
김포
일당
##중간
선수가
##이므로
운송
흑인
날짜
싶을
까는
##자동차
79
당원
했으니
통증
구해
##음악
##지라
짜리
법무장관
당신을
되자
달콤
차지하는
먹여
역사의
##량의
부정적인
배를
시작하는
방탄소년
상태다
태도를
역을
##하여야
목요일
##언을
단편
방향을
면세
##적도
배송
개뿔
측면에서
교섭
찍고
##마크
##렸고
비가
##사업을
##안의
##감으로
유머
날뛰
86
수장
뭐하냐
하우스
기대할
##케이
##석의
밖에서
##비와
보여줄
##어지고
비정상
가난한
학생이
역시나
##겠구나
##신고
완벽하게
아랫
패스트
##알아
밑에서
##합니까
##향을
열쇠
부탁드립니다
##PC
##저런
##됐다고
상공
바닷
나타난다
출자
##줬으면
합작
삶이
사건은
노벨
명목
썩어
높게
정의를
##롭고
정신병자
싶었다
꽤나
화해
기각
##더러
제정신
기록한
마치고
##나온다
##질로
그러다가
8000
선거법
SM
육체
주둥이
나뉘
##나갈
지나면
##시리즈
중학생
반미
##오를
비타민
##화하고
차이를
감지
##표가
고추
음악을
##억원의
컴백
어도
불꽃
커뮤니케이션
프로듀
내보
역겹다
말입니다
##청산
##영웅
작작
아시안
겪고
중재
포켓몬
감방
간섭
EU
거리를
##리우드
님이
꼰대
않는다고
클로
죽어나
수시로
두루
댓글들
오프라인
##놨다
터진
노답
불륜
성분
커서
저의
타당
신부
이뻐
버릴
##명과
인지도
유포
인생의
##비리
상대를
92
스프
##청이
##셔널
2006
원의
##보도
##동은
현실은
배우는
##액이
회상
테이블
##이야기
확률이
면허
가까워
어쩌다
10만
우수한
여부를
든든
손석
##체인
##님과
내용의
다수의
올라온
##코리아
##되었던
친한
##라라
##연대
##배를
##un
했어요
##리니
강사
##혼자
##업자
##편에서
집이
##개는
적게
성희
제고
불러일으
93
참석한
포지션
옛날에
팀이
##되니
##층의
딸을
코치
##공동
##디아
이별
이순신
스크롤
상황은
##현의
##주자
적정
##기에는
시세
##애는
작가님의
##스트로
구도
기록을
##기획
2회
물품
고사
##나를
제휴
##경우
여파
등장인물
면에서
##예산
##것입니다
반응이
정의로운
IS
##었으니
##널리스트
다이어트
누군지
탄소
부른다
더듬
##였을
신동
시는
배우고
오리지
소지
스타트업
##퍼스
##피해
왜케
놈은
정신적
결론은
##돈을
##취급
아카데미
##파이
용역
일으켜
말하자면
##납니다
##할수있
##무역
생리
돼서
염두
태평양
열등
요양
넘나
##결을
서로의
유망
사람이다
##계는
박물관
##세트
카톡
선포
주소
싶어요
반가
전과
##경의
지지율이
지낸
하향
상품을
헌신
장갑
월세
한지
국민세
이뤄진
좋겠네요
학술
반란
하기도
분할
다같이
중에는
##전환
##름을
형태의
강하
내달
나이에
쳐먹
못된
##톨릭
차지했다
카이
모든게
한겨
힘드
사태가
아내가
##묘한
랭킹
대통령과
입술
찾은
##충들
##라시
여왕
스웨덴
잘해
##말에
##채를
무용
보고싶다
오세
##캐피탈
##진흥
못하면서
생각해서
분야에서
너무나도
새겨
말과
##베이터
##것같은데
##드릴
부정선거
돌아갈
애비
역사에
##인지도
첫날
과잉
끝나는
나지
##교사
그림이
교황
진지하게
##봉이
지위
진다
10분
행위를
##론가
##설이
비판을
정준
2시간
자아냈다
마누라
개시
##님께
만세
시공
##받는다
재고
대국민
##지마세요
##주와
재배
적립
증거가
##ve
##bs
##종합
관절
##만하고
후쿠시마
회사를
대단히
얼굴로
평택
##프는
때에
사단
빠졌
의류
온통
시점에서
칼로
총재
물론이고
살아온
버렸다
4차
##리냐
기성
청장
몇십
전체가
일삼
유죄
정도다
식의
원가
고속도로
드러난
지지를
한국어
발라
으니
일산
##테러
##하시길
노블
해주고
나왔는데
190
불쾌
tvN
##값을
요원
국회에서
잇는
83
멜로
잘난
같애
손상
잘한다
##카가
두개
트라우
##일의
##은행은
##등록
야외
해킹
##알바
들여다
무대를
##조원
감옥에
##밀리
세상의
미소를
포함해
믿어
검찰의
식량
의미한다
즐겁게
발언을
문제의
참여한
각국
둘은
위해선
맛을
##크라
10여
보입니다
신혼
성희롱
자금을
걱정이
축적
##처분
죽게
잇따라
밝은
가능성
병원에
달한다
상용
정우
03
##진한
##부문
원유
야간
이른다
##미아
복잡한
##론은
놀랐
좌익
지네
##하는거야
몰락
수요가
해야한다
기업은
소셜
고구려
대책을
줄일
##농단
##였나
##으려면
##쳐도
무뇌
중개
로운
분당
범인
도내
트랙
10시
##하구
디자이너
타는
싶다고
아사
지켜야
이노
숨을
질서
##태가
역사가
임대료
##경에
무인
사건에
도구
음모
너희들
유승민
저격
되지만
국내에서
필요하다고
몽골
이인
물러나
##하므로
박근혜가
끼고
##아래
어울리는
살았
##포먼
파크
##받았다
##폭탄
안겨
##통에
미워
음반
안드로
##국인
추리
##디가
찾아볼
발광
끌었다
##금의
기대된다
견해
급격히
##년은
우리집
관점에서
1명
비교해
바닥에
바뀔
##있으니
여가
상하
남자를
고3
보유한
##어질
할배
뭐고
사라졌
특성상
달라진
손바닥
닥터
유니클로
호랑이
##니당
##세이
##상승
##철도
##대한민국
##코인
##서울
가람
공군
반해
##스티벌
레전드
잠을
글이
진로
##90
대원
귀를
##르의
##ay
홍어
##였으나
정글
##조차도
신경을
역으로
##상한
연맹
믿지
성취
선택을
바둑
힘들고
자신들이
두려움
2억
라이트
##차게
북한과
진행된
전국민
역사상
설명을
안할
세련
현상이
##지는데
누리꾼
##수익
전염병
외모지상주의
부양
그만하고
유상
ES
모여서
##수저
선보인다
스틸
재밌다
달하는
기적
##치도
순서
위주
잠실
국세청
양측
밥을
적혀
북부
학문
한류
##름이
타워
소신
내렸다
정해진
##정권이
선보인
진주
이해하고
##침을
##하시면
사찰
출국
##특별
최소한의
##모양
기준이
우습게
제천
것일
한도
맞는데
돌아왔
당내
한번에
가격은
묻는
##로서는
하던데
##자라고
소매
##버트
들어가면
##테인먼트
인상을
##마저도
거라
##무지
##진과
가지는
##목이
지워
##밀히
##연재
당뇨
이끌고
뒤늦게
회전
##넣고
받으며
##다음
문제지
떨어지고
니네가
자의
##대비
##레벨
##박스
그때는
주유
##스포츠
이말
드러냈다
##켰다
않습니까
여우
흡연
##어어
말씀을
##드리고
표현을
세계가
##간이
않으며
철저한
견디
상승세
##거같다
수색
전쟁이
2005
내리는
그와중에
여수
충격을
을지
01
선행
구나
건가요
남자들
지금이라도
##직자
##방의
##당에서
원조
배경으로
로켓
저번에
##하겠네
관해
퍼포먼
##치네
열차
2부
##크의
사장이
봤습니다
하죠
영화다
출현
학생들은
정치권
오래된
##해야할
들지
2001년
돌리
##하지말
##하던데
동생이
여자친구
제외하면
할말
##의미
실력을
노총
무료로
대표하는
성장을
것이지
왕이
대한민국에서
되서
존재가
생각으로
7000
그러냐
박그네
여지
당했
##었으며
산책
기업을
최근에는
공헌
단장
##희의
##협력
참가자
카리스
교장
##로스
안된다고
불가능한
않나요
##입국
냐는
바람이
##남이
유인
##다녀
때문이었다
댓글은
##kg
오페
금감
사투
닥치고
손흥
##꼴통
##않고
##방식
발의
어느새
일일이
##이라는게
클리어
기업들이
지나지
트럼프가
##잡을
실용
##론의
남쪽
권유
운동권
제목이
##살인
##더냐
신작
퍼트
선택한
카르
가족의
##가자
부담이
일일
안타깝다
에어컨
치료를
이세
친척
##엘라
타이어
##린거
##더라면
##타이
삶에
벌인
정세
##잔아
김병
빨라
이런걸
안된
성격을
소원
신장
같다는
싶다는
9시
배포
대지
##부들
저주
저희가
##사용
더럽
모자라
선관
목적이
차이나
사연
##작업
##ig
협업
국개의원
학생들의
##도안
행사를
같지만
짜고
마켓
##하는구나
##포인트
느낀다
버닝
말해서
##공장
기아차
저승
##였어요
##워드
회사는
해안
거북
##님께서
1분
은폐
##막을
##나올
사람들과
약간의
##치와
보고도
##as
##전화
##되어서
조선시대
##엔터
치면
##보다가
##충이
마비
어머니는
영원한
08
130
본다면
승용
들어간다
댄스
갖추고
사업에
막컷
장미
많았
생애
약속을
##래프트
위주로
마술
##릭스
바꿨
##덩어리
##받아서
주인공의
늘었다
플랜
사과를
더럽게
만들면
개조
구사
협의회
##데로
그정도
##일랜드
인테
입장이
작품의
당당하게
텔레비
되겠네
알수
표면
하늘이
##od
제임스
받기
##할게
이상은
중공업
언론사
##러니
##관계가
CD
윌리
결성
방에
다루는
사자
바란다고
자이
복구
##래기
탈원
반짝
##된다면
기대감
보인다고
##이지요
이불
제법
부담을
거임
##중공업
원리
피해자가
도모
경기장
악플러
흑자
##진영
공고
추구하는
사물
소재로
##약한
있잖아
상사
성공했다
메달
##나니
부끄러
친구들이
계단
준공
레오
국경
멈춰
인연
##되네
##브라
직면
##는다는
##마에
포기하고
시야
교실
그만해라
튼튼
부사장
당사자
생계
봤어요
그래픽
너나
국가대표
폐렴
우려가
최정
스킨
게이트
모티브
##랑은
걷어
##시키지
주인이
어우러
실제로는
수준에
이긴
언더
이끄는
유리한
속도가
##ct
특집
스위스
외출
김무
##같은거
까다
출간
##플레
##자면
교육감
##이런
돌이
꼽힌다
막내
특화
간단한
유래
우승을
##오지
볼만
##만들어
중공
##이후
##관으로
살피
##호선
대치
##없지
카드를
만들지
교수가
다리를
##조사를
##되었으며
31일
계승
전당
연세대
수렴
짓고
팬티
##방으로
문화를
선을
북으로
잘못이
우리나라에서
##토가
##준다고
스토리는
않다고
살면
좌파들
실감
직장인
##건의
비슷하게
이러다
##린다는
수지
##가구
##수지
기사에
메시지를
알면
파헤
해설
유감
목욕
앞세워
아키
##순이
팀을
창립
하려는
##질의
수신
영향력
이러고
비호
웃기는
어설
싹다
DB
모리
석탄
현실에
표명
밥그릇
##독한
씨의
쯧쯧
##처를
이완
음원
선수들이
죽는다
7년
##하더라
스토리도
##mm
발암
기절
클릭
##23
##이요
저를
##나라가
표정이
떨어진다
좌빨들
안보고
회사에
규명
##셔츠
잡았다
지도부
이명박근혜
가라앉
입대
생각함
##자다
진모
존재를
##파의
백악
우월
##동물
아랍
무난
보냈다
때로는
##타의
##됐던
단백
##NG
너거
##루가
어쩜
걸까
약물
광복
미쳤다
##터는
기조
##빨갱이
지역을
##파를
09
##보는데
저하
나라꼴
숙박
##언니
동조
파탄
용이
##역으로
##다나
##블릿
신재
조금은
GM
드릴
차려
##소송
한복
배고
4대강
여학생
싫어서
거세
입력
##법의
과정이
이유도
중산
할줄
이경우
##당할
초중
##관과
##린지
##일수도
내뱉
차지하고
실체
권리를
07
어머니의
##층에
어때
##엔딩
지키기
##까지의
살지
이어서
공짜로
늘고
정한
##철이
는다고
들어와서
공백
반장
흔한
##PS
썼다
##따위
수요일
진압
원망
##당시
잘못한
완공
화합
##이었다고
낯선
##프의
##색으로
##어머니
것이라며
##라스틱
개미
연동
조화
손잡고
거둔
##주셔서
백수
##십시요
예선
제어
비용을
파라
강릉
수혜
##건강
어긋
어쩐
공영
횡령
주어진
달창들
##IC
##호와
좁은
개개
나타내
##ed
##트랙
잊혀
##텔레
##해왔다
##교의
문구
소음
##비도
훗날
농담
##먹어
했었
비율이
표정으로
시켜야
흐름을
##는거죠
문재앙은
않았는데
용어
정경심
안되지
포도
사라지고
참전
마리아
누구를
현실적으로
휘둘
바지
##는거고
2명
죽어라
##들면
산불
시상식
여론조작
이산
##바이트
목적을
야생
패거리
안정적인
이용하여
황교활
감자
생기면
10개
듣기
아군
고조
요건
위생
지극히
쓸데없는
합성
는다는
귀가
##도르
공공기관
비추
애정
은혜
아라
##사카
있었으면
전개가
##요한
외치는
##미디어
네덜란드
정치인들
##지니어
구두
##는것
너무너무
압력
헷갈
기동
##속의
발효
##걸음
##준은
##바뀌
하나인
##질에
나타날
그들에게
간호사
소설을
없애고
봤던
된장
상의
재판부
다큐멘
참사
춘천
며느
##인생
파격
##주의적
삼각
확립
천안함
달하
싸움을
자식들
성적을
자유당
##되지만
성사
고지
지원하는
맡았다
지속적인
북쪽
없으니까
##연구소
##디스
주석
자기를
후에는
양육
##벌을
노력이
채로
조례
있기에
죽음의
##다보니
수송
아버지를
##곡을
자까님
헬스
##교가
7시
자네
여자애
##보며
천사
##플러스
작가님도
악질
범죄를
김경수
##동맹
당신들
고립
의미로
전성
얼마든지
검찰에
지나친
총을
듣지
따지면
문재인을
사운드
강점
내기
세우고
베네수
함정
장관이
청와대가
제도를
학교를
이제부터
사용하고
##거를
아무나
줄이고
웹툰에
##년의
관련이
관중
어떨까
단호
보조금
링크
동서
아니냐는
애널리스트
않았나
배댓이
참모
##리안
김원
##급으로
운영하고
치료제
차분
##돈이
되니
걸맞
니까
신성
부수
가격을
사나
꺼져라
아니겠지
정직
##팀이
내려가
플로
가득한
같냐
대상자
2루
석방
##배가
친박
국회의원이
##조치
부친
줄줄이
유나
맡겨
떠났
김광
50대
##배는
조현
##열을
스카이
내리고
가슴을
찾아서
많다는
마포
모르겠네
이만화
감염증
정치가
##안보
이쯤되면
이같은
도서
##받아야
국면
예언
노동조합
갈등을
구호
위치를
개념이
다니고
간판
일기
안되면
타협
알면서도
되니까
공정한
사용한다
오리지널
세계적으로
마인드
적시
준다고
리스트
건국
죽기
이진
궁금해
##렸다고
입구
코스프레
처음이다
아무렇
초점을
고로
생긴다
부가
900
간편
유지하고
상식적으로
스태
남자들이
의하여
이가
낙태
격차
싸이코
결혼식
났다
맞다고
미개한
구독
##교육을
신사
보수가
##절로
불이
국채
시의
증오
##돼야
##정부의
##폴리오
망해
##시간을
동계
아부
이어졌
경로
뱅크
한국영화
##리라고
##행사
얘기는
상태를
##류를
움직이
##는지는
죄책
정책이
세상은
##류의
지들끼리
알려주
의혹이
교복
빨갱이들
상한
##량한
약화
노는
##동강
주부
삼아
불편한
처벌을
##을지
선보이
##판매
##차고
누릴
들어선
##하겠지만
멀쩡한
안양
공연을
개인이
의사가
김준
손목
모지
바위
떠오르
무더
사례가
##대요
윤석렬
국가에
오줌
지들은
항공기
그러게
##ER
꾸며
포괄
많다고
##im
##았나
하실
비틀
너희들이
##었으나
넣은
행진
판단을
점수를
##시도
모든걸
데는
것일까
토대로
주둔
##받게
편지를
3억
##환을
안좋은
사실에
네이
장면에서
##방법
콘셉
원고
표를
##시키면
기준을
유한
보석
빈곤
하트
많아요
내려오
소금
일원
다른데
임진
나오네
치솟
입양
##정하고
야마
집합
박성
다음은
##더스
##하는것도
상당수
3명
양념
밤을
가즈
여객
##싫다
##인지를
일까
대작
안들어
기숙
##신청
기억에
5분
온도
접한
당신들이
침대
안티
못살
남양
아이들에게
사이코
건네
한국과
##부터가
아티스트
종류의
##시장에서
##르바
사전에
삼촌
수를
스피드
친북
##인권
가는데
##선언
중장
이기적인
##사한
##청원
죽었다
트레
엘리트
않는다면
##ad
6시
##군과
신흥
MS
FA
사태를
돈만
여담으로
2002
당기
동력
나노
제공한다
고려대
체감
당시에
쓰기
숨겨진
모른다는
글고
주장이
CCTV
##불가
우아
허허
자기들이
좋습니다
이단
이빨
현재까지
씨를
6개
나누어
중심의
오빠가
깨어
매치
위대
김어준
대사가
부총리
그토록
미용
책임이
역설
프랜
##훈은
기대가
하겠지
##해주면
욕할
가족들
지냈
조연
극히
은근히
##했었다
된다며
입에서
이미지가
110
땜에
의사를
보시면
한계가
밀고
케어
##영화를
자화
식구
##ow
웃기네
후기
잔잔
변형
##정말
부유
##하곤
감기
##있다는
##연구원
모금
늘어났
이로써
입이
각자의
실수로
하려면
##IP
올라갈
##르몬
말이죠
형이
참신
##여성
구리
더불어민주당
불황
레이저
느껴진다
##건은
하겠다고
##공산당
##산에
공간을
치열한
흐르는
##했을때
시너지
베뎃이
나라도
없는게
미스
감안하면
아닌거
결과적으로
공업
##체에
##방향
망하게
##행정
##일세
사법부
##조에
04
안한다
법은
민식이
강아
전체의
##범이
##산은
##하잖아
브루
단점
골프장
##22
방식이
부시
휩쓸
그릴
옹호하는
진행할
나서는
같으면
무언가
신탁
양자
재해
인터뷰에서
아래로
떠들어
뜻이다
그보다
##간히
##사람도
초콜
높고
후퇴
필요는
##란이
행동은
여배우
사이가
2번째
이래도
##본을
##메이
총알
##사냥
농가
뷰티
06
시집
얼굴은
벌어지는
##영을
모의
실명
##된거
보컬
일정한
다르지
##내면
서둘러
자칭
암호
포토
날라
##는다면
##류가
농산물
팔을
##주의를
두렵
송파
약을
##요웹툰
않을까요
##무는
##히면
리얼미터
##지않나
연쇄
해결할
전방
##가는데
##아시아
이만희
실력이
시즌2
##bc
특성을
찐따
적의
##맨이
더해
소속사
훈련을
주식을
회사채
중국몽
따지
어째서
발음
팔고
판다
능력도
미국을
##숙이
오르는
대마
걸리면
##데스
비참
높일
##발로
##접한
그랜드
만주
난이
정무
중점
그쳤
##을수
##놓는
경쟁력을
##사회의
천지
북한으로
##ch
##쳐라
배후
환경을
관련한
있었으나
전신
공존
문재인의
바퀴벌레
이닝
던진
사리
그렇기
바꾸고
문어
소규모
베댓에
##가는게
알고보니
어렸을
##남도
아직은
나머지는
살림
폭락
무너뜨
때리고
등교
마블
우울증
##되었다고
##마귀
뜨겁
실질적인
##치한
이뤄질
##우와
키가
세금이
##는지도
##즈니
플라스틱
개념을
##간다고
일곱
인건비
##해봐
부풀
하든
박형
할수있
##모는
쿠베
걸친
##되었는데
##졌던
##허가
줄을
김정일
##커녕
존재하지
의약품
박찬
##이여
KBO
##확실
##냐는
관할
다이아
스쿨
61
나왔던
주무
하루하루
그래요
##하를
##중의
상반
주가가
##프리
완전한
##아니다
부회
나눈
무겁
생각해보면
##위원회는
죄인
형님
실리
그걸로
드러났다
##카와
##모두
신뢰를
치밀
6년
단말
출연한
인생이
하차
세일
잃어버린
시청률
재밌어요
상인
시발
##종은
음란
우호
##만해도
무작정
수아
KBS2
안주
한전
베어
연일
슬로
막는
부합
소리는
양상
##페이
언론의
이어져
휩싸
##새키
잡아서
누구보다
자리가
많음
##줘야지
개돼지로
사진이
그분
밝히고
증대
영국의
##제와
출처
탈퇴
프롤
인정하는
지겹다
2004
태어났
돼요
위법
덮어
화력
현실적인
에드
이새끼
##당해
좋아하고
보려고
파렴
km
불거
부드러운
119
알아보
##겁니까
##유가
가르치
무의식
원료
##공무원
관념
##반이
길로
스테이지
야기
부모의
변해
삭발
1로
선생님이
##적이며
##에다가
점프
퍼뜨
느꼈다
##겟네
대고
세웠
말하는거
나와야
윌리엄
본인도
##이한
아놔
##소나
자기는
성공을
##두면
호랑
치르
##차이즈
아들은
아니잖아
##머리가
원으로
공안
멘탈
한양
부위
반납
평화를
전도
후임
지갑
수작
오너
191
조건을
##티나
##감사
##베르
##끼고
참나
##판에서
우익
##커가
관람객
명심
유흥
스폰
회사에서
있을까요
고난
던지
해가
막대한
장성
도우
##사상
파산
영등
##대변
찾아온
양극
예민
늦은
##년도
##막이
##환자
##5000
사생활
##키고
폭등
날개
##였지
기록하며
The
박태
씁쓸
##람회
##신다
##계에서
공직자
##용품
염려
증가했다
나가고
전액
제갈
둔화
엑소
##해야만
항소
깜빵
똑같다
##심의
포스
다가오
##미래
정도를
채우
자신감
##석에
누군가가
라이벌
불과하다
##미사
이승만
주변의
잊고
엇갈
##모토
소극
##랄까
필요로
##지않는
의도가
침입
##시장의
오피스텔
고장
##보라
자들이
곳곳에
공학
제작진
창문
못차
##족이
##주년
##피를
##돼서
포트폴리오
고성
동행
지금껏
검정
방탄소년단
달래
일만
세미나
LA
빼돌
국익
클라
학력
과거를
강동
말라는
단어를
원래는
의혹을
3번째
학기
3위
클라스
##였으며
데스
나쁘지
##전사
인식이
활용해
사도
사촌
구조를
##버스터
뭘까
곳이다
##채로
##채널
출신의
LTE
페미니즘
역임
꼬박
니들도
##쳐야
광우
하는거지
시신
터트
비서관
##것으로
매월
##것다
뿌려
살이
사업장
##마켓
결과에
오디션
명복을
연루
변수
##한텐
친구를
사업이
회장의
기업에
재직
##급이
자란
세번째
되살
##먼저
유사한
능력은
걸려서
이데
확인하고
기능이
나라로
안동
임종
동구
평가가
미투
##ns
##씨와
##국적
않았다는
대세
판매량
##선과
단정
취하
대권
보충
분은
끈다
봐요
발레
군수
설사
문득
중복
카라
RD
부분에서
1인당
아바
따르는
보건복지
레스토
신축
해수
재인
##급한
꼬라
만나면
독재자
##속을
죽지
책상
반갑
##진보
보전
##대해
괜찮아
므로
군대를
짜파
사고로
희망이
좋으면
##널드
어처
수강
독자들이
소홀
##갖고
전체적인
개꿀
진동
베이스
밀어붙
갇혀
트렌드
상대의
패키지
도요
##갔는데
돌아올
##중에서
있겠지
##함으로
##올레
차입
될듯
사각
모으고
복무
##가나
##분양
##ir
나갔다
##심은
##오스
천억
하겠습니다
##떨어진
페스티벌
짧게
하는가
##았어요
문명
발병
함유
##되거나
##나나
몇명
유학생
##끼는
낚시
읽을
후계
모터
여자들은
발생할
악역
이언
프로세
해병
사정이
##운동을
토크
부근
##좋다
떨어졌다
무대에
처형
##민을
##스토리
청탁
##군데
##르가
아이러니
혈압
사시
다음으로
문장
##코가
##심에
과도한
그리하여
##용을
공룡
그런데도
세계관
수여
사람만
똥꼬
세제
##초에
하라는
##고로
스스로를
대조
재산을
장관은
있겠다
시작해
제자
키우고
##고요
정권에
언덕
급락
진행되는
##거네
흐르
부럽
중지
출연해
##기념
나루
세균
직접적인
노트북
심정
암시
참여하는
정복
##패로
안된다는
맞음
##기부
##거에
팬들의
안되나
아도
비비
시민들이
고인
슈팅
엄마의
절차를
일방적으로
할일
동향
연기는
모두를
시국에
단절
감면
쪼개
하루빨리
전시회
##층을
메이크
옮기
듭니다
##물질
버닝썬
산림
남매
매진
140
##사나
고래
몇개
외신
쫓겨
톡톡
##처벌
말레이
목록
피터
그네
##단과
국가와
##학습
책은
##백화점
##버는
##했다며
##수밖에
안전한
음주운전
보이며
사인
##니를
의지가
무기를
남기고
이겼
기습
되었는데
실은
예산을
당연한거
서울에
준비하고
가톨릭
바가
노리
처먹
리듬
아르바이트
하겠다는
종식
진태
##졌을
##새기
본선
소폭
##카는
##부인
##간을
걸레
인구가
미국인
##게이트
##눈에
##투쟁
몸으로
##잖어
71
돌아왔다
봉인
말이지
책정
맞물
정화
##루를
사랑은
##할머니
여인
##심으로
이메
고려해
안죽
##배상
살아갈
사람이라면
5만
선거에
꼼수
##해양
실효
##리한
##대장
외무
지식을
토론회
BM
사라질
침투
광범
##줄은
백인
않았다고
악용
답을
병맛
토대
종업
##오의
잉글
자식을
되는지
구청장
##퇴근
진흥
터치
내각
##퍼센트
처방
정당한
이원
기회에
##도우
조국의
##하기만
##공부
끼워
만성
##전과
기차
보이지만
피의자
##하는가
##션을
바라보고
애써
##셨어요
##졌다는
##FA
교도소
소대가리
##줄을
김희
새끼가
##치며
않는데
보임
전문가들은
아쉬움
했어
##가기
가죽
##토를
##셔요
##곳에서
구할
토로
세력이
상주
했냐
언급한
미련
투자가
맞는말
보살
갤러리
##대신
감찰
이화
the
취직
노숙
많지만
##지는게
너무도
빛이
##지인
##라이언
무단
해외여행
긴장감
먹지
가능성은
저능
##지금
각각의
형석
보신
갔는데
##등의
신천지가
##값이
##려다
미화
사흘
##올로
##아내
니는
다른나라
풍부한
##같네
빕니다
목소리로
됐다고
##마스크
사람한테
비공
메세
##팀은
##들어서
대통령도
##행이
##유예
중화
가리지
제네
하시고
##하느냐
운항
우스
벤츠
대부분은
생각하게
오스트
인내
최우선
##간첩
무시하는
들아
의미에서
커질
잘한
쳐다보
관계없이
걸리는
##히게
일주일에
때문이라고
처한
우정
게임이
육박
이현
아나운서
퍼져
노골
써라
도는
백두
바꾸는
배우가
솔까
아마추어
##되네요
##당으로
것이란
아니니
작품에
##것이고
줄기
엉뚱한
속성
보태
아메리카
반사
김학의
이거는
이고
연구를
살아서
##끄러
전격
장제
알면서
사우디
지요
서민들
비열
##들과는
트랜
##OS
쥐어
신생
##좌빨
일베충
찍소리
빠질
이런건
이름도
누르면
##정권은
가도
짝사랑
이루고
안지
아녀
##이구나
##들에게도
베를
이후에는
망설
냉정
표현이
이었다
쓸모
##내에
버디
아이언
사대
##용은
해봐
여사
##나왔
##보증
사주
DNA
20여
고가
유투
차트
##자산운용
화염
수성
##학원
##들처럼
없어져야
근본적인
묶어
##니스트
지방선거
##거품
직권
최후의
수의
이영화
인하여
말하며
##만원씩
아미
쓰이는
##태를
당시에는
낙하
##그마
특권
습격
키운
8시
활약을
차이는
그놈의
##이거나
가산
사용해
차에
쌓여
증폭
삭감
##DP
##이어서
로비
지분을
발전소
어리석은
망신
개같은
저럴
여주인
주범
1학년
다시한번
##애를
뻔뻔한
##리케이션
대면
하다니
이룰
잘만
인적
공적
##지않아
했나
##잇는
것이기
제외하고
비용이
열매
공권
자영업자
복용
오페라
넘은
아그
뭐하러
수목
체육관
요소가
가졌다
스님
소상공
##국과
강력하게
쪽이
##이용
접목
임차
쓰여
안되는데
비중을
부르고
##속도
불의
우리나라도
양식
숨기고
시작해서
표지
##소녀
##200
플레
영등포
1999년
등산
2030
상금
리버
조조
##오오
할거
모양새
##련의
법의
사람에
전월
##이었으나
이기는
카타
of
좃선
키울
##근무
바뀌었다
아마존
샤워
야이
##능력이
발간
죽어서
버릇
##어버리고
현장에
레스토랑
주차장
##끼들
엘리베이터
##사람을
초콜릿
US
안남
##등등
재원
##과장
높이는
##방울
도와주는
##안에서
되풀이
지금처럼
##판으로
유세
아니네
인쇄
##이래
##여러
##투기
큰소리
한건
여기가
마당에
선보일
태블릿
##시장이
##코의
더니
늑대
##스타일
우리국민
보던
없죠
160
##들까지
아이스
분야의
##부러
##있는지
개장
도시락
통산
까고
나랏
##였다면
크림
벗겨
자를
##왕은
##도에서
##아니면
조속
대공
##지않게
##족을
없잖아
정보가
수차례
얼어
크로스
협동
##치다
내보내
이의
##48
한자
말아먹
부모님이
걸러
굴러
##격리
##nd
현실에서
간혹
3회
한번만
해골
체중
시리즈의
고리
##기보다는
낸다
어짜
음식점
끄덕
되었다고
필요할
무엇보다도
##닫고
##초를
증인
화요일
최대의
이집트
SP
그립
다시금
이후에도
파생
##하늘
얘들아
##잡는
눈동
권력의
용병
김영삼
##숙한
상세
##포로
##정책을
수당
와우
취미
##이야말로
##하우스
스캔
노동당
장례식
##키스탄
노잼
후보자
##중이다
선거에서
합리적인
아산
나오게
누가봐도
말로만
강호
사막
대여
증정
추첨
전진
행복을
더욱더
살던
뻔히
탄력
됐으며
퀘스트
시리아
딱딱
법적으로
##보복
거리는
##지대
청사
꼴이
낫지
받아들일
안하냐
열풍
ST
개도
수확
정교
거칠
##네여
##작은
예매
레이스
나라망
이후의
##야마
들먹
비겁
순천
##수호
관심도
##색의
원인을
개신
##하였으며
한번씩
##싫어
시절에
제대로된
춤을
##으라
붙은
재미없
모르면
DJ
쳐맞
그녀에게
어쩌구
##드레
##플렉
이석
단체로
신선한
장담
나오기
##코는
모아서
외에는
화상
##것에
볼넷
일이었다
여자도
기운
멘토
형석이
장인
넘치
우회
1997년
결정적인
##을거
맛있는
검찰을
##면에서
신약
폭동
입수
김승
##실은
유니폼
일들이
##출산
##생에
모르냐
속도를
직원이
마쳤
##속이
걸림
##해준다
그만두
미뤄
##정상
개그맨
로또
같은데요
모니터링
모습이다
검사를
##중독
동아시아
전경
##MC
발탁
막강
득표
이해하기
역겹
이전의
여럿
##중국
예컨대
##할텐데
진행하고
##지주
따위
작품이다
##리포니아
##급의
외로
관리를
##마나
##북도
지상파
##질은
소문이
비판하는
집어넣
낭만
무사히
##린은
##액의
##오르
타락
내놓은
달달
터지
##되던
##분별
강대
호의
##수산
##이거
안성
##시장에
없었는데
상기
선보였다
삼성은
쓰게
주위에
동정
##있었다
싸게
##평화
1998년
할려고
내용에
뭐하나
지붕
기다릴
돌고
추신
광명
식민
현명
지킨
아일랜드
##카를
비아
##이제
신은
댓글로
##였구나
보기엔
예로
일자리를
못보
##주의의
토마
커지고
만들어낸
여지가
3주
똑똑한
SS
찢어
뚱뚱
##유공자
내장
미미
심해
##들지
속한
동굴
편한
##시대에
들었
OE
##리라는
환경부
실패한
같으니
사랑과
막판
공방
간신히
양심이
앞으로는
로그인
##26
있잖아요
전부다
사는데
부분도
모름
안해도
##재의
소독
##기금
미흡
할말이
친구는
얻기
생각없이
##조트
##멘트
알리는
91
못함
마니
##스피
같기도
딸은
총기
##족의
LH
가족과
않은데
청렴
비트코인
증진
강력히
곁에
전산
이사람
코로나로
왔습니다
찍는
##환은
불만을
권력에
##원도
##레나
비교하면
##쓰면
##적이라고
##길에
##간다는
원에
강렬한
##평균
개혁을
##자라
유령
버텨
근처에
한계를
##나네
분담
시에
아요
빼면
한국은행
쥐고
##올려
박수를
##OC
있어라
##정권의
유권자
담당자
##번이
지령
##반을
탈탈
##면이
##28
약점
살릴
비춰
##확인
정시
억울한
레인
손석희
##하노
오라
##계열
##버리면
정도였다
도데
어그로
##겠고
지금부터
러닝
기를
쿠팡
##us
쿠데
유의
##니의
천주
적당한
9000
보강
넘어갈
비닐
추이
쉽다
양의
누르고
##군다나
넘들
떠날
나옵니다
형평
##하는걸
##35
진도
전송
##체제
목에
되었을
파기
다행이다
그림자
악당
지대
당하
##ag
나와도
##느냐고
##체험
가문
통장
일러스트
##키의
머가
##판은
안락
신한은행
캘리포니아
대입
주목을
자격증
문이
살펴보면
이듬
2학년
하고싶
동지
##또한
대중교통
랜드
##무라
##져요
면담
깊게
사무총장
장교
박진
산으로
##코드
아쉽다
훌쩍
해임
속도로
##투어
##몰이
##DI
##ut
달리는
훔쳐
##췄다
김주
##되었다는
손톱
불사
명확히
##메이크
두근
인디
싸가지
##op
중년
##도전
눈앞에
##혹한
죄송합니다
돌아오는
일제히
심어
베댓들
역겨운
터널
찾지
천국
생기고
프랜차이즈
돈주고
맞습니다
의자
일본군
##미와
드립니다
경영자
건수
##담당
##파악
열릴
일간
생각좀
없도록
조율
약국
수염
##비한
##나지
열려
벌이고
편히
점에
안먹
주한미
등이다
방한
했네
좋다는
낳은
공격력
중부
##분열
차장
##화도
##카의
##변을
##뉴얼
적폐청산
##영화제
##함께
그땐
관통
위치에
학자
##집은
센스
한가지
한방에
손쉽
대상을
##다닌
시사회
##시위
##일베
##일텐데
끔찍한
아테
갔다가
소식이
책임자
지방자치
상관없
시간과
얻었다
##왔고
유타
간단히
인테리어
맞으면
귀엽고
##청구
##투를
##생의
하더라
있으면서
##시네요
폐업
2003
수만
맞네
박주
행동에
내년에
짓는
##테이너
각기
꿈이
차리
스토어
두뇌
묵묵
하지않
오십
작품으로
증거를
이곳에
선택할
분명한
좋음
들으면
세입
보는게
##무슨
이례
저기서
분배
##억원에
쉬고
말레이시아
2층
두꺼
소집
1분기
이랬
##같으면
드러냈
저런거
실수를
업뎃
장병
##27
할듯
웃으며
민족의
공화국
있는건
왕의
##구려
SF
##유를
냉장고
때문이
##고속도로
##체계
불신
독자들
##쳐먹고
##는대
시작할
##복이
사랑합니다
추진하고
처단
알레
무너지
##파티
##일때
세븐
디즈니
채소
올라가는
근거로
##매국
우대
군부
젠장
후에도
##임은
##입장
두들
오글
학회
##좋게
꼬마
당당히
별거
##45
있어서는
빛나는
말까지
잡으면
##가네
썸네
바뀌면
집은
##롭지
##위에서
세금은
어짜피
가능할
베네수엘라
조센
##포트
##보로
장모
할머니가
멍멍
일종
북측
고민을
유난
이듬해
심각하게
전의
##버드
있거나
시크
할리우드
비해서
뭐임
무방
역사는
유미
##한거야
1호
3학년
맞는거
##소연
때리
다채
사건으로
중앙일보
찔러
그다음에
현정부
획기
우는
호수
##건으로
없다며
낳고
미국으로
손꼽
부착
국민과
분노를
아르헨
##lose
매출이
경제학
부재
##방은
브라운
반격
##이란게
수많
먹고살
알기
활용할
착공
##xx
벗어난
였다
개발한
12시
안드로이드
##피는
빠는
사는게
원피스
##려니
바뀌는
고객의
계정
하청
에너지를
벽에
##미술
##텔레콤
벌어지
일상생활
해보고
늘어나고
새끼들이
밥먹
##내요
서울에서
화살
민경
차가운
##순환
날로
멋대로
생김
박지원
시원하게
아이콘
사람인데
도민
대가리가
밝혀진
후보로
터질
진행된다
사료
언론은
##요금
좋네요
성경
한발
다른사람
##수당
가람이
가즈아
흥미진
앞당
접어들
##스틴
일개
얻게
##게이
장을
##틀러
남다른
있다니
간만에
고객이
정동
영감
노르
##긴한데
##그렇
##됐다는
부부가
24시간
현장을
베댓은
제공하고
답했다
왜냐면
마당
일할
##들끼리
태워
생각하니
##고등학교
##권에서
##TS
남겼
##고사
소나
주제를
됐고
##했었는데
벌써부터
되길
잠정
##이기에
오징
보시
엉덩이
##저축
##건만
전임
우즈
전차
치워
4번
잇따
##란을
그곳에서
찾았다
김형
가담
김선
##인해
##이란다
경우에도
꿈꾸는
애도
##MA
자민
반면에
마왕
벗고
##베스트
소감을
##태는
올리면
안한
하이브리
겁니까
김혜
조선의
상자
나눌
일본도
않았습니다
몇백
펑펑
기업인
양호
##문서
겸손
해결책
##편으로
##수입
취한
시술
분해
색다른
용품
아니더라도
##유지
혹시나
파면
변함
잔인한
동영
한걸
##구도
지역은
경우를
보는거
##라와
##두리
##실의
아이스크
겪는
가맹점
수직
정치는
##경기에서
인과
다음달
##했더니
##다며
민낯
더럽고
품고
##치킨
이도
close
100년
기술력
착취
더군다나
인맥
국내에
연기도
활용한
헬기
##터의
뒤통수
##21
##급식
영화입니다
심장이
##스틱
##자찬
오셨
넘어가는
##주는게
의식을
영향이
숟가락
굶어
해적
81
##일수록
##들게
보도했다
분야에
##시원
##한거다
개무시
쌍둥이
부들부들
요한
##친구가
이르기까지
##억달러
궁금해서
##들로부터
끝으로
밀리
##께서는
이식
최하
##매김
이해안
벌이는
생각만
종일
##으라는
##권과
해외로
시바
##역사
차명
중국으로
낮춰
탈원전
FI
##서치
##우며
##화할
관계에
정신차려라
대금
사탕
아랑
##발의
##면적
##볼까
구하기
##있는게
##자라는
##하다면
구출
대주주
주역
##드만
##르며
끝을
거라는
##가에서
되기도
국민은행
##구장
오르고
##그룹은
일부를
기다려야
스미
이색
대수
저소득층
재계
컨텐츠
##구와
떠나는
장벽
초기에
어쩐지
주방
새키
길에
저절로
갓오
족속
마스크를
이어졌다
주된
1대
내놓고
갈등이
##절을
수년
비올레
##그렇게
그러던
##각이
너머
휘말
규모는
##발표
잡기
대두
연다
여론이
인문
자리매김
경쟁을
언젠가는
장려
편향
수감
도깨
가령
귀한
가지게
##견이
얘기다
남자들은
선조
##분석
건강을
##등한
좋아할
지성
##어울
각본
겪은
##린의
특이한
##쯤은
kt
고아
지검
깨알
무책임
##나와서
구워
최우수
실점
##저래
후보를
계획이
애는
사업은
하나요
##주었다
##비드
역할이
고요
정체를
##미야
##새끼가
매력적인
구걸
영화관
의상
있듯이
적화
도데체
이리저리
의정부
안전을
노력하는
이외에도
리스
자랑하는
박상
경찰관
##배로
맞지만
##걸리
꼬집
백악관
HP
##테랑
의대
그려졌다
특징이다
이렇게까지
기정
##무서
동결
##토의
거점
역량을
국정농단
##슈타
스티븐
종로구
##들에겐
가져야
속을
팬들이
차질
##능력을
스윙
나가면
지소미아
강정
있느냐
조짐
무개념
얘는
로버트
했다면
##잖은
내놔
##종교
복사
불참
증세
웃기고
표창장
##모의
시간의
비주얼
##99
돌아서
##외교
본회의
##플러
넉넉
뽑는
쉬는
주전
유희
수술을
##법과
메모리
##하자마자
명령을
면세점
요구를
문재인대통령
##되요
바이든
소득세
없구나
좌표
화제를
마음껏
##질환
법으로
중2
열렸
##나봐
전철
청와대는
책임지
모른다고
##덕에
##주신
##더라고
유공
##다이
열면
나누는
두는
보단
있는것
뜨고
사용하지
재개발
##라에
정상회담
웃을
생략
광고를
초점
바꿔야
##하는거냐
##치면서
배우들
넘어선
현상을
이어진다
필요도
전범
불확실
되겠다
자기도
타이거
##루는
경기에
##달고
접어
유진
LED
별도로
저렴한
추출
##물어
짓이
##라나
추산
출퇴근
당대표
##함의
아까운
머저리
안아
##원들이
비평
##반에
한해
진실이
로맨틱
이광
##기게
차로
##상관
대동
##갈이
뒤지
이면
도덕적
문화적
내세워
학업
설명이다
##집행
한국인이
근원
살인마
유능
버그
오프닝
##위해서
##쓰기
돈에
마나
즐거움
깨어나
##팔아
4천
어디가
##역에
박용
##유치
도출
이와중에
환자가
##라이더
자유로운
##졌으면
50년
꼴보기
모르지
2인
이름의
하러
##말라
어렵고
일본어
한라
식사를
자화자찬
##OP
사소한
외화
##광고
주워
김명
들어왔다
용감
지면
문제도
##벤처
교차
체력이
신곡
##한듯
모르겠는데
놓인
사악한
비결
어디갔
농사
똑같네
벤치
간절히
몰두
승용차
참석해
한겨레
삼십
##욱이
챙기는
단어가
뚫고
##았음
방패
팍팍
돌연
텍사
취해
##링을
상정
명성
오렌
둘의
##고있네
쳐들어
짓밟
동방
극한
##로에
메디
##부르크
##들이고
싸운
여러분은
버는
##령의
##맞은
채팅
대성
##병으로
남용
병원에서
속상
이럴때
난이도
펼쳤
한표
누구는
낙찰
그제
부산시
금강산
피자
##슨은
##들만의
재밌는데
종결
##인한
보여주기
##째로
주입
모나
기증
네이버에
생선
##묘하게
밀집
##인터
매력이
뒤에는
앨리스
##단으로
후유
겪어
##기인
동아리
죽을때
일가
##역에서
모두에게
진리
강성
숨기
주신
0으로
성공적으로
힘입어
싶었던
있는데요
아껴
##대지
영향력을
내의
속속
김무성
##실장
##병에
좀처럼
전해졌다
설정이
헬조선
노려
##바꾸
입장에선
탄탄한
송도
만났다
##피가
나타내는
면이
해온
##되었을
제보
##디는
##놈아
관계는
가져가
여기에서
주민들이
한중
##쪽에서
미처
리가
##플레이션
원인은
##넘이
##형에
진행하는
발주
##던거
나비
있는거지
환호
노하우
하루종일
뱀파이어
크리
절약
##제발
이뤘
벌여
때문인지
그런게
응용
##미에
보여줬
교양
찍을
책이
##일까요
시카
##려요
##변호
추잡
달라질
##추진
##중인데
핵무기
##문제를
엄중
확고
혈세
깔려
화보
알겠다
설명이
발상
섹스
자기네
##랍시고
막아야
문죄앙
##ur
안함
가관
과정에
야당이
##인지라
담배를
##듭니다
어릴때
##재인
폭넓
이루는
동급
다큐멘터리
해본
줄서
남들
##있지만
시스템이
반환
##완전
이뤄지지
설탕
절친
어른이
##그럼
불필요
인터뷰를
폐기물
##코올
피눈
##놓을
실사
생각하며
필드
황당
간다고
순간에
##되는게
15년
방송에
판결을
욕설
##어내
할것
##셨는데
묻자
두둔
##타워
3인
재미도
데서
용납
실전
외곽
고마워
##거렸다
##공화국
##드니
##됐지만
##하겠냐
이기고
인명
CP
##통제
St
분신
마산
유언
지칭
전광훈
리메이크
움직일
마늘
중증
망쳐
##안해
표현하는
생각하는데
직접적으로
높이고
##막고
CN
영화도
바람을
밤새
미국도
치즈
청정
해먹
길고
해리
시켜라
타격을
##음은
가짜뉴
자동으로
소재를
민간인
안그래도
구린
인천시
나을
한국전
##주의에
결론을
비자
캡쳐
##이건
강철
정신과
다죽
##론에
봐야지
##행동
상태에
남에게
불만이
진행한다
귀에
1층
##DB
##진다는
프로모
이어지고
쪽에
##개입
##하는거다
##자격
등극
##처먹
##테니까
국가는
보람
불태
##올린
똘똘
##이신
##감치
습득
증가한
관계로
맞아요
##롭다
너희가
##교도
##써서
지저
노래가
이것저
용도
일등
영세
##말아
##재료
##정지
구로
지긋
##해봐야
싶네
남편은
못지
화제가
새벽에
힘든데
병력
위험을
재밌고
잡힌
호르몬
##됐는데
럭키
##29
##란한
##전까지
노랑
##적으로도
우상
벌을
된거
변화에
##봅시다
상해
신세
남았다
숨진
돌봄
돕는
쿠폰
유지하는
이걸로
그리워
##있었는데
얼굴도
두기
##하듯이
회색
설명할
알겠는데
개인적
##일보는
인스타그램
견인
##학이
웃으면서
조직의
게임의
계곡
행동으로
여성을
뉴스를
김윤
티셔츠
못생긴
임의
##겨운
인성이
말했
##TO
행운
##견을
##바퀴
##하구나
메일
미리보
혼합
모르겠고
약자
했다가
장자연
입단
##팩트
사교육
익숙한
2시
폭격
남자친구
전반적으로
게시판
신년
##소수
표현의
미얀
성적이
##행위를
##적일
이치
##댕이
정체가
국고
사명
##학기
해준다
창고
필요하다는
그레
자처
##사장
라인업
외식
몇달
원화
명백한
다툼
답답한
똥을
##웠는데
##권으로
볼때
단백질
정의가
도주
입소
스트라이
이벤트를
필름
##청에
성찰
##수준이
클레
##드백
믿는다
팀은
쏟아져
일선
원본
##놓았다
악몽
됐는데
모습과
국회에
느껴지
코트
때보다
##들이지
학생들을
머리는
지었다
돌아가신
잉글랜드
조아
올라와
##나오면
기껏
발명
진작에
풀려
여러모로
무리가
조별
강구
남지
이력
설령
하도록
##약이
밑으로
권장
기세
100만원
책임은
끝났다
##해보면
말아라
머무
느끼지
인신
삼고
보았
일회
표현한
영화라고
##급을
##없게
에릭
##하단
##네트
취하고
그리스도
좋아한다
수두
##후의
비슷하다
##둘이
이데올로
5억
깨닫게
##시장을
내려와
산정
사라지는
복제
소리하고
저러고
기존에
싫다고
영주
메모
재밌어
말씀드
내용으로
##연기
카리스마
호칭
길은
자택
모습도
임영웅
##보러
##빈은
자립
일명
위태
고고
한개
면상
압축
단연
장기간
다하고
다각
프레이
소아
깨진
애완
사라졌다
이것들은
여성부
다리가
하나다
170
모았다
배우들이
안방
잠이
1년에
알겠지만
우왕
와이프
##재미
글자
안의
월화
윤지
본다고
노리는
##이나마
탐구
후예
실컷
올리지
장마
북한에서
진전
가늠
에반
##줍니다
대사를
조원
평상
정치적인
당했다
길러
분들도
무능력
군데
결단
잘보고
대인
##IS
배댓님
테니
저질렀
불가능하다
엔지니어
민주주의를
아픔을
##는지를
##찌감치
김구
생각해요
도널드
다를게
벗어날
##대결
합니까
너희들은
문화가
압수
기호
K리그
##오리
컨디션
생각했던
손자
담임
수업을
##방지
고치
하이브리드
교역
박종
왼손
약세
프롤로그
반기
크지
의미는
원이
안좋아
용기를
공소
이들에게
##에나
자신만의
국군
인체
방구석
시작된다
프로야구
일과
몹시
늘어나는
거래량
작년에
의전
가족들이
검거
퇴임
부정부
시한
들어야
교원
망한다
가다
기업들
똥싸
마르크
##될듯
푸드
오사카
정책에
죽어야
대의
##빠리
규탄
동성
베를린
청와대에
80년대
생각나네
단합
공조
3분기
자유대한민국
##오게
시간도
##령은
간지
막대
만원
추후
##공의
##디움
정치인이
##수아
삼성물
초창
초코
지친
##것같아요
기둥
이뤄졌
##걱정
등장했다
기피
만들려고
디젤
##다녔
소망
##다닐
추운
##수술
마른
##물과
예고편
산소
웃었다
범법
##구성
위험이
주작
민주당의
김문
경쟁이
이것저것
미치지
##다를
상원
시시
생겨서
이끈
폭주
##해달라고
조립
망치
무수
##위원회가
삼진
##였기
곱게
빠지는
사직
남편의
##이었다는
뉴질
##강을
##배댓
제시한
준다는
##년들
##주니
##했을까
##스도
사이로
OST
##보유
기업가
베뎃님
21세기
따돌
허브
웃음이
댓글조작
사탄
전통적인
ET
화웨이
시켜서
열광
어깨를
장거리
생각나는
줄곧
우리나라를
##84
조직을
번씩
##맙시다
민주당과
드론
부인이
번지
사다
적절히
넘긴
이간
편을
AB
활짝
실존
모기
8년
##등에
삽입
생각해도
원격
##잡은
형상
희귀
##초가
생각난다
주경
헤지
##주의가
##지도않
청와대에서
성을
##혐의
##ent
날카로운
베테랑
##아트
전인
소름끼
공식적으로
집행유예
##00만원
현기
그곳에
이해하는
학교가
재학
##명도
##후가
##ver
아래에
과다
정형
드문
적합한
실버
아내의
##심과
##셨네
속에서도
나타나고
해졌
류현진
김제동
통행
텍스트
염병
시험을
##문으로
이곳에서
노동부
캠퍼스
##결정
덧글
##겠구만
중기
공간이
몸은
써도
마이너
##비디오
일조
일어나고
##반도
##점의
##렬한
소방관
준비가
##자리를
양민지
##었죠
나뿐인가
625
도중에
전설의
교정
##아버지
못한다는
##국민이
고르
싸지
대학에
스물
소득주도
여유가
대피
모양이다
예능프로그램
나중에는
##인들을
척추
환장
##새가
그라
눈깔
특정한
오랜만
깔아
##만든
맛있
그해
불명
사양
호평
차원의
수위
실려
내버려
휴게
핵실험
애플리케이션
##다니고
일으키는
진지한
바짝
색히
##곳은
드라이브
번의
부럽다
선물을
실질적으로
##씨도
##강이
눈높
90년대
##33
캐릭터의
고맙다
나발
도끼
돌리고
##그룹의
우물
꿀잼
앤드
단단히
살자
##날을
세요
따지고
드러나는
없었을
##아이가
장래
조작질
목이
애들도
LCD
이런저런
외국어
안간다
자연의
코인
기안
##EC
서면
검열
##키퍼
##소시엄
미래는
의미하는
대갈
부모는
잠만
바뀌고
##부담
규모로
딸기
사외
공세
개는
알아라
얘기하는
짝이
효과는
입체
법치
일으킬
등록금
배트
##참여
통일부
시트
##입은
##겠느냐
건설사
##라는거
볼수있
##자랑
스티브
##슨이
첫사랑
##들이야
합리적
압도적인
목적은
권총
어필
배부
감성팔이
했음
위원장은
##페이스
##파괴
베이비
씨앗
파악하고
##학은
##이치
##탄핵
법인세
필연
마찰
폭스
##의료
학창
쟁점
이왕
모았
동경
##교는
보답
현실의
20분
머니
##저가
자세를
동포
가져온
묻어
##임에
되도
에코
플레이오프
캠핑
맡기
육상
반찬
SU
하고싶은
소울
앉은
대명
낙동강
결국엔
흔적
상을
이하의
염두에
조국과
진행되고
학생들에게
알코올
마운드
##과정에서
##찍고
주축
경제성장
##축제
##어린
니콜
##센터에서
지켜보고
모호
##셀러
줄은
지나치
##철은
##선택
항공사
##랭크
끊어
인식을
처참
삼가
잘해서
##광역시
정년
뛰어들
##작으로
옆집
주름
자체의
메이크업
나치
민주노총
##혁이
빠뜨
거래를
위상
##소서
파이팅
인물이다
##라면서
앞을
##싶어서
방송사
수상한
전쟁의
신용카드
눈은
모두들
##미네
손흥민
배분
당신도
저런게
디테일
황교안이
##창이
재정부
대부
얘네
참을
오일
##리얼
서정
없으면서
##어버린
당근
다이아몬
##그려
##하셨습니다
체인
##인트를
##림은
펼칠
##만원이
피어
인물로
도청
마신
편가
겹쳐
권력이
도무지
들어도
년이
혐의를
만만치
HD
인정하지
미혼
##비율
마녀사냥
허나
##있네요
##저스
##오늘
방통
데에
가격에
미술관
그만좀
불안한
생겼네
##이라고는
등락
GDP
OECD
유지할
준비하는
다니면서
프리미어
말장난
##왔습니다
자취
##공주
않은가
독일의
건강보험
지법
나보다
체류
##림의
1부
눈치를
유성
서초구
가세
아들의
각별
구하
직원들이
박근혜는
##그대로
퇴진
2001
져야
활동에
되는게
단원
대표의
##둬라
##과정을
암흑
사례를
적당
##아저
##최고
있었어요
대통령으로
경제에
별도의
안희
##해져서
성의
먹어야
주변에서
호흡을
지지합니다
세이
근혜
개발에
맞나
마법사
sns
법과
내어
입점
##목적
##시브
##이었을
##주시면
어떡해
##두로
##변이
휘발
뉴질랜드
줄었다
시절의
죽음에
평생을
비난을
쓸데없이
투신
개발을
리서치
##감염
바랄
구한
탈당
하는짓이
뜻으로
##시장은
쟤는
번에
아버지와
백제
고졸
매물
쟤네
대사관
제안을
저질러
우롱
##군으로
건담
시점에
##통합당
기자회견을
보물
트래
찌라시
해진
친구들과
패러다
인류의
싶다면
표본
일어나지
태권도
##은행의
추상
##ap
북핵
마찬가지다
##인원
국민들도
한은
하이닉스
##제일
컨테이너
보기에
안다고
적고
못난
메타
재앙아
함께하는
백종
##여대
마라톤
##이란걸
##신탁
받아라
장난감
반역
관장
세월이
##하냐고
임무를
숨쉬
사용하면
회의를
크라
공감이
노력하고
버린다
돌리는
싫고
초보
클린턴
블라
##으실
너네가
일체
하고는
##거워
파주
지역사회
날아가
공무원이
많으면
멋지
부임
동북아
웹툰으로
##표는
성인이
말처럼
##한걸
있었으며
뉴스에
손해배상
##무니
부정적
아름다움
해야할
통찰
섬세
눈에는
불렀다
##글로
##문제가
소니
안건
동대문
##공은
소감
신을
과반
눈감
말고는
하나라도
뿐이었다
친근
클래스
시민의
수없이
4만
우위
내신
블록체인
특히나
##노는
기부금
절벽
쾌적
가나
통신사
평론가
##곳을
지적이
루시
한편으로는
나타냈
비방
##토는
햇빛
##자리에서
받았던
##해야함
##주면서
##부턴
7개
##산으로
변이
인텔
입는
실적을
소액
##키를
다니엘
풀고
수월
고인의
호러
흉내
좌파들은
와닿
##보려고
정몽
있습니까
속옷
안하
있을때
미안해
나왔으면
떠오르는
##아파
불공정
나서야
이번화는
초고
##의회
녹화
해줘야
방출
살수
##LED
그늘
##봤습니다
##았지
어려웠
조약
스태프
안믿
##노가
##일드
##꼬박
장점이
##와이
돌아간다
쳐도
먹는다
##줄도
오른손
원하
##정도는
싶었는데
글쎄
##서와
##어와
경기는
메데이
BMW
##RA
악성
급하게
헤이
이유다
##침에
물고기
연내
받으면서
사랑하고
##으니깐
극단적인
##드네
읽은
해외에서
일괄
탁월한
감염자
편파
여경
이꼴
##외과
같은거
##답시고
종사자
난무
옆으로
잘도
350
산출
주당
##넘은
농림
폭파
##틀딱
##거부
흑백
나이를
지원이
발견한
##처음
시민들의
중딩
드레
법에
높아지고
컸다
개구리
나가야
##식과
##대왕
##77
전선
아진짜
비단
##버리지
2조
박람회
내란
인접
4강
세계적
아시아나
노블레스
옷이
##일지도
과천
자신감을
오로
연초
##었네요
SK텔레콤
도래
생방송
##위권
금감원
##바이러스
찾아와
양파
제의
에는
실물
팽팽
결말이
##커스
총선때
호전
##5천
사용되는
의아
##동으로
용돈
모자란
객관적으로
##셨습니다
책임질
무술
저가
나라다
서두
##팀을
##기에서
선의
##라는걸
가축
셔츠
kr
유비
제4
페북
수꼴
아니라서
경악
계엄
행성
가끔씩
##52
오케
##노릇
서방
샤오
##계로
밝혀졌다
보좌관
허술
##티가
##다르
##들이네
##테이션
빚을
사제
추정된다
묘한
##루의
변호인
전복
보행
환불
##졌지만
감이
나경원이
소각
아내를
판을
유예
업적
상상도
떨고
아니며
##한을
##터로
생명의
실어
기자는
운명을
부의
분단
##HO
민망
원수
경제의
강좌
글씨
밝혀라
웨이
여러번
##논리
맞았다
##졌어
##규제
##하니깐
소릴
줄이는
##받으면
청취
가족은
##화되고
가지가지
술집
##리온
##페미
넣는
모두의
아홉
울컥
네이버는
박멸
맺고
부리
생색
##경험
어벤
심상정
선명
##진다면
때를
8개
염색
드러낸
공범
한국당은
스무
##라구
먹거리
##36
아이디어를
기반을
3년간
인간아
##덩이
중국인들
##황을
터미널
논술
세웠다
보수는
피지
높였
좋겠네
역동
요시
##슨의
##사퇴
애인
카레
성동
##해줘야
의문이
이국
선보였
##현을
따름
놀이터
포용
나눴
빌어
저널
대답을
하던가
줄거리
미나
다뤄
유신
슬프다
##신도시
##오래
##승리
자이언
##자들에
##되길
빨개
##적폐
상하이
생각과
##위원회를
로써
엄마를
처녀
봅시다
##슬라
의무를
뜬금없이
##유는
극중
흰색
##붙어
폴란드
일찌감치
##렸네
##되었습니다
in
법제
원주
의원의
한몫
중세
세습
한국당이
##쪽이
대본
골키퍼
사업의
형식으로
##코스
##철수
하자고
기상청
없었지만
##회복
상처가
낡은
##캐릭터
물어뜯
##해볼
##줄알고
##러드
순간이
시청자들의
MV
매너
전투기
김장
과자
개표
반지
##파리
강서
농성
조건이
##깁니다
##아무
도지사
없었습니다
오스트리아
시선이
189
싸그리
영어로
무릎을
증거인
##없지만
문제점을
저놈
눈과
방관
임용
권한을
쏘아
유럽의
노리고
어렵지
딱봐도
괴롭히
우마
힙합
예전부터
10명
진정으로
시그
자손
수두룩
때와
누구에게
치를
인간과
까먹
그런건
그후
변하지
배우자
대가리에
올라왔
루머
선한
##나오고
이방
높였다
나오냐
##아닐
##맞는
동창
했기
##포가
혼인
결정했다
좋아하는데
##렸지만
정국
자가격리
##통은
총수
마무
아빠는
질의
극장에서
현명한
상시
싶고
이시국에
남들이
버틸
조승
마시는
정상적으로
시를
어디까지나
소스
과태
건물을
기간이
##해야합니다
##어에
##누가
듀얼
나간다
##PGA
##달이
인정할
최경
##사령
먹기
지오
##보네요
##수기
어렵다는
글은
##백만
이모양
하나님이
##렉션
벗어나지
여성은
크루즈
##셨나
##적이었다
컨소시엄
개정은
감독과
##분한
믿음이
1주일
##ri
솔직하게
꼼꼼히
군림
박재
저것들
##거가
##전도
숫자가
촬영을
가야지
호위
필요합니다
방법이다
영향으로
구조조정
영혼을
공동으로
달에
웹툰에서
가정을
코로나가
##줬는데
조민
작아
모르겠네요
차익
일본한테
중간중간
예술가
요소를
밤은
후문
시원한
##아니야
걷는
##00원
전전
##시청
##오염
투자하는
##죽을
님들아
대신에
찾아보
##주는거
말이냐
##통화
따라가
##하셔서
답답하다
1995년
##나라는
##LS
트라우마
상급
알렉산
처지
유난히
중소형
저출산
##대원
서준이
##적이라
않았으면
찾아내
않았을까
뚜껑
비스
해마다
복수를
여주가
서초동
101
못하겠
폭염
리드
올레
않으니
##에대한
##소비
##으시고
집구석
미친듯이
드라
4명
최민
환경이
정책은
근거가
다투
영상이
##시설을
저만
올려서
주민들의
강하다
모르면서
##같아요
말든
협상을
##반의
폴리
형태를
묻혀
자책
아니란
머물러
##측은
던지는
자발적으로
2대
시기를
회관
3루
##라이트
나누고
명동
초상
침착
##채권
남겼다
##무게
이익이
라크
이보다
혈관
##바가
인물을
구슬
피하
##인민
원칙을
패치
것이니
아주머니
경영진
사회생활
싸움이
##메디
블랙리스트
중형
메이저리그
전략적
야동
##하였습니다
금전
가면서
때리는
보여주었다
농장
프시
기용
방문해
또래
##에게만
재편
##서스
되었다는
늘릴
못했고
##지니
##랄한
##안고
모지리
살다가
유명하다
##이었으면
1990년대
일으켰
대학을
##하였으나
경찰의
틀딱들
딜러
평일
출제
1편
다친
##인증
##는구나
##내에서
##시키며
개인정보
손해를
책임지고
뜻하는
어렸
원주민
분홍
옆동네
##소와
자원봉사
해운대
##티비
실습
캐릭
임산
양이
##센티브
이번이
누른
CGV
네이버가
문화의
##코로나
##읍니다
##먹기
주권
경위
무언가를
중요하지
##데기
##것인가
타카
##놓으면
단골
배경이
그쳤다
해대
한시
북에
깔끔하게
기대감을
##주차
치안
서식
##상담
##GM
잉여
이야기도
편에
참여할
곳도
유병
##창을
때만
##검을
유방
온실
묵묵히
받았다고
##법도
역적
발령
옳고
##루스
독려
##좋아요
없어진
100여
달걀
##층은
과정은
여성들이
기억하고
떨어지면
##ro
시기가
그러는데
심판을
십자가
보건복지부
경과
들러
미네
춤추
원자재
3분
적으로
포함된
사거리
들어가고
흘려
##이라면서
##블리
총체
##화폐
##연하게
안사
눈앞
기만
급히
도가
인생은
##티아
이나라가
대화가
스트레스를
##위험
거둬
손잡
##었구나
##장군
끼어
이송
자연스러운
분명하다
어려움이
##플루
##기업의
주경이
임진왜
어린아이
##았으니
맞춰서
문재앙과
빅뱅
##훼손
##갔고
보궐
##심사
타율
국당
자연스레
드러내는
경신
사쿠
시가총
이나라는
지구를
아침부터
불리한
##버섯
섞여
어머니를
되야
증상이
5시
박영선
엄연히
##길로
##베뎃
연애혁명
##나옴
개관
한유
일단은
부러워
서울의
당이
별점이
기저
냉동
위험에
재차
치부
근절
교수님
##퓰리즘
신나게
낮게
##업이
##료가
보내야
남자와
##개선
전적으로
부상을
유관
##34
한껏
##독이
인센티브
##겠다며
##캠프
어땠
꾸미
영문
##직에
##신분
이러면서
잘했다
##이냐고
이렇듯
##례가
##회계
탱크
##났는데
UN
캐리
##글을
차마
구역질
우편
해변
##노래
##팀의
소수의
욕구
극대화
앵커
동쪽
포르투
오세훈
호감
루이스
연이
군산
원금
##았냐
우체
##귀를
##고있는데
박쥐
중요하다고
##밑에
5번
북조선
단행본
개수
학위
안녕하세요
##오니
30여
##준의
자유가
기정이
##노스
작고
미야
앞으로의
##싶은데
세이브
좋아해서
##놈들아
##나라에
강조하는
##DA
승무원
미래에셋
되잖아
##대교
그놈
이룩
상식이
불합
될수
소송을
학교는
법도
아닥
##인거지
상대방의
루이
아니기
아이템을
##란의
##학규
뿌듯
전국에
했을까
후보의
모자이크
목표는
##내라
무심
원동
##죄를
통째로
##차량
3배
거침
좌파는
##왕을
##조각
##소재
마련해
수분
스프링
아크
현실이다
##욕이
##질하는
발산
불펜
##만들고
현수
왔던
파도
##중을
마음도
날리
천벌
##ak
##병은
제목을
##김없이
없는지
##처가
말로는
##단체가
40년
풍요
멋있다
##보았다
절로
못가
지위를
##역할
간직
##블로
못한다고
한두번
##불이
##엇는데
레이더
증자
달라는
백지
##우주
##엔터테인먼트
참여해
일들을
원장은
질주
##할수도
걸어서
감사원
자폭
사살
정치하는
냐고
친구의
##은행이
##위원회의
축복
입맛에
진실은
정재
리조트
##녀는
##해보자
재검
진성
오른다
있단
있다는게
환경에
##만원에
주파
##까리
퍼포먼스
##한사람
어처구니
팔이
우세
문건
방을
지름
KTX
원시
제국의
하지도
관련해서
추악한
김유
옮긴
##해하는
##났네
전대
이득을
인생에
곡을
피고인
통하는
번째로
내역
제품의
결과로
집필
뿐이지
##무장
##근이
모시
흥미를
고액
검을
자림이가
신하
체질
##고루
##스톤
##뱅크
사세요
1990년
사용자
병신
사재
치사
없었다고
상품권
줘라
타운
사무소
##댄다
맑은
대하는
##항을
수산
순차
먹이
떠넘
먹어도
모르는데
필립
밀양
짜증난다
##같고
뭔가를
힘은
히틀러
있었다면
해피엔딩
##풍이
탈모
최고다
지식인
시작하면
소리로
마쳤다
한없이
감금
지부
##될지
##풍을
##중대
가깝다
뿐입니다
살리는
좌석
##혜택
AR
사람입니다
아이들과
뭐하고
빵터
조그만
조센징
펼치고
분석했다
전반적인
가능하게
1996년
운이
버프
##실점
##열에
의문을
##맘대로
##책으로
사신
##차이
교육이
온전히
민영화
디스크
취할
재혼
##기엔
엄벌
잘했다고
##해야하는
붙인
알지만
너그
정립
##머리를
우산
##퍼니
르노
본질을
움직임을
웃긴다
짜릿
##을때는
워터
트집
검출
치마
포기한
##설명
여대
업소
길어
대표적
연구개발
부끄러워
후진국
보너스
교육의
주장하고
EX
빈번
##할때는
변한
우기
조건으로
서운
나라와
좌파가
딸의
환승
자궁
##차기
진부
도착한
숙청
떨어져서
주희
##티를
##생각을
빠지게
위임
지음
항암
사망한
기사로
저조
못하도록
버티고
있기는
타인의
어둡
비중은
아니니까
쩐다
##전지
열렸다
텍사스
없었으면
달라지
관리하는
병을
##할꺼
실린
외국에서
##화장
아지
올라간
안일
행사에
정수기
남조선
##홈런
후려
##실히
비치
맞춤형
느린
받았고
##인간들
못알아
망하는
전정권
##라미
안간
##주는데
확진자가
다물
애쓴다
타인
연락을
농어
셀프
예전에는
팔레
##계획을
오토바이
누군가의
보낸다
쪽은
몸의
줘서
게스트
표현할
비판이
결정하는
특별법
사과하고
낙관
잘못은
더빙
감독을
간단하게
##여름
2의
보기에는
담당하는
군단
보증금
##신거
망언
지난번
##준호
##하기에는
비교할
서쪽
닫고
드레스
고만
먼가
민정수석
200만
기밀
매트
##관념
했었다
짜파구리
손절
안전하게
##햇는데
##나라의
흥미진진
오렌지
느낌은
제품은
평가했다
싸고
돌아가고
가파
무늬
하노
마지막컷
까발
##판의
대회에서
할까요
하진
숨은
준비한
바라보며
들었는데
윤총장
동호
환수
회동
##으시면
##냅니다
##공학
만화에
끄는
신제품
세계로
불이익
##세력이
토록
##제도를
하는거야
심지어는
그다음
사령관
것이죠
100억
##급적
유익
약탈
전망된다
##박을
내몰
한국으로
공정거래
##되도록
잡아야
정당화
병이
어느날
##야만
비밀을
신형
나오는거
남편을
##전용
시속
케이크
##강의
##투리
1초
특징을
이외의
상류
야스
선수들의
들통
항복
준비해
관건
입건
공산화
치른
노태
사지
떠오른
##싶네
모델로
적힌
모독
승차
오게
통계청
누구냐
할매
삶과
출구
##슬러
깨닫고
일어나서
개성공단
차는
미얀마
##기관의
보이콧
##한다며
현실과
도와줄
일이라고
방송국
##파에
배구
##수리
헤아
##OU
kg
앞의
되었던
여론을
서른
꼼짝
선착
할머니들
##55
가져오
##졌습니다
##건물
그닥
##지긋
개망
모르니
넘겼
##되니까
이루어지는
##센터를
극찬
##끼가
##만큼이나
발악을
해를
뚜렷한
##인상
어울리
산타
실드
태클
금연
일부는
##하시네
하천
이렇다
##EA
회생
간다는
##해주지
재활용
##도어
무기징
아가씨
집사
##전에서는
해지
수준은
##밀하게
예쁘고
재열이
천막
찌그러
웬만한
##는걸
제외하고는
꼬박꼬박
피해는
뮤직비디오
자각
선교
PS
##버려라
칼럼
장본
##날에
##품이
##었다가
사라져야
줬다
##미도
##차의
주영이가
남짓
우방
바라고
오름
##힘을
관객을
승부를
##할수있는
표방
지지자들
##영과
##하던가
##기술을
##빌리티
선거를
현정권
것임을
##협상
##전에는
##피니
##회의를
개구
아이스크림
##산업의
투기꾼
유투브
능가
멸종
한명이
KO
배추
해달라고
##만원으로
공격하는
하루가
자막
배우의
오마
##끈한
##우니
공감을
카카오톡
알리고
##때매
매직
연평균
정부도
우덜
걱정하는
대책이
##스텔
8강
벌어질
##면은
필살
##부채
고마운
본인들이
이브
##업무
섞인
##결에
성질
용사
균형을
##북한
희생자
것임
중요성을
드러난다
금수저
절라도
사회는
조사한
며느리
측이
한잔
귀신이
남성이
##레오
알지도
3시
진출을
고객을
절제
##보스
##들에서
##렸다는
##독립
정도에
가르치는
놀랐다
시국
3연
첨부터
이메일
알아차
말하는데
정유라
강북
지키지
교주
광신도
##할만한
##격으로
##려다가
장외
##크스
요구했다
아닌것
의구
불린다
묻은
단말기
쌓인
자질
한우
아프다
말의
발전에
##기대
모듈
인권을
대림
##인간이
##랭이
메카
오가
미성년자
자체에
사야
##책이
오죽하면
방식은
공정위
##뿐인
##지역에
걸그룹
##버림
1200
유착
스파이더
##일기
##대면
낙선
못하지
권영
행위는
##에서나
기업과
##위반
##오른
챔피언십
어이없는
##못할
파이터
개똥
손학규
##시대의
수단으로
보여줬다
회원국
한국도
거시
##두지
했었는데
격투
세력을
부류
위하는
광우병
에효
전국의
달러를
##전선
##한거고
##먹으면
랜덤
했어야
핵을
펼쳐진다
펼쳤다
차려라
것이나
아세
눈부
가루
살리기
아무말
한수
밤의
위해서라도
두들겨
않으면서
오우
오지네
비판했다
모를까
##셨네요
할텐데
데이비드
텔레비전
거에요
순으로
직원들
손수
티저
##스러울
바다에
짓은
뛰는
##가지가
##장치
필터
잃지
너희는
개돼지들이
##란시
##세기에
내용과
##사무소
그루
##결이
인해서
판매하는
충고
기에
신조
기업들은
있는데도
##주식
##주며
통합당
주변을
##나가고
통틀
쓰면서
지켰
미달
경인
##부도
하자는
스킬을
남발
유튜버
사진은
##기업이
공론
막혀
볼거리
쓰러져
이해하지
만들었
승점
##업뎃
##투스
쇄신
충당
이소
##제국
해봐야
눈썹
상권
아내는
##것네
##어디
2000년대
커진
몇일
##봉을
나쁜놈
주장은
박병
##남은
원로
손실을
못했지만
차리고
제도가
중대한
오이
골고루
승계
그외
##여러분
아담
줘도
##해지면
##했죠
입장이다
##세서
상륙
##급여
최소화
##사업에
전동
선관위
쳐먹고
활동이
태도가
브래
##역의
불어넣
아르헨티나
##반응
불안감
식탁
국한
주춤
피우
자행
##눌러
AT
효과적으로
1980년대
어리석
수명
밝힐
정치인들이
버림
세수
##왔다고
채취
##에이
프로모션
어느나라
외형
죽었
북구
기간에
있던데
데미지를
사업비
많으니
간과
급한
##교육청
##민과
완자
##혁은
트리플
##넘어
모셔
잘하면
탈을
##궁금
##영향
모델을
내부의
원더
타고난
무섭게
불러서
조석
코어
여기도
SC
입금
쉽고
##짓은
여당이
##타자
못하니
일정을
때린
온천
정진
박혀
영역을
팬들은
##생겼
아비
##돈은
걸린다
면모를
상대는
자하드
모시고
꾸려
##한것도
집단이
##해보고
##꺼이
양심도
복싱
슬쩍
추진하는
대형마트
하늘에서
벽을
타석
##바닥에
동거
로스쿨
가져올
것만으로도
독보
논리가
진한
##색히
유물
좌파들이
이르러
수동
치명적인
당의
들리
께서
지형
아내와
주인공을
좋아하지
말려
ICT
내세운
##커를
구형
데미지
4시
영수
모스크
##즈와
본토
유적
드럽게
##모르고
끝내고
다른건
주인공인
발자
##유리
주장한다
선수단
##엑스
전이
##노트
캐릭터로
누구의
사이를
다양하게
##렸으면
실시한
##사정
##모르는
판에
김창
규모를
논리로
하나에
##겨라
영리
뭐라도
##문화가
키보드
##만하다
시어머니
희대의
남해
못믿
지역이
##창에
해봤
페널
논란을
신원
후지
##질하고
이놈의
##하되
집값이
드나
죽이지
은하
킬러
자세로
관리자
한마디도
재임
xx
##화까지
군복
시합
내걸
##들어가
되죠
응징
포퓰리즘
타임스
패밀리
똘마니
스트리
선비
##집권
판단이
##법상
##보라고
##타이어
별개로
선거구
##베이션
가세요
##없나
재능을
선수는
거리에
때면
##녀의
보상을
그것에
밝히는
##이는데
다르고
시작되는
##마지막
20만
무한도전
횡단
아이에게
바로잡
브레이크
배럴
흥미로운
##기때문에
##자꾸
##써라
댓글도
하원
##외선
어드
운반
의사소
##신경
친화
요괴
##퍼런스
폭력을
PB
타깃
창설
이해관계
##포기
평점이
귀환
##장구
##지도록
지원하고
뒤져
상대방이
울트라
##37
##두를
석사
##발언
풍자
##조절
##화되어
사회적으로
님은
의도적으로
스스로가
문닫
##업계에
시련
학부
부정부패
소리에
찾아오
박명
이름만
의식이
나뭇
닮았다
상습
광주시
##것같아
그라운드
##파로
분노가
다신
돋보
만점
변질
##진에
##위원은
고서
##아와
안걸
요리를
##갈등
악수
기록이
봐주
필요없다
원거리
##카르
자산운용
##되었지만
방송된다
언행
되나요
공포영화
무리한
인문학
안쓰고
항만
문제와
제왕
전향
깨고
반문
##버거
태어나서
책의
엄정
천주교
대강
사학
##ID
EBS
종업원
비리가
사임
공허
##없으니
퍼부
##가능한
##지역의
산재
빠르고
##vs
방송인
쓰레기가
일제시대
기술은
네오
빠져서
##버려야
검사가
나온다고
조사해서
대학의
##론적
부작
##커플
해치
##하기까지
입문
좋겠
도시의
##것보다
##는디
연합회
떼어
빵빵
##당초
복선
갖는다
국제사회
사설
수사가
돌대가리
단위로
온전
소재가
지긋지긋
장동
보드
나팔
##엇다
망치고
작곡가
##가량
이창
##했어야
남아있는
카피
안무
때로
자유주의
도미
라스
현혹
오리온
날을
탈취
이상하다
만난다
##고리
기레기들
그때부터
버리지
신뢰가
정하
프랑스의
우량
환원
사회복지
##이유가
웨딩
##적이라는
바빠
무자
해볼
하인
전국민이
방위비
놀랄
##um
포함되어
##저러
신용등급
넓혀
문화예술
꿈도
웃어
##않는
이상해
헌법재판
창단
인종차별
뽀뽀
신고를
실업자
나오면서
그램
대담
##저우
않았기
##프라이
##함도
일련의
##살아
증가하고
##장인
캡틴
강수
이뤄지는
2분
설명하는
##없다는
##는거랑
오세요
김남
##셀로나
별명
남북한
하버드
넷플
신영
괴로워
양승
언제든지
빛의
사육
네이버에서
이루어지
드네요
오산
##판사
공부하고
제대
##레이터
불쌍해
##꼬리
신도시
남미
##이라는데
즐기고
재선
예견
이지경
시민이
##업에
급감
##생은
선점
새끼들은
볼수록
##개에
작살
애들아
##요일이
오늘부터
얼마전
##추가
인터넷에
벼슬
##보장
팔아먹
소나무
재앙이가
##움과
발송
기록하고
##부분이
2로
주제가
돌진
판사가
캐릭터는
시작하고
무궁
새끼야
가이
없나요
어쩌라고
##IT
##88
안을
개웃기네
이마
##ew
느냐는
ESG
##당했다
진행했다
##로와
각인
##삼아
위헌
주민들은
경희
황정
잊을
5회
지내는
##렸습니다
##안한
우동
카지노
에버
##오던
##창출
가드
원치
용량
##합의
##유산
##65
##기위해
다듬
##스킬
제품이
##지검
일깨
새우
해주면
의석
제공할
탐사
##연수
제조사
##없습니다
긍정적으로
여느
검찰총장
##em
쓰인다
##했네요
##액션
등재
마실
라시
누르는
펼친
잡히
갑옷
친문
이야기로
나니
##화에서는
달인
##매일
서슴
워킹
심리적
홍수
##릴라
보름
무능하고
##경제가
잡아먹
##주네
##몰라
감행
##때로
헝가리
##th
글구
콘셉트
소유자
다가오는
##자너
이외에
가리고
국제적
##야할
신학
이루어져
프렌
부끄럽다
내놨
3시간
합의를
리플
##같아서
김두
무적
##골프
주한미군
법대로
가뜩
기법
만하다
메탈
갖지
IPO
비만
확인한
활력
있는듯
삼성물산
규정하고
빨고
전념
신청을
112
이것들이
자극적인
검진
통수
##신저
친정
죄없는
탐욕
##의사
##집어
소리지
##백을
암울
##밥을
##까고
퍼센트
##만달러
떠올랐다
##그래서
##비슷
요구하고
조준
성공할
의견도
대위
호조
새기
피난
기체
달랐
##님아
갖췄
생산하는
4회
넘어섰
반일감정
직결
이제서야
보훈
60대
직전에
법령
심히
콜라보
양해
사라진다
샌드
비리를
할아버지가
##아닌가요
재킷
##계속
도깨비
견찰
재테크
##기억
가뭄
##지말자
##보상
##없을
공판
블로
##오롱
쓸쓸
작화
사표
##희를
정해져
안보면
##멋대로
기분나
흡사
1994년
대다수의
##생물
경부
광해
오기
각광
들었습니다
5명
위선자
특징은
얘기도
짐을
좋았던
##제철
떠드는
##란은
발렌
데려다
마일
##복합
##노의
다가가
벨기에
축산
돈과
실적이
여덟
쓰는데
##성향
##본데
마지막까지
버려야
이뤄지고
멋지게
있었나
실세
말야
탐색
다루고
##기계
뿐인데
일어났다
거덜
보라고
##해본
1990
시작했고
천문학
쉬워
부리는
가로막
처치
##라는데
##대서
예산안
스톤
자신에
프시케
정계
방과
여름철
거창
쿠베라
정신좀
센트
##죽이고
##가진
진행될
체제를
있음에도
떠났다
망치는
송금
그림체도
반항
근거를
축하드려요
미안하다
레저
확률로
의심이
거뒀다
종자
팔아서
##립시다
끼리끼리
무너져
##후군
##폐기
운영을
붙잡고
##십자
모릅니다
1화부터
##낭비
##티스
##전문가
급기야
영화였다
만들어라
은데
지나고
골라서
다녀온
치아
##줄게
보이네
출신으로
있어야지
그까
시즌1
근본적으로
##티콘
주면서
##내자
##보내고
올인
애정을
굴욕
봤으면
##좋고
해서는
번이나
가뜩이나
무기로
대출을
##당해서
##박혀
##주제에
더불당
김우
이땅
다정
##보건
썩을
동원이
역학
만료
빠지고
선량한
최태
속에는
몰라요
##폭망
달콤한
낯설
꼽히
섞어
있었는지
공부하는
민심을
이랑
한다면서
##탄이
어울리지
가급적
망한
시행령
잠잠
##부리
듣게
그전에
##시게
CF
맛집
내며
왕국
좋네
공무원들
트윈
어려서
##거같음
파이어
##소리는
최애
##려구
민사
##베스
##방해
올스타
##드림
중요하지만
명확한
안되서
##글이
늘리고
만찬
##카이
##대성
살인을
지나간
2세
가출
##숨에
보여서
일자리가
##94
차림
발생한다
##놔라
못하다
불로
아람
득실
직업을
성공적인
시카고
##인드
수익률
규범
##그레
##천이
금품
서기
한녀
데이터를
##평등
카운터
교통부
##해보지
태극기부대
##런트
않았다면
##다보면
파멸
갈색
##살에
삼성그룹
모양이
존엄
굴복
##그래도
멋지다
2분기
##버리네
DM
일인
스스로의
##역은
##IG
##한거냐
브랜
예쁘게
이해는
##양의
동점
특수한
##웠고
이케
욕심이
이야기하는
##입을
올라오는
##인식
느껴질
안되냐
공장을
환자의
비꼬
김씨
우크라
이네
드라마를
로고
공격이
여기서는
견뎌
생명이
규제를
최저시
참여를
남는다
쿠키를
집도
극장판
엘지
##00여
##듣는
말도안되는
사옥
이것들
루트
알려주는
부지런
##나라를
무너진
증거인멸
시궁
##혁신
쪽에서
작정
보면은
언론에서
사이즈
금융감독
##찮은
광산
모친
승강
보지도
게임에
면도
##보의
썸네일
효과적인
스노
특례
특급
터지는
문제지만
꽃을
##신용
중국산
에르
싶어도
메이커
저택
잊어버
애쓰
존잘
##공연
##시픽
피드백
드립이
자작
오징어
우리들의
올라서
##딩스
부스
과학기술
관습
찾아야
##아픈
##갔다가
태세
##부정
지원해
관련하여
이야기의
되네요
미팅
가증
16강
일어서
##이들이
속은
##통의
어마어마한
##귀여
라이온
선대
장중
문빠들
기한
요금제
어용
##oo
프로그램이
몸무게
##없어요
##년아
##ul
타다
엄마한테
자살을
군의
몰리
음악이
제작한
5대
넣어서
이병헌
지문
답변을
냄비
없이는
AS
##했구나
하다하다
타결
회식
방면
물어보
차원이
바꿔서
블룸
##31
정식으로
##여겨
##츠가
칼라
성지
김미
위주의
수상자
국민청원
##네임
김종인
##AR
남자도
##뭐야
에이즈
곤충
주리가
응답자
보이게
##용의
##벗고
살린
쓰나
빠져나가
이같이
수거
첨가
씹어
베풀
유교
기꺼이
낮다
##야의
신천지는
고심
스토리에
무소속
엄격한
##햇다
망하고
차지한
##75
몇천
##불을
한인
학생은
MP
침공
민주당에
방법도
##됨에
기숙사
치과
카트
공사를
##온이
음식물
장편
방문한
##데레
##부부
정주
##맨의
자르
##세금
뜻은
잃게
##덕이
먹었다
##가가치
제시했다
6천
우연이
선수를
방울
지쳐
##곳으로
밸런스
거래일
그런말
벚꽃
꺼지
넣을
특기
대역
되기를
##베이스
기운이
하면서도
흔들어
서울시장
언제쯤
있거든요
공표
징수
돌아간
조회수
무의미
입각
동요
1980년
어버
인위
개선을
사기를
이야기다
##이었기
금액을
PE
##장비
남구
돼지고
오신
##주라
##될까
복권
웃김
국외
전반에
트럼프는
악마의
구구
생각된다
어렵다고
##거잖아
##사다
중국도
가지를
불필요한
고독
것이냐
이쁘다
자현이
##양은
사춘
지구의
##AS
쿠데타
오키
앞에서는
유키
서열
눈도
##티어
##도도
조언을
CBS
가문의
사이드
선호하는
마련이다
무분별
특징이
전멸
##기보다
##정도면
중요하게
리모
챙기고
##대며
넘버
빠졌다
바르셀로나
##놈을
여는
우라
아팠
전력을
인조
평이
민감한
MVP
내서
인간도
혼란을
##것과
숙제
인삼
기가막
견딜
통쾌
지역으로
##오르는
늘어났다
논평
전투를
오승
속이고
끝장
지겹
주목된다
변하는
실리콘
질러
민자
시흥
이야기에
부역
이선
기관총
영하
황태
##주인공
##새끼들이
##무새
##디에
못하는데
잠수함
도피
##부장관
##다니며
코오롱
공매도
##할수록
##하기전에
전세계가
김부
##별이
##결혼
많기
##말의
서사
집중적으로
글쓴
##회관
##세끼
알뜰
잘사는
도를
중국어
##게는
##거리면서
##디의
교보
##제작
과학자
지역감정
##사관
BB
합계
꼴을
줄도
스리
굳건
몰카
구하는
마틴
##빨갱
콘크
##여자가
##회와
능동
높았다
##토론
##개국
##티는
##마일
이넘
3점
쓰러뜨
할게
박힌
##훈의
일입니다
스토커
의도를
##여친
문제라고
활용하는
밟고
앞잡이
안중에도
##ce
있겠냐
발생했다
맘이
전쟁에
결집
자수
현충
이루어질
##인력
대통령에
파렴치한
장현
벌였
산업단지
톡톡히
방에서
핵심은
발전이
뽑을
1사
뭔소리
##00억
##으리라
레지
괜찮다
원산
20세기
구성되어
서로가
말이나
##마시고
열기
최강의
성균
##미사일
정전
이러는
댓글달
넘이
떡볶
싶어하는
##원인
대표를
##좀해라
걷고
매운
조사하고
사극
##주나
##시킴
울려
조류
##황이
호박
거둘
카타르
임진왜란
편안한
지체
##저는
##수출
포르투갈
저능아
자금이
게임은
심쿵
##대변인
시일
뭐든지
들리는
허벅
##줍시다
##없냐
연산
##러브
까불
사채
궁금한
##안돼
흐뭇
곳곳에서
아쿠
##넘게
시절부터
맞물려
##처먹고
##잔데
##란시스코
주유소
##됐으며
권리가
책임감
오마이
연기력
총선에
다음에는
##국장
화산
벌어지고
감빵
선보여
김정숙
##되도
OOO아
현대건설
비선
저작권
번개
자들
##위와
위함
세울
##거늘
파운드
증설
횟수
##부탁
말미
거느
활기
##거로
이용하고
모방
3분의
정찰
더러워
##사들은
놀라게
가는게
휴일
당신들은
VIP
##39
맞벌이
그도
광범위
##만원의
프레스
토니
지날
##만족
##디를
탄도
매출을
독창
하룻
기업들의
천하
와라
정류
비어
하늘의
직선
LS
제2차
##수요
문제야
##불리
못하냐
명은
미모
##인양
개빡
##나이티
전까지는
멀어
나서고
막론
##66
##앉아
##키아
쓰인
논리를
##들이는
교회가
어벤져
바나나
##손가락
총리가
이런말
교수의
높이기
마법을
행위가
장단
사이클
가둬
##분들도
도매
저희는
우두
할지라도
활발한
아재
##보임
내려온
공주영이
매출은
놓아
좋았는데
##찬이
상상을
못배
##센스
보이나
늘리는
빌리
지금보다
던지고
부자가
##사이에
##기관이
##벨트
##맞아
소설가
반성하고
유격
소리만
##그린
##ab
부려
반대를
고기를
어딘가
카메라를
넘길
##인베스트
나락
갑시다
부모를
직업이
실로
펼치는
YG
전국적으로
생각안
정이
##링이
철폐
목숨걸고
궁금하네
밝혀졌
##진거
여태까지
파인
생산량
못했을
느낌이다
개이
걸었다
상황에서도
컷에
싱크
하태
문희
장남
잘못하면
적에게
##료는
안봐도
##38
광양
손님이
이장
욕은
##탈출
주의를
품격
시아
키즈
##박살
그랬는데
만회
##츠는
모텔
정상이
말씀하신
##거려
저마다
##VD
장제원
##변화
바닥을
노조가
망상
녹아
대하
자면
중에서는
사람이라고
거잖아
납니다
##근로
동아일보
담담
##2000
##나보다
분석을
##면허
##임대
##쿼터
김건
설명해
##표현
상표
알아보고
##병의
중요한건
페미니스트
닮아
보여주며
아시는
놓치지
연도
자정
자초
홍대
승격
높다고
손쉽게
작업이
##이었어요
단숨에
##오로
##이해
##GA
스러
힘들다고
스텔
70년
##중학교
노래방
사정을
##증에
테니까
관심과
개신교
##주년을
해결하기
나뉜
##할래
##더가
하락세
출연했다
전망했다
김은
##십쇼
기술의
활동하고
##값은
스페이스
왔다갔다
##진다고
남자애
##효율
##거라는
재열
##주냐
종교적
내려놓
공산국가
일인데
##추천
이목
출력
산학
왕복
가혹
명명
##진행
옥수수
외계인
도마
연체
내년도
과격
거기다가
거미
빼고는
트레이드
##치는데
도요타
지지층
##맛이
##많아
##내리
##껀데
하겠지만
김세
조심스럽게
검은색
아저씨가
속하는
결정할
정의는
해질
달빛
버섯은
보내라
여러분들
의미의
기자들
내세우
쓰던
정책으로
청주시
민경욱
##루미
##사자
프로젝트를
위키
##같지
##문제는
참여했다
##투수
대응을
핑계로
속아
야근
내재
시킨다
##신으로
최성
드리고
일본여행
건강하게
페어
##쪽은
들었던
생각하나
빨갱이들이
여타
아시아나항공
뒤질
밀착
##석과
보이기
5년간
시즌을
납입
연기에
유보
SUV
건축물
초반부터
올라간다
중앙은행
수출입
빅토
##에너지
안하지
아니잖아요
##환의
깨끗하게
##받았
퍼주고
밖의
피에
매개
띄워
복면
눈여겨
포상
##금속
##DS
런닝
판문
싶지만
말안
생활에
##꼬라지
가미
카즈
나요
행동하는
너만
조용한
짖어
언급이
디아
나열
빨강
연승
이슈가
사천
##누나
##os
지나가던
다음편
KCC
불과한
##음식
생체
최장
##쯤에
##공사는
헤매
2기
세계는
분포
노린
대표로
먹어서
##네스
교감
유선
##결제
##올리
한판
당선인
지을
산악
##협정
높다는
CS
##소개
반칙
힘없는
##총장이
경제적으로
거든
나나
않겠다
정체성을
박은
##객이
파급
학생의
있지요
선생이
어디다
출신인
양현
인물은
##드래곤
간다르바
이성을
아쉬워
데일리
국가적
찾아가는
아끼지
인간들아
남편과
걱정을
삼성증권
사치
살았던
사냐
요인이
##되야
되려
둘이서
##사라
경제도
올드
공격에
필요성을
##씩이나
##데이터
##받기
대가로
##예정
말아먹고
총력
##한거임
##취업
낙하산
503
1998
띄는
ETF
안볼
그림은
안되니
여주인공
후안
즈음
공과
쿠바
##부르
##플래
감격
언니가
숭배
탈세
##이유는
움직임이
구조가
##바탕
서로에게
골로
##해결
업체가
영혼이
##뜨고
멋있
##할줄
105
한숨을
관대
혀를
바래
키움
발견하고
##봤어요
번갈
##계층
언론인
사상을
뽑아서
##센터는
##전시
죽여야
국민들한테
##맞추
##떻게
안중
미드필
##통상
배에
없어지
선택하는
보니깐
아쉬움이
아닠
선글
VS
구급
번쩍
올림
막지
##인정
조직이
남주가
못합니다
타점
##회사의
세금도
평을
##메가
보이면
임마
##거릴
##야가
2연
라이언
드라이버
이언주
시네
제치고
##주사
든지
EM
관리가
지루한
생활비
맡게
좀만
데도
##대행
재빨리
맞붙
저정도면
나름의
이번주
맞죠
과열
##살다
##징금
묶여
##강간
생활이
코르
보나
오타쿠
맥도
연패
산업은행
##딩이
자체도
선원
예정인
##치는거
소비자가
중얼
말리
보자마자
있겠
불출
끝판
##광이
놈의
퇴장
수험생
쳐서
마포구
##하지마세요
##록을
관내
도적
의정
방식의
##파탄
인물들이
백퍼
무례
코레
달리고
해결을
풍성
다운로드
##홀에서
소름이
연출이
1시
문과
내구
놓았다
##작의
충실히
테니스
과학적
##두가
##한다는게
##인스
덕후
본인들
알았네
##당한다
자들은
보기싫
##업소
있었기에
##났다고
포기하지
언론을
##것이지
년간
저지르고
##경제를
대비해
대우건설
서장
다룰
인정을
10만원
##절이
##통과
전승
환경에서
다르다고
지시를
부당한
내륙
정리해
순위가
과태료
해경
공모전
덴마크
푸틴
저러면
##된게
나게
인플레이션
##지랄
##마루
홈런을
납세
건다
교회의
비난하는
##아닌데
##급은
여서
힘의
##스타인
피눈물
##44
하늘에
이곳은
에디
서포
붙이고
##이었음
이제까지
##매를
들게
인간으로
##마드
실체를
##것임
대포
##되는지
있었지
주말에
미끄러
복붙
당을
구직
이건희
군대는
관제
엑스트라
나타냈다
삼국지
기어나
방으로
늙은이
어린애
##션이
문어벙
들어오면
##등으로
단언
##전형
혼돈
몰랐던
깨우
고양시
재래
선택이
##번을
색이
처먹고
마스크도
지식이
유럽연합
한국에서는
누군가를
4개월
학계
자식은
속출
##igh
##번은
##갈때
시뮬
##들인데
브레
수평
##셔야죠
것과는
##린데
카사
제5
시설을
##다의
흘리
레즈
알릴
##트릭
지원할
5배
매화
##안으로
##무사
##95
엄지
파이널
##베리
##다시피
투자한
회고
##귀엽
받아들이는
##형님
월간
생각하
##상가
술에
제사
##왔지만
종교의
명회
##내면서
권익
모자를
걸렸다
끝나지
앉혀
##GB
환생
김호
4번째
360
중심이
절단
대안을
마련했다
##동과
대통령에게
존재로
##앨범
시민들
확인해
프로듀서
센서
프로토
부칸
개체
성장세
##세우
그랬다
대검
국악
##죄가
호도
지녔
끝난다
성장률
악재
제정신이
발이
부르며
아는게
배드
##원칙
빨간색
##극장
Ch
선지
중심에
공격수
보호를
땅이
스타디움
골수
되는거지
범인이
남동생
프로그램에
맞춤법
##제약
가정의
##그룹이
##론과
존슨
##이었어
올라갔
##답다
##치자
팬덤
정의의
##준다는
베댓아
장이
아니냐고
공개됐다
살았다
짧아
성향이
키웠
##천군
##주의는
유나이티
##ter
##무진
왔다고
연중
##오라
전망이
수료
의심을
대표이
살인사건
OOO들아
##자들과
부엌
바리
총살
것이지만
##장사
보이냐
감정에
이즈
너와
##인구
롯데마트
##밴드
심야
미분양
잔치
3초
보수를
간식
##단말
##보안
결산
비관
함으로써
##나는데
가치는
짜장면
알고있
##하였는데
국영
##회로
긴장감을
코코
누리고
해답
대상은
이쁘고
참담
DC
사용하여
에프
로열
분석이다
사람마다
쿵쾅
커졌
이거보고
섭외
소득이
WHO
인간에게
악취
##영화가
언급했다
평가하는
창당
##였는지
컬렉션
할당
바가지
수구꼴통
맺은
신차
토트
들린다
이효
떠올랐
이따위
몽땅
거래가
##등장
스탈
조두
정문
있을텐데
털어놓
객관적인
난감
##상태가
세인트
##맞춰
김진태
망명
김소
두드
없어질
##셨던
적다
구조조
정세균
말씀이
만드네
살아있
##콘서
설명하고
##인건가
인재를
##츠의
일부가
활동하는
##모니
연구원은
##스트가
좋아해
나오나
교육과
갈비
저런걸
돌릴
정정
터무니
##산다
안쪽
SW
좌파의
뒷통수
##그가
물의
감싸고
기하
아모
합창
골을
생각됩니다
빨래
이강
4위
##일만
테이프
도시를
붙어서
필자
한민족
오지랖
OLED
설렘
급급
싫어요족
내포
##수업
서울로
생각이다
선정된
저에게
##피셜
나폴
명목으로
최선의
아파트를
2년간
군은
전문의
더듬어
보건소
세게
불려
사고방
##구조를
잠재적
송파구
이런일이
표적
등기
인물의
주위를
김성태
않네요
일년
빨갱이가
피카
##녀를
##하시네요
심하다
##바꿈
흥국
장기적으로
불안해
##메라
##음의
스며
기고
놈을
##강점
개독
인피니
바뀐다
살리고
##자료를
초라
국회가
종속
##귀신
예상되는
당뇨병
이토록
나오니
강용
명예훼손
되겠지
후의
뻔뻔하게
나라꼴이
좋은거
외치고
알렸다
취급을
익명
라헬이
자식들이
##모습을
행사가
시작부터
지방의
고질
참석했다
##룡이
호기심
않던
베타
만화의
실험을
규정을
##애애
논의를
만드는데
갔을
##류는
교회는