{"version":"1.0","truncation":null,"padding":null,"added_tokens":[{"id":0,"special":true,"content":"<s>","single_word":false,"lstrip":false,"rstrip":false,"normalized":false},{"id":1,"special":true,"content":"<pad>","single_word":false,"lstrip":false,"rstrip":false,"normalized":false},{"id":2,"special":true,"content":"</s>","single_word":false,"lstrip":false,"rstrip":false,"normalized":false},{"id":3,"special":true,"content":"<unk>","single_word":false,"lstrip":false,"rstrip":false,"normalized":false},{"id":4,"special":true,"content":"<mask>","single_word":false,"lstrip":false,"rstrip":false,"normalized":false},{"id":5,"special":true,"content":"[UNK0]","single_word":false,"lstrip":false,"rstrip":false,"normalized":false},{"id":6,"special":true,"content":"[UNK1]","single_word":false,"lstrip":false,"rstrip":false,"normalized":false},{"id":7,"special":true,"content":"[UNK2]","single_word":false,"lstrip":false,"rstrip":false,"normalized":false},{"id":8,"special":true,"content":"[UNK3]","single_word":false,"lstrip":false,"rstrip":false,"normalized":false},{"id":9,"special":true,"content":"[UNK4]","single_word":false,"lstrip":false,"rstrip":false,"normalized":false},{"id":10,"special":true,"content":"[UNK5]","single_word":false,"lstrip":false,"rstrip":false,"normalized":false},{"id":11,"special":true,"content":"[UNK6]","single_word":false,"lstrip":false,"rstrip":false,"normalized":false},{"id":12,"special":true,"content":"[UNK7]","single_word":false,"lstrip":false,"rstrip":false,"normalized":false},{"id":13,"special":true,"content":"[UNK8]","single_word":false,"lstrip":false,"rstrip":false,"normalized":false},{"id":14,"special":true,"content":"[UNK9]","single_word":false,"lstrip":false,"rstrip":false,"normalized":false},{"id":15,"special":true,"content":"[unused0]","single_word":false,"lstrip":false,"rstrip":false,"normalized":false},{"id":16,"special":true,"content":"[unused1]","single_word":false,"lstrip":false,"rstrip":false,"normalized":false},{"id":17,"special":true,"content":"[unused2]","single_word":false,"lstrip":false,"rstrip":false,"normalized":false},{"id":18,"special":true,"content":"[unused3]","single_word":false,"lstrip":false,"rstrip":false,"normalized":false},{"id":19,"special":true,"content":"[unused4]","single_word":false,"lstrip":false,"rstrip":false,"normalized":false},{"id":20,"special":true,"content":"[unused5]","single_word":false,"lstrip":false,"rstrip":false,"normalized":false},{"id":21,"special":true,"content":"[unused6]","single_word":false,"lstrip":false,"rstrip":false,"normalized":false},{"id":22,"special":true,"content":"[unused7]","single_word":false,"lstrip":false,"rstrip":false,"normalized":false},{"id":23,"special":true,"content":"[unused8]","single_word":false,"lstrip":false,"rstrip":false,"normalized":false},{"id":24,"special":true,"content":"[unused9]","single_word":false,"lstrip":false,"rstrip":false,"normalized":false},{"id":25,"special":true,"content":"[unused10]","single_word":false,"lstrip":false,"rstrip":false,"normalized":false},{"id":26,"special":true,"content":"[unused11]","single_word":false,"lstrip":false,"rstrip":false,"normalized":false},{"id":27,"special":true,"content":"[unused12]","single_word":false,"lstrip":false,"rstrip":false,"normalized":false},{"id":28,"special":true,"content":"[unused13]","single_word":false,"lstrip":false,"rstrip":false,"normalized":false},{"id":29,"special":true,"content":"[unused14]","single_word":false,"lstrip":false,"rstrip":false,"normalized":false},{"id":30,"special":true,"content":"[unused15]","single_word":false,"lstrip":false,"rstrip":false,"normalized":false},{"id":31,"special":true,"content":"[unused16]","single_word":false,"lstrip":false,"rstrip":false,"normalized":false},{"id":32,"special":true,"content":"[unused17]","single_word":false,"lstrip":false,"rstrip":false,"normalized":false},{"id":33,"special":true,"content":"[unused18]","single_word":false,"lstrip":false,"rstrip":false,"normalized":false},{"id":34,"special":true,"content":"[unused19]","single_word":false,"lstrip":false,"rstrip":false,"normalized":false},{"id":35,"special":true,"content":"[unused20]","single_word":false,"lstrip":false,"rstrip":false,"normalized":false},{"id":36,"special":true,"content":"[unused21]","single_word":false,"lstrip":false,"rstrip":false,"normalized":false},{"id":37,"special":true,"content":"[unused22]","single_word":false,"lstrip":false,"rstrip":false,"normalized":false},{"id":38,"special":true,"content":"[unused23]","single_word":false,"lstrip":false,"rstrip":false,"normalized":false},{"id":39,"special":true,"content":"[unused24]","single_word":false,"lstrip":false,"rstrip":false,"normalized":false},{"id":40,"special":true,"content":"[unused25]","single_word":false,"lstrip":false,"rstrip":false,"normalized":false},{"id":41,"special":true,"content":"[unused26]","single_word":false,"lstrip":false,"rstrip":false,"normalized":false},{"id":42,"special":true,"content":"[unused27]","single_word":false,"lstrip":false,"rstrip":false,"normalized":false},{"id":43,"special":true,"content":"[unused28]","single_word":false,"lstrip":false,"rstrip":false,"normalized":false},{"id":44,"special":true,"content":"[unused29]","single_word":false,"lstrip":false,"rstrip":false,"normalized":false},{"id":45,"special":true,"content":"[unused30]","single_word":false,"lstrip":false,"rstrip":false,"normalized":false},{"id":46,"special":true,"content":"[unused31]","single_word":false,"lstrip":false,"rstrip":false,"normalized":false},{"id":47,"special":true,"content":"[unused32]","single_word":false,"lstrip":false,"rstrip":false,"normalized":false},{"id":48,"special":true,"content":"[unused33]","single_word":false,"lstrip":false,"rstrip":false,"normalized":false},{"id":49,"special":true,"content":"[unused34]","single_word":false,"lstrip":false,"rstrip":false,"normalized":false},{"id":50,"special":true,"content":"[unused35]","single_word":false,"lstrip":false,"rstrip":false,"normalized":false},{"id":51,"special":true,"content":"[unused36]","single_word":false,"lstrip":false,"rstrip":false,"normalized":false},{"id":52,"special":true,"content":"[unused37]","single_word":false,"lstrip":false,"rstrip":false,"normalized":false},{"id":53,"special":true,"content":"[unused38]","single_word":false,"lstrip":false,"rstrip":false,"normalized":false},{"id":54,"special":true,"content":"[unused39]","single_word":false,"lstrip":false,"rstrip":false,"normalized":false},{"id":55,"special":true,"content":"[unused40]","single_word":false,"lstrip":false,"rstrip":false,"normalized":false},{"id":56,"special":true,"content":"[unused41]","single_word":false,"lstrip":false,"rstrip":false,"normalized":false},{"id":57,"special":true,"content":"[unused42]","single_word":false,"lstrip":false,"rstrip":false,"normalized":false},{"id":58,"special":true,"content":"[unused43]","single_word":false,"lstrip":false,"rstrip":false,"normalized":false},{"id":59,"special":true,"content":"[unused44]","single_word":false,"lstrip":false,"rstrip":false,"normalized":false},{"id":60,"special":true,"content":"[unused45]","single_word":false,"lstrip":false,"rstrip":false,"normalized":false},{"id":61,"special":true,"content":"[unused46]","single_word":false,"lstrip":false,"rstrip":false,"normalized":false},{"id":62,"special":true,"content":"[unused47]","single_word":false,"lstrip":false,"rstrip":false,"normalized":false},{"id":63,"special":true,"content":"[unused48]","single_word":false,"lstrip":false,"rstrip":false,"normalized":false},{"id":64,"special":true,"content":"[unused49]","single_word":false,"lstrip":false,"rstrip":false,"normalized":false},{"id":65,"special":true,"content":"[unused50]","single_word":false,"lstrip":false,"rstrip":false,"normalized":false},{"id":66,"special":true,"content":"[unused51]","single_word":false,"lstrip":false,"rstrip":false,"normalized":false},{"id":67,"special":true,"content":"[unused52]","single_word":false,"lstrip":false,"rstrip":false,"normalized":false},{"id":68,"special":true,"content":"[unused53]","single_word":false,"lstrip":false,"rstrip":false,"normalized":false},{"id":69,"special":true,"content":"[unused54]","single_word":false,"lstrip":false,"rstrip":false,"normalized":false},{"id":70,"special":true,"content":"[unused55]","single_word":false,"lstrip":false,"rstrip":false,"normalized":false},{"id":71,"special":true,"content":"[unused56]","single_word":false,"lstrip":false,"rstrip":false,"normalized":false},{"id":72,"special":true,"content":"[unused57]","single_word":false,"lstrip":false,"rstrip":false,"normalized":false},{"id":73,"special":true,"content":"[unused58]","single_word":false,"lstrip":false,"rstrip":false,"normalized":false},{"id":74,"special":true,"content":"[unused59]","single_word":false,"lstrip":false,"rstrip":false,"normalized":false},{"id":75,"special":true,"content":"[unused60]","single_word":false,"lstrip":false,"rstrip":false,"normalized":false},{"id":76,"special":true,"content":"[unused61]","single_word":false,"lstrip":false,"rstrip":false,"normalized":false},{"id":77,"special":true,"content":"[unused62]","single_word":false,"lstrip":false,"rstrip":false,"normalized":false},{"id":78,"special":true,"content":"[unused63]","single_word":false,"lstrip":false,"rstrip":false,"normalized":false},{"id":79,"special":true,"content":"[unused64]","single_word":false,"lstrip":false,"rstrip":false,"normalized":false},{"id":80,"special":true,"content":"[unused65]","single_word":false,"lstrip":false,"rstrip":false,"normalized":false},{"id":81,"special":true,"content":"[unused66]","single_word":false,"lstrip":false,"rstrip":false,"normalized":false},{"id":82,"special":true,"content":"[unused67]","single_word":false,"lstrip":false,"rstrip":false,"normalized":false},{"id":83,"special":true,"content":"[unused68]","single_word":false,"lstrip":false,"rstrip":false,"normalized":false},{"id":84,"special":true,"content":"[unused69]","single_word":false,"lstrip":false,"rstrip":false,"normalized":false},{"id":85,"special":true,"content":"[unused70]","single_word":false,"lstrip":false,"rstrip":false,"normalized":false},{"id":86,"special":true,"content":"[unused71]","single_word":false,"lstrip":false,"rstrip":false,"normalized":false},{"id":87,"special":true,"content":"[unused72]","single_word":false,"lstrip":false,"rstrip":false,"normalized":false},{"id":88,"special":true,"content":"[unused73]","single_word":false,"lstrip":false,"rstrip":false,"normalized":false},{"id":89,"special":true,"content":"[unused74]","single_word":false,"lstrip":false,"rstrip":false,"normalized":false},{"id":90,"special":true,"content":"[unused75]","single_word":false,"lstrip":false,"rstrip":false,"normalized":false},{"id":91,"special":true,"content":"[unused76]","single_word":false,"lstrip":false,"rstrip":false,"normalized":false},{"id":92,"special":true,"content":"[unused77]","single_word":false,"lstrip":false,"rstrip":false,"normalized":false},{"id":93,"special":true,"content":"[unused78]","single_word":false,"lstrip":false,"rstrip":false,"normalized":false},{"id":94,"special":true,"content":"[unused79]","single_word":false,"lstrip":false,"rstrip":false,"normalized":false},{"id":95,"special":true,"content":"[unused80]","single_word":false,"lstrip":false,"rstrip":false,"normalized":false},{"id":96,"special":true,"content":"[unused81]","single_word":false,"lstrip":false,"rstrip":false,"normalized":false},{"id":97,"special":true,"content":"[unused82]","single_word":false,"lstrip":false,"rstrip":false,"normalized":false},{"id":98,"special":true,"content":"[unused83]","single_word":false,"lstrip":false,"rstrip":false,"normalized":false},{"id":99,"special":true,"content":"[unused84]","single_word":false,"lstrip":false,"rstrip":false,"normalized":false},{"id":100,"special":true,"content":"[unused85]","single_word":false,"lstrip":false,"rstrip":false,"normalized":false},{"id":101,"special":true,"content":"[unused86]","single_word":false,"lstrip":false,"rstrip":false,"normalized":false},{"id":102,"special":true,"content":"[unused87]","single_word":false,"lstrip":false,"rstrip":false,"normalized":false},{"id":103,"special":true,"content":"[unused88]","single_word":false,"lstrip":false,"rstrip":false,"normalized":false},{"id":104,"special":true,"content":"[unused89]","single_word":false,"lstrip":false,"rstrip":false,"normalized":false},{"id":105,"special":true,"content":"[unused90]","single_word":false,"lstrip":false,"rstrip":false,"normalized":false},{"id":106,"special":true,"content":"[unused91]","single_word":false,"lstrip":false,"rstrip":false,"normalized":false},{"id":107,"special":true,"content":"[unused92]","single_word":false,"lstrip":false,"rstrip":false,"normalized":false},{"id":108,"special":true,"content":"[unused93]","single_word":false,"lstrip":false,"rstrip":false,"normalized":false},{"id":109,"special":true,"content":"[unused94]","single_word":false,"lstrip":false,"rstrip":false,"normalized":false},{"id":110,"special":true,"content":"[unused95]","single_word":false,"lstrip":false,"rstrip":false,"normalized":false},{"id":111,"special":true,"content":"[unused96]","single_word":false,"lstrip":false,"rstrip":false,"normalized":false},{"id":112,"special":true,"content":"[unused97]","single_word":false,"lstrip":false,"rstrip":false,"normalized":false},{"id":113,"special":true,"content":"[unused98]","single_word":false,"lstrip":false,"rstrip":false,"normalized":false},{"id":114,"special":true,"content":"[unused99]","single_word":false,"lstrip":false,"rstrip":false,"normalized":false},{"id":115,"special":true,"content":"[unused100]","single_word":false,"lstrip":false,"rstrip":false,"normalized":false},{"id":116,"special":true,"content":"[unused101]","single_word":false,"lstrip":false,"rstrip":false,"normalized":false},{"id":117,"special":true,"content":"[unused102]","single_word":false,"lstrip":false,"rstrip":false,"normalized":false},{"id":118,"special":true,"content":"[unused103]","single_word":false,"lstrip":false,"rstrip":false,"normalized":false},{"id":119,"special":true,"content":"[unused104]","single_word":false,"lstrip":false,"rstrip":false,"normalized":false},{"id":120,"special":true,"content":"[unused105]","single_word":false,"lstrip":false,"rstrip":false,"normalized":false},{"id":121,"special":true,"content":"[unused106]","single_word":false,"lstrip":false,"rstrip":false,"normalized":false},{"id":122,"special":true,"content":"[unused107]","single_word":false,"lstrip":false,"rstrip":false,"normalized":false},{"id":123,"special":true,"content":"[unused108]","single_word":false,"lstrip":false,"rstrip":false,"normalized":false},{"id":124,"special":true,"content":"[unused109]","single_word":false,"lstrip":false,"rstrip":false,"normalized":false},{"id":125,"special":true,"content":"[unused110]","single_word":false,"lstrip":false,"rstrip":false,"normalized":false},{"id":126,"special":true,"content":"[unused111]","single_word":false,"lstrip":false,"rstrip":false,"normalized":false},{"id":127,"special":true,"content":"[unused112]","single_word":false,"lstrip":false,"rstrip":false,"normalized":false},{"id":128,"special":true,"content":"[unused113]","single_word":false,"lstrip":false,"rstrip":false,"normalized":false},{"id":129,"special":true,"content":"[unused114]","single_word":false,"lstrip":false,"rstrip":false,"normalized":false},{"id":130,"special":true,"content":"[unused115]","single_word":false,"lstrip":false,"rstrip":false,"normalized":false},{"id":131,"special":true,"content":"[unused116]","single_word":false,"lstrip":false,"rstrip":false,"normalized":false},{"id":132,"special":true,"content":"[unused117]","single_word":false,"lstrip":false,"rstrip":false,"normalized":false},{"id":133,"special":true,"content":"[unused118]","single_word":false,"lstrip":false,"rstrip":false,"normalized":false},{"id":134,"special":true,"content":"[unused119]","single_word":false,"lstrip":false,"rstrip":false,"normalized":false},{"id":135,"special":true,"content":"[unused120]","single_word":false,"lstrip":false,"rstrip":false,"normalized":false},{"id":136,"special":true,"content":"[unused121]","single_word":false,"lstrip":false,"rstrip":false,"normalized":false},{"id":137,"special":true,"content":"[unused122]","single_word":false,"lstrip":false,"rstrip":false,"normalized":false},{"id":138,"special":true,"content":"[unused123]","single_word":false,"lstrip":false,"rstrip":false,"normalized":false},{"id":139,"special":true,"content":"[unused124]","single_word":false,"lstrip":false,"rstrip":false,"normalized":false},{"id":140,"special":true,"content":"[unused125]","single_word":false,"lstrip":false,"rstrip":false,"normalized":false},{"id":141,"special":true,"content":"[unused126]","single_word":false,"lstrip":false,"rstrip":false,"normalized":false},{"id":142,"special":true,"content":"[unused127]","single_word":false,"lstrip":false,"rstrip":false,"normalized":false},{"id":143,"special":true,"content":"[unused128]","single_word":false,"lstrip":false,"rstrip":false,"normalized":false},{"id":144,"special":true,"content":"[unused129]","single_word":false,"lstrip":false,"rstrip":false,"normalized":false},{"id":145,"special":true,"content":"[unused130]","single_word":false,"lstrip":false,"rstrip":false,"normalized":false},{"id":146,"special":true,"content":"[unused131]","single_word":false,"lstrip":false,"rstrip":false,"normalized":false},{"id":147,"special":true,"content":"[unused132]","single_word":false,"lstrip":false,"rstrip":false,"normalized":false},{"id":148,"special":true,"content":"[unused133]","single_word":false,"lstrip":false,"rstrip":false,"normalized":false},{"id":149,"special":true,"content":"[unused134]","single_word":false,"lstrip":false,"rstrip":false,"normalized":false},{"id":150,"special":true,"content":"[unused135]","single_word":false,"lstrip":false,"rstrip":false,"normalized":false},{"id":151,"special":true,"content":"[unused136]","single_word":false,"lstrip":false,"rstrip":false,"normalized":false},{"id":152,"special":true,"content":"[unused137]","single_word":false,"lstrip":false,"rstrip":false,"normalized":false},{"id":153,"special":true,"content":"[unused138]","single_word":false,"lstrip":false,"rstrip":false,"normalized":false},{"id":154,"special":true,"content":"[unused139]","single_word":false,"lstrip":false,"rstrip":false,"normalized":false},{"id":155,"special":true,"content":"[unused140]","single_word":false,"lstrip":false,"rstrip":false,"normalized":false},{"id":156,"special":true,"content":"[unused141]","single_word":false,"lstrip":false,"rstrip":false,"normalized":false},{"id":157,"special":true,"content":"[unused142]","single_word":false,"lstrip":false,"rstrip":false,"normalized":false},{"id":158,"special":true,"content":"[unused143]","single_word":false,"lstrip":false,"rstrip":false,"normalized":false},{"id":159,"special":true,"content":"[unused144]","single_word":false,"lstrip":false,"rstrip":false,"normalized":false},{"id":160,"special":true,"content":"[unused145]","single_word":false,"lstrip":false,"rstrip":false,"normalized":false},{"id":161,"special":true,"content":"[unused146]","single_word":false,"lstrip":false,"rstrip":false,"normalized":false},{"id":162,"special":true,"content":"[unused147]","single_word":false,"lstrip":false,"rstrip":false,"normalized":false},{"id":163,"special":true,"content":"[unused148]","single_word":false,"lstrip":false,"rstrip":false,"normalized":false},{"id":164,"special":true,"content":"[unused149]","single_word":false,"lstrip":false,"rstrip":false,"normalized":false},{"id":165,"special":true,"content":"[unused150]","single_word":false,"lstrip":false,"rstrip":false,"normalized":false},{"id":166,"special":true,"content":"[unused151]","single_word":false,"lstrip":false,"rstrip":false,"normalized":false},{"id":167,"special":true,"content":"[unused152]","single_word":false,"lstrip":false,"rstrip":false,"normalized":false},{"id":168,"special":true,"content":"[unused153]","single_word":false,"lstrip":false,"rstrip":false,"normalized":false},{"id":169,"special":true,"content":"[unused154]","single_word":false,"lstrip":false,"rstrip":false,"normalized":false},{"id":170,"special":true,"content":"[unused155]","single_word":false,"lstrip":false,"rstrip":false,"normalized":false},{"id":171,"special":true,"content":"[unused156]","single_word":false,"lstrip":false,"rstrip":false,"normalized":false},{"id":172,"special":true,"content":"[unused157]","single_word":false,"lstrip":false,"rstrip":false,"normalized":false},{"id":173,"special":true,"content":"[unused158]","single_word":false,"lstrip":false,"rstrip":false,"normalized":false},{"id":174,"special":true,"content":"[unused159]","single_word":false,"lstrip":false,"rstrip":false,"normalized":false},{"id":175,"special":true,"content":"[unused160]","single_word":false,"lstrip":false,"rstrip":false,"normalized":false},{"id":176,"special":true,"content":"[unused161]","single_word":false,"lstrip":false,"rstrip":false,"normalized":false},{"id":177,"special":true,"content":"[unused162]","single_word":false,"lstrip":false,"rstrip":false,"normalized":false},{"id":178,"special":true,"content":"[unused163]","single_word":false,"lstrip":false,"rstrip":false,"normalized":false},{"id":179,"special":true,"content":"[unused164]","single_word":false,"lstrip":false,"rstrip":false,"normalized":false},{"id":180,"special":true,"content":"[unused165]","single_word":false,"lstrip":false,"rstrip":false,"normalized":false},{"id":181,"special":true,"content":"[unused166]","single_word":false,"lstrip":false,"rstrip":false,"normalized":false},{"id":182,"special":true,"content":"[unused167]","single_word":false,"lstrip":false,"rstrip":false,"normalized":false},{"id":183,"special":true,"content":"[unused168]","single_word":false,"lstrip":false,"rstrip":false,"normalized":false},{"id":184,"special":true,"content":"[unused169]","single_word":false,"lstrip":false,"rstrip":false,"normalized":false},{"id":185,"special":true,"content":"[unused170]","single_word":false,"lstrip":false,"rstrip":false,"normalized":false},{"id":186,"special":true,"content":"[unused171]","single_word":false,"lstrip":false,"rstrip":false,"normalized":false},{"id":187,"special":true,"content":"[unused172]","single_word":false,"lstrip":false,"rstrip":false,"normalized":false},{"id":188,"special":true,"content":"[unused173]","single_word":false,"lstrip":false,"rstrip":false,"normalized":false},{"id":189,"special":true,"content":"[unused174]","single_word":false,"lstrip":false,"rstrip":false,"normalized":false},{"id":190,"special":true,"content":"[unused175]","single_word":false,"lstrip":false,"rstrip":false,"normalized":false},{"id":191,"special":true,"content":"[unused176]","single_word":false,"lstrip":false,"rstrip":false,"normalized":false},{"id":192,"special":true,"content":"[unused177]","single_word":false,"lstrip":false,"rstrip":false,"normalized":false},{"id":193,"special":true,"content":"[unused178]","single_word":false,"lstrip":false,"rstrip":false,"normalized":false},{"id":194,"special":true,"content":"[unused179]","single_word":false,"lstrip":false,"rstrip":false,"normalized":false},{"id":195,"special":true,"content":"[unused180]","single_word":false,"lstrip":false,"rstrip":false,"normalized":false},{"id":196,"special":true,"content":"[unused181]","single_word":false,"lstrip":false,"rstrip":false,"normalized":false},{"id":197,"special":true,"content":"[unused182]","single_word":false,"lstrip":false,"rstrip":false,"normalized":false},{"id":198,"special":true,"content":"[unused183]","single_word":false,"lstrip":false,"rstrip":false,"normalized":false},{"id":199,"special":true,"content":"[unused184]","single_word":false,"lstrip":false,"rstrip":false,"normalized":false},{"id":200,"special":true,"content":"[unused185]","single_word":false,"lstrip":false,"rstrip":false,"normalized":false},{"id":201,"special":true,"content":"[unused186]","single_word":false,"lstrip":false,"rstrip":false,"normalized":false},{"id":202,"special":true,"content":"[unused187]","single_word":false,"lstrip":false,"rstrip":false,"normalized":false},{"id":203,"special":true,"content":"[unused188]","single_word":false,"lstrip":false,"rstrip":false,"normalized":false},{"id":204,"special":true,"content":"[unused189]","single_word":false,"lstrip":false,"rstrip":false,"normalized":false},{"id":205,"special":true,"content":"[unused190]","single_word":false,"lstrip":false,"rstrip":false,"normalized":false},{"id":206,"special":true,"content":"[unused191]","single_word":false,"lstrip":false,"rstrip":false,"normalized":false},{"id":207,"special":true,"content":"[unused192]","single_word":false,"lstrip":false,"rstrip":false,"normalized":false},{"id":208,"special":true,"content":"[unused193]","single_word":false,"lstrip":false,"rstrip":false,"normalized":false},{"id":209,"special":true,"content":"[unused194]","single_word":false,"lstrip":false,"rstrip":false,"normalized":false},{"id":210,"special":true,"content":"[unused195]","single_word":false,"lstrip":false,"rstrip":false,"normalized":false},{"id":211,"special":true,"content":"[unused196]","single_word":false,"lstrip":false,"rstrip":false,"normalized":false},{"id":212,"special":true,"content":"[unused197]","single_word":false,"lstrip":false,"rstrip":false,"normalized":false},{"id":213,"special":true,"content":"[unused198]","single_word":false,"lstrip":false,"rstrip":false,"normalized":false},{"id":214,"special":true,"content":"[unused199]","single_word":false,"lstrip":false,"rstrip":false,"normalized":false}],"normalizer":{"type":"BertNormalizer","clean_text":true,"handle_chinese_chars":true,"strip_accents":false,"lowercase":false},"pre_tokenizer":{"type":"BertPreTokenizer"},"post_processor":null,"decoder":{"type":"WordPiece","prefix":"##","cleanup":true},"model":{"type":"WordPiece","unk_token":"[UNK]","continuing_subword_prefix":"##","max_input_chars_per_word":100,"vocab":{"<s>":0,"<pad>":1,"</s>":2,"<unk>":3,"<mask>":4,"[UNK0]":5,"[UNK1]":6,"[UNK2]":7,"[UNK3]":8,"[UNK4]":9,"[UNK5]":10,"[UNK6]":11,"[UNK7]":12,"[UNK8]":13,"[UNK9]":14,"[unused0]":15,"[unused1]":16,"[unused2]":17,"[unused3]":18,"[unused4]":19,"[unused5]":20,"[unused6]":21,"[unused7]":22,"[unused8]":23,"[unused9]":24,"[unused10]":25,"[unused11]":26,"[unused12]":27,"[unused13]":28,"[unused14]":29,"[unused15]":30,"[unused16]":31,"[unused17]":32,"[unused18]":33,"[unused19]":34,"[unused20]":35,"[unused21]":36,"[unused22]":37,"[unused23]":38,"[unused24]":39,"[unused25]":40,"[unused26]":41,"[unused27]":42,"[unused28]":43,"[unused29]":44,"[unused30]":45,"[unused31]":46,"[unused32]":47,"[unused33]":48,"[unused34]":49,"[unused35]":50,"[unused36]":51,"[unused37]":52,"[unused38]":53,"[unused39]":54,"[unused40]":55,"[unused41]":56,"[unused42]":57,"[unused43]":58,"[unused44]":59,"[unused45]":60,"[unused46]":61,"[unused47]":62,"[unused48]":63,"[unused49]":64,"[unused50]":65,"[unused51]":66,"[unused52]":67,"[unused53]":68,"[unused54]":69,"[unused55]":70,"[unused56]":71,"[unused57]":72,"[unused58]":73,"[unused59]":74,"[unused60]":75,"[unused61]":76,"[unused62]":77,"[unused63]":78,"[unused64]":79,"[unused65]":80,"[unused66]":81,"[unused67]":82,"[unused68]":83,"[unused69]":84,"[unused70]":85,"[unused71]":86,"[unused72]":87,"[unused73]":88,"[unused74]":89,"[unused75]":90,"[unused76]":91,"[unused77]":92,"[unused78]":93,"[unused79]":94,"[unused80]":95,"[unused81]":96,"[unused82]":97,"[unused83]":98,"[unused84]":99,"[unused85]":100,"[unused86]":101,"[unused87]":102,"[unused88]":103,"[unused89]":104,"[unused90]":105,"[unused91]":106,"[unused92]":107,"[unused93]":108,"[unused94]":109,"[unused95]":110,"[unused96]":111,"[unused97]":112,"[unused98]":113,"[unused99]":114,"[unused100]":115,"[unused101]":116,"[unused102]":117,"[unused103]":118,"[unused104]":119,"[unused105]":120,"[unused106]":121,"[unused107]":122,"[unused108]":123,"[unused109]":124,"[unused110]":125,"[unused111]":126,"[unused112]":127,"[unused113]":128,"[unused114]":129,"[unused115]":130,"[unused116]":131,"[unused117]":132,"[unused118]":133,"[unused119]":134,"[unused120]":135,"[unused121]":136,"[unused122]":137,"[unused123]":138,"[unused124]":139,"[unused125]":140,"[unused126]":141,"[unused127]":142,"[unused128]":143,"[unused129]":144,"[unused130]":145,"[unused131]":146,"[unused132]":147,"[unused133]":148,"[unused134]":149,"[unused135]":150,"[unused136]":151,"[unused137]":152,"[unused138]":153,"[unused139]":154,"[unused140]":155,"[unused141]":156,"[unused142]":157,"[unused143]":158,"[unused144]":159,"[unused145]":160,"[unused146]":161,"[unused147]":162,"[unused148]":163,"[unused149]":164,"[unused150]":165,"[unused151]":166,"[unused152]":167,"[unused153]":168,"[unused154]":169,"[unused155]":170,"[unused156]":171,"[unused157]":172,"[unused158]":173,"[unused159]":174,"[unused160]":175,"[unused161]":176,"[unused162]":177,"[unused163]":178,"[unused164]":179,"[unused165]":180,"[unused166]":181,"[unused167]":182,"[unused168]":183,"[unused169]":184,"[unused170]":185,"[unused171]":186,"[unused172]":187,"[unused173]":188,"[unused174]":189,"[unused175]":190,"[unused176]":191,"[unused177]":192,"[unused178]":193,"[unused179]":194,"[unused180]":195,"[unused181]":196,"[unused182]":197,"[unused183]":198,"[unused184]":199,"[unused185]":200,"[unused186]":201,"[unused187]":202,"[unused188]":203,"[unused189]":204,"[unused190]":205,"[unused191]":206,"[unused192]":207,"[unused193]":208,"[unused194]":209,"[unused195]":210,"[unused196]":211,"[unused197]":212,"[unused198]":213,"[unused199]":214,"!":215,"\"":216,"%":217,"'":218,",":219,"-":220,".":221,"/":222,"0":223,"1":224,"2":225,"3":226,"4":227,"5":228,"6":229,"7":230,"8":231,"9":232,":":233,"?":234,"@":235,"A":236,"B":237,"C":238,"D":239,"E":240,"F":241,"G":242,"H":243,"I":244,"J":245,"K":246,"L":247,"M":248,"N":249,"O":250,"P":251,"Q":252,"R":253,"S":254,"T":255,"U":256,"V":257,"W":258,"X":259,"Y":260,"Z":261,"a":262,"b":263,"c":264,"d":265,"e":266,"f":267,"g":268,"h":269,"i":270,"j":271,"k":272,"l":273,"m":274,"n":275,"o":276,"p":277,"q":278,"r":279,"s":280,"t":281,"u":282,"v":283,"w":284,"x":285,"y":286,"z":287,"~":288,"·":289,"가":290,"각":291,"갂":292,"갃":293,"간":294,"갅":295,"갆":296,"갇":297,"갈":298,"갉":299,"갊":300,"갋":301,"갌":302,"갍":303,"갎":304,"갏":305,"감":306,"갑":307,"값":308,"갓":309,"갔":310,"강":311,"갖":312,"갗":313,"갘":314,"같":315,"갚":316,"갛":317,"개":318,"객":319,"갞":320,"갟":321,"갠":322,"갢":323,"갣":324,"갤":325,"갥":326,"갧":327,"갩":328,"갫":329,"갬":330,"갭":331,"갮":332,"갯":333,"갰":334,"갱":335,"갲":336,"갳":337,"갴":338,"갵":339,"갶":340,"갷":341,"갸":342,"갹":343,"갺":344,"갼":345,"갿":346,"걀":347,"걁":348,"걃":349,"걆":350,"걇":351,"걈":352,"걉":353,"걊":354,"걋":355,"걌":356,"걍":357,"걎":358,"걐":359,"걑":360,"걒":361,"걓":362,"걔":363,"걕":364,"걖":365,"걘":366,"걜":367,"걤":368,"걥":369,"걧":370,"걨":371,"걩":372,"걬":373,"걭":374,"거":375,"걱":376,"걲":377,"걳":378,"건":379,"걵":380,"걶":381,"걷":382,"걸":383,"걹":384,"걺":385,"걻":386,"걼":387,"걽":388,"걾":389,"걿":390,"검":391,"겁":392,"겂":393,"것":394,"겄":395,"겅":396,"겆":397,"겇":398,"겈":399,"겉":400,"겊":401,"겋":402,"게":403,"겍":404,"겎":405,"겏":406,"겐":407,"겒":408,"겓":409,"겔":410,"겕":411,"겗":412,"겙":413,"겚":414,"겛":415,"겜":416,"겝":417,"겞":418,"겟":419,"겠":420,"겡":421,"겢":422,"겣":423,"겤":424,"겥":425,"겦":426,"겧":427,"겨":428,"격":429,"겪":430,"겫":431,"견":432,"겭":433,"겮":434,"겯":435,"결":436,"겱":437,"겲":438,"겳":439,"겴":440,"겵":441,"겷":442,"겸":443,"겹":444,"겺":445,"겻":446,"겼":447,"경":448,"겾":449,"겿":450,"곀":451,"곁":452,"곂":453,"곃":454,"계":455,"곅":456,"곆":457,"곈":458,"곋":459,"곌":460,"곔":461,"곕":462,"곖":463,"곗":464,"곘":465,"곙":466,"곚":467,"곛":468,"곜":469,"곝":470,"곟":471,"고":472,"곡":473,"곢":474,"곣":475,"곤":476,"곥":477,"곧":478,"골":479,"곩":480,"곪":481,"곫":482,"곬":483,"곭":484,"곮":485,"곯":486,"곰":487,"곱":488,"곲":489,"곳":490,"곴":491,"공":492,"곶":493,"곷":494,"곸":495,"곹":496,"곺":497,"곻":498,"과":499,"곽":500,"관":501,"괁":502,"괂":503,"괃":504,"괄":505,"괅":506,"괌":507,"괍":508,"괏":509,"괐":510,"광":511,"괒":512,"괓":513,"괔":514,"괕":515,"괖":516,"괗":517,"괘":518,"괙":519,"괜":520,"괝":521,"괞":522,"괠":523,"괨":524,"괫":525,"괬":526,"괭":527,"괴":528,"괵":529,"괸":530,"괺":531,"괼":532,"굄":533,"굅":534,"굇":535,"굈":536,"굉":537,"굌":538,"굎":539,"교":540,"굑":541,"굔":542,"굗":543,"굘":544,"굚":545,"굠":546,"굡":547,"굣":548,"굤":549,"굥":550,"굦":551,"굧":552,"굨":553,"굩":554,"굪":555,"굫":556,"구":557,"국":558,"굮":559,"굯":560,"군":561,"굱":562,"굲":563,"굳":564,"굴":565,"굵":566,"굶":567,"굷":568,"굺":569,"굻":570,"굼":571,"굽":572,"굾":573,"굿":574,"궀":575,"궁":576,"궂":577,"궃":578,"궄":579,"궅":580,"궆":581,"궇":582,"궈":583,"궉":584,"권":585,"궍":586,"궏":587,"궐":588,"궑":589,"궓":590,"궘":591,"궙":592,"궛":593,"궜":594,"궝":595,"궠":596,"궤":597,"궥":598,"궨":599,"궬":600,"궭":601,"궮":602,"궯":603,"궲":604,"궳":605,"궵":606,"궷":607,"궸":608,"궹":609,"귀":610,"귁":611,"귄":612,"귇":613,"귈":614,"귐":615,"귑":616,"귓":617,"귔":618,"귕":619,"귖":620,"귘":621,"귛":622,"규":623,"귝":624,"균":625,"귣":626,"귤":627,"귥":628,"귦":629,"귬":630,"귭":631,"귯":632,"귱":633,"귴":634,"귷":635,"그":636,"극":637,"귺":638,"귻":639,"근":640,"귽":641,"귾":642,"귿":643,"글":644,"긁":645,"긂":646,"긃":647,"긄":648,"긆":649,"긇":650,"금":651,"급":652,"긊":653,"긋":654,"긌":655,"긍":656,"긎":657,"긏":658,"긐":659,"긑":660,"긒":661,"긓":662,"긔":663,"긕":664,"긘":665,"긛":666,"긜":667,"긞":668,"긤":669,"긥":670,"긧":671,"긩":672,"긪":673,"긬":674,"긯":675,"기":676,"긱":677,"긲":678,"긴":679,"긵":680,"긶":681,"긷":682,"길":683,"긹":684,"긺":685,"긻":686,"긼":687,"긿":688,"김":689,"깁":690,"깂":691,"깃":692,"깄":693,"깅":694,"깆":695,"깇":696,"깈":697,"깉":698,"깊":699,"깋":700,"까":701,"깍":702,"깎":703,"깐":704,"깑":705,"깒":706,"깓":707,"깔":708,"깕":709,"깖":710,"깗":711,"깛":712,"깜":713,"깝":714,"깞":715,"깟":716,"깠":717,"깡":718,"깢":719,"깣":720,"깤":721,"깥":722,"깦":723,"깧":724,"깨":725,"깩":726,"깪":727,"깬":728,"깯":729,"깰":730,"깱":731,"깵":732,"깸":733,"깹":734,"깺":735,"깻":736,"깼":737,"깽":738,"깾":739,"꺀":740,"꺄":741,"꺅":742,"꺆":743,"꺈":744,"꺊":745,"꺌":746,"꺍":747,"꺏":748,"꺓":749,"꺔":750,"꺕":751,"꺗":752,"꺘":753,"꺙":754,"꺚":755,"꺜":756,"꺟":757,"꺠":758,"꺢":759,"꺤":760,"꺨":761,"꺰":762,"꺳":763,"꺴":764,"꺵":765,"꺼":766,"꺽":767,"꺾":768,"껀":769,"껃":770,"껄":771,"껅":772,"껇":773,"껌":774,"껍":775,"껏":776,"껐":777,"껑":778,"껒":779,"껓":780,"껔":781,"껕":782,"껗":783,"께":784,"껙":785,"껚":786,"껜":787,"껠":788,"껨":789,"껩":790,"껫":791,"껬":792,"껭":793,"껰":794,"껳":795,"껴":796,"껵":797,"껶":798,"껸":799,"껼":800,"꼄":801,"꼅":802,"꼇":803,"꼈":804,"꼉":805,"꼊":806,"꼌":807,"꼍":808,"꼏":809,"꼐":810,"꼣":811,"꼤":812,"꼥":813,"꼨":814,"꼬":815,"꼭":816,"꼮":817,"꼰":818,"꼲":819,"꼳":820,"꼴":821,"꼵":822,"꼶":823,"꼷":824,"꼹":825,"꼻":826,"꼼":827,"꼽":828,"꼿":829,"꽀":830,"꽁":831,"꽂":832,"꽃":833,"꽄":834,"꽅":835,"꽆":836,"꽇":837,"꽈":838,"꽉":839,"꽊":840,"꽌":841,"꽐":842,"꽑":843,"꽘":844,"꽙":845,"꽛":846,"꽜":847,"꽝":848,"꽠":849,"꽤":850,"꽥":851,"꽦":852,"꽨":853,"꽳":854,"꽴":855,"꽹":856,"꽼":857,"꾀":858,"꾁":859,"꾄":860,"꾈":861,"꾐":862,"꾕":863,"꾜":864,"꾝":865,"꾠":866,"꾤":867,"꾬":868,"꾭":869,"꾱":870,"꾳":871,"꾸":872,"꾹":873,"꾺":874,"꾼":875,"꾾":876,"꾿":877,"꿀":878,"꿁":879,"꿂":880,"꿃":881,"꿄":882,"꿇":883,"꿈":884,"꿉":885,"꿋":886,"꿌":887,"꿍":888,"꿎":889,"꿏":890,"꿐":891,"꿑":892,"꿓":893,"꿔":894,"꿕":895,"꿘":896,"꿜":897,"꿝":898,"꿤":899,"꿥":900,"꿧":901,"꿨":902,"꿩":903,"꿬":904,"꿯":905,"꿰":906,"꿱":907,"꿲":908,"꿴":909,"꿸":910,"꿹":911,"꿻":912,"꿿":913,"뀀":914,"뀃":915,"뀄":916,"뀅":917,"뀈":918,"뀌":919,"뀍":920,"뀐":921,"뀔":922,"뀜":923,"뀝":924,"뀟":925,"뀠":926,"뀡":927,"뀤":928,"뀨":929,"뀩":930,"뀪":931,"뀬":932,"뀰":933,"뀱":934,"뀳":935,"뀷":936,"뀸":937,"뀹":938,"뀻":939,"뀽":940,"끀":941,"끄":942,"끅":943,"끆":944,"끈":945,"끉":946,"끊":947,"끋":948,"끌":949,"끍":950,"끎":951,"끏":952,"끐":953,"끓":954,"끔":955,"끕":956,"끗":957,"끘":958,"끙":959,"끚":960,"끛":961,"끜":962,"끝":963,"끞":964,"끟":965,"끠":966,"끡":967,"끤":968,"끨":969,"끯":970,"끰":971,"끵":972,"끸":973,"끼":974,"끽":975,"끾":976,"낀":977,"낂":978,"낃":979,"낄":980,"낅":981,"낋":982,"낌":983,"낍":984,"낎":985,"낏":986,"낐":987,"낑":988,"낒":989,"낓":990,"낔":991,"낕":992,"낗":993,"나":994,"낙":995,"낚":996,"낛":997,"난":998,"낝":999,"낞":1000,"낟":1001,"날":1002,"낡":1003,"낢":1004,"낣":1005,"낤":1006,"낥":1007,"낧":1008,"남":1009,"납":1010,"낪":1011,"낫":1012,"났":1013,"낭":1014,"낮":1015,"낯":1016,"낰":1017,"낱":1018,"낲":1019,"낳":1020,"내":1021,"낵":1022,"낶":1023,"낸":1024,"낻":1025,"낼":1026,"냄":1027,"냅":1028,"냇":1029,"냈":1030,"냉":1031,"냊":1032,"냋":1033,"냌":1034,"냍":1035,"냎":1036,"냏":1037,"냐":1038,"냑":1039,"냒":1040,"냔":1041,"냗":1042,"냘":1043,"냙":1044,"냠":1045,"냡":1046,"냣":1047,"냤":1048,"냥":1049,"냦":1050,"냧":1051,"냨":1052,"냩":1053,"냪":1054,"냫":1055,"냬":1056,"냰":1057,"냴":1058,"냼":1059,"냿":1060,"넀":1061,"넁":1062,"넄":1063,"너":1064,"넉":1065,"넊":1066,"넋":1067,"넌":1068,"넎":1069,"넏":1070,"널":1071,"넑":1072,"넒":1073,"넓":1074,"넔":1075,"넖":1076,"넗":1077,"넘":1078,"넙":1079,"넚":1080,"넛":1081,"넜":1082,"넝":1083,"넞":1084,"넟":1085,"넠":1086,"넡":1087,"넢":1088,"넣":1089,"네":1090,"넥":1091,"넦":1092,"넧":1093,"넨":1094,"넫":1095,"넬":1096,"넭":1097,"넴":1098,"넵":1099,"넶":1100,"넷":1101,"넸":1102,"넹":1103,"넺":1104,"넻":1105,"넼":1106,"넽":1107,"넾":1108,"넿":1109,"녀":1110,"녁":1111,"녂":1112,"년":1113,"녅":1114,"녆":1115,"녇":1116,"녈":1117,"념":1118,"녑":1119,"녓":1120,"녔":1121,"녕":1122,"녖":1123,"녗":1124,"녘":1125,"녙":1126,"녚":1127,"녛":1128,"녜":1129,"녝":1130,"녠":1131,"녤":1132,"녬":1133,"녭":1134,"녯":1135,"녰":1136,"녱":1137,"녴":1138,"노":1139,"녹":1140,"녺":1141,"녻":1142,"논":1143,"녽":1144,"녾":1145,"녿":1146,"놀":1147,"놁":1148,"놂":1149,"놃":1150,"놇":1151,"놈":1152,"놉":1153,"놊":1154,"놋":1155,"놌":1156,"농":1157,"놎":1158,"놏":1159,"놐":1160,"놑":1161,"높":1162,"놓":1163,"놔":1164,"놕":1165,"놖":1166,"놘":1167,"놛":1168,"놜":1169,"놝":1170,"놤":1171,"놥":1172,"놧":1173,"놨":1174,"놩":1175,"놪":1176,"놬":1177,"놯":1178,"놰":1179,"놴":1180,"놸":1181,"뇀":1182,"뇁":1183,"뇄":1184,"뇅":1185,"뇌":1186,"뇍":1187,"뇐":1188,"뇔":1189,"뇜":1190,"뇝":1191,"뇟":1192,"뇠":1193,"뇡":1194,"뇤":1195,"뇨":1196,"뇩":1197,"뇬":1198,"뇰":1199,"뇸":1200,"뇹":1201,"뇻":1202,"뇽":1203,"눀":1204,"눂":1205,"눃":1206,"누":1207,"눅":1208,"눈":1209,"눉":1210,"눋":1211,"눌":1212,"눍":1213,"눓":1214,"눔":1215,"눕":1216,"눗":1217,"눙":1218,"눚":1219,"눛":1220,"눜":1221,"눝":1222,"눞":1223,"눟":1224,"눠":1225,"눤":1226,"눨":1227,"눰":1228,"눳":1229,"눴":1230,"눵":1231,"눸":1232,"눹":1233,"눼":1234,"눽":1235,"뉀":1236,"뉄":1237,"뉅":1238,"뉌":1239,"뉍":1240,"뉑":1241,"뉔":1242,"뉘":1243,"뉙":1244,"뉜":1245,"뉠":1246,"뉨":1247,"뉩":1248,"뉫":1249,"뉬":1250,"뉭":1251,"뉰":1252,"뉴":1253,"뉵":1254,"뉸":1255,"뉼":1256,"늄":1257,"늅":1258,"늇":1259,"늉":1260,"늌":1261,"늎":1262,"늏":1263,"느":1264,"늑":1265,"늒":1266,"늓":1267,"는":1268,"늕":1269,"늖":1270,"늗":1271,"늘":1272,"늙":1273,"늚":1274,"늛":1275,"늜":1276,"늟":1277,"늠":1278,"늡":1279,"늣":1280,"늤":1281,"능":1282,"늦":1283,"늧":1284,"늨":1285,"늩":1286,"늪":1287,"늫":1288,"늬":1289,"늭":1290,"늰":1291,"늴":1292,"늼":1293,"늽":1294,"늿":1295,"닁":1296,"닄":1297,"니":1298,"닉":1299,"닊":1300,"닋":1301,"닌":1302,"닍":1303,"닏":1304,"닐":1305,"닑":1306,"닒":1307,"닗":1308,"님":1309,"닙":1310,"닚":1311,"닛":1312,"닜":1313,"닝":1314,"닞":1315,"닟":1316,"닠":1317,"닡":1318,"닢":1319,"닣":1320,"다":1321,"닥":1322,"닦":1323,"닧":1324,"단":1325,"닩":1326,"닪":1327,"닫":1328,"달":1329,"닭":1330,"닮":1331,"닯":1332,"닰":1333,"닱":1334,"닲":1335,"닳":1336,"담":1337,"답":1338,"닶":1339,"닷":1340,"닸":1341,"당":1342,"닺":1343,"닻":1344,"닼":1345,"닽":1346,"닾":1347,"닿":1348,"대":1349,"댁":1350,"댂":1351,"댄":1352,"댇":1353,"댈":1354,"댉":1355,"댏":1356,"댐":1357,"댑":1358,"댓":1359,"댔":1360,"댕":1361,"댖":1362,"댗":1363,"댘":1364,"댙":1365,"댚":1366,"댛":1367,"댜":1368,"댝":1369,"댠":1370,"댣":1371,"댤":1372,"댥":1373,"댦":1374,"댬":1375,"댭":1376,"댯":1377,"댰":1378,"댱":1379,"댲":1380,"댴":1381,"댷":1382,"댸":1383,"댼":1384,"덀":1385,"덈":1386,"덋":1387,"덌":1388,"덍":1389,"더":1390,"덕":1391,"덖":1392,"덗":1393,"던":1394,"덙":1395,"덛":1396,"덜":1397,"덝":1398,"덞":1399,"덟":1400,"덢":1401,"덣":1402,"덤":1403,"덥":1404,"덦":1405,"덧":1406,"덨":1407,"덩":1408,"덪":1409,"덫":1410,"덬":1411,"덭":1412,"덮":1413,"덯":1414,"데":1415,"덱":1416,"덲":1417,"덴":1418,"덷":1419,"델":1420,"덹":1421,"덻":1422,"뎀":1423,"뎁":1424,"뎂":1425,"뎃":1426,"뎄":1427,"뎅":1428,"뎆":1429,"뎇":1430,"뎈":1431,"뎉":1432,"뎊":1433,"뎋":1434,"뎌":1435,"뎍":1436,"뎐":1437,"뎓":1438,"뎔":1439,"뎜":1440,"뎝":1441,"뎟":1442,"뎠":1443,"뎡":1444,"뎤":1445,"뎦":1446,"뎧":1447,"뎨":1448,"뎬":1449,"뎻":1450,"뎽":1451,"도":1452,"독":1453,"돆":1454,"돇":1455,"돈":1456,"돉":1457,"돋":1458,"돌":1459,"돍":1460,"돎":1461,"돏":1462,"돐":1463,"돒":1464,"돓":1465,"돔":1466,"돕":1467,"돖":1468,"돗":1469,"돘":1470,"동":1471,"돚":1472,"돛":1473,"돜":1474,"돝":1475,"돞":1476,"돟":1477,"돠":1478,"돡":1479,"돤":1480,"돨":1481,"돩":1482,"돰":1483,"돱":1484,"돳":1485,"돴":1486,"돵":1487,"돸":1488,"돻":1489,"돼":1490,"돽":1491,"돾":1492,"됀":1493,"됃":1494,"됄":1495,"됌":1496,"됍":1497,"됏":1498,"됐":1499,"됑":1500,"됒":1501,"됔":1502,"됗":1503,"되":1504,"됙":1505,"됚":1506,"된":1507,"됝":1508,"됟":1509,"될":1510,"됡":1511,"됢":1512,"됤":1513,"됥":1514,"됧":1515,"됨":1516,"됩":1517,"됫":1518,"됬":1519,"됭":1520,"됮":1521,"됰":1522,"됱":1523,"됳":1524,"됴":1525,"됵":1526,"됸":1527,"됻":1528,"됼":1529,"둄":1530,"둅":1531,"둇":1532,"둉":1533,"둊":1534,"둋":1535,"둌":1536,"둏":1537,"두":1538,"둑":1539,"둒":1540,"둔":1541,"둗":1542,"둘":1543,"둙":1544,"둚":1545,"둛":1546,"둞":1547,"둟":1548,"둠":1549,"둡":1550,"둣":1551,"둥":1552,"둦":1553,"둧":1554,"둨":1555,"둩":1556,"둪":1557,"둫":1558,"둬":1559,"둭":1560,"둰":1561,"둴":1562,"둼":1563,"둽":1564,"둿":1565,"뒀":1566,"뒁":1567,"뒄":1568,"뒇":1569,"뒈":1570,"뒌":1571,"뒐":1572,"뒑":1573,"뒓":1574,"뒘":1575,"뒙":1576,"뒛":1577,"뒜":1578,"뒝":1579,"뒞":1580,"뒠":1581,"뒤":1582,"뒥":1583,"뒨":1584,"뒫":1585,"뒬":1586,"뒴":1587,"뒵":1588,"뒷":1589,"뒸":1590,"뒹":1591,"뒺":1592,"뒼":1593,"듀":1594,"듁":1595,"듄":1596,"듇":1597,"듈":1598,"듐":1599,"듑":1600,"듓":1601,"듕":1602,"듘":1603,"드":1604,"득":1605,"듞":1606,"듟":1607,"든":1608,"듡":1609,"듢":1610,"듣":1611,"들":1612,"듥":1613,"듦":1614,"듧":1615,"듨":1616,"듩":1617,"듪":1618,"듫":1619,"듬":1620,"듭":1621,"듯":1622,"듰":1623,"등":1624,"듲":1625,"듳":1626,"듴":1627,"듵":1628,"듶":1629,"듷":1630,"듸":1631,"듹":1632,"듼":1633,"딀":1634,"딈":1635,"딉":1636,"딋":1637,"딍":1638,"디":1639,"딕":1640,"딖":1641,"딘":1642,"딛":1643,"딜":1644,"딝":1645,"딞":1646,"딤":1647,"딥":1648,"딧":1649,"딨":1650,"딩":1651,"딪":1652,"딫":1653,"딬":1654,"딭":1655,"딮":1656,"딯":1657,"따":1658,"딱":1659,"딲":1660,"딳":1661,"딴":1662,"딷":1663,"딸":1664,"딹":1665,"딺":1666,"딻":1667,"딿":1668,"땀":1669,"땁":1670,"땃":1671,"땄":1672,"땅":1673,"땆":1674,"땈":1675,"땉":1676,"땋":1677,"때":1678,"땍":1679,"땎":1680,"땐":1681,"땓":1682,"땔":1683,"땜":1684,"땝":1685,"땟":1686,"땠":1687,"땡":1688,"땢":1689,"땣":1690,"땤":1691,"땦":1692,"땧":1693,"땨":1694,"땩":1695,"땬":1696,"땰":1697,"땸":1698,"땽":1699,"떃":1700,"떄":1701,"떅":1702,"떈":1703,"떌":1704,"떔":1705,"떗":1706,"떘":1707,"떙":1708,"떠":1709,"떡":1710,"떢":1711,"떣":1712,"떤":1713,"떥":1714,"떦":1715,"떧":1716,"떨":1717,"떩":1718,"떪":1719,"떫":1720,"떮":1721,"떯":1722,"떰":1723,"떱":1724,"떳":1725,"떴":1726,"떵":1727,"떶":1728,"떷":1729,"떸":1730,"떹":1731,"떺":1732,"떻":1733,"떼":1734,"떽":1735,"떾":1736,"뗀":1737,"뗄":1738,"뗌":1739,"뗍":1740,"뗏":1741,"뗐":1742,"뗑":1743,"뗔":1744,"뗗":1745,"뗘":1746,"뗙":1747,"뗜":1748,"뗠":1749,"뗨":1750,"뗫":1751,"뗬":1752,"뗭":1753,"뗳":1754,"뗴":1755,"뗵":1756,"뗸":1757,"뗼":1758,"똇":1759,"똈":1760,"또":1761,"똑":1762,"똒":1763,"똔":1764,"똗":1765,"똘":1766,"똙":1767,"똚":1768,"똝":1769,"똟":1770,"똠":1771,"똡":1772,"똣":1773,"똥":1774,"똦":1775,"똧":1776,"똨":1777,"똩":1778,"똫":1779,"똬":1780,"똭":1781,"똮":1782,"똰":1783,"똴":1784,"똵":1785,"똷":1786,"똻":1787,"똼":1788,"똽":1789,"똿":1790,"뙀":1791,"뙁":1792,"뙄":1793,"뙇":1794,"뙈":1795,"뙌":1796,"뙓":1797,"뙛":1798,"뙜":1799,"뙝":1800,"뙤":1801,"뙥":1802,"뙨":1803,"뙬":1804,"뙴":1805,"뙷":1806,"뙸":1807,"뙹":1808,"뙿":1809,"뚀":1810,"뚁":1811,"뚄":1812,"뚈":1813,"뚊":1814,"뚕":1815,"뚜":1816,"뚝":1817,"뚞":1818,"뚠":1819,"뚢":1820,"뚣":1821,"뚤":1822,"뚥":1823,"뚦":1824,"뚧":1825,"뚨":1826,"뚫":1827,"뚬":1828,"뚭":1829,"뚯":1830,"뚱":1831,"뚴":1832,"뚵":1833,"뚷":1834,"뚸":1835,"뚹":1836,"뚼":1837,"뛀":1838,"뛃":1839,"뛋":1840,"뛌":1841,"뛍":1842,"뛓":1843,"뛔":1844,"뛕":1845,"뛝":1846,"뛟":1847,"뛣":1848,"뛥":1849,"뛧":1850,"뛨":1851,"뛰":1852,"뛱":1853,"뛴":1854,"뛸":1855,"뜀":1856,"뜁":1857,"뜃":1858,"뜄":1859,"뜅":1860,"뜌":1861,"뜍":1862,"뜐":1863,"뜔":1864,"뜛":1865,"뜜":1866,"뜝":1867,"뜡":1868,"뜨":1869,"뜩":1870,"뜪":1871,"뜬":1872,"뜮":1873,"뜯":1874,"뜰":1875,"뜱":1876,"뜳":1877,"뜷":1878,"뜸":1879,"뜹":1880,"뜻":1881,"뜼":1882,"뜽":1883,"뜾":1884,"뜿":1885,"띀":1886,"띁":1887,"띃":1888,"띄":1889,"띅":1890,"띈":1891,"띌":1892,"띔":1893,"띕":1894,"띙":1895,"띟":1896,"띠":1897,"띡":1898,"띤":1899,"띧":1900,"띨":1901,"띰":1902,"띱":1903,"띳":1904,"띴":1905,"띵":1906,"띶":1907,"띸":1908,"띻":1909,"라":1910,"락":1911,"띾":1912,"띿":1913,"란":1914,"랁":1915,"랂":1916,"랃":1917,"랄":1918,"랅":1919,"랆":1920,"랇":1921,"랈":1922,"랉":1923,"랊":1924,"랋":1925,"람":1926,"랍":1927,"랎":1928,"랏":1929,"랐":1930,"랑":1931,"랒":1932,"랓":1933,"랔":1934,"랕":1935,"랖":1936,"랗":1937,"래":1938,"랙":1939,"랚":1940,"랜":1941,"랟":1942,"랠":1943,"랡":1944,"램":1945,"랩":1946,"랫":1947,"랬":1948,"랭":1949,"랮":1950,"랯":1951,"랰":1952,"랱":1953,"랲":1954,"랳":1955,"랴":1956,"략":1957,"랸":1958,"랺":1959,"랻":1960,"랼":1961,"럄":1962,"럅":1963,"럇":1964,"럈":1965,"량":1966,"럊":1967,"럌":1968,"럎":1969,"럏":1970,"럐":1971,"럑":1972,"럔":1973,"럗":1974,"럘":1975,"럠":1976,"럣":1977,"럤":1978,"럥":1979,"러":1980,"럭":1981,"럮":1982,"럯":1983,"런":1984,"럱":1985,"럲":1986,"럳":1987,"럴":1988,"럵":1989,"럶":1990,"럷":1991,"럸":1992,"럻":1993,"럼":1994,"럽":1995,"럾":1996,"럿":1997,"렀":1998,"렁":1999,"렂":2000,"렃":2001,"렄":2002,"렅":2003,"렆":2004,"렇":2005,"레":2006,"렉":2007,"렊":2008,"렋":2009,"렌":2010,"렏":2011,"렐":2012,"렑":2013,"렓":2014,"렗":2015,"렘":2016,"렙":2017,"렚":2018,"렛":2019,"렜":2020,"렝":2021,"렞":2022,"렠":2023,"렡":2024,"렢":2025,"렣":2026,"려":2027,"력":2028,"렦":2029,"렧":2030,"련":2031,"렩":2032,"렪":2033,"렫":2034,"렬":2035,"렭":2036,"렴":2037,"렵":2038,"렷":2039,"렸":2040,"령":2041,"렺":2042,"렻":2043,"렼":2044,"렽":2045,"렾":2046,"렿":2047,"례":2048,"롁":2049,"롄":2050,"롈":2051,"롐":2052,"롑":2053,"롓":2054,"롔":2055,"롕":2056,"롘":2057,"로":2058,"록":2059,"롞":2060,"론":2061,"롡":2062,"롣":2063,"롤":2064,"롥":2065,"롫":2066,"롬":2067,"롭":2068,"롮":2069,"롯":2070,"롰":2071,"롱":2072,"롲":2073,"롳":2074,"롴":2075,"롵":2076,"롶":2077,"롷":2078,"롸":2079,"롹":2080,"롻":2081,"롼":2082,"뢀":2083,"뢁":2084,"뢈":2085,"뢉":2086,"뢋":2087,"뢌":2088,"뢍":2089,"뢐":2090,"뢓":2091,"뢔":2092,"뢕":2093,"뢘":2094,"뢜":2095,"뢥":2096,"뢨":2097,"뢩":2098,"뢰":2099,"뢱":2100,"뢴":2101,"뢸":2102,"룀":2103,"룁":2104,"룃":2105,"룄":2106,"룅":2107,"룈":2108,"료":2109,"룍":2110,"룐":2111,"룔":2112,"룜":2113,"룝":2114,"룟":2115,"룠":2116,"룡":2117,"룢":2118,"룤":2119,"룧":2120,"루":2121,"룩":2122,"룪":2123,"룬":2124,"룯":2125,"룰":2126,"룱":2127,"룷":2128,"룸":2129,"룹":2130,"룻":2131,"룽":2132,"룾":2133,"룿":2134,"뤀":2135,"뤁":2136,"뤂":2137,"뤃":2138,"뤄":2139,"뤅":2140,"뤈":2141,"뤌":2142,"뤔":2143,"뤕":2144,"뤗":2145,"뤘":2146,"뤙":2147,"뤜":2148,"뤟":2149,"뤠":2150,"뤡":2151,"뤤":2152,"뤨":2153,"뤩":2154,"뤫":2155,"뤰":2156,"뤱":2157,"뤳":2158,"뤵":2159,"뤸":2160,"뤼":2161,"뤽":2162,"륀":2163,"륄":2164,"륌":2165,"륍":2166,"륏":2167,"륐":2168,"륑":2169,"륔":2170,"류":2171,"륙":2172,"륜":2173,"륟":2174,"률":2175,"륨":2176,"륩":2177,"륫":2178,"륭":2179,"륮":2180,"륰":2181,"륲":2182,"륳":2183,"르":2184,"륵":2185,"륶":2186,"른":2187,"륹":2188,"륻":2189,"를":2190,"륽":2191,"륾":2192,"륿":2193,"릀":2194,"릁":2195,"릂":2196,"릃":2197,"름":2198,"릅":2199,"릇":2200,"릈":2201,"릉":2202,"릊":2203,"릋":2204,"릌":2205,"릍":2206,"릎":2207,"릏":2208,"릐":2209,"릑":2210,"릔":2211,"릘":2212,"릠":2213,"릡":2214,"릣":2215,"릥":2216,"릫":2217,"리":2218,"릭":2219,"릮":2220,"린":2221,"릱":2222,"릲":2223,"릳":2224,"릴":2225,"릵":2226,"릶":2227,"릷":2228,"릸":2229,"릹":2230,"릻":2231,"림":2232,"립":2233,"릾":2234,"릿":2235,"맀":2236,"링":2237,"맂":2238,"맃":2239,"맄":2240,"맅":2241,"맆":2242,"맇":2243,"마":2244,"막":2245,"맊":2246,"맋":2247,"만":2248,"맍":2249,"많":2250,"맏":2251,"말":2252,"맑":2253,"맒":2254,"맓":2255,"맔":2256,"맕":2257,"맖":2258,"맗":2259,"맘":2260,"맙":2261,"맚":2262,"맛":2263,"맜":2264,"망":2265,"맞":2266,"맟":2267,"맠":2268,"맡":2269,"맢":2270,"맣":2271,"매":2272,"맥":2273,"맨":2274,"맩":2275,"맪":2276,"맫":2277,"맬":2278,"맴":2279,"맵":2280,"맷":2281,"맸":2282,"맹":2283,"맺":2284,"맻":2285,"맼":2286,"맽":2287,"맿":2288,"먀":2289,"먁":2290,"먄":2291,"먆":2292,"먇":2293,"먈":2294,"먐":2295,"먑":2296,"먓":2297,"먕":2298,"먖":2299,"먗":2300,"먘":2301,"먛":2302,"먜":2303,"먠":2304,"먤":2305,"먱":2306,"머":2307,"먹":2308,"먺":2309,"먻":2310,"먼":2311,"먽":2312,"먾":2313,"먿":2314,"멀":2315,"멁":2316,"멂":2317,"멈":2318,"멉":2319,"멊":2320,"멋":2321,"멌":2322,"멍":2323,"멎":2324,"멏":2325,"멐":2326,"멑":2327,"멒":2328,"멓":2329,"메":2330,"멕":2331,"멘":2332,"멛":2333,"멜":2334,"멤":2335,"멥":2336,"멧":2337,"멨":2338,"멩":2339,"멪":2340,"멫":2341,"멬":2342,"멭":2343,"멮":2344,"멯":2345,"며":2346,"멱":2347,"멲":2348,"면":2349,"멵":2350,"멶":2351,"멷":2352,"멸":2353,"멿":2354,"몀":2355,"몁":2356,"몃":2357,"몄":2358,"명":2359,"몆":2360,"몇":2361,"몈":2362,"몉":2363,"몊":2364,"몋":2365,"몌":2366,"몐":2367,"몔":2368,"몟":2369,"몡":2370,"몢":2371,"몣":2372,"모":2373,"목":2374,"몪":2375,"몫":2376,"몬":2377,"몮":2378,"몯":2379,"몰":2380,"몱":2381,"몲":2382,"몴":2383,"몷":2384,"몸":2385,"몹":2386,"몺":2387,"못":2388,"몼":2389,"몽":2390,"몾":2391,"몿":2392,"뫀":2393,"뫁":2394,"뫂":2395,"뫃":2396,"뫄":2397,"뫅":2398,"뫈":2399,"뫌":2400,"뫔":2401,"뫕":2402,"뫗":2403,"뫘":2404,"뫙":2405,"뫚":2406,"뫜":2407,"뫠":2408,"뫤":2409,"뫼":2410,"뫽":2411,"묀":2412,"묄":2413,"묏":2414,"묑":2415,"묘":2416,"묙":2417,"묜":2418,"묠":2419,"묨":2420,"묫":2421,"묭":2422,"묯":2423,"무":2424,"묵":2425,"묶":2426,"묷":2427,"문":2428,"묹":2429,"묺":2430,"묻":2431,"물":2432,"묽":2433,"묾":2434,"묿":2435,"뭀":2436,"뭁":2437,"뭃":2438,"뭄":2439,"뭅":2440,"뭇":2441,"뭈":2442,"뭉":2443,"뭊":2444,"뭋":2445,"뭌":2446,"뭍":2447,"뭎":2448,"뭏":2449,"뭐":2450,"뭑":2451,"뭔":2452,"뭕":2453,"뭗":2454,"뭘":2455,"뭙":2456,"뭚":2457,"뭟":2458,"뭠":2459,"뭡":2460,"뭣":2461,"뭤":2462,"뭥":2463,"뭦":2464,"뭧":2465,"뭨":2466,"뭩":2467,"뭫":2468,"뭬":2469,"뭭":2470,"뭰":2471,"뭴":2472,"뭵":2473,"뭷":2474,"뭽":2475,"뭿":2476,"뮁":2477,"뮈":2478,"뮉":2479,"뮌":2480,"뮏":2481,"뮐":2482,"뮘":2483,"뮙":2484,"뮛":2485,"뮜":2486,"뮝":2487,"뮤":2488,"뮥":2489,"뮦":2490,"뮨":2491,"뮫":2492,"뮬":2493,"뮴":2494,"뮷":2495,"뮹":2496,"뮻":2497,"뮼":2498,"므":2499,"믁":2500,"믂":2501,"믄":2502,"믆":2503,"믇":2504,"믈":2505,"믉":2506,"믌":2507,"믐":2508,"믑":2509,"믓":2510,"믕":2511,"믖":2512,"믘":2513,"믙":2514,"믛":2515,"믜":2516,"믝":2517,"믠":2518,"믣":2519,"믤":2520,"믬":2521,"믯":2522,"믰":2523,"믱":2524,"미":2525,"믹":2526,"믺":2527,"믻":2528,"민":2529,"믽":2530,"믾":2531,"믿":2532,"밀":2533,"밁":2534,"밂":2535,"밇":2536,"밈":2537,"밉":2538,"밊":2539,"밋":2540,"밌":2541,"밍":2542,"밎":2543,"및":2544,"밐":2545,"밑":2546,"밒":2547,"밓":2548,"바":2549,"박":2550,"밖":2551,"밗":2552,"반":2553,"밙":2554,"밚":2555,"받":2556,"발":2557,"밝":2558,"밞":2559,"밟":2560,"밠":2561,"밡":2562,"밢":2563,"밣":2564,"밤":2565,"밥":2566,"밦":2567,"밧":2568,"밨":2569,"방":2570,"밪":2571,"밫":2572,"밬":2573,"밭":2574,"밮":2575,"밯":2576,"배":2577,"백":2578,"밲":2579,"밳":2580,"밴":2581,"밷":2582,"밸":2583,"밹":2584,"밿":2585,"뱀":2586,"뱁":2587,"뱃":2588,"뱄":2589,"뱅":2590,"뱆":2591,"뱇":2592,"뱈":2593,"뱉":2594,"뱊":2595,"뱋":2596,"뱌":2597,"뱍":2598,"뱎":2599,"뱐":2600,"뱓":2601,"뱔":2602,"뱕":2603,"뱗":2604,"뱛":2605,"뱜":2606,"뱝":2607,"뱟":2608,"뱡":2609,"뱤":2610,"뱥":2611,"뱨":2612,"뱩":2613,"뱬":2614,"뱰":2615,"뱸":2616,"뱽":2617,"벁":2618,"버":2619,"벅":2620,"벆":2621,"번":2622,"벉":2623,"벊":2624,"벋":2625,"벌":2626,"벍":2627,"벎":2628,"벏":2629,"벐":2630,"벑":2631,"벓":2632,"범":2633,"법":2634,"벖":2635,"벗":2636,"벘":2637,"벙":2638,"벚":2639,"벛":2640,"벜":2641,"벝":2642,"벞":2643,"벟":2644,"베":2645,"벡":2646,"벤":2647,"벧":2648,"벨":2649,"벩":2650,"벫":2651,"벭":2652,"벯":2653,"벰":2654,"벱":2655,"벲":2656,"벳":2657,"벴":2658,"벵":2659,"벶":2660,"벷":2661,"벸":2662,"벹":2663,"벺":2664,"벻":2665,"벼":2666,"벽":2667,"벾":2668,"변":2669,"볁":2670,"볂":2671,"볃":2672,"별":2673,"볅":2674,"볆":2675,"볇":2676,"볈":2677,"볋":2678,"볌":2679,"볍":2680,"볎":2681,"볏":2682,"볐":2683,"병":2684,"볒":2685,"볓":2686,"볔":2687,"볕":2688,"볖":2689,"볗":2690,"볘":2691,"볙":2692,"볜":2693,"볠":2694,"볫":2695,"볭":2696,"보":2697,"복":2698,"볶":2699,"볷":2700,"본":2701,"볹":2702,"볻":2703,"볼":2704,"볽":2705,"볾":2706,"봀":2707,"봁":2708,"봃":2709,"봄":2710,"봅":2711,"봆":2712,"봇":2713,"봈":2714,"봉":2715,"봊":2716,"봋":2717,"봌":2718,"봍":2719,"봎":2720,"봏":2721,"봐":2722,"봑":2723,"봒":2724,"봔":2725,"봗":2726,"봘":2727,"봙":2728,"봟":2729,"봠":2730,"봡":2731,"봣":2732,"봤":2733,"봥":2734,"봦":2735,"봨":2736,"봩":2737,"봫":2738,"봬":2739,"봭":2740,"봰":2741,"봴":2742,"봵":2743,"봽":2744,"봿":2745,"뵀":2746,"뵁":2747,"뵈":2748,"뵉":2749,"뵌":2750,"뵏":2751,"뵐":2752,"뵑":2753,"뵘":2754,"뵙":2755,"뵛":2756,"뵜":2757,"뵝":2758,"뵞":2759,"뵠":2760,"뵤":2761,"뵥":2762,"뵨":2763,"뵬":2764,"뵴":2765,"뵵":2766,"뵷":2767,"뵹":2768,"뵺":2769,"부":2770,"북":2771,"붂":2772,"붃":2773,"분":2774,"붅":2775,"붆":2776,"붇":2777,"불":2778,"붉":2779,"붊":2780,"붋":2781,"붌":2782,"붍":2783,"붎":2784,"붏":2785,"붐":2786,"붑":2787,"붓":2788,"붔":2789,"붕":2790,"붖":2791,"붗":2792,"붘":2793,"붙":2794,"붚":2795,"붛":2796,"붜":2797,"붝":2798,"붠":2799,"붤":2800,"붥":2801,"붬":2802,"붭":2803,"붯":2804,"붰":2805,"붱":2806,"붴":2807,"붸":2808,"붹":2809,"붼":2810,"뷀":2811,"뷁":2812,"뷃":2813,"뷇":2814,"뷉":2815,"뷋":2816,"뷍":2817,"뷐":2818,"뷔":2819,"뷕":2820,"뷘":2821,"뷜":2822,"뷤":2823,"뷥":2824,"뷧":2825,"뷩":2826,"뷮":2827,"뷰":2828,"뷱":2829,"뷴":2830,"뷷":2831,"뷸":2832,"뷹":2833,"븀":2834,"븁":2835,"븂":2836,"븃":2837,"븅":2838,"븈":2839,"븉":2840,"븋":2841,"브":2842,"븍":2843,"븎":2844,"븏":2845,"븐":2846,"븓":2847,"블":2848,"븕":2849,"븛":2850,"븜":2851,"븝":2852,"븞":2853,"븟":2854,"븡":2855,"븢":2856,"븤":2857,"븥":2858,"븦":2859,"븧":2860,"븨":2861,"븩":2862,"븬":2863,"븰":2864,"븸":2865,"븹":2866,"븻":2867,"븽":2868,"빂":2869,"비":2870,"빅":2871,"빆":2872,"빇":2873,"빈":2874,"빋":2875,"빌":2876,"빍":2877,"빎":2878,"빏":2879,"빓":2880,"빔":2881,"빕":2882,"빖":2883,"빗":2884,"빘":2885,"빙":2886,"빚":2887,"빛":2888,"빜":2889,"빝":2890,"빞":2891,"빟":2892,"빠":2893,"빡":2894,"빢":2895,"빣":2896,"빤":2897,"빧":2898,"빨":2899,"빩":2900,"빪":2901,"빫":2902,"빬":2903,"빭":2904,"빯":2905,"빰":2906,"빱":2907,"빳":2908,"빴":2909,"빵":2910,"빶":2911,"빷":2912,"빸":2913,"빹":2914,"빺":2915,"빻":2916,"빼":2917,"빽":2918,"빾":2919,"뺀":2920,"뺃":2921,"뺄":2922,"뺅":2923,"뺌":2924,"뺍":2925,"뺏":2926,"뺐":2927,"뺑":2928,"뺒":2929,"뺓":2930,"뺔":2931,"뺕":2932,"뺗":2933,"뺘":2934,"뺙":2935,"뺚":2936,"뺜":2937,"뺠":2938,"뺡":2939,"뺨":2940,"뺩":2941,"뺫":2942,"뺭":2943,"뺴":2944,"뺵":2945,"뺶":2946,"뺸":2947,"뺼":2948,"뻁":2949,"뻄":2950,"뻇":2951,"뻈":2952,"뻉":2953,"뻐":2954,"뻑":2955,"뻒":2956,"뻔":2957,"뻕":2958,"뻖":2959,"뻗":2960,"뻘":2961,"뻙":2962,"뻠":2963,"뻡":2964,"뻣":2965,"뻤":2966,"뻥":2967,"뻦":2968,"뻨":2969,"뻩":2970,"뻪":2971,"뻫":2972,"뻬":2973,"뻭":2974,"뻰":2975,"뻴":2976,"뻼":2977,"뻿":2978,"뼀":2979,"뼁":2980,"뼈":2981,"뼉":2982,"뼊":2983,"뼌":2984,"뼏":2985,"뼐":2986,"뼑":2987,"뼘":2988,"뼙":2989,"뼛":2990,"뼜":2991,"뼝":2992,"뼠":2993,"뼡":2994,"뼤":2995,"뼬":2996,"뽀":2997,"뽁":2998,"뽂":2999,"뽄":3000,"뽇":3001,"뽈":3002,"뽐":3003,"뽑":3004,"뽓":3005,"뽕":3006,"뽖":3007,"뽘":3008,"뽚":3009,"뽛":3010,"뽜":3011,"뽝":3012,"뽞":3013,"뽠":3014,"뽤":3015,"뽥":3016,"뽫":3017,"뽬":3018,"뽭":3019,"뽯":3020,"뽰":3021,"뽱":3022,"뽴":3023,"뽷":3024,"뽸":3025,"뽹":3026,"뾀":3027,"뾃":3028,"뾔":3029,"뾥":3030,"뾰":3031,"뾱":3032,"뾲":3033,"뾴":3034,"뾸":3035,"뿁":3036,"뿃":3037,"뿅":3038,"뿌":3039,"뿍":3040,"뿎":3041,"뿐":3042,"뿑":3043,"뿓":3044,"뿔":3045,"뿕":3046,"뿛":3047,"뿜":3048,"뿝":3049,"뿟":3050,"뿠":3051,"뿡":3052,"뿤":3053,"뿥":3054,"뿧":3055,"뿨":3056,"뿩":3057,"뿬":3058,"뿰":3059,"뿱":3060,"뿳":3061,"뿹":3062,"뿽":3063,"쀀":3064,"쀄":3065,"쀅":3066,"쀈":3067,"쀌":3068,"쀍":3069,"쀏":3070,"쀒":3071,"쀓":3072,"쀠":3073,"쀡":3074,"쀨":3075,"쀳":3076,"쀵":3077,"쀼":3078,"쀽":3079,"쀾":3080,"쁀":3081,"쁄":3082,"쁌":3083,"쁍":3084,"쁏":3085,"쁐":3086,"쁑":3087,"쁘":3088,"쁙":3089,"쁜":3090,"쁝":3091,"쁟":3092,"쁠":3093,"쁨":3094,"쁩":3095,"쁫":3096,"쁭":3097,"쁮":3098,"쁰":3099,"쁴":3100,"쁸":3101,"쁼":3102,"삉":3103,"삐":3104,"삑":3105,"삒":3106,"삔":3107,"삗":3108,"삘":3109,"삠":3110,"삡":3111,"삣":3112,"삤":3113,"삥":3114,"삦":3115,"삧":3116,"삨":3117,"삫":3118,"사":3119,"삭":3120,"삮":3121,"삯":3122,"산":3123,"삱":3124,"삲":3125,"삳":3126,"살":3127,"삵":3128,"삶":3129,"삷":3130,"삸":3131,"삹":3132,"삺":3133,"삻":3134,"삼":3135,"삽":3136,"삾":3137,"삿":3138,"샀":3139,"상":3140,"샂":3141,"샃":3142,"샄":3143,"샅":3144,"샆":3145,"샇":3146,"새":3147,"색":3148,"샊":3149,"샋":3150,"샌":3151,"샎":3152,"샏":3153,"샐":3154,"샑":3155,"샒":3156,"샓":3157,"샔":3158,"샕":3159,"샗":3160,"샘":3161,"샙":3162,"샚":3163,"샛":3164,"샜":3165,"생":3166,"샞":3167,"샟":3168,"샠":3169,"샡":3170,"샢":3171,"샣":3172,"샤":3173,"샥":3174,"샦":3175,"샨":3176,"샫":3177,"샬":3178,"샮":3179,"샴":3180,"샵":3181,"샷":3182,"샸":3183,"샹":3184,"샼":3185,"샽":3186,"샾":3187,"샿":3188,"섀":3189,"섁":3190,"섂":3191,"섄":3192,"섈":3193,"섉":3194,"섊":3195,"섐":3196,"섑":3197,"섓":3198,"섔":3199,"섕":3200,"섘":3201,"서":3202,"석":3203,"섞":3204,"섟":3205,"선":3206,"섡":3207,"섢":3208,"섣":3209,"설":3210,"섥":3211,"섦":3212,"섧":3213,"섨":3214,"섩":3215,"섪":3216,"섫":3217,"섬":3218,"섭":3219,"섮":3220,"섯":3221,"섰":3222,"성":3223,"섲":3224,"섳":3225,"섴":3226,"섵":3227,"섶":3228,"섷":3229,"세":3230,"섹":3231,"섺":3232,"섻":3233,"센":3234,"섽":3235,"섿":3236,"셀":3237,"셁":3238,"셂":3239,"셃":3240,"셆":3241,"셇":3242,"셈":3243,"셉":3244,"셋":3245,"셌":3246,"셍":3247,"셎":3248,"셏":3249,"셐":3250,"셑":3251,"셒":3252,"셓":3253,"셔":3254,"셕":3255,"셖":3256,"션":3257,"셛":3258,"셜":3259,"셟":3260,"셤":3261,"셥":3262,"셧":3263,"셨":3264,"셩":3265,"셪":3266,"셫":3267,"셬":3268,"셭":3269,"셮":3270,"셯":3271,"셰":3272,"셱":3273,"셲":3274,"셴":3275,"셸":3276,"솀":3277,"솁":3278,"솃":3279,"솄":3280,"솅":3281,"솈":3282,"솉":3283,"솊":3284,"소":3285,"속":3286,"솎":3287,"솏":3288,"손":3289,"솑":3290,"솒":3291,"솓":3292,"솔":3293,"솕":3294,"솖":3295,"솛":3296,"솜":3297,"솝":3298,"솟":3299,"솠":3300,"송":3301,"솢":3302,"솣":3303,"솤":3304,"솥":3305,"솦":3306,"솧":3307,"솨":3308,"솩":3309,"솬":3310,"솰":3311,"솸":3312,"솹":3313,"솻":3314,"솼":3315,"솽":3316,"쇀":3317,"쇄":3318,"쇅":3319,"쇆":3320,"쇈":3321,"쇌":3322,"쇔":3323,"쇗":3324,"쇘":3325,"쇙":3326,"쇜":3327,"쇟":3328,"쇠":3329,"쇡":3330,"쇣":3331,"쇤":3332,"쇨":3333,"쇱":3334,"쇳":3335,"쇵":3336,"쇸":3337,"쇼":3338,"쇽":3339,"숀":3340,"숄":3341,"숌":3342,"숍":3343,"숏":3344,"숐":3345,"숑":3346,"숔":3347,"숖":3348,"숗":3349,"수":3350,"숙":3351,"숚":3352,"순":3353,"숝":3354,"숟":3355,"술":3356,"숡":3357,"숢":3358,"숤":3359,"숧":3360,"숨":3361,"숩":3362,"숪":3363,"숫":3364,"숬":3365,"숭":3366,"숮":3367,"숯":3368,"숰":3369,"숱":3370,"숲":3371,"숳":3372,"숴":3373,"숵":3374,"숶":3375,"숸":3376,"숼":3377,"쉄":3378,"쉅":3379,"쉇":3380,"쉈":3381,"쉉":3382,"쉌":3383,"쉐":3384,"쉑":3385,"쉒":3386,"쉓":3387,"쉔":3388,"쉗":3389,"쉘":3390,"쉙":3391,"쉚":3392,"쉛":3393,"쉜":3394,"쉞":3395,"쉟":3396,"쉠":3397,"쉡":3398,"쉣":3399,"쉤":3400,"쉥":3401,"쉧":3402,"쉨":3403,"쉩":3404,"쉪":3405,"쉫":3406,"쉬":3407,"쉭":3408,"쉮":3409,"쉰":3410,"쉲":3411,"쉳":3412,"쉴":3413,"쉻":3414,"쉼":3415,"쉽":3416,"쉾":3417,"쉿":3418,"슀":3419,"슁":3420,"슂":3421,"슄":3422,"슅":3423,"슆":3424,"슇":3425,"슈":3426,"슉":3427,"슌":3428,"슏":3429,"슐":3430,"슘":3431,"슙":3432,"슛":3433,"슝":3434,"슞":3435,"슟":3436,"슠":3437,"슢":3438,"스":3439,"슥":3440,"슦":3441,"슧":3442,"슨":3443,"슩":3444,"슫":3445,"슬":3446,"슭":3447,"슮":3448,"슯":3449,"슰":3450,"슲":3451,"슳":3452,"슴":3453,"습":3454,"슶":3455,"슷":3456,"슸":3457,"승":3458,"슺":3459,"슻":3460,"슼":3461,"슽":3462,"슾":3463,"슿":3464,"싀":3465,"싁":3466,"싄":3467,"싅":3468,"싆":3469,"싇":3470,"싈":3471,"싐":3472,"싑":3473,"싓":3474,"싕":3475,"싖":3476,"싘":3477,"싙":3478,"싚":3479,"시":3480,"식":3481,"싞":3482,"싟":3483,"신":3484,"싡":3485,"싢":3486,"싣":3487,"실":3488,"싥":3489,"싦":3490,"싧":3491,"싨":3492,"싩":3493,"싪":3494,"싫":3495,"심":3496,"십":3497,"싮":3498,"싯":3499,"싰":3500,"싱":3501,"싲":3502,"싳":3503,"싴":3504,"싵":3505,"싶":3506,"싷":3507,"싸":3508,"싹":3509,"싺":3510,"싻":3511,"싼":3512,"싾":3513,"싿":3514,"쌀":3515,"쌂":3516,"쌇":3517,"쌈":3518,"쌉":3519,"쌋":3520,"쌌":3521,"쌍":3522,"쌎":3523,"쌐":3524,"쌑":3525,"쌒":3526,"쌓":3527,"쌔":3528,"쌕":3529,"쌖":3530,"쌗":3531,"쌘":3532,"쌛":3533,"쌜":3534,"쌞":3535,"쌟":3536,"쌤":3537,"쌥":3538,"쌧":3539,"쌨":3540,"쌩":3541,"쌬":3542,"쌯":3543,"쌰":3544,"쌱":3545,"쌴":3546,"쌸":3547,"쌻":3548,"썀":3549,"썁":3550,"썃":3551,"썄":3552,"썅":3553,"썋":3554,"썌":3555,"썍":3556,"썎":3557,"썐":3558,"썔":3559,"썖":3560,"썜":3561,"썝":3562,"썟":3563,"썠":3564,"썡":3565,"써":3566,"썩":3567,"썪":3568,"썫":3569,"썬":3570,"썯":3571,"썰":3572,"썱":3573,"썳":3574,"썸":3575,"썹":3576,"썻":3577,"썼":3578,"썽":3579,"썾":3580,"쎀":3581,"쎁":3582,"쎂":3583,"쎃":3584,"쎄":3585,"쎅":3586,"쎆":3587,"쎇":3588,"쎈":3589,"쎌":3590,"쎍":3591,"쎓":3592,"쎔":3593,"쎕":3594,"쎗":3595,"쎘":3596,"쎙":3597,"쎜":3598,"쎝":3599,"쎟":3600,"쎠":3601,"쎡":3602,"쎤":3603,"쎨":3604,"쎰":3605,"쎱":3606,"쎳":3607,"쎴":3608,"쎵":3609,"쎼":3610,"쎽":3611,"쎾":3612,"쏀":3613,"쏃":3614,"쏄":3615,"쏌":3616,"쏏":3617,"쏐":3618,"쏔":3619,"쏖":3620,"쏘":3621,"쏙":3622,"쏚":3623,"쏜":3624,"쏟":3625,"쏠":3626,"쏨":3627,"쏩":3628,"쏫":3629,"쏬":3630,"쏭":3631,"쏮":3632,"쏰":3633,"쏱":3634,"쏳":3635,"쏴":3636,"쏵":3637,"쏸":3638,"쏼":3639,"쐄":3640,"쐅":3641,"쐇":3642,"쐈":3643,"쐉":3644,"쐌":3645,"쐏":3646,"쐐":3647,"쐑":3648,"쐒":3649,"쐣":3650,"쐤":3651,"쐥":3652,"쐨":3653,"쐬":3654,"쐭":3655,"쐰":3656,"쐴":3657,"쐼":3658,"쐽":3659,"쐿":3660,"쑀":3661,"쑈":3662,"쑉":3663,"쑌":3664,"쑐":3665,"쑙":3666,"쑛":3667,"쑝":3668,"쑤":3669,"쑥":3670,"쑦":3671,"쑨":3672,"쑫":3673,"쑬":3674,"쑴":3675,"쑵":3676,"쑷":3677,"쑹":3678,"쑻":3679,"쑼":3680,"쒀":3681,"쒁":3682,"쒂":3683,"쒄":3684,"쒈":3685,"쒐":3686,"쒑":3687,"쒓":3688,"쒔":3689,"쒕":3690,"쒘":3691,"쒜":3692,"쒝":3693,"쒞":3694,"쒠":3695,"쒤":3696,"쒥":3697,"쒧":3698,"쒫":3699,"쒭":3700,"쒯":3701,"쒰":3702,"쒱":3703,"쒴":3704,"쒵":3705,"쒸":3706,"쒹":3707,"쒼":3708,"쓀":3709,"쓃":3710,"쓈":3711,"쓉":3712,"쓊":3713,"쓋":3714,"쓌":3715,"쓍":3716,"쓐":3717,"쓑":3718,"쓒":3719,"쓔":3720,"쓕":3721,"쓘":3722,"쓜":3723,"쓤":3724,"쓥":3725,"쓩":3726,"쓰":3727,"쓱":3728,"쓲":3729,"쓴":3730,"쓷":3731,"쓸":3732,"쓹":3733,"쓺":3734,"쓿":3735,"씀":3736,"씁":3737,"씂":3738,"씃":3739,"씄":3740,"씅":3741,"씆":3742,"씇":3743,"씈":3744,"씉":3745,"씊":3746,"씋":3747,"씌":3748,"씍":3749,"씐":3750,"씔":3751,"씗":3752,"씜":3753,"씝":3754,"씞":3755,"씟":3756,"씡":3757,"씢":3758,"씤":3759,"씥":3760,"씦":3761,"씧":3762,"씨":3763,"씩":3764,"씪":3765,"씬":3766,"씮":3767,"씯":3768,"씰":3769,"씱":3770,"씳":3771,"씶":3772,"씷":3773,"씸":3774,"씹":3775,"씺":3776,"씻":3777,"씼":3778,"씽":3779,"씾":3780,"씿":3781,"앀":3782,"앁":3783,"앂":3784,"앃":3785,"아":3786,"악":3787,"앆":3788,"앇":3789,"안":3790,"앉":3791,"않":3792,"앋":3793,"알":3794,"앍":3795,"앎":3796,"앏":3797,"앐":3798,"앑":3799,"앒":3800,"앓":3801,"암":3802,"압":3803,"앖":3804,"앗":3805,"았":3806,"앙":3807,"앚":3808,"앛":3809,"앜":3810,"앝":3811,"앞":3812,"앟":3813,"애":3814,"액":3815,"앢":3816,"앣":3817,"앤":3818,"앦":3819,"앧":3820,"앨":3821,"앩":3822,"앰":3823,"앱":3824,"앲":3825,"앳":3826,"앴":3827,"앵":3828,"앶":3829,"앷":3830,"앸":3831,"앹":3832,"앺":3833,"앻":3834,"야":3835,"약":3836,"앾":3837,"앿":3838,"얀":3839,"얁":3840,"얂":3841,"얃":3842,"얄":3843,"얅":3844,"얆":3845,"얇":3846,"얉":3847,"얊":3848,"얋":3849,"얌":3850,"얍":3851,"얎":3852,"얏":3853,"얐":3854,"양":3855,"얒":3856,"얓":3857,"얔":3858,"얕":3859,"얖":3860,"얗":3861,"얘":3862,"얙":3863,"얜":3864,"얠":3865,"얨":3866,"얩":3867,"얪":3868,"얫":3869,"얬":3870,"얭":3871,"얮":3872,"얰":3873,"얳":3874,"어":3875,"억":3876,"얶":3877,"얷":3878,"언":3879,"얹":3880,"얺":3881,"얻":3882,"얼":3883,"얽":3884,"얾":3885,"얿":3886,"엀":3887,"엁":3888,"엂":3889,"엃":3890,"엄":3891,"업":3892,"없":3893,"엇":3894,"었":3895,"엉":3896,"엊":3897,"엋":3898,"엌":3899,"엍":3900,"엎":3901,"엏":3902,"에":3903,"엑":3904,"엒":3905,"엓":3906,"엔":3907,"엕":3908,"엗":3909,"엘":3910,"엙":3911,"엜":3912,"엞":3913,"엠":3914,"엡":3915,"엢":3916,"엣":3917,"엤":3918,"엥":3919,"엦":3920,"엧":3921,"엨":3922,"엩":3923,"엪":3924,"엫":3925,"여":3926,"역":3927,"엮":3928,"엯":3929,"연":3930,"엱":3931,"엲":3932,"엳":3933,"열":3934,"엵":3935,"엶":3936,"엷":3937,"엸":3938,"엹":3939,"엻":3940,"염":3941,"엽":3942,"엾":3943,"엿":3944,"였":3945,"영":3946,"옂":3947,"옃":3948,"옄":3949,"옅":3950,"옆":3951,"옇":3952,"예":3953,"옉":3954,"옌":3955,"옐":3956,"옘":3957,"옙":3958,"옛":3959,"옜":3960,"옝":3961,"옞":3962,"옟":3963,"옠":3964,"옢":3965,"옣":3966,"오":3967,"옥":3968,"옦":3969,"옧":3970,"온":3971,"옩":3972,"옪":3973,"옫":3974,"올":3975,"옭":3976,"옮":3977,"옯":3978,"옰":3979,"옱":3980,"옲":3981,"옳":3982,"옴":3983,"옵":3984,"옶":3985,"옷":3986,"옸":3987,"옹":3988,"옺":3989,"옻":3990,"옼":3991,"옽":3992,"옾":3993,"옿":3994,"와":3995,"왁":3996,"왂":3997,"완":3998,"왅":3999,"왆":4000,"왇":4001,"왈":4002,"왉":4003,"왐":4004,"왑":4005,"왓":4006,"왔":4007,"왕":4008,"왖":4009,"왗":4010,"왘":4011,"왙":4012,"왚":4013,"왛":4014,"왜":4015,"왝":4016,"왠":4017,"왡":4018,"왢":4019,"왤":4020,"왥":4021,"왬":4022,"왭":4023,"왯":4024,"왰":4025,"왱":4026,"왲":4027,"왳":4028,"왴":4029,"왶":4030,"왷":4031,"외":4032,"왹":4033,"왼":4034,"욀":4035,"욈":4036,"욉":4037,"욋":4038,"욌":4039,"욍":4040,"욎":4041,"욐":4042,"욓":4043,"요":4044,"욕":4045,"욖":4046,"욗":4047,"욘":4048,"욛":4049,"욜":4050,"욝":4051,"욣":4052,"욤":4053,"욥":4054,"욧":4055,"욨":4056,"용":4057,"욪":4058,"욫":4059,"욬":4060,"욭":4061,"욮":4062,"욯":4063,"우":4064,"욱":4065,"욲":4066,"욳":4067,"운":4068,"욵":4069,"욷":4070,"울":4071,"욹":4072,"욺":4073,"욻":4074,"욼":4075,"욽":4076,"욾":4077,"욿":4078,"움":4079,"웁":4080,"웂":4081,"웃":4082,"웄":4083,"웅":4084,"웆":4085,"웇":4086,"웈":4087,"웉":4088,"웊":4089,"웋":4090,"워":4091,"웍":4092,"웎":4093,"원":4094,"웑":4095,"웒":4096,"웓":4097,"월":4098,"웕":4099,"웖":4100,"웗":4101,"웘":4102,"웙":4103,"웚":4104,"웛":4105,"웜":4106,"웝":4107,"웞":4108,"웟":4109,"웠":4110,"웡":4111,"웢":4112,"웣":4113,"웤":4114,"웥":4115,"웦":4116,"웧":4117,"웨":4118,"웩":4119,"웪":4120,"웬":4121,"웯":4122,"웰":4123,"웱":4124,"웳":4125,"웸":4126,"웹":4127,"웺":4128,"웻":4129,"웼":4130,"웽":4131,"웾":4132,"윀":4133,"윁":4134,"윂":4135,"위":4136,"윅":4137,"윈":4138,"윋":4139,"윌":4140,"윔":4141,"윕":4142,"윖":4143,"윗":4144,"윘":4145,"윙":4146,"윚":4147,"윜":4148,"윝":4149,"윟":4150,"유":4151,"육":4152,"윢":4153,"윣":4154,"윤":4155,"윥":4156,"윧":4157,"율":4158,"윩":4159,"윯":4160,"윰":4161,"윱":4162,"윳":4163,"융":4164,"윶":4165,"윷":4166,"윸":4167,"윹":4168,"윺":4169,"윻":4170,"으":4171,"윽":4172,"윾":4173,"윿":4174,"은":4175,"읁":4176,"읂":4177,"읃":4178,"을":4179,"읅":4180,"읆":4181,"읇":4182,"읈":4183,"읉":4184,"읊":4185,"읋":4186,"음":4187,"읍":4188,"읎":4189,"읏":4190,"읐":4191,"응":4192,"읒":4193,"읓":4194,"읔":4195,"읕":4196,"읖":4197,"읗":4198,"의":4199,"읙":4200,"읜":4201,"읟":4202,"읠":4203,"읨":4204,"읩":4205,"읪":4206,"읫":4207,"읬":4208,"읭":4209,"읮":4210,"읯":4211,"읰":4212,"읱":4213,"읲":4214,"읳":4215,"이":4216,"익":4217,"읶":4218,"읷":4219,"인":4220,"읹":4221,"읺":4222,"읻":4223,"일":4224,"읽":4225,"읾":4226,"읿":4227,"잀":4228,"잁":4229,"잂":4230,"잃":4231,"임":4232,"입":4233,"잆":4234,"잇":4235,"있":4236,"잉":4237,"잊":4238,"잋":4239,"잌":4240,"잍":4241,"잎":4242,"잏":4243,"자":4244,"작":4245,"잒":4246,"잓":4247,"잔":4248,"잕":4249,"잖":4250,"잗":4251,"잘":4252,"잙":4253,"잚":4254,"잛":4255,"잜":4256,"잝":4257,"잞":4258,"잟":4259,"잠":4260,"잡":4261,"잢":4262,"잣":4263,"잤":4264,"장":4265,"잦":4266,"잧":4267,"잨":4268,"잩":4269,"잪":4270,"잫":4271,"재":4272,"잭":4273,"잮":4274,"잰":4275,"잲":4276,"잳":4277,"잴":4278,"잼":4279,"잽":4280,"잿":4281,"쟀":4282,"쟁":4283,"쟂":4284,"쟃":4285,"쟄":4286,"쟅":4287,"쟆":4288,"쟇":4289,"쟈":4290,"쟉":4291,"쟌":4292,"쟎":4293,"쟏":4294,"쟐":4295,"쟘":4296,"쟙":4297,"쟛":4298,"쟜":4299,"쟝":4300,"쟞":4301,"쟟":4302,"쟠":4303,"쟡":4304,"쟣":4305,"쟤":4306,"쟥":4307,"쟨":4308,"쟬":4309,"쟴":4310,"쟸":4311,"쟹":4312,"쟼":4313,"저":4314,"적":4315,"젂":4316,"젃":4317,"전":4318,"젅":4319,"젆":4320,"젇":4321,"절":4322,"젉":4323,"젊":4324,"젋":4325,"젌":4326,"젍":4327,"젎":4328,"젏":4329,"점":4330,"접":4331,"젒":4332,"젓":4333,"젔":4334,"정":4335,"젖":4336,"젗":4337,"젘":4338,"젙":4339,"젚":4340,"젛":4341,"제":4342,"젝":4343,"젞":4344,"젠":4345,"젡":4346,"젣":4347,"젤":4348,"젬":4349,"젭":4350,"젯":4351,"젰":4352,"젱":4353,"젲":4354,"젳":4355,"젴":4356,"젵":4357,"젶":4358,"젷":4359,"져":4360,"젹":4361,"젺":4362,"젼":4363,"젾":4364,"젿":4365,"졀":4366,"졂":4367,"졈":4368,"졉":4369,"졋":4370,"졌":4371,"졍":4372,"졎":4373,"졏":4374,"졐":4375,"졑":4376,"졒":4377,"졓":4378,"졔":4379,"졘":4380,"졜":4381,"졨":4382,"졩":4383,"조":4384,"족":4385,"졲":4386,"졳":4387,"존":4388,"졵":4389,"졶":4390,"졷":4391,"졸":4392,"졹":4393,"졺":4394,"졻":4395,"졽":4396,"졿":4397,"좀":4398,"좁":4399,"좂":4400,"좃":4401,"좄":4402,"종":4403,"좆":4404,"좇":4405,"좈":4406,"좉":4407,"좊":4408,"좋":4409,"좌":4410,"좍":4411,"좎":4412,"좐":4413,"좒":4414,"좓":4415,"좔":4416,"좜":4417,"좝":4418,"좟":4419,"좠":4420,"좡":4421,"좢":4422,"좣":4423,"좤":4424,"좥":4425,"좦":4426,"좧":4427,"좨":4428,"좩":4429,"좬":4430,"좭":4431,"좮":4432,"좯":4433,"좰":4434,"좱":4435,"좸":4436,"좼":4437,"좽":4438,"죄":4439,"죅":4440,"죈":4441,"죌":4442,"죔":4443,"죕":4444,"죗":4445,"죘":4446,"죙":4447,"죚":4448,"죜":4449,"죝":4450,"죠":4451,"죡":4452,"죢":4453,"죣":4454,"죤":4455,"죥":4456,"죧":4457,"죨":4458,"죰":4459,"죱":4460,"죳":4461,"죴":4462,"죵":4463,"죶":4464,"죷":4465,"죸":4466,"죹":4467,"죺":4468,"죻":4469,"주":4470,"죽":4471,"죾":4472,"죿":4473,"준":4474,"줁":4475,"줂":4476,"줃":4477,"줄":4478,"줅":4479,"줆":4480,"줈":4481,"줉":4482,"줊":4483,"줋":4484,"줌":4485,"줍":4486,"줎":4487,"줏":4488,"줐":4489,"중":4490,"줒":4491,"줓":4492,"줔":4493,"줕":4494,"줖":4495,"줗":4496,"줘":4497,"줙":4498,"줚":4499,"줜":4500,"줝":4501,"줟":4502,"줠":4503,"줨":4504,"줩":4505,"줫":4506,"줬":4507,"줭":4508,"줮":4509,"줯":4510,"줰":4511,"줱":4512,"줳":4513,"줴":4514,"줵":4515,"줸":4516,"줼":4517,"쥄":4518,"쥅":4519,"쥇":4520,"쥈":4521,"쥉":4522,"쥐":4523,"쥑":4524,"쥔":4525,"쥘":4526,"쥠":4527,"쥡":4528,"쥣":4529,"쥤":4530,"쥥":4531,"쥦":4532,"쥨":4533,"쥫":4534,"쥬":4535,"쥭":4536,"쥰":4537,"쥳":4538,"쥴":4539,"쥼":4540,"쥽":4541,"쥿":4542,"즁":4543,"즂":4544,"즄":4545,"즇":4546,"즈":4547,"즉":4548,"즋":4549,"즌":4550,"즎":4551,"즏":4552,"즐":4553,"즑":4554,"즘":4555,"즙":4556,"즛":4557,"즜":4558,"증":4559,"즞":4560,"즟":4561,"즠":4562,"즡":4563,"즣":4564,"즤":4565,"즥":4566,"즨":4567,"즬":4568,"즴":4569,"즵":4570,"즷":4571,"즹":4572,"즺":4573,"즼":4574,"지":4575,"직":4576,"짂":4577,"짃":4578,"진":4579,"짅":4580,"짆":4581,"짇":4582,"질":4583,"짉":4584,"짊":4585,"짋":4586,"짌":4587,"짍":4588,"짎":4589,"짏":4590,"짐":4591,"집":4592,"짒":4593,"짓":4594,"짔":4595,"징":4596,"짖":4597,"짗":4598,"짘":4599,"짙":4600,"짚":4601,"짛":4602,"짜":4603,"짝":4604,"짞":4605,"짠":4606,"짢":4607,"짣":4608,"짤":4609,"짥":4610,"짦":4611,"짧":4612,"짪":4613,"짫":4614,"짬":4615,"짭":4616,"짮":4617,"짯":4618,"짰":4619,"짱":4620,"짲":4621,"짳":4622,"짴":4623,"짵":4624,"짶":4625,"짷":4626,"째":4627,"짹":4628,"짺":4629,"짼":4630,"짿":4631,"쨀":4632,"쨈":4633,"쨉":4634,"쨋":4635,"쨌":4636,"쨍":4637,"쨎":4638,"쨐":4639,"쨓":4640,"쨔":4641,"쨕":4642,"쨖":4643,"쨘":4644,"쨚":4645,"쨜":4646,"쨟":4647,"쨤":4648,"쨥":4649,"쨧":4650,"쨨":4651,"쨩":4652,"쨬":4653,"쨰":4654,"쨱":4655,"쨲":4656,"쨴":4657,"쩀":4658,"쩁":4659,"쩃":4660,"쩄":4661,"쩅":4662,"쩌":4663,"쩍":4664,"쩎":4665,"쩐":4666,"쩑":4667,"쩓":4668,"쩔":4669,"쩕":4670,"쩖":4671,"쩗":4672,"쩘":4673,"쩛":4674,"쩜":4675,"쩝":4676,"쩟":4677,"쩠":4678,"쩡":4679,"쩢":4680,"쩣":4681,"쩤":4682,"쩦":4683,"쩧":4684,"쩨":4685,"쩩":4686,"쩬":4687,"쩰":4688,"쩸":4689,"쩹":4690,"쩻":4691,"쩼":4692,"쩽":4693,"쪄":4694,"쪅":4695,"쪈":4696,"쪌":4697,"쪔":4698,"쪕":4699,"쪗":4700,"쪘":4701,"쪙":4702,"쪚":4703,"쪜":4704,"쪟":4705,"쪠":4706,"쪵":4707,"쪹":4708,"쪻":4709,"쪼":4710,"쪽":4711,"쪾":4712,"쪿":4713,"쫀":4714,"쫂":4715,"쫃":4716,"쫄":4717,"쫅":4718,"쫌":4719,"쫍":4720,"쫏":4721,"쫐":4722,"쫑":4723,"쫒":4724,"쫓":4725,"쫔":4726,"쫕":4727,"쫖":4728,"쫗":4729,"쫘":4730,"쫙":4731,"쫚":4732,"쫛":4733,"쫜":4734,"쫟":4735,"쫠":4736,"쫨":4737,"쫩":4738,"쫫":4739,"쫭":4740,"쫰":4741,"쫴":4742,"쫵":4743,"쬈":4744,"쬎":4745,"쬐":4746,"쬑":4747,"쬔":4748,"쬘":4749,"쬠":4750,"쬡":4751,"쬥":4752,"쬬":4753,"쬭":4754,"쬮":4755,"쬰":4756,"쬲":4757,"쬴":4758,"쬼":4759,"쬽":4760,"쬿":4761,"쭀":4762,"쭁":4763,"쭂":4764,"쭃":4765,"쭄":4766,"쭅":4767,"쭈":4768,"쭉":4769,"쭊":4770,"쭌":4771,"쭏":4772,"쭐":4773,"쭕":4774,"쭘":4775,"쭙":4776,"쭛":4777,"쭝":4778,"쭞":4779,"쭟":4780,"쭠":4781,"쭤":4782,"쭥":4783,"쭨":4784,"쭬":4785,"쭭":4786,"쭵":4787,"쭷":4788,"쭸":4789,"쭹":4790,"쭻":4791,"쮀":4792,"쮁":4793,"쮇":4794,"쮉":4795,"쮑":4796,"쮓":4797,"쮔":4798,"쮕":4799,"쮜":4800,"쮝":4801,"쮠":4802,"쮤":4803,"쮭":4804,"쮱":4805,"쮸":4806,"쮹":4807,"쮼":4808,"쯀":4809,"쯈":4810,"쯉":4811,"쯋":4812,"쯍":4813,"쯎":4814,"쯔":4815,"쯕":4816,"쯘":4817,"쯛":4818,"쯜":4819,"쯤":4820,"쯥":4821,"쯧":4822,"쯨":4823,"쯩":4824,"쯪":4825,"쯫":4826,"쯰":4827,"쯱":4828,"쯴":4829,"찁":4830,"찅":4831,"찌":4832,"찍":4833,"찎":4834,"찏":4835,"찐":4836,"찓":4837,"찔":4838,"찗":4839,"찜":4840,"찝":4841,"찟":4842,"찠":4843,"찡":4844,"찢":4845,"찣":4846,"찤":4847,"찥":4848,"찦":4849,"찧":4850,"차":4851,"착":4852,"찪":4853,"찫":4854,"찬":4855,"찭":4856,"찮":4857,"찯":4858,"찰":4859,"찱":4860,"찲":4861,"찳":4862,"찴":4863,"찷":4864,"참":4865,"찹":4866,"찻":4867,"찼":4868,"창":4869,"찾":4870,"찿":4871,"챀":4872,"챁":4873,"챂":4874,"챃":4875,"채":4876,"책":4877,"챈":4878,"챊":4879,"챋":4880,"챌":4881,"챔":4882,"챕":4883,"챗":4884,"챘":4885,"챙":4886,"챚":4887,"챜":4888,"챝":4889,"챠":4890,"챡":4891,"챤":4892,"챦":4893,"챨":4894,"챫":4895,"챰":4896,"챱":4897,"챳":4898,"챴":4899,"챵":4900,"챶":4901,"챷":4902,"챸":4903,"챺":4904,"챻":4905,"챼":4906,"챽":4907,"첑":4908,"처":4909,"척":4910,"천":4911,"첝":4912,"첞":4913,"첟":4914,"철":4915,"첡":4916,"첢":4917,"첣":4918,"첤":4919,"첦":4920,"첧":4921,"첨":4922,"첩":4923,"첪":4924,"첫":4925,"첬":4926,"청":4927,"첮":4928,"첯":4929,"첰":4930,"첱":4931,"첲":4932,"첳":4933,"체":4934,"첵":4935,"첸":4936,"첻":4937,"첼":4938,"쳄":4939,"쳅":4940,"쳇":4941,"쳈":4942,"쳉":4943,"쳊":4944,"쳋":4945,"쳌":4946,"쳍":4947,"쳏":4948,"쳐":4949,"쳑":4950,"쳒":4951,"쳔":4952,"쳗":4953,"쳘":4954,"쳠":4955,"쳡":4956,"쳢":4957,"쳣":4958,"쳤":4959,"쳥":4960,"쳦":4961,"쳧":4962,"쳨":4963,"쳫":4964,"쳬":4965,"쳭":4966,"쳰":4967,"쳴":4968,"촀":4969,"초":4970,"촉":4971,"촌":4972,"촏":4973,"촐":4974,"촔":4975,"촘":4976,"촙":4977,"촛":4978,"촜":4979,"총":4980,"촞":4981,"촟":4982,"촠":4983,"촡":4984,"촣":4985,"촤":4986,"촥":4987,"촨":4988,"촪":4989,"촬":4990,"촴":4991,"촵":4992,"촷":4993,"촹":4994,"촺":4995,"촼":4996,"쵀":4997,"쵁":4998,"쵕":4999,"최":5000,"쵝":5001,"쵠":5002,"쵤":5003,"쵭":5004,"쵮":5005,"쵯":5006,"쵱":5007,"쵲":5008,"쵴":5009,"쵸":5010,"쵹":5011,"쵼":5012,"쵿":5013,"춀":5014,"춈":5015,"춉":5016,"춋":5017,"춌":5018,"춍":5019,"춎":5020,"춏":5021,"춐":5022,"추":5023,"축":5024,"춘":5025,"춚":5026,"춛":5027,"출":5028,"춝":5029,"춞":5030,"춟":5031,"춠":5032,"춡":5033,"춣":5034,"춤":5035,"춥":5036,"춧":5037,"충":5038,"춪":5039,"춫":5040,"춬":5041,"춭":5042,"춮":5043,"춯":5044,"춰":5045,"춱":5046,"춴":5047,"춸":5048,"췁":5049,"췃":5050,"췄":5051,"췅":5052,"췆":5053,"췈":5054,"췌":5055,"췍":5056,"췐":5057,"췔":5058,"췕":5059,"췜":5060,"췝":5061,"췟":5062,"췡":5063,"췤":5064,"취":5065,"췩":5066,"췬":5067,"췰":5068,"췸":5069,"췹":5070,"췻":5071,"췼":5072,"췽":5073,"츀":5074,"츄":5075,"츅":5076,"츈":5077,"츌":5078,"츔":5079,"츕":5080,"츗":5081,"츙":5082,"츛":5083,"츜":5084,"츞":5085,"츠":5086,"측":5087,"츤":5088,"츧":5089,"츨":5090,"츰":5091,"츱":5092,"츳":5093,"층":5094,"츶":5095,"츷":5096,"츸":5097,"츹":5098,"츼":5099,"츽":5100,"칀":5101,"칄":5102,"칌":5103,"칍":5104,"칑":5105,"칔":5106,"치":5107,"칙":5108,"친":5109,"칝":5110,"칞":5111,"칟":5112,"칠":5113,"칡":5114,"칢":5115,"칤":5116,"칧":5117,"침":5118,"칩":5119,"칫":5120,"칬":5121,"칭":5122,"칮":5123,"칯":5124,"칰":5125,"칱":5126,"칲":5127,"칳":5128,"카":5129,"칵":5130,"칶":5131,"칸":5132,"칻":5133,"칼":5134,"칽":5135,"캄":5136,"캅":5137,"캆":5138,"캇":5139,"캈":5140,"캉":5141,"캊":5142,"캋":5143,"캌":5144,"캍":5145,"캎":5146,"캏":5147,"캐":5148,"캑":5149,"캔":5150,"캘":5151,"캙":5152,"캠":5153,"캡":5154,"캢":5155,"캣":5156,"캤":5157,"캥":5158,"캨":5159,"캩":5160,"캪":5161,"캬":5162,"캭":5163,"캮":5164,"캰":5165,"캴":5166,"캵":5167,"캼":5168,"캽":5169,"캿":5170,"컀":5171,"컁":5172,"컄":5173,"컅":5174,"컇":5175,"컈":5176,"커":5177,"컥":5178,"컦":5179,"컨":5180,"컫":5181,"컬":5182,"컭":5183,"컯":5184,"컴":5185,"컵":5186,"컷":5187,"컸":5188,"컹":5189,"컺":5190,"컼":5191,"컽":5192,"컾":5193,"컿":5194,"케":5195,"켁":5196,"켄":5197,"켇":5198,"켈":5199,"켉":5200,"켐":5201,"켑":5202,"켓":5203,"켔":5204,"켕":5205,"켘":5206,"켙":5207,"켚":5208,"켛":5209,"켜":5210,"켝":5211,"켞":5212,"켠":5213,"켤":5214,"켬":5215,"켭":5216,"켯":5217,"켰":5218,"켱":5219,"켲":5220,"켴":5221,"켵":5222,"켷":5223,"켸":5224,"켼":5225,"콋":5226,"콌":5227,"코":5228,"콕":5229,"콘":5230,"콛":5231,"콜":5232,"콤":5233,"콥":5234,"콧":5235,"콩":5236,"콪":5237,"콫":5238,"콬":5239,"콭":5240,"콮":5241,"콯":5242,"콰":5243,"콱":5244,"콲":5245,"콴":5246,"콸":5247,"쾀":5248,"쾃":5249,"쾅":5250,"쾈":5251,"쾌":5252,"쾍":5253,"쾐":5254,"쾡":5255,"쾤":5256,"쾨":5257,"쾩":5258,"쾬":5259,"쾰":5260,"쾽":5261,"쿄":5262,"쿅":5263,"쿈":5264,"쿌":5265,"쿔":5266,"쿗":5267,"쿙":5268,"쿜":5269,"쿠":5270,"쿡":5271,"쿢":5272,"쿤":5273,"쿧":5274,"쿨":5275,"쿩":5276,"쿫":5277,"쿯":5278,"쿰":5279,"쿱":5280,"쿳":5281,"쿵":5282,"쿸":5283,"쿹":5284,"쿺":5285,"쿻":5286,"쿼":5287,"쿽":5288,"퀀":5289,"퀄":5290,"퀌":5291,"퀏":5292,"퀐":5293,"퀑":5294,"퀔":5295,"퀘":5296,"퀙":5297,"퀜":5298,"퀠":5299,"퀡":5300,"퀫":5301,"퀭":5302,"퀰":5303,"퀴":5304,"퀵":5305,"퀸":5306,"퀻":5307,"퀼":5308,"큄":5309,"큅":5310,"큇":5311,"큉":5312,"큌":5313,"큐":5314,"큑":5315,"큔":5316,"큘":5317,"큠":5318,"큡":5319,"큣":5320,"큥":5321,"큨":5322,"큩":5323,"큪":5324,"크":5325,"큭":5326,"큮":5327,"큰":5328,"큲":5329,"큳":5330,"클":5331,"큵":5332,"큷":5333,"큻":5334,"큼":5335,"큽":5336,"큿":5337,"킀":5338,"킁":5339,"킂":5340,"킄":5341,"킅":5342,"킆":5343,"킇":5344,"킈":5345,"킉":5346,"킌":5347,"킐":5348,"킘":5349,"킝":5350,"킠":5351,"키":5352,"킥":5353,"킦":5354,"킨":5355,"킫":5356,"킬":5357,"킴":5358,"킵":5359,"킶":5360,"킷":5361,"킸":5362,"킹":5363,"킺":5364,"킼":5365,"킽":5366,"킾":5367,"킿":5368,"타":5369,"탁":5370,"탂":5371,"탄":5372,"탅":5373,"탆":5374,"탇":5375,"탈":5376,"탉":5377,"탊":5378,"탍":5379,"탏":5380,"탐":5381,"탑":5382,"탓":5383,"탔":5384,"탕":5385,"탖":5386,"탗":5387,"탘":5388,"탙":5389,"탚":5390,"탛":5391,"태":5392,"택":5393,"탞":5394,"탟":5395,"탠":5396,"탣":5397,"탤":5398,"탬":5399,"탭":5400,"탯":5401,"탰":5402,"탱":5403,"탲":5404,"탴":5405,"탵":5406,"탶":5407,"탷":5408,"탸":5409,"탹":5410,"탼":5411,"턀":5412,"턈":5413,"턉":5414,"턋":5415,"턍":5416,"턐":5417,"턑":5418,"턔":5419,"턕":5420,"턘":5421,"턩":5422,"터":5423,"턱":5424,"턴":5425,"턷":5426,"털":5427,"턹":5428,"턺":5429,"텀":5430,"텁":5431,"텂":5432,"텃":5433,"텄":5434,"텅":5435,"텆":5436,"텇":5437,"텈":5438,"텉":5439,"텊":5440,"텋":5441,"테":5442,"텍":5443,"텐":5444,"텓":5445,"텔":5446,"템":5447,"텝":5448,"텟":5449,"텠":5450,"텡":5451,"텢":5452,"텣":5453,"텤":5454,"텥":5455,"텦":5456,"텧":5457,"텨":5458,"텩":5459,"텬":5460,"텰":5461,"텸":5462,"텹":5463,"텻":5464,"텼":5465,"텽":5466,"톀":5467,"톃":5468,"톄":5469,"톅":5470,"톈":5471,"톌":5472,"톔":5473,"토":5474,"톡":5475,"톢":5476,"톤":5477,"톧":5478,"톨":5479,"톩":5480,"톪":5481,"톰":5482,"톱":5483,"톳":5484,"통":5485,"톶":5486,"톷":5487,"톸":5488,"톹":5489,"톺":5490,"톻":5491,"톼":5492,"톽":5493,"퇀":5494,"퇄":5495,"퇌":5496,"퇍":5497,"퇏":5498,"퇑":5499,"퇔":5500,"퇘":5501,"퇙":5502,"퇜":5503,"퇧":5504,"퇫":5505,"퇬":5506,"퇭":5507,"퇮":5508,"퇴":5509,"퇵":5510,"퇶":5511,"퇸":5512,"퇼":5513,"툄":5514,"툅":5515,"툇":5516,"툈":5517,"툉":5518,"툊":5519,"툌":5520,"툐":5521,"툑":5522,"툠":5523,"툥":5524,"툨":5525,"툩":5526,"투":5527,"툭":5528,"툰":5529,"툱":5530,"툲":5531,"툳":5532,"툴":5533,"툻":5534,"툼":5535,"툽":5536,"툿":5537,"퉁":5538,"퉂":5539,"퉄":5540,"퉅":5541,"퉆":5542,"퉈":5543,"퉉":5544,"퉌":5545,"퉐":5546,"퉛":5547,"퉜":5548,"퉝":5549,"퉤":5550,"퉥":5551,"퉨":5552,"퉬":5553,"퉵":5554,"퉷":5555,"퉸":5556,"퉹":5557,"퉼":5558,"퉽":5559,"튀":5560,"튁":5561,"튄":5562,"튈":5563,"튐":5564,"튑":5565,"튓":5566,"튔":5567,"튕":5568,"튘":5569,"튜":5570,"튝":5571,"튠":5572,"튤":5573,"튬":5574,"튭":5575,"튱":5576,"튴":5577,"튵":5578,"튶":5579,"트":5580,"특":5581,"튺":5582,"튻":5583,"튼":5584,"튽":5585,"튿":5586,"틀":5587,"틁":5588,"틂":5589,"틅":5590,"틇":5591,"틈":5592,"틉":5593,"틊":5594,"틋":5595,"틍":5596,"틎":5597,"틏":5598,"틐":5599,"틑":5600,"틒":5601,"틓":5602,"틔":5603,"틕":5604,"틘":5605,"틜":5606,"틤":5607,"틧":5608,"틩":5609,"티":5610,"틱":5611,"틳":5612,"틴":5613,"틷":5614,"틸":5615,"팀":5616,"팁":5617,"팃":5618,"팄":5619,"팅":5620,"팆":5621,"팈":5622,"팉":5623,"팊":5624,"파":5625,"팍":5626,"팎":5627,"팏":5628,"판":5629,"팑":5630,"팒":5631,"팓":5632,"팔":5633,"팕":5634,"팖":5635,"팗":5636,"팘":5637,"팙":5638,"팚":5639,"팛":5640,"팜":5641,"팝":5642,"팟":5643,"팠":5644,"팡":5645,"팢":5646,"팣":5647,"팤":5648,"팥":5649,"팦":5650,"팧":5651,"패":5652,"팩":5653,"팬":5654,"팯":5655,"팰":5656,"팸":5657,"팹":5658,"팻":5659,"팼":5660,"팽":5661,"퍀":5662,"퍁":5663,"퍄":5664,"퍅":5665,"퍈":5666,"퍌":5667,"퍔":5668,"퍙":5669,"퍝":5670,"퍞":5671,"퍠":5672,"퍡":5673,"퍤":5674,"퍵":5675,"퍼":5676,"퍽":5677,"퍾":5678,"펀":5679,"펃":5680,"펄":5681,"펅":5682,"펌":5683,"펍":5684,"펏":5685,"펐":5686,"펑":5687,"펒":5688,"펔":5689,"펕":5690,"펖":5691,"펗":5692,"페":5693,"펙":5694,"펜":5695,"펟":5696,"펠":5697,"펨":5698,"펩":5699,"펫":5700,"펭":5701,"펰":5702,"펲":5703,"펴":5704,"펵":5705,"편":5706,"펹":5707,"펺":5708,"펻":5709,"펼":5710,"폄":5711,"폅":5712,"폇":5713,"폈":5714,"평":5715,"폌":5716,"폐":5717,"폑":5718,"폔":5719,"폘":5720,"폠":5721,"폡":5722,"폣":5723,"폥":5724,"폨":5725,"포":5726,"폭":5727,"폮":5728,"폯":5729,"폰":5730,"폳":5731,"폴":5732,"폼":5733,"폽":5734,"폿":5735,"퐁":5736,"퐂":5737,"퐄":5738,"퐅":5739,"퐆":5740,"퐇":5741,"퐈":5742,"퐉":5743,"퐌":5744,"퐐":5745,"퐑":5746,"퐘":5747,"퐙":5748,"퐛":5749,"퐜":5750,"퐝":5751,"퐠":5752,"퐣":5753,"퐤":5754,"퐥":5755,"퐨":5756,"푀":5757,"푁":5758,"푄":5759,"푈":5760,"푕":5761,"표":5762,"푝":5763,"푠":5764,"푤":5765,"푬":5766,"푭":5767,"푯":5768,"푱":5769,"푲":5770,"푴":5771,"푶":5772,"푷":5773,"푸":5774,"푹":5775,"푼":5776,"푿":5777,"풀":5778,"풁":5779,"풂":5780,"풃":5781,"풇":5782,"품":5783,"풉":5784,"풋":5785,"풍":5786,"풎":5787,"풏":5788,"풐":5789,"풑":5790,"풒":5791,"풓":5792,"풔":5793,"풕":5794,"풘":5795,"풜":5796,"풩":5797,"풬":5798,"풰":5799,"풱":5800,"풴":5801,"풸":5802,"풹":5803,"퓅":5804,"퓌":5805,"퓍":5806,"퓐":5807,"퓔":5808,"퓟":5809,"퓡":5810,"퓨":5811,"퓩":5812,"퓬":5813,"퓰":5814,"퓸":5815,"퓹":5816,"퓻":5817,"퓽":5818,"퓿":5819,"픀":5820,"픂":5821,"픃":5822,"프":5823,"픅":5824,"픈":5825,"픋":5826,"플":5827,"픍":5828,"픎":5829,"픓":5830,"픔":5831,"픕":5832,"픗":5833,"픙":5834,"픚":5835,"픜":5836,"픝":5837,"픞":5838,"픟":5839,"픠":5840,"픤":5841,"픨":5842,"픵":5843,"픹":5844,"피":5845,"픽":5846,"핀":5847,"핃":5848,"필":5849,"핆":5850,"핋":5851,"핌":5852,"핍":5853,"핏":5854,"핐":5855,"핑":5856,"핒":5857,"핓":5858,"핔":5859,"핕":5860,"핖":5861,"핗":5862,"하":5863,"학":5864,"핚":5865,"핛":5866,"한":5867,"핝":5868,"핞":5869,"핟":5870,"할":5871,"핡":5872,"핢":5873,"핣":5874,"핤":5875,"핥":5876,"핦":5877,"핧":5878,"함":5879,"합":5880,"핪":5881,"핫":5882,"핬":5883,"항":5884,"핮":5885,"핯":5886,"핰":5887,"핱":5888,"핲":5889,"핳":5890,"해":5891,"핵":5892,"핶":5893,"핷":5894,"핸":5895,"핺":5896,"핻":5897,"핼":5898,"핽":5899,"햄":5900,"햅":5901,"햇":5902,"했":5903,"행":5904,"햊":5905,"햋":5906,"햌":5907,"햍":5908,"햎":5909,"햏":5910,"햐":5911,"햑":5912,"햔":5913,"햘":5914,"햙":5915,"햚":5916,"햛":5917,"햝":5918,"햟":5919,"햠":5920,"햡":5921,"햣":5922,"햤":5923,"향":5924,"햨":5925,"햩":5926,"햫":5927,"햬":5928,"햭":5929,"햰":5930,"햿":5931,"헀":5932,"헁":5933,"허":5934,"헉":5935,"헊":5936,"헋":5937,"헌":5938,"헍":5939,"헏":5940,"헐":5941,"헑":5942,"헒":5943,"헓":5944,"헔":5945,"헕":5946,"헗":5947,"험":5948,"헙":5949,"헚":5950,"헛":5951,"헜":5952,"헝":5953,"헞":5954,"헟":5955,"헠":5956,"헡":5957,"헢":5958,"헣":5959,"헤":5960,"헥":5961,"헦":5962,"헧":5963,"헨":5964,"헫":5965,"헬":5966,"헭":5967,"헯":5968,"헰":5969,"헱":5970,"헲":5971,"헳":5972,"헴":5973,"헵":5974,"헶":5975,"헷":5976,"헸":5977,"헹":5978,"헼":5979,"헽":5980,"헾":5981,"헿":5982,"혀":5983,"혁":5984,"혂":5985,"혃":5986,"현":5987,"혅":5988,"혆":5989,"혇":5990,"혈":5991,"혉":5992,"혐":5993,"협":5994,"혒":5995,"혓":5996,"혔":5997,"형":5998,"혖":5999,"혘":6000,"혙":6001,"혚":6002,"혛":6003,"혜":6004,"혝":6005,"혠":6006,"혤":6007,"혬":6008,"혭":6009,"혯":6010,"혰":6011,"혱":6012,"혲":6013,"혴":6014,"혷":6015,"호":6016,"혹":6017,"혺":6018,"혻":6019,"혼":6020,"혽":6021,"혾":6022,"혿":6023,"홀":6024,"홁":6025,"홅":6026,"홇":6027,"홈":6028,"홉":6029,"홋":6030,"홍":6031,"홎":6032,"홐":6033,"홑":6034,"홒":6035,"홓":6036,"화":6037,"확":6038,"홖":6039,"홗":6040,"환":6041,"홙":6042,"홛":6043,"활":6044,"홝":6045,"홟":6046,"홡":6047,"홣":6048,"홤":6049,"홥":6050,"홧":6051,"홨":6052,"황":6053,"홪":6054,"홫":6055,"홬":6056,"홭":6057,"홮":6058,"홯":6059,"홰":6060,"홱":6061,"홴":6062,"횃":6063,"횄":6064,"횅":6065,"회":6066,"획":6067,"횐":6068,"횓":6069,"횔":6070,"횜":6071,"횝":6072,"횟":6073,"횠":6074,"횡":6075,"횢":6076,"횤":6077,"횧":6078,"효":6079,"횩":6080,"횬":6081,"횰":6082,"횸":6083,"횹":6084,"횻":6085,"횽":6086,"훀":6087,"훃":6088,"후":6089,"훅":6090,"훈":6091,"훉":6092,"훊":6093,"훋":6094,"훌":6095,"훍":6096,"훏":6097,"훑":6098,"훓":6099,"훔":6100,"훕":6101,"훗":6102,"훙":6103,"훚":6104,"훛":6105,"훜":6106,"훝":6107,"훞":6108,"훟":6109,"훠":6110,"훡":6111,"훤":6112,"훨":6113,"훯":6114,"훰":6115,"훱":6116,"훳":6117,"훵":6118,"훸":6119,"훻":6120,"훼":6121,"훽":6122,"휀":6123,"휄":6124,"휅":6125,"휇":6126,"휍":6127,"휏":6128,"휐":6129,"휑":6130,"휔":6131,"휗":6132,"휘":6133,"휙":6134,"휜":6135,"휟":6136,"휠":6137,"휨":6138,"휩":6139,"휫":6140,"휭":6141,"휰":6142,"휲":6143,"휳":6144,"휴":6145,"휵":6146,"휸":6147,"휼":6148,"흄":6149,"흅":6150,"흇":6151,"흉":6152,"흊":6153,"흌":6154,"흎":6155,"흏":6156,"흐":6157,"흑":6158,"흒":6159,"흓":6160,"흔":6161,"흗":6162,"흘":6163,"흙":6164,"흚":6165,"흛":6166,"흜":6167,"흝":6168,"흟":6169,"흠":6170,"흡":6171,"흣":6172,"흤":6173,"흥":6174,"흦":6175,"흨":6176,"흩":6177,"흪":6178,"흫":6179,"희":6180,"흭":6181,"흰":6182,"흳":6183,"흴":6184,"흵":6185,"흼":6186,"흽":6187,"흿":6188,"힁":6189,"힂":6190,"힄":6191,"힇":6192,"히":6193,"힉":6194,"힊":6195,"힌":6196,"힏":6197,"힐":6198,"힑":6199,"힒":6200,"힕":6201,"힗":6202,"힘":6203,"힙":6204,"힛":6205,"힜":6206,"힝":6207,"힞":6208,"힟":6209,"힠":6210,"힡":6211,"힢":6212,"힣":6213,"％":6214,"##져":6215,"##요":6216,"##그":6217,"##림":6218,"##이":6219,"##님":6220,"##사":6221,"##정":6222,"##은":6223,"##렸":6224,"##던":6225,"##거":6226,"##임":6227,"##선":6228,"##예":6229,"##쁘":6230,"##고":6231,"##신":6232,"##맘":6233,"##속":6234,"##에":6235,"##아":6236,"##오":6237,"##세":6238,"##라":6239,"##을":6240,"##전":6241,"##하":6242,"##는":6243,"##가":6244,"##개":6245,"##돼":6246,"##지":6247,"##니":6248,"##까":6249,"##엄":6250,"##청":6251,"##더":6252,"##모":6253,"##든":6254,"##스":6255,"##골":6256,"##프":6257,"##장":6258,"##어":6259,"##봐":6260,"##줌":6261,"##적":6262,"##인":6263,"##으":6264,"##로":6265,"##자":6266,"##들":6267,"##시":6268,"##켜":6269,"##h":6270,"##m":6271,"##o":6272,"##n":6273,"##l":6274,"##i":6275,"##e":6276,"##등":6277,"##학":6278,"##교":6279,"##안":6280,"##나":6281,"##온":6282,"##분":6283,"##듯":6284,"##폭":6285,"##부":6286,"##문":6287,"##도":6288,"##잡":6289,"##먹":6290,"##기":6291,"##친":6292,"##구":6293,"##과":6294,"##게":6295,"##머":6296,"##리":6297,"##면":6298,"##작":6299,"##욕":6300,"##죠":6301,"##솔":6302,"##직":6303,"##히":6304,"##a":6305,"##t":6306,"##당":6307,"##산":6308,"##업":6309,"##쉥":6310,"##키":6311,"##점":6312,"##달":6313,"##건":6314,"##레":6315,"##소":6316,"##각":6317,"##만":6318,"##없":6319,"##애":6320,"##려":6321,"##와":6322,"##야":6323,"##할":6324,"##때":6325,"##수":6326,"##준":6327,"##반":6328,"##운":6329,"##식":6330,"##권":6331,"##질":6332,"##커":6333,"##녕":6334,"##카":6335,"##를":6336,"##너":6337,"##동":6338,"##생":6339,"##숙":6340,"##영":6341,"##쪽":6342,"##짐":6343,"##서":6344,"##콜":6345,"##주":6346,"##댓":6347,"##글":6348,"##결":6349,"##해":6350,"##줄":6351,"##있":6352,"##것":6353,"##승":6354,"##룹":6355,"##득":6356,"##네":6357,"##여":6358,"##약":6359,"##석":6360,"##명":6361,"##러":6362,"##움":6363,"##성":6364,"##보":6365,"##다":6366,"##쳐":6367,"##었":6368,"##음":6369,"##쉬":6370,"##바":6371,"##았":6372,"##데":6373,"##책":6374,"##되":6375,"##화":6376,"##의":6377,"##번":6378,"##듣":6379,"##억":6380,"##칸":6381,"##겐":6382,"##대":6383,"##토":6384,"##엉":6385,"##찰":6386,"##입":6387,"##된":6388,"##앉":6389,"##녀":6390,"##찍":6391,"##본":6392,"##였":6393,"##디":6394,"##한":6395,"##테":6396,"##절":6397,"##차":6398,"##귀":6399,"##재":6400,"##르":6401,"##겠":6402,"##파":6403,"##악":6404,"##회":6405,"##왕":6406,"##금":6407,"##공":6408,"##홈":6409,"##쇼":6410,"##핑":6411,"##5":6412,"##간":6413,"##연":6414,"##희":6415,"##쟁":6416,"##중":6417,"##심":6418,"##복":6419,"##즘":6420,"##윈":6421,"##진":6422,"##짜":6423,"##휴":6424,"##참":6425,"##며":6426,"##0":6427,"##톤":6428,"##봤":6429,"##롱":6430,"##4":6431,"##2":6432,"##호":6433,"##습":6434,"##족":6435,"##역":6436,"##종":6437,"##북":6438,"##빨":6439,"##갱":6440,"##일":6441,"##매":6442,"##국":6443,"##노":6444,"##쇄":6445,"##살":6446,"##강":6447,"##마":6448,"##원":6449,"##뿡":6450,"##8":6451,"##3":6452,"##7":6453,"##숏":6454,"##합":6455,"##혔":6456,"##단":6457,"##처":6458,"##송":6459,"##함":6460,"##못":6461,"##양":6462,"##브":6463,"##잉":6464,"##독":6465,"##팀":6466,"##춘":6467,"##채":6468,"##맛":6469,"##납":6470,"##엇":6471,"##눈":6472,"##밀":6473,"##둘":6474,"##받":6475,"##짓":6476,"##좀":6477,"##델":6478,"##링":6479,"##뻘":6480,"##김":6481,"##행":6482,"##캔":6483,"##죽":6484,"##설":6485,"##관":6486,"##위":6487,"##잇":6488,"##육":6489,"##비":6490,"##9":6491,"##벨":6492,"##편":6493,"##돈":6494,"##벌":6495,"##손":6496,"##짠":6497,"##체":6498,"##형":6499,"##외":6500,"##출":6501,"##같":6502,"##루":6503,"##씨":6504,"##조":6505,"##혼":6506,"##론":6507,"##허":6508,"##실":6509,"##잖":6510,"##뻐":6511,"##1":6512,"##킨":6513,"##내":6514,"##천":6515,"##혁":6516,"##센":6517,"##터":6518,"##염":6519,"##능":6520,"##헌":6521,"##란":6522,"##계":6523,"##환":6524,"##경":6525,"##저":6526,"##뱉":6527,"##말":6528,"##발":6529,"##물":6530,"##핸":6531,"##섬":6532,"##워":6533,"##래":6534,"##극":6535,"##새":6536,"##끼":6537,"##태":6538,"##냐":6539,"##열":6540,"##럭":6541,"##변":6542,"##료":6543,"##씩":6544,"##펀":6545,"##드":6546,"##피":6547,"##똑":6548,"##또":6549,"##립":6550,"##긋":6551,"##민":6552,"##놀":6553,"##불":6554,"##풍":6555,"##떨":6556,"##탁":6557,"##투":6558,"##럼":6559,"##년":6560,"##순":6561,"##름":6562,"##맞":6563,"##쥬":6564,"##6":6565,"##제":6566,"##웡":6567,"##닷":6568,"##력":6569,"##급":6570,"##픈":6571,"##감":6572,"##방":6573,"##령":6574,"##벅":6575,"##플":6576,"##길":6577,"##읏":6578,"##용":6579,"##익":6580,"##평":6581,"##법":6582,"##했":6583,"##쁜":6584,"##탄":6585,"##덕":6586,"##싸":6587,"##후":6588,"##죄":6589,"##치":6590,"##증":6591,"##훈":6592,"##남":6593,"##꾸":6594,"##셧":6595,"##류":6596,"##큰":6597,"##잔":6598,"##버":6599,"##넘":6600,"##맴":6601,"##찢":6602,"##느":6603,"##축":6604,"##포":6605,"##릿":6606,"##배":6607,"##우":6608,"##람":6609,"##필":6610,"##륭":6611,"##곤":6612,"##텔":6613,"##백":6614,"##착":6615,"##싶":6616,"##꿈":6617,"##밝":6618,"##무":6619,"##X":6620,"##막":6621,"##놈":6622,"##망":6623,"##걸":6624,"##크":6625,"##뿔":6626,"##맙":6627,"##갈":6628,"##타":6629,"##탈":6630,"##왔":6631,"##협":6632,"##랍":6633,"##딸":6634,"##상":6635,"##통":6636,"##른":6637,"##담":6638,"##침":6639,"##랑":6640,"##C":6641,"##T":6642,"##V":6643,"##좋":6644,"##앤":6645,"##뇨":6646,"##혐":6647,"##린":6648,"##울":6649,"##트":6650,"##격":6651,"##끝":6652,"##항":6653,"##궐":6654,"##빠":6655,"##갤":6656,"##귄":6657,"##런":6658,"##갔":6659,"##I":6660,"##P":6661,"##놓":6662,"##난":6663,"##탕":6664,"##램":6665,"##획":6666,"##판":6667,"##셨":6668,"##팡":6669,"##쓰":6670,"##군":6671,"##별":6672,"##큼":6673,"##미":6674,"##측":6675,"##럽":6676,"##탓":6677,"##술":6678,"##엿":6679,"##줬":6680,"##딩":6681,"##턱":6682,"##누":6683,"##코":6684,"##티":6685,"##뿐":6686,"##돌":6687,"##덩":6688,"##색":6689,"##날":6690,"##쳤":6691,"##께":6692,"##룡":6693,"##혈":6694,"##먼":6695,"##표":6696,"##특":6697,"##징":6698,"##쌀":6699,"##곳":6700,"##몰":6701,"##릴":6702,"##젠":6703,"##폐":6704,"##u":6705,"##g":6706,"##w":6707,"##댕":6708,"##긴":6709,"##렇":6710,"##뻔":6711,"##박":6712,"##창":6713,"##웅":6714,"##올":6715,"##험":6716,"##냥":6717,"##앙":6718,"##똥":6719,"##높":6720,"##탱":6721,"##슴":6722,"##두":6723,"##근":6724,"##충":6725,"##옹":6726,"##현":6727,"##밖":6728,"##촌":6729,"##뜨":6730,"##웠":6731,"##퇴":6732,"##범":6733,"##엘":6734,"##흥":6735,"##됫":6736,"##십":6737,"##층":6738,"##답":6739,"##좃":6740,"##켰":6741,"##핵":6742,"##뉴":6743,"##초":6744,"##않":6745,"##객":6746,"##옷":6747,"##겁":6748,"##견":6749,"##휘":6750,"##탐":6751,"##겨":6752,"##붙":6753,"##볼":6754,"##접":6755,"##활":6756,"##얼":6757,"##빈":6758,"##록":6759,"##유":6760,"##철":6761,"##베":6762,"##알":6763,"##넷":6764,"##r":6765,"##냅":6766,"##뎟":6767,"##셔":6768,"##택":6769,"##봉":6770,"##싫":6771,"##값":6772,"##닛":6773,"##겅":6774,"##척":6775,"##추":6776,"##졌":6777,"##낸":6778,"##푸":6779,"##농":6780,"##페":6781,"##병":6782,"##락":6783,"##풀":6784,"##춤":6785,"##춰":6786,"##흘":6787,"##팬":6788,"##많":6789,"##됀":6790,"##율":6791,"##칭":6792,"##났":6793,"##첩":6794,"##덴":6795,"##왜":6796,"##엌":6797,"##좌":6798,"##켓":6799,"##x":6800,"##샐":6801,"##따":6802,"##슷":6803,"##므":6804,"##향":6805,"##옵":6806,"##존":6807,"##낭":6808,"##확":6809,"##집":6810,"##팍":6811,"##O":6812,"##찌":6813,"##탑":6814,"##클":6815,"##삼":6816,"##딱":6817,"##논":6818,"##즈":6819,"##썼":6820,"##흐":6821,"##메":6822,"##빵":6823,"##잼":6824,"##뭐":6825,"##힘":6826,"##댔":6827,"##밍":6828,"##싱":6829,"##낌":6830,"##뿌":6831,"##겻":6832,"##y":6833,"##널":6834,"##컵":6835,"##쥐":6836,"##즌":6837,"##엨":6838,"##써":6839,"##웃":6840,"##겪":6841,"##슬":6842,"##E":6843,"##쉽":6844,"##폰":6845,"##힐":6846,"##샌":6847,"##꺼":6848,"##냈":6849,"##깐":6850,"##칙":6851,"##넹":6852,"##흑":6853,"##언":6854,"##좁":6855,"##월":6856,"##굴":6857,"##빼":6858,"##A":6859,"##례":6860,"##팅":6861,"##뽑":6862,"##헠":6863,"##깨":6864,"##슈":6865,"##줘":6866,"##윌":6867,"##혜":6868,"##엎":6869,"##묻":6870,"##뙤":6871,"##괴":6872,"##넼":6873,"##줫":6874,"##팩":6875,"##굶":6876,"##픽":6877,"##규":6878,"##껴":6879,"##꺍":6880,"##꺌":6881,"##뚱":6882,"##칠":6883,"##R":6884,"##엔":6885,"##젤":6886,"##효":6887,"##갇":6888,"##깤":6889,"##캐":6890,"##첬":6891,"##혀":6892,"##잘":6893,"##끄":6894,"##턴":6895,"##줍":6896,"##밧":6897,"##닮":6898,"##씀":6899,"##광":6900,"##쉐":6901,"##뀌":6902,"##튜":6903,"##렴":6904,"##땜":6905,"##뒤":6906,"##틀":6907,"##튼":6908,"##K":6909,"##N":6910,"##D":6911,"##쌈":6912,"##닭":6913,"##뀜":6914,"##째":6915,"##떻":6916,"##웹":6917,"##툰":6918,"##련":6919,"##쌤":6920,"##딲":6921,"##욤":6922,"##눕":6923,"##랐":6924,"##붠":6925,"##k":6926,"##s":6927,"##띵":6928,"##젝":6929,"##총":6930,"##G":6931,"##B":6932,"##념":6933,"##렛":6934,"##검":6935,"##찾":6936,"##팔":6937,"##S":6938,"##낀":6939,"##뀔":6940,"##둣":6941,"##품":6942,"##읽":6943,"##쵸":6944,"##힌":6945,"##f":6946,"##씁":6947,"##쓸":6948,"##황":6949,"##덧":6950,"##목":6951,"##랄":6952,"##덱":6953,"##뱔":6954,"##졍":6955,"##찮":6956,"##궁":6957,"##둔":6958,"##j":6959,"##쿤":6960,"##냨":6961,"##뎁":6962,"##쑈":6963,"##릅":6964,"##릭":6965,"##봄":6966,"##렁":6967,"##떡":6968,"##볶":6969,"##떼":6970,"##찬":6971,"##쪼":6972,"##슨":6973,"##겟":6974,"##갘":6975,"##샊":6976,"##냉":6977,"##쁠":6978,"##쿼":6979,"##빤":6980,"##섭":6981,"##깔":6982,"##케":6983,"##삐":6984,"##깕":6985,"##푼":6986,"##셓":6987,"##촉":6988,"##빙":6989,"##씬":6990,"##H":6991,"##닐":6992,"##낙":6993,"##몽":6994,"##뱅":6995,"##블":6996,"##뚝":6997,"##퀴":6998,"##뎃":6999,"##뮤":7000,"##컬":7001,"##짤":7002,"##쨌":7003,"##될":7004,"##넣":7005,"##션":7006,"##딴":7007,"##첨":7008,"##쿠":7009,"##땅":7010,"##쳇":7011,"##꼬":7012,"##곶":7013,"##퍼":7014,"##짝":7015,"##믿":7016,"##d":7017,"##쏘":7018,"##닌":7019,"##늘":7020,"##곡":7021,"##패":7022,"##빡":7023,"##쎄":7024,"##뭔":7025,"##엒":7026,"##텐":7027,"##쓴":7028,"##뺐":7029,"##떤":7030,"##롴":7031,"##밥":7032,"##웟":7033,"##껄":7034,"##톨":7035,"##핀":7036,"##쏴":7037,"##뷰":7038,"##씌":7039,"##쯤":7040,"##됏":7041,"##맨":7042,"##압":7043,"##v":7044,"##템":7045,"##뜸":7046,"##웨":7047,"##벽":7048,"##암":7049,"##F":7050,"##샤":7051,"##쇠":7052,"##L":7053,"##빌":7054,"##삶":7055,"##갑":7056,"##됐":7057,"##숭":7058,"##웁":7059,"##겆":7060,"##뜼":7061,"##덜":7062,"##M":7063,"##Z":7064,"##p":7065,"##넫":7066,"##갰":7067,"##닠":7068,"##꽃":7069,"##굿":7070,"##률":7071,"##촬":7072,"##즉":7073,"##U":7074,"##롤":7075,"##렵":7076,"##둑":7077,"##깊":7078,"##뺏":7079,"##럴":7080,"##량":7081,"##콘":7082,"##땐":7083,"##액":7084,"##꾼":7085,"##걍":7086,"##엥":7087,"##흉":7088,"##컷":7089,"##숩":7090,"##꽤":7091,"##툭":7092,"##늕":7093,"##둥":7094,"##챙":7095,"##냔":7096,"##꼽":7097,"##융":7098,"##완":7099,"##뿜":7100,"##쌍":7101,"##봔":7102,"##뜰":7103,"##젖":7104,"##햇":7105,"##짘":7106,"##뻗":7107,"##몃":7108,"##뜻":7109,"##돔":7110,"##됩":7111,"##밌":7112,"##혓":7113,"##닥":7114,"##b":7115,"##앍":7116,"##뇌":7117,"##텼":7118,"##튀":7119,"##톱":7120,"##넓":7121,"##섯":7122,"##균":7123,"##최":7124,"##웍":7125,"##듸":7126,"##냄":7127,"##찡":7128,"##앨":7129,"##갓":7130,"##쌓":7131,"##랙":7132,"##듭":7133,"##넌":7134,"##닼":7135,"##싹":7136,"##꼼":7137,"##짱":7138,"##숨":7139,"##겼":7140,"##깝":7141,"##c":7142,"##늙":7143,"##꼴":7144,"##몸":7145,"##묘":7146,"##잣":7147,"##됬":7148,"##털":7149,"##훨":7150,"##킹":7151,"##랬":7152,"##윗":7153,"##꼭":7154,"##닙":7155,"##싼":7156,"##셈":7157,"##놔":7158,"##쏟":7159,"##댈":7160,"##룸":7161,"##앵":7162,"##낰":7163,"##샵":7164,"##옄":7165,"##빗":7166,"##읗":7167,"##빛":7168,"##옴":7169,"##응":7170,"##쌜":7171,"##낫":7172,"##몇":7173,"##킬":7174,"##꽈":7175,"##뚜":7176,"##앗":7177,"##싯":7178,"##욋":7179,"##솨":7180,"##랫":7181,"##씹":7182,"##맹":7183,"##놨":7184,"##캄":7185,"##렐":7186,"##뫃":7187,"##즐":7188,"##쏜":7189,"##떠":7190,"##맥":7191,"##갖":7192,"##훼":7193,"##펴":7194,"##샘":7195,"##팽":7196,"##딘":7197,"##졸":7198,"##셋":7199,"##듬":7200,"##녔":7201,"##갠":7202,"##봇":7203,"##샹":7204,"##윤":7205,"##첼":7206,"##멈":7207,"##꿀":7208,"##헬":7209,"##쟈":7210,"##켄":7211,"##멜":7212,"##뗀":7213,"##욱":7214,"##앞":7215,"##푹":7216,"##츠":7217,"##돠":7218,"##뤠":7219,"##섴":7220,"##쩍":7221,"##넨":7222,"##늑":7223,"##뤼":7224,"##뎈":7225,"##옛":7226,"##껀":7227,"##얔":7228,"##츤":7229,"##앴":7230,"##뽄":7231,"##꺾":7232,"##왓":7233,"##잠":7234,"##팒":7235,"##멍":7236,"##z":7237,"##랜":7238,"##얻":7239,"##숍":7240,"##쨉":7241,"##뀐":7242,"##홍":7243,"##됨":7244,"##옥":7245,"##얄":7246,"##훗":7247,"##숴":7248,"##맬":7249,"##봣":7250,"##끌":7251,"##쇽":7252,"##잌":7253,"##쁨":7254,"##깃":7255,"##쟌":7256,"##낼":7257,"##렷":7258,"##슛":7259,"##팥":7260,"##큐":7261,"##곸":7262,"##믈":7263,"##엣":7264,"##얘":7265,"##셰":7266,"##늦":7267,"##얌":7268,"##몬":7269,"##삿":7270,"##핳":7271,"##헤":7272,"##찐":7273,"##졔":7274,"##겸":7275,"##혹":7276,"##쨔":7277,"##쩔":7278,"##욬":7279,"##퀸":7280,"##릎":7281,"##쳣":7282,"##빅":7283,"##낳":7284,"##눔":7285,"##첵":7286,"##짖":7287,"##퐁":7288,"##죵":7289,"##섹":7290,"##톄":7291,"##퐈":7292,"##읹":7293,"##깽":7294,"##틸":7295,"##취":7296,"##벤":7297,"##쾌":7298,"##챱":7299,"##뜽":7300,"##탠":7301,"##짧":7302,"##궤":7303,"##꽥":7304,"##펙":7305,"##틴":7306,"##콕":7307,"##괜":7308,"##밤":7309,"##뜯":7310,"##댁":7311,"##밎":7312,"##략":7313,"##컨":7314,"##랏":7315,"##롭":7316,"##릉":7317,"##쪄":7318,"##칼":7319,"##뚫":7320,"##흔":7321,"##렀":7322,"##펫":7323,"##찔":7324,"##맟":7325,"##끊":7326,"##뮐":7327,"##띄":7328,"##뎅":7329,"##넸":7330,"##앜":7331,"##뤱":7332,"##젼":7333,"##홀":7334,"##랩":7335,"##삭":7336,"##밭":7337,"##욜":7338,"##녜":7339,"##휜":7340,"##멋":7341,"##퓰":7342,"##큘":7343,"##릇":7344,"##꿔":7345,"##꼐":7346,"##벙":7347,"##곱":7348,"##녓":7349,"##젱":7350,"##빴":7351,"##빰":7352,"##깻":7353,"##붕":7354,"##J":7355,"##엽":7356,"##W":7357,"##웬":7358,"##훠":7359,"##랴":7360,"##얍":7361,"##샷":7362,"##먄":7363,"##퍽":7364,"##졋":7365,"##묵":7366,"##퇘":7367,"##곗":7368,"##왠":7369,"##쟝":7370,"##밴":7371,"##겄":7372,"##켭":7373,"##뻤":7374,"##툴":7375,"##늄":7376,"##톡":7377,"##꾀":7378,"##섞":7379,"##땔":7380,"##헝":7381,"##럿":7382,"##듈":7383,"##늗":7384,"##퓨":7385,"##섰":7386,"##쎈":7387,"##짬":7388,"##뽕":7389,"##횡":7390,"##닝":7391,"##랭":7392,"##썰":7393,"##즙":7394,"##딧":7395,"##넬":7396,"##랔":7397,"##뺴":7398,"##갂":7399,"##쩜":7400,"##뇽":7401,"##쫌":7402,"##픔":7403,"##잗":7404,"##뀡":7405,"##얀":7406,"##셉":7407,"##밑":7408,"##좆":7409,"##밨":7410,"##낄":7411,"##맵":7412,"##컴":7413,"##녹":7414,"##칫":7415,"##봅":7416,"##톰":7417,"##셤":7418,"##멸":7419,"##겹":7420,"##챔":7421,"##늠":7422,"##렜":7423,"##눠":7424,"##넛":7425,"##맺":7426,"##옆":7427,"##덤":7428,"##뉘":7429,"##곰":7430,"##쭈":7431,"##콤":7432,"##땡":7433,"##왼":7434,"##쿨":7435,"##끈":7436,"##뢍":7437,"##묶":7438,"##꺽":7439,"##곀":7440,"##곽":7441,"##벳":7442,"##컥":7443,"##젊":7444,"##닫":7445,"##렌":7446,"##닦":7447,"##믹":7448,"##냣":7449,"##긱":7450,"##텍":7451,"##펼":7452,"##엏":7453,"##죳":7454,"##떄":7455,"##껍":7456,"##쎗":7457,"##땃":7458,"##렉":7459,"##툽":7460,"##썩":7461,"##곧":7462,"##냒":7463,"##갸":7464,"##봥":7465,"##흨":7466,"##칵":7467,"##렬":7468,"##뭘":7469,"##싷":7470,"##빽":7471,"##튭":7472,"##똘":7473,"##춥":7474,"##쌌":7475,"##뱃":7476,"##챈":7477,"##틱":7478,"##꼈":7479,"##녘":7480,"##셀":7481,"##뺑":7482,"##밉":7483,"##흣":7484,"##흡":7485,"##겈":7486,"##렙":7487,"##룰":7488,"##Q":7489,"##깡":7490,"##꼇":7491,"##졨":7492,"##롯":7493,"##팰":7494,"##끗":7495,"##횽":7496,"##댘":7497,"##튿":7498,"##뮬":7499,"##옙":7500,"##겜":7501,"##굳":7502,"##낵":7503,"##읐":7504,"##꿨":7505,"##찿":7506,"##찹":7507,"##뢰":7508,"##렠":7509,"##쩝":7510,"##벆":7511,"##렘":7512,"##섺":7513,"##끠":7514,"##텨":7515,"##챠":7516,"##몿":7517,"##헛":7518,"##볍":7519,"##옇":7520,"##롸":7521,"##괸":7522,"##쐈":7523,"##륜":7524,"##걱":7525,"##팁":7526,"##뻑":7527,"##흠":7528,"##쒀":7529,"##윱":7530,"##콩":7531,"##밋":7532,"##붓":7533,"##쩌":7534,"##뵬":7535,"##걩":7536,"##뒬":7537,"##Y":7538,"##꺙":7539,"##캠":7540,"##캇":7541,"##및":7542,"##썬":7543,"##왚":7544,"##눅":7545,"##륙":7546,"##귤":7547,"##껏":7548,"##눌":7549,"##끔":7550,"##벼":7551,"##냇":7552,"##땋":7553,"##킈":7554,"##믄":7555,"##밟":7556,"##첫":7557,"##맀":7558,"##딬":7559,"##돋":7560,"##댜":7561,"##룩":7562,"##칰":7563,"##꽂":7564,"##찜":7565,"##틈":7566,"##슥":7567,"##솠":7568,"##껭":7569,"##됴":7570,"##쟎":7571,"##쉰":7572,"##쨈":7573,"##눞":7574,"##롬":7575,"##챗":7576,"##헷":7577,"##떰":7578,"##낱":7579,"##쫑":7580,"##왈":7581,"##늣":7582,"##낮":7583,"##쩐":7584,"##옼":7585,"##댄":7586,"##뒀":7587,"##헀":7588,"##봨":7589,"##텝":7590,"##잊":7591,"##뤄":7592,"##뱤":7593,"##뫄":7594,"##깍":7595,"##땨":7596,"##긎":7597,"##잏":7598,"##퀀":7599,"##뛰":7600,"##뎀":7601,"##펌":7602,"##쌋":7603,"##잭":7604,"##켕":7605,"##딤":7606,"##엑":7607,"##깜":7608,"##쑴":7609,"##멘":7610,"##옳":7611,"##륻":7612,"##렝":7613,"##띤":7614,"##삘":7615,"##팝":7616,"##줏":7617,"##녁":7618,"##짚":7619,"##딨":7620,"##칩":7621,"##멀":7622,"##쫒":7623,"##싴":7624,"##몐":7625,"##듀":7626,"##웰":7627,"##껑":7628,"##셜":7629,"##멤":7630,"##앎":7631,"##놧":7632,"##줩":7633,"##둡":7634,"##썻":7635,"##굽":7636,"##젔":7637,"##캬":7638,"##냠":7639,"##뻥":7640,"##븐":7641,"##셐":7642,"##훕":7643,"##쾅":7644,"##읺":7645,"##뱀":7646,"##맡":7647,"##뵈":7648,"##덛":7649,"##앱":7650,"##깬":7651,"##벗":7652,"##긍":7653,"##얏":7654,"##딕":7655,"##핌":7656,"##숲":7657,"##탣":7658,"##깥":7659,"##솟":7660,"##랠":7661,"##쳄":7662,"##텀":7663,"##샸":7664,"##긔":7665,"##팜":7666,"##뒈":7667,"##듴":7668,"##쬬":7669,"##뽀":7670,"##깁":7671,"##찝":7672,"##씻":7673,"##켬":7674,"##믐":7675,"##펑":7676,"##웜":7677,"##캡":7678,"##쟤":7679,"##떳":7680,"##뭉":7681,"##켸":7682,"##흗":7683,"##흫":7684,"##듷":7685,"##쥔":7686,"##끓":7687,"##휠":7688,"##q":7689,"##묭":7690,"##폼":7691,"##겉":7692,"##읍":7693,"##귘":7694,"##깉":7695,"##횃":7696,"##붜":7697,"##돛":7698,"##홬":7699,"##츌":7700,"##햿":7701,"##봌":7702,"##죴":7703,"##됌":7704,"##륵":7705,"##듵":7706,"##뜬":7707,"##쉴":7708,"##럳":7709,"##쎴":7710,"##궂":7711,"##욮":7712,"##뿍":7713,"##꺄":7714,"##폴":7715,"##닿":7716,"##쒸":7717,"##쨩":7718,"##닉":7719,"##넝":7720,"##뱍":7721,"##샀":7722,"##귺":7723,"##끡":7724,"##홉":7725,"##뭍":7726,"##쯔":7727,"##됭":7728,"##쉼":7729,"##뎌":7730,"##씽":7731,"##쩡":7732,"##펜":7733,"##댐":7734,"##릵":7735,"##팸":7736,"##힉":7737,"##힏":7738,"##췄":7739,"##깅":7740,"##쪙":7741,"##햌":7742,"##쏠":7743,"##킷":7744,"##둬":7745,"##떵":7746,"##퉁":7747,"##눴":7748,"##핼":7749,"##횟":7750,"##랰":7751,"##굼":7752,"##샛":7753,"##늬":7754,"##뫼":7755,"##홋":7756,"##흄":7757,"##튺":7758,"##킥":7759,"##닳":7760,"##밓":7761,"##댠":7762,"##숟":7763,"##욍":7764,"##눜":7765,"##깎":7766,"##퀘":7767,"##왘":7768,"##돜":7769,"##짹":7770,"##촤":7771,"##핫":7772,"##윽":7773,"##폄":7774,"##겤":7775,"##삽":7776,"##쿄":7777,"##젓":7778,"##닜":7779,"##엠":7780,"##싀":7781,"##픨":7782,"##욭":7783,"##땠":7784,"##괖":7785,"##쨋":7786,"##갚":7787,"##콰":7788,"##꿍":7789,"##낑":7790,"##햄":7791,"##퓸":7792,"##욯":7793,"##뇬":7794,"##돕":7795,"##챵":7796,"##딜":7797,"##섘":7798,"##얶":7799,"##텅":7800,"##앟":7801,"##껰":7802,"##뚤":7803,"##팻":7804,"##킴":7805,"##숫":7806,"##멧":7807,"##솥":7808,"##먕":7809,"##갬":7810,"##걷":7811,"##캉":7812,"##헙":7813,"##쯱":7814,"##뼈":7815,"##볕":7816,"##탤":7817,"##꿉":7818,"##궈":7819,"##왤":7820,"##펠":7821,"##읎":7822,"##앓":7823,"##즤":7824,"##빚":7825,"##뤂":7826,"##꿇":7827,"##몫":7828,"##뷔":7829,"##헐":7830,"##몈":7831,"##썽":7832,"##퀄":7833,"##넥":7834,"##짇":7835,"##빻":7836,"##콧":7837,"##쫄":7838,"##롕":7839,"##킵":7840,"##잎":7841,"##룻":7842,"##맣":7843,"##쌰":7844,"##헿":7845,"##츄":7846,"##몀":7847,"##촘":7848,"##펭":7849,"##욧":7850,"##햏":7851,"##띠":7852,"##댝":7853,"##뙇":7854,"##핱":7855,"##굔":7856,"##웈":7857,"##넉":7858,"##롄":7859,"##탯":7860,"##쿵":7861,"##짴":7862,"##뻬":7863,"##넴":7864,"##헉":7865,"##죱":7866,"##갛":7867,"##몆":7868,"##휏":7869,"##튄":7870,"##헭":7871,"##섀":7872,"##겝":7873,"##듥":7874,"##슐":7875,"##탭":7876,"##뼛":7877,"##쉑":7878,"##땤":7879,"##붐":7880,"##쑤":7881,"##짭":7882,"##겧":7883,"##녾":7884,"##샄":7885,"##첸":7886,"##괘":7887,"##욥":7888,"##깂":7889,"##먀":7890,"##헑":7891,"##겡":7892,"##덬":7893,"##훑":7894,"##룽":7895,"##씸":7896,"##굉":7897,"##쌩":7898,"##닊":7899,"##뺌":7900,"##햐":7901,"##덮":7902,"##슝":7903,"##싿":7904,"##갯":7905,"##컸":7906,"##팟":7907,"##컄":7908,"##꿰":7909,"##컼":7910,"##쿡":7911,"##옮":7912,"##윕":7913,"##뺨":7914,"##퐉":7915,"##긁":7916,"##춧":7917,"##찼":7918,"##텬":7919,"##윘":7920,"##죔":7921,"##왑":7922,"##돨":7923,"##핍":7924,"##죤":7925,"##쥴":7926,"##찻":7927,"##컽":7928,"##엮":7929,"##깟":7930,"##셩":7931,"##밬":7932,"##놋":7933,"##샬":7934,"##밪":7935,"##둦":7936,"##컀":7937,"##촛":7938,"##좉":7939,"##묜":7940,"##흰":7941,"##탴":7942,"##쨰":7943,"##킼":7944,"##쎅":7945,"##놯":7946,"##튬":7947,"##쫓":7948,"##걔":7949,"##잽":7950,"##킁":7951,"##룐":7952,"##뵙":7953,"##됄":7954,"##밸":7955,"##낚":7956,"##휑":7957,"##웽":7958,"##뭇":7959,"##얗":7960,"##썜":7961,"##챃":7962,"##쌔":7963,"##곁":7964,"##랗":7965,"##쫙":7966,"##쑥":7967,"##샨":7968,"##꼰":7969,"##칍":7970,"##헨":7971,"##탬":7972,"##몹":7973,"##읅":7974,"##숑":7975,"##잰":7976,"##벷":7977,"##읿":7978,"##쳌":7979,"##핰":7980,"##굥":7981,"##덥":7982,"##똬":7983,"##뒷":7984,"##꽁":7985,"##옌":7986,"##풉":7987,"##텟":7988,"##쏙":7989,"##웤":7990,"##맸":7991,"##쳔":7992,"##튠":7993,"##샠":7994,"##뤘":7995,"##딥":7996,"##훌":7997,"##헣":7998,"##쪗":7999,"##쪘":8000,"##짦":8001,"##둉":8002,"##꽇":8003,"##컹":8004,"##앀":8005,"##꾹":8006,"##핥":8007,"##뺀":8008,"##귈":8009,"##쉣":8010,"##옂":8011,"##쫘":8012,"##셍":8013,"##펐":8014,"##칞":8015,"##쩨":8016,"##낯":8017,"##떴":8018,"##꽝":8019,"##쎔":8020,"##샴":8021,"##큅":8022,"##쉘":8023,"##잃":8024,"##쭘":8025,"##괄":8026,"##깆":8027,"##엓":8028,"##밣":8029,"##쮸":8030,"##룬":8031,"##딪":8032,"##슙":8033,"##꾜":8034,"##귣":8035,"##펩":8036,"##풔":8037,"##둠":8038,"##둟":8039,"##꺅":8040,"##핧":8041,"##믜":8042,"##럈":8043,"##벵":8044,"##툼":8045,"##똙":8046,"##긐":8047,"##벡":8048,"##뽐":8049,"##랃":8050,"##햬":8051,"##뽂":8052,"##탔":8053,"##펍":8054,"##덟":8055,"##쉅":8056,"##쥑":8057,"##앸":8058,"##훵":8059,"##죸":8060,"##캥":8061,"##맂":8062,"##뾰":8063,"##뉸":8064,"##빕":8065,"##넜":8066,"##덨":8067,"##텻":8068,"##쩬":8069,"##쿱":8070,"##쎠":8071,"##섕":8072,"##젆":8073,"##걀":8074,"##훟":8075,"##냑":8076,"##놘":8077,"##떱":8078,"##읻":8079,"##맠":8080,"##줰":8081,"##밷":8082,"##읔":8083,"##갴":8084,"##윙":8085,"##듩":8086,"##옘":8087,"##쯩":8088,"##깈":8089,"##욘":8090,"##뿅":8091,"##셥":8092,"##얕":8093,"##흩":8094,"##챌":8095,"##윔":8096,"##탉":8097,"##썪":8098,"##츨":8099,"##얇":8100,"##챀":8101,"##맄":8102,"##딛":8103,"##꿃":8104,"##뮈":8105,"##짊":8106,"##륍":8107,"##끍":8108,"##돰":8109,"##겋":8110,"##듦":8111,"##랳":8112,"##셴":8113,"##젒":8114,"##슘":8115,"##긤":8116,"##퍠":8117,"##펨":8118,"##썸":8119,"##룔":8120,"##귝":8121,"##뽈":8122,"##뢱":8123,"##쭉":8124,"##댑":8125,"##뭣":8126,"##툌":8127,"##걐":8128,"##꽉":8129,"##쐏":8130,"##맏":8131,"##폇":8132,"##귐":8133,"##앝":8134,"##픠":8135,"##돵":8136,"##쮝":8137,"##랖":8138,"##넖":8139,"##듁":8140,"##쌘":8141,"##쓤":8142,"##슌":8143,"##몉":8144,"##핏":8145,"##짼":8146,"##캅":8147,"##룀":8148,"##옠":8149,"##쳥":8150,"##짗":8151,"##넠":8152,"##녈":8153,"##봘":8154,"##힙":8155,"##쨓":8156,"##쎱":8157,"##쉿":8158,"##쌖":8159,"##귑":8160,"##뉼":8161,"##톹":8162,"##얒":8163,"##붛":8164,"##럄":8165,"##갭":8166,"##궄":8167,"##벴":8168,"##졓":8169,"##뗄":8170,"##놌":8171,"##곕":8172,"##쩰":8173,"##삥":8174,"##껌":8175,"##힝":8176,"##봡":8177,"##밮":8178,"##륿":8179,"##잀":8180,"##늨":8181,"##띁":8182,"##밯":8183,"##숸":8184,"##헽":8185,"##팤":8186,"##썀":8187,"##릀":8188,"##맔":8189,"##겔":8190,"##띰":8191,"##엡":8192,"##췰":8193,"##랼":8194,"##릐":8195,"##쇳":8196,"##쨜":8197,"##뉵":8198,"##켔":8199,"##뜩":8200,"##몯":8201,"##쓔":8202,"##킄":8203,"##좦":8204,"##쳡":8205,"##븅":8206,"##깄":8207,"##륨":8208,"##붸":8209,"##줴":8210,"##쌨":8211,"##켈":8212,"##쐰":8213,"##낟":8214,"##겎":8215,"##닾":8216,"##븃":8217,"##켠":8218,"##듳":8219,"##뇸":8220,"##뗏":8221,"##윅":8222,"##폔":8223,"##긩":8224,"##힛":8225,"##멉":8226,"##삲":8227,"##퍄":8228,"##틐":8229,"##퇮":8230,"##냬":8231,"##뭠":8232,"##봬":8233,"##헹":8234,"##샅":8235,"##쨍":8236,"##믓":8237,"##닽":8238,"##꿧":8239,"##즵":8240,"##춈":8241,"##썹":8242,"##죗":8243,"##빱":8244,"##캣":8245,"##츕":8246,"##쇅":8247,"##쿸":8248,"##힣":8249,"##죈":8250,"##쓱":8251,"##냌":8252,"##띡":8253,"##멕":8254,"##껸":8255,"##곘":8256,"##밞":8257,"##앶":8258,"##믕":8259,"##짲":8260,"##눼":8261,"##밈":8262,"##튕":8263,"##뢀":8264,"##솜":8265,"##켯":8266,"##삔":8267,"##촐":8268,"##뵘":8269,"##굣":8270,"##긜":8271,"##쉭":8272,"##솝":8273,"##맆":8274,"##핟":8275,"##샥":8276,"##뽷":8277,"##갗":8278,"##겴":8279,"##쿰":8280,"##퉥":8281,"##앰":8282,"##뒴":8283,"##훔":8284,"##룟":8285,"##솓":8286,"##꿁":8287,"##싄":8288,"##쯧":8289,"##녑":8290,"##뎄":8291,"##읫":8292,"##쨕":8293,"##핬":8294,"##콥":8295,"##잫":8296,"##빔":8297,"##좡":8298,"##똨":8299,"##걜":8300,"##롼":8301,"##챴":8302,"##풋":8303,"##츈":8304,"##맼":8305,"##궷":8306,"##홧":8307,"##닢":8308,"##뮨":8309,"##펄":8310,"##햤":8311,"##캘":8312,"##놉":8313,"##솰":8314,"##쑵":8315,"##뫌":8316,"##욪":8317,"##띱":8318,"##헥":8319,"##욌":8320,"##쉔":8321,"##썌":8322,"##렺":8323,"##뀰":8324,"##왁":8325,"##땀":8326,"##옶":8327,"##뭄":8328,"##멌":8329,"##렃":8330,"##츼":8331,"##톈":8332,"##쟘":8333,"##쭵":8334,"##띈":8335,"##딫":8336,"##쩃":8337,"##웾":8338,"##뿟":8339,"##팠":8340,"##뀟":8341,"##쿺":8342,"##풐":8343,"##떈":8344,"##휙":8345,"##끽":8346,"##춭":8347,"##몌":8348,"##쥭":8349,"##뇰":8350,"##폿":8351,"##곬":8352,"##밢":8353,"##똭":8354,"##덯":8355,"##엦":8356,"##쳅":8357,"##뱌":8358,"##댱":8359,"##칯":8360,"##왭":8361,"##뫈":8362,"##텡":8363,"##섶":8364,"##쭝":8365,"##엊":8366,"##빳":8367,"##핪":8368,"##뽜":8369,"##솎":8370,"##븟":8371,"##췃":8372,"##숀":8373,"##쏭":8374,"##숼":8375,"##팎":8376,"##츰":8377,"##랸":8378,"##낍":8379,"##쨥":8380,"##곷":8381,"##눟":8382,"##렣":8383,"##큭":8384,"##둿":8385,"##궜":8386,"##뎋":8387,"##젯":8388,"##땈":8389,"##뗴":8390,"##틍":8391,"##짰":8392,"##햑":8393,"##긌":8394,"##꿕":8395,"##놬":8396,"##짔":8397,"##삣":8398,"##솤":8399,"##쭐":8400,"##쒜":8401,"##곃":8402,"##칌":8403,"##껬":8404,"##탰":8405,"##늪":8406,"##툥":8407,"##븢":8408,"##뢔":8409,"##뷍":8410,"##잆":8411,"##앛":8412,"##헸":8413,"##훤":8414,"##쇜":8415,"##쥥":8416,"##짢":8417,"##헼":8418,"##듼":8419,"##쩄":8420,"##핡":8421,"##맜":8422,"##놐":8423,"##뽝":8424,"##뜹":8425,"##뱝":8426,"##젹":8427,"##둰":8428,"##껵":8429,"##눀":8430,"##쁸":8431,"##뱨":8432,"##퀼":8433,"##빋":8434,"##껐":8435,"##뎽":8436,"##잦":8437,"##촹":8438,"##촏":8439,"##쇆":8440,"##쟄":8441,"##즁":8442,"##젬":8443,"##챡":8444,"##뚷":8445,"##껅":8446,"##꼿":8447,"##섮":8448,"##얹":8449,"##잤":8450,"##돘":8451,"##좇":8452,"##뜐":8453,"##쌕":8454,"##틋":8455,"##옐":8456,"##녴":8457,"##잨":8458,"##뜅":8459,"##줭":8460,"##뾱":8461,"##싡":8462,"##럾":8463,"##갞":8464,"##캌":8465,"##몄":8466,"##췌":8467,"##튈":8468,"##섲":8469,"##퉤":8470,"##쌉":8471,"##깞":8472,"##뽁":8473,"##빪":8474,"##윳":8475,"##훙":8476,"##큨":8477,"##홝":8478,"##륾":8479,"##랲":8480,"##팧":8481,"##셯":8482,"##뻣":8483,"##봫":8484,"##씅":8485,"##츙":8486,"##숱":8487,"##멱":8488,"##홤":8489,"##멓":8490,"##쟀":8491,"##풰":8492,"##볘":8493,"##삧":8494,"##왇":8495,"##솽":8496,"##뎨":8497,"##뙁":8498,"##벸":8499,"##뻠":8500,"##믺":8501,"##삑":8502,"##뮌":8503,"##먓":8504,"##뭴":8505,"##뇩":8506,"##럱":8507,"##깰":8508,"##갹":8509,"##돍":8510,"##볻":8511,"##뮴":8512,"##쫩":8513,"##갣":8514,"##첮":8515,"##껼":8516,"##꿩":8517,"##넋":8518,"##걈":8519,"##쾨":8520,"##찤":8521,"##깇":8522,"##챦":8523,"##웝":8524,"##곺":8525,"##듐":8526,"##걾":8527,"##흭":8528,"##뜷":8529,"##짏":8530,"##륄":8531,"##쭌":8532,"##벋":8533,"##쟹":8534,"##횩":8535,"##욲":8536,"##졐":8537,"##좩":8538,"##떸":8539,"##쨀":8540,"##뎆":8541,"##돗":8542,"##뱥":8543,"##쉇":8544,"##땽":8545,"##먿":8546,"##썡":8547,"##슿":8548,"##퀑":8549,"##쟠":8550,"##뚠":8551,"##끤":8552,"##쥠":8553,"##췬":8554,"##폈":8555,"##휩":8556,"##쳉":8557,"##싢":8558,"##싣":8559,"##겓":8560,"##뗌":8561,"##웂":8562,"##홪":8563,"##죕":8564,"##땝":8565,"##햠":8566,"##슾":8567,"##뛴":8568,"##뵀":8569,"##쯪":8570,"##싳":8571,"##얽":8572,"##싞":8573,"##쓉":8574,"##엙":8575,"##잋":8576,"##훅":8577,"##쑨":8578,"##뵜":8579,"##볏":8580,"##햨":8581,"##핚":8582,"##홥":8583,"##먠":8584,"##햣":8585,"##뭥":8586,"##볐":8587,"##씤":8588,"##햅":8589,"##눙":8590,"##퓿":8591,"##풒":8592,"##쥰":8593,"##듓":8594,"##먜":8595,"##팼":8596,"##낒":8597,"##닺":8598,"##꽄":8599,"##먱":8600,"##잜":8601,"##삱":8602,"##췅":8603,"##끙":8604,"##궛":8605,"##앚":8606,"##킇":8607,"##흙":8608,"##윰":8609,"##눵":8610,"##뼜":8611,"##룝":8612,"##렄":8613,"##됗":8614,"##뒁":8615,"##앐":8616,"##쉨":8617,"##돝":8618,"##닯":8619,"##쉈":8620,"##븍":8621,"##춌":8622,"##릮":8623,"##앖":8624,"##챂":8625,"##멩":8626,"##셕":8627,"##낡":8628,"##귿":8629,"##퐌":8630,"##쭤":8631,"##좔":8632,"##칽":8633,"##읠":8634,"##섦":8635,"##닚":8636,"##븝":8637,"##닪":8638,"##숯":8639,"##탘":8640,"##홓":8641,"##흝":8642,"##돤":8643,"##뽤":8644,"##뷴":8645,"##젴":8646,"##쟂":8647,"##홰":8648,"##씰":8649,"##뉩":8650,"##쉉":8651,"##뤡":8652,"##팯":8653,"##롐":8654,"##꼹":8655,"##짆":8656,"##샾":8657,"##촞":8658,"##낏":8659,"##잲":8660,"##뼐":8661,"##꺠":8662,"##콴":8663,"##맑":8664,"##뼉":8665,"##늡":8666,"##짙":8667,"##뙈":8668,"##괌":8669,"##섊":8670,"##콬":8671,"##봑":8672,"##슉":8673,"##챘":8674,"##캍":8675,"##읊":8676,"##뺄":8677,"##뵤":8678,"##맷":8679,"##쀼":8680,"##헁":8681,"##씯":8682,"##붉":8683,"##둅":8684,"##붇":8685,"##쥣":8686,"##늉":8687,"##헴":8688,"##텰":8689,"##늅":8690,"##긷":8691,"##럑":8692,"##뎠":8693,"##굈":8694,"##딹":8695,"##뷁":8696,"##넙":8697,"##뎊":8698,"##뭌":8699,"##졷":8700,"##웄":8701,"##섣":8702,"##쳑":8703,"##휼":8704,"##썅":8705,"##넿":8706,"##몾":8707,"##엤":8708,"##슽":8709,"##엾":8710,"##벚":8711,"##켤":8712,"##묠":8713,"##멎":8714,"##뀨":8715,"##멊":8716,"##넡":8717,"##릈":8718,"##퐐":8719,"##줈":8720,"##볠":8721,"##캤":8722,"##넟":8723,"##뉨":8724,"##섵":8725,"##쪅":8726,"##쾡":8727,"##굵":8728,"##쐇":8729,"##땟":8730,"##셸":8731,"##욨":8732,"##렿":8733,"##꿂":8734,"##닏":8735,"##싰":8736,"##씝":8737,"##욀":8738,"##껜":8739,"##놜":8740,"##좍":8741,"##샋":8742,"##뎔":8743,"##힜":8744,"##땸":8745,"##졀":8746,"##읃":8747,"##펔":8748,"##뎡":8749,"##얷":8750,"##뽱":8751,"##닟":8752,"##킅":8753,"##젛":8754,"##뻄":8755,"##뜌":8756,"##듄":8757,"##젵":8758,"##펏":8759,"##벞":8760,"##슼":8761,"##줔":8762,"##틔":8763,"##낔":8764,"##춛":8765,"##픕":8766,"##팓":8767,"##쩠":8768,"##끕":8769,"##엪":8770,"##갼":8771,"##옺":8772,"##홴":8773,"##맃":8774,"##떔":8775,"##렼":8776,"##쇘":8777,"##쁩":8778,"##슺":8779,"##빫":8780,"##밐":8781,"##켐":8782,"##돞":8783,"##벝":8784,"##콸":8785,"##삯":8786,"##뭎":8787,"##줙":8788,"##쥤":8789,"##촟":8790,"##뇤":8791,"##잴":8792,"##샣":8793,"##넵":8794,"##꾺":8795,"##쩧":8796,"##깋":8797,"##껨":8798,"##샆":8799,"##괍":8800,"##쿜":8801,"##슂":8802,"##뵛":8803,"##븀":8804,"##샙":8805,"##댬":8806,"##굇":8807,"##쉒":8808,"##겾":8809,"##땍":8810,"##큠":8811,"##됍":8812,"##땬":8813,"##폳":8814,"##껔":8815,"##푯":8816,"##뤈":8817,"##떢":8818,"##귁":8819,"##윷":8820,"##냘":8821,"##좨":8822,"##붑":8823,"##핝":8824,"##찧":8825,"##넦":8826,"##꽛":8827,"##얖":8828,"##숬":8829,"##췻":8830,"##꿝":8831,"##됰":8832,"##읭":8833,"##뒙":8834,"##큽":8835,"##괐":8836,"##큵":8837,"##즄":8838,"##죙":8839,"##딿":8840,"##쟜":8841,"##읨":8842,"##롻":8843,"##뉜":8844,"##듑":8845,"##컈":8846,"##쐐":8847,"##틉":8848,"##훃":8849,"##쭻":8850,"##룿":8851,"##팈":8852,"##걳":8853,"##싕":8854,"##궘":8855,"##똿":8856,"##왰":8857,"##띀":8858,"##뤳":8859,"##깠":8860,"##믽":8861,"##뛸":8862,"##읮":8863,"##쟐":8864,"##퐙":8865,"##잪":8866,"##낢":8867,"##냡":8868,"##묽":8869,"##띨":8870,"##쐑":8871,"##웩":8872,"##뚯":8873,"##빢":8874,"##벉":8875,"##뇻":8876,"##욖":8877,"##춝":8878,"##뤀":8879,"##줗":8880,"##힠":8881,"##쒝":8882,"##낃":8883,"##뎐":8884,"##좟":8885,"##탙":8886,"##텉":8887,"##쯕":8888,"##흴":8889,"##탸":8890,"##땄":8891,"##붃":8892,"##옸":8893,"##읕":8894,"##렑":8895,"##퀙":8896,"##즥":8897,"##뽠":8898,"##좈":8899,"##갢":8900,"##딀":8901,"##끵":8902,"##겊":8903,"##쩛":8904,"##딳":8905,"##짞":8906,"##픞":8907,"##댙":8908,"##륰":8909,"##듶":8910,"##팹":8911,"##옅":8912,"##섁":8913,"##롲":8914,"##읶":8915,"##븥":8916,"##굄":8917,"##먺":8918,"##푠":8919,"##튤":8920,"##싪":8921,"##끋":8922,"##쳬":8923,"##뿬":8924,"##땧":8925,"##앳":8926,"##뇡":8927,"##솧":8928,"##젋":8929,"##쥼":8930,"##쌞":8931,"##셖":8932,"##텩":8933,"##홛":8934,"##챕":8935,"##꿘":8936,"##웣":8937,"##쮜":8938,"##닡":8939,"##뎉":8940,"##옜":8941,"##죷":8942,"##쉫":8943,"##뼏":8944,"##뱡":8945,"##껓":8946,"##걋":8947,"##댛":8948,"##굨":8949,"##쎼":8950,"##릍":8951,"##굚":8952,"##젲":8953,"##곻":8954,"##럐":8955,"##셌":8956,"##횐":8957,"##텆":8958,"##닞":8959,"##꿋":8960,"##덫":8961,"##괞":8962,"##됒":8963,"##뒹":8964,"##뼝":8965,"##톳":8966,"##귕":8967,"##짛":8968,"##걑":8969,"##얐":8970,"##냦":8971,"##휍":8972,"##섥":8973,"##줳":8974,"##걹":8975,"##퍙":8976,"##핮":8977,"##젭":8978,"##짪":8979,"##뒸":8980,"##죨":8981,"##샏":8982,"##뗬":8983,"##삡":8984,"##쳨":8985,"##뗑":8986,"##놩":8987,"##쎃":8988,"##믘":8989,"##텁":8990,"##찟":8991,"##훍":8992,"##껫":8993,"##쌧":8994,"##쩖":8995,"##쁄":8996,"##잍":8997,"##셬":8998,"##컾":8999,"##겂":9000,"##갃":9001,"##틑":9002,"##롣":9003,"##꾁":9004,"##붤":9005,"##햔":9006,"##븜":9007,"##궙":9008,"##츅":9009,"##혘":9010,"##뱽":9011,"##먐":9012,"##븓":9013,"##뻇":9014,"##쭁":9015,"##꼉":9016,"##혛":9017,"##눗":9018,"##늛":9019,"##텤":9020,"##맇":9021,"##왛":9022,"##깩":9023,"##셱":9024,"##닄":9025,"##씼":9026,"##빜":9027,"##훀":9028,"##벧":9029,"##읉":9030,"##뚧":9031,"##쎓":9032,"##렚":9033,"##랕":9034,"##솈":9035,"##랱":9036,"##켱":9037,"##믁":9038,"##젘":9039,"##탹":9040,"##쒯":9041,"##깣":9042,"##챤":9043,"##톽":9044,"##룜":9045,"##꿥":9046,"##꼄":9047,"##챚":9048,"##퐄":9049,"##랒":9050,"##횰":9051,"##듹":9052,"##켝":9053,"##걌":9054,"##쁌":9055,"##뜾":9056,"##뷱":9057,"##윜":9058,"##륀":9059,"##괭":9060,"##쟛":9061,"##짥":9062,"##겵":9063,"##릳":9064,"##졉":9065,"##싥":9066,"##뺩":9067,"##핛":9068,"##츸":9069,"##휸":9070,"##얙":9071,"##곜":9072,"##쫃":9073,"##꿎":9074,"##뤌":9075,"##퇀":9076,"##읜":9077,"##쎀":9078,"##늰":9079,"##냫":9080,"##똣":9081,"##긬":9082,"##멐":9083,"##헜":9084,"##멥":9085,"##젏":9086,"##쏫":9087,"##랟":9088,"##뛝":9089,"##쭭":9090,"##빩":9091,"##퀵":9092,"##끅":9093,"##짃":9094,"##돱":9095,"##맍":9096,"##뒨":9097,"##옭":9098,"##뱐":9099,"##븤":9100,"##갋":9101,"##먇":9102,"##쉪":9103,"##짂":9104,"##겍":9105,"##쯎":9106,"##굑":9107,"##땦":9108,"##샼":9109,"##짯":9110,"##잧":9111,"##햋":9112,"##잿":9113,"##묫":9114,"##놰":9115,"##돳":9116,"##췍":9117,"##푱":9118,"##쎵":9119,"##몊":9120,"##줸":9121,"##듪":9122,"##얜":9123,"##얅":9124,"##햊":9125,"##춍":9126,"##슭":9127,"##쒔":9128,"##엍":9129,"##푴":9130,"##싐":9131,"##볓":9132,"##쫖":9133,"##렂":9134,"##쎆":9135,"##닁":9136,"##휗":9137,"##떙":9138,"##둨":9139,"##봈":9140,"##릱":9141,"##젡":9142,"##맅":9143,"##젂":9144,"##땁":9145,"##읒":9146,"##됱":9147,"##멷":9148,"##쎌":9149,"##쨘":9150,"##촙":9151,"##냿":9152,"##춠":9153,"##깼":9154,"##찭":9155,"##깓":9156,"##뀝":9157,"##삮":9158,"##닰":9159,"##엀":9160,"##뗘":9161,"##뷸":9162,"##샚":9163,"##쳦":9164,"##봠":9165,"##곙":9166,"##옫":9167,"##젇":9168,"##뼘":9169,"##즜":9170,"##뚁":9171,"##옿":9172,"##댤":9173,"##뤔":9174,"##쯍":9175,"##멬":9176,"##젿":9177,"##칡":9178,"##뫽":9179,"##힄":9180,"##맢":9181,"##됚":9182,"##쎡":9183,"##왐":9184,"##짒":9185,"##쯉":9186,"##켁":9187,"##괒":9188,"##읁":9189,"##줒":9190,"##풎":9191,"##쵝":9192,"##텈":9193,"##댴":9194,"##뻒":9195,"##혴":9196,"##땢":9197,"##젰":9198,"##톼":9199,"##덲":9200,"##툿":9201,"##슁":9202,"##풇":9203,"##룷":9204,"##벟":9205,"##댸":9206,"##뒑":9207,"##긘":9208,"##윾":9209,"##좄":9210,"##볔":9211,"##퐝":9212,"##얂":9213,"##췁":9214,"##핔":9215,"##씐":9216,"##갲":9217,"##쪹":9218,"##왯":9219,"##퀜":9220,"##긧":9221,"##죻":9222,"##뱁":9223,"##웉":9224,"##홯":9225,"##껳":9226,"##웢":9227,"##켑":9228,"##켴":9229,"##벱":9230,"##엧":9231,"##쪈":9232,"##댯":9233,"##딍":9234,"##꼌":9235,"##븨":9236,"##곯":9237,"##앆":9238,"##쇗":9239,"##똗":9240,"##컫":9241,"##뼌":9242,"##윸":9243,"##롁":9244,"##뜪":9245,"##떽":9246,"##닣":9247,"##됑":9248,"##칀":9249,"##넎":9250,"##솀":9251,"##뢌":9252,"##괬":9253,"##싁":9254,"##봊":9255,"##훜":9256,"##묨":9257,"##퍈":9258,"##엋":9259,"##샇":9260,"##씃":9261,"##뚥":9262,"##볌":9263,"##읖":9264,"##삻":9265,"##픂":9266,"##듫":9267,"##샜":9268,"##캎":9269,"##뚀":9270,"##뱄":9271,"##먾":9272,"##빓":9273,"##덷":9274,"##퓌":9275,"##릘":9276,"##솊":9277,"##돡":9278,"##엲":9279,"##얺":9280,"##턩":9281,"##볒":9282,"##혂":9283,"##죌":9284,"##헵":9285,"##큔":9286,"##횬":9287,"##똷":9288,"##낐":9289,"##쥽":9290,"##벛":9291,"##샿":9292,"##촨":9293,"##줱":9294,"##떯":9295,"##쟙":9296,"##꽅":9297,"##줮":9298,"##홇":9299,"##럌":9300,"##캑":9301,"##읆":9302,"##쌥":9303,"##췈":9304,"##앋":9305,"##즛":9306,"##끆":9307,"##걘":9308,"##뢨":9309,"##뉍":9310,"##엫":9311,"##뿨":9312,"##쵤":9313,"##쿳":9314,"##뗭":9315,"##윋":9316,"##뵌":9317,"##쫍":9318,"##잂":9319,"##앲":9320,"##숰":9321,"##졎":9322,"##쪕":9323,"##뭵":9324,"##칲":9325,"##곈":9326,"##솏":9327,"##뺠":9328,"##쏚":9329,"##퇫":9330,"##섈":9331,"##빆":9332,"##웇":9333,"##씟":9334,"##쏵":9335,"##끨":9336,"##벜":9337,"##벘":9338,"##촠":9339,"##줜":9340,"##꺔":9341,"##즠":9342,"##뭨":9343,"##뉠":9344,"##쐬":9345,"##즨":9346,"##눚":9347,"##퍀":9348,"##솼":9349,"##쒼":9350,"##죧":9351,"##갉":9352,"##릏":9353,"##빸":9354,"##롷":9355,"##흓":9356,"##웋":9357,"##씪":9358,"##쎙":9359,"##괔":9360,"##윹":9361,"##덞":9362,"##슞":9363,"##굻":9364,"##쯥":9365,"##붘":9366,"##얮":9367,"##쇤":9368,"##씾":9369,"##꿏":9370,"##뢸":9371,"##둗":9372,"##콌":9373,"##휨":9374,"##쒹":9375,"##롈":9376,"##쬭":9377,"##챳":9378,"##쫀":9379,"##썁":9380,"##욻":9381,"##깢":9382,"##밫":9383,"##몼":9384,"##댇":9385,"##늫":9386,"##뒓":9387,"##쉛":9388,"##탍":9389,"##쬘":9390,"##엻":9391,"##돴":9392,"##뤸":9393,"##쥘":9394,"##숔":9395,"##둙":9396,"##픵":9397,"##픙":9398,"##닻":9399,"##퉐":9400,"##퉈":9401,"##짣":9402,"##쫏":9403,"##잟":9404,"##켘":9405,"##섫":9406,"##싮":9407,"##뱈":9408,"##췸":9409,"##긕":9410,"##휵":9411,"##쾈":9412,"##큥":9413,"##쉓":9414,"##옽":9415,"##줓":9416,"##튴":9417,"##짫":9418,"##쳗":9419,"##뛔":9420,"##쳍":9421,"##댏":9422,"##싑":9423,"##띸":9424,"##윯":9425,"##먘":9426,"##콱":9427,"##뿤":9428,"##겇":9429,"##쌱":9430,"##쇡":9431,"##읇":9432,"##먁":9433,"##얃":9434,"##쒞":9435,"##끸":9436,"##녭":9437,"##벎":9438,"##믱":9439,"##괵":9440,"##쑻":9441,"##꽐":9442,"##겯":9443,"##퓡":9444,"##럲":9445,"##읓":9446,"##줕":9447,"##꼣":9448,"##뵝":9449,"##랓":9450,"##뭡":9451,"##죾":9452,"##멏":9453,"##넊":9454,"##릃":9455,"##뭁":9456,"##퉷":9457,"##푤":9458,"##꼷":9459,"##헶":9460,"##썐":9461,"##뺜":9462,"##돟":9463,"##뜝":9464,"##뚬":9465,"##눍":9466,"##깸":9467,"##긓":9468,"##죡":9469,"##낧":9470,"##똔":9471,"##뤅":9472,"##멑":9473,"##쟉":9474,"##핲":9475,"##셒":9476,"##섂":9477,"##녠":9478,"##솅":9479,"##빘":9480,"##붖":9481,"##땩":9482,"##삠":9483,"##넄":9484,"##씍":9485,"##렢":9486,"##큿":9487,"##폠":9488,"##긑":9489,"##팘":9490,"##쇵":9491,"##씈":9492,"##뚣":9493,"##뻩":9494,"##맻":9495,"##뚼":9496,"##괼":9497,"##랋":9498,"##늩":9499,"##궝":9500,"##쾰":9501,"##굲":9502,"##럵":9503,"##죜":9504,"##묹":9505,"##웧":9506,"##텽":9507,"##썎":9508,"##럇":9509,"##귬":9510,"##뉔":9511,"##뺃":9512,"##륹":9513,"##똫":9514,"##릌":9515,"##뗫":9516,"##곹":9517,"##헗":9518,"##뫀":9519,"##랇":9520,"##왝":9521,"##뤕":9522,"##멨":9523,"##햡":9524,"##븽":9525,"##쁀":9526,"##롶":9527,"##햘":9528,"##폯":9529,"##릫":9530,"##녱":9531,"##뇜":9532,"##듇":9533,"##뵨":9534,"##밹":9535,"##됧":9536,"##멵":9537,"##눳":9538,"##썠":9539,"##놑":9540,"##떘":9541,"##뀠":9542,"##쏨":9543,"##꿴":9544,"##늼":9545,"##뙨":9546,"##돎":9547,"##놤":9548,"##늖":9549,"##탖":9550,"##찠":9551,"##찓":9552,"##쯈":9553,"##좂":9554,"##갷":9555,"##숧":9556,"##뺅":9557,"##붂":9558,"##쓥":9559,"##쪾":9560,"##샂":9561,"##뿝":9562,"##퇏":9563,"##찷":9564,"##겢":9565,"##왴":9566,"##욛":9567,"##쒴":9568,"##슦":9569,"##걶":9570,"##춯":9571,"##귱":9572,"##섳":9573,"##끯":9574,"##흪":9575,"##줐":9576,"##읙":9577,"##뭩":9578,"##욷":9579,"##칮":9580,"##엷":9581,"##흏":9582,"##롘":9583,"##릂":9584,"##뱟":9585,"##넽":9586,"##믖":9587,"##뵹":9588,"##잒":9589,"##쟣":9590,"##슠":9591,"##킌":9592,"##뤗":9593,"##앂":9594,"##댖":9595,"##뻡":9596,"##찎":9597,"##벹":9598,"##텃":9599,"##궇":9600,"##훋":9601,"##넏":9602,"##퇑":9603,"##잛":9604,"##횻":9605,"##숌":9606,"##쬐":9607,"##햛":9608,"##뭏":9609,"##삳":9610,"##띃":9611,"##듲":9612,"##샡":9613,"##횔":9614,"##돖":9615,"##뮥":9616,"##꽹":9617,"##놖":9618,"##쒁":9619,"##턀":9620,"##폥":9621,"##줠":9622,"##홐":9623,"##엳":9624,"##끾":9625,"##홱":9626,"##쉡":9627,"##팆":9628,"##횸":9629,"##꿱":9630,"##꽙":9631,"##돐":9632,"##혝":9633,"##돚":9634,"##녤":9635,"##쑹":9636,"##챁":9637,"##빭":9638,"##넺":9639,"##흼":9640,"##덝":9641,"##뵐":9642,"##쉄":9643,"##쳧":9644,"##굡":9645,"##칱":9646,"##힊":9647,"##풕":9648,"##꽦":9649,"##뻭":9650,"##밲":9651,"##텋":9652,"##뺘":9653,"##욝":9654,"##듕":9655,"##궸":9656,"##꿑":9657,"##흦":9658,"##섷":9659,"##뢴":9660,"##쿗":9661,"##싨":9662,"##쁭":9663,"##띻":9664,"##흌":9665,"##껠":9666,"##퇄":9667,"##맖":9668,"##륽":9669,"##큳":9670,"##녛":9671,"##숖":9672,"##뱩":9673,"##솄":9674,"##튁":9675,"##괗":9676,"##뉭":9677,"##룤":9678,"##촵":9679,"##숵":9680,"##뗐":9681,"##럗":9682,"##뢩":9683,"##녿":9684,"##푄":9685,"##쩼":9686,"##슄":9687,"##캨":9688,"##쒠":9689,"##펻":9690,"##똠":9691,"##쑬":9692,"##똻":9693,"##쀳":9694,"##쎜":9695,"##좭":9696,"##읋":9697,"##푿":9698,"##뿕":9699,"##컅":9700,"##룱":9701,"##탇":9702,"##걖":9703,"##햙":9704,"##벖":9705,"##딖":9706,"##뷩":9707,"##흿":9708,"##굤":9709,"##섟":9710,"##핗":9711,"##앧":9712,"##펃":9713,"##밙":9714,"##뫙":9715,"##뚞":9716,"##뛱":9717,"##꼳":9718,"##뜀":9719,"##즣":9720,"##왂":9721,"##귻":9722,"##렧":9723,"##엩":9724,"##낗":9725,"##툐":9726,"##텄":9727,"##랆":9728,"##덍":9729,"##썍":9730,"##봍":9731,"##꼥":9732,"##힁":9733,"##뺙":9734,"##뺕":9735,"##즬":9736,"##긿":9737,"##쐨":9738,"##닲":9739,"##넾":9740,"##됙":9741,"##홎":9742,"##쫴":9743,"##숄":9744,"##컿":9745,"##읩":9746,"##섻":9747,"##쌬":9748,"##팃":9749,"##퓬":9750,"##읯":9751,"##펵":9752,"##뚸":9753,"##줆":9754,"##뿠":9755,"##쫛":9756,"##쎕":9757,"##낲":9758,"##찯":9759,"##졈":9760,"##팉":9761,"##콮":9762,"##촥":9763,"##됸":9764,"##쥡":9765,"##쳈":9766,"##냏":9767,"##뵴":9768,"##쒑":9769,"##쯜":9770,"##졲":9771,"##킫":9772,"##뷘":9773,"##갶":9774,"##뙸":9775,"##듰":9776,"##깧":9777,"##놕":9778,"##쯘":9779,"##앏":9780,"##귴":9781,"##촣":9782,"##뎇":9783,"##벫":9784,"##쐤":9785,"##긲":9786,"##맊":9787,"##랅":9788,"##룁":9789,"##얰":9790,"##궉":9791,"##몪":9792,"##뜁":9793,"##톸":9794,"##늧":9795,"##롳":9796,"##첢":9797,"##왱":9798,"##슀":9799,"##쀄":9800,"##힟":9801,"##넒":9802,"##횢":9803,"##뎬":9804,"##샑":9805,"##췐":9806,"##휀":9807,"##삸":9808,"##깖":9809,"##됼":9810,"##큩":9811,"##몷":9812,"##혾":9813,"##몋":9814,"##짅":9815,"##헡":9816,"##됔":9817,"##닶":9818,"##렭":9819,"##껒":9820,"##귓":9821,"##츗":9822,"##꺵":9823,"##탼":9824,"##궃":9825,"##딈":9826,"##웘":9827,"##싲":9828,"##젌":9829,"##홣":9830,"##쩻":9831,"##킝":9832,"##끜":9833,"##깹":9834,"##쁑":9835,"##씥":9836,"##곌":9837,"##궅":9838,"##줝":9839,"##춉":9840,"##걺":9841,"##뚵":9842,"##벰":9843,"##늽":9844,"##흇":9845,"##큪":9846,"##퇜":9847,"##쫐":9848,"##얳":9849,"##몱":9850,"##녅":9851,"##뺵":9852,"##홁":9853,"##튐":9854,"##븹":9855,"##꼨":9856,"##쑼":9857,"##좐":9858,"##럶":9859,"##켙":9860,"##쎁":9861,"##챨":9862,"##넚":9863,"##핻":9864,"##잩":9865,"##헳":9866,"##쵼":9867,"##뷉":9868,"##줃":9869,"##몟":9870,"##뜮":9871,"##뼁":9872,"##뚭":9873,"##괁":9874,"##궨":9875,"##좼":9876,"##뮛":9877,"##츧":9878,"##슏":9879,"##쓕":9880,"##햫":9881,"##즹":9882,"##뗔":9883,"##닸":9884,"##뇹":9885,"##롹":9886,"##휭":9887,"##됝":9888,"##갊":9889,"##낝":9890,"##춋":9891,"##뀬":9892,"##컁":9893,"##쭙":9894,"##웞":9895,"##쯰":9896,"##툻":9897,"##쩦":9898,"##췽":9899,"##욫":9900,"##캊":9901,"##몁":9902,"##귾":9903,"##뀸":9904,"##훸":9905,"##턔":9906,"##쎾":9907,"##툉":9908,"##휫":9909,"##쾃":9910,"##뀩":9911,"##긇":9912,"##햝":9913,"##갆":9914,"##쏀":9915,"##줵":9916,"##썾":9917,"##턐":9918,"##뢈":9919,"##엢":9920,"##룠":9921,"##둼":9922,"##밠":9923,"##쏼":9924,"##쀨":9925,"##쁼":9926,"##앇":9927,"##묙":9928,"##앩":9929,"##큌":9930,"##꾐":9931,"##켷":9932,"##줁":9933,"##릔":9934,"##띔":9935,"##쳘":9936,"##옝":9937,"##츳":9938,"##뭅":9939,"##럣":9940,"##볋":9941,"##큇":9942,"##켼":9943,"##굘":9944,"##둭":9945,"##귭":9946,"##뛟":9947,"##뷃":9948,"##뮹":9949,"##횅":9950,"##춴":9951,"##쳫":9952,"##떫":9953,"##븛":9954,"##륩":9955,"##앁":9956,"##솉":9957,"##끟":9958,"##릠":9959,"##뗠":9960,"##먈":9961,"##볗":9962,"##긒":9963,"##듧":9964,"##뱰":9965,"##뎂":9966,"##죺":9967,"##굯":9968,"##댭":9969,"##첰":9970,"##겞":9971,"##잙":9972,"##쮠":9973,"##썃":9974,"##윂":9975,"##훻":9976,"##뫘":9977,"##펟":9978,"##뼤":9979,"##핶":9980,"##얨":9981,"##꿬":9982,"##둴":9983,"##둩":9984,"##럻":9985,"##듡":9986,"##붼":9987,"##씋":9988,"##렊":9989,"##붋":9990,"##믇":9991,"##첤":9992,"##룈":9993,"##됤":9994,"##릋":9995,"##륶":9996,"##젗":9997,"##븰":9998,"##곪":9999,"##랯":10000,"##땰":10001,"##긛":10002,"##좝":10003,"##랮":10004,"##쑝":10005,"##픗":10006,"##껕":10007,"##쟨":10008,"##랁":10009,"##뱆":10010,"##칔":10011,"##쨧":10012,"##빝":10013,"##띙":10014,"##덣":10015,"##쎘":10016,"##엃":10017,"##눤":10018,"##븡":10019,"##믾":10020,"##읳":10021,"##햰":10022,"##턘":10023,"##씺":10024,"##쀅":10025,"##꿜":10026,"##퍌":10027,"##뷜":10028,"##뻈":10029,"##놁":10030,"##댼":10031,"##곢":10032,"##쇙":10033,"##붔":10034,"##쉌":10035,"##컯":10036,"##깛":10037,"##뚢":10038,"##꿿":10039,"##봏":10040,"##쒱":10041,"##뺸":10042,"##슮":10043,"##븬":10044,"##궹":10045,"##딯":10046,"##챝":10047,"##쾀":10048,"##긂":10049,"##캆":10050,"##쭛":10051,"##뀽":10052,"##잢":10053,"##퓔":10054,"##욹":10055,"##컭":10056,"##씉":10057,"##볜":10058,"##칑":10059,"##빹":10060,"##곆":10061,"##뀄":10062,"##됟":10063,"##팊":10064,"##쪔":10065,"##덀":10066,"##쬼":10067,"##똒":10068,"##꺘":10069,"##놎":10070,"##핣":10071,"##릥":10072,"##쟴":10073,"##좓":10074,"##맋":10075,"##뎝":10076,"##둛":10077,"##셇":10078,"##햟":10079,"##쥦":10080,"##튓":10081,"##졿":10082,"##럷":10083,"##웻":10084,"##쯀":10085,"##퓅":10086,"##껙":10087,"##긹":10088,"##웥":10089,"##큉":10090,"##줚":10091,"##엵":10092,"##웦":10093,"##갏":10094,"##옾":10095,"##뉑":10096,"##킽":10097,"##늿":10098,"##턑":10099,"##곟":10100,"##퉜":10101,"##씮":10102,"##홑":10103,"##혿":10104,"##깒":10105,"##톻":10106,"##쩕":10107,"##웸":10108,"##쓲":10109,"##샟":10110,"##츱":10111,"##횤":10112,"##귖":10113,"##럮":10114,"##뫗":10115,"##푶":10116,"##쭸":10117,"##찦":10118,"##릡":10119,"##췕":10120,"##쵀":10121,"##좢":10122,"##숝":10123,"##틳":10124,"##렫":10125,"##쳊":10126,"##팣":10127,"##슶":10128,"##쩟":10129,"##녆":10130,"##듢":10131,"##퇼":10132,"##훱":10133,"##즂":10134,"##뇄":10135,"##룪":10136,"##혱":10137,"##훛":10138,"##짋":10139,"##읬":10140,"##퐜":10141,"##캏":10142,"##붅":10143,"##뫔":10144,"##줨":10145,"##읈":10146,"##볽":10147,"##쏩":10148,"##핤":10149,"##뻫":10150,"##껗":10151,"##켵":10152,"##꺈":10153,"##뤽":10154,"##쥨":10155,"##웊":10156,"##칻":10157,"##솸":10158,"##뻴":10159,"##늟":10160,"##렏":10161,"##뒵":10162,"##쥄":10163,"##뭑":10164,"##덹":10165,"##랚":10166,"##훝":10167,"##뻼":10168,"##뮷":10169,"##쬠":10170,"##쥿":10171,"##뢥":10172,"##좸":10173,"##냩":10174,"##츔":10175,"##셑":10176,"##핢":10177,"##떅":10178,"##퀠":10179,"##뱓":10180,"##쪵":10181,"##띾":10182,"##횄":10183,"##캙":10184,"##띌":10185,"##덖":10186,"##햩":10187,"##햎":10188,"##눽":10189,"##췩":10190,"##젺":10191,"##삵":10192,"##깦":10193,"##웗":10194,"##큡":10195,"##믝":10196,"##뉌":10197,"##넞":10198,"##뻿":10199,"##꽌":10200,"##쁙":10201,"##눨":10202,"##췹":10203,"##뎧":10204,"##욺":10205,"##앢":10206,"##옦":10207,"##쳠":10208,"##뇔":10209,"##풂":10210,"##궍":10211,"##걉":10212,"##킸":10213,"##곴":10214,"##쏌":10215,"##셃":10216,"##춫":10217,"##렡":10218,"##윀":10219,"##퉄":10220,"##칬":10221,"##냤":10222,"##돓":10223,"##찲":10224,"##얬":10225,"##뭊":10226,"##곅":10227,"##퍁":10228,"##읰":10229,"##걲":10230,"##팦":10231,"##죰":10232,"##렆":10233,"##켇":10234,"##좜":10235,"##틊":10236,"##쏐":10237,"##좊":10238,"##옻":10239,"##릹":10240,"##럅":10241,"##쪌":10242,"##팕":10243,"##솁":10244,"##싟":10245,"##낛":10246,"##윻":10247,"##뇝":10248,"##혖":10249,"##톃":10250,"##쳒":10251,"##덙":10252,"##혠":10253,"##졵":10254,"##맒":10255,"##혒":10256,"##볭":10257,"##렅":10258,"##눹":10259,"##뺭":10260,"##샃":10261,"##밚":10262,"##뽓":10263,"##봃":10264,"##푀":10265,"##숐":10266,"##퉛":10267,"##쬽":10268,"##쐥":10269,"##붗":10270,"##첧":10271,"##끉":10272,"##꼲":10273,"##똴":10274,"##풩":10275,"##냊":10276,"##짉":10277,"##챼":10278,"##괏":10279,"##챽":10280,"##밊":10281,"##뵏":10282,"##꾤":10283,"##듞":10284,"##썄":10285,"##앻":10286,"##얭":10287,"##꼏":10288,"##낕":10289,"##쪠":10290,"##꿹":10291,"##쯨":10292,"##퐆":10293,"##싓":10294,"##칳":10295,"##됳":10296,"##꾿":10297,"##뽭":10298,"##룍":10299,"##찅":10300,"##츶":10301,"##흒":10302,"##꺏":10303,"##빯":10304,"##벩":10305,"##턕":10306,"##묀":10307,"##왲":10308,"##빬":10309,"##뤤":10310,"##찳":10311,"##쟏":10312,"##솬":10313,"##퍅":10314,"##캭":10315,"##굌":10316,"##줂":10317,"##혇":10318,"##빺":10319,"##왹":10320,"##솩":10321,"##밦":10322,"##낎":10323,"##뢋":10324,"##뷕":10325,"##솻":10326,"##젞":10327,"##챜":10328,"##뱜":10329,"##궮":10330,"##뚦":10331,"##셂":10332,"##둞":10333,"##톶":10334,"##휐":10335,"##뜄":10336,"##젉":10337,"##뫁":10338,"##쿻":10339,"##픟":10340,"##봋":10341,"##맚":10342,"##봰":10343,"##뒠":10344,"##쵁":10345,"##뇠":10346,"##엱":10347,"##낻":10348,"##꼊":10349,"##믑":10350,"##혷":10351,"##퉸":10352,"##칟":10353,"##늭":10354,"##밒":10355,"##뭋":10356,"##몡":10357,"##딞":10358,"##쒘":10359,"##냗":10360,"##힡":10361,"##횹":10362,"##뀻":10363,"##꺜":10364,"##쎂":10365,"##먖":10366,"##푕":10367,"##젚":10368,"##졘":10369,"##뭦":10370,"##됡":10371,"##쁫":10372,"##겦":10373,"##떗":10374,"##꿤":10375,"##븁":10376,"##뷮":10377,"##횝":10378,"##앹":10379,"##춱":10380,"##좽":10381,"##툇":10382,"##빧":10383,"##픜":10384,"##욐":10385,"##븩":10386,"##줉":10387,"##틜":10388,"##힇":10389,"##틁":10390,"##냰":10391,"##쉙":10392,"##솦":10393,"##뚕":10394,"##텢":10395,"##칝":10396,"##쎟":10397,"##렦":10398,"##뒝":10399,"##딉":10400,"##벏":10401,"##헱":10402,"##띿":10403,"##쫗":10404,"##픀":10405,"##퉂":10406,"##첟":10407,"##쟸":10408,"##콫":10409,"##튱":10410,"##풜":10411,"##폮":10412,"##싈":10413,"##뻉":10414,"##윟":10415,"##땎":10416,"##잕":10417,"##왖":10418,"##퉌":10419,"##맗":10420,"##쥇":10421,"##껩":10422,"##쒓":10423,"##쏱":10424,"##갅":10425,"##뼠":10426,"##븧":10427,"##옟":10428,"##쮼":10429,"##찣":10430,"##욿":10431,"##뒇":10432,"##먽":10433,"##뽛":10434,"##픋":10435,"##쨐":10436,"##랈":10437,"##녖":10438,"##륌":10439,"##퀡":10440,"##뗵":10441,"##폘":10442,"##앺":10443,"##첑":10444,"##쨟":10445,"##뱕":10446,"##젷":10447,"##눃":10448,"##겱":10449,"##넻":10450,"##꿸":10451,"##뫠":10452,"##욉":10453,"##듨":10454,"##쐌":10455,"##탚":10456,"##녚":10457,"##콯":10458,"##쓐":10459,"##룧":10460,"##볹":10461,"##떮":10462,"##틧":10463,"##쎤":10464,"##뗳":10465,"##쁴":10466,"##섉":10467,"##묾":10468,"##꼅":10469,"##흟":10470,"##틩":10471,"##뒜":10472,"##핯":10473,"##쎰":10474,"##댚":10475,"##놏":10476,"##햍":10477,"##탛":10478,"##솕":10479,"##깱":10480,"##뺡":10481,"##뀱":10482,"##꽑":10483,"##쨤":10484,"##챺":10485,"##봗":10486,"##짳":10487,"##옉":10488,"##싦":10489,"##뷥":10490,"##첱":10491,"##닧":10492,"##훞":10493,"##걵":10494,"##읂":10495,"##뭬":10496,"##튘":10497,"##캈":10498,"##뇅":10499,"##쩤":10500,"##딭":10501,"##쏳":10502,"##홨":10503,"##뼬":10504,"##웱":10505,"##뱋":10506,"##셎":10507,"##웖":10508,"##봭":10509,"##귯":10510,"##슫":10511,"##뉫":10512,"##귔":10513,"##촀":10514,"##쓈":10515,"##튝":10516,"##뎍":10517,"##엗":10518,"##웆":10519,"##퉹":10520,"##탶":10521,"##릊":10522,"##쀍":10523,"##셆":10524,"##끐":10525,"##렓":10526,"##뢕":10527,"##벺":10528,"##퉽":10529,"##웎":10530,"##샔":10531,"##킺":10532,"##텥":10533,"##휰":10534,"##킾":10535,"##겣":10536,"##뗼":10537,"##퓽":10538,"##꺀":10539,"##휄":10540,"##쪜":10541,"##봙":10542,"##욵":10543,"##뎦":10544,"##넗":10545,"##꾱":10546,"##챶":10547,"##벍":10548,"##큑":10549,"##됥":10550,"##쐅":10551,"##텂":10552,"##펕":10553,"##돻":10554,"##꿄":10555,"##눝":10556,"##얆":10557,"##얎":10558,"##숤":10559,"##멁":10560,"##쒕":10561,"##꼶":10562,"##뇐":10563,"##쩅":10564,"##붱":10565,"##픎":10566,"##풘":10567,"##젙":10568,"##뭀":10569,"##쯫":10570,"##훰":10571,"##묏":10572,"##띅":10573,"##맪":10574,"##쒄":10575,"##짷":10576,"##턺":10577,"##뇟":10578,"##굩":10579,"##쥈":10580,"##슆":10581,"##샢":10582,"##쮓":10583,"##뒛":10584,"##힢":10585,"##쑷":10586,"##섿":10587,"##퀔":10588,"##럔":10589,"##펖":10590,"##쵹":10591,"##홒":10592,"##궯":10593,"##쉞":10594,"##붚":10595,"##춮":10596,"##읷":10597,"##힗":10598,"##뉅":10599,"##퇍":10600,"##뿰":10601,"##틓":10602,"##됵":10603,"##꿻":10604,"##뤫":10605,"##뭃":10606,"##뵥":10607,"##혅":10608,"##퓩":10609,"##켛":10610,"##둧":10611,"##곂":10612,"##뎻":10613,"##뷐":10614,"##쟅":10615,"##싵":10616,"##펰":10617,"##얿":10618,"##볫":10619,"##뮫":10620,"##뤩":10621,"##쿈":10622,"##폽":10623,"##뻨":10624,"##찫":10625,"##냋":10626,"##뻕":10627,"##뤙":10628,"##윧":10629,"##샗":10630,"##낂":10631,"##됻":10632,"##쬔":10633,"##젃":10634,"##퐅":10635,"##먻":10636,"##뚹":10637,"##뚨":10638,"##훓":10639,"##붊":10640,"##샒":10641,"##잚":10642,"##톔":10643,"##밡":10644,"##넭":10645,"##긏":10646,"##틏":10647,"##쨎":10648,"##쟆":10649,"##풸":10650,"##뼊":10651,"##씡":10652,"##뭰":10653,"##캴":10654,"##똵":10655,"##쫜":10656,"##믬":10657,"##룯":10658,"##팏":10659,"##갍":10660,"##웛":10661,"##봒":10662,"##퉨":10663,"##굱":10664,"##떦":10665,"##텇":10666,"##쳴":10667,"##뢁":10668,"##꽊":10669,"##붰":10670,"##륑":10671,"##힞":10672,"##뻰":10673,"##죹":10674,"##붝":10675,"##뷀":10676,"##돸":10677,"##싺":10678,"##쭊":10679,"##멶":10680,"##욈":10681,"##븉":10682,"##뜡":10683,"##쭬":10684,"##뿥":10685,"##쿽":10686,"##흜":10687,"##똟":10688,"##뻦":10689,"##솢":10690,"##탆":10691,"##늌":10692,"##갵":10693,"##쇌":10694,"##죣":10695,"##즎":10696,"##얠":10697,"##뀍":10698,"##녬":10699,"##쑌":10700,"##뒄":10701,"##뵁":10702,"##엯":10703,"##줅":10704,"##쉟":10705,"##늇":10706,"##뭽":10707,"##혤":10708,"##뢐":10709,"##딋":10710,"##낓":10711,"##낞":10712,"##춪":10713,"##슅":10714,"##뽇":10715,"##숮":10716,"##핕":10717,"##빖":10718,"##곲":10719,"##륏":10720,"##럤":10721,"##웑":10722,"##훏":10723,"##뢉":10724,"##쫭":10725,"##픝":10726,"##봽":10727,"##솃":10728,"##끰":10729,"##춬":10730,"##혃":10731,"##벊":10732,"##꼤":10733,"##왙":10734,"##켉":10735,"##돇":10736,"##삾":10737,"##뮙":10738,"##줋":10739,"##랎":10740,"##냼":10741,"##푬":10742,"##븈":10743,"##풑":10744,"##땓":10745,"##옰":10746,"##웓":10747,"##빾":10748,"##딷":10749,"##픅":10750,"##믤":10751,"##쨴":10752,"##뙹":10753,"##쮀":10754,"##쉩":10755,"##탂":10756,"##놂":10757,"##킠":10758,"##뛕":10759,"##첯":10760,"##삷":10761,"##셛":10762,"##틘":10763,"##벭":10764,"##섨":10765,"##떩":10766,"##둌":10767,"##팖":10768,"##꿲":10769,"##앾":10770,"##졑":10771,"##밁":10772,"##퀭":10773,"##맓":10774,"##폑":10775,"##홮":10776,"##헓":10777,"##툅":10778,"##볖":10779,"##굫":10780,"##틷":10781,"##헾":10782,"##펲":10783,"##쉲":10784,"##젶":10785,"##겕":10786,"##좠":10787,"##쀠":10788,"##붏":10789,"##뎓":10790,"##봎":10791,"##펅":10792,"##굷":10793,"##읱":10794,"##쨖":10795,"##랂":10796,"##췤":10797,"##쭥":10798,"##죅":10799,"##첝":10800,"##춟":10801,"##푝":10802,"##륲":10803,"##괙":10804,"##봀":10805,"##넁":10806,"##꺆":10807,"##톧":10808,"##옯":10809,"##푭":10810,"##쨚":10811,"##뿩":10812,"##쵯":10813,"##캰":10814,"##긵":10815,"##젳":10816,"##톩":10817,"##꾾":10818,"##끛":10819,"##솑":10820,"##쭅":10821,"##븕":10822,"##멭":10823,"##츀":10824,"##쐭":10825,"##챸":10826,"##녇":10827,"##콪":10828,"##뾸":10829,"##렽":10830,"##틂":10831,"##즏":10832,"##슰":10833,"##딺":10834,"##쭹":10835,"##궏":10836,"##뎤":10837,"##싩":10838,"##뜍":10839,"##륫":10840,"##왉":10841,"##됮":10842,"##롞":10843,"##숡":10844,"##뾀":10845,"##뮻":10846,"##뉄":10847,"##웯":10848,"##빶":10849,"##턍":10850,"##괕":10851,"##첞":10852,"##쌸":10853,"##씆":10854,"##왢":10855,"##냧":10856,"##닩":10857,"##럊":10858,"##롑":10859,"##뒫":10860,"##쎳":10861,"##꺗":10862,"##븦":10863,"##춸":10864,"##횜":10865,"##떧":10866,"##뫅":10867,"##쐴":10868,"##읾":10869,"##꾕":10870,"##뗸":10871,"##킦":10872,"##뀪":10873,"##쉤":10874,"##쌯":10875,"##킆":10876,"##룾":10877,"##늤":10878,"##텸":10879,"##쫠":10880,"##꿓":10881,"##맫":10882,"##굗":10883,"##녂":10884,"##튵":10885,"##뉙":10886,"##뢘":10887,"##힑":10888,"##늚":10889,"##붥":10890,"##쩎":10891,"##큄":10892,"##옢":10893,"##겥":10894,"##괅":10895,"##곚":10896,"##풓":10897,"##꾈":10898,"##넧":10899,"##촡":10900,"##슳":10901,"##핞":10902,"##늴":10903,"##퇵":10904,"##릻":10905,"##똮":10906,"##냪":10907,"##꼍":10908,"##뤵":10909,"##콭":10910,"##탗":10911,"##믠":10912,"##툲":10913,"##왗":10914,"##쩹":10915,"##곖":10916,"##쵮":10917,"##뀷":10918,"##껶":10919,"##쮹":10920,"##쒥":10921,"##쌐":10922,"##츜":10923,"##뀹":10924,"##띳":10925,"##쾐":10926,"##섓":10927,"##뗙":10928,"##잮":10929,"##귽":10930,"##첪":10931,"##벯":10932,"##뷋":10933,"##퍾":10934,"##쭄":10935,"##퀻":10936,"##믰":10937,"##몴":10938,"##겷":10939,"##풬":10940,"##숳":10941,"##졏":10942,"##넀":10943,"##홭":10944,"##샞":10945,"##탏":10946,"##샎":10947,"##탟":10948,"##푈":10949,"##맿":10950,"##톺":10951,"##쓩":10952,"##쉳":10953,"##굠":10954,"##퇸":10955,"##핷":10956,"##옃":10957,"##쪟":10958,"##벶":10959,"##믙":10960,"##먑":10961,"##샮":10962,"##쓍":10963,"##눉":10964,"##뎜":10965,"##톌":10966,"##쌴":10967,"##뭭":10968,"##콛":10969,"##뭙":10970,"##뺍":10971,"##휟":10972,"##촷":10973,"##뱊":10974,"##즴":10975,"##롫":10976,"##릷":10977,"##쮤":10978,"##댣":10979,"##즞":10980,"##턉":10981,"##섄":10982,"##튽":10983,"##첲":10984,"##릁":10985,"##삉":10986,"##쩣":10987,"##푷":10988,"##쐄":10989,"##훉":10990,"##앦":10991,"##긶":10992,"##뮜":10993,"##똡":10994,"##갟":10995,"##윢":10996,"##쵠":10997,"##퉼":10998,"##붬":10999,"##롡":11000,"##끀":11001,"##셮":11002,"##뙌":11003,"##캿":11004,"##럏":11005,"##웼":11006,"##쉜":11007,"##퉉":11008,"##썖":11009,"##쩀":11010,"##냴":11011,"##쭕":11012,"##쬴":11013,"##싆":11014,"##핽":11015,"##퉆":11016,"##밗":11017,"##쀡":11018,"##딻":11019,"##놇":11020,"##쩗":11021,"##젣":11022,"##짶":11023,"##솹":11024,"##냎":11025,"##씜":11026,"##쫰":11027,"##쉠":11028,"##뒘":11029,"##칢":11030,"##끚":11031,"##곫":11032,"##쀽":11033,"##쇀":11034,"##풴":11035,"##똈":11036,"##춚":11037,"##뿛":11038,"##릾":11039,"##좒":11040,"##혯":11041,"##헚":11042,"##놴":11043,"##슢":11044,"##윁":11045,"##웳":11046,"##긊":11047,"##붴":11048,"##핦":11049,"##륔":11050,"##윺":11051,"##뤃":11052,"##욎":11053,"##뽬":11054,"##묷":11055,"##뻖":11056,"##럎":11057,"##댥":11058,"##짍":11059,"##맽":11060,"##븏":11061,"##뭤":11062,"##킀":11063,"##쏸":11064,"##괓":11065,"##뽥":11066,"##톷":11067,"##꺟":11068,"##쭠":11069,"##춣":11070,"##칄":11071,"##홅":11072,"##꽠":11073,"##웒":11074,"##쇸":11075,"##큣":11076,"##젅":11077,"##쟇":11078,"##퀌":11079,"##촪":11080,"##뽞":11081,"##놥":11082,"##걻":11083,"##긯":11084,"##옞":11085,"##겒":11086,"##놸":11087,"##쒭":11088,"##쉚":11089,"##꺊":11090,"##촴":11091,"##녙":11092,"##훽":11093,"##륐":11094,"##잓":11095,"##굾":11096,"##섔":11097,"##쾍":11098,"##씔":11099,"##쨬":11100,"##롵":11101,"##뼀":11102,"##첳":11103,"##흛":11104,"##뉰":11105,"##셏":11106,"##볎":11107,"##쥫":11108,"##밇":11109,"##핐":11110,"##췟":11111,"##췼":11112,"##헧":11113,"##꿐":11114,"##옧":11115,"##쐉":11116,"##슯":11117,"##쨱":11118,"##얾":11119,"##샕":11120,"##싧":11121,"##죚":11122,"##눰":11123,"##텦":11124,"##큮":11125,"##롓":11126,"##볅":11127,"##썳":11128,"##쒰":11129,"##뺒":11130,"##뮼":11131,"##섧":11132,"##벁":11133,"##썋":11134,"##흤":11135,"##얫":11136,"##혚":11137,"##슲":11138,"##럯":11139,"##뗜":11140,"##땆":11141,"##낣":11142,"##쌂":11143,"##삺":11144,"##눋":11145,"##훡":11146,"##맕":11147,"##헕":11148,"##탷":11149,"##앿":11150,"##몣":11151,"##볈":11152,"##갺":11153,"##졽":11154,"##렾":11155,"##낅":11156,"##빍":11157,"##낋":11158,"##둚":11159,"##걿":11160,"##춎":11161,"##샦":11162,"##릸":11163,"##멒":11164,"##텣":11165,"##낤":11166,"##쵿":11167,"##걁":11168,"##윚":11169,"##볂":11170,"##깪":11171,"##퇶":11172,"##쾽":11173,"##냍":11174,"##녗":11175,"##쑐":11176,"##싇":11177,"##헏":11178,"##흽":11179,"##쟼":11180,"##쓋":11181,"##붆":11182,"##욳":11183,"##츛":11184,"##헊":11185,"##츷":11186,"##첻":11187,"##롰":11188,"##둫":11189,"##쬎":11190,"##떪":11191,"##꼮":11192,"##킘":11193,"##뇀":11194,"##릑":11195,"##펒":11196,"##폨":11197,"##뤨":11198,"##붹":11199,"##팑":11200,"##덻":11201,"##꺨":11202,"##앃":11203,"##뿹":11204,"##듟":11205,"##룅":11206,"##뱇":11207,"##섐":11208,"##괂":11209,"##줼":11210,"##뫚":11211,"##밳":11212,"##멛":11213,"##굅":11214,"##뮝":11215,"##걭":11216,"##묺":11217,"##썟":11218,"##륟":11219,"##꺕":11220,"##쿅":11221,"##둽":11222,"##풹":11223,"##궆":11224,"##궵":11225,"##곩":11226,"##팄":11227,"##쉧":11228,"##롥":11229,"##꺤":11230,"##빟":11231,"##굮":11232,"##쯋":11233,"##쒵":11234,"##뜜":11235,"##옪":11236,"##녺":11237,"##팙":11238,"##쳰":11239,"##됢":11240,"##툱":11241,"##덪":11242,"##턷":11243,"##쌇":11244,"##챊":11245,"##섪":11246,"##벓":11247,"##롔":11248,"##틕":11249,"##븎":11250,"##뉀":11251,"##뷹":11252,"##퉬":11253,"##쎽":11254,"##잝":11255,"##굦":11256,"##떺":11257,"##썔":11258,"##낪":11259,"##텊":11260,"##섡":11261,"##갿":11262,"##괃":11263,"##뙜":11264,"##펹":11265,"##탵":11266,"##혭":11267,"##뷤":11268,"##걕":11269,"##볙":11270,"##빞":11271,"##쌑":11272,"##봦":11273,"##츽":11274,"##뾔":11275,"##줟":11276,"##샓":11277,"##딮":11278,"##껃":11279,"##욓":11280,"##녯":11281,"##쐒":11282,"##볾":11283,"##헔":11284,"##홙":11285,"##빂":11286,"##삤":11287,"##좯":11288,"##룄":11289,"##껚":11290,"##턹":11291,"##즇":11292,"##퉅":11293,"##킉":11294,"##즑":11295,"##퇭":11296,"##볆":11297,"##잁":11298,"##쭀":11299,"##핖":11300,"##겳":11301,"##홖":11302,"##벑":11303,"##뜿":11304,"##뽘":11305,"##뗗":11306,"##썱":11307,"##톪":11308,"##놪":11309,"##펺":11310,"##쐣":11311,"##솛":11312,"##댷":11313,"##읲":11314,"##촜":11315,"##쌛":11316,"##쉗":11317,"##빏":11318,"##윶":11319,"##믻":11320,"##꼻":11321,"##쇈":11322,"##쁏":11323,"##툳":11324,"##눸":11325,"##짮":11326,"##긼":11327,"##럘":11328,"##갮":11329,"##솣":11330,"##넢":11331,"##팚":11332,"##렻":11333,"##굪":11334,"##쿯":11335,"##딝":11336,"##툄":11337,"##겚":11338,"##틒":11339,"##뛋":11340,"##퉵":11341,"##떶":11342,"##뭷":11343,"##칧":11344,"##캮":11345,"##뾴":11346,"##쓷":11347,"##즼":11348,"##밿":11349,"##걽":11350,"##뱛":11351,"##볃":11352,"##랡":11353,"##퐛":11354,"##섽":11355,"##뭫":11356,"##쟡":11357,"##땉":11358,"##묯":11359,"##띶":11360,"##챷":11361,"##텧":11362,"##쳏":11363,"##걨":11364,"##떣":11365,"##뙴":11366,"##곔":11367,"##훚":11368,"##쵕":11369,"##벲":11370,"##횠":11371,"##쒐":11372,"##뒐":11373,"##봵":11374,"##칶":11375,"##쁮":11376,"##툠":11377,"##죘":11378,"##벻":11379,"##봴":11380,"##뱎":11381,"##뛧":11382,"##얊":11383,"##렪":11384,"##헫":11385,"##늎":11386,"##춐":11387,"##흎":11388,"##뇍":11389,"##쇨":11390,"##킐":11391,"##웙":11392,"##쿙":11393,"##짎":11394,"##롮":11395,"##틅":11396,"##풱":11397,"##뒺":11398,"##꽨":11399,"##싾":11400,"##쓒":11401,"##씄":11402,"##먤":11403,"##샫":11404,"##욾":11405,"##뿓":11406,"##쿧":11407,"##멂":11408,"##캋":11409,"##캩":11410,"##뺗":11411,"##꼵":11412,"##뷇":11413,"##텓":11414,"##픃":11415,"##폡":11416,"##얓":11417,"##졩":11418,"##찱":11419,"##닑":11420,"##쌒":11421,"##컺":11422,"##쓘":11423,"##뙿":11424,"##씊":11425,"##갎":11426,"##엶":11427,"##녽":11428,"##읟":11429,"##빣":11430,"##켲":11431,"##랻":11432,"##쟥":11433,"##썫":11434,"##쳋":11435,"##둋":11436,"##뫂":11437,"##옣":11438,"##뺫":11439,"##뤁":11440,"##퉝":11441,"##꽆":11442,"##괠":11443,"##셁":11444,"##퍵":11445,"##헍":11446,"##윿":11447,"##쥳":11448,"##챰":11449,"##륳":11450,"##떌":11451,"##띴":11452,"##덌":11453,"##븋":11454,"##췡":11455,"##첡":11456,"##뽚":11457,"##멪":11458,"##숚":11459,"##먆":11460,"##핃":11461,"##렗":11462,"##퐤":11463,"##퓹":11464,"##듘":11465,"##셲":11466,"##쌟":11467,"##뭈":11468,"##쥉":11469,"##곮":11470,"##졶":11471,"##쑉":11472,"##켞":11473,"##쀵":11474,"##옩":11475,"##뵉":11476,"##렩":11477,"##쏏":11478,"##줎":11479,"##깵":11480,"##혰":11481,"##왆":11482,"##돆":11483,"##퀏":11484,"##봟":11485,"##돒":11486,"##짿":11487,"##홟":11488,"##캵":11489,"##셭":11490,"##룃":11491,"##쑛":11492,"##쇱":11493,"##폅":11494,"##뜃":11495,"##쬡":11496,"##뜳":11497,"##쌎":11498,"##웕":11499,"##뫤":11500,"##늒":11501,"##뭕":11502,"##갥":11503,"##쫕":11504,"##큲":11505,"##핓":11506,"##뺶":11507,"##횧":11508,"##쩘":11509,"##흵":11510,"##얋":11511,"##퓐":11512,"##얩":11513,"##쓀":11514,"##녰":11515,"##뀳":11516,"##깯":11517,"##꾭":11518,"##퐥":11519,"##쿌":11520,"##쩩":11521,"##꽜":11522,"##뿽":11523,"##뷧":11524,"##훳":11525,"##퓻":11526,"##흅":11527,"##봩":11528,"##쎝":11529,"##쓹":11530,"##뒼":11531,"##뒌":11532,"##뙬":11533,"##팢":11534,"##쭷":11535,"##왷":11536,"##돉":11537,"##뫕":11538,"##띕":11539,"##쬑":11540,"##뽯":11541,"##굎":11542,"##씱":11543,"##앑":11544,"##둄":11545,"##푲":11546,"##짵":11547,"##턋":11548,"##벐":11549,"##넑":11550,"##죢":11551,"##툩":11552,"##덭":11553,"##퍔":11554,"##긪":11555,"##킿":11556,"##캪":11557,"##렞":11558,"##쟞":11559,"##겫":11560,"##붍":11561,"##몔":11562,"##긻":11563,"##깑":11564,"##잳":11565,"##뀅":11566,"##꺴":11567,"##씶":11568,"##쫔":11569,"##묑":11570,"##쟬":11571,"##냙":11572,"##댂":11573,"##싙":11574,"##뵷":11575,"##꿌":11576,"##궥":11577,"##쓺":11578,"##쇟":11579,"##슸":11580,"##춀":11581,"##뵠":11582,"##륮":11583,"##꿯":11584,"##궠":11585,"##웪":11586,"##꽘":11587,"##쌗":11588,"##뺼":11589,"##쭟":11590,"##괨":11591,"##쵭":11592,"##뙛":11593,"##죥":11594,"##뺔":11595,"##뤜":11596,"##덋":11597,"##햭":11598,"##깗":11599,"##걥":11600,"##걧":11601,"##즺":11602,"##뫜":11603,"##췝":11604,"##퇌":11605,"##혲":11606,"##븻":11607,"##씞":11608,"##퍞":11609,"##츹":11610,"##퇔":11611,"##헞":11612,"##늜":11613,"##쉾":11614,"##걼":11615,"##떥":11616,"##뤟":11617,"##뽴":11618,"##둊":11619,"##쒧":11620,"##뢓":11621,"##늏":11622,"##볁":11623,"##놝":11624,"##줖":11625,"##컇":11626,"##픤":11627,"##솖":11628,"##졳":11629,"##댗":11630,"##줊":11631,"##똰":11632,"##쾤":11633,"##쿹":11634,"##볷":11635,"##깾":11636,"##졒":11637,"##쁝":11638,"##쨨":11639,"##쏰":11640,"##윖":11641,"##쵱":11642,"##눂":11643,"##즟":11644,"##걎":11645,"##믆":11646,"##괺":11647,"##틎":11648,"##욣":11649,"##뛍":11650,"##귛":11651,"##긄":11652,"##뽰":11653,"##쉮":11654,"##붌":11655,"##혙":11656,"##몢":11657,"##첦":11658,"##퀫":11659,"##꽼":11660,"##캽":11661,"##셫":11662,"##튔":11663,"##눓":11664,"##덗":11665,"##짌":11666,"##쪚":11667,"##쭞":11668,"##뺚":11669,"##쏔":11670,"##쁍":11671,"##쩓":11672,"##끞":11673,"##앣":11674,"##갳":11675,"##넶":11676,"##둒":11677,"##휲":11678,"##헯":11679,"##캼":11680,"##긆":11681,"##돽":11682,"##틤":11683,"##끘":11684,"##쨲":11685,"##쒂":11686,"##숪":11687,"##둪":11688,"##횓":11689,"##슩":11690,"##쫂":11691,"##씷":11692,"##궳":11693,"##엕":11694,"##즡":11695,"##퇬":11696,"##덢":11697,"##럸":11698,"##싘":11699,"##왬":11700,"##귇":11701,"##뗍":11702,"##쾬":11703,"##먗":11704,"##벾":11705,"##봁":11706,"##봿":11707,"##혬":11708,"##쀏":11709,"##큻":11710,"##좎":11711,"##릲":11712,"##렋":11713,"##슻":11714,"##줯":11715,"##뻪":11716,"##휳":11717,"##쫚":11718,"##퐑":11719,"##뮉":11720,"##엸":11721,"##졻":11722,"##졜":11723,"##홫":11724,"##짺":11725,"##겲":11726,"##챫":11727,"##쿔":11728,"##붯":11729,"##붎":11730,"##폌":11731,"##덦":11732,"##쑀":11733,"##썯":11734,"##쏖":11735,"##엂":11736,"##쿩":11737,"##뛣":11738,"##뿁":11739,"##뭗":11740,"##뚈":11741,"##쇣":11742,"##똽":11743,"##핒":11744,"##숢":11745,"##돩":11746,"##댰":11747,"##챋":11748,"##릶":11749,"##낶":11750,"##뉬":11751,"##긃":11752,"##삗":11753,"##쒫":11754,"##튑":11755,"##뽹":11756,"##삒":11757,"##닍":11758,"##긥":11759,"##헋":11760,"##닒":11761,"##쯴":11762,"##좱":11763,"##푁":11764,"##삨":11765,"##펗":11766,"##콋":11767,"##뀈":11768,"##뇁":11769,"##쁰":11770,"##쬰":11771,"##걤":11772,"##뿱":11773,"##쫟":11774,"##뿑":11775,"##믛":11776,"##읪":11777,"##닗":11778,"##띧":11779,"##쩢":11780,"##쵴":11781,"##믯":11782,"##쉻":11783,"##묿":11784,"##옲":11785,"##끏":11786,"##힕":11787,"##랺":11788,"##흳":11789,"##뒥":11790,"##둇":11791,"##힂":11792,"##쀓":11793,"##덈":11794,"##쏄":11795,"##춏":11796,"##윝":11797,"##팛":11798,"##얪":11799,"##븸":11800,"##뙄":11801,"##갌":11802,"##씧":11803,"##싖":11804,"##괫":11805,"##궭":11806,"##툨":11807,"##쮭":11808,"##웚":11809,"##홗":11810,"##밂":11811,"##휅":11812,"##곭":11813,"##졹":11814,"##톀":11815,"##핆":11816,"##헟":11817,"##쑙":11818,"##랊":11819,"##웺":11820,"##찗":11821,"##뜛":11822,"##퍤":11823,"##퀰":11824,"##쀌":11825,"##됃":11826,"##놃":11827,"##셪":11828,"##귷":11829,"##걊":11830,"##먛":11831,"##쿫":11832,"##뛌":11833,"##컦":11834,"##꾬":11835,"##괝":11836,"##퍝":11837,"##좰":11838,"##뜱":11839,"##앒":11840,"##탅":11841,"##쫨":11842,"##럠":11843,"##쿢":11844,"##훊":11845,"##뵑":11846,"##뿧":11847,"##슟":11848,"##좬":11849,"##쀈":11850,"##멮":11851,"##쒈":11852,"##혽":11853,"##곝":11854,"##찴":11855,"##쭏":11856,"##쯛":11857,"##췆":11858,"##혻":11859,"##홡":11860,"##죶":11861,"##궑":11862,"##몲":11863,"##삦":11864,"##옱":11865,"##댲":11866,"##풁":11867,"##퓟":11868,"##믉":11869,"##꾝":11870,"##뮁":11871,"##쑫":11872,"##뮦":11873,"##겏":11874,"##핺":11875,"##뵞":11876,"##엁":11877,"##뿎":11878,"##윩":11879,"##좥":11880,"##씇":11881,"##윣":11882,"##햚":11883,"##뚴":11884,"##깺":11885,"##얉":11886,"##춞":11887,"##쁟":11888,"##퇙":11889,"##쌻":11890,"##쮕":11891,"##룢":11892,"##늓":11893,"##싅":11894,"##뤰":11895,"##댉":11896,"##풏":11897,"##퐨":11898,"##빷":11899,"##촼":11900,"##턈":11901,"##꺢":11902,"##텹":11903,"##틇":11904,"##궬":11905,"##럥":11906,"##뼡":11907,"##겙":11908,"##헢":11909,"##뼙":11910,"##똧":11911,"##뗨":11912,"##좤":11913,"##릣":11914,"##봆":11915,"##탲":11916,"##쎇":11917,"##돾":11918,"##숶":11919,"##츞":11920,"##쀀":11921,"##욼":11922,"##쑦":11923,"##몮":11924,"##죿":11925,"##챻":11926,"##멿":11927,"##꾳":11928,"##띟":11929,"##뭟":11930,"##쏬":11931,"##녝":11932,"##슧":11933,"##뷷":11934,"##쓌":11935,"##닱":11936,"##즷":11937,"##퀐":11938,"##땣":11939,"##븞":11940,"##톅":11941,"##칤":11942,"##쏮":11943,"##씦":11944,"##싚":11945,"##쫅":11946,"##툑":11947,"##퍡":11948,"##왅":11949,"##퐇":11950,"##끎":11951,"##힒":11952,"##뻙":11953,"##퐠":11954,"##쐿":11955,"##뵺":11956,"##뢜":11957,"##낥":11958,"##궓":11959,"##긺":11960,"##젾":11961,"##툈":11962,"##섩":11963,"##놛":11964,"##뮏":11965,"##쀒":11966,"##쏃":11967,"##욽":11968,"##쓿":11969,"##겿":11970,"##뜔":11971,"##겗":11972,"##엜":11973,"##쮉":11974,"##뽫":11975,"##퐂":11976,"##볇":11977,"##멯":11978,"##즋":11979,"##튶":11980,"##킂":11981,"##휇":11982,"##뙷":11983,"##쎨":11984,"##헰":11985,"##묄":11986,"##픚":11987,"##돏":11988,"##믣":11989,"##굺":11990,"##붭":11991,"##쬈":11992,"##똩":11993,"##숗":11994,"##찁":11995,"##궀":11996,"##꽳":11997,"##꺳":11998,"##뛀":11999,"##둏":12000,"##믂":12001,"##췔":12002,"##떹":12003,"##랉":12004,"##톢":12005,"##굧":12006,"##겺":12007,"##욗":12008,"##혉":12009,"##휔":12010,"##큷":12011,"##엞":12012,"##씳":12013,"##귥":12014,"##쩽":12015,"##퓍":12016,"##혆":12017,"##섢":12018,"##뵵":12019,"##꺰":12020,"##첣":12021,"##쩸":12022,"##닋":12023,"##꾄":12024,"##몺":12025,"##껇":12026,"##뙓":12027,"##꺓":12028,"##뺓":12029,"##섑":12030,"##놊":12031,"##찏":12032,"##쓊":12033,"##뙝":12034,"##눛":12035,"##씿":12036,"##꽀":12037,"##맩":12038,"##댦":12039,"##곥":12040,"##갧":12041,"##삹":12042,"##쮱":12043,"##쓑":12044,"##캢":12045,"##뽸":12046,"##똦":12047,"##뚄":12048,"##쟃":12049,"##헒":12050,"##곋":12051,"##튻":12052,"##쐽":12053,"##삫":12054,"##갫":12055,"##픍":12056,"##뱗":12057,"##쪿":12058,"##겮":12059,"##퐘":12060,"##뙀":12061,"##뾥":12062,"##뛥":12063,"##젎":12064,"##켚":12065,"##춡":12066,"##앷":12067,"##잞":12068,"##쬥":12069,"##쎍":12070,"##떷":12071,"##왥":12072,"##곣":12073,"##텠":12074,"##씢":12075,"##쭨":12076,"##흊":12077,"##걬":12078,"##뮘":12079,"##뚊":12080,"##뽖":12081,"##쮁":12082,"##쥅":12083,"##찪":12084,"##쭃":12085,"##떃":12086,"##곛":12087,"##슇":12088,"##핋":12089,"##쬮":12090,"##뱬":12091,"##콲":12092,"##뀃":12093,"##넔":12094,"##쵲":12095,"##뛨":12096,"##쟟":12097,"##뱸":12098,"##엹":12099,"##폣":12100,"##탊":12101,"##똼":12102,"##녻":12103,"##뙥":12104,"##좧":12105,"##쩁":12106,"##걓":12107,"##뒞":12108,"##픓":12109,"##왶":12110,"##긞":12111,"##뀀":12112,"##쬲":12113,"##귦":12114,"##싻":12115,"##쬿":12116,"##꺚":12117,"##겭":12118,"##킶":12119,"##젍":12120,"##훯":12121,"##멫":12122,"##샽":12123,"##쮑":12124,"##뻁":12125,"##궲":12126,"##쭂":12127,"##뛓":12128,"##헦":12129,"##썝":12130,"##뛃":12131,"##걒":12132,"##풃":12133,"##뀤":12134,"##쓜":12135,"##꽴":12136,"##뿳":12137,"##뿃":12138,"##혺":12139,"##쪻":12140,"##촺":12141,"##똚":12142,"##헲":12143,"##씂":12144,"##얁":12145,"##뭧":12146,"##쫵":12147,"##졺":12148,"##왳":12149,"##퐣":12150,"##쒤":12151,"##씗":12152,"##픹":12153,"##팗":12154,"##솒":12155,"##찥":12156,"##겛":12157,"##쐼":12158,"##쁐":12159,"##빎":12160,"##뾲":12161,"##똇":12162,"##쫫":12163,"##뭿":12164,"##셟":12165,"##좣":12166,"##떾":12167,"##똝":12168,"##졂":12169,"##걆":12170,"##탞":12171,"##툊":12172,"##쩑":12173,"##쀾":12174,"##뼑":12175,"##걇":12176,"##췜":12177,"##믌":12178,"##죝":12179,"##흚":12180,"##쮔":12181,"##쳭":12182,"##퇧":12183,"##븂":12184,"##윥":12185,"##걃":12186,"##꾠":12187,"##쳢":12188,"##쓃":12189,"##갩":12190,"##빇":12191,"##쾩":12192,"##뾃":12193,"##멲":12194,"##쇔":12195,"##왡":12196,"##뭚":12197,"##으로":12198,"##에서":12199,"##하는":12200,"##니다":12201,"##하고":12202,"##이다":12203,"##들이":12204,"##는데":12205,"##다고":12206,"##지만":12207,"##다는":12208,"사람":12209,"아니":12210,"으로":12211,"##00":12212,"있다":12213,"##했다":12214,"에서":12215,"##이라":12216,"있는":12217,"##면서":12218,"##었다":12219,"##에게":12220,"생각":12221,"우리":12222,"##들은":12223,"##하게":12224,"##까지":12225,"##해서":12226,"대한":12227,"##리고":12228,"##한다":12229,"##라고":12230,"20":12231,"하는":12232,"한다":12233,"한국":12234,"국민":12235,"##습니다":12236,"##적인":12237,"##부터":12238,"때문":12239,"##렇게":12240,"##으면":12241,"##적으로":12242,"그러":12243,"영화":12244,"이런":12245,"진짜":12246,"##니까":12247,"지금":12248,"##하지":12249,"##에는":12250,"##대로":12251,"##이나":12252,"일본":12253,"지난":12254,"##하면":12255,"그런":12256,"문제":12257,"##들의":12258,"##라는":12259,"##하다":12260,"같은":12261,"너무":12262,"10":12263,"자신":12264,"다른":12265,"중국":12266,"하나":12267,"들어":12268,"##리는":12269,"위해":12270,"##보다":12271,"##통령":12272,"나라":12273,"그리고":12274,"만들":12275,"미국":12276,"그래":12277,"경우":12278,"##하기":12279,"정부":12280,"##들을":12281,"하고":12282,"##네요":12283,"##는거":12284,"아이":12285,"201":12286,"##인데":12287,"것이":12288,"이상":12289,"대통령":12290,"이제":12291,"##어서":12292,"##지는":12293,"19":12294,"이번":12295,"그냥":12296,"##세요":12297,"문재":12298,"작가":12299,"사실":12300,"##이고":12301,"##처럼":12302,"##기를":12303,"다고":12304,"된다":12305,"##어요":12306,"라고":12307,"아닌":12308,"##해야":12309,"##지고":12310,"다시":12311,"보고":12312,"것이다":12313,"##았다":12314,"##입니다":12315,"시작":12316,"함께":12317,"사회":12318,"따라":12319,"##한테":12320,"없는":12321,"정도":12322,"정치":12323,"경제":12324,"서울":12325,"##에도":12326,"때문에":12327,"통해":12328,"많이":12329,"##이라고":12330,"##라도":12331,"가능":12332,"하지만":12333,"모르":12334,"인간":12335,"가장":12336,"시간":12337,"아무":12338,"나오":12339,"필요":12340,"기업":12341,"##자가":12342,"##나라":12343,"##하여":12344,"##되는":12345,"##에서는":12346,"아니라":12347,"정말":12348,"##리를":12349,"##다가":12350,"자기":12351,"북한":12352,"모두":12353,"##주의":12354,"상황":12355,"세계":12356,"##였다":12357,"##으며":12358,"지역":12359,"민주":12360,"##리가":12361,"##이는":12362,"##이지":12363,"200":12364,"이후":12365,"##이가":12366,"##기에":12367,"어떻":12368,"##같은":12369,"모든":12370,"대표":12371,"##려고":12372,"##기도":12373,"모습":12374,"좋아":12375,"시장":12376,"사업":12377,"관계":12378,"국가":12379,"이렇게":12380,"것은":12381,"까지":12382,"어떻게":12383,"문재인":12384,"내가":12385,"사용":12386,"여자":12387,"관련":12388,"없다":12389,"마음":12390,"다음":12391,"있었":12392,"##스트":12393,"대해":12394,"##가는":12395,"##된다":12396,"이유":12397,"해야":12398,"##합니다":12399,"이미":12400,"##기가":12401,"##기는":12402,"많은":12403,"이야":12404,"위한":12405,"##겠다":12406,"##구나":12407,"댓글":12408,"##이라는":12409,"##사람":12410,"##자는":12411,"정신":12412,"지원":12413,"##는다":12414,"##거나":12415,"아직":12416,"현재":12417,"돌아":12418,"그렇게":12419,"처음":12420,"했다":12421,"계속":12422,"사랑":12423,"그러나":12424,"##하며":12425,"어떤":12426,"##지도":12427,"것으로":12428,"작가님":12429,"##어야":12430,"것을":12431,"얼마":12432,"##사를":12433,"사이":12434,"라는":12435,"##인이":12436,"무슨":12437,"프로":12438,"12":12439,"투자":12440,"내용":12441,"역시":12442,"##민국":12443,"보여":12444,"이해":12445,"##어나":12446,"##으니":12447,"30":12448,"근데":12449,"있을":12450,"##아서":12451,"특히":12452,"좋은":12453,"##하면서":12454,"##들에게":12455,"##인가":12456,"##보고":12457,"여성":12458,"11":12459,"밝혔":12460,"다는":12461,"보면":12462,"##지를":12463,"이어":12464,"조국":12465,"바로":12466,"진행":12467,"##있는":12468,"하지":12469,"여러":12470,"##레이":12471,"국내":12472,"100":12473,"대한민국":12474,"이용":12475,"교육":12476,"##들도":12477,"여기":12478,"그래서":12479,"##성이":12480,"사람이":12481,"오늘":12482,"기대":12483,"남자":12484,"결과":12485,"수준":12486,"결국":12487,"보다":12488,"##주는":12489,"##것도":12490,"검찰":12491,"##로운":12492,"방송":12493,"##력을":12494,"에게":12495,"중요":12496,"##도록":12497,"##인지":12498,"##잖아":12499,"피해":12500,"지만":12501,"기사":12502,"기술":12503,"어디":12504,"면서":12505,"이름":12506,"그렇":12507,"##지막":12508,"최고":12509,"부터":12510,"최근":12511,"연구":12512,"조사":12513,"15":12514,"##시키":12515,"자유":12516,"같이":12517,"국회":12518,"##없이":12519,"있었다":12520,"또한":12521,"이러":12522,"##지가":12523,"잘못":12524,"마지막":12525,"설명":12526,"나는":12527,"살아":12528,"되는":12529,"계획":12530,"떨어":12531,"민주당":12532,"저런":12533,"경찰":12534,"##장이":12535,"의원":12536,"대학":12537,"이거":12538,"##성을":12539,"##되고":12540,"개발":12541,"웹툰":12542,"##장을":12543,"어느":12544,"사건":12545,"##사가":12546,"당시":12547,"지난해":12548,"베댓":12549,"친구":12550,"##어도":12551,"##소리":12552,"없이":12553,"가족":12554,"학교":12555,"경기":12556,"##이었":12557,"물론":12558,"나타":12559,"지지":12560,"세상":12561,"당신":12562,"##이랑":12563,"##는지":12564,"작품":12565,"정권":12566,"##해라":12567,"기록":12568,"감독":12569,"이날":12570,"##머니":12571,"전문":12572,"올해":12573,"삼성":12574,"##이야":12575,"##레기":12576,"자신의":12577,"대상":12578,"이게":12579,"##비스":12580,"##으나":12581,"현실":12582,"##정을":12583,"알고":12584,"그럼":12585,"받아":12586,"관심":12587,"##에서도":12588,"정책":12589,"##가지":12590,"얼굴":12591,"##들과":12592,"만들어":12593,"##력이":12594,"후보":12595,"제대로":12596,"##시아":12597,"얼마나":12598,"##로나":12599,"##동안":12600,"##들아":12601,"개인":12602,"사진":12603,"주인":12604,"학생":12605,"의미":12606,"##졌다":12607,"정보":12608,"##시간":12609,"##했던":12610,"18":12611,"그는":12612,"회사":12613,"나온":12614,"##화를":12615,"않고":12616,"##부분":12617,"##장은":12618,"##하는데":12619,"조선":12620,"##인다":12621,"배우":12622,"하면":12623,"##수가":12624,"그것":12625,"##되어":12626,"다양":12627,"##거리":12628,"한번":12629,"않는":12630,"##겠지":12631,"자체":12632,"##기업":12633,"찾아":12634,"##더니":12635,"말했다":12636,"따르":12637,"평가":12638,"있는데":12639,"수도":12640,"우리나라":12641,"부분":12642,"실제":12643,"일반":12644,"상대":12645,"##중에":12646,"그만":12647,"##해도":12648,"어려":12649,"직접":12650,"활동":12651,"알려":12652,"동안":12653,"예정":12654,"##없는":12655,"운영":12656,"##이트":12657,"공개":12658,"##이었다":12659,"금융":12660,"해서":12661,"그리":12662,"완전":12663,"그림":12664,"선거":12665,"언제":12666,"##운데":12667,"가지":12668,"위원":12669,"##는게":12670,"##0년":12671,"문화":12672,"새로운":12673,"상태":12674,"언론":12675,"##놓고":12676,"일부":12677,"올라":12678,"이야기":12679,"존재":12680,"##주고":12681,"그런데":12682,"코로나":12683,"##정도":12684,"조금":12685,"대구":12686,"##원이":12687,"결정":12688,"누가":12689,"##진다":12690,"##하나":12691,"있고":12692,"##스크":12693,"게임":12694,"않은":12695,"제발":12696,"스토":12697,"##전에":12698,"있다는":12699,"##스로":12700,"책임":12701,"세금":12702,"##치는":12703,"공격":12704,"않았":12705,"발생":12706,"한다고":12707,"말이":12708,"재미":12709,"먼저":12710,"현대":12711,"##드는":12712,"아주":12713,"미래":12714,"##시는":12715,"제공":12716,"기준":12717,"##정부":12718,"##보면":12719,"인터":12720,"방법":12721,"소리":12722,"확인":12723,"누구":12724,"부모":12725,"기자":12726,"가지고":12727,"##사는":12728,"##하네":12729,"보이":12730,"합니다":12731,"전체":12732,"하루":12733,"것도":12734,"인정":12735,"##마다":12736,"##다면":12737,"지나":12738,"서비스":12739,"그녀":12740,"참여":12741,"성공":12742,"한편":12743,"준비":12744,"발표":12745,"50":12746,"##을까":12747,"관리":12748,"아니고":12749,"있어":12750,"##들어":12751,"해도":12752,"엄마":12753,"##상을":12754,"사고":12755,"##하는거":12756,"##한거":12757,"사람들이":12758,"만나":12759,"##학교":12760,"등장":12761,"##리에":12762,"주장":12763,"##리아":12764,"##말고":12765,"외국":12766,"##렸다":12767,"##라이":12768,"##자를":12769,"13":12770,"##밖에":12771,"과정":12772,"주인공":12773,"선수":12774,"수사":12775,"가격":12776,"서로":12777,"국제":12778,"산업":12779,"가운데":12780,"##기로":12781,"##대가":12782,"##하자":12783,"##자의":12784,"생활":12785,"대부분":12786,"25":12787,"보는":12788,"성장":12789,"##러운":12790,"무엇":12791,"과거":12792,"이건":12793,"16":12794,"##000":12795,"위해서":12796,"제품":12797,"만화":12798,"행동":12799,"거의":12800,"전국":12801,"정상":12802,"경쟁":12803,"더욱":12804,"기억":12805,"최대":12806,"시민":12807,"있습니다":12808,"##이면":12809,"판매":12810,"증가":12811,"생산":12812,"재밌":12813,"해외":12814,"노동":12815,"기다":12816,"역사":12817,"요즘":12818,"##다니":12819,"효과":12820,"어린":12821,"##려는":12822,"만든":12823,"보내":12824,"##가서":12825,"이것":12826,"내려":12827,"##문에":12828,"그래도":12829,"말을":12830,"만큼":12831,"##OO":12832,"##리지":12833,"해결":12834,"##이네":12835,"당연":12836,"##랜드":12837,"얘기":12838,"못한":12839,"14":12840,"선택":12841,"아닌가":12842,"엄청":12843,"표현":12844,"나왔":12845,"##근혜":12846,"추가":12847,"예상":12848,"규모":12849,"스타":12850,"##의원":12851,"운동":12852,"##시고":12853,"그의":12854,"있다고":12855,"##치고":12856,"장관":12857,"영향":12858,"##린다":12859,"환경":12860,"없어":12861,"##그램":12862,"아니다":12863,"추진":12864,"##식을":12865,"교수":12866,"##시다":12867,"느낌":12868,"##정은":12869,"##정이":12870,"##이라도":12871,"아버":12872,"대해서":12873,"요구":12874,"빨리":12875,"앞으로":12876,"##나요":12877,"##같이":12878,"쓰레기":12879,"드러":12880,"한다는":12881,"##만원":12882,"포함":12883,"반대":12884,"힘들":12885,"머리":12886,"##아요":12887,"같다":12888,"##이스":12889,"##이냐":12890,"다며":12891,"##었는데":12892,"나와":12893,"중심":12894,"기본":12895,"17":12896,"결혼":12897,"##아야":12898,"청와":12899,"문재앙":12900,"사람들":12901,"##주세요":12902,"등을":12903,"노력":12904,"##됐다":12905,"역할":12906,"##릭터":12907,"##한다고":12908,"감사":12909,"##했는데":12910,"자리":12911,"때문이다":12912,"나도":12913,"유지":12914,"마련":12915,"도시":12916,"전쟁":12917,"좌파":12918,"##시켜":12919,"장면":12920,"지방":12921,"입장":12922,"발전":12923,"##하던":12924,"말고":12925,"##한당":12926,"되어":12927,"##스럽":12928,"##하겠":12929,"##스터":12930,"##인의":12931,"부산":12932,"건강":12933,"정의":12934,"박근혜":12935,"##이란":12936,"소비":12937,"##라마":12938,"##아니":12939,"보인다":12940,"지적":12941,"분석":12942,"##히려":12943,"시대":12944,"자동":12945,"##위원":12946,"판단":12947,"##명이":12948,"우리가":12949,"넘어":12950,"##르는":12951,"상당":12952,"구성":12953,"해당":12954,"##하지만":12955,"절대":12956,"##었던":12957,"##이를":12958,"고객":12959,"오히려":12960,"업체":12961,"##리스":12962,"자연":12963,"그게":12964,"##음을":12965,"공부":12966,"40":12967,"오후":12968,"경험":12969,"##수를":12970,"##도가":12971,"안전":12972,"매우":12973,"##하냐":12974,"확대":12975,"경영":12976,"캐릭터":12977,"##도를":12978,"범죄":12979,"나가":12980,"##서는":12981,"이를":12982,"기존":12983,"##나는":12984,"##이며":12985,"##했고":12986,"비교":12987,"청와대":12988,"자한당":12989,"사라":12990,"##더라":12991,"도움":12992,"비판":12993,"강화":12994,"전망":12995,"솔직":12996,"비슷":12997,"없고":12998,"스스로":12999,"##이버":13000,"거짓":13001,"시즌":13002,"##스를":13003,"기회":13004,"다르":13005,"일이":13006,"강조":13007,"보수":13008,"바이":13009,"사람은":13010,"##건가":13011,"##스템":13012,"##치를":13013,"그대로":13014,"기관":13015,"##파트":13016,"##어난":13017,"상승":13018,"##인은":13019,"제작":13020,"##보는":13021,"인물":13022,"##원을":13023,"##지않":13024,"안되":13025,"이루":13026,"아직도":13027,"특별":13028,"주변":13029,"##디어":13030,"밝혔다":13031,"하는데":13032,"거래":13033,"원래":13034,"공동":13035,"대비":13036,"##한다는":13037,"##영화":13038,"이나":13039,"##자들":13040,"활용":13041,"미친":13042,"구조":13043,"대신":13044,"연기":13045,"##야지":13046,"##거지":13047,"##므로":13048,"##스가":13049,"##식이":13050,"빨갱":13051,"다만":13052,"##시에":13053,"프로그램":13054,"은행":13055,"되고":13056,"행복":13057,"위험":13058,"분명":13059,"능력":13060,"순간":13061,"제일":13062,"##인을":13063,"시키":13064,"##자기":13065,"OOO":13066,"그때":13067,"치료":13068,"##점을":13069,"라며":13070,"##위를":13071,"인생":13072,"21":13073,"조직":13074,"기간":13075,"이에":13076,"지속":13077,"##텐데":13078,"제가":13079,"부족":13080,"아무리":13081,"##가고":13082,"알아":13083,"24":13084,"##으면서":13085,"##에요":13086,"##정권":13087,"##보니":13088,"변화":13089,"바람":13090,"##자로":13091,"전혀":13092,"전부":13093,"##했다고":13094,"다니":13095,"##적이":13096,"모습을":13097,"상품":13098,"적용":13099,"병원":13100,"##었고":13101,"저렇게":13102,"도록":13103,"항상":13104,"##건데":13105,"##에선":13106,"인사":13107,"가진":13108,"집중":13109,"##오는":13110,"비롯":13111,"##하니":13112,"##번째":13113,"의견":13114,"혼자":13115,"밖에":13116,"##라인":13117,"않는다":13118,"##되었다":13119,"마스크":13120,"##마트":13121,"나서":13122,"##명을":13123,"##일이":13124,"##정한":13125,"##르고":13126,"주민":13127,"##있다":13128,"##무원":13129,"일단":13130,"출연":13131,"##자리":13132,"분야":13133,"전략":13134,"내년":13135,"아니면":13136,"네이버":13137,"충분":13138,"않았다":13139,"지켜":13140,"회장":13141,"확실":13142,"##은행":13143,"##겠지만":13144,"개선":13145,"는데":13146,"##동산":13147,"나오는":13148,"##로는":13149,"##한데":13150,"##스타":13151,"뭔가":13152,"같은데":13153,"처럼":13154,"##수록":13155,"대체":13156,"공산":13157,"또는":13158,"높은":13159,"중앙":13160,"분위":13161,"##BS":13162,"스토리":13163,"##기고":13164,"더불":13165,"건설":13166,"##되면":13167,"적극":13168,"##을때":13169,"##자들이":13170,"##스는":13171,"보호":13172,"솔직히":13173,"아마":13174,"##상이":13175,"199":13176,"받고":13177,"문제가":13178,"##님이":13179,"이러한":13180,"##라면":13181,"주요":13182,"되었다":13183,"있지만":13184,"목표":13185,"달러":13186,"크게":13187,"검사":13188,"고려":13189,"열린":13190,"##만큼":13191,"우선":13192,"아님":13193,"어렵":13194,"그걸":13195,"##려면":13196,"##제를":13197,"방식":13198,"생각이":13199,"직원":13200,"##겠네":13201,"노래":13202,"니가":13203,"달리":13204,"##때문에":13205,"행사":13206,"##우는":13207,"신천":13208,"있던":13209,"궁금":13210,"22":13211,"일을":13212,"느끼":13213,"가져":13214,"23":13215,"시스템":13216,"##감을":13217,"##이터":13218,"걱정":13219,"##더라도":13220,"그동안":13221,"인해":13222,"있어서":13223,"수출":13224,"##되지":13225,"가까":13226,"여행":13227,"다가":13228,"중요한":13229,"의료":13230,"아파트":13231,"매출":13232,"부동산":13233,"드라마":13234,"계약":13235,"##심히":13236,"음악":13237,"자신이":13238,"##수도":13239,"다양한":13240,"##려서":13241,"신경":13242,"수익":13243,"##먹고":13244,"##도로":13245,"보니":13246,"인터넷":13247,"##지지":13248,"##하다고":13249,"단체":13250,"##시장":13251,"기분":13252,"출신":13253,"등의":13254,"못하고":13255,"대회":13256,"##사의":13257,"정도로":13258,"##이니":13259,"현장":13260,"업무":13261,"##하시":13262,"그룹":13263,"갑자기":13264,"##하는게":13265,"조작":13266,"사과":13267,"##지로":13268,"친일":13269,"##구만":13270,"##운동":13271,"각각":13272,"여론":13273,"이전":13274,"움직":13275,"전에":13276,"##학생":13277,"##해주":13278,"가치":13279,"##지마":13280,"바라":13281,"##자인":13282,"오래":13283,"유럽":13284,"관계자":13285,"선동":13286,"##내는":13287,"##스의":13288,"하면서":13289,"영업":13290,"차지":13291,"##리면":13292,"우리는":13293,"세월":13294,"방문":13295,"나라가":13296,"이라고":13297,"부담":13298,"기능":13299,"앞서":13300,"##해요":13301,"모르는":13302,"##이지만":13303,"여기서":13304,"##대를":13305,"어쩌":13306,"##사업":13307,"습니다":13308,"가슴":13309,"저는":13310,"글로":13311,"발견":13312,"설치":13313,"##대한":13314,"##조건":13315,"##사회":13316,"##났다":13317,"##물을":13318,"나이":13319,"사망":13320,"대단":13321,"##간다":13322,"##와서":13323,"##아가":13324,"아닐":13325,"부정":13326,"안보":13327,"##드시":13328,"##으니까":13329,"##거다":13330,"자동차":13331,"들어가":13332,"##새끼":13333,"지도":13334,"##교육":13335,"가는":13336,"시절":13337,"##요일":13338,"회의":13339,"확보":13340,"어머니":13341,"##내고":13342,"외교":13343,"총선":13344,"주택":13345,"##만에":13346,"빨갱이":13347,"언급":13348,"##봐라":13349,"열심히":13350,"먹고":13351,"최소":13352,"광고":13353,"##구요":13354,"사람들은":13355,"새끼":13356,"주식":13357,"공감":13358,"없었다":13359,"##대는":13360,"통합":13361,"공급":13362,"않을":13363,"##하였다":13364,"##까요":13365,"##른다":13366,"불법":13367,"대응":13368,"보험":13369,"정확":13370,"사는":13371,"LG":13372,"##군요":13373,"##던데":13374,"못하는":13375,"따라서":13376,"집단":13377,"선생":13378,"##냐고":13379,"비해":13380,"인천":13381,"우려":13382,"실제로":13383,"##화가":13384,"되었":13385,"남편":13386,"##거야":13387,"이동":13388,"##거든":13389,"##체가":13390,"##대표":13391,"영국":13392,"하다":13393,"##억원":13394,"지구":13395,"있지":13396,"전문가":13397,"##8년":13398,"싶은":13399,"시험":13400,"안정":13401,"유명":13402,"##하라":13403,"국민들":13404,"밝혀":13405,"아버지":13406,"알았":13407,"자식":13408,"구속":13409,"처리":13410,"작업":13411,"##보다는":13412,"가서":13413,"##명의":13414,"입니다":13415,"##전자":13416,"여러분":13417,"공무원":13418,"거기":13419,"자금":13420,"나올":13421,"바뀌":13422,"오전":13423,"보도":13424,"##이션":13425,"##리즈":13426,"##수는":13427,"의사":13428,"국회의원":13429,"뭐가":13430,"단순":13431,"##당이":13432,"##러스":13433,"무시":13434,"니들":13435,"안타":13436,"반응":13437,"영화를":13438,"대책":13439,"갖고":13440,"26":13441,"참석":13442,"이익":13443,"개혁":13444,"과학":13445,"27":13446,"탄핵":13447,"주는":13448,"여전":13449,"본인":13450,"##간에":13451,"글로벌":13452,"##국민":13453,"아베":13454,"##전을":13455,"##이어":13456,"했는데":13457,"나쁜":13458,"광주":13459,"시청":13460,"##의를":13461,"평균":13462,"고민":13463,"이는":13464,"지키":13465,"##이상":13466,"괜찮":13467,"##라서":13468,"##생각":13469,"시설":13470,"##어진":13471,"##5년":13472,"##난다":13473,"불가":13474,"사기":13475,"무서":13476,"영상":13477,"이뤄":13478,"##대체":13479,"##7년":13480,"처벌":13481,"카드":13482,"SK":13483,"##9년":13484,"아는":13485,"##지에":13486,"##제가":13487,"희망":13488,"라이":13489,"반면":13490,"아래":13491,"강력":13492,"##트를":13493,"아들":13494,"##없다":13495,"##했지만":13496,"28":13497,"##돼지":13498,"제외":13499,"보기":13500,"##지면":13501,"실시":13502,"따른":13503,"관광":13504,"신고":13505,"전화":13506,"##세계":13507,"반드시":13508,"선정":13509,"##문을":13510,"있으며":13511,"##왔다":13512,"훨씬":13513,"정당":13514,"떠나":13515,"##선을":13516,"의해":13517,"받은":13518,"##가가":13519,"위치":13520,"스포":13521,"장기":13522,"##점이":13523,"소설":13524,"어찌":13525,"60":13526,"진심":13527,"제도":13528,"도입":13529,"있으면":13530,"##권을":13531,"공식":13532,"제시":13533,"##로서":13534,"최초":13535,"수가":13536,"프랑":13537,"##이라면":13538,"##만이":13539,"##갔다":13540,"뉴스":13541,"소재":13542,"무조건":13543,"도대체":13544,"투표":13545,"브랜드":13546,"되면":13547,"젊은":13548,"아빠":13549,"##되었":13550,"##과의":13551,"다들":13552,"소속":13553,"말씀":13554,"##생활":13555,"##워서":13556,"하여":13557,"좋아요":13558,"하늘":13559,"##BC":13560,"##관계":13561,"성격":13562,"##듯이":13563,"따르면":13564,"핵심":13565,"##겠다고":13566,"TV":13567,"끝나":13568,"권력":13569,"##물이":13570,"공간":13571,"달라":13572,"김정은":13573,"##너지":13574,"생각을":13575,"##6년":13576,"##럼프":13577,"중소":13578,"유치":13579,"등이":13580,"##건지":13581,"남성":13582,"시행":13583,"청소":13584,"##준다":13585,"##하다는":13586,"롯데":13587,"사람을":13588,"##이기":13589,"해라":13590,"##지게":13591,"많다":13592,"그가":13593,"사태":13594,"##어가":13595,"감염":13596,"생각해":13597,"아프":13598,"##대에":13599,"만약":13600,"각종":13601,"아름":13602,"오른":13603,"맞는":13604,"스마트":13605,"독일":13606,"종교":13607,"마치":13608,"##받고":13609,"불안":13610,"도와":13611,"##했을":13612,"나중에":13613,"##가를":13614,"자세":13615,"보유":13616,"일어나":13617,"소개":13618,"##원은":13619,"너희":13620,"##지역":13621,"잡아":13622,"심각":13623,"##이크":13624,"통신":13625,"느껴":13626,"자주":13627,"비용":13628,"##이자":13629,"##개월":13630,"논란":13631,"이젠":13632,"예산":13633,"모델":13634,"아니냐":13635,"##겠습니다":13636,"##인들":13637,"##위에":13638,"##했다는":13639,"있게":13640,"내부":13641,"인상":13642,"##인트":13643,"진실":13644,"증거":13645,"가정":13646,"수입":13647,"협력":13648,"어려운":13649,"보통":13650,"되지":13651,"가짜":13652,"##겠다는":13653,"빠져":13654,"독립":13655,"센터":13656,"싶다":13657,"트럼프":13658,"방향":13659,"연결":13660,"##으로써":13661,"##어버":13662,"장애":13663,"돈을":13664,"평화":13665,"점점":13666,"국민의":13667,"최종":13668,"선보":13669,"##림픽":13670,"변호":13671,"그거":13672,"##리의":13673,"자료":13674,"작은":13675,"불구":13676,"##수있":13677,"회복":13678,"##프로":13679,"##시민":13680,"사장":13681,"신천지":13682,"쉽게":13683,"사무":13684,"증권":13685,"거짓말":13686,"공연":13687,"감소":13688,"당연히":13689,"##우고":13690,"그려":13691,"두고":13692,"전투":13693,"##금을":13694,"없을":13695,"실패":13696,"고통":13697,"형태":13698,"##잖아요":13699,"나라를":13700,"올려":13701,"누군":13702,"주제":13703,"없었":13704,"담당":13705,"202":13706,"29":13707,"여전히":13708,"제목":13709,"신청":13710,"이래":13711,"대선":13712,"니들이":13713,"##하거나":13714,"미리":13715,"전자":13716,"한심":13717,"##일을":13718,"이사":13719,"청년":13720,"방안":13721,"##임을":13722,"##으로서":13723,"출시":13724,"##할때":13725,"개념":13726,"주고":13727,"단계":13728,"국민이":13729,"지금까지":13730,"오는":13731,"대출":13732,"안나":13733,"마을":13734,"행정":13735,"감동":13736,"무능":13737,"끌어":13738,"##냈다":13739,"의혹":13740,"들고":13741,"추천":13742,"시켜":13743,"때는":13744,"##수의":13745,"위원회":13746,"##4년":13747,"공공":13748,"##2년":13749,"스트":13750,"사례":13751,"##만한":13752,"##여서":13753,"##들에":13754,"##레스":13755,"대가":13756,"더불어":13757,"업계":13758,"있도록":13759,"##운드":13760,"거리":13761,"##것이":13762,"본격":13763,"자본":13764,"불러":13765,"러시아":13766,"##대의":13767,"마찬":13768,"진출":13769,"관한":13770,"정부가":13771,"애들":13772,"1년":13773,"주목":13774,"않아":13775,"말하는":13776,"노조":13777,"##와의":13778,"제기":13779,"포기":13780,"국정":13781,"모양":13782,"##단체":13783,"##으로는":13784,"소득":13785,"##조사":13786,"자꾸":13787,"힘을":13788,"배댓":13789,"나온다":13790,"재판":13791,"음식":13792,"그럴":13793,"좋다":13794,"이끌":13795,"##디오":13796,"타이":13797,"이기":13798,"좌빨":13799,"일으":13800,"##기의":13801,"싫어":13802,"촬영":13803,"수요":13804,"전개":13805,"못하":13806,"##위원회":13807,"국민들이":13808,"강남":13809,"당장":13810,"합의":13811,"지급":13812,"##서를":13813,"차량":13814,"인식":13815,"그나":13816,"발언":13817,"교회":13818,"70":13819,"##도는":13820,"개최":13821,"지금은":13822,"자체가":13823,"##들고":13824,"성과":13825,"관계자는":13826,"시간이":13827,"##이드":13828,"아침":13829,"##기관":13830,"조정":13831,"대깨":13832,"전환":13833,"##경제":13834,"##성은":13835,"##끼리":13836,"만드는":13837,"사실을":13838,"##그룹":13839,"##자들은":13840,"인권":13841,"별로":13842,"대형":13843,"있기":13844,"혐의":13845,"승리":13846,"참가":13847,"조용":13848,"플레이":13849,"##부는":13850,"마찬가지":13851,"국민을":13852,"바꾸":13853,"응원":13854,"하기":13855,"고용":13856,"살인":13857,"의심":13858,"교통":13859,"불쌍":13860,"좋아하는":13861,"##3년":13862,"##부가":13863,"##부를":13864,"##두고":13865,"대화":13866,"전기":13867,"대통령이":13868,"조성":13869,"필요한":13870,"하락":13871,"인도":13872,"자산":13873,"31":13874,"받는":13875,"저거":13876,"외국인":13877,"##센터":13878,"##하였":13879,"상관":13880,"파악":13881,"##시면":13882,"제주":13883,"시리즈":13884,"오랜":13885,"유일":13886,"이야기를":13887,"힘든":13888,"##마디":13889,"##머리":13890,"쓰는":13891,"##움을":13892,"부탁":13893,"매일":13894,"감정":13895,"##등학교":13896,"##세를":13897,"조건":13898,"자격":13899,"아시아":13900,"##원의":13901,"아내":13902,"코스":13903,"전달":13904,"##과는":13905,"거나":13906,"##져서":13907,"평생":13908,"기획":13909,"예술":13910,"기반":13911,"할머니":13912,"이유가":13913,"제한":13914,"연출":13915,"프리":13916,"공정":13917,"온라인":13918,"초반":13919,"혹은":13920,"민족":13921,"지하":13922,"##조차":13923,"##장에서":13924,"확진":13925,"##장에":13926,"##로부터":13927,"가입":13928,"논의":13929,"##식으로":13930,"독재":13931,"##스코":13932,"##라리":13933,"대중":13934,"참고":13935,"##하세요":13936,"자랑":13937,"재앙":13938,"우승":13939,"이때":13940,"충분히":13941,"것이라고":13942,"동생":13943,"##어라":13944,"불과":13945,"아예":13946,"##산업":13947,"그러면":13948,"##다운":13949,"법무":13950,"이라":13951,"그저":13952,"##리기":13953,"동시에":13954,"##함을":13955,"종합":13956,"##르게":13957,"##민주":13958,"대깨문":13959,"하며":13960,"보이는":13961,"##든지":13962,"연합":13963,"벌어":13964,"##반기":13965,"이걸":13966,"환자":13967,"경우가":13968,"없다는":13969,"구축":13970,"##아버":13971,"##하기도":13972,"세월호":13973,"받을":13974,"##지어":13975,"저도":13976,"유리":13977,"으며":13978,"분량":13979,"##감이":13980,"했던":13981,"##소를":13982,"##주가":13983,"전통":13984,"##당은":13985,"어디서":13986,"위기":13987,"##란다":13988,"인수":13989,"동물":13990,"##분에":13991,"말도":13992,"받았":13993,"##1년":13994,"훈련":13995,"##시킨":13996,"##많은":13997,"관객":13998,"지들":13999,"재산":14000,"인기":14001,"완전히":14002,"해석":14003,"좋겠다":14004,"지난달":14005,"나머":14006,"##나가":14007,"이유는":14008,"500":14009,"행위":14010,"##봐야":14011,"진보":14012,"비난":14013,"##던가":14014,"##느냐":14015,"##작가":14016,"없다고":14017,"안되는":14018,"##습니까":14019,"반영":14020,"이명":14021,"그랬":14022,"생각하는":14023,"보여주":14024,"취업":14025,"##스러운":14026,"##치가":14027,"##일보":14028,"베뎃":14029,"##장의":14030,"##시키는":14031,"됐다":14032,"건물":14033,"배경":14034,"요청":14035,"구매":14036,"가르":14037,"됩니다":14038,"##뉴스":14039,"198":14040,"주로":14041,"최저":14042,"##드를":14043,"서민":14044,"##나게":14045,"##고있":14046,"##개를":14047,"2년":14048,"영어":14049,"약간":14050,"신문":14051,"##구가":14052,"입국":14053,"단지":14054,"금지":14055,"자살":14056,"##해보":14057,"개돼지":14058,"생긴":14059,"자신을":14060,"철저":14061,"##것같":14062,"##상의":14063,"화장":14064,"##비를":14065,"##였던":14066,"검토":14067,"##적이고":14068,"설립":14069,"특징":14070,"과연":14071,"##심을":14072,"##영이":14073,"뛰어":14074,"있었던":14075,"굉장":14076,"황교":14077,"적이":14078,"##씨는":14079,"해주":14080,"구체":14081,"대변":14082,"목적":14083,"차례":14084,"적폐":14085,"복지":14086,"##장관":14087,"##회사":14088,"강제":14089,"약속":14090,"않다":14091,"##지말고":14092,"봐도":14093,"대로":14094,"##만을":14095,"규제":14096,"##인거":14097,"프랑스":14098,"연속":14099,"상당히":14100,"차별":14101,"남아":14102,"줄어":14103,"##가락":14104,"##분이":14105,"수상":14106,"##무리":14107,"신뢰":14108,"##일에":14109,"80":14110,"선발":14111,"##겠냐":14112,"집에":14113,"어린이":14114,"남북":14115,"강한":14116,"혁신":14117,"##는거지":14118,"그건":14119,"애초":14120,"혹시":14121,"돌아가":14122,"장난":14123,"시도":14124,"부문":14125,"##계를":14126,"생명":14127,"불편":14128,"하이":14129,"나무":14130,"토착":14131,"달려":14132,"##웹툰":14133,"가만":14134,"##한게":14135,"##롭게":14136,"상처":14137,"홍보":14138,"생겼":14139,"##들만":14140,"##시키고":14141,"하자":14142,"정리":14143,"전라도":14144,"속에서":14145,"민간":14146,"쓰고":14147,"##스럽게":14148,"##것이다":14149,"귀여":14150,"경기도":14151,"모르고":14152,"갈등":14153,"##차피":14154,"하게":14155,"##먹는":14156,"끝까지":14157,"마음을":14158,"##말로":14159,"하는거":14160,"##이의":14161,"##려야":14162,"차라리":14163,"있으니":14164,"##한다면":14165,"멤버":14166,"실적":14167,"##나서":14168,"조치":14169,"근무":14170,"##인들이":14171,"##지요":14172,"군대":14173,"이루어":14174,"평소":14175,"##신이":14176,"##예요":14177,"덧붙":14178,"오빠":14179,"##구를":14180,"일정":14181,"피해자":14182,"##겁니다":14183,"펀드":14184,"통일":14185,"노무":14186,"##체를":14187,"##랐다":14188,"죽은":14189,"부르":14190,"역할을":14191,"올림픽":14192,"일자리":14193,"##리오":14194,"번째":14195,"싸움":14196,"##님의":14197,"##이로":14198,"##성과":14199,"미사":14200,"작년":14201,"위에":14202,"내놓":14203,"눈에":14204,"알바":14205,"어차피":14206,"없애":14207,"목숨":14208,"저희":14209,"소비자":14210,"수행":14211,"직업":14212,"아무도":14213,"벌써":14214,"##원에":14215,"인터뷰":14216,"모습이":14217,"연예":14218,"##이도":14219,"분위기":14220,"위원장":14221,"이해가":14222,"는다":14223,"대사":14224,"통과":14225,"##페이지":14226,"지지율":14227,"연재":14228,"이재":14229,"군사":14230,"것처럼":14231,"애니":14232,"가능성이":14233,"공장":14234,"재미있":14235,"##같은데":14236,"아닙":14237,"목소리":14238,"듣고":14239,"##위가":14240,"있음":14241,"역대":14242,"영화는":14243,"이와":14244,"이명박":14245,"있어야":14246,"늘어":14247,"최고의":14248,"분노":14249,"자기가":14250,"물어":14251,"사람의":14252,"##에서의":14253,"한마디":14254,"희생":14255,"살고":14256,"항공":14257,"올리":14258,"그린":14259,"3년":14260,"##프트":14261,"##싶다":14262,"##0년대":14263,"##대통령":14264,"##하려고":14265,"이르":14266,"##er":14267,"미세":14268,"##인줄":14269,"놓고":14270,"설정":14271,"타고":14272,"##개발":14273,"도로":14274,"거부":14275,"확산":14276,"비중":14277,"국방":14278,"제안":14279,"##회의":14280,"굉장히":14281,"##쳤다":14282,"##아라":14283,"중소기업":14284,"문제는":14285,"본다":14286,"사상":14287,"성적":14288,"##비가":14289,"##진이":14290,"300":14291,"상상":14292,"도전":14293,"죽음":14294,"충격":14295,"##놈들":14296,"니네":14297,"어쩔":14298,"##바로":14299,"이곳":14300,"심지어":14301,"알게":14302,"개정":14303,"많아":14304,"##에만":14305,"##지원":14306,"##도의":14307,"고양":14308,"이라는":14309,"무기":14310,"##투자":14311,"나만":14312,"##하려":14313,"##드립":14314,"전해":14315,"근거":14316,"##에게는":14317,"이제는":14318,"공사":14319,"##것을":14320,"지배":14321,"##어를":14322,"중에":14323,"그러니까":14324,"##50":14325,"##성에":14326,"##할수":14327,"##국의":14328,"여름":14329,"##심이":14330,"비슷한":14331,"##문화":14332,"못할":14333,"다행":14334,"엄청난":14335,"확정":14336,"똑같":14337,"##사고":14338,"민주주의":14339,"##정책":14340,"기념":14341,"어서":14342,"##리게":14343,"10년":14344,"##랍니다":14345,"##당한":14346,"거지":14347,"질문":14348,"##국가":14349,"아쉬":14350,"규정":14351,"고생":14352,"영향을":14353,"중간":14354,"말은":14355,"촛불":14356,"게다가":14357,"4월":14358,"부끄":14359,"공포":14360,"마이":14361,"##수로":14362,"만족":14363,"포인트":14364,"제조":14365,"##셔서":14366,"예전":14367,"##봐도":14368,"마음이":14369,"보면서":14370,"근로":14371,"그나마":14372,"인간이":14373,"분양":14374,"향후":14375,"이하":14376,"우리의":14377,"시점":14378,"자녀":14379,"사실상":14380,"앞에":14381,"후반":14382,"혜택":14383,"것입니다":14384,"있다면":14385,"신규":14386,"맨날":14387,"졸업":14388,"눈치":14389,"스포츠":14390,"임명":14391,"통한":14392,"청소년":14393,"없어서":14394,"##리카":14395,"##위로":14396,"비율":14397,"완벽":14398,"가면":14399,"바꿔":14400,"특수":14401,"당선":14402,"싸우":14403,"##지의":14404,"새로":14405,"동일":14406,"##개혁":14407,"##법을":14408,"오르":14409,"##기술":14410,"나누":14411,"수밖에":14412,"못했":14413,"##져야":14414,"옛날":14415,"된다고":14416,"에너지":14417,"방침":14418,"액션":14419,"물건":14420,"등록":14421,"##리로":14422,"안에":14423,"야당":14424,"정부는":14425,"이벤":14426,"등에":14427,"지식":14428,"##기만":14429,"속에":14430,"생기":14431,"전시":14432,"눈물":14433,"##가요":14434,"##씨가":14435,"노무현":14436,"바탕":14437,"가득":14438,"##자고":14439,"주도":14440,"신용":14441,"판결":14442,"없는데":14443,"돌려":14444,"우수":14445,"중단":14446,"##자들의":14447,"했지만":14448,"있나":14449,"##원에서":14450,"##아닌":14451,"##말이":14452,"##받는":14453,"의무":14454,"1000":14455,"##은거":14456,"임금":14457,"전반":14458,"##드가":14459,"진정":14460,"직장":14461,"##어로":14462,"난리":14463,"연애":14464,"겁니다":14465,"데이터":14466,"유통":14467,"슈퍼":14468,"일상":14469,"특정":14470,"##관리":14471,"보장":14472,"레이":14473,"##가지고":14474,"무섭":14475,"##만으로":14476,"아닌데":14477,"겨울":14478,"##석이":14479,"##텐츠":14480,"축구":14481,"저러":14482,"##하신":14483,"기초":14484,"##문제":14485,"완성":14486,"맞춰":14487,"몰아":14488,"접근":14489,"불구하고":14490,"나타나":14491,"문제를":14492,"바보":14493,"예정이다":14494,"시기":14495,"잠시":14496,"##하다가":14497,"##주를":14498,"존나":14499,"있어요":14500,"따로":14501,"같아요":14502,"인지":14503,"분기":14504,"##활동":14505,"##주행":14506,"마무리":14507,"##거운":14508,"##사로":14509,"나머지":14510,"##다른":14511,"거쳐":14512,"##보기":14513,"##히는":14514,"##라가":14515,"리그":14516,"월드":14517,"선물":14518,"저지":14519,"##우스":14520,"윤석":14521,"##았는데":14522,"##나오":14523,"##선거":14524,"##국이":14525,"하시":14526,"##님은":14527,"시간을":14528,"앞에서":14529,"이상한":14530,"수술":14531,"조합":14532,"##퓨터":14533,"##았던":14534,"##업체":14535,"90":14536,"##해야지":14537,"3월":14538,"##하라고":14539,"소유":14540,"굳이":14541,"매력":14542,"봐야":14543,"##이에":14544,"##시설":14545,"기부":14546,"영화가":14547,"돼지":14548,"인구":14549,"##것은":14550,"##화에":14551,"멍청":14552,"모자":14553,"내일":14554,"##사에":14555,"##해진":14556,"위안":14557,"##시대":14558,"##환경":14559,"위로":14560,"##세대":14561,"##겠죠":14562,"##신을":14563,"나경":14564,"##것들":14565,"나의":14566,"##회를":14567,"제출":14568,"인한":14569,"##시가":14570,"현지":14571,"활성":14572,"일본이":14573,"##인간":14574,"##트가":14575,"재정":14576,"##성의":14577,"##됩니다":14578,"##연구":14579,"변경":14580,"반복":14581,"##스러":14582,"것에":14583,"##걸로":14584,"대전":14585,"뒤에":14586,"비밀":14587,"개봉":14588,"디지":14589,"달창":14590,"시각":14591,"##화는":14592,"##10":14593,"만들고":14594,"에이":14595,"##상에":14596,"있네":14597,"만드":14598,"똑같은":14599,"일베":14600,"6월":14601,"##자와":14602,"##려라":14603,"위협":14604,"체험":14605,"KBS":14606,"원칙":14607,"결론":14608,"노인":14609,"답답":14610,"일제":14611,"협의":14612,"살펴":14613,"미안":14614,"도망":14615,"개월":14616,"지가":14617,"##거같":14618,"으면":14619,"지정":14620,"않으면":14621,"##케팅":14622,"그것도":14623,"5월":14624,"나를":14625,"##행을":14626,"사전":14627,"그러니":14628,"월급":14629,"동네":14630,"된다는":14631,"형성":14632,"악플":14633,"가구":14634,"##온다":14635,"지분":14636,"사법":14637,"둘러":14638,"대박":14639,"##방송":14640,"임대":14641,"믿고":14642,"##증권":14643,"가능한":14644,"집안":14645,"경북":14646,"호텔":14647,"베트":14648,"##마라":14649,"꾸준":14650,"일어":14651,"어른":14652,"저기":14653,"##전이":14654,"그들의":14655,"돈이":14656,"##부의":14657,"바다":14658,"프로젝":14659,"##거든요":14660,"손을":14661,"##개의":14662,"##하려는":14663,"황교안":14664,"디자인":14665,"##래도":14666,"선언":14667,"수는":14668,"의식":14669,"##보자":14670,"##들한테":14671,"안하고":14672,"토론":14673,"그를":14674,"##했습니다":14675,"애초에":14676,"대기업":14677,"선진":14678,"##께서":14679,"##니스":14680,"##부로":14681,"##었다고":14682,"와서":14683,"계열":14684,"##없고":14685,"투입":14686,"관심을":14687,"컴퓨터":14688,"차이":14689,"무너":14690,"세대":14691,"초기":14692,"##리그":14693,"삼성전자":14694,"폭력":14695,"미세먼":14696,"창업":14697,"독자":14698,"인간의":14699,"이름을":14700,"표정":14701,"##일까":14702,"시작했다":14703,"##왜구":14704,"골프":14705,"##단을":14706,"##질을":14707,"협상":14708,"우주":14709,"##느라":14710,"사회적":14711,"##줘야":14712,"##약을":14713,"지랄":14714,"##자나":14715,"중국인":14716,"태양":14717,"보였":14718,"##도에":14719,"일은":14720,"파괴":14721,"눈을":14722,"못했다":14723,"##국에":14724,"마라":14725,"진정한":14726,"9월":14727,"##20":14728,"박정":14729,"나름":14730,"짜증":14731,"##장으로":14732,"비행":14733,"금리":14734,"측면":14735,"어울":14736,"원인":14737,"상황이":14738,"MBC":14739,"마법":14740,"##사건":14741,"10월":14742,"등으로":14743,"35":14744,"원하는":14745,"##선이":14746,"달성":14747,"말해":14748,"##지기":14749,"채용":14750,"아무것도":14751,"잘생":14752,"최악":14753,"예방":14754,"공유":14755,"총리":14756,"##문이":14757,"##관이":14758,"12월":14759,"구분":14760,"절차":14761,"##만의":14762,"##이익":14763,"불가능":14764,"늘어나":14765,"블랙":14766,"무대":14767,"사퇴":14768,"요소":14769,"주가":14770,"만에":14771,"되는데":14772,"7월":14773,"공주":14774,"벗어나":14775,"드디어":14776,"##세가":14777,"세력":14778,"논리":14779,"공수":14780,"발행":14781,"상황에서":14782,"무역":14783,"##트는":14784,"##와는":14785,"현상":14786,"하네":14787,"내용이":14788,"보상":14789,"받았다":14790,"베트남":14791,"울산":14792,"##거라":14793,"싫어요":14794,"버스":14795,"미치":14796,"운전":14797,"수업":14798,"운용":14799,"##in":14800,"동원":14801,"하나의":14802,"어제":14803,"외모":14804,"##학년":14805,"이미지":14806,"밝히":14807,"취급":14808,"##시켰":14809,"##마자":14810,"심리":14811,"못해":14812,"다소":14813,"##드로":14814,"조심":14815,"보였다":14816,"##사람이":14817,"여기에":14818,"바이러스":14819,"##분들":14820,"크리스":14821,"그만큼":14822,"##명은":14823,"동료":14824,"##웠다":14825,"긴장":14826,"뭐냐":14827,"##아지":14828,"빠른":14829,"##있는데":14830,"바닥":14831,"##부에":14832,"너무나":14833,"맞아":14834,"온갖":14835,"하나도":14836,"##우가":14837,"스마트폰":14838,"심판":14839,"한반":14840,"아나":14841,"##리어":14842,"흔들":14843,"##민이":14844,"같습니다":14845,"여자가":14846,"없습니다":14847,"##사와":14848,"없음":14849,"그렇지":14850,"##있고":14851,"##하도록":14852,"서울대":14853,"귀엽":14854,"##는가":14855,"경남":14856,"##트로":14857,"리더":14858,"그것은":14859,"있는지":14860,"##위는":14861,"소녀":14862,"무리":14863,"마케팅":14864,"나섰":14865,"8월":14866,"너네":14867,"##으로부터":14868,"이탈":14869,"쿠키":14870,"향해":14871,"신의":14872,"##질이":14873,"소통":14874,"##받은":14875,"이번에":14876,"아니라고":14877,"하니":14878,"긍정":14879,"문죄":14880,"놀라":14881,"##30":14882,"그들은":14883,"1월":14884,"것과":14885,"거야":14886,"죽을":14887,"왔다":14888,"##되면서":14889,"정작":14890,"##수준":14891,"##이팅":14892,"##이든":14893,"##바일":14894,"##하니까":14895,"는지":14896,"필요가":14897,"KT":14898,"##조선":14899,"영웅":14900,"카메":14901,"효율":14902,"흐름":14903,"##도시":14904,"말로":14905,"회원":14906,"인제":14907,"확실히":14908,"그녀의":14909,"않을까":14910,"미사일":14911,"펼쳐":14912,"담배":14913,"똑같이":14914,"##자에":14915,"페미":14916,"스타일":14917,"휴대":14918,"아닐까":14919,"반도":14920,"##하셨":14921,"##가면":14922,"##단이":14923,"##는거야":14924,"이란":14925,"먹는":14926,"##군이":14927,"전년":14928,"대우":14929,"실험":14930,"출발":14931,"저녁":14932,"000":14933,"메이":14934,"과정에서":14935,"##시오":14936,"대답":14937,"그림체":14938,"이유로":14939,"금액":14940,"##안을":14941,"##친구":14942,"브라":14943,"##그러":14944,"한국인":14945,"극복":14946,"고소":14947,"##겠네요":14948,"##주면":14949,"데뷔":14950,"남의":14951,"손해":14952,"친일파":14953,"무식":14954,"생각하고":14955,"자원":14956,"서울시":14957,"체계":14958,"변호사":14959,"준다":14960,"사회주의":14961,"스페":14962,"무료":14963,"##까지는":14964,"가고":14965,"영역":14966,"##하네요":14967,"본부":14968,"라면":14969,"풀어":14970,"봤는데":14971,"절반":14972,"당신이":14973,"##부모":14974,"같아":14975,"##보네":14976,"아까":14977,"불리":14978,"보니까":14979,"반성":14980,"있었는데":14981,"소름":14982,"전했":14983,"본인이":14984,"그것을":14985,"##간의":14986,"수많은":14987,"수십":14988,"적절":14989,"##on":14990,"##경기":14991,"##달라고":14992,"물러":14993,"프레":14994,"장소":14995,"##아이":14996,"남녀":14997,"덕분에":14998,"내용을":14999,"헌법":15000,"방어":15001,"대상으로":15002,"모바일":15003,"동의":15004,"택시":15005,"디지털":15006,"사형":15007,"아냐":15008,"지금도":15009,"위반":15010,"토착왜구":15011,"둘이":15012,"더러운":15013,"폭발":15014,"나선":15015,"##한국":15016,"##시길":15017,"몰랐":15018,"가까운":15019,"부인":15020,"위해서는":15021,"##규모":15022,"매년":15023,"##가족":15024,"한국의":15025,"문학":15026,"몸을":15027,"##인듯":15028,"않게":15029,"사람도":15030,"안된다":15031,"집행":15032,"두려":15033,"##력은":15034,"영원":15035,"법무부":15036,"그녀는":15037,"정주행":15038,"이리":15039,"허용":15040,"##겼다":15041,"##량이":15042,"자극":15043,"##시지":15044,"악마":15045,"##었을":15046,"197":15047,"가수":15048,"들이":15049,"따뜻":15050,"##면서도":15051,"##호가":15052,"높이":15053,"깨끗":15054,"싶어":15055,"테러":15056,"##나고":15057,"원작":15058,"##라스":15059,"조용히":15060,"유튜":15061,"##마저":15062,"전형":15063,"미국의":15064,"집회":15065,"매각":15066,"실망":15067,"##독교":15068,"드립":15069,"문재인이":15070,"양심":15071,"도움이":15072,"가만히":15073,"##때는":15074,"너는":15075,"작용":15076,"잘못된":15077,"노동자":15078,"##음이":15079,"말아":15080,"보건":15081,"편의":15082,"검색":15083,"대해서는":15084,"2월":15085,"2차":15086,"높아":15087,"영화의":15088,"전용":15089,"##사랑":15090,"말에":15091,"인증":15092,"##니아":15093,"아름다운":15094,"2000":15095,"언니":15096,"강원":15097,"인근":15098,"##스토":15099,"그것이":15100,"예고":15101,"일주":15102,"가해":15103,"처음으로":15104,"아닙니다":15105,"눈이":15106,"소송":15107,"##잡고":15108,"연금":15109,"11월":15110,"별점":15111,"##률이":15112,"누리":15113,"설명했다":15114,"교사":15115,"##먹을":15116,"것들이":15117,"부여":15118,"하던":15119,"방역":15120,"##하러":15121,"기여":15122,"모아":15123,"유니":15124,"아가":15125,"인데":15126,"명예":15127,"홍콩":15128,"커피":15129,"##했으면":15130,"일본의":15131,"여당":15132,"하는게":15133,"종목":15134,"들여":15135,"통해서":15136,"주의":15137,"##거래":15138,"건축":15139,"연장":15140,"정부의":15141,"사항":15142,"나눠":15143,"바랍니다":15144,"의한":15145,"일본은":15146,"이럴":15147,"남은":15148,"##들이다":15149,"사이에":15150,"콘텐츠":15151,"체제":15152,"수용":15153,"도착":15154,"이중":15155,"##돌아":15156,"아동":15157,"##정보":15158,"구입":15159,"있을까":15160,"다이":15161,"체결":15162,"##었지만":15163,"공수처":15164,"이상의":15165,"##시킬":15166,"##겠어요":15167,"뭐야":15168,"##관을":15169,"우한":15170,"예를":15171,"정규":15172,"중심으로":15173,"애들이":15174,"계산":15175,"내리":15176,"시위":15177,"훌륭":15178,"폐지":15179,"순수":15180,"##하는건":15181,"앉아":15182,"인력":15183,"##조작":15184,"외부":15185,"추정":15186,"주말":15187,"##an":15188,"상징":15189,"##보험":15190,"떠올":15191,"진단":15192,"##쳐서":15193,"##었습니다":15194,"상담":15195,"통화":15196,"들어오":15197,"낮은":15198,"##드의":15199,"힘이":15200,"흥미":15201,"##이었던":15202,"정치인":15203,"제2":15204,"총장":15205,"이만":15206,"식품":15207,"성폭":15208,"뒤집":15209,"##건설":15210,"##것들이":15211,"애플":15212,"##받아":15213,"삶을":15214,"소중":15215,"마다":15216,"점을":15217,"국민들은":15218,"잡고":15219,"가끔":15220,"설계":15221,"흘러":15222,"보지":15223,"축하":15224,"냄새":15225,"##하기로":15226,"##량을":15227,"##이기도":15228,"##나무":15229,"##라니":15230,"##리티":15231,"케이":15232,"통제":15233,"##으려고":15234,"##있어":15235,"기계":15236,"해야지":15237,"##였는데":15238,"5년":15239,"다면서":15240,"감옥":15241,"수정":15242,"남자가":15243,"좋았":15244,"받아들":15245,"##기사":15246,"이정도":15247,"##쓰고":15248,"36":15249,"##영업":15250,"##주택":15251,"##림이":15252,"집에서":15253,"##진짜":15254,"왠지":15255,"뉴욕":15256,"생존":15257,"간다":15258,"##했으며":15259,"감안":15260,"##실을":15261,"##함이":15262,"작성":15263,"느낌이":15264,"상황을":15265,"마음에":15266,"##놈이":15267,"만난":15268,"##전에서":15269,"##위해":15270,"정치적":15271,"##한건":15272,"배치":15273,"##속에":15274,"합리":15275,"후에":15276,"채권":15277,"이벤트":15278,"기레기":15279,"내내":15280,"맞추":15281,"어떠":15282,"언제나":15283,"있냐":15284,"베이":15285,"평범":15286,"##리며":15287,"연락":15288,"45":15289,"시원":15290,"봐라":15291,"회담":15292,"한나라":15293,"나타났":15294,"##은이":15295,"##거냐":15296,"없네":15297,"스킬":15298,"51":15299,"다면":15300,"##리스트":15301,"이들은":15302,"나갈":15303,"나와서":15304,"예측":15305,"글을":15306,"억울":15307,"실천":15308,"##들로":15309,"전했다":15310,"##누리":15311,"이성":15312,"전세계":15313,"새벽":15314,"##버린":15315,"##세기":15316,"백신":15317,"심사":15318,"법인":15319,"봉사":15320,"어이":15321,"##길을":15322,"지시":15323,"다녀":15324,"부부":15325,"상대로":15326,"##길래":15327,"가게":15328,"비리":15329,"##놓은":15330,"보이지":15331,"교체":15332,"정체":15333,"안타깝":15334,"##티브":15335,"스크":15336,"매국":15337,"반일":15338,"작가님이":15339,"세상에":15340,"쏟아":15341,"비상":15342,"##바리":15343,"개그":15344,"##말을":15345,"화려":15346,"##점은":15347,"수호":15348,"길을":15349,"대처":15350,"##경이":15351,"##료를":15352,"자리를":15353,"모른다":15354,"밀어":15355,"##가의":15356,"한국당":15357,"##로그":15358,"##워크":15359,"우연":15360,"당국":15361,"인재":15362,"##플레이":15363,"떨어진":15364,"##안에":15365,"##려나":15366,"그렇다고":15367,"왜이":15368,"있으":15369,"##군의":15370,"투쟁":15371,"에피":15372,"한다면":15373,"가야":15374,"제1":15375,"이승":15376,"##원으로":15377,"나쁘":15378,"비정":15379,"##달러":15380,"거기에":15381,"알아서":15382,"속도":15383,"##고를":15384,"뭐라":15385,"전날":15386,"학습":15387,"집값":15388,"##거리는":15389,"관심이":15390,"먹을":15391,"프로젝트":15392,"김정":15393,"데려":15394,"없지":15395,"##하시는":15396,"여부":15397,"야구":15398,"##이라니":15399,"할인":15400,"기울":15401,"정신차":15402,"최소한":15403,"피부":15404,"특성":15405,"명의":15406,"##하겠다":15407,"내세":15408,"지들이":15409,"사람들의":15410,"마지막에":15411,"유시민":15412,"예비":15413,"쓰러":15414,"라인":15415,"화면":15416,"고위":15417,"공산주의":15418,"꾸준히":15419,"공모":15420,"장비":15421,"법률":15422,"##본다":15423,"##라지":15424,"한계":15425,"패션":15426,"##화된":15427,"말할":15428,"##대학":15429,"창조":15430,"##보단":15431,"제거":15432,"아니야":15433,"##금융":15434,"의도":15435,"생겨":15436,"출전":15437,"##는건":15438,"박정희":15439,"아쉽":15440,"적어도":15441,"실질":15442,"좋을":15443,"소리를":15444,"검은":15445,"간단":15446,"주문":15447,"탄생":15448,"명령":15449,"말한다":15450,"정신병":15451,"##댓글":15452,"1위":15453,"최순":15454,"연습":15455,"웃기":15456,"##제품":15457,"목소":15458,"말한":15459,"##쪽으로":15460,"##일부터":15461,"##아치":15462,"##금지":15463,"윤석열":15464,"생각한다":15465,"##되기":15466,"##상으로":15467,"원내":15468,"공산당":15469,"도덕":15470,"기독교":15471,"태극":15472,"홈페이지":15473,"##기와":15474,"아무런":15475,"설마":15476,"반도체":15477,"이슈":15478,"##인가요":15479,"보자":15480,"##번에":15481,"기소":15482,"공항":15483,"신기":15484,"##격을":15485,"나경원":15486,"겨우":15487,"이나라":15488,"이른":15489,"##하는지":15490,"##거면":15491,"의지":15492,"창출":15493,"생각합니다":15494,"나오고":15495,"##해지":15496,"##미가":15497,"제정":15498,"결코":15499,"##방에":15500,"상장":15501,"##소득":15502,"카페":15503,"##임금":15504,"챙겨":15505,"이혼":15506,"자아":15507,"무서운":15508,"##기간":15509,"나왔다":15510,"보게":15511,"옆에":15512,"안좋":15513,"32":15514,"입고":15515,"##바이":15516,"전남":15517,"혼란":15518,"없으면":15519,"##지마라":15520,"쇼핑":15521,"등등":15522,"대통령은":15523,"뻔뻔":15524,"사랑을":15525,"가까이":15526,"##제로":15527,"강력한":15528,"실현":15529,"이름이":15530,"채널":15531,"이들":15532,"체육":15533,"다루":15534,"이론":15535,"통계":15536,"소년":15537,"안돼":15538,"올랐":15539,"들어서":15540,"언어":15541,"헤어":15542,"나오면":15543,"##인과":15544,"할아버":15545,"활약":15546,"##자도":15547,"##주시":15548,"##상은":15549,"개소리":15550,"알려졌":15551,"##유의":15552,"클럽":15553,"수석":15554,"모여":15555,"##모리":15556,"김영":15557,"만한":15558,"분명히":15559,"유사":15560,"보낸":15561,"적은":15562,"상식":15563,"##진을":15564,"##비는":15565,"##인으로":15566,"##자체":15567,"상위":15568,"청문":15569,"그들이":15570,"##서관":15571,"틀딱":15572,"계획이다":15573,"떠오":15574,"아저":15575,"SBS":15576,"근본":15577,"더이상":15578,"##항공":15579,"조국이":15580,"철학":15581,"##어야지":15582,"취소":15583,"주사":15584,"유튜브":15585,"##범죄":15586,"##로남":15587,"기타":15588,"물리":15589,"##점으로":15590,"불매":15591,"죽여":15592,"##메이션":15593,"2015년":15594,"느낄":15595,"판사":15596,"오픈":15597,"##적이다":15598,"못하게":15599,"##차를":15600,"간첩":15601,"안내":15602,"압박":15603,"걸어":15604,"카메라":15605,"때마다":15606,"집권":15607,"선생님":15608,"앨범":15609,"##리자":15610,"현금":15611,"##진은":15612,"모두가":15613,"않나":15614,"##아는":15615,"사이트":15616,"##이라며":15617,"##서가":15618,"미군":15619,"##용이":15620,"몰라":15621,"##바닥":15622,"가능하다":15623,"여주":15624,"수학":15625,"##까봐":15626,"말이다":15627,"##겠어":15628,"칭찬":15629,"##구조":15630,"이용해":15631,"##거고":15632,"##대회":15633,"우리나":15634,"##로남불":15635,"##친다":15636,"이외":15637,"개입":15638,"방해":15639,"너도":15640,"##경을":15641,"애국":15642,"##19":15643,"미술":15644,"인류":15645,"초딩":15646,"잠깐":15647,"##따라":15648,"##고는":15649,"##게임":15650,"##거임":15651,"그곳":15652,"때려":15653,"지수":15654,"##분을":15655,"실력":15656,"최대한":15657,"밑에":15658,"동시":15659,"식으로":15660,"선배":15661,"피해를":15662,"등급":15663,"소식":15664,"가라":15665,"이달":15666,"갖추":15667,"소환":15668,"##단의":15669,"모른":15670,"##화점":15671,"초등":15672,"추구":15673,"##받을":15674,"손가락":15675,"광화":15676,"##일까지":15677,"끝내":15678,"##없어":15679,"##먹은":15680,"미국이":15681,"2016년":15682,"##아도":15683,"##대가리":15684,"관련된":15685,"##평가":15686,"##개가":15687,"리얼":15688,"처음부터":15689,"##상태":15690,"##장과":15691,"##보다도":15692,"수수":15693,"##라우":15694,"괴롭":15695,"전면":15696,"일부러":15697,"##니깐":15698,"##이들":15699,"보여주는":15700,"##던지":15701,"단순히":15702,"##호를":15703,"##었다는":15704,"##라며":15705,"고백":15706,"오해":15707,"수능":15708,"아니지만":15709,"미세먼지":15710,"경우에는":15711,"출마":15712,"##스와":15713,"해소":15714,"경우는":15715,"##TV":15716,"다를":15717,"웃음":15718,"복귀":15719,"당신은":15720,"##자에게":15721,"##안이":15722,"##럽게":15723,"##화의":15724,"아이템":15725,"분리":15726,"없지만":15727,"미디어":15728,"##짜리":15729,"사람들을":15730,"정도의":15731,"수준이":15732,"법원":15733,"재밌게":15734,"어깨":15735,"이것은":15736,"국토":15737,"동아":15738,"무한":15739,"부모님":15740,"##게요":15741,"살려":15742,"에피소":15743,"33":15744,"##성애":15745,"한반도":15746,"##종의":15747,"##만은":15748,"자가":15749,"##향이":15750,"화가":15751,"플랫":15752,"국무":15753,"##단다":15754,"##된다고":15755,"##당히":15756,"안철":15757,"연계":15758,"아르":15759,"증명":15760,"대부분의":15761,"듯한":15762,"인간들":15763,"놈들":15764,"196":15765,"돌아오":15766,"##치게":15767,"##싶은":15768,"여유":15769,"34":15770,"38":15771,"키워":15772,"##ar":15773,"많은데":15774,"다리":15775,"차이가":15776,"고발":15777,"기생":15778,"감사합니다":15779,"확장":15780,"하냐":15781,"경쟁력":15782,"청구":15783,"##적을":15784,"##였고":15785,"니들은":15786,"##리네":15787,"네트":15788,"##기지":15789,"정보를":15790,"북한이":15791,"한데":15792,"상호":15793,"진지":15794,"것이었다":15795,"관람":15796,"##정치":15797,"자전":15798,"오늘도":15799,"느낀":15800,"평등":15801,"전력":15802,"종북":15803,"##성도":15804,"설득":15805,"수원":15806,"거듭":15807,"##카드":15808,"필요하다":15809,"##치지":15810,"저게":15811,"키우":15812,"이웃":15813,"한국은":15814,"오지":15815,"왜냐":15816,"어려움":15817,"##든가":15818,"이지":15819,"끝난":15820,"##방을":15821,"점에서":15822,"했고":15823,"차단":15824,"##주지":15825,"##아니라":15826,"##정에":15827,"점검":15828,"모집":15829,"착각":15830,"빠르":15831,"지옥":15832,"그리스":15833,"아니지":15834,"##수수":15835,"깊은":15836,"대놓고":15837,"##로지":15838,"##복을":15839,"##일은":15840,"뿐이다":15841,"부품":15842,"있었고":15843,"세상을":15844,"인공":15845,"99":15846,"갈수록":15847,"영혼":15848,"##한번":15849,"갔다":15850,"요리":15851,"한테":15852,"뽑아":15853,"2017년":15854,"바란다":15855,"대학생":15856,"자영업":15857,"참고로":15858,"박사":15859,"##되는데":15860,"##율이":15861,"커플":15862,"##해주는":15863,"진입":15864,"단어":15865,"##or":15866,"힘내":15867,"복잡":15868,"재난":15869,"##리나":15870,"사실은":15871,"팩트":15872,"##져라":15873,"걸쳐":15874,"##피스":15875,"문빠":15876,"라헬":15877,"경우도":15878,"지상":15879,"내고":15880,"작가의":15881,"발사":15882,"##동생":15883,"교과":15884,"##리트":15885,"청원":15886,"반발":15887,"했으나":15888,"종류":15889,"##상황":15890,"##년이":15891,"때도":15892,"##뮤니":15893,"부활":15894,"얼굴을":15895,"##주로":15896,"바른":15897,"장르":15898,"뛰어난":15899,"뿐만":15900,"##권이":15901,"겁나":15902,"대가리":15903,"여야":15904,"협박":15905,"##애들":15906,"이내":15907,"국민은":15908,"##여자":15909,"공천":15910,"##있네":15911,"노출":15912,"##별로":15913,"이다":15914,"빨간":15915,"성능":15916,"매수":15917,"유도":15918,"아이가":15919,"괜히":15920,"입을":15921,"물고":15922,"##노총":15923,"보조":15924,"최강":15925,"5000":15926,"자는":15927,"떨어지":15928,"검증":15929,"그에":15930,"고등학교":15931,"지루":15932,"사귀":15933,"이민":15934,"했다고":15935,"인가":15936,"발휘":15937,"##회장":15938,"##긴다":15939,"대기":15940,"부분이":15941,"##여행":15942,"2014년":15943,"직후":15944,"착한":15945,"할수":15946,"##석은":15947,"이탈리아":15948,"##배우":15949,"##프라":15950,"팔아":15951,"성인":15952,"배달":15953,"##터리":15954,"##었으면":15955,"짱깨":15956,"로봇":15957,"2018년":15958,"00":15959,"원전":15960,"##제는":15961,"배뎃":15962,"가량":15963,"생각하면":15964,"1인":15965,"필수":15966,"연구원":15967,"소방":15968,"화학":15969,"뒤로":15970,"##소가":15971,"것이라는":15972,"기회를":15973,"##히고":15974,"##보내":15975,"김대":15976,"##카오":15977,"지휘":15978,"고급":15979,"한미":15980,"후회":15981,"표시":15982,"한화":15983,"재무":15984,"투기":15985,"##당에":15986,"몰려":15987,"입학":15988,"대변인":15989,"패배":15990,"유료":15991,"##둥이":15992,"##당을":15993,"##명으로":15994,"##슬람":15995,"방사":15996,"고향":15997,"둘다":15998,"어야":15999,"투명":16000,"경상":16001,"수치":16002,"했으며":16003,"##겠는데":16004,"##화에서":16005,"KB":16006,"철저히":16007,"애니메이션":16008,"대다":16009,"##때마다":16010,"##실이":16011,"인민":16012,"둘째":16013,"손에":16014,"##되서":16015,"올린":16016,"##더만":16017,"##로를":16018,"답변":16019,"##마가":16020,"##미터":16021,"응답":16022,"##공사":16023,"아닌가요":16024,"가을":16025,"##그래":16026,"##임이":16027,"동기":16028,"못한다":16029,"국립":16030,"중간에":16031,"누구나":16032,"제재":16033,"##직원":16034,"##동이":16035,"그렇고":16036,"비례":16037,"어요":16038,"멋진":16039,"엄마가":16040,"##쟁이":16041,"월드컵":16042,"연간":16043,"투자자":16044,"멀리":16045,"##시절":16046,"지하철":16047,"모르겠다":16048,"배신":16049,"돌파":16050,"고정":16051,"##차가":16052,"법을":16053,"##야말로":16054,"협회":16055,"##부대":16056,"다름":16057,"##전의":16058,"사실이":16059,"자율":16060,"보인":16061,"부상":16062,"결제":16063,"스테":16064,"##계의":16065,"좋지":16066,"##구로":16067,"##피언":16068,"들었다":16069,"##정의":16070,"로부터":16071,"##장면":16072,"중국에":16073,"##나면":16074,"어릴":16075,"##그리":16076,"##드리":16077,"남한":16078,"고마":16079,"상황에":16080,"생각은":16081,"형사":16082,"이것이":16083,"순위":16084,"책임을":16085,"날아":16086,"자존":16087,"탈출":16088,"아이디어":16089,"##주에":16090,"실업":16091,"얘기를":16092,"부대":16093,"맞고":16094,"때까지":16095,"옹호":16096,"조선족":16097,"일본에":16098,"균형":16099,"감성":16100,"위안부":16101,"2018":16102,"##이라서":16103,"무려":16104,"세워":16105,"세종":16106,"노예":16107,"주지":16108,"씨는":16109,"완화":16110,"감독은":16111,"##연이":16112,"단독":16113,"##함으로써":16114,"이야기가":16115,"방지":16116,"언젠":16117,"검찰개혁":16118,"학원":16119,"시나":16120,"아울":16121,"내로남불":16122,"##NS":16123,"찬성":16124,"거기서":16125,"##사람들":16126,"분들":16127,"보안":16128,"경고":16129,"일찍":16130,"##호는":16131,"그다":16132,"자전거":16133,"상반기":16134,"##키는":16135,"책을":16136,"모를":16137,"##비아":16138,"##다시":16139,"분류":16140,"##점에서":16141,"것이고":16142,"떨어져":16143,"대법":16144,"이런거":16145,"올라가":16146,"동양":16147,"IT":16148,"베댓이":16149,"신체":16150,"##렀다":16151,"느꼈":16152,"능력을":16153,"개판":16154,"마주":16155,"마침":16156,"##성장":16157,"##았고":16158,"넘는":16159,"##다는게":16160,"봅니다":16161,"##데이":16162,"수단":16163,"보이고":16164,"대결":16165,"매장":16166,"받지":16167,"받아들이":16168,"##자산":16169,"텔레":16170,"동맹":16171,"##회에":16172,"당사":16173,"##버스":16174,"##동을":16175,"아웃":16176,"존경":16177,"##가에":16178,"##셔야":16179,"안에서":16180,"삶의":16181,"한명":16182,"커뮤니":16183,"공약":16184,"##적으로는":16185,"치고":16186,"기준으로":16187,"내는":16188,"파트":16189,"현대차":16190,"중인":16191,"##하지말고":16192,"입주":16193,"##뿐만":16194,"##을텐데":16195,"얻어":16196,"고등":16197,"400":16198,"##스티":16199,"##영상":16200,"유명한":16201,"들어간":16202,"주인공이":16203,"##시를":16204,"반대로":16205,"##리라":16206,"두산":16207,"도움을":16208,"능력이":16209,"데리고":16210,"마약":16211,"죽이":16212,"비롯한":16213,"털어":16214,"##연금":16215,"2012년":16216,"임시":16217,"새누리":16218,"사용하는":16219,"##오고":16220,"##되며":16221,"파워":16222,"김성":16223,"페이스":16224,"한정":16225,"말하고":16226,"하세요":16227,"##현이":16228,"##제의":16229,"활동을":16230,"##로가":16231,"나아":16232,"긴급":16233,"이자":16234,"가난":16235,"##수사":16236,"대표는":16237,"##는거다":16238,"끝에":16239,"거주":16240,"다섯":16241,"##구는":16242,"트위":16243,"검찰이":16244,"방법을":16245,"##당의":16246,"도쿄":16247,"##보지":16248,"##하겠다고":16249,"그날":16250,"하는지":16251,"##드립니다":16252,"한다며":16253,"매달":16254,"지내":16255,"##리와":16256,"끌고":16257,"##치기":16258,"##으려":16259,"3일":16260,"하반기":16261,"완료":16262,"로서":16263,"##의식":16264,"살짝":16265,"물질":16266,"출산":16267,"육성":16268,"##조가":16269,"##하긴":16270,"결과를":16271,"태어나":16272,"마찬가지로":16273,"정기":16274,"2013년":16275,"배려":16276,"시작한":16277,"비록":16278,"##힌다":16279,"되게":16280,"뭔지":16281,"스파":16282,"##트의":16283,"부처":16284,"시킨":16285,"근처":16286,"##품을":16287,"얼굴이":16288,"##력으로":16289,"편집":16290,"북한에":16291,"2015":16292,"고속":16293,"걸려":16294,"안타까":16295,"청문회":16296,"스피":16297,"로맨":16298,"무릎":16299,"##할까":16300,"옮겨":16301,"대한민국의":16302,"나라의":16303,"##계획":16304,"머물":16305,"##된다는":16306,"보고서":16307,"##비에":16308,"수백":16309,"서서":16310,"중국의":16311,"예능":16312,"##분기":16313,"1만":16314,"바탕으로":16315,"##om":16316,"전두":16317,"감독의":16318,"##아아":16319,"거다":16320,"광화문":16321,"예쁘":16322,"##래곤":16323,"##했으나":16324,"실수":16325,"취임":16326,"##인들은":16327,"##있게":16328,"주세요":16329,"차원":16330,"버섯":16331,"화이팅":16332,"네트워크":16333,"##낸다":16334,"##너무":16335,"##역을":16336,"정확히":16337,"이딴":16338,"##학과":16339,"놈이":16340,"##아님":16341,"향상":16342,"그러고":16343,"소화":16344,"하셨":16345,"작가가":16346,"맞지":16347,"한국에":16348,"합격":16349,"소프트":16350,"##위의":16351,"부채":16352,"압도":16353,"빼고":16354,"##버렸":16355,"경계":16356,"사업을":16357,"분열":16358,"빠진":16359,"것인가":16360,"이념":16361,"##해주세요":16362,"촉구":16363,"주관":16364,"많고":16365,"뮤지":16366,"##럽다":16367,"##총장":16368,"우린":16369,"대리":16370,"권한":16371,"과제":16372,"소리가":16373,"##민지":16374,"죄송":16375,"곳에":16376,"##공업":16377,"사랑하는":16378,"##발전":16379,"라도":16380,"빼앗":16381,"지금의":16382,"몇몇":16383,"2010년":16384,
[...]
